<unk>	0
<s>	0
</s>	0
ان	-0
▁ب	-1
ەو	-2
ەر	-3
▁ئ	-4
ەک	-5
ەی	-6
▁ل	-7
▁د	-8
▁ک	-9
▁و	-10
ار	-11
▁ه	-12
وو	-13
▁لە	-14
انی	-15
او	-16
ەن	-17
ای	-18
▁س	-19
▁ن	-20
تی	-21
ەم	-22
▁پ	-23
▁بە	-24
رد	-25
▁ڕ	-26
ست	-27
▁م	-28
ێک	-29
▁ت	-30
دا	-31
نی	-32
▁خ	-33
ات	-34
ەوە	-35
ام	-36
ێت	-37
▁گ	-38
▁دە	-39
ری	-40
ەڵ	-41
▁ی	-42
▁بۆ	-43
▁کە	-44
▁ئەو	-45
اری	-46
ێن	-47
▁ش	-48
ەت	-49
▁چ	-50
▁سەر	-51
اس	-52
▁کو	-53
ەکانی	-54
ین	-55
ەب	-56
▁ج	-57
▁ز	-58
اڵ	-59
ێر	-60
یی	-61
ەتی	-62
▁ئەم	-63
ەند	-64
▁کورد	-65
▁بەر	-66
ێو	-67
ەکان	-68
اد	-69
ێکی	-70
▁هەر	-71
اک	-72
از	-73
▁کۆ	-74
یان	-75
کرد	-76
▁ع	-77
▁خۆ	-78
▁له	-79
اب	-80
▁ف	-81
ەل	-82
ێم	-83
ەش	-84
ۆر	-85
ێش	-86
ەوەی	-87
کی	-88
▁ح	-89
راو	-90
ەز	-91
▁(	-92
▁2	-93
ەری	-94
مان	-95
ەکی	-96
▁1	-97
سی	-98
ەد	-99
ال	-100
▁دەک	-101
یر	-102
سەر	-103
▁ق	-104
▁"	-105
اند	-106
▁کرد	-107
ستان	-108
▁)	-109
وون	-110
اش	-111
▁یەک	-112
ون	-113
▁:	-114
▁ڕۆ	-115
ستی	-116
گەی	-117
یش	-118
▁-	-119
ەڕ	-120
▁ناو	-121
▁بک	-122
ێز	-123
اق	-124
اتی	-125
رێت	-126
▁کوردستان	-127
▁/	-128
▁دی	-129
انە	-130
ەیە	-131
▁ژ	-132
ووە	-133
ەکەی	-134
▁ئە	-135
▁خو	-136
ەنگ	-137
وم	-138
شی	-139
▁هەم	-140
ێی	-141
رۆ	-142
انەی	-143
▁ئەن	-144
ایی	-145
▁20	-146
▁هەڵ	-147
▁کۆم	-148
▁سی	-149
▁دەب	-150
لی	-151
▁دەر	-152
▁دو	-153
ەنی	-154
▁پێش	-155
ەکە	-156
ۆک	-157
ێراق	-158
▁به	-159
▁ئی	-160
رو	-161
ەخ	-162
▁ڕۆژ	-163
گر	-164
▁گو	-165
ەس	-166
ەوت	-167
ۆن	-168
بەر	-169
▁دا	-170
وان	-171
▁بەڵ	-172
شت	-173
▁عێراق	-174
▁کار	-175
▁دەست	-176
ۆی	-177
▁لەو	-178
ەه	-179
دی	-180
ێژ	-181
▁دوو	-182
اسی	-183
▁لەسەر	-184
ور	-185
اڵی	-186
▁بوو	-187
▁هاو	-188
▁وەک	-189
▁پار	-190
▁ڕا	-191
▁هەو	-192
ەست	-193
می	-194
▁لەگ	-195
ایەتی	-196
▁زۆر	-197
کردنی	-198
▁خۆی	-199
وک	-200
ارد	-201
زی	-202
▁ئام	-203
▁ئەوەی	-204
یل	-205
ایە	-206
گەر	-207
▁نو	-208
را	-209
▁لەگەڵ	-210
ێد	-211
ێست	-212
ارە	-213
کردن	-214
ڕی	-215
▁هەرێم	-216
تر	-217
مانی	-218
اوی	-219
▁هەموو	-220
یە	-221
ێب	-222
▁لەم	-223
اوە	-224
کە	-225
▁کەس	-226
ەیەکی	-227
▁ئا	-228
ییە	-229
رین	-230
▁پەی	-231
▁ئەنج	-232
هێن	-233
▁بەش	-234
▁جی	-235
▁لای	-236
وانی	-237
ید	-238
▁حک	-239
▁پەر	-240
▁دەبێت	-241
▁بەڵام	-242
▁کۆمەڵ	-243
▁ڕوو	-244
▁گر	-245
▁201	-246
امی	-247
نام	-248
▁که	-249
ەدا	-250
▁من	-251
شتی	-252
▁بەه	-253
گای	-254
ارەی	-255
▁چەند	-256
ەف	-257
▁دەکات	-258
ەمان	-259
ەوه	-260
ەق	-261
▁ئەوە	-262
گەیاند	-263
ۆڕ	-264
▁هی	-265
▁نێو	-266
ازی	-267
▁تا	-268
ێتی	-269
▁حکوم	-270
▁خەڵ	-271
اف	-272
▁،	-273
دو	-274
بوو	-275
یز	-276
▁وەز	-277
ەندی	-278
ۆکی	-279
▁بن	-280
▁نا	-281
▁سو	-282
▁هەیە	-283
یست	-284
نە	-285
▁ئێست	-286
▁بو	-287
▁وڵ	-288
ایب	-289
ڕۆ	-290
▁بێ	-291
▁یان	-292
ۆم	-293
▁زی	-294
گرت	-295
▁پێ	-296
یری	-297
▁ئاس	-298
ەیەک	-299
راوە	-300
▁پێو	-301
ەین	-302
ووی	-303
▁ڕێک	-304
اتە	-305
▁3	-306
کەوت	-307
▁بێت	-308
▁لەن	-309
بوون	-310
ژی	-311
▁دەس	-312
ڵی	-313
▁نەب	-314
گە	-315
ەمی	-316
رسی	-317
▁تی	-318
ەیان	-319
▁ئێم	-320
▁داو	-321
▁ئەگەر	-322
یستی	-323
▁ڕێ	-324
رس	-325
اریی	-326
وت	-327
▁هێز	-328
دار	-329
▁بکات	-330
▁کات	-331
▁بەڕ	-332
خو	-333
اتر	-334
▁ئیس	-335
ۆز	-336
است	-337
▁هەڵب	-338
▁مو	-339
▁باش	-340
▁ئاز	-341
▁ساڵ	-342
▁کەم	-343
▁سیاسی	-344
ەلی	-345
▁هیچ	-346
ەور	-347
▁هەرێمی	-348
ادی	-349
لای	-350
▁فەر	-351
ەکرد	-352
ووری	-353
نەوەی	-354
▁پێک	-355
ۆت	-356
ەها	-357
▁هەرو	-358
ینی	-359
دەو	-360
▁گوتی	-361
▁درو	-362
دان	-363
▁سەرۆک	-364
▁لەک	-365
▁وەر	-366
▁0	-367
▁دوای	-368
▁مان	-369
هات	-370
▁سەرۆکی	-371
▁دەو	-372
وە	-373
▁لەب	-374
ژارد	-375
▁،]	-376
▁نییە	-377
▁200	-378
▁یاس	-379
▁کاری	-380
ەج	-381
دانی	-382
▁خۆیان	-383
▁ئێستا	-384
▁نیش	-385
▁سیاس	-386
▁بوون	-387
▁چون	-388
▁هات	-389
▁شێو	-390
یت	-391
اژ	-392
▁پەرل	-393
▁کێش	-394
▁گەور	-395
▁ئای	-396
▁تایب	-397
خۆ	-398
▁ئێر	-399
▁مرۆ	-400
دە	-401
▁شار	-402
▁وڵات	-403
▁ناوچ	-404
کا	-405
▁هەول	-406
▁ئاو	-407
گی	-408
ۆری	-409
ستانی	-410
جی	-411
ێنی	-412
▁بار	-413
وونی	-414
▁لایەن	-415
▁تور	-416
▁پەیو	-417
▁بڕی	-418
▁لەبەر	-419
▁دەکەن	-420
▁دروست	-421
▁خوێن	-422
▁یەکێتی	-423
ەتە	-424
ۆڵ	-425
ووس	-426
▁هەڵبژارد	-427
▁بەو	-428
▁بەک	-429
▁بەد	-430
ەرک	-431
▁بڵ	-432
ەپ	-433
وار	-434
ەیی	-435
▁5	-436
▁می	-437
▁مرۆڤ	-438
▁دەڵ	-439
▁تەنی	-440
▁تر	-441
کاری	-442
▁دەسەڵ	-443
▁4	-444
▁ڕای	-445
▁بکەن	-446
▁نەت	-447
ەرم	-448
▁داب	-449
▁چاو	-450
▁هەب	-451
داری	-452
ێتەوە	-453
▁دەنگ	-454
گری	-455
زانی	-456
▁حکومەتی	-457
▁زیاتر	-458
▁هەروەها	-459
▁چونکە	-460
ۆل	-461
▁هەولێر	-462
لێم	-463
پی	-464
▁لەلای	-465
▁[	-466
چی	-467
▁]	-468
ێری	-469
▁سەرب	-470
وور	-471
▁تەنیا	-472
▁جیه	-473
▁ال	-474
کەی	-475
▁بەسەر	-476
▁نەک	-477
▁لێ	-478
یزب	-479
▁نی	-480
وب	-481
ۆش	-482
▁بەم	-483
▁ئەندا	-484
▁لەه	-485
ەنج	-486
ود	-487
حم	-488
▁ئێمە	-489
▁ڕۆژنام	-490
کو	-491
نەوە	-492
▁19	-493
▁ئەنجام	-494
▁هون	-495
کر	-496
ییەکان	-497
▁ڕێکخ	-498
▁یاری	-499
▁ساڵی	-500
▁ئیسل	-501
ەکانیان	-502
لێمانی	-503
▁کۆن	-504
گیر	-505
▁تەو	-506
▁بەپ	-507
▁پارێز	-508
▁ئاش	-509
▁داد	-510
▁ڕاگەیاند	-511
▁ماف	-512
▁ڕاب	-513
اوەی	-514
▁,	-515
ۆنی	-516
▁ئێران	-517
وس	-518
▁بب	-519
▁ئاماد	-520
▁ژن	-521
دات	-522
▁بەت	-523
▁جێ	-524
ەوێت	-525
▁تورکی	-526
▁پاش	-527
یانی	-528
▁گۆڕ	-529
▁حیزب	-530
▁مام	-531
▁سلێمانی	-532
تو	-533
▁تێ	-534
ەتەوە	-535
▁یەکەم	-536
ەستی	-537
▁در	-538
▁ئۆ	-539
▁پێویست	-540
▁جۆر	-541
اران	-542
▁ئاماژ	-543
▁ژم	-544
▁دەکرێت	-545
▁بیر	-546
▁کوردی	-547
▁دەگ	-548
▁دەوڵ	-549
▁زان	-550
▁بووە	-551
▁کر	-552
▁ناک	-553
کردنەوەی	-554
ادا	-555
▁بەرپ	-556
وکر	-557
▁تۆ	-558
▁بەره	-559
▁شو	-560
▁نێوان	-561
▁نە	-562
▁کردووە	-563
▁گشتی	-564
کات	-565
استی	-566
▁پی	-567
هێنانی	-568
▁لەپ	-569
▁بۆیە	-570
▁گرن	-571
▁پرۆ	-572
یەکان	-573
ەوەو	-574
▁پۆ	-575
مە	-576
ییەکانی	-577
ترین	-578
▁تاو	-579
▁بەڕێو	-580
ەرەب	-581
▁دان	-582
▁فیل	-583
▁10	-584
▁ئەنجوم	-585
زان	-586
الی	-587
▁کوردستانی	-588
▁پێی	-589
▁هەند	-590
▁لەد	-591
▁هێن	-592
▁خەڵکی	-593
▁ئار	-594
▁ئەمەری	-595
▁لی	-596
▁نەخ	-597
ردنی	-598
گو	-599
اکانی	-600
▁وە	-601
ێکدا	-602
▁شاری	-603
راوی	-604
رێن	-605
▁پارتی	-606
ێڕ	-607
دەک	-608
▁تایبەت	-609
اندنی	-610
▁لەلایەن	-611
امبەر	-612
▁لەئ	-613
▁پێن	-614
▁کەرک	-615
چاو	-616
زم	-617
▁بەردەو	-618
▁لەناو	-619
▁تاک	-620
▁خۆش	-621
وی	-622
▁دڵ	-623
▁لێک	-624
▁باس	-625
دوو	-626
▁بد	-627
▁دەت	-628
▁چوار	-629
اغ	-630
▁نیشت	-631
▁کۆت	-632
▁خوێند	-633
▁ئەنجومەنی	-634
▁مە	-635
▁دەڵێت	-636
▁6	-637
انەوە	-638
▁ڕایگەیاند	-639
▁ڕەو	-640
تە	-641
گا	-642
وڵ	-643
حەم	-644
وری	-645
▁بەن	-646
▁ڕۆژی	-647
▁بەب	-648
▁نزی	-649
ڕۆژ	-650
▁پەرلەمان	-651
▁مندا	-652
ێل	-653
▁بکرێت	-654
▁سن	-655
▁نوێن	-656
▁ئاب	-657
▁باب	-658
ارەت	-659
▁نم	-660
اندا	-661
مەر	-662
▁ڕاست	-663
ەکه	-664
▁مێژ	-665
فر	-666
▁عەرەب	-667
پەڕ	-668
▁لەس	-669
دەم	-670
▁ئەمری	-671
▁دەستی	-672
▁قس	-673
▁دەسەڵات	-674
▁جار	-675
▁شی	-676
ردوو	-677
▁بەل	-678
ەوی	-679
▁حکومەت	-680
▁بەخ	-681
▁عەب	-682
▁جیاو	-683
▁خاو	-684
وەر	-685
▁گەی	-686
کراو	-687
▁یانەی	-688
ژم	-689
ەمانی	-690
▁شت	-691
▁بەردەوام	-692
▁شەڕ	-693
▁باو	-694
▁بڕ	-695
▁تورکیا	-696
▁هەز	-697
▁خەڵک	-698
دەی	-699
▁بر	-700
ەبەر	-701
پەر	-702
▁دۆ	-703
شن	-704
▁گەر	-705
شک	-706
▁لێد	-707
▁8	-708
▁وەکو	-709
چێت	-710
▁یا	-711
▁تەم	-712
▁ئەمڕۆ	-713
ووم	-714
▁دەرب	-715
داو	-716
▁هە	-717
هەڵ	-718
▁دیک	-719
▁7	-720
▁بگ	-721
بوونی	-722
▁پێشمەر	-723
ەنگی	-724
▁پل	-725
نەی	-726
ڵاتی	-727
▁9	-728
▁بەرهەم	-729
ەرانی	-730
▁هەندێک	-731
▁کۆتایی	-732
▁دێم	-733
▁ئەوان	-734
اع	-735
▁داوای	-736
▁باڵ	-737
▁دەی	-738
▁گوت	-739
▁چی	-740
▁دام	-741
▁تری	-742
ەشی	-743
▁سێ	-744
خی	-745
▁ئەر	-746
تان	-747
اکی	-748
▁پرسی	-749
▁وت	-750
▁بەهۆی	-751
تەر	-752
پانی	-753
▁پەیوەند	-754
▁بەڵکو	-755
ێنێت	-756
▁سەب	-757
▁ئەک	-758
▁بەرامبەر	-759
▁تون	-760
▁;	-761
اه	-762
▁ئەمە	-763
▁ئین	-764
▁کەرکوک	-765
▁11	-766
▁گەل	-767
▁هەوڵ	-768
▁ماڵ	-769
▁قور	-770
▁تێک	-771
▁دێموکر	-772
▁گۆڕان	-773
▁گەش	-774
▁ئازاد	-775
▁ناب	-776
▁باز	-777
حمەد	-778
▁12	-779
▁پڕۆژ	-780
ارەتی	-781
▁بی	-782
▁تۆم	-783
▁منداڵ	-784
▁دانی	-785
▁ناوی	-786
▁شان	-787
▁&	-788
ێشت	-789
▁پێد	-790
بانی	-791
▁بەغ	-792
کار	-793
▁سوپ	-794
▁یەکێک	-795
▁2010	-796
▁بڵاو	-797
▁مەس	-798
ەگ	-799
ەیر	-800
▁نەتەوەی	-801
▁تەن	-802
▁نوێ	-803
▁لەوە	-804
▁ئەمەریکا	-805
▁هەردوو	-806
ەکەدا	-807
حەمەد	-808
زگ	-809
▁ئیسلامی	-810
▁مەب	-811
▁زۆری	-812
▁پاڵ	-813
▁کردنی	-814
▁ئەحمەد	-815
▁لەڕ	-816
▁هۆی	-817
ەع	-818
▁داهات	-819
▁دەم	-820
▁بز	-821
▁ئازادی	-822
▁ڤ	-823
ەران	-824
▁ئەڵ	-825
▁چەندین	-826
ۆست	-827
▁شوێن	-828
▁ڕابردوو	-829
▁ئەمەش	-830
▁عەبدو	-831
▁بری	-832
▁ملی	-833
▁ژیان	-834
روپ	-835
▁سەرکەوت	-836
▁تو	-837
▁2011	-838
__	-839
▁شێ	-840
▁وێن	-841
نیش	-842
▁عێراقی	-843
▁بەدەست	-844
▁هەزار	-845
▁نوو	-846
▁ئەل	-847
خان	-848
▁هەڵبژاردن	-849
▁بەرەو	-850
▁بکەین	-851
▁چۆن	-852
▁با	-853
▁چەک	-854
ەکاندا	-855
▁گۆ	-856
▁بەشداری	-857
▁ئاژ	-858
▁زانی	-859
یەکانی	-860
▁بەئ	-861
▁وەزارەتی	-862
▁نەو	-863
▁دای	-864
ونی	-865
▁وەزیر	-866
▁مەر	-867
▁بەرز	-868
▁دەد	-869
▁وەزیری	-870
▁ڕی	-871
▁شەه	-872
▁سەبارەت	-873
▁بەپێی	-874
▁هەی	-875
بار	-876
ارەسەر	-877
▁سین	-878
ەوانی	-879
▁سەد	-880
بوونەوەی	-881
▁پەرلەمانی	-882
شتن	-883
انگ	-884
▁پێویستە	-885
ەبی	-886
▁لەنێو	-887
ێبەج	-888
بێت	-889
ووت	-890
▁گرت	-891
ۆناغ	-892
▁بوونی	-893
ایش	-894
انسی	-895
▁بارزانی	-896
▁چال	-897
▁عەلی	-898
▁ژمارەی	-899
▁\	-900
قی	-901
▁بەکار	-902
▁هەڵو	-903
▁پەیام	-904
▁سیست	-905
▁یەکگرت	-906
ەندە	-907
پەی	-908
▁–	-909
▁فەرمان	-910
▁چارەسەر	-911
▁بەشی	-912
▁هێر	-913
▁داع	-914
▁لەش	-915
انەوەی	-916
ێڵ	-917
ول	-918
ێوە	-919
▁گەڕ	-920
راون	-921
▁ماوەی	-922
کۆ	-923
▁*	-924
▁دژ	-925
ەکەیان	-926
▁جیهانی	-927
▁بەغدا	-928
بەی	-929
▁مافی	-930
▁پرۆس	-931
فی	-932
▁ژیانی	-933
▁جیاواز	-934
▁نیشتمانی	-935
ورد	-936
▁جێبەج	-937
▁درێژ	-938
▁خزم	-939
▁دووەم	-940
▁نووس	-941
▁گون	-942
وانێت	-943
▁گوتیشی	-944
بی	-945
▁سەرکرد	-946
اوو	-947
▁کەل	-948
▁پۆلی	-949
▁گرنگ	-950
▁هۆک	-951
▁کاتێک	-952
▁داعش	-953
▁ڕو	-954
▁پەیوەندی	-955
▁گۆر	-956
▁نات	-957
▁ئەد	-958
▁پڕ	-959
اپ	-960
گەری	-961
ینە	-962
▁ڕۆشن	-963
▁ئەی	-964
▁بەتایب	-965
▁هەبێت	-966
▁ناس	-967
▁محەمەد	-968
▁سوری	-969
▁ئاماژەی	-970
▁جەم	-971
ینەوەی	-972
▁دامەز	-973
ەفت	-974
▁تەق	-975
▁یاسای	-976
▁دیاری	-977
وز	-978
▁تەواو	-979
▁هەمیش	-980
▁دەن	-981
▁قۆناغ	-982
چوو	-983
▁14	-984
ەکردنی	-985
▁کەوت	-986
▁کۆمەڵایەتی	-987
اقی	-988
▁پشت	-989
▁بنەم	-990
▁ئەوەش	-991
ئاو	-992
▁غ	-993
لا	-994
ڵا	-995
ەتا	-996
▁پیاو	-997
▁دیکە	-998
▁کاتی	-999
▁ڕاستی	-1000
▁توان	-1001
ەلا	-1002
خست	-1003
▁دار	-1004
▁ئەوا	-1005
▁ڕاپ	-1006
▁شۆڕ	-1007
▁15	-1008
انیش	-1009
▁خان	-1010
▁هەمان	-1011
شتنی	-1012
▁پێشک	-1013
ot	-1014
▁نزیک	-1015
▁باسی	-1016
▁لیژ	-1017
▁قوت	-1018
▁مامۆست	-1019
▁ئیسلام	-1020
▁بەرنام	-1021
▁پیر	-1022
لم	-1023
انه	-1024
▁وا	-1025
▁چار	-1026
جەم	-1027
▁2012	-1028
توگ	-1029
▁لاو	-1030
▁دەرەوەی	-1031
▁لێر	-1032
▁ئەوەیە	-1033
▁ئەمریکا	-1034
ێنێ	-1035
▁خۆپ	-1036
▁نەبێت	-1037
اکان	-1038
کردەوە	-1039
▁ست	-1040
▁h	-1041
▁شەهید	-1042
▁گف	-1043
▁بڕیار	-1044
▁ڕوون	-1045
▁دیم	-1046
▁خست	-1047
▁ڕەنگ	-1048
▁دژی	-1049
▁پارێزگ	-1050
▁ماد	-1051
ژەو	-1052
ێکە	-1053
ینەوە	-1054
▁پێویستی	-1055
▁تایبەتی	-1056
گرن	-1057
حی	-1058
▁بەوە	-1059
▁بەرپرس	-1060
▁مەد	-1061
▁مەت	-1062
اندن	-1063
کرا	-1064
▁دەیان	-1065
▁بەلام	-1066
ۆشی	-1067
▁کۆمپانی	-1068
▁زین	-1069
▁دەکەین	-1070
▁ئەب	-1071
تێب	-1072
▁ڕۆژنامەن	-1073
▁هەنگ	-1074
▁فر	-1075
▁هێزەکانی	-1076
▁17	-1077
ایەکی	-1078
▁ماو	-1079
▁خاڵ	-1080
▁موس	-1081
▁دوور	-1082
▁نام	-1083
▁18	-1084
وانن	-1085
ایەوە	-1086
ەبەری	-1087
گەیەن	-1088
▁دنی	-1089
▁دەکرد	-1090
▁کەن	-1091
li	-1092
ایان	-1093
▁16	-1094
▁کچ	-1095
▁خولی	-1096
▁ڕەخ	-1097
کت	-1098
▁قوتاب	-1099
ێنن	-1100
▁هاوو	-1101
یانە	-1102
رێ	-1103
▁کور	-1104
پێک	-1105
ێتە	-1106
وود	-1107
▁بەرپرسی	-1108
▁توانی	-1109
▁ڕۆشنب	-1110
چوون	-1111
▁ئابووری	-1112
▁2009	-1113
▁نەد	-1114
▁ئۆپ	-1115
ێرد	-1116
▁فیلمی	-1117
سیۆن	-1118
خواز	-1119
ەوان	-1120
▁کردوو	-1121
▁ئیم	-1122
▁میل	-1123
▁ڕژ	-1124
▁سەرچاو	-1125
▁کتێب	-1126
▁دەوڵەتی	-1127
جار	-1128
گیری	-1129
▁'	-1130
▁واتە	-1131
▁هەن	-1132
▁ئەز	-1133
ۆزی	-1134
▁تاوان	-1135
یشاند	-1136
گرتنی	-1137
▁هونەرم	-1138
▁گفتوگ	-1139
▁ژێر	-1140
▁ئاستی	-1141
ێوەی	-1142
یانەی	-1143
▁لیستی	-1144
ێمی	-1145
ارم	-1146
نا	-1147
یەک	-1148
▁ئامان	-1149
▁بین	-1150
ێژی	-1151
▁سەرۆکایەتی	-1152
▁تیرۆ	-1153
دەوڵ	-1154
رێتەوە	-1155
▁یاریی	-1156
▁لەر	-1157
▁کۆماری	-1158
بک	-1159
ایەی	-1160
▁پارێزگای	-1161
▁زمان	-1162
▁ول	-1163
▁خاوەن	-1164
▁دەسەڵاتی	-1165
▁جیهان	-1166
ند	-1167
▁کراوە	-1168
▁ئەندامی	-1169
▁پەیامن	-1170
▁دەدات	-1171
▁30	-1172
▁پشتی	-1173
▁تەند	-1174
▁هاوپەی	-1175
انەت	-1176
▁هەست	-1177
ارەکانی	-1178
▁پەن	-1179
▁کێشەی	-1180
qu	-1181
ەشت	-1182
▁کام	-1183
ییەوە	-1184
ەخت	-1185
▁گەورە	-1186
▁سەربەخ	-1187
▁13	-1188
▁دەوڵەت	-1189
▁سینەم	-1190
▁حەم	-1191
▁تێدا	-1192
▁ئەف	-1193
▁ئایا	-1194
▁دوا	-1195
▁ئاڵ	-1196
چوونی	-1197
▁تیرۆری	-1198
▁فیلم	-1199
▁بخ	-1200
▁کۆنگر	-1201
▁گەرم	-1202
▁داواک	-1203
▁بڕیاری	-1204
▁ڕاد	-1205
▁2014	-1206
▁وەڵ	-1207
جە	-1208
▁بەرژەو	-1209
▁بەهێز	-1210
▁ڕێکخراو	-1211
▁کەر	-1212
▁هێزی	-1213
افی	-1214
▁مەسەل	-1215
▁هێرش	-1216
▁گەلی	-1217
▁حیزبی	-1218
▁نەخۆش	-1219
بەری	-1220
ردن	-1221
▁چاک	-1222
▁جەل	-1223
سان	-1224
▁نەبوو	-1225
▁بەج	-1226
ەیت	-1227
▁زمانی	-1228
▁پێشکەش	-1229
▁ئاگ	-1230
دەوڵەتی	-1231
▁برین	-1232
▁2008	-1233
▁نوێی	-1234
▁ژنان	-1235
▁ڕێگەی	-1236
▁ئەوانەی	-1237
ۆس	-1238
▁پەروەر	-1239
▁ئەویش	-1240
▁تەندرو	-1241
▁بت	-1242
an	-1243
▁نەم	-1244
▁کردن	-1245
▁مەک	-1246
▁بواری	-1247
▁ناوب	-1248
عر	-1249
▁دیکەی	-1250
بە	-1251
ایشی	-1252
▁خرا	-1253
یەوە	-1254
▁مێژوو	-1255
▁هەمیشە	-1256
▁بەس	-1257
▁کەو	-1258
ەختی	-1259
دوای	-1260
▁ڕووداو	-1261
▁قوربانی	-1262
▁بەرگری	-1263
▁بدات	-1264
لە	-1265
▁ملیۆن	-1266
ەکانیش	-1267
re	-1268
▁یەکگرتوو	-1269
▁جۆرە	-1270
▁خەب	-1271
▁ناز	-1272
▁شک	-1273
▁خۆم	-1274
ەکەمان	-1275
ابوو	-1276
▁خۆپیشاند	-1277
▁ڕێژ	-1278
▁لەبارەی	-1279
▁نەه	-1280
▁دەخ	-1281
▁پاراست	-1282
▁c	-1283
▁دواتر	-1284
یستیڤ	-1285
▁وڵاتانی	-1286
▁سیاسیی	-1287
دایە	-1288
ئەوەی	-1289
▁نیی	-1290
▁فید	-1291
▁سەرەت	-1292
▁پیش	-1293
▁مانگ	-1294
▁فی	-1295
تری	-1296
▁خزمەت	-1297
▁داهاتوو	-1298
▁تەنانەت	-1299
▁نێودەوڵەتی	-1300
پرس	-1301
ێکیان	-1302
وونە	-1303
▁%	-1304
▁سەرد	-1305
▁هەل	-1306
▁نەوت	-1307
▁پرۆسەی	-1308
▁کۆب	-1309
اخ	-1310
شەم	-1311
ەنە	-1312
▁سەرەکی	-1313
▁ڕزگ	-1314
وای	-1315
▁ئاژانسی	-1316
لان	-1317
▁بەع	-1318
انس	-1319
▁ئافر	-1320
▁تۆمار	-1321
▁ئەمنی	-1322
▁چالاک	-1323
انیان	-1324
▁حەس	-1325
▁کرا	-1326
▁هەواڵی	-1327
▁خۆمان	-1328
▁جگە	-1329
▁تەواوی	-1330
▁حکووم	-1331
▁فیستیڤ	-1332
▁سەردانی	-1333
▁دین	-1334
▁ئەس	-1335
▁پێکهات	-1336
ییەکی	-1337
اشی	-1338
ارێکی	-1339
خانەی	-1340
▁حز	-1341
▁وش	-1342
نج	-1343
▁بەشێو	-1344
▁هێشت	-1345
ڤی	-1346
▁هەواڵ	-1347
00	-1348
کەوتن	-1349
on	-1350
▁عەرەبی	-1351
▁لەنێوان	-1352
▁تاز	-1353
▁مانگی	-1354
▁پێشمەرگە	-1355
▁ئەنف	-1356
▁سوریا	-1357
▁مەز	-1358
▁ڕە	-1359
▁دەنگی	-1360
خۆی	-1361
▁ڕێز	-1362
له	-1363
گرتن	-1364
▁هونەر	-1365
▁بۆی	-1366
وا	-1367
▁ئاشکر	-1368
▁هاوکاری	-1369
ابی	-1370
▁ڕووی	-1371
▁هونەری	-1372
om	-1373
▁ناڕ	-1374
▁بود	-1375
▁وڵاتی	-1376
▁25	-1377
شدا	-1378
▁گەنج	-1379
▁دەز	-1380
▁ده	-1381
▁کوژ	-1382
▁زیاد	-1383
▁بانگ	-1384
▁تەندروستی	-1385
▁ڕاپۆر	-1386
یم	-1387
▁نای	-1388
▁ئەوروپ	-1389
رگ	-1390
▁بابەت	-1391
▁هاوب	-1392
وانین	-1393
▁qu	-1394
▁خۆر	-1395
▁مەبەست	-1396
▁نووسەر	-1397
▁quot	-1398
▁بینی	-1399
امان	-1400
کەر	-1401
▁ڕێگای	-1402
▁فەل	-1403
▁ئەندام	-1404
▁سوپای	-1405
دەب	-1406
ودۆ	-1407
▁تێی	-1408
▁ڕەش	-1409
▁لەوەی	-1410
▁گەیشت	-1411
▁سیاسەت	-1412
▁ئۆت	-1413
▁هاوڵاتی	-1414
▁گۆرانی	-1415
ینەی	-1416
▁سەرجەم	-1417
▁پێنج	-1418
▁سەی	-1419
▁بای	-1420
▁جەماو	-1421
▁ساز	-1422
▁ڕۆژهەڵ	-1423
▁لێکۆڵ	-1424
▁ئەزم	-1425
▁تەل	-1426
▁چاود	-1427
▁دابەش	-1428
▁کردەوە	-1429
▁کی	-1430
کاریی	-1431
▁ئەنجامی	-1432
اڕ	-1433
▁مۆ	-1434
گوز	-1435
▁نەتەوەیی	-1436
▁لەت	-1437
▁بەتایبەتی	-1438
▁یە	-1439
▁شەم	-1440
ایت	-1441
▁فیدر	-1442
▁کرێک	-1443
اتەوە	-1444
▁کاک	-1445
▁نەکرد	-1446
▁سەع	-1447
▁هەبوو	-1448
▁دەستگیر	-1449
▁تاڵ	-1450
یشی	-1451
▁دەزان	-1452
el	-1453
ێند	-1454
وڕ	-1455
مانە	-1456
ییان	-1457
▁دەبین	-1458
سا	-1459
ەکەم	-1460
▁شۆڕش	-1461
▁هونەرمەند	-1462
▁وای	-1463
▁بچ	-1464
▁شیع	-1465
▁هاووڵاتی	-1466
▁بەگ	-1467
ژێر	-1468
▁ڕێکخراوی	-1469
▁هەرچ	-1470
▁خول	-1471
▁هەفت	-1472
▁شەر	-1473
▁لێدوان	-1474
▁ڕۆژئاو	-1475
▁زۆربەی	-1476
کردووە	-1477
ێچ	-1478
▁خێز	-1479
جەی	-1480
▁کراو	-1481
▁ئەنفال	-1482
▁لەچ	-1483
▁کەسی	-1484
▁پاراستنی	-1485
▁بارودۆ	-1486
▁دکت	-1487
ێنە	-1488
ارانی	-1489
یتانی	-1490
▁پێم	-1491
▁چاوەڕ	-1492
▁ئافرەت	-1493
▁ئاشتی	-1494
ەموو	-1495
هێنان	-1496
▁بەڕێز	-1497
ادر	-1498
▁بریندار	-1499
ڕینی	-1500
▁توندو	-1501
▁ئاگاد	-1502
▁سەرباز	-1503
▁دانیشت	-1504
▁بەریتانی	-1505
▁هەڵبژاردنی	-1506
▁موسڵ	-1507
▁هاوکات	-1508
▁باک	-1509
▁حوک	-1510
▁خراپ	-1511
▁ڕۆڵی	-1512
ەدە	-1513
▁پر	-1514
▁21	-1515
▁ئێو	-1516
▁بەبێ	-1517
انەدا	-1518
▁کەسێک	-1519
▁وات	-1520
▁مال	-1521
▁دوێنێ	-1522
ۆیی	-1523
____	-1524
ەکەش	-1525
▁ئۆتۆم	-1526
▁جێی	-1527
▁تێیدا	-1528
▁گەورەی	-1529
ووسی	-1530
▁تەر	-1531
en	-1532
ها	-1533
ەقام	-1534
▁توێژ	-1535
ەکردن	-1536
▁وایە	-1537
▁کوردستاندا	-1538
▁عەبدول	-1539
▁دۆل	-1540
▁بەڕێوەبەری	-1541
▁بریتی	-1542
▁أ	-1543
گرێت	-1544
یەکی	-1545
▁خوار	-1546
▁بازرگ	-1547
سر	-1548
▁جەلال	-1549
وایە	-1550
▁توو	-1551
▁جوان	-1552
▁لێی	-1553
▁چین	-1554
▁2013	-1555
▁یاسایی	-1556
▁فڕ	-1557
▁سەرم	-1558
اتری	-1559
ەسەند	-1560
ەون	-1561
ێستی	-1562
اجی	-1563
▁جێگری	-1564
▁بەناوی	-1565
▁دەکەم	-1566
▁تیر	-1567
▁لەهەر	-1568
▁لێب	-1569
▁ناوەڕ	-1570
▁بەشێکی	-1571
▁یاسا	-1572
▁شاع	-1573
▁حەسەن	-1574
▁دەبێتە	-1575
▁سرو	-1576
▁هێزە	-1577
▁دێت	-1578
ۆژی	-1579
▁ناوخۆ	-1580
▁جو	-1581
▁سز	-1582
▁داوە	-1583
▁پاک	-1584
▁ستر	-1585
▁تە	-1586
▁زانیاری	-1587
▁هەوڵی	-1588
▁ئاست	-1589
عی	-1590
▁هاوپەیمانی	-1591
ڕەو	-1592
▁دیار	-1593
▁بەشدار	-1594
▁دکتۆر	-1595
▁مار	-1596
▁ڕەس	-1597
دەر	-1598
▁مێژووی	-1599
▁بارەی	-1600
▁شەڕی	-1601
ومەر	-1602
▁ڕۆشنبیری	-1603
▁کان	-1604
▁گرف	-1605
کێش	-1606
تەری	-1607
مەند	-1608
▁خۆیدا	-1609
▁میدی	-1610
ەندا	-1611
ێین	-1612
▁ئۆپۆز	-1613
پار	-1614
▁هێشتا	-1615
▁قەیر	-1616
▁ڕاو	-1617
▁جێبەجێک	-1618
▁دێموکراتی	-1619
مەد	-1620
ar	-1621
▁هاوڕ	-1622
▁سەربازی	-1623
▁سێی	-1624
نامەی	-1625
▁بدەن	-1626
▁کۆبوون	-1627
▁ئەست	-1628
▁تێد	-1629
▁سەرچ	-1630
چە	-1631
ێگەی	-1632
▁لیژنەی	-1633
▁بەدی	-1634
▁دایک	-1635
ەڕەش	-1636
ەزای	-1637
▁نابێت	-1638
▁کل	-1639
یراق	-1640
▁گیانی	-1641
مه	-1642
▁داگیر	-1643
▁نووسین	-1644
▁کاریگەر	-1645
▁باوەڕ	-1646
▁22	-1647
▁بەز	-1648
▁نوێنەرانی	-1649
▁هەنگاو	-1650
▁پشتیوانی	-1651
سیۆنی	-1652
▁گرنگی	-1653
واز	-1654
▁بەشێک	-1655
سانی	-1656
▁دەڵێن	-1657
گێڕ	-1658
ارەکان	-1659
ران	-1660
▁ە	-1661
ەدان	-1662
ڤان	-1663
▁چەکدار	-1664
▁هەژ	-1665
▁کۆمەڵگای	-1666
ەوێ	-1667
▁ناوچەی	-1668
واری	-1669
▁24	-1670
ئێست	-1671
ەقی	-1672
▁پیرۆز	-1673
داوە	-1674
▁گەڵ	-1675
▁دامەزر	-1676
ۆژ	-1677
▁دابین	-1678
▁توندوتی	-1679
▁دێموکراسی	-1680
کۆی	-1681
▁دیموکر	-1682
▁خوارد	-1683
▁ئاک	-1684
ەلام	-1685
▁شوێنی	-1686
شە	-1687
▁ورد	-1688
▁ترس	-1689
▁کۆمەڵێک	-1690
▁ئەت	-1691
سپ	-1692
▁ئاسایشی	-1693
ساڵ	-1694
▁نەی	-1695
▁دەسەل	-1696
▁زانستی	-1697
ێرەی	-1698
ەرە	-1699
▁ئەڵمانی	-1700
▁عوس	-1701
▁23	-1702
▁ڕۆژنامەنووس	-1703
ەبانی	-1704
خود	-1705
▁لا	-1706
▁کۆبوونەوەی	-1707
▁هەڵەب	-1708
▁باشترین	-1709
ێس	-1710
▁ئەندامانی	-1711
▁تورک	-1712
یدی	-1713
▁شەو	-1714
▁شتێک	-1715
▁ئۆتۆمب	-1716
▁تیرۆر	-1717
▁کەسایەتی	-1718
ەکات	-1719
▁مەترسی	-1720
▁خۆشەو	-1721
▁یەکێتیی	-1722
▁باڵای	-1723
er	-1724
▁com	-1725
▁مەبەستی	-1726
▁خاوەنی	-1727
▁دروستکردنی	-1728
▁کەچی	-1729
▁برد	-1730
یس	-1731
▁مەدەنی	-1732
ۆچ	-1733
▁پۆلیسی	-1734
▁مەکت	-1735
تا	-1736
▁لایەنە	-1737
▁ڕۆژهەڵاتی	-1738
ەکانمان	-1739
▁سیاسەتی	-1740
وەری	-1741
▁بەی	-1742
▁نزیکەی	-1743
انێکی	-1744
▁»	-1745
ەخش	-1746
▁تێب	-1747
خستنی	-1748
▁باشتر	-1749
▁سەرکردایەتی	-1750
▁هەڵس	-1751
▁دیارە	-1752
▁قۆناغی	-1753
▁وەزیرانی	-1754
▁جەنگ	-1755
▁هاتووە	-1756
▁چیر	-1757
▁ئید	-1758
چەی	-1759
▁پێشتر	-1760
▁ژمارەیەک	-1761
▁یاخود	-1762
ەسەری	-1763
انەش	-1764
رائ	-1765
ووک	-1766
▁بەشێوەیەکی	-1767
▁ڕاگەیاندنی	-1768
ردا	-1769
▁پرس	-1770
▁پاس	-1771
▁یاریزانی	-1772
▁پەیامنێر	-1773
ارمەتی	-1774
ەکەت	-1775
▁ڕوونی	-1776
ادەی	-1777
استەی	-1778
بن	-1779
▁ڕەنگە	-1780
ۆتەوە	-1781
▁ڕژێمی	-1782
▁ڕێژەی	-1783
▁ڕۆڵ	-1784
▁ڕاگەیاندن	-1785
اکە	-1786
▁حاڵ	-1787
▁پڕۆژەی	-1788
▁نمایش	-1789
بڕ	-1790
▁وەرز	-1791
▁پۆلیس	-1792
▁سال	-1793
ەمبەر	-1794
▁فرۆ	-1795
▁ئامانج	-1796
ەمین	-1797
▁دەهێن	-1798
کراوە	-1799
▁پرسیار	-1800
هەوێت	-1801
elli	-1802
▁خەڵاتی	-1803
▁دەدەن	-1804
▁کاریگەری	-1805
ellip	-1806
▁hellip	-1807
▁لەکاتی	-1808
▁دەگەڕ	-1809
▁دەچێت	-1810
▁چاودێری	-1811
▁هەتا	-1812
کردنەوە	-1813
وباری	-1814
▁ڕووب	-1815
▁سۆ	-1816
پەڕی	-1817
ایک	-1818
▁خێر	-1819
ەکانەوە	-1820
▁پاشان	-1821
ەژ	-1822
ەڵی	-1823
▁نین	-1824
▁ئیتر	-1825
▁بازرگانی	-1826
▁مالی	-1827
▁یەکەمی	-1828
▁هۆکاری	-1829
▁عێراقدا	-1830
ەڕوو	-1831
▁دەبن	-1832
▁شاعیر	-1833
▁کردو	-1834
ەکەیدا	-1835
▁چاپ	-1836
دانەوەی	-1837
ەوتن	-1838
که	-1839
▁بزووت	-1840
▁گەند	-1841
▁باری	-1842
▁فیستیڤاڵی	-1843
▁نر	-1844
▁ژمار	-1845
▁لایەنی	-1846
▁دەتوانێت	-1847
▁ص	-1848
بینی	-1849
▁پێشنی	-1850
▁دهۆک	-1851
ێکیش	-1852
▁گەرمیان	-1853
▁یارمەتی	-1854
▁پرۆژ	-1855
▁خوا	-1856
▁ا	-1857
تن	-1858
▁خەل	-1859
▁پەرلەمانت	-1860
▁ڕابردوودا	-1861
ووه	-1862
▁نووسی	-1863
سەف	-1864
ەکو	-1865
▁حوس	-1866
ەگەز	-1867
ایەک	-1868
▁کارەب	-1869
▁مەحم	-1870
▁قەر	-1871
ەیەدا	-1872
▁هەستی	-1873
▁ئاسایی	-1874
▁ئاشکرا	-1875
▁بکەم	-1876
▁نیو	-1877
▁27	-1878
ەبەرایەتی	-1879
▁دەری	-1880
▁شێوەی	-1881
▁مالکی	-1882
▁دارایی	-1883
بارەی	-1884
▁ئەوروپا	-1885
▁ملم	-1886
تیار	-1887
▁ئامادەب	-1888
▁=	-1889
st	-1890
▁سنووری	-1891
▁توند	-1892
▁دەستەی	-1893
▁تاڵەبانی	-1894
▁یاریزان	-1895
▁ڕێب	-1896
جۆر	-1897
▁مەکتەبی	-1898
کری	-1899
▁زەر	-1900
▁ئاین	-1901
▁دۆز	-1902
▁لەق	-1903
▁26	-1904
▁کردنەوەی	-1905
▁بەیەک	-1906
رە	-1907
▁ناکات	-1908
▁کۆمەڵگەی	-1909
▁کاند	-1910
ائ	-1911
▁وەڵام	-1912
▁ستراتی	-1913
▁199	-1914
کان	-1915
▁لەخ	-1916
▁نەوتی	-1917
▁لێرەدا	-1918
il	-1919
▁بەعس	-1920
▁بزوت	-1921
بون	-1922
▁لەژێر	-1923
▁لەکات	-1924
▁هۆ	-1925
▁بەرژەوەندی	-1926
▁هەڕەش	-1927
▁28	-1928
▁خوێندن	-1929
▁ڕێکخست	-1930
▁بەیان	-1931
▁S	-1932
ەوتی	-1933
تەوە	-1934
▁ناوبراو	-1935
▁خودی	-1936
▁سەردەم	-1937
▁کردوە	-1938
▁لێپرس	-1939
▁شەش	-1940
▁شێعر	-1941
کەوتنی	-1942
نان	-1943
ستەف	-1944
▁ئێستاش	-1945
ێنم	-1946
▁مامەڵ	-1947
▁دیارد	-1948
▁ئیسرائ	-1949
پێش	-1950
▁کۆنت	-1951
ێنێتەوە	-1952
▁فەلسەف	-1953
▁جیاوازی	-1954
▁بەرهەمی	-1955
▁زەوی	-1956
راوان	-1957
▁ناوەندی	-1958
زیش	-1959
▁لەدەست	-1960
▁فەره	-1961
▁ناچ	-1962
▁دێ	-1963
اگ	-1964
▁بەوەی	-1965
▁فەرەن	-1966
▁کاتژم	-1967
▁دڵنی	-1968
▁پۆست	-1969
یاندا	-1970
اڵە	-1971
▁سەن	-1972
▁ڕاپۆرت	-1973
▁دەش	-1974
▁لەع	-1975
▁بل	-1976
دای	-1977
▁دەزگای	-1978
▁مەلا	-1979
▁کوڕ	-1980
▁مەی	-1981
چێوەی	-1982
▁خەری	-1983
ەنجام	-1984
گومان	-1985
ۆتە	-1986
ئێستا	-1987
▁نموونە	-1988
▁ڕۆژنامەی	-1989
▁جارێکی	-1990
▁تۆپی	-1991
▁تاکو	-1992
▁دوژم	-1993
ۆرین	-1994
▁ولات	-1995
▁بۆم	-1996
▁تەلەف	-1997
▁هاوبەش	-1998
ەتێکی	-1999
▁تەمەن	-2000
▁گفتوگۆ	-2001
▁توانای	-2002
or	-2003
▁گەورەت	-2004
▁پێچ	-2005
وێن	-2006
▁کەی	-2007
سیا	-2008
▁ئێوە	-2009
▁ناکرێت	-2010
▁لەدوای	-2011
اتوو	-2012
▁چەم	-2013
▁سەری	-2014
▁گروپ	-2015
▁بم	-2016
دەن	-2017
▁کاروباری	-2018
▁ئیر	-2019
▁پێکهێنانی	-2020
▁ئەرک	-2021
▁کەری	-2022
لەی	-2023
▁ڕاستەو	-2024
▁ڕزگار	-2025
ەپێد	-2026
▁جێگەی	-2027
▁ئەرکی	-2028
▁چارەسەری	-2029
"،	-2030
▁بەست	-2031
▁دەکاتەوە	-2032
▁ئاسایش	-2033
وچ	-2034
▁وڵاتە	-2035
تۆ	-2036
▁سون	-2037
▁پەناب	-2038
▁بەرنامەی	-2039
▁پێیان	-2040
ایانی	-2041
▁نوس	-2042
▁لەیەک	-2043
ەکاری	-2044
▁حزب	-2045
▁قەڵ	-2046
▁کۆمپانیای	-2047
▁تەک	-2048
▁کورت	-2049
▁حەز	-2050
▁ژین	-2051
▁میلل	-2052
▁کۆبانی	-2053
▁دیال	-2054
بۆ	-2055
▁سەیر	-2056
▁داوا	-2057
▁مالیکی	-2058
ەبەستی	-2059
▁بۆئەوەی	-2060
وپ	-2061
▁بەڕێوە	-2062
ایینی	-2063
▁ئۆپۆزسیۆن	-2064
▁دەکەوێت	-2065
▁شێخ	-2066
▁لەبەردەم	-2067
▁عوسمان	-2068
▁فڕۆک	-2069
▁مستەف	-2070
دەد	-2071
▁ڕێگ	-2072
هێنەر	-2073
▁پایت	-2074
ارو	-2075
▁لەپێن	-2076
▁دوایی	-2077
عری	-2078
▁w	-2079
▁ململان	-2080
▁کۆمەڵگ	-2081
▁پێکەوە	-2082
انێ	-2083
▁نیە	-2084
▁گشتیی	-2085
in	-2086
▁A	-2087
▁عەق	-2088
▁دەچ	-2089
▁بیست	-2090
▁بەتایبەت	-2091
▁ڕاپەڕ	-2092
گەیەنێت	-2093
▁هەروەک	-2094
نه	-2095
ادە	-2096
▁بەناو	-2097
▁2007	-2098
▁کارێکی	-2099
▁شانۆ	-2100
▁29	-2101
▁مامۆستا	-2102
▁نەتەوە	-2103
اره	-2104
ەمە	-2105
▁شتێکی	-2106
▁ڕەت	-2107
▁بێگومان	-2108
▁ئاوێن	-2109
▁کەئ	-2110
▁سای	-2111
▁بودجەی	-2112
▁پزیش	-2113
▁هەڵوێست	-2114
فەر	-2115
▁ڕەگەز	-2116
ەستە	-2117
▁پێب	-2118
▁بۆچی	-2119
▁چارەن	-2120
انەیە	-2121
▁بەدا	-2122
▁پلەی	-2123
▁خەبات	-2124
ەدات	-2125
▁سروشتی	-2126
زیک	-2127
بارە	-2128
▁لەساڵی	-2129
▁مەسەلەی	-2130
▁بەمەبەستی	-2131
▁وەزیران	-2132
▁ئەمساڵ	-2133
دۆ	-2134
▁سەرکەوتنی	-2135
پارێز	-2136
▁هەڵبژاردەی	-2137
▁حکوومەتی	-2138
▁ئابوری	-2139
دەکات	-2140
▁ئیت	-2141
▁موو	-2142
▁دەڕ	-2143
اچ	-2144
▁ناوچە	-2145
هێنی	-2146
عود	-2147
▁بابەتی	-2148
▁بەردەم	-2149
▁دەتوانن	-2150
ناک	-2151
▁کارەس	-2152
▁پێشمەرگەی	-2153
▁وەرب	-2154
ەته	-2155
▁گوند	-2156
ەندیی	-2157
▁ڕاستەق	-2158
ۆڤ	-2159
▁قادر	-2160
▁دەرەوە	-2161
▁مت	-2162
▁ڕەز	-2163
▁ساڵح	-2164
▁زیندانی	-2165
▁بەریتانیا	-2166
▁دەربارەی	-2167
▁هەبووە	-2168
▁چالاکی	-2169
▁چەپ	-2170
▁چارەسەرکردنی	-2171
▁کاتژمێر	-2172
▁میسر	-2173
ارێک	-2174
▁بێد	-2175
▁پێغ	-2176
کانی	-2177
▁تریش	-2178
▁بزووتنەوەی	-2179
▁بدرێت	-2180
▁نازان	-2181
رم	-2182
زە	-2183
غان	-2184
▁ژمارە	-2185
▁زانکۆی	-2186
یروان	-2187
▁سە	-2188
▁کێ	-2189
وژ	-2190
▁پش	-2191
ابوون	-2192
▁دەق	-2193
▁سیستەمی	-2194
▁«	-2195
▁کاب	-2196
▁کۆمەل	-2197
▁شارۆچ	-2198
▁لەکورد	-2199
کای	-2200
▁باڵی	-2201
▁شێوە	-2202
ەڵب	-2203
نیشان	-2204
▁خۆپیشاندان	-2205
خۆش	-2206
▁ئیسرائیل	-2207
▁دادەن	-2208
ەکەوە	-2209
▁ئەوەشی	-2210
روپی	-2211
بو	-2212
▁پەک	-2213
دین	-2214
▁نیشتی	-2215
▁خۆشەویستی	-2216
▁شێوەیەکی	-2217
▁نوری	-2218
▁داواکاری	-2219
زانین	-2220
ردو	-2221
▁ناوچەکە	-2222
▁هەشت	-2223
▁وێنە	-2224
▁مافەکانی	-2225
▁فری	-2226
لاتی	-2227
▁سەرەتای	-2228
▁کشت	-2229
▁شێر	-2230
▁ئینگ	-2231
▁عەبدوڵ	-2232
▁ئەنجامدانی	-2233
▁پارێزگاری	-2234
▁دادگای	-2235
▁پشتگیری	-2236
▁ئێرانی	-2237
▁نەبووە	-2238
▁وەف	-2239
شین	-2240
ۆلی	-2241
ینین	-2242
▁حوسێن	-2243
▁نەتەو	-2244
▁بەرپرسانی	-2245
▁هەڵم	-2246
رانی	-2247
▁بەدو	-2248
▁کۆی	-2249
▁لیست	-2250
▁دۆلار	-2251
▁سەردەمی	-2252
▁سەرەک	-2253
▁بان	-2254
▁واقی	-2255
بکات	-2256
▁ڕێککەوتن	-2257
اما	-2258
▁هەمو	-2259
▁پەسەند	-2260
بووە	-2261
▁لەی	-2262
▁شێوەیەک	-2263
▁خەر	-2264
▁هەرچەندە	-2265
▁تووشی	-2266
▁بەچ	-2267
▁سام	-2268
▁ماڵی	-2269
ەنەوە	-2270
▁پشک	-2271
▁هێم	-2272
▁تاب	-2273
در	-2274
▁نێت	-2275
▁نوێنەری	-2276
▁ساڵە	-2277
▁ئیسپانی	-2278
ەدی	-2279
▁ڕێو	-2280
این	-2281
▁ئایینی	-2282
▁قسەی	-2283
▁خەی	-2284
▁t	-2285
▁زوو	-2286
▁هەیەو	-2287
▁گشت	-2288
▁لەماوەی	-2289
▁بون	-2290
تەو	-2291
اون	-2292
▁هەڤ	-2293
▁گروو	-2294
▁هیو	-2295
▁مەحمود	-2296
▁ئەنجووم	-2297
▁کۆمەڵگا	-2298
▁بزوتنەوەی	-2299
▁وه	-2300
▁وی	-2301
حک	-2302
ینەو	-2303
▁کەسێکی	-2304
▁f	-2305
▁حوکم	-2306
▁نوێنەر	-2307
▁ببێتە	-2308
▁عومەر	-2309
▁کشتوک	-2310
▁بەند	-2311
▁شاند	-2312
▁مستەفا	-2313
خوازی	-2314
▁وەرگرت	-2315
▁هێ	-2316
▁بەختیار	-2317
▁ناش	-2318
▁دەسەڵاتدار	-2319
▁زۆرین	-2320
▁هەفتەی	-2321
▁‬	-2322
▁پێگەی	-2323
▁وەزارەت	-2324
▁نیشتمانیی	-2325
کرت	-2326
▁جێبەجێکردنی	-2327
▁دنیا	-2328
▁ناوەڕاست	-2329
▁مەرج	-2330
▁دراو	-2331
▁خەم	-2332
▁سووری	-2333
▁سوود	-2334
▁ناسی	-2335
▁دامەزراندنی	-2336
راه	-2337
▁ئۆب	-2338
▁بەرێو	-2339
▁سەل	-2340
▁ڕەخنە	-2341
الیز	-2342
▁لیژن	-2343
▁چەو	-2344
▁ڕێگە	-2345
▁خێزان	-2346
ەکەو	-2347
▁گومان	-2348
at	-2349
▁07	-2350
▁هێنا	-2351
▁ئێمه	-2352
ێران	-2353
▁لەبەرامبەر	-2354
▁ئاگادار	-2355
▁گوڵ	-2356
▁پێشمەرگ	-2357
▁بزان	-2358
▁وتی	-2359
ما	-2360
▁ژی	-2361
▁ڕۆژانە	-2362
▁_	-2363
ووتی	-2364
▁تاران	-2365
پەرشتی	-2366
▁تێبینی	-2367
▁خەباتی	-2368
نەت	-2369
▁N	-2370
▁هەڵوێستی	-2371
▁گرفت	-2372
▁لەوێ	-2373
گیز	-2374
▁بەرچاو	-2375
وات	-2376
نیان	-2377
ۆتۆ	-2378
ابێت	-2379
ەزایی	-2380
▁فێر	-2381
▁نوێنەران	-2382
وازی	-2383
▁سک	-2384
▁خۆت	-2385
▁جەماوەر	-2386
▁ئاماژە	-2387
▁بەکارهێنانی	-2388
▁پارت	-2389
▁دووپ	-2390
▁بنەمای	-2391
▁بکاتەوە	-2392
▁تەمەنی	-2393
▁نەبوونی	-2394
▁پێدا	-2395
زەی	-2396
ایەد	-2397
▁نیشان	-2398
▁سەو	-2399
▁تۆمەت	-2400
▁گواست	-2401
ۆیە	-2402
یشت	-2403
▁کەب	-2404
ەمەنی	-2405
ur	-2406
وه	-2407
ووڵ	-2408
▁پەیامنێری	-2409
▁یەکی	-2410
اریان	-2411
اوه	-2412
▁31	-2413
دەستی	-2414
▁خزمەتگوز	-2415
▁تیرۆریستی	-2416
▁داخ	-2417
▁خوارەوە	-2418
ەشق	-2419
▁کۆبوونەو	-2420
▁پەیمان	-2421
بر	-2422
▁پەیوەندیی	-2423
کەری	-2424
مەی	-2425
▁لەلایەکی	-2426
یچ	-2427
▁دیکەش	-2428
یه	-2429
▁ئۆتۆمبێل	-2430
▁کردبوو	-2431
▁خواست	-2432
▁کێشە	-2433
▁لەهەموو	-2434
▁سکرت	-2435
▁کارە	-2436
▁ئەدەبی	-2437
▁هەرگیز	-2438
اندنەوەی	-2439
▁چۆنی	-2440
▁ئەوه	-2441
▁سەرک	-2442
▁زیان	-2443
▁جێبەجێ	-2444
انبەر	-2445
▁بیان	-2446
▁ئیب	-2447
تات	-2448
▁ئاینی	-2449
▁گۆڤ	-2450
▁تائێستا	-2451
▁سێیەم	-2452
▁خۆشی	-2453
▁یەکتر	-2454
ay	-2455
خانە	-2456
▁جا	-2457
هێنەری	-2458
▁لەکاتێکدا	-2459
▁بارودۆخی	-2460
اکەی	-2461
▁نیگەر	-2462
▁قسە	-2463
ایم	-2464
▁عەل	-2465
▁گۆڕینی	-2466
▁کۆمەڵەی	-2467
▁ڕازی	-2468
▁ڕەم	-2469
▁دووەمی	-2470
گەل	-2471
▁ئوم	-2472
▁بال	-2473
▁کۆنفر	-2474
بین	-2475
▁بگەڕ	-2476
▁چاوی	-2477
▁سەرن	-2478
▁سیاسییەکان	-2479
▁چیرۆک	-2480
مەوە	-2481
انێک	-2482
▁پەنج	-2483
▁تاوەکو	-2484
▁بیری	-2485
▁گۆڵ	-2486
▁نارد	-2487
▁ڕۆشنبیر	-2488
▁دیکتات	-2489
▁ئارام	-2490
▁ئەمانە	-2491
▁خاڵی	-2492
▁یاد	-2493
▁دینار	-2494
▁بایەخ	-2495
▁مرۆڤی	-2496
▁پێچەو	-2497
▁ڕەوشی	-2498
▁گوز	-2499
▁گونج	-2500
▁مۆد	-2501
▁ئاخ	-2502
▁کاندید	-2503
▁سەردان	-2504
▁کوشتنی	-2505
▁میر	-2506
ەکانە	-2507
▁بەڕێوەبەرایەتی	-2508
▁کەواتە	-2509
اح	-2510
▁جوانی	-2511
▁لاواز	-2512
▁گیر	-2513
▁ئال	-2514
▁ئەڵڵا	-2515
ێنەوە	-2516
▁نەز	-2517
▁مانای	-2518
▁دەستوور	-2519
▁لەئێست	-2520
▁هاوسەر	-2521
▁ئەوانیش	-2522
▁جۆراو	-2523
▁سنوور	-2524
▁ئەنجوومەنی	-2525
▁فیدراڵ	-2526
▁کوت	-2527
▁ەوە	-2528
گەڕ	-2529
▁وەرگرتنی	-2530
راهیم	-2531
▁ئاراستەی	-2532
▁ڵ	-2533
▁پسپ	-2534
گرە	-2535
▁دەکرێن	-2536
دەست	-2537
▁ڕادی	-2538
▁دەورو	-2539
▁سایتی	-2540
▁حس	-2541
ent	-2542
▁ڕۆژنامەوانی	-2543
▁ڕاستەوخۆ	-2544
▁عەز	-2545
▁عەبدوڵڵا	-2546
▁شێواز	-2547
▁وەبەر	-2548
▁باوک	-2549
▁سەرکەوتن	-2550
▁دادگ	-2551
▁وێنەی	-2552
▁فەرمی	-2553
ma	-2554
▁بەرپرسیار	-2555
ژیی	-2556
▁ئاوێنەنی	-2557
ۆف	-2558
▁جەماوەری	-2559
▁کلی	-2560
▁لەمەو	-2561
▁جەست	-2562
▁دەدرێت	-2563
▁فەی	-2564
▁کۆنترۆ	-2565
▁ڕۆمان	-2566
▁وەڵامی	-2567
▁دۆخ	-2568
ەمەن	-2569
▁ـ	-2570
▁بنی	-2571
▁هۆشی	-2572
▁وس	-2573
▁گۆڕانکاری	-2574
تین	-2575
ێزی	-2576
▁سوور	-2577
▁ئەوەندە	-2578
▁ژمارەیەکی	-2579
کەن	-2580
▁دەستنیشان	-2581
حەممەد	-2582
▁198	-2583
▁لەز	-2584
▁دەستووری	-2585
▁جەن	-2586
ترە	-2587
ووەو	-2588
ژین	-2589
tt	-2590
▁ڕژێم	-2591
▁دەرکەوت	-2592
▁100	-2593
▁09	-2594
▁چاکس	-2595
▁کەریم	-2596
le	-2597
▁مەل	-2598
▁ئاوی	-2599
اویستی	-2600
جا	-2601
▁ئاسمانی	-2602
▁شارەوانی	-2603
▁توندوتیژی	-2604
▁کۆنگرەی	-2605
▁زیاتری	-2606
▁جۆری	-2607
حکوم	-2608
▁نەخۆشی	-2609
رۆز	-2610
▁جۆرێک	-2611
شیان	-2612
▁کەمال	-2613
▁بارودۆخ	-2614
▁n	-2615
▁ئیدی	-2616
▁کول	-2617
▁سەف	-2618
ودی	-2619
▁خەو	-2620
▁ئینگلی	-2621
▁کەسانی	-2622
ویەتی	-2623
▁شەهیدان	-2624
▁جەنگی	-2625
ەکر	-2626
▁پاب	-2627
▁دیکه	-2628
ەول	-2629
▁گرنگە	-2630
هێشت	-2631
▁فراوان	-2632
▁دەرهێنانی	-2633
▁وەردە	-2634
داریی	-2635
▁ئامادە	-2636
لۆ	-2637
شەممە	-2638
▁حەوت	-2639
▁d	-2640
▁سوید	-2641
نەو	-2642
▁کیمی	-2643
رینی	-2644
راوانی	-2645
▁شێوازی	-2646
ەڤ	-2647
▁نەج	-2648
▁ئەڵمانیا	-2649
ستە	-2650
▁دەبێتەوە	-2651
▁ناد	-2652
▁مس	-2653
▁فار	-2654
ەشدا	-2655
▁دوژمن	-2656
▁کورسی	-2657
ییەک	-2658
▁لەخۆ	-2659
▁یەکێکە	-2660
▁50	-2661
▁جێگای	-2662
تانی	-2663
خانی	-2664
▁پاڵەوان	-2665
وانیت	-2666
بان	-2667
ارەدا	-2668
▁باشووری	-2669
شکی	-2670
▁هاوس	-2671
▁کراون	-2672
▁چونکه	-2673
▁هەیه	-2674
ییەکەی	-2675
▁شەقام	-2676
▁تەرخان	-2677
▁لەکوردستان	-2678
▁بەق	-2679
اڤ	-2680
▁هۆڵ	-2681
▁بهێنێت	-2682
یەتی	-2683
▁ببێت	-2684
▁تێگەی	-2685
▁خوێندنەوەی	-2686
▁ئەدەب	-2687
رای	-2688
▁دەگرێت	-2689
▁تاقی	-2690
▁لەوانە	-2691
▁خانە	-2692
▁01	-2693
▁سەدا	-2694
▁بکرێن	-2695
▁ئەمریک	-2696
▁ناوخۆی	-2697
▁ڕۆژێک	-2698
▁گوێ	-2699
▁نیشتیمانی	-2700
▁سەرپەرشتی	-2701
ەبێژی	-2702
▁بەرانبەر	-2703
▁بەیاننام	-2704
▁گیان	-2705
▁پۆستی	-2706
روو	-2707
ردی	-2708
▁تازە	-2709
▁08	-2710
▁ئایین	-2711
ێرن	-2712
▁سوو	-2713
▁لێو	-2714
▁وان	-2715
▁سەرەڕ	-2716
▁کارەکانی	-2717
▁سەرنج	-2718
▁إ	-2719
▁دەف	-2720
▁دەرف	-2721
▁تاری	-2722
▁مادەی	-2723
لو	-2724
▁یەکەمین	-2725
▁پێشوو	-2726
▁ئاوێنەنیوز	-2727
انت	-2728
حمان	-2729
▁داڕ	-2730
▁لەسەرەت	-2731
________	-2732
ەڕووی	-2733
▁بارە	-2734
▁لەدەر	-2735
▁شۆڕشی	-2736
▁مرۆڤایەتی	-2737
▁دەقی	-2738
▁چەکی	-2739
▁شای	-2740
▁پێداویستی	-2741
▁خاکی	-2742
▁ئەمەریکی	-2743
▁P	-2744
▁کردووەو	-2745
▁فۆتۆ	-2746
▁ئەمرۆ	-2747
ەپێدانی	-2748
▁نیشتەج	-2749
▁04	-2750
▁سەربەخۆ	-2751
▁بەداخ	-2752
▁ناوەند	-2753
گۆ	-2754
▁کۆبون	-2755
▁بۆن	-2756
▁02	-2757
▁زانکۆ	-2758
اریش	-2759
▁بووم	-2760
▁مل	-2761
▁03	-2762
▁سەرچاوەی	-2763
▁دەسەلات	-2764
▁ئیبراهیم	-2765
▁06	-2766
ەیەکدا	-2767
▁گوێرەی	-2768
▁مەسعود	-2769
ییەی	-2770
▁بەرەی	-2771
ڕە	-2772
▁فەرم	-2773
پشتی	-2774
▁پڕۆژە	-2775
وکی	-2776
▁سپ	-2777
▁دووبارە	-2778
▁ببین	-2779
▁پێغەمبەر	-2780
▁سینەمایی	-2781
اج	-2782
▁نائ	-2783
▁C	-2784
▁بێک	-2785
▁نموون	-2786
▁دەنگدان	-2787
▁هەڵەبجە	-2788
ەوەیە	-2789
▁قەب	-2790
پە	-2791
▁دەستیان	-2792
▁تێپەڕ	-2793
ەیش	-2794
▁قەز	-2795
▁05	-2796
▁منیش	-2797
▁ئێستای	-2798
▁وئ	-2799
▁داک	-2800
▁لێدوانێکی	-2801
▁کەه	-2802
گۆڕ	-2803
گار	-2804
▁ئۆباما	-2805
▁گەورەترین	-2806
▁بیروب	-2807
ازان	-2808
▁بەکورد	-2809
کەس	-2810
▁پەل	-2811
ەکەن	-2812
ەلاح	-2813
▁فراک	-2814
▁گروپی	-2815
▁کۆمەڵی	-2816
▁گفتوگۆی	-2817
▁کارکردن	-2818
▁ئامانجی	-2819
▁بونی	-2820
▁شێوەیە	-2821
▁چوارچێوەی	-2822
▁سکرتێری	-2823
ۆمەڵ	-2824
▁مایەی	-2825
▁کری	-2826
▁قەو	-2827
▁نیشتمان	-2828
▁خوای	-2829
▁ناوچەکانی	-2830
▁بەجێ	-2831
مار	-2832
▁s	-2833
▁بەدوای	-2834
▁خوێندنی	-2835
▁ئەوانە	-2836
شەی	-2837
▁هەرچی	-2838
▁نهێنی	-2839
▁وب	-2840
ێڕی	-2841
▁تاکە	-2842
▁کارگ	-2843
▁کۆمار	-2844
ێنین	-2845
▁کوشت	-2846
▁وشەی	-2847
▁لەمبارەی	-2848
▁هەریەک	-2849
▁سەپ	-2850
▁دەزگ	-2851
▁گەندەڵی	-2852
▁کاتێکدا	-2853
▁شەممە	-2854
▁ئیش	-2855
▁بگرێت	-2856
هاتی	-2857
▁سەیری	-2858
ەوەر	-2859
▁دەتوانین	-2860
اکەوت	-2861
▁ئارەز	-2862
اکرد	-2863
یەکەی	-2864
▁بچوو	-2865
▁لەشاری	-2866
▁زانیاریی	-2867
▁کەمتر	-2868
▁لەڕێگەی	-2869
▁سەرەتا	-2870
▁حاجی	-2871
ۆلۆژی	-2872
▁تێدایە	-2873
▁ئاه	-2874
▁جەژ	-2875
▁ئاسان	-2876
▁ڕاوێژ	-2877
نەتەوەی	-2878
▁بڕیارە	-2879
▁40	-2880
▁لەپێناو	-2881
▁مەن	-2882
▁هز	-2883
ەغ	-2884
حاڵ	-2885
▁لایەنگ	-2886
بهێن	-2887
تد	-2888
اید	-2889
is	-2890
▁پەیوەندییەکانی	-2891
▁فش	-2892
▁دابڕ	-2893
▁ویل	-2894
▁ڕۆژئاوای	-2895
یەی	-2896
▁مەسی	-2897
▁ناتوانێت	-2898
▁پەروەرد	-2899
▁خاک	-2900
▁چاوەڕوانی	-2901
▁یەکگرتووەکان	-2902
▁سەدان	-2903
▁ئاشکرای	-2904
ەدانی	-2905
امە	-2906
▁لەج	-2907
▁تێکۆش	-2908
▁ملیار	-2909
▁ئیدارەی	-2910
ەندەی	-2911
کس	-2912
▁فەرمانبەر	-2913
▁هێزێکی	-2914
▁چۆنیەتی	-2915
▁میو	-2916
▁تێکەڵ	-2917
ەکانم	-2918
▁بەگشتی	-2919
▁کوردو	-2920
▁لەڕووی	-2921
▁ئێمەش	-2922
▁سەرمایەد	-2923
▁سیستمی	-2924
▁الم	-2925
▁بۆتە	-2926
کێ	-2927
ەکانیدا	-2928
▁پێشکەوت	-2929
▁زەو	-2930
▁لەعیراق	-2931
▁مین	-2932
▁بچێت	-2933
▁گەرمی	-2934
▁باشە	-2935
▁خۆیەوە	-2936
▁دڵی	-2937
▁سەربەخۆیی	-2938
▁ڕون	-2939
▁پێکرد	-2940
▁چوون	-2941
▁گێڕ	-2942
▁سێک	-2943
▁عەزیز	-2944
▁مەج	-2945
▁سەرس	-2946
▁قورس	-2947
▁دانیشتن	-2948
▁خزمەتی	-2949
▁بکەنەوە	-2950
ێدی	-2951
▁کەسانەی	-2952
▁ئەش	-2953
▁ون	-2954
▁بخو	-2955
لێک	-2956
▁پارەی	-2957
ازیی	-2958
▁گەم	-2959
▁دەردەک	-2960
ەکار	-2961
▁کردووه	-2962
▁سەرکەوتوو	-2963
▁)-	-2964
▁بازاڕ	-2965
ment	-2966
▁پێناو	-2967
▁ڕزگاری	-2968
ەدەر	-2969
▁197	-2970
▁گۆران	-2971
▁ئاگر	-2972
▁ماند	-2973
▁تش	-2974
▁کانی	-2975
▁شێعری	-2976
▁مۆڵ	-2977
▁سۆسی	-2978
▁تاوتو	-2979
▁میللەت	-2980
▁بڵاوی	-2981
▁00	-2982
ڕەوی	-2983
▁ئاسی	-2984
▁دەزانن	-2985
▁دیموکراتی	-2986
تووری	-2987
▁نەر	-2988
▁کەڵ	-2989
▁بنەماڵ	-2990
ەتر	-2991
▁هاوپەیمان	-2992
مەن	-2993
▁M	-2994
بوڵ	-2995
▁سپی	-2996
▁نەن	-2997
▁ڕۆژئاوا	-2998
▁بۆچوون	-2999
▁re	-3000
▁دەستپ	-3001
▁ئۆک	-3002
▁پێشووی	-3003
ed	-3004
▁لەگەل	-3005
▁سەنگ	-3006
▁داهاتووی	-3007
▁نێونەتەوەی	-3008
یرە	-3009
▁بگرن	-3010
▁ئەزموون	-3011
▁بیانی	-3012
▁لەدا	-3013
▁نرخی	-3014
▁قەزای	-3015
اسایی	-3016
▁دڵس	-3017
et	-3018
▁ئامادەیی	-3019
اندووە	-3020
▁کۆڵ	-3021
ەنجامی	-3022
ەبوونی	-3023
▁دایە	-3024
▁خوێندکار	-3025
▁T	-3026
▁بڕو	-3027
▁دەبوو	-3028
الیا	-3029
▁بەڵگ	-3030
▁خورم	-3031
مێکی	-3032
توانی	-3033
▁تەئ	-3034
ئەو	-3035
▁لایەک	-3036
▁هاوولاتی	-3037
▁بەداخەوە	-3038
▁سۆر	-3039
ووەتەوە	-3040
▁سەرەڕای	-3041
▁وەس	-3042
▁ژنانی	-3043
▁سەرق	-3044
▁چینی	-3045
▁ناچار	-3046
راوەکانی	-3047
▁دەخو	-3048
▁لەدایک	-3049
اکێش	-3050
▁هاوڵاتیان	-3051
▁ئامادەی	-3052
▁سەدەی	-3053
▁دەبینین	-3054
▁شوب	-3055
▁هۆکار	-3056
▁بانگەش	-3057
چاوی	-3058
▁سووریا	-3059
▁هەینی	-3060
▁140	-3061
اندان	-3062
اعید	-3063
▁بۆیه	-3064
انەو	-3065
اکردنی	-3066
▁ڕەوانەی	-3067
بەست	-3068
ەکەشی	-3069
▁لەخو	-3070
▁سوپاسی	-3071
▁دادگا	-3072
زیکی	-3073
مانەی	-3074
▁ئەخ	-3075
▁پەڕ	-3076
▁بەردەوامی	-3077
▁دەگەڕێتەوە	-3078
▁لەل	-3079
ڕا	-3080
▁سنوری	-3081
▁یارییەکانی	-3082
ییه	-3083
راوەکان	-3084
ۆکەی	-3085
سەی	-3086
ەدەست	-3087
▁پایتەختی	-3088
▁بدەین	-3089
▁کۆچ	-3090
▁هاتنی	-3091
▁ئەمین	-3092
▁ڕەه	-3093
▁منداڵان	-3094
▁دەرئ	-3095
▁ئەمریکی	-3096
▁شەری	-3097
▁ئێراق	-3098
تەرن	-3099
▁باشی	-3100
بێ	-3101
کێی	-3102
▁سیم	-3103
▁هتد	-3104
▁داهاتوودا	-3105
▁دیدار	-3106
ایدا	-3107
کەکانی	-3108
▁p	-3109
▁لێژ	-3110
▁سەرهەڵ	-3111
▁دز	-3112
▁زۆرینەی	-3113
▁بڵێین	-3114
▁دەزانێت	-3115
▁واقیع	-3116
ندا	-3117
▁بەڕێوەب	-3118
▁وڵاتەکەی	-3119
▁دەستکەوت	-3120
▁b	-3121
کاران	-3122
▁ww	-3123
▁شارەز	-3124
▁ئاڕ	-3125
ەکەین	-3126
▁دژایەتی	-3127
▁هاوش	-3128
▁www	-3129
▁مێژوویی	-3130
▁ڕێکخراوە	-3131
▁مۆر	-3132
▁سەرچاوە	-3133
ەدەغ	-3134
ئەم	-3135
لەتی	-3136
▁وەست	-3137
▁نییەو	-3138
ۆگ	-3139
ێڕای	-3140
▁دابن	-3141
▁58	-3142
▁سەید	-3143
▁کتێبی	-3144
▁مەترس	-3145
سێ	-3146
▁جەختی	-3147
▁ئێستادا	-3148
سن	-3149
▁هۆش	-3150
▁قەرەب	-3151
▁هەولێری	-3152
▁کۆل	-3153
▁سەربەخۆی	-3154
▁عەم	-3155
ەکرێت	-3156
▁کۆبانێ	-3157
▁دەروونی	-3158
ەکدا	-3159
▁بەلای	-3160
▁بابەتە	-3161
▁باوکی	-3162
▁تەماش	-3163
▁موسڵمان	-3164
▁بەیانی	-3165
▁سەعید	-3166
▁ڕاپەڕین	-3167
▁ڕۆژنامەنوس	-3168
ۆپ	-3169
▁گری	-3170
▁دەنووس	-3171
▁کەرتی	-3172
وئ	-3173
▁بۆیان	-3174
▁ئەزموونی	-3175
گیرێت	-3176
▁تاوانبار	-3177
▁سەم	-3178
بردنی	-3179
▁ڕاستە	-3180
▁پێناس	-3181
▁بس	-3182
نگ	-3183
▁هەڵبژ	-3184
▁مۆن	-3185
▁دنیای	-3186
▁سع	-3187
ha	-3188
▁لەوەش	-3189
▁ئەگەری	-3190
اوەو	-3191
وست	-3192
▁بوونە	-3193
▁کارو	-3194
▁قەدەغ	-3195
ڤەر	-3196
▁زۆرێک	-3197
وسی	-3198
▁لەهەمان	-3199
▁هاتوو	-3200
▁پەیدا	-3201
▁نان	-3202
▁علی	-3203
▁هێرشی	-3204
وول	-3205
شەممه	-3206
▁کوردستانە	-3207
▁هێڵی	-3208
▁شتی	-3209
کراون	-3210
وق	-3211
▁چوو	-3212
▁خانەق	-3213
▁دروش	-3214
▁هەموومان	-3215
▁ئۆپۆزی	-3216
▁شارستانی	-3217
▁پیشەس	-3218
وانێ	-3219
▁جیاجی	-3220
▁دۆست	-3221
ایل	-3222
▁بەوەش	-3223
▁نەش	-3224
▁بکە	-3225
▁گووتی	-3226
▁بنەڕ	-3227
▁شارۆچکەی	-3228
▁گرێب	-3229
▁کۆمی	-3230
▁خودا	-3231
▁عیراق	-3232
▁سزای	-3233
▁پەنا	-3234
گەیەکی	-3235
▁هەموویان	-3236
ەخانەی	-3237
▁کوردستانیش	-3238
▁یەکل	-3239
▁لەهەرێمی	-3240
▁کۆمەڵگە	-3241
▁دانانی	-3242
اته	-3243
▁کێشەکانی	-3244
▁کون	-3245
اسم	-3246
سک	-3247
اتن	-3248
▁درۆ	-3249
▁ڕەفت	-3250
▁لەبەرئەوەی	-3251
▁ماوەیەکی	-3252
▁کەش	-3253
▁کوردە	-3254
▁k	-3255
▁کارەبا	-3256
▁خال	-3257
▁ماڵپەڕی	-3258
▁گی	-3259
▁هێناوە	-3260
کردۆتەوە	-3261
▁بەدوادا	-3262
▁کارمەند	-3263
▁کەسوک	-3264
▁نار	-3265
▁ماوە	-3266
▁پەلام	-3267
▁کوشتن	-3268
▁فەرەنسا	-3269
▁جیا	-3270
ەشەوە	-3271
▁هەزاران	-3272
▁بێب	-3273
خت	-3274
کردنە	-3275
▁هەور	-3276
▁چییە	-3277
▁نیگەرانی	-3278
▁ڕێنم	-3279
▁گۆل	-3280
▁ئەکتەر	-3281
▁یەکسانی	-3282
▁درێژەی	-3283
رێژ	-3284
▁دەیهەوێت	-3285
▁لێپرسراوی	-3286
دەخ	-3287
▁بەهەمان	-3288
ەمەند	-3289
▁مەع	-3290
▁دڕ	-3291
▁پێشوازی	-3292
▁شارە	-3293
▁نێونەتەوەیی	-3294
▁یەکگرتووەکانی	-3295
▁بەگو	-3296
▁گەرد	-3297
▁واتا	-3298
▁خەون	-3299
▁ئازار	-3300
▁ڕووبەڕووی	-3301
ەکا	-3302
وانم	-3303
وانرێت	-3304
توری	-3305
▁دۆسی	-3306
▁واز	-3307
▁خەریکی	-3308
▁35	-3309
▁لاد	-3310
▁ناوەر	-3311
▁مەزن	-3312
▁ململانێی	-3313
ەزایەتی	-3314
ڵاو	-3315
ایەن	-3316
▁پاڵەوانی	-3317
▁ڕود	-3318
ڕین	-3319
▁دەتوانیت	-3320
▁سیاسییەکانی	-3321
▁ڕوود	-3322
▁لەدی	-3323
راوەی	-3324
بکەن	-3325
▁دەستپێک	-3326
▁ڕیزب	-3327
گرافی	-3328
▁کوڕی	-3329
▁نرخ	-3330
al	-3331
▁تاوانی	-3332
▁فیستیڤاڵ	-3333
▁لەئێستادا	-3334
گه	-3335
لۆم	-3336
▁ئاڵۆز	-3337
▁ماددەی	-3338
نیشانی	-3339
▁سەدام	-3340
▁کاریگەریی	-3341
▁یش	-3342
▁زانست	-3343
هر	-3344
▁کردووەتەوە	-3345
▁نووسینی	-3346
▁گرین	-3347
ۆرت	-3348
▁هەرە	-3349
▁بەتەو	-3350
▁کاتێ	-3351
▁ئێمەی	-3352
ایه	-3353
▁پێشێل	-3354
وێنی	-3355
لام	-3356
▁ئینگلیزی	-3357
▁کارب	-3358
اورد	-3359
ۆرگ	-3360
▁دەمان	-3361
▁ڕاپۆرتی	-3362
دەمی	-3363
لیم	-3364
رۆش	-3365
ییەتی	-3366
▁هەڵوەش	-3367
ێوی	-3368
▁ویست	-3369
راوه	-3370
▁ڕووبەر	-3371
▁سەنتەری	-3372
ماع	-3373
ێنرێت	-3374
▁بێدەنگ	-3375
▁تشرینی	-3376
▁هاند	-3377
▁بەخۆ	-3378
▁تەئکی	-3379
▁پێشان	-3380
▁گەیشتن	-3381
▁نێچ	-3382
ێگای	-3383
ینا	-3384
ێکەوە	-3385
▁پێمان	-3386
زای	-3387
▁J	-3388
▁مەزه	-3389
▁لەکار	-3390
▁موحەممەد	-3391
▁لەپەر	-3392
▁ڕوان	-3393
as	-3394
▁کش	-3395
▁سینەمای	-3396
▁مانەوەی	-3397
▁دەزگا	-3398
رید	-3399
وەو	-3400
▁وەرزش	-3401
▁کەناڵی	-3402
▁ئەمر	-3403
▁باخ	-3404
▁پشکنی	-3405
بیر	-3406
▁وتیشی	-3407
▁تێڕ	-3408
▁هاوبەشی	-3409
▁تەس	-3410
▁یادی	-3411
چەر	-3412
▁پێویسته	-3413
▁هاتوچ	-3414
ێننەوە	-3415
▁ڕاشی	-3416
▁بەسەردا	-3417
▁لێکۆڵینەوە	-3418
▁بەجۆر	-3419
▁ڕەزام	-3420
▁هاوکار	-3421
ماندا	-3422
▁کێشەکان	-3423
▁دەکەوێتە	-3424
زا	-3425
اماد	-3426
▁پاڵپشتی	-3427
رێنەوە	-3428
▁گەیاند	-3429
▁جین	-3430
گاکانی	-3431
▁بڵێم	-3432
▁ستەم	-3433
▁ناحی	-3434
یدا	-3435
بکرێت	-3436
▁بەڵێن	-3437
▁نوێنەرایەتی	-3438
وێ	-3439
▁گوندی	-3440
▁نەیت	-3441
▁ئارامی	-3442
▁تەلەفزی	-3443
▁گونجاو	-3444
▁کوردستانەوە	-3445
▁عەقڵ	-3446
▁ئەوکات	-3447
▁شانۆی	-3448
▁لێرە	-3449
وف	-3450
▁ئاگاداری	-3451
شینی	-3452
▁مەڵب	-3453
▁پارچ	-3454
▁جیهاندا	-3455
▁نەبوون	-3456
▁کەناڵ	-3457
▁زە	-3458
▁گەڕانەوەی	-3459
▁قەیرانی	-3460
گەکانی	-3461
▁گوتەبێژی	-3462
▁حوز	-3463
▁ئەوانی	-3464
▁هەڵبژاردنەکان	-3465
▁ڕێگا	-3466
امەی	-3467
▁نەیتوانی	-3468
▁قەت	-3469
▁سیناری	-3470
وویەتی	-3471
▁دەرچ	-3472
▁ئەنجامد	-3473
▁پێشواز	-3474
▁پابەند	-3475
ەوا	-3476
▁پەروەردەی	-3477
▁ئەگەرچی	-3478
▁کەرکووک	-3479
▁پەکەکە	-3480
ion	-3481
▁مور	-3482
نامە	-3483
▁حکوومەت	-3484
کراوی	-3485
▁بەرش	-3486
▁تاق	-3487
▁برو	-3488
ناو	-3489
▁واش	-3490
▁ڕاشیگەیاند	-3491
ئی	-3492
بونی	-3493
یەکە	-3494
▁سەندی	-3495
▁گەشتی	-3496
▁بووەو	-3497
▁لێکۆڵینەوەی	-3498
وش	-3499
▁تەنها	-3500
▁کۆمۆنی	-3501
▁ڕەخنەی	-3502
▁نەوش	-3503
▁کارەسات	-3504
▁هەرب	-3505
mail	-3506
▁تێر	-3507
ەلە	-3508
▁نەف	-3509
▁خۆیەتی	-3510
▁W	-3511
▁بەبەر	-3512
ڕانی	-3513
▁زنج	-3514
▁ڕێی	-3515
▁وەه	-3516
▁کەسە	-3517
▁گرتووە	-3518
▁دەزانین	-3519
▁سەرت	-3520
▁کۆنترۆڵ	-3521
▁ئەردۆ	-3522
▁چاوپێک	-3523
تیل	-3524
▁لەبواری	-3525
▁بوە	-3526
▁شەرم	-3527
ۆڵی	-3528
یند	-3529
▁بەرژەوەند	-3530
▁ئاوێنە	-3531
▁دۆخی	-3532
اسەری	-3533
▁شەق	-3534
▁سات	-3535
▁تابل	-3536
▁ئەڤ	-3537
▁دور	-3538
▁میانەی	-3539
me	-3540
▁نەکردووە	-3541
▁هێندە	-3542
▁هۆڵی	-3543
▁نوسین	-3544
مو	-3545
▁مزگ	-3546
ۆمی	-3547
▁هاوکاریی	-3548
▁ئازادیی	-3549
▁هەڵبژاردنەکانی	-3550
ێلی	-3551
▁خزمەتگوزاری	-3552
▁45	-3553
▁ئیست	-3554
▁کۆنە	-3555
▁نوسەر	-3556
▁بەشداریی	-3557
▁دابەشکردنی	-3558
▁ڕەخن	-3559
▁B	-3560
انەیان	-3561
هیر	-3562
▁بگرە	-3563
▁هێنانی	-3564
▁تیپی	-3565
▁خانوو	-3566
▁زار	-3567
راوەو	-3568
▁سیستەم	-3569
▁ئومێد	-3570
▁دەدا	-3571
▁خورماتوو	-3572
▁خەرج	-3573
▁کۆمەلایەتی	-3574
ttp	-3575
▁نەیان	-3576
▁چەوس	-3577
ۆرم	-3578
▁ئەسەد	-3579
ەسپ	-3580
▁فەرماندەی	-3581
▁http	-3582
▁وەها	-3583
▁لوب	-3584
▁ئەوی	-3585
یشدا	-3586
ەکێش	-3587
▁ئەلع	-3588
هێناوە	-3589
▁هەت	-3590
بایی	-3591
▁خوێنی	-3592
▁کۆمیت	-3593
▁کەوا	-3594
▁وڵاته	-3595
▁F	-3596
▁ر	-3597
▁کشتوکاڵ	-3598
▁بچووک	-3599
▁ئەمەریک	-3600
ەبوو	-3601
▁سووت	-3602
▁ستراتیژی	-3603
▁ناکەن	-3604
▁سەرچاوەیەکی	-3605
ۆرک	-3606
یرڤان	-3607
هێنا	-3608
بوونەوە	-3609
انا	-3610
▁دیاریکراو	-3611
▁مێش	-3612
زمی	-3613
▁کەلار	-3614
▁ناه	-3615
ۆنەی	-3616
▁میس	-3617
▁بنکەی	-3618
▁سۆسیال	-3619
▁گوم	-3620
انەکانی	-3621
▁لەچوار	-3622
▁هیواد	-3623
ەزی	-3624
▁سەرچاوەیەک	-3625
▁پەیوەندید	-3626
▁بوار	-3627
▁پێشبینی	-3628
▁شەوی	-3629
ستانە	-3630
▁کران	-3631
▁شاخ	-3632
▁دیپ	-3633
▁مەرگ	-3634
▁بەهاو	-3635
دەکرێت	-3636
▁داواکاریی	-3637
▁ڕێکەوت	-3638
▁نەخۆشخانەی	-3639
ەرو	-3640
▁شۆر	-3641
▁2003	-3642
▁بووه	-3643
▁حەمە	-3644
ییەت	-3645
▁پەروەردە	-3646
▁جارێک	-3647
▁تۆمەتبار	-3648
day	-3649
▁بکرێ	-3650
▁وێڕای	-3651
باری	-3652
▁سبەی	-3653
▁نەکراوە	-3654
▁مامۆستای	-3655
▁لەکۆ	-3656
▁باشوور	-3657
▁سەوز	-3658
▁میواند	-3659
▁دروو	-3660
▁ئەنجامدا	-3661
▁نەوشیروان	-3662
▁سەردەشت	-3663
▁هاش	-3664
▁ناتوانن	-3665
▁هیوای	-3666
▁بکەیت	-3667
▁لەچەند	-3668
▁وتوو	-3669
▁هەڤاڵ	-3670
ەبوون	-3671
گاری	-3672
▁بەردەوامە	-3673
▁جۆراوجۆر	-3674
▁دایکی	-3675
کیان	-3676
▁دواکەوت	-3677
ەرز	-3678
▁هەنگاوی	-3679
▁ئەه	-3680
▁ڕەوتی	-3681
▁عب	-3682
▁ساڵەی	-3683
▁ساڵانی	-3684
▁سەرەتایی	-3685
▁وەل	-3686
ەکەیە	-3687
▁on	-3688
رێتە	-3689
▁بتوانن	-3690
تۆن	-3691
▁خوێنەر	-3692
▁واب	-3693
▁ڕیز	-3694
▁ناکۆک	-3695
▁ئێوارەی	-3696
▁کەمی	-3697
▁پێچەوانەی	-3698
▁بتوانێت	-3699
▁ڕەسمی	-3700
▁ئەمڕ	-3701
▁دێتە	-3702
▁بیت	-3703
▁حوکمی	-3704
▁زۆرترین	-3705
▁قبوڵ	-3706
ویست	-3707
▁تۆپ	-3708
▁هاوڕێی	-3709
بێژ	-3710
▁داهاتی	-3711
▁تەقینەوەی	-3712
▁ئیئ	-3713
▁هیچی	-3714
▁لاب	-3715
ۆکانی	-3716
▁چەکداری	-3717
▁داکۆکی	-3718
▁باران	-3719
▁کاروان	-3720
▁کاتدا	-3721
ماعیل	-3722
دەه	-3723
▁لەگەڵدا	-3724
▁دەوێت	-3725
▁قورئ	-3726
▁ڕێکخستنی	-3727
وڵات	-3728
کوژ	-3729
ناس	-3730
▁ئینجا	-3731
▁D	-3732
درێت	-3733
▁پەیوەست	-3734
▁دواجار	-3735
▁لایەنەکانی	-3736
▁دۆزینەوەی	-3737
▁ڕاس	-3738
▁مێ	-3739
▁علیە	-3740
▁لەبار	-3741
▁خانەقین	-3742
▁سور	-3743
دێکی	-3744
▁نەوەی	-3745
▁بەرەنگ	-3746
فە	-3747
▁مردن	-3748
▁شەپ	-3749
▁خستە	-3750
ازە	-3751
▁تەش	-3752
کردوە	-3753
▁قازان	-3754
▁لەکۆت	-3755
▁هەمووی	-3756
▁ڤی	-3757
گەریی	-3758
▁مەه	-3759
▁سەقام	-3760
▁لەناوچ	-3761
▁ڕیزبەندی	-3762
▁پێشکەوتن	-3763
▁ڕۆژنامە	-3764
▁خەیاڵ	-3765
▁کردە	-3766
▁وەرگێڕ	-3767
▁هەڵبژێرد	-3768
▁بکرێتەوە	-3769
▁نابێ	-3770
▁ناکۆکی	-3771
▁سەرل	-3772
به	-3773
▁دیکتاتۆری	-3774
وئاد	-3775
▁پاڵەوانێتی	-3776
▁ئامێر	-3777
▁ئۆس	-3778
▁موزیکی	-3779
▁کۆری	-3780
▁بەپێچ	-3781
▁چاکسازی	-3782
▁دانیشتوانی	-3783
▁یەکتری	-3784
▁×	-3785
ەڵات	-3786
▁بەرج	-3787
▁جامی	-3788
▁گەندەڵ	-3789
▁لەپێش	-3790
▁هەڵەبج	-3791
▁دەکەنەوە	-3792
▁موزیک	-3793
▁دابینکردنی	-3794
▁لاوان	-3795
▁پرسیاری	-3796
▁کابینەی	-3797
▁سعودی	-3798
▁زا	-3799
▁شیو	-3800
خۆشی	-3801
کران	-3802
گەیشت	-3803
▁جەنابی	-3804
▁بڕیارد	-3805
▁ڕوسیا	-3806
کردنیان	-3807
▁دەوروبەری	-3808
▁منداڵی	-3809
ێکردنی	-3810
▁کۆنفرانس	-3811
▁فیلمه	-3812
▁چەکدارانی	-3813
▁ساڵێک	-3814
▁ڕێنمایی	-3815
▁ئەیل	-3816
▁بەهیچ	-3817
▁حوزەیر	-3818
پێ	-3819
▁پزیشکی	-3820
▁نوسی	-3821
اژانسی	-3822
▁ئەبێت	-3823
▁ماوەیەک	-3824
▁لەوانەیە	-3825
▁زەحم	-3826
▁سنور	-3827
▁ڕووناک	-3828
▁کورتە	-3829
الیزم	-3830
▁ئەکات	-3831
▁ناڕەزایی	-3832
▁بەنی	-3833
▁تەنگ	-3834
▁گەلەکەمان	-3835
ەرێکی	-3836
▁دەهێنێت	-3837
▁باڵا	-3838
▁ئایدی	-3839
▁دووپات	-3840
ەدین	-3841
▁ژوور	-3842
▁هەردوولا	-3843
▁نەتەوەیەک	-3844
▁میت	-3845
▁کرێکار	-3846
تەی	-3847
▁ئەنجومەن	-3848
▁ئاڵو	-3849
اڕی	-3850
▁بەرهەمهێنانی	-3851
▁پیل	-3852
▁بپارێز	-3853
▁بەهەر	-3854
▁o	-3855
▁تای	-3856
▁نازانم	-3857
▁حیزبە	-3858
▁هاوڕێ	-3859
▁بەڕێوەچوو	-3860
کردەوه	-3861
▁کەموک	-3862
ەکاریی	-3863
ەوەش	-3864
▁بنەڕەتی	-3865
▁قوتابخان	-3866
▁شوبات	-3867
▁چیرۆکی	-3868
▁ئەوەیان	-3869
▁وتار	-3870
یب	-3871
ینەوه	-3872
▁نەری	-3873
ەقیق	-3874
▁پارە	-3875
▁بەح	-3876
▁نەهێشت	-3877
▁K	-3878
▁کۆمەڵە	-3879
▁ترەوە	-3880
▁ئیسماعیل	-3881
ۆمێن	-3882
ەواری	-3883
ەرب	-3884
▁لاپەڕ	-3885
▁فوئاد	-3886
ەتدا	-3887
چون	-3888
مەندی	-3889
▁ڕۆژانی	-3890
گوت	-3891
ێڵن	-3892
▁تار	-3893
▁شارەکانی	-3894
▁بەڵێ	-3895
▁گۆڤاری	-3896
▁سەعات	-3897
▁پێوە	-3898
▁ساد	-3899
غانستان	-3900
▁نادی	-3901
▁حزبە	-3902
▁سەلمان	-3903
▁باسە	-3904
▁ڕادە	-3905
▁لەجی	-3906
▁ڕایان	-3907
باران	-3908
▁ئۆپۆزیسیۆن	-3909
▁چاپکردن	-3910
فری	-3911
▁شکست	-3912
▁لایەکی	-3913
▁دڵسۆز	-3914
رۆڤ	-3915
▁سەلاح	-3916
اوەکانی	-3917
▁گوتم	-3918
▁عەبدوڵا	-3919
▁کەمپ	-3920
▁ئێز	-3921
▁جەع	-3922
▁نۆ	-3923
اهەنگی	-3924
▁پێدانی	-3925
▁گەشت	-3926
▁پیرۆزبایی	-3927
▁حەی	-3928
▁مەجید	-3929
▁ئاراست	-3930
▁نێچیرڤان	-3931
گرین	-3932
امەتی	-3933
▁چر	-3934
ەشتی	-3935
ۆساید	-3936
▁چیتر	-3937
▁پارتە	-3938
▁ئاهەنگ	-3939
▁89	-3940
▁نەکات	-3941
ژمار	-3942
ونج	-3943
ووەتە	-3944
▁جێگیر	-3945
کەم	-3946
▁یاریگای	-3947
▁خەت	-3948
▁صلی	-3949
لەمانی	-3950
▁سەرو	-3951
سین	-3952
▁ئەندامێکی	-3953
▁فەرهەنگی	-3954
▁ڕۆژە	-3955
▁ڕابرد	-3956
▁ئاژانس	-3957
▁هێمن	-3958
زاد	-3959
▁ئیسپانیا	-3960
▁کۆمپانیا	-3961
▁ڕیش	-3962
▁بەجۆرێک	-3963
لەمان	-3964
▁196	-3965
▁E	-3966
▁قوڵ	-3967
▁دەگوت	-3968
بیری	-3969
▁زەرد	-3970
▁لەبیر	-3971
ێرانی	-3972
ریان	-3973
▁فارس	-3974
▁کوردەکان	-3975
▁بەرد	-3976
▁بهێنن	-3977
لین	-3978
▁ئایندەی	-3979
▁میوانداری	-3980
▁ئاخر	-3981
بیا	-3982
▁ئاوەدان	-3983
نەکانی	-3984
▁گۆڕانکاریی	-3985
▁کاڵ	-3986
▁سەرکوت	-3987
▁32	-3988
▁لۆ	-3989
▁هەموار	-3990
▁دراوە	-3991
▁فاک	-3992
▁مەدرید	-3993
اوان	-3994
▁لقی	-3995
▁فەرمانی	-3996
▁دەرهێنەر	-3997
▁لەندەن	-3998
▁زەم	-3999
▁بەگوێرەی	-4000
▁بەعسی	-4001
پێو	-4002
▁کۆچی	-4003
▁لەسەرەتای	-4004
es	-4005
ەولێر	-4006
▁بودج	-4007
کم	-4008
▁ڕێکخراوەکانی	-4009
با	-4010
▁بۆر	-4011
▁ناح	-4012
بڕی	-4013
▁کەرکوکی	-4014
▁بۆش	-4015
▁بەدەر	-4016
▁سەلام	-4017
▁پلانی	-4018
ۆکان	-4019
▁ناوە	-4020
▁هونەرمەندی	-4021
ەیەی	-4022
▁ئینسان	-4023
▁خەڵات	-4024
▁ئەفس	-4025
▁گەلانی	-4026
اوەڕ	-4027
▁لەدژی	-4028
▁جاران	-4029
▁خواردن	-4030
▁دەسەلاتی	-4031
ەتەکانی	-4032
▁بەراورد	-4033
مەز	-4034
ەفی	-4035
▁پۆل	-4036
▁بریتییە	-4037
▁ڕۆحی	-4038
▁ئافرەتان	-4039
▁گرووپ	-4040
▁دەخاتە	-4041
▁دادپەر	-4042
▁کیل	-4043
▁گل	-4044
ابن	-4045
▁کەت	-4046
▁وەرزی	-4047
▁گواستنەوەی	-4048
▁دانو	-4049
دارە	-4050
▁کوێ	-4051
ڕن	-4052
▁دەرگای	-4053
سە	-4054
▁سەرەوە	-4055
▁هەرچەند	-4056
▁گۆش	-4057
▁وسلم	-4058
▁بەرپرسیارێتی	-4059
▁قوتابی	-4060
▁پێشانگای	-4061
▁نەماوە	-4062
▁خێزانی	-4063
▁لەسەری	-4064
هان	-4065
..	-4066
▁وەسف	-4067
▁g	-4068
▁ئەوەندەی	-4069
دەکەن	-4070
▁2006	-4071
ri	-4072
▁هاتە	-4073
▁زیندوو	-4074
▁دینی	-4075
▁بەخۆی	-4076
▁جەمال	-4077
▁لەبەغ	-4078
ێیت	-4079
▁بچوک	-4080
▁شیعە	-4081
▁گرفتی	-4082
▁وال	-4083
▁خۆڵ	-4084
▁دەریا	-4085
▁گەرمیانی	-4086
▁کردەوه	-4087
▁ڕاکێش	-4088
▁یۆن	-4089
▁34	-4090
ارێز	-4091
▁ژنی	-4092
▁دەیانهەوێت	-4093
▁ناوخۆیی	-4094
ۆنە	-4095
▁سۆران	-4096
▁توێژینەوەی	-4097
▁دەرمان	-4098
▁لایەنەکان	-4099
▁خۆیاندا	-4100
▁فەرهەنگ	-4101
▁سۆز	-4102
▁ئەخل	-4103
▁باشوری	-4104
▁بەکارد	-4105
▁دواتری	-4106
▁گوایە	-4107
اوەر	-4108
رن	-4109
ئە	-4110
▁هاتوون	-4111
▁موڵ	-4112
▁ناوداری	-4113
▁هاووڵاتیان	-4114
▁قاعید	-4115
▁سم	-4116
▁سارد	-4117
▁بەڵێنی	-4118
▁بەهەموو	-4119
▁کۆکردنەوەی	-4120
▁هەلومەر	-4121
▁فەڕ	-4122
▁کۆیل	-4123
ۆکە	-4124
▁دیموکراسی	-4125
▁بڕوای	-4126
▁کاتەی	-4127
▁دەزگاکانی	-4128
قە	-4129
▁سوت	-4130
▁زۆریان	-4131
دەکاتەوە	-4132
▁زۆرە	-4133
ێشەم	-4134
زین	-4135
▁وەکوو	-4136
▁دەستور	-4137
ەکێ	-4138
▁ئێک	-4139
▁خەس	-4140
▁سیروان	-4141
ەینە	-4142
▁ئەمج	-4143
▁ڕەوش	-4144
▁بارەیەوە	-4145
▁تردا	-4146
▁تەکن	-4147
▁درام	-4148
▁سامان	-4149
ck	-4150
▁کچە	-4151
▁سکاڵ	-4152
▁دەکاتە	-4153
▁گەورەیە	-4154
▁شوێنێکی	-4155
▁بلاو	-4156
▁لێژنەی	-4157
▁کەسوکاری	-4158
یەت	-4159
▁لێکەوت	-4160
▁جن	-4161
▁چاوپێکەوتن	-4162
▁بەدەستی	-4163
▁زاڵ	-4164
▁دەگاتە	-4165
▁زیندان	-4166
▁هەڕەشەی	-4167
گەه	-4168
▁خۆراک	-4169
▁پێکهاتەی	-4170
▁ڕێکەوتن	-4171
▁دەستب	-4172
▁بەپێچەو	-4173
▁ئەکادی	-4174
▁بەخو	-4175
▁ناونیشانی	-4176
▁گول	-4177
▁زیر	-4178
▁بانگەو	-4179
سو	-4180
▁حی	-4181
ڵات	-4182
▁بۆچوونی	-4183
▁هەڵسەنگ	-4184
شەوە	-4185
▁قایم	-4186
▁بەشداربوو	-4187
▁ئەفغانستان	-4188
▁ویلای	-4189
▁نەهات	-4190
یانەوە	-4191
▁هەڵد	-4192
▁ناحیەی	-4193
▁کوردیش	-4194
▁زۆرجار	-4195
▁دیکەوە	-4196
▁زۆرب	-4197
ێدار	-4198
▁جەخت	-4199
▁هەمووان	-4200
کردنەو	-4201
▁گرتن	-4202
▁36	-4203
▁بکەوێت	-4204
گرتووە	-4205
▁ئامر	-4206
▁پێت	-4207
▁هێندەی	-4208
▁هاوڵاتیانی	-4209
▁وم	-4210
ەزان	-4211
کەکان	-4212
▁پیشەسازی	-4213
▁کردبێت	-4214
▁دەوڵەمەند	-4215
▁هێزه	-4216
▁تەکنی	-4217
ۆچوونی	-4218
▁بەشار	-4219
▁باکووری	-4220
▁دەبینێت	-4221
▁بەمەش	-4222
▁دانیشتنی	-4223
▁پایتەخت	-4224
ەسمی	-4225
▁درووست	-4226
▁نووسەری	-4227
▁ڕۆح	-4228
هاتوو	-4229
▁دەوری	-4230
▁نیم	-4231
▁برا	-4232
)،	-4233
▁دەگێڕ	-4234
▁دەرەکی	-4235
ته	-4236
▁ئاید	-4237
▁بێز	-4238
گرتوو	-4239
▁ویستی	-4240
▁بگۆڕ	-4241
کاتە	-4242
▁تەی	-4243
ێیە	-4244
he	-4245
▁سوک	-4246
هەل	-4247
▁کاتە	-4248
▁پێشنیاز	-4249
▁پەس	-4250
ec	-4251
ەنسی	-4252
یانه	-4253
▁لەمەوبەر	-4254
▁درا	-4255
▁خستەڕوو	-4256
▁گیانیان	-4257
▁هیوا	-4258
▁دەکەیت	-4259
▁پێشەوە	-4260
▁لێن	-4261
▁پای	-4262
دەبێت	-4263
▁لایەنێک	-4264
▁هەروا	-4265
▁ڕوونیکردەوە	-4266
▁دزی	-4267
▁باڵیۆزی	-4268
▁بەدەستهێنانی	-4269
ەچێت	-4270
▁مافە	-4271
▁فەلەستی	-4272
روست	-4273
▁ڕایدە	-4274
▁دادگایی	-4275
▁حاک	-4276
▁پاشەک	-4277
ەکەس	-4278
ێستیڤ	-4279
▁لەوبارەی	-4280
▁تابلۆی	-4281
▁کرێکاران	-4282
▁لەچوارچێوەی	-4283
▁دیسان	-4284
▁دیاردەی	-4285
▁ئاژەڵ	-4286
▁پەرت	-4287
▁دووپاتی	-4288
مدا	-4289
▁دادوەری	-4290
▁گەلێک	-4291
ێرە	-4292
▁سەخت	-4293
▁قەیران	-4294
▁دەبات	-4295
▁لێرەوە	-4296
:"	-4297
▁پەراو	-4298
▁وەلی	-4299
▁بدۆز	-4300
▁پرۆگر	-4301
ایەتیی	-4302
▁ئاماژەیە	-4303
▁ڕاستەقینەی	-4304
▁قار	-4305
چن	-4306
راود	-4307
▁دەڵێم	-4308
ئەندا	-4309
▁سێشەم	-4310
▁دادوەر	-4311
▁واد	-4312
▁چەندە	-4313
▁دل	-4314
▁ئەکەن	-4315
تریش	-4316
ۆته	-4317
▁شاندی	-4318
▁نمون	-4319
▁میکانی	-4320
چاری	-4321
▁خراپی	-4322
▁بکوژ	-4323
جۆرە	-4324
▁ڕاگرتنی	-4325
▁تک	-4326
شیکردەوە	-4327
نەک	-4328
▁نەورۆز	-4329
▁60	-4330
▁ئیمار	-4331
▁پاری	-4332
▁مەو	-4333
▁میراود	-4334
▁ئامادەبوونی	-4335
▁قان	-4336
▁دەردەکەوێت	-4337
▁کەمکردنەوەی	-4338
▁لەمێژ	-4339
▁کاریان	-4340
▁دووبار	-4341
▁بناغ	-4342
لێمان	-4343
▁جەستەی	-4344
چەند	-4345
اداشت	-4346
ودەز	-4347
▁وتەی	-4348
▁هاتنە	-4349
▁دەرواز	-4350
پر	-4351
ەکیان	-4352
▁میراودەلی	-4353
راوەتەوە	-4354
▁بووین	-4355
▁ئەردۆغان	-4356
▁ڕووداوەکانی	-4357
▁ئازادیخواز	-4358
بژارد	-4359
موز	-4360
di	-4361
▁ئێ	-4362
▁سەرقاڵی	-4363
وتی	-4364
بخ	-4365
ژیان	-4366
▁دەکەو	-4367
▁33	-4368
▁برینداربوون	-4369
▁تێن	-4370
پەرستی	-4371
ەگەری	-4372
▁خۆرئاو	-4373
▁بانگەشەی	-4374
▁بەڵگەی	-4375
▁قەرز	-4376
ments	-4377
▁ڕێگری	-4378
▁وتو	-4379
▁سەرمایەداری	-4380
▁سێب	-4381
ەددین	-4382
▁وێست	-4383
▁سەرۆکایەتیی	-4384
ەکانت	-4385
▁بەڕاستی	-4386
▁دەل	-4387
▁جاری	-4388
▁زیانی	-4389
▁ئەوەشدا	-4390
دانە	-4391
▁زێڕ	-4392
▁کشتوکاڵی	-4393
▁ڕاوێژکاری	-4394
▁ساخ	-4395
▁ئاوا	-4396
▁خود	-4397
اسانی	-4398
▁مرۆیی	-4399
▁مێرد	-4400
▁هێنان	-4401
ییەکاندا	-4402
▁دواتریش	-4403
▁چوارەم	-4404
▁فراکسیۆنی	-4405
یشە	-4406
هاتە	-4407
کرێت	-4408
ڕێت	-4409
اوەکان	-4410
▁بەری	-4411
توور	-4412
▁ڕاسپ	-4413
▁خۆتان	-4414
▁بەرێز	-4415
▁گۆڕەپ	-4416
▁گەن	-4417
▁لەمەڕ	-4418
▁هەناس	-4419
▁دەستوری	-4420
بونەوەی	-4421
▁منی	-4422
▁کاوە	-4423
▁ئیخ	-4424
▁مەیدانی	-4425
▁چارەنووسی	-4426
▁میدیای	-4427
▁پیاوان	-4428
▁لەسن	-4429
//	-4430
▁500	-4431
▁دروستی	-4432
▁هەڵگری	-4433
▁://	-4434
▁a	-4435
▁ڕیال	-4436
▁باکوری	-4437
▁ڕەزامەندی	-4438
▁دروستبوونی	-4439
▁دەبنە	-4440
▁بەکاری	-4441
▁لاوانی	-4442
ێمان	-4443
▁خالید	-4444
▁دێموکرات	-4445
▁واژ	-4446
▁ڕابردو	-4447
▁مەش	-4448
▁ئێرە	-4449
▁دەژین	-4450
میل	-4451
▁قەڵەم	-4452
▁چەش	-4453
▁ڕوانگەی	-4454
▁پارێزگاکانی	-4455
▁لوت	-4456
▁مەسیح	-4457
▁لەمان	-4458
▁لەدو	-4459
ەڵبژارد	-4460
▁وەبەرهێنان	-4461
ەمبەری	-4462
انیە	-4463
▁نەخش	-4464
سکی	-4465
oo	-4466
▁لێیان	-4467
▁خۆشەویست	-4468
▁پەیوەندییە	-4469
▁ژینگەی	-4470
▁زمانێکی	-4471
▁سر	-4472
▁کارگێڕی	-4473
▁شاه	-4474
ەدەچێت	-4475
▁ئایند	-4476
▁تیرۆریستان	-4477
▁سلێمان	-4478
▁ئەکتەری	-4479
حاڵی	-4480
▁هەڵسوک	-4481
▁کوژراون	-4482
▁بەرژەوەندیی	-4483
شێو	-4484
ەستەی	-4485
▁هەوڵەکانی	-4486
ارن	-4487
▁خاتوو	-4488
▁دەچێتە	-4489
▁بەرزن	-4490
▁دەدەین	-4491
▁ناڕەزایەتی	-4492
▁دەسەڵاتە	-4493
▁37	-4494
▁ئەمه	-4495
▁پتر	-4496
ەتەوەو	-4497
هاو	-4498
▁کوردان	-4499
▁2004	-4500
▁ڕۆژهەڵات	-4501
▁وەرزشی	-4502
ەتەوه	-4503
▁ناوبژی	-4504
▁نەتەوه	-4505
ارین	-4506
▁برای	-4507
ەوەری	-4508
▁لین	-4509
▁ئەمڕۆی	-4510
▁وێران	-4511
ئاژانسی	-4512
ێنەر	-4513
▁هاتی	-4514
▁لەدەرەوەی	-4515
▁سەدر	-4516
▁ڕیک	-4517
▁ڕک	-4518
▁عاد	-4519
▁عەش	-4520
فت	-4521
▁ئاسمان	-4522
▁فێستیڤ	-4523
ەدایە	-4524
▁گەیاندنی	-4525
▁کۆتای	-4526
▁وڵاتێکی	-4527
▁جگەر	-4528
▁پلان	-4529
▁کۆنس	-4530
▁کێشەو	-4531
▁دۆسیەی	-4532
▁براد	-4533
▁سیاسییە	-4534
اهی	-4535
▁جەژنی	-4536
ire	-4537
رایەوە	-4538
▁ئاد	-4539
▁سەرش	-4540
▁دەور	-4541
▁سیاسیەکان	-4542
وزی	-4543
▁قووڵ	-4544
▁هاتن	-4545
▁بزانن	-4546
▁کۆڕ	-4547
وین	-4548
ووانی	-4549
▁ئەند	-4550
▁توشی	-4551
▁لایەنێکی	-4552
ەتان	-4553
خس	-4554
▁کۆبوونەوە	-4555
▁غەری	-4556
▁نەوە	-4557
هەم	-4558
▁پرسە	-4559
▁دەشێت	-4560
▁چڕ	-4561
▁وپ	-4562
▁بێن	-4563
رەو	-4564
▁خانەن	-4565
▁بەندی	-4566
▁دیوانی	-4567
▁خولەک	-4568
hare	-4569
▁چارەنووس	-4570
کەین	-4571
▁زاخۆ	-4572
▁ئابووریی	-4573
▁کۆنگرە	-4574
▁مامەڵە	-4575
▁ڕەنگی	-4576
▁پرۆژەی	-4577
▁تورکمان	-4578
▁کرایەوە	-4579
ەرکوک	-4580
▁فاش	-4581
▁لەمی	-4582
▁ماندوو	-4583
▁گور	-4584
نووس	-4585
▁حاڵەتی	-4586
▁لەمبارەیەوه	-4587
▁شوێنە	-4588
▁توانا	-4589
▁کوژران	-4590
▁پەیڕەو	-4591
ێرت	-4592
▁کچان	-4593
▁چالاکوانی	-4594
▁پێشکەوتوو	-4595
▁قوتابخانەی	-4596
شار	-4597
▁دەزانم	-4598
▁خواستی	-4599
▁دیس	-4600
کاو	-4601
▁ڕەشید	-4602
▁بارەگای	-4603
▁بەبۆنەی	-4604
جێ	-4605
▁فای	-4606
▁سەروەر	-4607
▁عێراقەوە	-4608
▁چاوەڕوان	-4609
▁مردنی	-4610
▁گروپە	-4611
ده	-4612
یشیان	-4613
▁کۆمیتەی	-4614
▁میدیا	-4615
▁کەمێک	-4616
▁درێژە	-4617
▁ئاواز	-4618
▁خۆب	-4619
اییەوە	-4620
▁حوکمڕانی	-4621
▁بەرف	-4622
انین	-4623
▁هێڵ	-4624
▁کۆر	-4625
▁بارەیەوه	-4626
▁پەرەپێدانی	-4627
دام	-4628
▁بیروڕ	-4629
▁١	-4630
▁سەرنجی	-4631
▁دەرچوو	-4632
▁کرێکارانی	-4633
▁زانا	-4634
▁مزگەوت	-4635
▁سوپاس	-4636
▁عاش	-4637
▁ڕێبەر	-4638
▁یۆر	-4639
▁نابین	-4640
▁پلە	-4641
▁ڕێوش	-4642
▁لەکۆتایی	-4643
▁بەرچاوی	-4644
کوژی	-4645
▁of	-4646
▁دوایین	-4647
▁بەهاری	-4648
it	-4649
▁ئەنفالکراو	-4650
کوو	-4651
▁زنجیر	-4652
ردووە	-4653
▁واشن	-4654
▁دۆلاری	-4655
▁شیعر	-4656
▁نەکەن	-4657
▁+	-4658
▁ڕووبەڕوو	-4659
دال	-4660
▁ئەفسەر	-4661
▁خوازی	-4662
▁نمایشی	-4663
▁فیکری	-4664
▁بزانین	-4665
رۆس	-4666
▁بڵێن	-4667
▁داوایان	-4668
▁بێتە	-4669
اوەتەوە	-4670
▁چوارچ	-4671
▁کارەبای	-4672
ناوی	-4673
▁دژە	-4674
سەل	-4675
▁پەیامی	-4676
▁کانونی	-4677
ژاد	-4678
▁مەم	-4679
▁ناسیۆن	-4680
▁گە	-4681
گەین	-4682
ve	-4683
ۆلۆ	-4684
رابوو	-4685
ێکانی	-4686
رایە	-4687
▁بۆمب	-4688
▁بیرکردنەوەی	-4689
lick	-4690
▁fb	-4691
▁جەب	-4692
کدا	-4693
▁باکوور	-4694
▁دێرین	-4695
▁ئاڕاستەی	-4696
▁لەف	-4697
▁ناڤ	-4698
▁بەرێوە	-4699
▁دید	-4700
▁سەرباری	-4701
▁ئینسانی	-4702
▁لەبەغدا	-4703
▁کێب	-4704
▁دەکرا	-4705
click	-4706
گیرد	-4707
اکاری	-4708
▁سوپا	-4709
▁میللی	-4710
▁دابەز	-4711
▁ئێس	-4712
▁کاس	-4713
▁ڕاستەقینە	-4714
▁بەرب	-4715
▁یەکێکیان	-4716
▁کەسانە	-4717
▁بریتین	-4718
▁فیلمەکانی	-4719
▁نێر	-4720
▁ئیتالیا	-4721
▁دەگرێتەوە	-4722
▁تیایدا	-4723
▁ئاماژه	-4724
▁تایبەتمەند	-4725
▁ڕۆڵێکی	-4726
ne	-4727
یەکاندا	-4728
▁چەمکی	-4729
▁بڵاوکردنەوەی	-4730
ییەکە	-4731
▁چۆ	-4732
▁ئەفری	-4733
▁بازاڕی	-4734
▁دەخواز	-4735
▁مرۆڤەکان	-4736
▁دانوستان	-4737
▁گوزار	-4738
ووسیت	-4739
▁38	-4740
▁شۆف	-4741
ێکم	-4742
▁سویس	-4743
▁لەلێد	-4744
▁دامودەز	-4745
اسای	-4746
▁2005	-4747
▁گەنجان	-4748
الان	-4749
▁بور	-4750
▁دەکوژ	-4751
▁فەو	-4752
▁تاکی	-4753
▁بنیاتن	-4754
▁ڕووسیا	-4755
ەماڵ	-4756
▁بەتەواوی	-4757
ah	-4758
وارد	-4759
▁لەسلێمانی	-4760
▁فێری	-4761
▁سامانی	-4762
وەی	-4763
▁زەب	-4764
▁پێشکەوتنی	-4765
اسیۆن	-4766
▁پیاوە	-4767
▁کاد	-4768
ورتی	-4769
▁حوزەیران	-4770
▁سینەما	-4771
▁بەشە	-4772
▁نیشتەجێب	-4773
▁پسپۆڕ	-4774
▁ڕف	-4775
لایەن	-4776
▁تەواف	-4777
▁شوان	-4778
▁نەکرێت	-4779
▁بنەماڵەی	-4780
▁شۆڕشگێڕ	-4781
▁ڕیزی	-4782
▁حەق	-4783
▁تێگەیشتن	-4784
▁جەعفەر	-4785
▁سەرچاوەکه	-4786
تیلافی	-4787
▁بمان	-4788
▁بکەینەوە	-4789
وردن	-4790
▁فەیل	-4791
▁سەرکردەی	-4792
▁ئیداری	-4793
▁خوشک	-4794
▁تیا	-4795
▁تیپ	-4796
▁سەنتەر	-4797
▁ئینتەرن	-4798
▁I	-4799
ol	-4800
▁بڵاودەک	-4801
▁پتەو	-4802
▁گاز	-4803
▁ناوچەیەکی	-4804
▁باژ	-4805
▁سەرکردە	-4806
▁فەرەنسی	-4807
▁95	-4808
▁ئەندازی	-4809
▁توندوتیژیی	-4810
خەڵ	-4811
▁ئاکام	-4812
▁بۆنەی	-4813
▁سروشت	-4814
▁دەسەڵاتدارانی	-4815
▁ئاشکرایە	-4816
▁شکستی	-4817
▁سێبەری	-4818
تنی	-4819
▁داخواز	-4820
بەش	-4821
▁لاوی	-4822
ڵێت	-4823
▁ڕامی	-4824
▁خۆیشی	-4825
▁دادەنرێت	-4826
رخ	-4827
تور	-4828
▁گرووپی	-4829
▁ئەکادیمی	-4830
ییانە	-4831
▁لەبەش	-4832
ation	-4833
هەڵاتی	-4834
▁دانا	-4835
▁پێشکەشی	-4836
▁مەح	-4837
▁هەڵە	-4838
▁بڵاوکراو	-4839
ادان	-4840
▁مەدەن	-4841
▁شارەکە	-4842
▁مەڵبەندی	-4843
▁ئۆپۆزسیۆنی	-4844
قامی	-4845
▁پێویستیان	-4846
▁بودجە	-4847
▁گرد	-4848
▁کورته	-4849
▁لوبنان	-4850
▁شانازی	-4851
▁پێکدا	-4852
نانی	-4853
▁دیاریکردنی	-4854
▁یوس	-4855
▁حاڵەت	-4856
▁هێل	-4857
▁کورس	-4858
ژیانی	-4859
▁ڕاستیدا	-4860
ڵانی	-4861
اکاندا	-4862
▁کۆمیسیۆنی	-4863
ەبێت	-4864
▁نییه	-4865
▁ئەگ	-4866
os	-4867
▁بنچ	-4868
▁لەکۆن	-4869
▁ڕوب	-4870
▁یەکسان	-4871
▁وشک	-4872
▁پڕۆ	-4873
▁توندی	-4874
ساز	-4875
▁منداڵانی	-4876
▁تەب	-4877
ستەکان	-4878
▁فەلسەفە	-4879
▁هەژار	-4880
▁ئاکامی	-4881
▁ئەیلول	-4882
نەکان	-4883
▁ئامادەکردنی	-4884
▁دەبەست	-4885
▁کوردایەتی	-4886
▁میوان	-4887
ژەن	-4888
▁ڕۆمانی	-4889
▁وەربگرێت	-4890
▁خەڵکە	-4891
▁ئاغ	-4892
▁واته	-4893
▁توانیان	-4894
▁خێڵ	-4895
▁تەقینەو	-4896
▁ئەق	-4897
▁ئیرادەی	-4898
▁دووەمین	-4899
▁تەئکید	-4900
▁ئۆتۆمبیل	-4901
▁مامەڵەی	-4902
دەت	-4903
▁39	-4904
▁دیمەن	-4905
▁مەری	-4906
▁حیزبەکان	-4907
لانی	-4908
▁پێشوازیی	-4909
▁دیکتاتۆر	-4910
▁نادات	-4911
▁فیدراڵی	-4912
پۆش	-4913
ئەوە	-4914
غی	-4915
▁هەنارد	-4916
▁ئەحمەدی	-4917
▁زوڵ	-4918
امن	-4919
▁مانگە	-4920
▁هەربۆیە	-4921
▁ڕوونکردنەوەی	-4922
▁هزری	-4923
سال	-4924
▁یەکلایی	-4925
▁ئیسلامیی	-4926
▁شیر	-4927
▁ور	-4928
▁پزیشک	-4929
کرن	-4930
▁لەسەردەمی	-4931
ایەو	-4932
▁دێن	-4933
ired	-4934
▁دەبیت	-4935
▁requ	-4936
▁لەشک	-4937
▁هاتوچۆ	-4938
▁بەکوردستانی	-4939
چست	-4940
▁دەژی	-4941
▁مارک	-4942
ۆکر	-4943
▁required	-4944
▁پارێزگاکان	-4945
ابەر	-4946
▁لەبری	-4947
▁شەرع	-4948
▁برایەتی	-4949
گیراوە	-4950
▁ڕق	-4951
▁بۆرژ	-4952
▁نیشانەی	-4953
▁واقیعی	-4954
▁پارچە	-4955
▁ئەشک	-4956
▁بەدڵ	-4957
▁مەبەستە	-4958
اکردنەوەی	-4959
انەن	-4960
▁قەبارەی	-4961
▁وشە	-4962
▁پێکهاتەکانی	-4963
▁دەستەو	-4964
▁حەو	-4965
▁ئاماژەیه	-4966
ەسەل	-4967
▁بەراز	-4968
▁ڕەگەزی	-4969
▁لەرێگەی	-4970
ووان	-4971
▁گەیشتە	-4972
▁ئیج	-4973
▁ڕابردووی	-4974
▁کۆریای	-4975
▁ئێمەدا	-4976
▁بزانێت	-4977
▁بەهێزی	-4978
▁زانک	-4979
▁ویژ	-4980
ڵق	-4981
▁ناگ	-4982
▁ڕاهێنەری	-4983
استیدا	-4984
دەری	-4985
ێوەر	-4986
▁ئاراوە	-4987
▁تەمموز	-4988
▁وز	-4989
▁لەلێدوان	-4990
▁ژنە	-4991
▁هاوکێش	-4992
▁سەروەری	-4993
▁بەخش	-4994
▁دۆزی	-4995
▁دەبنەوە	-4996
اکتی	-4997
ەڕۆ	-4998
▁سزا	-4999
▁توانیویەتی	-5000
▁ترسی	-5001
▁هاشمی	-5002
▁ناسراو	-5003
▁بەشێوەی	-5004
▁سەڵ	-5005
▁خۆپیشاندەران	-5006
▁H	-5007
ولی	-5008
▁یانەکانی	-5009
▁خانەو	-5010
▁فۆر	-5011
▁نیشاند	-5012
▁کارکردنی	-5013
▁کۆبونەوەی	-5014
▁ڕەمزی	-5015
بەت	-5016
▁زەحمەت	-5017
هی	-5018
ەکانیاندا	-5019
▁ئاخۆ	-5020
▁ڕووداوی	-5021
▁پرسیارە	-5022
▁پەیوەندییەکی	-5023
▁ئاماده	-5024
▁پەخش	-5025
▁میسری	-5026
قەی	-5027
▁نێ	-5028
▁بەئاماد	-5029
▁پەراوێز	-5030
▁فەیس	-5031
ۆڕی	-5032
▁نموونەی	-5033
▁تەکنەل	-5034
بکەین	-5035
▁پیت	-5036
ێدا	-5037
▁ئاوات	-5038
▁هاری	-5039
▁جەوه	-5040
▁ڕایانگەیاند	-5041
▁لەپێناوی	-5042
▁هاوپەیمانیی	-5043
▁42	-5044
▁لەحکوم	-5045
________________	-5046
ut	-5047
▁ئەوەتا	-5048
▁وێنەیەکی	-5049
ەسی	-5050
▁دەرئەنجام	-5051
▁ئازاری	-5052
▁کەوتە	-5053
▁تان	-5054
▁دەفەرم	-5055
▁بەبڕی	-5056
ەنها	-5057
▁جەو	-5058
▁جوڵ	-5059
▁بووەتە	-5060
▁نیاز	-5061
▁سار	-5062
▁مای	-5063
هەر	-5064
▁شوێنێک	-5065
▁سەقامگیری	-5066
▁سیاسیەکانی	-5067
ic	-5068
▁شم	-5069
وشی	-5070
پەنج	-5071
▁یەکگرتووی	-5072
▁هۆن	-5073
▁سێکس	-5074
▁دەگوترێت	-5075
▁48	-5076
▁بەخێر	-5077
ەیانی	-5078
▁شایانی	-5079
انن	-5080
▁یاساو	-5081
▁بەوەدا	-5082
▁کێشەیەکی	-5083
▁ژینگە	-5084
▁خزمەتگوزاریی	-5085
▁پێیوایە	-5086
▁چەسپ	-5087
الیزمی	-5088
▁جۆن	-5089
▁دۆڕ	-5090
▁نەگ	-5091
▁گۆڕانی	-5092
شاد	-5093
▁بەڕێوەبەر	-5094
گەیەنن	-5095
▁تەع	-5096
▁ژاپ	-5097
▁43	-5098
▁وری	-5099
▁بڕوان	-5100
▁بژ	-5101
یەدا	-5102
▁کاراک	-5103
▁گۆڕی	-5104
▁لەمبارەیەوە	-5105
▁وتووێژ	-5106
▁70	-5107
▁کۆنفرانسی	-5108
▁گەشەی	-5109
سۆن	-5110
▁دەرهێنەری	-5111
دانەوە	-5112
▁باوەڕی	-5113
▁اڵ	-5114
▁بەڵگەن	-5115
▁مامۆستایانی	-5116
تل	-5117
ۆرد	-5118
▁هەماهەنگی	-5119
▁هۆڵەندا	-5120
▁هاوشێوەی	-5121
▁تاهیر	-5122
▁متمانەی	-5123
بڕیت	-5124
▁خراپتر	-5125
ەزانی	-5126
لێن	-5127
▁هەمیشەیی	-5128
▁کاردانەوەی	-5129
▁سان	-5130
▁نەهێشتنی	-5131
▁هەرکەس	-5132
▁وک	-5133
▁تکایە	-5134
▁پێدەچێت	-5135
▁ئاسۆ	-5136
▁تیۆری	-5137
ێرێت	-5138
▁مانچست	-5139
▁لەهەڵبژارد	-5140
مەت	-5141
▁ڕۆژنامەنووسان	-5142
▁دەگەیەنێت	-5143
▁لانی	-5144
▁مەعری	-5145
▁بەرەنگار	-5146
▁دەرببڕیت	-5147
▁سەربازیی	-5148
▁دیپلۆم	-5149
▁دەردە	-5150
▁بەمان	-5151
▁مۆدێرن	-5152
▁پەنابەران	-5153
امۆش	-5154
▁کاندیدی	-5155
▁دەرباز	-5156
▁مووچەی	-5157
▁گرێبەست	-5158
▁دەستەبەر	-5159
▁195	-5160
▁ململانێ	-5161
▁قەد	-5162
▁دیالۆگ	-5163
▁ئێن	-5164
▁55	-5165
▁نەخۆشخان	-5166
▁دەکرێتەوە	-5167
▁موح	-5168
▁وەرگرتن	-5169
▁لەهەولێر	-5170
▁ناوەکی	-5171
▁فراکسیۆن	-5172
▁بەشێوەیەک	-5173
▁مەزهەب	-5174
▁سل	-5175
▁ژیانێکی	-5176
▁بەڵکوو	-5177
▁نەناس	-5178
▁مون	-5179
بووی	-5180
▁کەشتی	-5181
گان	-5182
▁دەزانی	-5183
▁بەڕێوەبردنی	-5184
▁لایەنه	-5185
▁1991	-5186
▁41	-5187
ژن	-5188
▁بیروبۆچوونی	-5189
پێچ	-5190
▁لێدوانێکدا	-5191
یرانی	-5192
▁لەبەرچاو	-5193
▁کۆنگرەیەکی	-5194
▁گەورەو	-5195
گەو	-5196
▁کاتەدا	-5197
▁بنووس	-5198
▁ناوچه	-5199
▁وەرگرتووە	-5200
▁ڕام	-5201
▁وزەی	-5202
▁لەوانەی	-5203
▁گەشەپێدانی	-5204
▁پیس	-5205
▁هەڵدە	-5206
▁توانیو	-5207
▁دەبینی	-5208
▁هونەرمەندان	-5209
▁نەبن	-5210
▁قاسم	-5211
▁کرن	-5212
▁ساڵانە	-5213
▁حەقیق	-5214
▁ئۆج	-5215
▁گەڕان	-5216
▁فەرمانگەی	-5217
سیق	-5218
▁دامەزراوە	-5219
▁فرۆشتنی	-5220
▁لەچاو	-5221
▁مەخ	-5222
▁بەرزی	-5223
▁هۆشیاری	-5224
یلی	-5225
▁ڕاش	-5226
رەس	-5227
▁گەڕانەوە	-5228
خستن	-5229
▁کەڕ	-5230
▁بۆمان	-5231
▁ڕێبین	-5232
▁حکومی	-5233
ەتێک	-5234
▁سەعد	-5235
▁شارەزای	-5236
▁هۆشیار	-5237
▁یێ	-5238
ڤین	-5239
▁بخاتە	-5240
▁٢	-5241
▁ئوست	-5242
▁کەند	-5243
▁یون	-5244
وەتەوە	-5245
▁بەرەوپێش	-5246
ەشە	-5247
▁ئامادەن	-5248
▁خواز	-5249
▁44	-5250
▁بینینی	-5251
▁کوردیدا	-5252
ەرەکانی	-5253
▁بێج	-5254
▁ماست	-5255
▁سالار	-5256
▁هەواڵگری	-5257
▁حاکم	-5258
▁بەدرێژ	-5259
▁بەسەرۆک	-5260
لات	-5261
▁مەشق	-5262
کەوتی	-5263
▁کارت	-5264
▁ترسناک	-5265
▁کردەوەی	-5266
▁لەوبارەیەوە	-5267
▁بابەتانەی	-5268
ew	-5269
▁عێراقیش	-5270
▁بیرکردنەوە	-5271
پێشخ	-5272
▁عەشق	-5273
▁یوسف	-5274
ووچ	-5275
فیق	-5276
▁متمان	-5277
▁ڕایگەیاندووە	-5278
ستانەی	-5279
▁نەروی	-5280
▁عوسمانی	-5281
▁80	-5282
▁وەفدی	-5283
▁کۆنتڕۆ	-5284
▁ڕادیۆی	-5285
▁کشانەوەی	-5286
▁بەرێوەبەری	-5287
گاو	-5288
▁سێیەمی	-5289
ژمێری	-5290
▁ڕۆژنامەنووسی	-5291
▁موع	-5292
▁لەهەو	-5293
▁پەرلەمانتار	-5294
▁دێموکراس	-5295
گێر	-5296
اندی	-5297
▁زۆرتر	-5298
ڕەحمان	-5299
▁لەخۆی	-5300
▁عەس	-5301
▁لێکرد	-5302
▁داناوە	-5303
▁کوردانی	-5304
▁سوودی	-5305
▁هیند	-5306
▁دەستیپێک	-5307
▁ڕاز	-5308
▁جوگرافی	-5309
▁چینایەتی	-5310
▁ما	-5311
▁بتوانین	-5312
▁عار	-5313
▁ئاسانی	-5314
▁لەدوو	-5315
▁لەسی	-5316
▁چوونە	-5317
▁چووە	-5318
▁ڕاگەیەن	-5319
پێد	-5320
▁خاڵە	-5321
▁یەکەی	-5322
ەڵاتی	-5323
▁لەڕۆژ	-5324
▁ئاستێکی	-5325
▁وایه	-5326
▁عێراقییەکان	-5327
▁لیبیا	-5328
▁هونەرمەندانی	-5329
اخی	-5330
▁تیادا	-5331
▁نال	-5332
▁ڕوویان	-5333
▁تۆڵ	-5334
هاتنی	-5335
▁کوردیی	-5336
▁کوردستانێ	-5337
▁لەعێراق	-5338
▁هەنگاوێکی	-5339
ماڵ	-5340
▁ڕۆژانەی	-5341
▁سب	-5342
▁نووسینگەی	-5343
▁یاسایە	-5344
▁ئایار	-5345
▁خەریکە	-5346
▁مرۆڤە	-5347
▁ئاسیا	-5348
▁مامۆستایان	-5349
▁کارەساتی	-5350
▁نەیانتوانی	-5351
▁بۆنی	-5352
▁کورتی	-5353
کن	-5354
▁دەگرن	-5355
▁جۆره	-5356
ڕۆژی	-5357
▁گەوره	-5358
▁سەندیکای	-5359
▁ساب	-5360
▁نێرد	-5361
▁پاکستان	-5362
▁حەر	-5363
ەخشی	-5364
▁شەنگ	-5365
▁گەڕەکی	-5366
ەکەیەوە	-5367
▁ئەلعێراق	-5368
▁لەبن	-5369
ەنیا	-5370
بوونە	-5371
▁کولتووری	-5372
▁ڕوسی	-5373
▁کیمیاب	-5374
▁فرە	-5375
ۆتەوه	-5376
عە	-5377
▁نییەب	-5378
▁بڕیاره	-5379
▁ڕۆژنامەوانیدا	-5380
▁ئەبێ	-5381
▁فەرمانڕەو	-5382
▁بوارەکانی	-5383
▁شیعری	-5384
▁ڕاسپارد	-5385
▁سەند	-5386
▁بەیەکەوە	-5387
▁ستی	-5388
▁هۆز	-5389
▁دەگۆڕ	-5390
ەپەڕ	-5391
▁باشترە	-5392
▁گاڵ	-5393
▁بەرنامە	-5394
امبەری	-5395
▁کوردستانیان	-5396
تەرخ	-5397
▁ناویان	-5398
▁کەسانێک	-5399
چونی	-5400
▁کاو	-5401
ەترین	-5402
▁بناس	-5403
▁مۆڵەتی	-5404
▁وێ	-5405
▁داوه	-5406
▁ڕووداوە	-5407
▁}	-5408
▁دەستە	-5409
▁قوب	-5410
▁کردوون	-5411
▁زیاترە	-5412
▁دەبەن	-5413
▁ئەوەبوو	-5414
▁ئەبو	-5415
وانینی	-5416
▁{	-5417
▁هەبوونی	-5418
▁موت	-5419
▁لەکەرکوک	-5420
▁ود	-5421
▁ئەهلی	-5422
▁تەڵ	-5423
▁خەونی	-5424
اهیر	-5425
▁ترا	-5426
▁هاته	-5427
▁عەد	-5428
▁ولاتانی	-5429
کاتی	-5430
▁موق	-5431
▁کوردس	-5432
▁بۆشایی	-5433
▁دەهێنن	-5434
بەسەر	-5435
▁بچێتە	-5436
▁داهێنان	-5437
▁لێکدانەوەی	-5438
▁سەرچاوەکانی	-5439
لۆن	-5440
▁مارکس	-5441
▁مەبەستەش	-5442
▁جێگر	-5443
▁بەشەکانی	-5444
▁قسەکردن	-5445
▁ناوچەکەدا	-5446
▁ڕۆیشت	-5447
▁مات	-5448
▁سروو	-5449
▁موراد	-5450
▁پەیکەر	-5451
وێت	-5452
▁بەدوور	-5453
▁پیرۆزی	-5454
▁هەندێکیان	-5455
▁ئەنق	-5456
الا	-5457
▁باراک	-5458
▁قەرەبوو	-5459
est	-5460
▁u	-5461
▁300	-5462
▁لەمیانەی	-5463
▁دەربڕی	-5464
ەڕۆی	-5465
▁سەرهەڵدانی	-5466
ber	-5467
ۆد	-5468
▁فل	-5469
▁مەلی	-5470
▁هەڵمەتی	-5471
▁سندو	-5472
▁46	-5473
▁واتای	-5474
▁پێنجەم	-5475
▁ئیخوان	-5476
▁نەرم	-5477
▁هەرێمە	-5478
▁دەرکردنی	-5479
ڕای	-5480
▁ناشرین	-5481
▁بەخشی	-5482
▁شاندێکی	-5483
▁ڕێککەوت	-5484
▁ناتوانێ	-5485
▁بەئاو	-5486
وەز	-5487
ەخشێت	-5488
▁وردە	-5489
▁نیوەی	-5490
▁وتاری	-5491
کۆل	-5492
▁گران	-5493
▁جێن	-5494
▁ئەشکەنج	-5495
▁لایەنگرانی	-5496
فەی	-5497
▁دوچاری	-5498
یداوە	-5499
▁لەح	-5500
▁گۆڵی	-5501
ey	-5502
نک	-5503
▁سود	-5504
دەدەن	-5505
▁نەخشەی	-5506
and	-5507
▁شێرکۆ	-5508
ەنجوم	-5509
تاری	-5510
▁دەستبەر	-5511
▁کیش	-5512
▁سەرتاسەری	-5513
▁جول	-5514
▁باڵیۆز	-5515
▁گۆرانیبێژ	-5516
▁ئاڵای	-5517
▁ئیتالی	-5518
▁ببنە	-5519
▁فەلسەفەی	-5520
▁شون	-5521
▁خێرا	-5522
▁هەری	-5523
▁سووک	-5524
▁ئێراندا	-5525
▁R	-5526
▁حکومەتەکەی	-5527
گەیەند	-5528
دن	-5529
▁بەرهەمەکانی	-5530
▁زیرەک	-5531
▁دەڕوات	-5532
▁بژی	-5533
کاتدا	-5534
لیۆن	-5535
▁شەممه	-5536
▁نەژاد	-5537
▁مەراسی	-5538
▁ڕێکخستن	-5539
▁غەز	-5540
▁ئیع	-5541
▁الع	-5542
▁ڕست	-5543
▁قورئان	-5544
ex	-5545
▁مێر	-5546
فرۆش	-5547
▁بەهای	-5548
▁دەناس	-5549
▁تۆڕی	-5550
▁حزبی	-5551
▁کەلوپ	-5552
▁ببن	-5553
em	-5554
ێکان	-5555
▁یەکجار	-5556
▁هەواڵێکی	-5557
▁جل	-5558
▁47	-5559
▁بەرپرسێکی	-5560
▁ناخ	-5561
▁پاڵێو	-5562
راوێکی	-5563
tm	-5564
▁ڕێککەوتنی	-5565
یار	-5566
▁چۆڵ	-5567
▁بۆسەر	-5568
▁بەهر	-5569
▁پێدەکات	-5570
▁ha	-5571
▁سەرەکیی	-5572
▁یەکەمیان	-5573
▁دراوس	-5574
ژە	-5575
▁خواردنی	-5576
وانە	-5577
▁ئاشکرایکرد	-5578
▁قۆناغێکی	-5579
▁لەکۆمەڵ	-5580
▁ڕەوت	-5581
▁وابوو	-5582
▁هیوادارم	-5583
یاری	-5584
▁پێناوی	-5585
▁جەز	-5586
چەماڵ	-5587
▁کەسیش	-5588
▁حکوومەتە	-5589
▁بانکی	-5590
▁هاوچەر	-5591
خوارد	-5592
▁مرد	-5593
▁عبدال	-5594
▁شانۆیی	-5595
▁چەق	-5596
▁یەکێکی	-5597
▁مەسیحی	-5598
داد	-5599
▁پە	-5600
▁دابوو	-5601
▁چاوەڕێی	-5602
ریت	-5603
▁تەح	-5604
▁چوارچێو	-5605
▁لەڕێی	-5606
▁هەڵبژاردە	-5607
▁عادل	-5608
▁قوربانیانی	-5609
▁هەوڵدان	-5610
▁تیشکی	-5611
▁پیاوانی	-5612
▁کەمتەرخ	-5613
▁موحەمەد	-5614
▁جینۆساید	-5615
▁کاکە	-5616
▁htm	-5617
▁ناوچانە	-5618
▁شێرپەنج	-5619
▁زر	-5620
▁کێشەیە	-5621
▁نایات	-5622
▁ڕیف	-5623
▁دوکان	-5624
▁ئارەزووی	-5625
▁ئیئتیلافی	-5626
ورکی	-5627
▁سەرکردەکانی	-5628
▁دەوڵەتە	-5629
▁کلاسی	-5630
▁دواب	-5631
فتی	-5632
ەولا	-5633
▁جدی	-5634
▁قوتابیان	-5635
▁مۆب	-5636
▁متمانە	-5637
▁نەدا	-5638
▁بووبێت	-5639
▁ڕۆشنبیریی	-5640
▁خۆشحاڵ	-5641
▁زله	-5642
▁شەخ	-5643
▁شەف	-5644
▁ئەلب	-5645
▁خەمی	-5646
▁هەندێ	-5647
مێس	-5648
الیستی	-5649
▁کڵ	-5650
ێڵێت	-5651
▁یاریدەد	-5652
▁دەرکرد	-5653
▁لق	-5654
▁گومانی	-5655
ەپە	-5656
▁هاتووچ	-5657
▁ذ	-5658
پەری	-5659
▁ئیسلامییەکان	-5660
▁سوکایەتی	-5661
ch	-5662
ێکرد	-5663
▁ئەلی	-5664
▁دەستدر	-5665
نین	-5666
▁ئێوارە	-5667
▁دەبینن	-5668
▁49	-5669
▁بەف	-5670
اوانی	-5671
▁تازەی	-5672
▁ڕەسوڵ	-5673
▁دەستگیرکردنی	-5674
▁ڕایدەگەیەنێت	-5675
▁دەڤەر	-5676
وندی	-5677
▁تەلەفزیۆنی	-5678
▁چەواش	-5679
ــ	-5680
▁کەلە	-5681
▁دەرفەتی	-5682
▁تیشک	-5683
▁شۆڤ	-5684
پا	-5685
▁بۆتەوە	-5686
▁کەپ	-5687
▁ناوچەیە	-5688
گراف	-5689
▁ڤێ	-5690
▁ئالان	-5691
▁لەنزیک	-5692
▁بەکر	-5693
▁نەس	-5694
▁یەکگرتو	-5695
▁کەوتووە	-5696
▁سوڵ	-5697
▁52	-5698
▁ڕونی	-5699
▁سەفەر	-5700
lo	-5701
ەمەوە	-5702
▁خۆشب	-5703
▁قسەکانی	-5704
▁قوتابخانە	-5705
▁گرینگ	-5706
▁پێشو	-5707
کرایەوە	-5708
▁کرێکاری	-5709
▁تیرۆریست	-5710
▁کۆش	-5711
▁دنیادا	-5712
ونە	-5713
▁گوێب	-5714
▁عەباس	-5715
▁شەقامی	-5716
▁بەنزین	-5717
▁تەماشای	-5718
▁بەرپرسە	-5719
▁فەرماند	-5720
▁کاف	-5721
▁مشت	-5722
بێتەوە	-5723
▁خانەی	-5724
▁دەشڵێت	-5725
ەپێدان	-5726
وورد	-5727
ئەس	-5728
▁بوونەتە	-5729
▁تیم	-5730
ێکمان	-5731
▁جیهاد	-5732
▁بڵێ	-5733
▁لەشکری	-5734
▁51	-5735
ەویت	-5736
▁ڕادیۆ	-5737
▁لەپاش	-5738
▁شیوعی	-5739
▁کەمئەندا	-5740
▁قاچ	-5741
▁پیاوی	-5742
▁قەن	-5743
▁لەپەی	-5744
▁پەنابەر	-5745
▁نزیکی	-5746
▁ئامادەکاری	-5747
▁سەرژمێری	-5748
▁پۆڵ	-5749
▁پراکتی	-5750
▁بڵێت	-5751
▁خوێندکاران	-5752
▁گەمار	-5753
▁لەتی	-5754
زانە	-5755
▁دێر	-5756
▁لەڕێگای	-5757
کارانی	-5758
▁L	-5759
▁دروشمی	-5760
▁تەکنەلۆژی	-5761
▁لەوڵات	-5762
▁دەمێنێتەوە	-5763
▁هێزو	-5764
▁ڕووخ	-5765
▁پێموایە	-5766
ani	-5767
▁ڕوی	-5768
▁نەخێر	-5769
▁ئەمەی	-5770
▁ناوەڕاستی	-5771
ەجێ	-5772
▁دەتوانرێت	-5773
▁خولەکی	-5774
▁ئەنجامب	-5775
▁پڕۆژەکە	-5776
▁بێه	-5777
▁سەلاحەددین	-5778
▁بنەما	-5779
کردنەوەو	-5780
▁داخوازی	-5781
▁هان	-5782
▁هەف	-5783
▁ڕەحمان	-5784
▁عەلمانی	-5785
لەت	-5786
▁ڕێزی	-5787
▁فارسی	-5788
▁بەتوان	-5789
▁سەلماند	-5790
▁194	-5791
▁ناتوانین	-5792
▁سیاسەتمەد	-5793
مای	-5794
▁نەمان	-5795
▁کەریمی	-5796
▁مەترسیدار	-5797
گرم	-5798
▁بەشداریکردن	-5799
▁بوش	-5800
▁لەزۆر	-5801
▁کارمەندانی	-5802
▁زێب	-5803
▁هەڵەی	-5804
ەنجومەنی	-5805
▁شانۆگەری	-5806
لێ	-5807
▁مۆسیق	-5808
قر	-5809
▁بانگەواز	-5810
▁ڕەتی	-5811
▁گۆڕەپانی	-5812
▁مەکەن	-5813
اوەری	-5814
▁جیابوون	-5815
▁جیاوازە	-5816
▁سەردانەکەی	-5817
▁بڵاودەکرێنەوە	-5818
▁53	-5819
▁یانی	-5820
دەدات	-5821
ینەوەو	-5822
▁فەت	-5823
▁کەد	-5824
▁یاخی	-5825
▁موچەی	-5826
▁تاد	-5827
▁کاربەدەست	-5828
▁بەرگریی	-5829
▁کۆیە	-5830
▁بەئامادەبوونی	-5831
ەشیان	-5832
▁گرێد	-5833
▁فەیلەس	-5834
▁بگاتە	-5835
▁ان	-5836
▁پێشبڕ	-5837
▁الن	-5838
▁سوننە	-5839
ەرەوە	-5840
▁دڕند	-5841
▁شەپۆل	-5842
▁نه	-5843
▁زەمین	-5844
▁گەنجانی	-5845
▁ناسنامەی	-5846
▁ناپ	-5847
▁لەکوردستاندا	-5848
ڵە	-5849
▁هەڵبەت	-5850
▁بەوه	-5851
▁عەبدولڕەحمان	-5852
▁نوێژ	-5853
نشین	-5854
ەدار	-5855
▁هەڵک	-5856
ستن	-5857
▁پان	-5858
▁شەهیدانی	-5859
▁ئەج	-5860
▁موبار	-5861
▁درەنگ	-5862
رێس	-5863
▁ببینێت	-5864
▁یاداشت	-5865
▁بنک	-5866
▁دەوروبەر	-5867
▁بەها	-5868
▁کێبڕ	-5869
ەکانیانە	-5870
▁دەستپێشخ	-5871
▁ڕووداوەکان	-5872
▁بگێڕ	-5873
▁گرنگترین	-5874
▁خولەکە	-5875
▁دەه	-5876
yah	-5877
▁گوێی	-5878
ەدەن	-5879
▁زیادکردنی	-5880
▁نیسان	-5881
▁پێغەمبەری	-5882
▁54	-5883
▁ڕوویدا	-5884
▁in	-5885
▁دەڤ	-5886
▁یەکە	-5887
▁ئەستۆی	-5888
▁دەوڵەتێکی	-5889
▁ئۆرگ	-5890
▁جووڵ	-5891
▁دڵشاد	-5892
▁بایەخی	-5893
▁بێتەوە	-5894
شم	-5895
▁پەنابەرانی	-5896
ارەکەی	-5897
ێنەی	-5898
▁باڵەک	-5899
▁جەه	-5900
▁سڕ	-5901
yahoo	-5902
▁نەجمەد	-5903
ەنین	-5904
▁لەدیدار	-5905
▁قارەمان	-5906
▁شاد	-5907
▁ئەمن	-5908
▁هەژاری	-5909
▁پەلاماری	-5910
▁ماس	-5911
▁فرمێس	-5912
ەتاح	-5913
ایەدا	-5914
▁بێبەش	-5915
▁مەرگی	-5916
کێکی	-5917
▁هاوسەرگیری	-5918
ارەیان	-5919
اسیۆنی	-5920
▁پاریس	-5921
▁ڕەزا	-5922
▁بێجگە	-5923
▁هەڕەشە	-5924
ناڵ	-5925
▁پانت	-5926
▁نازانێت	-5927
▁توندڕەو	-5928
▁ئەمریکاو	-5929
▁وەردەگرێت	-5930
▁توندوتیژ	-5931
dd	-5932
▁بەدرێژایی	-5933
ەڵە	-5934
▁جاڕ	-5935
▁ئۆکتۆ	-5936
▁لەوانەش	-5937
▁لەبەرژەو	-5938
▁بەشداریکردنی	-5939
▁تونس	-5940
▁کراوه	-5941
ییانەی	-5942
▁سیاسەتە	-5943
▁یانە	-5944
▁هێو	-5945
▁زێباری	-5946
▁بەکۆمەڵ	-5947
▁خوێندنەوە	-5948
بوونەو	-5949
▁56	-5950
▁نازناوی	-5951
سم	-5952
▁خۆشحاڵی	-5953
▁ژیانیان	-5954
ێتیی	-5955
▁ناسراوە	-5956
▁چەمچەماڵ	-5957
▁تورکیاو	-5958
▁بەتایبەتیش	-5959
▁بنەماکانی	-5960
▁یەوە	-5961
▁دەهات	-5962
▁نەشتەر	-5963
▁خاڵێکی	-5964
▁دەنگیان	-5965
▁ماوەتەوە	-5966
▁هاووڵاتیانی	-5967
▁G	-5968
▁ئەوەمان	-5969
▁هاوار	-5970
▁بەجی	-5971
▁قبوو	-5972
گوزاری	-5973
▁چاوەر	-5974
▁بەرزنجی	-5975
▁me	-5976
▁تەرم	-5977
▁ڕاگەه	-5978
▁باپ	-5979
▁لەئاستی	-5980
نسی	-5981
▁O	-5982
▁57	-5983
ێشتی	-5984
رۆژ	-5985
▁مەڕ	-5986
▁لۆژی	-5987
ێمە	-5988
▁تەرمی	-5989
▁کێڵ	-5990
▁ئیمەی	-5991
▁پێر	-5992
▁ئامێری	-5993
▁بەرشەل	-5994
▁بڕیارێکی	-5995
▁کاتێکی	-5996
am	-5997
▁ڕێکخراوێکی	-5998
ەبەیانی	-5999
▁لەوت	-6000
ڤە	-6001
▁مووچ	-6002
▁کیلۆم	-6003
ەفور	-6004
▁دۆر	-6005
▁تۆمەتی	-6006
▁یەکیەتی	-6007
▁وێنەگری	-6008
▁هاورد	-6009
▁پۆستە	-6010
▁بەکاردەه	-6011
▁یی	-6012
▁تاوانەکانی	-6013
▁بیرۆکەی	-6014
▁خۆڕا	-6015
▁جد	-6016
▁ناردنی	-6017
▁لەپەرلەمانی	-6018
▁کۆشکی	-6019
▁تایبەتدا	-6020
سەری	-6021
▁نەین	-6022
اکه	-6023
▁کوردەکانی	-6024
▁شەڕە	-6025
▁سویسرا	-6026
▁ڕەخنەگر	-6027
▁بکرد	-6028
▁دانیشتوان	-6029
ەکردەوە	-6030
stan	-6031
▁لەپارێز	-6032
بهێنێت	-6033
▁لەپاڵ	-6034
اکانیان	-6035
▁بپرس	-6036
▁بەرازیل	-6037
▁گەورەتر	-6038
▁خەلکی	-6039
▁ئاڵوگۆڕ	-6040
▁هەلی	-6041
▁کامیل	-6042
000	-6043
▁ماددە	-6044
▁چل	-6045
▁بەدیهێنانی	-6046
▁گەڕەک	-6047
▁پەت	-6048
▁هەولێرو	-6049
▁شیرین	-6050
▁فشار	-6051
یستە	-6052
▁زێڕین	-6053
▁دیکەدا	-6054
▁کوم	-6055
▁بۆخۆی	-6056
▁چاکی	-6057
▁90	-6058
▁ئەح	-6059
▁پارێزگا	-6060
▁192	-6061
▁بکاتە	-6062
▁ئۆسکاری	-6063
▁ڕێکەوتی	-6064
▁گلەیی	-6065
urdi	-6066
▁بینیوە	-6067
ۆنت	-6068
▁پیاوێکی	-6069
▁پرەنسی	-6070
▁میلیشی	-6071
▁سیناریۆی	-6072
▁قوڕ	-6073
گاکان	-6074
ەسەڵات	-6075
▁مەرجی	-6076
فیس	-6077
▁چا	-6078
اییە	-6079
یدان	-6080
▁ڕاگەیاندووە	-6081
رۆنی	-6082
▁دەبێته	-6083
ایدی	-6084
▁بێژ	-6085
▁نەتەوایەتی	-6086
▁ناکەم	-6087
▁بناغەی	-6088
▁دیو	-6089
▁ببەست	-6090
ەوەن	-6091
▁بەهرۆز	-6092
▁زۆربەیان	-6093
▁شەی	-6094
▁حساب	-6095
راب	-6096
فرۆ	-6097
▁ێ	-6098
▁لەقۆناغ	-6099
ێتەوه	-6100
▁ولاتە	-6101
▁گرتنی	-6102
▁سەرپەرشتیاری	-6103
▁یەکڕی	-6104
▁ڕەمەزان	-6105
▁بەختەو	-6106
▁شۆرش	-6107
ێنت	-6108
▁توور	-6109
▁هەژاند	-6110
▁ناڵ	-6111
▁کەوتنە	-6112
▁جگه	-6113
اتۆری	-6114
▁جۆ	-6115
▁سەرانی	-6116
بووم	-6117
▁سەختی	-6118
▁دەستەواژ	-6119
ازم	-6120
▁کەمە	-6121
▁وەربگرن	-6122
ینەکانی	-6123
▁بێدەنگی	-6124
▁لیبر	-6125
▁بەرمیل	-6126
انەکەی	-6127
▁خەلیل	-6128
▁پێشتریش	-6129
▁پرد	-6130
▁واشنتن	-6131
▁کارێک	-6132
▁قۆناغە	-6133
ەکەتان	-6134
اییەکان	-6135
ۆمێنتی	-6136
▁کۆمەک	-6137
▁بەپێچەوانەوە	-6138
▁وێر	-6139
▁بیروباوەڕ	-6140
line	-6141
هاتووە	-6142
▁مەنس	-6143
▁st	-6144
▁نووسراوە	-6145
▁مانەوە	-6146
▁مناڵ	-6147
▁ساو	-6148
▁شانۆک	-6149
▁هەڵسوڕ	-6150
▁دەمهەوێت	-6151
▁باج	-6152
▁کۆبوونەوەیەکی	-6153
▁کەسەی	-6154
▁ڕووخانی	-6155
پرسی	-6156
▁جەلەولا	-6157
شتە	-6158
▁هەردەم	-6159
▁بەتەنیا	-6160
▁زاری	-6161
گرتووەکان	-6162
▁فەز	-6163
▁ئەمان	-6164
▁بەزۆر	-6165
▁بێو	-6166
▁کەئەم	-6167
▁لێدانی	-6168
ەداو	-6169
لوبەر	-6170
▁کامێر	-6171
▁نادیار	-6172
▁گەیشته	-6173
گەن	-6174
▁We	-6175
▁کەسیان	-6176
ردومان	-6177
▁ببێتەوە	-6178
▁تاڵی	-6179
▁تێکست	-6180
▁مادد	-6181
امەت	-6182
▁ڕووسی	-6183
▁قایمقامی	-6184
▁کۆبونەو	-6185
من	-6186
▁غەریب	-6187
▁مەگەر	-6188
50	-6189
▁ناکەین	-6190
▁تۆر	-6191
▁مەتر	-6192
▁پله	-6193
ادین	-6194
هەلاتی	-6195
▁ئامراز	-6196
og	-6197
▁زوڵم	-6198
▁تاوانە	-6199
▁حکومەتێکی	-6200
▁بەشێکە	-6201
▁لەناوبردنی	-6202
▁زیادی	-6203
▁دانراوە	-6204
▁هانی	-6205
ئیس	-6206
ەنتی	-6207
▁مانا	-6208
اندەوە	-6209
▁خزمەتکردنی	-6210
ing	-6211
▁پێشمەرگەو	-6212
▁دەچن	-6213
70	-6214
پۆ	-6215
▁بەهێزکردنی	-6216
▁بێگ	-6217
▁سایەی	-6218
▁لەلایەک	-6219
▁بەفر	-6220
▁دەرئەنجامی	-6221
ورم	-6222
▁بریار	-6223
ادایە	-6224
▁لەهەڵ	-6225
▁کادر	-6226
▁ئەوروو	-6227
▁بووەوە	-6228
▁ڕوونیشیکردەوە	-6229
ودا	-6230
▁خۆپیشاندانی	-6231
حمد	-6232
ەندێک	-6233
▁کراوەتەوە	-6234
▁نەداوە	-6235
▁gu	-6236
▁وج	-6237
▁بریاری	-6238
▁بوارەدا	-6239
▁بابەتێکی	-6240
▁ترە	-6241
▁پێکهاتووە	-6242
پەروەر	-6243
▁ستراتیژ	-6244
ەمێش	-6245
▁شتە	-6246
▁ناشی	-6247
▁ئیمز	-6248
▁لەرۆژ	-6249
▁هەورامی	-6250
▁پاسەوان	-6251
▁بوونەوەی	-6252
▁یاریزانان	-6253
▁چالاکوان	-6254
اندایە	-6255
▁ڕێوڕ	-6256
▁بهێنە	-6257
▁شارەد	-6258
▁خەیاڵی	-6259
▁فەڕەن	-6260
▁باسیان	-6261
▁پیشەیی	-6262
شەممەی	-6263
ەرەی	-6264
▁دەکەینەوە	-6265
▁کچی	-6266
▁هەڵمەت	-6267
▁لەبەشێکی	-6268
▁پەرەسەند	-6269
ەکراو	-6270
▁لێوە	-6271
▁ئامۆژ	-6272
▁تەقەمەنی	-6273
▁حەفت	-6274
▁برۆ	-6275
▁بەڕێوەدەچێت	-6276
▁قازانجی	-6277
وویی	-6278
▁حاڵی	-6279
ەرێک	-6280
▁ڕێزلێن	-6281
ایەت	-6282
▁بێش	-6283
▁توڕ	-6284
▁تاریک	-6285
▁بەرگی	-6286
▁ئیماراتی	-6287
مانەوە	-6288
▁ڕەسەن	-6289
▁تریان	-6290
▁سیستم	-6291
▁نەگەیشت	-6292
▁ئەستۆ	-6293
▁پاشم	-6294
▁ڕادەستی	-6295
▁یاساکانی	-6296
▁خۆپێش	-6297
▁ماچ	-6298
▁خانمە	-6299
▁سەڵاح	-6300
▁موخت	-6301
گەیاندنی	-6302
بانگ	-6303
بەندی	-6304
▁ستاند	-6305
▁دەنووسن	-6306
▁فەرامۆش	-6307
▁گێڕانەوەی	-6308
▁جگەل	-6309
▁ڕوداو	-6310
ییەکانیان	-6311
▁دامەزراندن	-6312
▁جیاتی	-6313
▁قی	-6314
کاند	-6315
دایه	-6316
▁دەبینرێت	-6317
▁have	-6318
▁هاتۆتە	-6319
▁هاوکارمان	-6320
▁تووش	-6321
▁تەکنیکی	-6322
▁وەرنە	-6323
▁قازانج	-6324
▁عارف	-6325
▁سەرپێ	-6326
urdistan	-6327
▁ئەتۆمی	-6328
▁شێوەکاری	-6329
یشەوە	-6330
▁فکری	-6331
▁مەریوان	-6332
▁کرابوو	-6333
▁قوتابیانی	-6334
▁یەکەمجار	-6335
کەت	-6336
▁تام	-6337
▁نایابی	-6338
▁بەرزکردنەوەی	-6339
▁نوێت	-6340
ومی	-6341
▁کێشەکە	-6342
یتە	-6343
ەزم	-6344
▁کورددا	-6345
▁چیە	-6346
▁فیلمە	-6347
▁چۆمان	-6348
▁دەرفەت	-6349
▁خەڵکانی	-6350
▁گەردوونی	-6351
ەخۆ	-6352
▁لیژنەیەکی	-6353
ەید	-6354
▁حەش	-6355
فراند	-6356
ەکانتان	-6357
▁بەکوردی	-6358
▁مۆز	-6359
▁ڕەئ	-6360
▁ئامادەیە	-6361
▁بێکاری	-6362
▁دادپەروەری	-6363
▁مارکسی	-6364
▁ئازادکردنی	-6365
▁ترسن	-6366
▁ناتۆ	-6367
ەکرا	-6368
▁ڕەج	-6369
▁ئەرشی	-6370
ۆرتی	-6371
▁ڕۆژنامەوان	-6372
if	-6373
▁مەسەلەیە	-6374
ۆلۆجی	-6375
▁دیالە	-6376
▁دەنگد	-6377
▁هاوولاتیان	-6378
▁خیان	-6379
▁دەرکەوتنی	-6380
کورد	-6381
▁سەربەر	-6382
▁یێن	-6383
▁هۆکارێکی	-6384
▁بێئ	-6385
▁پەسند	-6386
▁کەئەو	-6387
ەڵەم	-6388
▁بانگه	-6389
▁حسابی	-6390
▁دەربڕین	-6391
▁سیر	-6392
▁دراوسێ	-6393
▁کردۆتە	-6394
▁شارو	-6395
ard	-6396
▁فاکتەر	-6397
▁بیرو	-6398
▁ئەمنییەکان	-6399
کۆم	-6400
▁دووری	-6401
▁فەتاح	-6402
▁لاوازی	-6403
▁پڕۆژەیە	-6404
ۆکه	-6405
id	-6406
▁online	-6407
▁شاعیری	-6408
▁سەرەنجام	-6409
▁لێکۆڵینەو	-6410
▁ماڵەوە	-6411
خستنەوەی	-6412
▁ئۆجالان	-6413
▁بمانەوێت	-6414
▁تف	-6415
▁شور	-6416
▁ماون	-6417
ڤیل	-6418
ێدەکات	-6419
▁زلهێز	-6420
▁دامەزراو	-6421
مارک	-6422
▁عێراقە	-6423
▁نایاب	-6424
کاتەوە	-6425
▁نەوەک	-6426
▁کچه	-6427
▁ستراتیژیی	-6428
اتا	-6429
▁بەوەشدا	-6430
دەخات	-6431
▁m	-6432
▁هەردی	-6433
بری	-6434
▁خۆڵەمێش	-6435
▁داگیرکەر	-6436
▁باڵاد	-6437
▁سەریان	-6438
▁وڵاتەدا	-6439
▁بۆردومان	-6440
ترو	-6441
ادەیەک	-6442
▁کڕینی	-6443
▁ماڵێکی	-6444
▁تێبینییەک	-6445
▁الل	-6446
ra	-6447
تۆی	-6448
▁پسپۆر	-6449
▁ئەوتۆ	-6450
ەکەیەتی	-6451
ests	-6452
▁سیاسیدا	-6453
▁وەردەگرن	-6454
▁دەمی	-6455
▁الح	-6456
▁جودا	-6457
▁پەسەندکردنی	-6458
▁چێژ	-6459
▁فرۆش	-6460
▁دەروازەی	-6461
▁خاوەنەکانیانە	-6462
▁لام	-6463
▁پەرە	-6464
ێنراو	-6465
▁ڕاپۆرتێکی	-6466
الە	-6467
▁تەها	-6468
▁لێکۆڵینەوه	-6469
▁هۆکارەکانی	-6470
▁عی	-6471
▁کرم	-6472
▁لەڕاستیدا	-6473
اکار	-6474
▁ئوت	-6475
تەمبەر	-6476
▁لەمانگی	-6477
▁بمێنێتەوە	-6478
▁guests	-6479
▁بوارە	-6480
▁خۆرهەڵاتی	-6481
▁پەیڕەوی	-6482
▁892	-6483
▁موش	-6484
▁بکەو	-6485
▁ئەستێر	-6486
▁پشکنینی	-6487
▁پێست	-6488
▁کوشن	-6489
▁بەشدارییان	-6490
▁150	-6491
ایەوه	-6492
▁پوور	-6493
▁کارتی	-6494
▁زەنگ	-6495
▁کەیسی	-6496
▁>	-6497
lan	-6498
▁مەیدان	-6499
▁شیعەکان	-6500
کەو	-6501
پەرست	-6502
▁گوتیان	-6503
▁دەربەندی	-6504
▁پەیوەندییەکان	-6505
▁ئاماژەشی	-6506
▁ژووری	-6507
▁هێرشەکانی	-6508
▁لێدوانی	-6509
▁لەسەرجەم	-6510
▁نامۆ	-6511
▁هەرس	-6512
▁ڕاستییە	-6513
کەش	-6514
▁59	-6515
▁ژەه	-6516
▁کۆمۆنیستی	-6517
رەتی	-6518
▁لەزان	-6519
▁تەئکیدی	-6520
کل	-6521
▁حەمید	-6522
اندنەوە	-6523
ارییەکان	-6524
حیم	-6525
▁درێژایی	-6526
▁پەرلەمانتاران	-6527
▁هێناو	-6528
▁نەجمەددین	-6529
▁بەرجەستە	-6530
▁دەستبەرداری	-6531
▁ئوس	-6532
▁دەستپێکی	-6533
▁لەوەدایە	-6534
▁خێرایی	-6535
▁دەوڵەتانی	-6536
▁پیشان	-6537
▁ماسی	-6538
▁لەئەنجامی	-6539
▁سزاد	-6540
لەو	-6541
▁شەرەف	-6542
▁ناودار	-6543
▁سەرمایە	-6544
▁ئەوروپی	-6545
▁ناساندنی	-6546
▁پێداچوون	-6547
▁ناسیون	-6548
▁دەستپێکردنی	-6549
▁تاڕ	-6550
▁نامێنێت	-6551
▁نێوانیان	-6552
شمان	-6553
▁شێوازێکی	-6554
▁عەدنان	-6555
ەخۆش	-6556
▁ڤیت	-6557
▁یەمەن	-6558
▁دەبوایە	-6559
▁ڕاپەڕینی	-6560
▁ژیر	-6561
▁بانگهێشت	-6562
▁خەلی	-6563
▁فەرهاد	-6564
▁ڕانیە	-6565
▁لەئاست	-6566
▁هەڵوەشاندنەوەی	-6567
انەکان	-6568
▁هەردووکیان	-6569
▁پاڵەوانیەتی	-6570
▁دانیشتووی	-6571
ext	-6572
▁مری	-6573
▁تاوتوێ	-6574
▁ئەوکاتە	-6575
▁لەبەرئەوە	-6576
▁هەلو	-6577
▁وردی	-6578
▁ڕاپرسی	-6579
▁گەورەکان	-6580
▁قسەکانیدا	-6581
▁شکاو	-6582
▁بەرنامەیەکی	-6583
▁پێشکەشکردنی	-6584
▁سڵ	-6585
▁موز	-6586
▁ئەگینا	-6587
ئێستاش	-6588
▁تاریق	-6589
▁سەرۆکوەز	-6590
▁ئوستر	-6591
▁ئەنوەر	-6592
▁تورکیادا	-6593
ەیه	-6594
▁هۆل	-6595
▁دروشم	-6596
▁مسۆ	-6597
▁مۆندی	-6598
▁آ	-6599
▁غاز	-6600
▁کامەران	-6601
شەو	-6602
بکاتەوە	-6603
▁میللەتی	-6604
▁شارەزایی	-6605
▁دۆخە	-6606
▁جلوبەر	-6607
▁هەوڵێکی	-6608
▁ڕیاڵ	-6609
▁ڕاهێنەر	-6610
بڕین	-6611
▁سەلی	-6612
▁نەتەوەکانی	-6613
▁خۆشیان	-6614
▁جەر	-6615
ەمەز	-6616
▁شتەکان	-6617
▁بەتەنها	-6618
▁دەتر	-6619
▁نایاسایی	-6620
▁گەشتو	-6621
ەڕێو	-6622
▁ئەخلاقی	-6623
کرنا	-6624
ۆب	-6625
▁وانەی	-6626
▁وەڵامێک	-6627
▁ئەکرد	-6628
▁لەدەستدا	-6629
▁پەرلەمانتاری	-6630
ەختە	-6631
▁هەژمار	-6632
▁دەنگدانی	-6633
▁ڕووداوێکی	-6634
▁دەگەر	-6635
▁پێشنیار	-6636
▁بریتیە	-6637
▁بەوەشکرد	-6638
زێ	-6639
▁هونەریی	-6640
▁زمانە	-6641
▁لەجیاتی	-6642
▁ڕیزەکانی	-6643
▁یاریگەی	-6644
▁تۆمارکرد	-6645
▁تەز	-6646
▁بۆند	-6647
▁بڕوات	-6648
▁لەکۆنگر	-6649
▁پرۆگرام	-6650
▁193	-6651
▁مەرک	-6652
▁بەدواداچوون	-6653
ەکراوە	-6654
ill	-6655
▁جارە	-6656
ینگ	-6657
چووە	-6658
▁بڕوا	-6659
▁تۆک	-6660
▁وەلام	-6661
▁عەبدولم	-6662
▁درێژخ	-6663
ۆدی	-6664
▁ئەبوب	-6665
▁جاش	-6666
▁بەفەر	-6667
پیوت	-6668
▁لەسێدار	-6669
▁ویلایەتی	-6670
▁یاسین	-6671
▁ڕەفتار	-6672
▁دەتوانم	-6673
▁دەربڕینی	-6674
▁پێکهاتە	-6675
▁ئۆکرانی	-6676
ێکخ	-6677
▁ئاگری	-6678
▁کوردییەکان	-6679
▁بەرهەڵ	-6680
▁بینای	-6681
▁بوونەوە	-6682
▁سۆم	-6683
▁جوتی	-6684
ەکردنەوەی	-6685
ەکانیانەوە	-6686
اکردن	-6687
▁بریتانی	-6688
▁جیاجیاکانی	-6689
▁لەشار	-6690
▁سێکسی	-6691
انم	-6692
▁ئاری	-6693
▁گەشە	-6694
▁لەشی	-6695
▁نیشتەجێبوون	-6696
▁دەنگەکانی	-6697
▁ئان	-6698
▁بۆت	-6699
▁کەسەر	-6700
ناسی	-6701
▁ناوچەیی	-6702
▁کفری	-6703
▁نوێدا	-6704
ریب	-6705
ەتیڤ	-6706
▁سیف	-6707
▁ڕەنج	-6708
▁نەهامەتی	-6709
▁کۆتاییدا	-6710
▁خەسڵ	-6711
▁کۆنترۆڵی	-6712
▁قبووڵ	-6713
▁خوێندکاری	-6714
▁لەعیراقدا	-6715
وپاگ	-6716
▁کتێبە	-6717
▁فەرەنس	-6718
ارت	-6719
▁کڕی	-6720
لاوی	-6721
▁ئەوسا	-6722
▁دهۆکێ	-6723
▁نزیکدا	-6724
▁سەردەمە	-6725
▁ناوچەکه	-6726
شێوەیە	-6727
ەح	-6728
بێژی	-6729
▁سایک	-6730
▁دوورە	-6731
▁لەپشت	-6732
▁گەیشتووەتە	-6733
ro	-6734
▁بەتاڵ	-6735
گرنگ	-6736
اشان	-6737
▁شارد	-6738
▁ڕۆژنامەنووسانی	-6739
▁بەندە	-6740
نیا	-6741
▁ئۆر	-6742
▁دیر	-6743
▁چەندان	-6744
▁ئەسڵانی	-6745
دوا	-6746
▁جیاب	-6747
▁نوێیە	-6748
ێنینەوە	-6749
▁خوڵق	-6750
▁ئەرکە	-6751
▁ڕاستەقین	-6752
▁کوردستانییەکان	-6753
▁بەدڵنی	-6754
▁بالای	-6755
▁جەبار	-6756
▁ئاماری	-6757
▁نوسینی	-6758
▁براوەی	-6759
▁بەنیاز	-6760
▁دووشەممە	-6761
دێت	-6762
▁پو	-6763
▁ڕێبوار	-6764
▁key	-6765
▁هەڵسوکەوت	-6766
▁نیوز	-6767
ێژەی	-6768
▁باوکم	-6769
▁94	-6770
▁وەری	-6771
▁پاڵاو	-6772
▁شوێنەو	-6773
▁تاقیکردنەوەی	-6774
▁هەردو	-6775
ەلای	-6776
▁یەکێ	-6777
▁بەدواداچوونی	-6778
روژ	-6779
▁عێراقییە	-6780
▁وادەی	-6781
▁کۆمیسیۆن	-6782
▁بگەڕێتەوە	-6783
▁بەچەند	-6784
▁خۆیانەوە	-6785
وڵێت	-6786
▁ڕێکخراوەکان	-6787
▁هاوسەری	-6788
▁هۆکارێک	-6789
سوڵ	-6790
▁خەلک	-6791
▁خشت	-6792
▁دابمەز	-6793
وودی	-6794
▁وەب	-6795
▁دڵنیا	-6796
▁یەکان	-6797
▁بڵێی	-6798
▁ئاوار	-6799
▁بڕە	-6800
▁بەلا	-6801
▁ئەیاد	-6802
▁ئازی	-6803
▁پرۆسەیەکی	-6804
▁جیاوازەکانی	-6805
▁تێکشک	-6806
▁سەق	-6807
▁نیشتیمان	-6808
▁کردنە	-6809
▁نەیتوانیوە	-6810
end	-6811
عەلی	-6812
▁باشور	-6813
▁ئەمڕۆش	-6814
▁ڕوودەدات	-6815
▁پێویستمان	-6816
گیردرێت	-6817
▁بەرواری	-6818
▁لەئار	-6819
▁فشاری	-6820
ۆتەوەو	-6821
▁سەرەکییەکانی	-6822
▁دایکم	-6823
▁کردنەوە	-6824
▁یاسایەک	-6825
▁نێودەوڵەتیی	-6826
▁ئو	-6827
▁فلم	-6828
لامی	-6829
▁لەوەز	-6830
دیق	-6831
▁سەرز	-6832
▁کوژراو	-6833
un	-6834
▁ببات	-6835
▁ئایدۆلۆژی	-6836
▁جڤ	-6837
تیان	-6838
▁موچ	-6839
گەکان	-6840
▁تەیب	-6841
▁سەپاندنی	-6842
▁هەڵبژاردنە	-6843
▁ناچێت	-6844
▁کارەکانیان	-6845
▁پشکی	-6846
جاری	-6847
▁کوتلەی	-6848
▁دەستیپێکرد	-6849
▁پەشی	-6850
استەو	-6851
▁کەمترین	-6852
▁ڕێبەری	-6853
الێ	-6854
▁گوزارشت	-6855
▁بۆرژوازی	-6856
▁سەرخستنی	-6857
▁بگەیەن	-6858
▁ئەرکێکی	-6859
▁مانچستەر	-6860
▁یانه	-6861
▁نەناسراو	-6862
ەدەس	-6863
▁نەمانی	-6864
▁بانگهێشتی	-6865
وڕی	-6866
ass	-6867
▁دەنێت	-6868
▁نزم	-6869
▁خەرجی	-6870
▁دەدەم	-6871
▁هەریەکە	-6872
ۆلیۆ	-6873
▁ئیح	-6874
▁سەردار	-6875
ێکدایە	-6876
▁بەپێو	-6877
▁نووسەرانی	-6878
لیمی	-6879
▁le	-6880
رک	-6881
▁ڕاستەوخۆی	-6882
▁بنکە	-6883
▁تۆز	-6884
▁بەرن	-6885
▁مەزهەبی	-6886
▁شین	-6887
▁پشکنین	-6888
▁ڕەخس	-6889
▁بەئاش	-6890
زۆ	-6891
▁mail	-6892
▁ئەخلاق	-6893
▁لەرووی	-6894
▁ڕەنگدانەوەی	-6895
▁بەئاسانی	-6896
▁گێر	-6897
▁تەف	-6898
▁قەرەدا	-6899
▁ناوەڕۆکی	-6900
▁هین	-6901
▁ئەمانەش	-6902
بول	-6903
ازدە	-6904
▁کلیپ	-6905
کارە	-6906
ame	-6907
اردی	-6908
▁لەوەدا	-6909
▁نێوانی	-6910
▁سەرکردایەتیی	-6911
ێوه	-6912
▁چالاکییەکانی	-6913
مێنێت	-6914
▁ڕێزگرتن	-6915
▁گەشەکردنی	-6916
گرێ	-6917
▁قەناع	-6918
▁ڕێژەیەکی	-6919
ەکیم	-6920
لیستی	-6921
▁هاوچەرخ	-6922
بلۆم	-6923
▁بەرگ	-6924
زیی	-6925
▁ڕووبەرووی	-6926
فان	-6927
▁حەڤ	-6928
▁بەستنی	-6929
▁لایەنگری	-6930
▁ئاڕاست	-6931
▁هەبوون	-6932
عەب	-6933
▁فیر	-6934
▁شوو	-6935
▁حەیدەر	-6936
ەیەکیان	-6937
▁موختار	-6938
▁ڕاپەر	-6939
ەکانیشی	-6940
▁ڕۆژەی	-6941
▁هەژم	-6942
▁مانگێک	-6943
▁نەمر	-6944
▁کەنەدا	-6945
▁لەتەک	-6946
گۆڕی	-6947
اسە	-6948
بەه	-6949
▁ڕێن	-6950
ەمینی	-6951
▁گۆلی	-6952
▁لەهاو	-6953
ۆلۆژ	-6954
کەریم	-6955
▁نامەی	-6956
▁بەسی	-6957
▁کەک	-6958
▁ڕۆشنبیران	-6959
▁لەتورکی	-6960
▁سەرلەن	-6961
▁ڕوخس	-6962
▁بکرێتە	-6963
▁بخرێتە	-6964
لاو	-6965
دەبێتەوە	-6966
▁کۆمپانیاکانی	-6967
▁ئینتەرنێت	-6968
ەبن	-6969
▁بخەنە	-6970
باز	-6971
ەدوای	-6972
▁دەستدا	-6973
▁ڕووەوە	-6974
▁بەردی	-6975
▁یەکسەر	-6976
▁ساغ	-6977
▁چاکسازیی	-6978
▁لەبەرامبەردا	-6979
هم	-6980
▁باکور	-6981
▁تیرۆرکردنی	-6982
▁اب	-6983
▁یوت	-6984
▁دەستبەسەر	-6985
ڤا	-6986
▁دەیەوێ	-6987
▁دەرچوونی	-6988
▁دەرناک	-6989
▁پێچەوانەوە	-6990
▁زێد	-6991
▁ئەمەریکای	-6992
▁دۆن	-6993
▁ئاوڕ	-6994
موج	-6995
▁گڵ	-6996
ەکردووە	-6997
▁زەحمەتکێش	-6998
▁دیج	-6999
▁کوێت	-7000
▁بەرجەست	-7001
▁ببینن	-7002
▁کاربەدەستانی	-7003
▁ماوەکەی	-7004
رەت	-7005
سازی	-7006
▁ڕاهێنان	-7007
▁هاور	-7008
▁ئەمجارە	-7009
▁سیاسیە	-7010
ەنه	-7011
▁دیناری	-7012
▁لەلێدوانێکی	-7013
▁مەغ	-7014
▁قەند	-7015
▁دروستکرد	-7016
▁کەناڵەکانی	-7017
بل	-7018
▁بنیات	-7019
ەزار	-7020
▁ئامانجە	-7021
anc	-7022
▁پۆز	-7023
▁بەڕی	-7024
▁هەرێمدا	-7025
ێته	-7026
▁ڕادەیەک	-7027
یشتن	-7028
▁ئەلق	-7029
▁کیمیایی	-7030
▁ئاسایییە	-7031
▁مح	-7032
▁مۆڵەت	-7033
▁قەیرانە	-7034
▁پانتایی	-7035
▁بەرێوەچوو	-7036
▁زام	-7037
▁جێهێشت	-7038
▁ئاسیایی	-7039
▁دیاله	-7040
▁تەنیایی	-7041
▁موبارەک	-7042
انسەری	-7043
▁وچ	-7044
▁تۆق	-7045
▁مسۆگەر	-7046
▁حەزی	-7047
رام	-7048
تیک	-7049
▁دڵت	-7050
پۆشی	-7051
ەناو	-7052
▁موج	-7053
▁دەوە	-7054
▁دیوار	-7055
▁ساڵان	-7056
▁سۆڤی	-7057
ەخس	-7058
▁موڵکی	-7059
▁پێکدادان	-7060
▁دەخات	-7061
▁ئاشنا	-7062
▁نووری	-7063
▁ئەمینداری	-7064
ەکانى	-7065
▁بشک	-7066
▁.	-7067
▁بڕۆ	-7068
▁دەرد	-7069
فا	-7070
▁نیشانی	-7071
▁چاودێر	-7072
▁خۆشە	-7073
▁هاوپەیمانێتی	-7074
▁شایست	-7075
▁بوونیان	-7076
▁پاراستن	-7077
ەڕی	-7078
▁بەرپرسیاری	-7079
خۆف	-7080
▁ڕەچاو	-7081
▁چەسپاندنی	-7082
▁دێنە	-7083
▁ئایەت	-7084
▁مەهدی	-7085
▁ئەوەیه	-7086
▁بنیاتنانی	-7087
▁تایبەتمەندی	-7088
اە	-7089
بکر	-7090
گوێ	-7091
ووکی	-7092
ەکاو	-7093
▁دەدو	-7094
ێنیت	-7095
▁شەفاف	-7096
▁گوش	-7097
▁400	-7098
▁خۆشگوز	-7099
▁ئۆتۆمبێلەکانی	-7100
▁فیش	-7101
▁ملکە	-7102
▁ئاشن	-7103
▁فراوانی	-7104
▁کانوونی	-7105
▁زۆریش	-7106
▁فەری	-7107
▁زەمەن	-7108
▁کۆسر	-7109
▁دەرچوون	-7110
urn	-7111
▁زاگ	-7112
▁نەبین	-7113
▁بەزمانی	-7114
ئەنجام	-7115
▁داگیرک	-7116
ۆنیۆ	-7117
▁کۆمەڵگادا	-7118
▁ئاوارەکان	-7119
▁کۆپ	-7120
▁ڕێگه	-7121
▁ئیمتی	-7122
▁جەستە	-7123
▁یانەکەی	-7124
▁دەیانەوێ	-7125
▁لەژ	-7126
▁ئەوێ	-7127
▁مێشک	-7128
▁گوندەکانی	-7129
▁بگرین	-7130
▁درێژی	-7131
کراوەکان	-7132
one	-7133
ارێ	-7134
▁ئێواره	-7135
▁پڕوپاگ	-7136
▁بەرهەمە	-7137
▁not	-7138
▁شایەنی	-7139
▁لەئەنجومەنی	-7140
▁مەسەلە	-7141
▁ث	-7142
ەڵکی	-7143
▁باه	-7144
▁لەسەرە	-7145
▁دەرچووە	-7146
▁بەناوبانگ	-7147
▁خەز	-7148
▁پاڵت	-7149
▁سەگ	-7150
▁پێیانوایە	-7151
▁نۆڤ	-7152
▁مۆس	-7153
▁ڕێس	-7154
▁دەروون	-7155
▁محەممەد	-7156
▁وخ	-7157
▁ڤیدی	-7158
▁کیلۆمەتر	-7159
▁v	-7160
▁ناخی	-7161
▁ئاسای	-7162
ایتد	-7163
▁ڕەحم	-7164
▁دەبێ	-7165
▁شەنگال	-7166
▁وڵاتێک	-7167
▁ناشیرین	-7168
▁کۆمپیوت	-7169
▁ئەبوبەکر	-7170
▁کردم	-7171
▁سەنگەر	-7172
▁عەشیر	-7173
▁پت	-7174
▁لۆک	-7175
▁لەماڵ	-7176
▁ئەدات	-7177
▁خستۆتە	-7178
▁عاشق	-7179
▁کەنداو	-7180
ویی	-7181
▁تەشهیر	-7182
ct	-7183
▁کوێر	-7184
▁ئەمەیش	-7185
▁کارەی	-7186
▁ڕابەر	-7187
▁لەناوچەی	-7188
▁وەرگیراوە	-7189
▁بردنی	-7190
▁سامانە	-7191
▁شەڕو	-7192
▁چوارد	-7193
▁نوێترین	-7194
▁مژ	-7195
ەلایەن	-7196
▁ئەفریق	-7197
▁جەژن	-7198
▁بینەر	-7199
▁تەندروست	-7200
...	-7201
▁شیری	-7202
▁نوسینگەی	-7203
▁ئاڵۆزی	-7204
ەچ	-7205
موکر	-7206
▁نەق	-7207
▁بازنەی	-7208
▁ناخۆش	-7209
▁دامەزرێن	-7210
▁زانایانی	-7211
arg	-7212
▁پاساو	-7213
▁بەرفراوان	-7214
بدات	-7215
▁ڕزگارکردنی	-7216
▁ساخت	-7217
▁نەزان	-7218
▁تایبەتە	-7219
▁هزر	-7220
▁بەرێوەبەرایەتی	-7221
▁زۆرن	-7222
ابوونی	-7223
▁بەهەڵ	-7224
▁ژەن	-7225
▁سبەین	-7226
▁مەحموود	-7227
▁گوتاری	-7228
▁کوژرانی	-7229
▁مەف	-7230
▁ئارەزوو	-7231
▁پەروەردەو	-7232
▁جارێ	-7233
ۆنیا	-7234
▁پاسەوانی	-7235
ەهێن	-7236
▁ناوبژیوانی	-7237
ێڤ	-7238
▁بەهاوکاری	-7239
▁فۆڕ	-7240
▁دەگات	-7241
▁هاتوچۆی	-7242
کردو	-7243
▁ئەوق	-7244
▁ئیمەیل	-7245
▁جەوهەر	-7246
▁فۆرم	-7247
▁ژاپۆن	-7248
یەوه	-7249
▁ئۆپەر	-7250
▁ئیمان	-7251
▁ڕێکخەری	-7252
▁چوونی	-7253
▁لینکەی	-7254
bu	-7255
▁لابردنی	-7256
▁ئەلف	-7257
▁بگات	-7258
▁تیژی	-7259
ۆسایدی	-7260
▁لێم	-7261
▁چاویان	-7262
▁جاف	-7263
▁شاک	-7264
▁بەدەم	-7265
▁منداڵە	-7266
▁پێکهێن	-7267
▁will	-7268
▁خراو	-7269
ێڵی	-7270
▁خۆیی	-7271
▁شنگ	-7272
▁هەڵۆ	-7273
▁comments	-7274
▁دەنگەکان	-7275
ژیدی	-7276
وڵمان	-7277
▁نەهێن	-7278
▁کەلتوری	-7279
▁دانیشتووانی	-7280
▁75	-7281
omments	-7282
hot	-7283
▁پێشبڕکێی	-7284
▁قائ	-7285
گرانی	-7286
▁چیخۆف	-7287
داوه	-7288
▁ترو	-7289
▁دۆستی	-7290
▁لەپەرلەمان	-7291
▁ولا	-7292
▁کەلتووری	-7293
ۆخ	-7294
یا	-7295
یتەرز	-7296
▁نازانن	-7297
▁ناوچەکەو	-7298
▁هەفتە	-7299
▁وزە	-7300
گەرایی	-7301
▁باسه	-7302
بکەنەوە	-7303
▁خۆراکی	-7304
▁هێرشیان	-7305
▁ڕیفراند	-7306
pl	-7307
▁یەکێتیدا	-7308
▁بەغدای	-7309
▁شەشەم	-7310
▁لەوێش	-7311
▁تێگەیشت	-7312
▁تاس	-7313
پڕ	-7314
▁خوێندکارانی	-7315
▁تۆڕ	-7316
نووسی	-7317
▁بەسەری	-7318
▁میهر	-7319
▁فایله	-7320
ساڵی	-7321
▁گەو	-7322
▁تۆش	-7323
▁دات	-7324
▁عوم	-7325
▁دادپەروەر	-7326
ێتم	-7327
▁نەریت	-7328
▁پەنجا	-7329
▁ببنەوە	-7330
▁لەقەڵەم	-7331
ێرین	-7332
▁دڵنیام	-7333
▁چاودێریی	-7334
▁پەرست	-7335
▁دەستکاری	-7336
▁ناوەڕاستە	-7337
▁سالا	-7338
▁یەکەمدا	-7339
نەب	-7340
▁دڵم	-7341
▁وڵاتان	-7342
ەجی	-7343
▁بەڕای	-7344
▁دەمانەوێت	-7345
اهەنگ	-7346
▁ئیسلامیەکان	-7347
رەز	-7348
▁برایم	-7349
▁هاتوە	-7350
▁191	-7351
▁العر	-7352
▁فڕۆکە	-7353
▁کۆسرەت	-7354
▁قەتەر	-7355
▁توورەج	-7356
▁دەستخۆشی	-7357
زو	-7358
سیم	-7359
▁فەلەستینی	-7360
▁ڕوونکردەوە	-7361
▁بەڕێوەبەرایەتیی	-7362
ێڕاق	-7363
سەد	-7364
▁کۆنسێرت	-7365
اردا	-7366
▁وێستگەی	-7367
▁پلاندان	-7368
▁جۆراوج	-7369
▁بەدەستەوە	-7370
▁الس	-7371
▁بەدەستهێنا	-7372
الەت	-7373
ییەو	-7374
وەند	-7375
▁بگیرێت	-7376
▁ڕێگر	-7377
▁دەپرس	-7378
▁گەشتیاری	-7379
▁دەردەب	-7380
▁تۆمارکرا	-7381
bo	-7382
▁مایک	-7383
▁یاساکە	-7384
▁ڤان	-7385
▁دەستەڵات	-7386
▁قسەو	-7387
▁Share	-7388
▁نز	-7389
▁Add	-7390
▁دەرکەوتووە	-7391
▁جیاکردنەوەی	-7392
▁مایەوە	-7393
بکرێتەوە	-7394
▁کۆمەڵایەتیی	-7395
▁ژیاندا	-7396
اراست	-7397
کترۆنی	-7398
▁پەیوەندیدارەکان	-7399
▁عیش	-7400
▁ئیمزا	-7401
▁یوتوب	-7402
▁نەینەوا	-7403
▁دیموکراس	-7404
▁دووباره	-7405
عەت	-7406
اباد	-7407
▁ئاوەدانی	-7408
▁تەلەفزیۆن	-7409
مال	-7410
▁پرێس	-7411
▁چەکدارەکانی	-7412
▁وایان	-7413
رێنە	-7414
▁مێز	-7415
▁نەرویج	-7416
▁میز	-7417
ەوتنی	-7418
▁پێشهات	-7419
یران	-7420
▁جوو	-7421
▁بچنە	-7422
▁ڕۆژنامەگەری	-7423
▁یۆرۆ	-7424
▁ماڵئاو	-7425
▁گوزەرانی	-7426
▁هیل	-7427
▁خانەنشین	-7428
▁ط	-7429
بای	-7430
▁ماوەیەدا	-7431
▁بکەی	-7432
▁بوونه	-7433
▁پێگەیشت	-7434
▁شارەدێی	-7435
▁وەی	-7436
▁وایکردووە	-7437
ارا	-7438
▁ڕێباز	-7439
▁ئەرم	-7440
▁هەڵدەب	-7441
▁ڕووت	-7442
▁چارەی	-7443
▁هەندێکی	-7444
▁ئامانجەکانی	-7445
▁کەوتوون	-7446
▁ئیدار	-7447
▁شارەزا	-7448
▁ڕێککەوتننامەی	-7449
▁مش	-7450
▁Name	-7451
▁مەڵبەند	-7452
▁وەفدێکی	-7453
▁نابن	-7454
▁کەسەو	-7455
▁دیداری	-7456
▁سەرلەنوێ	-7457
▁یاسایەکی	-7458
▁لەهەرێم	-7459
▁پەروەردەیی	-7460
▁بش	-7461
▁عەدا	-7462
دەکەوێت	-7463
▁پێیە	-7464
▁لاتی	-7465
▁دەرونی	-7466
▁هن	-7467
▁ئیل	-7468
▁لێبوو	-7469
▁ڕێوشوێنی	-7470
▁عەقڵی	-7471
▁and	-7472
▁عیر	-7473
▁هیچیان	-7474
▁پال	-7475
دەکەی	-7476
گەیی	-7477
انییە	-7478
▁پێشخستنی	-7479
▁چوارشەممە	-7480
▁میلان	-7481
▁مۆبایل	-7482
▁سیستەمە	-7483
ag	-7484
▁خستن	-7485
▁ساڵانەی	-7486
yle	-7487
▁ئۆکتۆبەر	-7488
▁ئاماژەیدا	-7489
▁بهێن	-7490
▁توێژینەو	-7491
ریش	-7492
ڕێ	-7493
▁دەشنی	-7494
▁قەندیل	-7495
▁گەیشتنی	-7496
▁بژین	-7497
ارییەکانی	-7498
hotmail	-7499
▁بیانووی	-7500
▁پەیوەندیدار	-7501
▁هادی	-7502
▁لەباز	-7503
▁cl	-7504
▁پاشا	-7505
▁بکردایە	-7506
▁هەڵسەنگاندنی	-7507
▁ڕەجەب	-7508
▁جوم	-7509
جاریش	-7510
▁مارس	-7511
▁باژێڕ	-7512
گم	-7513
یماد	-7514
ایانە	-7515
▁خەند	-7516
▁قێز	-7517
▁داڕشت	-7518
▁گەشەسەند	-7519
▁#	-7520
▁مه	-7521
▁سودان	-7522
▁نائوم	-7523
▁کوردیان	-7524
▁شا	-7525
▁زانیارییەکانی	-7526
▁جۆرج	-7527
▁نمای	-7528
▁جاریش	-7529
▁داوەو	-7530
▁هەڵبژێردراوانی	-7531
▁ڕەوان	-7532
▁ئەوەیش	-7533
▁تەماوی	-7534
اڵح	-7535
▁ئاسۆی	-7536
▁هاتووچۆ	-7537
▁خراپە	-7538
▁ڕژێمە	-7539
▁ڕۆژێکی	-7540
▁پێشنیاری	-7541
▁دەربەندیخان	-7542
ەبێژ	-7543
▁the	-7544
▁ئایندە	-7545
▁پێناسەی	-7546
▁لێدان	-7547
▁بردنەوەی	-7548
▁دەنا	-7549
▁ناوز	-7550
▁سعودیە	-7551
لێکراو	-7552
▁لەسەرت	-7553
چێ	-7554
سەلان	-7555
▁جیاوازیی	-7556
▁پێشەنگی	-7557
▁فەلەستین	-7558
▁تەڕ	-7559
▁دۆزەخ	-7560
▁تێدەپەڕ	-7561
اییدا	-7562
▁پاکی	-7563
اتان	-7564
▁مادی	-7565
▁گازی	-7566
▁نائاسایی	-7567
▁یونس	-7568
▁وەزار	-7569
▁ڕەهەند	-7570
▁تەلەفۆنی	-7571
▁گەری	-7572
ڕو	-7573
▁تاکەکانی	-7574
▁هەڵمەتێکی	-7575
▁شۆڤێنی	-7576
▁ماک	-7577
▁نووسەران	-7578
▁فیستیڤاڵه	-7579
یدە	-7580
▁هەڵپ	-7581
▁داڕێژ	-7582
▁ولاتی	-7583
▁سەرسوڕ	-7584
▁دیاردەیەکی	-7585
▁مۆدێر	-7586
▁بداتەوە	-7587
▁dec	-7588
▁عەبادی	-7589
▁بگو	-7590
▁ڕەئوف	-7591
▁دیسانەوە	-7592
▁شەرعی	-7593
▁پێناسە	-7594
▁نەکردنی	-7595
▁مووچە	-7596
▁ڕادەی	-7597
▁یاریزانە	-7598
▁زیانێکی	-7599
▁خۆشت	-7600
▁هۆشداری	-7601
گن	-7602
▁style	-7603
▁ئێزدی	-7604
▁دۆس	-7605
▁جموج	-7606
▁سابیر	-7607
▁کۆلێژی	-7608
▁دەرو	-7609
▁تێگەیشتنی	-7610
▁الج	-7611
اوەیەکی	-7612
▁بوم	-7613
▁پیاد	-7614
▁class	-7615
▁بەخۆیەوە	-7616
▁شانی	-7617
▁ئەمساڵدا	-7618
▁دەکێش	-7619
▁نیشاندا	-7620
ورە	-7621
▁داخستنی	-7622
ایەر	-7623
▁text	-7624
▁دەبینێتەوە	-7625
▁دەسەڵاتێکی	-7626
▁ئەمنییەکانی	-7627
▁تۆفیق	-7628
▁زەمان	-7629
▁کوژرا	-7630
▁بەتەواو	-7631
ەسەر	-7632
▁ret	-7633
▁دابنرێت	-7634
▁پەیمانی	-7635
▁شەخسی	-7636
ایا	-7637
ونجێت	-7638
▁بەیاننامەی	-7639
oration	-7640
ەتەی	-7641
▁کیبۆ	-7642
▁سویدی	-7643
▁تێکۆشانی	-7644
▁فرۆک	-7645
▁هەرکات	-7646
▁ڕێبازی	-7647
بڵ	-7648
ندە	-7649
نداڵ	-7650
ومانی	-7651
▁بڕیاریدا	-7652
▁نمایشەکەی	-7653
arget	-7654
▁ستایشی	-7655
ht	-7656
بهێنن	-7657
▁سادە	-7658
▁شەست	-7659
دارانی	-7660
ێکت	-7661
▁لەنی	-7662
▁دوژمنی	-7663
نامەیەکی	-7664
▁وڵاتەکەیان	-7665
▁تیمی	-7666
▁بدەم	-7667
▁return	-7668
lank	-7669
tton	-7670
رۆسەی	-7671
▁کۆنی	-7672
▁کۆنترۆڵکردن	-7673
▁بەمەر	-7674
▁target	-7675
▁گەنجێکی	-7676
▁پاڵتۆکەی	-7677
▁comment	-7678
▁تراژیدی	-7679
یزی	-7680
▁دوێن	-7681
▁تابلۆ	-7682
▁ئاگای	-7683
ایەق	-7684
▁ئەنبار	-7685
▁وق	-7686
▁none	-7687
play	-7688
▁سدیق	-7689
▁پەیمانگای	-7690
share	-7691
▁هەڵگیر	-7692
▁لەسنووری	-7693
▁fbs	-7694
▁شێم	-7695
blank	-7696
button	-7697
▁بوەست	-7698
▁onclick	-7699
▁ئاستەنگ	-7700
▁decoration	-7701
▁گوتن	-7702
▁دەگۆڕێت	-7703
▁دهوک	-7704
▁ژنێک	-7705
▁کەنی	-7706
▁بەڕێک	-7707
ادەیەکی	-7708
▁مەبەستم	-7709
گۆر	-7710
▁کراوەو	-7711
▁یارییەکی	-7712
▁برزۆ	-7713
▁دڵسۆزی	-7714
▁ڕەشی	-7715
▁ژێرد	-7716
▁لەهەمانکاتدا	-7717
ڕوو	-7718
▁بەهەشت	-7719
▁لاف	-7720
▁دەنگە	-7721
▁فەرەج	-7722
▁ئایدیۆلۆژی	-7723
▁تۆی	-7724
▁ژمارەیان	-7725
▁وریا	-7726
▁بتوانێ	-7727
▁یاریدەدەری	-7728
بات	-7729
پێی	-7730
اسان	-7731
زۆر	-7732
ارێتی	-7733
وند	-7734
▁قوو	-7735
isplay	-7736
ەوەکانی	-7737
▁سەرقاڵ	-7738
▁تێڕوانین	-7739
▁ة	-7740
▁خۆیەوه	-7741
▁وڵاتدا	-7742
▁دیاردەیە	-7743
▁دەنووسێت	-7744
▁بڵاوبوونەوەی	-7745
▁لێکەوتەوە	-7746
"ـ	-7747
▁دواکەوتنی	-7748
▁ئۆپۆزیسیۆنەی	-7749
ووکە	-7750
▁نەچێت	-7751
▁پرۆژه	-7752
▁چواری	-7753
کراوەو	-7754
کردەوەو	-7755
▁بەیاننامەیەکدا	-7756
کراوەتەوە	-7757
▁بنووسیت	-7758
▁سەرج	-7759
▁بوایە	-7760
اڤی	-7761
انگیری	-7762
▁گۆڤار	-7763
▁جاڕنامە	-7764
▁دەفەرموێت	-7765
ِّ	-7766
▁ئێستە	-7767
▁پەرلەماندا	-7768
▁تێکڕای	-7769
ومار	-7770
ابەری	-7771
▁خور	-7772
▁گەورەکانی	-7773
▁تائێستاش	-7774
▁67	-7775
▁بورهان	-7776
لەم	-7777
▁فۆنت	-7778
▁مەسع	-7779
▁هەزارو	-7780
▁پێشانگ	-7781
▁پێشنیازی	-7782
low	-7783
ەسم	-7784
▁ئاوارەی	-7785
▁ناکوڵێت	-7786
▁بەجێهێشت	-7787
▁ماستەر	-7788
ەروەها	-7789
▁شیاو	-7790
▁ئیسرائیلی	-7791
ەکانن	-7792
▁لوتکەی	-7793
▁هەیەتی	-7794
▁بارودۆخە	-7795
▁باژێڕوانی	-7796
▁پەیوەندییان	-7797
▁پارێزەر	-7798
▁پەیوەندیەکانی	-7799
▁بیل	-7800
▁دەچنە	-7801
▁ئەدرەس	-7802
▁فەرمانبەرانی	-7803
احی	-7804
▁ئینتی	-7805
▁لیوا	-7806
▁پیاوێک	-7807
▁نەدەکرد	-7808
▁هەلومەرجی	-7809
▁گفت	-7810
ۆفێست	-7811
▁هۆرگ	-7812
▁دابێت	-7813
▁دەبینم	-7814
▁بەهێزتر	-7815
▁بڵاویکردەوە	-7816
ستیان	-7817
▁سەرپێچی	-7818
▁فیلۆفێست	-7819
ۆمپی	-7820
▁شێمحەمەد	-7821
▁لەوێدا	-7822
▁وتەبێژی	-7823
▁مع	-7824
ێڵنەر	-7825
▁کاراکتەر	-7826
▁دانوم	-7827
▁کاتێکیش	-7828
▁سەباح	-7829
▁پەیوەستە	-7830
▁نائار	-7831
یەو	-7832
▁حەمەی	-7833
▁ڕوک	-7834
▁دانە	-7835
▁حەمەغ	-7836
خانەکانی	-7837
▁ویلایەته	-7838
▁سیستەمێکی	-7839
وۆری	-7840
▁دوێتم	-7841
▁کردوەو	-7842
▁فەلسەفی	-7843
▁مافەکاو	-7844
▁ئافرەتی	-7845
▁بەڕێوەچوونی	-7846
▁دەولەتی	-7847
ائی	-7848
▁هەنگاوە	-7849
▁ڕووناکی	-7850
▁ڕۆشنایی	-7851
▁کۆنتڕۆڵ	-7852
▁یارییەکه	-7853
▁هۆرگێڵنەر	-7854
اشە	-7855
اردنی	-7856
ێنراوە	-7857
▁ئەرسەلان	-7858
▁یوتوبوۆری	-7859
▁ئیماراتیەکانی	-7860
▁تێپەڕی	-7861
▁چوارەمی	-7862
▁لەقۆناغی	-7863
وریا	-7864
▁نۆر	-7865
ەکەیاندا	-7866
▁تەوافوق	-7867
▁گووتیشی	-7868
▁مردوو	-7869
گێڕی	-7870
▁شارێکی	-7871
▁پەرلەمانتارانی	-7872
▁هاوسەنگی	-7873
12	-7874
▁کۆسپ	-7875
▁کردەی	-7876
▁فەرماندەیی	-7877
دەین	-7878
▁کیمیاباران	-7879
▁لێکرا	-7880
▁ڕاهێنانی	-7881
▁قەل	-7882
▁فیلمێکی	-7883
▁هاوسەنگ	-7884
▁sor	-7885
▁بەرهەمه	-7886
▁بۆچون	-7887
▁تێکدانی	-7888
▁دادەنێت	-7889
▁سفر	-7890
▁دەره	-7891
▁شێت	-7892
▁لەسایەی	-7893
▁کوتل	-7894
▁حەماس	-7895
▁سکاڵای	-7896
▁تورکیای	-7897
▁هاریکاری	-7898
گەیشتن	-7899
▁قورسایی	-7900
دێری	-7901
▁لەوه	-7902
▁کوردیت	-7903
▁دەکردەوە	-7904
▁دیمەشق	-7905
▁تەلەفۆن	-7906
▁ڕاگەیەند	-7907
▁بەرلین	-7908
▁شاڵ	-7909
▁عیماد	-7910
▁بازرگان	-7911
▁ڕەوای	-7912
ارەیەکی	-7913
▁وەستان	-7914
▁ئەفغ	-7915
▁ژماره	-7916
▁ئەدی	-7917
ێنمەوە	-7918
▁گەنجی	-7919
▁موڵک	-7920
▁دەڤەری	-7921
▁ئاماژەیان	-7922
▁تۆت	-7923
▁ساڵدا	-7924
▁ئیتاڵی	-7925
▁خستنە	-7926
▁لەمێژووی	-7927
▁میدیاکانی	-7928
▁داواکراو	-7929
▁حەمەغەفور	-7930
▁توانیویانە	-7931
▁ئۆگ	-7932
▁میسی	-7933
▁میوانی	-7934
▁الق	-7935
▁خۆکو	-7936
▁فیدڕ	-7937
▁نادەن	-7938
▁up	-7939
▁دەج	-7940
▁نمونەی	-7941
▁داگیرکردنی	-7942
▁بڕگەی	-7943
▁سلی	-7944
▁هەرەس	-7945
▁بەرگریکردن	-7946
▁جوول	-7947
▁غازی	-7948
ەوڵ	-7949
اوا	-7950
ێردرێت	-7951
▁ئەنقەرە	-7952
▁دیدی	-7953
▁عەمید	-7954
مانیا	-7955
وەندی	-7956
تم	-7957
▁دوێنی	-7958
گریت	-7959
▁ڕاگەهاند	-7960
ێنەری	-7961
▁شەریف	-7962
▁دروستکردووە	-7963
▁کەڵک	-7964
▁سەروەت	-7965
هێنانەوەی	-7966
▁سێد	-7967
▁بیرم	-7968
▁سالی	-7969
▁لەجیه	-7970
▁فێستیڤاڵ	-7971
ستر	-7972
ێمەوە	-7973
▁کوڕە	-7974
▁لەتیف	-7975
▁زاگرۆس	-7976
دول	-7977
▁هوشی	-7978
▁کوردەواری	-7979
▁بەرهەمهێنان	-7980
▁but	-7981
▁شاناز	-7982
▁تەندروستیی	-7983
▁توون	-7984
▁جێبەجێکرد	-7985
▁یۆنان	-7986
▁کارگەی	-7987
▁1988	-7988
▁دووشەممه	-7989
▁تۆن	-7990
ەڵک	-7991
▁گۆی	-7992
▁خوێنەری	-7993
▁ّ	-7994
ارەوە	-7995
▁ناوەوەی	-7996
▁شێوازە	-7997
▁ئامادەکاریی	-7998
▁Not	-7999
▁نۆی	-8000
▁کیبۆردی	-8001
▁شام	-8002
ەنبیری	-8003
▁بکەنە	-8004
▁فەوجی	-8005
▁مۆدێل	-8006
▁یه	-8007
▁غەم	-8008
▁دەستدرێژی	-8009
▁زیادبوونی	-8010
▁گواستنەوە	-8011
▁خسته	-8012
▁ئەنجامداوە	-8013
▁fol	-8014
اشدا	-8015
▁زراندن	-8016
▁ئەوپەڕی	-8017
▁U	-8018
ئام	-8019
ەکیش	-8020
▁بەبڕ	-8021
▁مووس	-8022
▁هەروەکو	-8023
▁کوردەوە	-8024
▁میکانیزم	-8025
▁وشی	-8026
▁فێستیڤاڵی	-8027
▁بکێش	-8028
▁ماڵە	-8029
▁بردەوە	-8030
▁ڕابردودا	-8031
▁دەشتی	-8032
▁دەسەڵاتداران	-8033
▁چەشنە	-8034
▁sorani	-8035
▁لەکۆبوونەوەی	-8036
اتۆر	-8037
▁ڕەفتاری	-8038
تیکی	-8039
▁فەراه	-8040
ir	-8041
لایەک	-8042
▁کارەکان	-8043
▁گەورەیان	-8044
▁بەرزبوونەوەی	-8045
▁برسی	-8046
▁فۆرمی	-8047
▁خوێناوی	-8048
▁کولتوور	-8049
▁display	-8050
▁ئەنجامەکانی	-8051
▁کێبڕکێی	-8052
بێر	-8053
مین	-8054
یلە	-8055
▁Send	-8056
▁ئینس	-8057
▁زیند	-8058
▁دەنگدەر	-8059
▁نیوی	-8060
▁پشتگیریی	-8061
ەبات	-8062
ەرەکان	-8063
▁وەرگێڕانی	-8064
▁کرۆ	-8065
▁کاره	-8066
▁ڕەوا	-8067
▁لەپارێزگای	-8068
▁پێیەی	-8069
▁دابنێت	-8070
▁بەوەکرد	-8071
ify	-8072
▁کۆبوونەوەکە	-8073
ەمدا	-8074
▁ئیق	-8075
▁نەما	-8076
▁بەرە	-8077
▁JC	-8078
▁Canc	-8079
▁ماری	-8080
▁بەدوو	-8081
▁follow	-8082
▁بینووسیت	-8083
اتیک	-8084
board	-8085
▁کچێکی	-8086
▁هەڵکەوت	-8087
▁لەناوچەکەدا	-8088
▁قۆر	-8089
▁پارێزراو	-8090
▁ویلایەتە	-8091
▁تێڕوانینی	-8092
xil	-8093
▁ئامۆژگاری	-8094
ڕێژ	-8095
بینین	-8096
▁داوی	-8097
ۆسی	-8098
ۆوە	-8099
▁Cancel	-8100
▁فەیلەسوف	-8101
▁شرۆڤ	-8102
▁پێشەوەی	-8103
▁بەڵگەنام	-8104
▁ڕەتکردنەوەی	-8105
▁تێبینییەکت	-8106
تس	-8107
ogos	-8108
▁کەوتۆتە	-8109
▁ئەدرەسەکەت	-8110
▁تێبینیەکەت	-8111
▁ڕۆژنامەنوسان	-8112
▁دەستم	-8113
▁keyboard	-8114
▁دەرناکەویت	-8115
▁کەژ	-8116
▁سڵاو	-8117
▁lexil	-8118
▁lexilogos	-8119
▁بێزار	-8120
▁Notify	-8121
▁سیاسەتەکانی	-8122
▁قا	-8123
▁کچانی	-8124
▁پێکەنین	-8125
▁JComments	-8126
تینی	-8127
▁الش	-8128
▁قەومی	-8129
▁ناوەرۆکی	-8130
▁بڕوانامەی	-8131
▁نەخۆشخانە	-8132
▁بڕیارەکانی	-8133
▁بەرو	-8134
▁ئیشی	-8135
▁هەلومەرج	-8136
▁خەریک	-8137
▁پرۆسەکە	-8138
47	-8139
ژەی	-8140
▁ڕەق	-8141
▁فیکر	-8142
▁بەوات	-8143
▁شەڕێکی	-8144
▁پابەندی	-8145
▁دەستپێشخەر	-8146
ەکتەر	-8147
▁ڕاوەست	-8148
▁جێبەجێب	-8149
▁گرتووەتەوە	-8150
ad	-8151
▁ئاوارە	-8152
▁شە	-8153
▁کاروانی	-8154
▁دەستپێدەکات	-8155
▁ئەوەند	-8156
▁شارۆچک	-8157
▁کلتوری	-8158
دەنگ	-8159
▁دڵخۆش	-8160
▁تۆمارکردنی	-8161
▁تاوتوێکردنی	-8162
داران	-8163
▁ڕەسم	-8164
▁65	-8165
▁ڕێور	-8166
▁ئومێدی	-8167
▁ئەلقاعید	-8168
▁فایەق	-8169
▁لەشکر	-8170
▁لەوێوە	-8171
▁دواخ	-8172
ماس	-8173
▁لەدانی	-8174
▁قۆن	-8175
▁هاتووه	-8176
▁جۆرەکانی	-8177
▁بەدر	-8178
▁دەشک	-8179
▁ئۆکرانیا	-8180
▁بەربەست	-8181
▁قاعیدە	-8182
ەبردنی	-8183
ەکاتەوە	-8184
▁بسەپ	-8185
▁سەیرە	-8186
▁لەباش	-8187
▁بەردەوامن	-8188
▁پتەوکردنی	-8189
▁خۆشگوزەرانی	-8190
▁سامی	-8191
▁ئەرکەکانی	-8192
▁بگرێتەوە	-8193
▁پێشێلکاری	-8194
سیر	-8195
ابردوو	-8196
▁سەرەر	-8197
▁دەڵێین	-8198
▁موسڵمانان	-8199
▁چیای	-8200
بۆتەوە	-8201
▁داهێن	-8202
▁دەکەونە	-8203
▁دڵنیایی	-8204
▁گروپێکی	-8205
▁حیزبێک	-8206
▁هەڵبەتە	-8207
▁هەلبژارد	-8208
▁قام	-8209
وەگەر	-8210
کەوێت	-8211
▁لەدەستداوە	-8212
خۆر	-8213
قەر	-8214
ومە	-8215
▁جیاوازەکان	-8216
▁دیاردە	-8217
▁گرنگیی	-8218
▁ئەوانەش	-8219
ەوای	-8220
لەندا	-8221
شان	-8222
ەتیان	-8223
▁فڕۆکەخانەی	-8224
▁ڕادەر	-8225
▁مەرجەع	-8226
▁وەرچەر	-8227
▁عێڕاق	-8228
▁لەگۆڕ	-8229
▁هێزێک	-8230
▁تاریکی	-8231
▁ڕوخانی	-8232
▁نەبووایە	-8233
▁لاسایی	-8234
▁جەستەیی	-8235
▁لێدەکات	-8236
▁گرێبەستی	-8237
ەتری	-8238
ەڕاو	-8239
▁فاز	-8240
▁لەهیچ	-8241
اکەیان	-8242
کردبوو	-8243
▁فەڕەنسا	-8244
▁ئوردن	-8245
ێوەردانی	-8246
▁پارێزەری	-8247
▁داین	-8248
▁مشتوم	-8249
▁پەیەدە	-8250
▁هەڵبژێر	-8251
▁دەمەوێ	-8252
▁ئینگلیز	-8253
▁عەر	-8254
▁ئەمریکای	-8255
وەتە	-8256
▁دەریای	-8257
▁پێشەنگ	-8258
▁نامەیەکی	-8259
بردن	-8260
ەقیب	-8261
ڕاکێش	-8262
▁دەکەمەوە	-8263
▁ئۆڵ	-8264
▁خۆز	-8265
▁لەبەیان	-8266
▁ڕوبەر	-8267
▁وسەر	-8268
▁ڕوبەڕ	-8269
▁پێچەوان	-8270
▁ڕانە	-8271
▁گرێ	-8272
▁سڤیل	-8273
▁بروسک	-8274
▁زۆرینە	-8275
▁زانایان	-8276
▁بەشداریان	-8277
▁ئاهەنگی	-8278
▁2000	-8279
▁بکەمەوە	-8280
▁دەپارێز	-8281
▁وڵاتانە	-8282
▁جۆراوجۆری	-8283
▁بڵاوکردەوە	-8284
▁ناوبژیوان	-8285
▁بکەوێتە	-8286
▁دەزگایەکی	-8287
ئەن	-8288
▁تەج	-8289
▁هیوادارین	-8290
ab	-8291
▁عەللاوی	-8292
▁هەرچەنده	-8293
▁کۆمەڵگایەکی	-8294
▁هاولاتی	-8295
▁وادەکات	-8296
▁مسوەگەر	-8297
▁جێبەجێکردن	-8298
مۆ	-8299
یزم	-8300
▁نەخۆشیی	-8301
▁لەئەنجام	-8302
▁لەسەرەتاوە	-8303
▁لەبەرژەوەندی	-8304
▁برس	-8305
▁ئاراس	-8306
▁مێژوی	-8307
▁بیرد	-8308
اکەوتنی	-8309
▁دەردەچێت	-8310
ابە	-8311
▁ڕادیک	-8312
▁ڕاشکاو	-8313
▁سێشەممە	-8314
▁بێلایەن	-8315
▁یاریزانانی	-8316
گەلێکی	-8317
▁یارییەکە	-8318
▁سیاسەتێکی	-8319
▁هەرز	-8320
▁سەعدی	-8321
▁کەلوپەل	-8322
▁ڕیفراندۆم	-8323
▁فەرموو	-8324
▁تورکمانی	-8325
▁شەوە	-8326
▁ئەزمون	-8327
▁داواشی	-8328
▁ڕاستیی	-8329
یەکانەوە	-8330
▁یەکشەممە	-8331
▁V	-8332
خۆیان	-8333
▁میان	-8334
▁هاشم	-8335
▁بەڵگە	-8336
▁دوژمنانی	-8337
▁بەرل	-8338
▁قۆناغەکانی	-8339
▁عەی	-8340
▁چەمک	-8341
▁وەبەرهێنانی	-8342
ووش	-8343
▁باپیر	-8344
▁کردنیان	-8345
▁خوازیاری	-8346
▁پرسیارێکی	-8347
▁هەنگاوەکانی	-8348
ریس	-8349
هەڵو	-8350
▁لەحکومەتی	-8351
▁تین	-8352
▁دانان	-8353
هێنێت	-8354
▁تاکەکان	-8355
▁بیرۆک	-8356
▁سینەماکاری	-8357
▁قەی	-8358
▁بۆنم	-8359
▁سێدار	-8360
▁لەگەڕ	-8361
▁دوورو	-8362
▁بوژ	-8363
▁یەز	-8364
▁سەرانسەری	-8365
تاو	-8366
کام	-8367
▁z	-8368
ڤید	-8369
گرێتەوە	-8370
▁پرۆژەیەکی	-8371
▁شنگال	-8372
▁هاوین	-8373
▁لەیاری	-8374
▁نارەزایەتی	-8375
▁هەواد	-8376
▁درامای	-8377
▁فەرەید	-8378
▁جاد	-8379
▁بەردەست	-8380
▁تال	-8381
▁بهێنرێت	-8382
▁پێکردووە	-8383
سوڵی	-8384
پێکردنی	-8385
▁ئەرێنی	-8386
▁لەوانه	-8387
▁گەیشتنە	-8388
▁داڕشتنی	-8389
▁نیز	-8390
▁گەورەیی	-8391
▁تووڕ	-8392
▁داود	-8393
▁لەساڵ	-8394
▁کاپ	-8395
▁ڕوناک	-8396
▁شەقامەکان	-8397
▁أن	-8398
▁بەباشی	-8399
▁مرۆڤێکی	-8400
▁ئەمیر	-8401
▁تەواوبوونی	-8402
▁عەبدولکەریم	-8403
ترن	-8404
امین	-8405
▁ڕەف	-8406
▁بڵاوکراوەتەوە	-8407
▁خانووی	-8408
▁نییەکە	-8409
▁لێبوردن	-8410
▁لەکۆبوونەو	-8411
▁کرمان	-8412
▁پوچ	-8413
▁حەمەد	-8414
▁خدر	-8415
ڕان	-8416
▁خانم	-8417
▁ڕەهەندی	-8418
▁مەسەلەکە	-8419
▁تریشەوە	-8420
▁بچن	-8421
کۆڵی	-8422
ێرێ	-8423
ێژن	-8424
▁گڕ	-8425
▁لێهات	-8426
▁خۆرئاوا	-8427
▁مەخم	-8428
▁دۆخێکی	-8429
▁ناتوانم	-8430
ul	-8431
▁دێڕ	-8432
کۆڵ	-8433
▁سەقامگیر	-8434
▁کای	-8435
▁دیکۆمێنتی	-8436
پری	-8437
▁ئیمپر	-8438
▁باهۆز	-8439
نیای	-8440
ارکی	-8441
▁ئاراستە	-8442
▁دەستپێکرد	-8443
▁سەرۆکوەزیرانی	-8444
ێکردن	-8445
▁مێشکی	-8446
ub	-8447
▁بگەر	-8448
▁بەوردی	-8449
▁ڤای	-8450
ونەتە	-8451
▁گاڵت	-8452
▁ماددی	-8453
▁ساڵیادی	-8454
▁سەربازییەکانی	-8455
لس	-8456
▁@	-8457
گرفت	-8458
▁کۆلی	-8459
▁هەس	-8460
▁ڕۆژگ	-8461
▁دواوە	-8462
▁بژێوی	-8463
▁ژنێکی	-8464
▁دەستکرد	-8465
▁سوودمەند	-8466
▁خەڵکدا	-8467
▁سیتی	-8468
▁میلی	-8469
▁نەکەوت	-8470
▁فەراهەم	-8471
▁فەرمانبەران	-8472
رەی	-8473
▁واڵ	-8474
▁کێشی	-8475
▁بەئار	-8476
▁پێکدەه	-8477
▁چینە	-8478
▁ڕاپرس	-8479
▁ئەمەیە	-8480
▁ڕۆش	-8481
▁بەکورتی	-8482
▁ئیدانەی	-8483
گل	-8484
اردن	-8485
▁کەچ	-8486
▁مانگه	-8487
▁ئافرەتانی	-8488
▁قاد	-8489
▁هەموان	-8490
▁ئیمتیاز	-8491
▁گەیشتووە	-8492
▁شەهیدی	-8493
▁ڕکابەر	-8494
us	-8495
▁وەح	-8496
▁کارەساتە	-8497
▁پرنسی	-8498
▁خاڵەکانی	-8499
▁گەشەپێدان	-8500
▁ستران	-8501
وەکان	-8502
▁زنجیرە	-8503
▁چوارچێوەیەدا	-8504
عا	-8505
ژمارەی	-8506
ێلا	-8507
▁سەرکۆم	-8508
اشەی	-8509
▁بیەوێت	-8510
▁بەدەنگ	-8511
▁نەریتی	-8512
▁ڕوودانی	-8513
دەڵ	-8514
▁باجی	-8515
▁وەخت	-8516
▁شمش	-8517
ێنیتەوە	-8518
▁چوونکە	-8519
▁ئامادەبوون	-8520
کێشی	-8521
اترین	-8522
▁مەول	-8523
▁گووت	-8524
▁ڕۆژان	-8525
▁لەداهاتوو	-8526
▁بەپێچەوانەی	-8527
▁پشتگوێ	-8528
▁نیەو	-8529
▁بهێنین	-8530
▁ڕۆژەدا	-8531
▁ویژدانی	-8532
▁گرنگەکانی	-8533
▁بۆرد	-8534
▁هۆیەوە	-8535
▁بەسە	-8536
▁سوورە	-8537
▁لێکۆل	-8538
▁بردووە	-8539
▁مانگرتن	-8540
▁قەدەغەکردنی	-8541
▁نەچ	-8542
▁بەبەش	-8543
▁ماڵپەر	-8544
▁هەڵەبجەی	-8545
اوەن	-8546
▁ئەتۆم	-8547
بوونیان	-8548
▁ڕوخ	-8549
▁بزانی	-8550
هێنەرانی	-8551
▁نووسیویەتی	-8552
▁ناع	-8553
▁کرێ	-8554
▁کەیس	-8555
▁سەرسام	-8556
▁گرتەوە	-8557
▁سوێند	-8558
▁مافێکی	-8559
▁250	-8560
▁ئەندامان	-8561
▁هەڵسوکەوتی	-8562
▁ڕووبار	-8563
▁باوە	-8564
▁فراوانتر	-8565
▁نایان	-8566
ووین	-8567
▁نیه	-8568
دەدا	-8569
▁وەبیر	-8570
وخ	-8571
ەدرێت	-8572
▁ڕێگەچ	-8573
لیا	-8574
▁زێر	-8575
اندوە	-8576
اوەند	-8577
▁دیکەوه	-8578
▁وایکرد	-8579
▁هاندانی	-8580
▁پڕۆژەیەکی	-8581
▁نۆژ	-8582
▁پاد	-8583
▁سەرف	-8584
▁کوری	-8585
▁جوانە	-8586
▁دەرمانی	-8587
▁دووپاتکردەوە	-8588
▁کاتیشدا	-8589
▁خز	-8590
▁ئۆغ	-8591
▁ئیف	-8592
▁وەدەست	-8593
▁ڕووداوەکه	-8594
15	-8595
▁Y	-8596
▁گفتوگۆکردن	-8597
▁سیناریۆ	-8598
▁نەوزاد	-8599
▁چن	-8600
▁ژیانە	-8601
▁دۆستان	-8602
ندی	-8603
دەگرێت	-8604
ونەوەی	-8605
ەکانیشیان	-8606
▁بنێت	-8607
▁ئەمریکادا	-8608
▁نزیکە	-8609
▁مانایەکی	-8610
▁کرانەوەی	-8611
▁وێت	-8612
گایەکی	-8613
▁برینداری	-8614
▁ئەنجامدرا	-8615
▁مەنسوور	-8616
▁بارودۆخەکە	-8617
الیست	-8618
▁لەژیانی	-8619
▁نڤی	-8620
▁لەئەست	-8621
▁گوێبیس	-8622
راونەتەوە	-8623
▁بیاب	-8624
▁ئەمشەو	-8625
▁تایبەتیش	-8626
▁چوارشەممه	-8627
▁ئاژاوە	-8628
▁لەدەستی	-8629
▁ناوەراست	-8630
سول	-8631
پشت	-8632
▁دایەوە	-8633
▁بج	-8634
▁دەرەوه	-8635
▁نەزانی	-8636
▁هیندستان	-8637
▁دوابەدوای	-8638
▁ڕابو	-8639
ێینەوە	-8640
▁ئەکەم	-8641
▁ڕێکبخ	-8642
▁نەکەین	-8643
کین	-8644
وانەی	-8645
▁سوڵتان	-8646
▁دەستکەوتی	-8647
▁دیاریکراوی	-8648
▁ئیمارات	-8649
▁مەسعوود	-8650
▁نەتەوەو	-8651
▁کەسانێکی	-8652
▁پڕە	-8653
▁دەیکات	-8654
▁لەوکات	-8655
▁کا	-8656
▁بایز	-8657
▁بەسەرۆکایەتی	-8658
▁باخچ	-8659
امبەریشدا	-8660
زیاد	-8661
ەوم	-8662
▁پەڕی	-8663
▁دزەیی	-8664
▁خۆیانی	-8665
▁کەسێتی	-8666
▁پلانێکی	-8667
گوزار	-8668
▁کایەوە	-8669
▁نەتوانێت	-8670
▁لەبەردەست	-8671
ووڕ	-8672
▁سیمای	-8673
▁مرۆڤێک	-8674
▁بێم	-8675
▁لیژنەیەک	-8676
▁کەمتەرخەمی	-8677
▁گۆرانیبێژی	-8678
▁چەکدارەکان	-8679
▁جان	-8680
▁قەس	-8681
ەختانە	-8682
▁خۆڕ	-8683
اکەدا	-8684
ییەدا	-8685
▁لەخزم	-8686
▁بونیاد	-8687
▁کۆمەڵانی	-8688
گات	-8689
▁سوریادا	-8690
▁کەرەستەی	-8691
▁ئۆتۆمبێلی	-8692
▁سۆشی	-8693
▁دەناڵ	-8694
▁ویژدان	-8695
▁بەرشلۆن	-8696
ازادی	-8697
▁کەموکوڕ	-8698
▁تەواوەتی	-8699
▁دەع	-8700
▁حیکم	-8701
استەوخۆ	-8702
▁بەغداو	-8703
▁هەڵگرت	-8704
▁داوامان	-8705
▁مەسەلەیەکی	-8706
▁ئاغا	-8707
▁ڕۆژدا	-8708
▁دەکەنە	-8709
▁سەلامەتی	-8710
▁چاڵ	-8711
▁بنبڕ	-8712
▁جەمیل	-8713
▁لیوای	-8714
▁داهێنانی	-8715
▁ڕیفۆرم	-8716
▁پەلە	-8717
▁نیازی	-8718
▁کرداری	-8719
▁پرۆسەیە	-8720
ازاد	-8721
ێوەچوو	-8722
▁ووت	-8723
▁پێشی	-8724
اکەوتن	-8725
▁بەڵکە	-8726
▁کوردن	-8727
▁وتارێکی	-8728
ادام	-8729
کەوە	-8730
▁بینین	-8731
▁ڕەحیم	-8732
▁داخەوە	-8733
▁لێدەکرێت	-8734
▁نەپ	-8735
▁گەرچی	-8736
▁خۆماڵی	-8737
▁دارستان	-8738
ێزانی	-8739
▁سروود	-8740
▁تاکێکی	-8741
▁وو	-8742
▁کاروب	-8743
▁بنەماڵە	-8744
فەری	-8745
▁الر	-8746
▁ساڵه	-8747
▁زەمینەی	-8748
ەنا	-8749
▁ئەژمار	-8750
▁پرۆفیس	-8751
▁دواخستنی	-8752
▁بێنێت	-8753
نەوی	-8754
▁شەون	-8755
تەس	-8756
▁سیخو	-8757
▁بدو	-8758
▁هەڵپەس	-8759
▁بەرهەڵست	-8760
▁لەکاتێکدایە	-8761
بەخ	-8762
▁ڕێچ	-8763
▁لەوان	-8764
▁لەسیاس	-8765
یەکانیان	-8766
▁ئەرێ	-8767
▁بەڕێ	-8768
▁سونن	-8769
▁لەدرێژ	-8770
▁ناچاری	-8771
▁هاواری	-8772
▁دروستکراوە	-8773
دەخەن	-8774
▁هێور	-8775
تەرناتی	-8776
▁تەسلیم	-8777
▁بەهۆیەوە	-8778
13	-8779
▁دەین	-8780
▁تاڵان	-8781
▁بەرنامەو	-8782
بهێنرێت	-8783
▁تێکۆشان	-8784
▁لەهەوڵی	-8785
▁پشتیوان	-8786
▁بەمشێوەیە	-8787
وێژ	-8788
▁هاتنه	-8789
ۆرکش	-8790
▁قال	-8791
▁دۆکی	-8792
▁میکانیزمی	-8793
▁ددان	-8794
▁بێکەس	-8795
ێشە	-8796
ریکا	-8797
▁لێبو	-8798
▁ئەوقاف	-8799
▁ئەوەدا	-8800
▁گەلە	-8801
▁سینەماک	-8802
▁ڕوویداوە	-8803
▁بەهار	-8804
▁منداڵێکی	-8805
▁بنەمایەکی	-8806
ەڤانی	-8807
▁دیکەیان	-8808
▁پەشیمان	-8809
▁پەنابەری	-8810
▁ئاق	-8811
▁باوەر	-8812
▁بەمانای	-8813
▁دەستبەجێ	-8814
بیلی	-8815
▁مەزنی	-8816
▁الت	-8817
▁بیخ	-8818
▁سەح	-8819
▁عەلاوی	-8820
لاند	-8821
▁کاردەکات	-8822
وشت	-8823
ێنرا	-8824
▁ولە	-8825
▁گوڵی	-8826
▁ووڵات	-8827
▁کۆبوونەوەکانی	-8828
ڕاست	-8829
▁ژان	-8830
▁نەبینی	-8831
▁ڕۆیتەرز	-8832
▁ڕێککەوتننام	-8833
▁بەدەستهێناوە	-8834
▁نوی	-8835
▁دەرەوەو	-8836
ێرا	-8837
▁پرۆگرامی	-8838
▁ئەوکاتەی	-8839
▁1999	-8840
دەنگی	-8841
▁لەناوچە	-8842
ێسی	-8843
فانی	-8844
▁دەستمان	-8845
▁شیکردنەوەی	-8846
▁ماڵپەری	-8847
▁کۆمپانیایەکی	-8848
▁دووەمیش	-8849
بانێ	-8850
▁لەولات	-8851
▁ڕوونیشی	-8852
▁خانەنشینی	-8853
▁ئۆتۆمبێلێکی	-8854
روز	-8855
▁دۆستایەتی	-8856
▁ڕادەربڕین	-8857
▁لەدیدارێکدا	-8858
ۆنا	-8859
اکەر	-8860
ەڵەی	-8861
▁خای	-8862
▁ماه	-8863
▁ڕاستگۆ	-8864
▁ئاکامدا	-8865
▁بڕیارەی	-8866
ووردا	-8867
▁سەردەمەدا	-8868
اغی	-8869
▁تەپ	-8870
▁زەق	-8871
▁سنوورد	-8872
▁هێرشێکی	-8873
▁دەخوازێت	-8874
▁لەکۆی	-8875
▁باڵیۆزخانەی	-8876
▁ئاڵا	-8877
▁بەخێو	-8878
▁سەلیم	-8879
▁بگۆڕێت	-8880
▁دەوڵەم	-8881
▁کوتلە	-8882
▁عام	-8883
ێنەنی	-8884
▁کۆمەڵه	-8885
ییەکانیش	-8886
▁کۆمکاری	-8887
▁لێوەر	-8888
▁هەرێمەوە	-8889
▁شانۆن	-8890
▁فرانس	-8891
ریک	-8892
▁بەرشەلۆنە	-8893
▁فیدراسیۆنی	-8894
بدەن	-8895
▁گوتەی	-8896
▁نەبونی	-8897
▁زانکۆکانی	-8898
▁کۆنف	-8899
▁هەڵبژاردندا	-8900
▁مانگەدا	-8901
▁نف	-8902
▁وام	-8903
▁زەوت	-8904
▁حەرام	-8905
pt	-8906
▁نووسیوە	-8907
▁یۆ	-8908
▁بەرکەوت	-8909
▁مانگانە	-8910
ەهات	-8911
ێندراو	-8912
▁هەڵوێستێکی	-8913
اکو	-8914
داین	-8915
بەرە	-8916
▁بەناوبان	-8917
▁وڵاتانەی	-8918
ونەری	-8919
▁بەلکو	-8920
▁ئادەم	-8921
▁پیاوسال	-8922
▁ئاوەدانکردنەوەی	-8923
▁شەب	-8924
▁ڕێڤ	-8925
▁نەدەن	-8926
▁نووسراو	-8927
▁نانی	-8928
▁گەلان	-8929
▁وەزی	-8930
▁زیندو	-8931
▁شوانی	-8932
▁لەسەرتاسەری	-8933
وێز	-8934
▁داری	-8935
اییەکانی	-8936
▁بوونەتەوە	-8937
▁تێپەر	-8938
ارکردنی	-8939
▁حکومەتدا	-8940
داوەو	-8941
▁یۆلیۆ	-8942
▁داخراو	-8943
▁بەتوندی	-8944
▁جوانترین	-8945
ێکى	-8946
▁کابین	-8947
سوم	-8948
▁سبەینێ	-8949
▁پیشاند	-8950
▁کێشەیەک	-8951
▁لەگەڵیدا	-8952
ەشەی	-8953
▁دڵەڕاو	-8954
▁بگەڕێنەوە	-8955
▁چاودێرانی	-8956
وقی	-8957
▁دوان	-8958
▁دێری	-8959
▁باوەڕیان	-8960
▁ئەدەبیاتی	-8961
▁٣	-8962
▁1992	-8963
▁حزبێکی	-8964
▁سیستمە	-8965
▁باوەشی	-8966
▁شوێنەکانی	-8967
گیرا	-8968
▁پەرتووک	-8969
▁ناتوانرێت	-8970
▁دەرەک	-8971
▁کەناڵە	-8972
▁یاوەری	-8973
ght	-8974
esday	-8975
▁بنچین	-8976
▁ئەورووپا	-8977
▁واژۆ	-8978
▁ڕێکەوتنی	-8979
اسا	-8980
▁ماش	-8981
▁ئەدا	-8982
بیت	-8983
▁جۆرێکی	-8984
▁دیواری	-8985
راوو	-8986
یاره	-8987
▁نەخواز	-8988
▁قود	-8989
▁لیستە	-8990
▁وبەر	-8991
▁ئەڵێت	-8992
▁خاوەند	-8993
▁سازدانی	-8994
▁بریکاری	-8995
▁درێژخایەن	-8996
▁ئەڕ	-8997
▁ئینگل	-8998
▁یەکشەممه	-8999
▁ئاکۆ	-9000
▁دەستبەکار	-9001
▁گرنگتر	-9002
▁وع	-9003
▁سایت	-9004
▁قۆناغەدا	-9005
▁ژێرخانی	-9006
▁to	-9007
قادر	-9008
▁هام	-9009
▁دەستت	-9010
کراوەکانی	-9011
ەخان	-9012
▁لێدوانەکەیدا	-9013
▁جددی	-9014
▁هاوەڵ	-9015
جەل	-9016
▁62	-9017
▁درەخت	-9018
▁ئوسترالیا	-9019
انەیی	-9020
▁پووچ	-9021
▁چێشت	-9022
گەلی	-9023
▁چوارەمین	-9024
▁ماڵئاوایی	-9025
دەکەم	-9026
▁ئۆسکار	-9027
▁تاڵیبان	-9028
▁دانمارک	-9029
▁یەکەکانی	-9030
▁دەبەخش	-9031
▁ڕامیاری	-9032
▁لێهاتوو	-9033
تەدا	-9034
▁بژارد	-9035
▁بەئاوێنەنی	-9036
▁چاپی	-9037
▁ناوکی	-9038
▁ئەزمونی	-9039
▁خوێندەو	-9040
ییەوه	-9041
▁بەلجی	-9042
▁ڕەنگه	-9043
▁ئەتلەتی	-9044
▁هەرکەسێک	-9045
بەتی	-9046
▁بنێن	-9047
▁وانە	-9048
کەرەوەی	-9049
▁ناوچانەی	-9050
ێخ	-9051
ary	-9052
▁ڕۆژانه	-9053
▁لەتورکیا	-9054
▁کاندیدەکانی	-9055
اپای	-9056
▁بەڕووی	-9057
▁یار	-9058
امەوە	-9059
▁کەوتن	-9060
اکانەوە	-9061
▁چاکە	-9062
▁لەوەزارەتی	-9063
بۆوە	-9064
ەستین	-9065
▁قووڵی	-9066
گەیەنین	-9067
▁دامەزراوەی	-9068
▁وڕ	-9069
ەمەر	-9070
▁زای	-9071
▁بردن	-9072
▁ببێته	-9073
▁مەفرەز	-9074
▁شارەکان	-9075
▁کیمیاوی	-9076
▁بەدڵنیاییەوە	-9077
▁خە	-9078
▁ئیمام	-9079
▁دەردەخات	-9080
ێزە	-9081
▁دەوەست	-9082
▁هەوڵدەد	-9083
▁بەرەنگاری	-9084
بز	-9085
بەخش	-9086
▁سوریاو	-9087
▁هەرسێک	-9088
▁ڕووداوەکە	-9089
org	-9090
دەکەین	-9091
▁جیهانە	-9092
▁سندوقی	-9093
▁دواییدا	-9094
▁هەڵوێستە	-9095
▁سەرنجڕاکێش	-9096
▁لێت	-9097
▁براو	-9098
▁پشوو	-9099
▁پێداگری	-9100
19	-9101
▁کاغ	-9102
▁گەلێ	-9103
▁پیشەی	-9104
▁مەکتەب	-9105
ییەکانەوە	-9106
▁لەمەودوا	-9107
▁کەموکورتی	-9108
ارات	-9109
▁وتویەتی	-9110
▁چارەنووسساز	-9111
▁بەرژەوەندییە	-9112
▁ئەلم	-9113
▁گیرو	-9114
▁هەڵەیە	-9115
▁الص	-9116
▁فەخ	-9117
▁پور	-9118
▁کرده	-9119
▁ئیران	-9120
▁دیمەنی	-9121
▁کارگێری	-9122
ەمانە	-9123
گەیشتنی	-9124
ئەل	-9125
▁حەقیقەت	-9126
▁تواناکانی	-9127
ئێم	-9128
▁پەخشی	-9129
▁گرینگی	-9130
▁یەکانی	-9131
▁نەکردوە	-9132
ەبان	-9133
▁هۆشبەر	-9134
ژەنی	-9135
▁کەهەر	-9136
گەیاندن	-9137
▁ئاشکراکرد	-9138
▁هۆت	-9139
▁هەستم	-9140
▁لەدەستدانی	-9141
▁جام	-9142
▁بوێر	-9143
▁تفەنگ	-9144
▁بگەیەنێت	-9145
eb	-9146
زب	-9147
▁دەبەخشێت	-9148
▁مزگەوتی	-9149
▁یارییەکان	-9150
▁سۆن	-9151
▁ڕەوشەنبیری	-9152
▁بووەتەوە	-9153
▁سیستمێکی	-9154
▁خۆکوژ	-9155
حکومەتی	-9156
▁فریاکەوتنی	-9157
▁یارمەتیدانی	-9158
▁نیشتەجێ	-9159
▁هێند	-9160
▁لەدوا	-9161
▁هاولا	-9162
▁ئاڤ	-9163
▁چای	-9164
ەخۆشی	-9165
▁هاتبوو	-9166
▁گوتوویەتی	-9167
هاتن	-9168
اردانی	-9169
▁دیمۆکر	-9170
▁ماڵەکەی	-9171
▁کارەکەی	-9172
▁هونەرمەندە	-9173
▁کۆبوونەوەکەدا	-9174
دنی	-9175
▁بید	-9176
▁بەئاشکرا	-9177
▁تۆماری	-9178
▁بپارێزن	-9179
▁برەو	-9180
▁ئەمەریکایی	-9181
▁چە	-9182
▁لەڕۆژی	-9183
▁زانیارییەکان	-9184
دایەو	-9185
▁ئێوەی	-9186
▁کۆپی	-9187
▁بەبڕوای	-9188
▁دەسەڵاتدا	-9189
▁کۆمەڵایەتییەکان	-9190
تێ	-9191
▁هۆلی	-9192
▁نەمێنێت	-9193
▁لەسەد	-9194
وەش	-9195
▁ئەکرێت	-9196
▁سیاسییەوە	-9197
▁بسەل	-9198
▁کارا	-9199
▁نکۆڵی	-9200
▁تورکیاوە	-9201
▁نێودەوڵەتییەکان	-9202
▁پێداویستییەکانی	-9203
ەزاری	-9204
▁حاڵەتە	-9205
▁هۆکارە	-9206
▁گەیشتوون	-9207
ەکەیت	-9208
بوە	-9209
ەزیز	-9210
ەسەڵاتی	-9211
▁چارەنوسی	-9212
▁سەرکردەیەکی	-9213
ارانە	-9214
▁زۆرد	-9215
▁لاوە	-9216
ترینیان	-9217
▁Kurdistan	-9218
▁پێشوازییکرد	-9219
ێشەی	-9220
▁فرۆشی	-9221
▁نمایشک	-9222
op	-9223
▁گەنم	-9224
▁ڕووناکبیری	-9225
خۆری	-9226
▁ئەنگ	-9227
▁کێشه	-9228
▁دیمان	-9229
sh	-9230
ییدا	-9231
ەهدی	-9232
▁بەشەی	-9233
▁بنچینەی	-9234
▁سزادانی	-9235
▁چەپی	-9236
▁ئۆردو	-9237
▁نوێژی	-9238
▁هێرۆ	-9239
▁شکاندنی	-9240
▁لێبوردنی	-9241
▁ڕاکێشانی	-9242
▁ئەوتۆی	-9243
▁نیگەران	-9244
▁لەکاری	-9245
▁شل	-9246
اوێکی	-9247
▁فەزای	-9248
▁تارق	-9249
▁دەقە	-9250
▁دژوار	-9251
▁کتێبخانەی	-9252
▁وەرە	-9253
▁پارلەمانی	-9254
▁ئەدەن	-9255
▁قەرزی	-9256
▁لەخوێند	-9257
▁ڕاڤ	-9258
▁لەهەم	-9259
▁کەلەپ	-9260
▁گرفتەکانی	-9261
زه	-9262
ەوش	-9263
▁تەواوکردنی	-9264
▁ئۆم	-9265
▁تەقی	-9266
بیل	-9267
▁پێدراوە	-9268
▁نەوەکانی	-9269
ەوەرێکی	-9270
▁ئەستێرەی	-9271
جێک	-9272
▁دەسته	-9273
▁شەماڵ	-9274
▁زووتر	-9275
ئەسوات	-9276
▁لەئەم	-9277
▁نەخوێن	-9278
▁لەوەتەی	-9279
▁ڕۆژنامەو	-9280
▁بانگەوازی	-9281
▁بڵند	-9282
▁کونسوڵ	-9283
▁گشتییەکان	-9284
انەوه	-9285
▁دەنوس	-9286
▁عن	-9287
▁ڕووناکبیر	-9288
چەک	-9289
▁مر	-9290
▁تێو	-9291
▁کەمپین	-9292
▁نووسیندا	-9293
▁ماوەیەکە	-9294
▁کارمەندی	-9295
تۆنی	-9296
ەینی	-9297
▁کەرەست	-9298
▁غەر	-9299
▁دابەزی	-9300
▁دیل	-9301
▁نێگ	-9302
▁دەستنیشانکردنی	-9303
ئەی	-9304
▁بالا	-9305
دەکەنەوە	-9306
▁The	-9307
▁سۆفی	-9308
▁ڕەوشت	-9309
▁نەرێنی	-9310
▁l	-9311
▁ئیئتل	-9312
▁ئەڵماس	-9313
▁سەرلەبەیانی	-9314
ڤەرپ	-9315
▁هێمای	-9316
▁پێشینەی	-9317
ەکەوێتەوە	-9318
▁ئێزد	-9319
▁لیژنە	-9320
▁هەربۆی	-9321
▁فراو	-9322
▁کۆمەڵکوژی	-9323
▁72	-9324
ۆرە	-9325
▁بەدە	-9326
▁حەبی	-9327
▁دەبم	-9328
▁جەناب	-9329
سەپ	-9330
▁موسلیم	-9331
▁سێشەممه	-9332
یەکانیش	-9333
ێف	-9334
اسازی	-9335
▁عەسکەری	-9336
▁پارچەکانی	-9337
تیڤ	-9338
▁حەکیم	-9339
▁بەرقەر	-9340
▁دیموکرات	-9341
نیشت	-9342
▁جێب	-9343
▁دەڕۆ	-9344
▁دارا	-9345
ۆمێنت	-9346
▁دووی	-9347
▁سەربەستی	-9348
▁سۆسیالیست	-9349
وج	-9350
▁پارچەی	-9351
▁بەرهەمێکی	-9352
▁کولتوری	-9353
▁باسکردنی	-9354
▁خانەوادەی	-9355
بێل	-9356
رابێت	-9357
▁ئاشت	-9358
▁لایە	-9359
▁پلەو	-9360
▁چۆنە	-9361
اداشتی	-9362
▁کاریگەرییەکی	-9363
▁بڕینی	-9364
▁گرتبوو	-9365
گەرمی	-9366
▁وتوێژ	-9367
▁ئیجابی	-9368
▁ئەرشیف	-9369
ره	-9370
▁بانک	-9371
▁لەئای	-9372
فتوگ	-9373
▁پارەیە	-9374
▁پسپۆڕی	-9375
شا	-9376
جگار	-9377
▁ڕیکخ	-9378
▁سازکرد	-9379
▁ناوەڕاستدا	-9380
گەز	-9381
▁Th	-9382
▁دیت	-9383
▁نۆژەن	-9384
▁شانۆگەر	-9385
▁دوورکەوت	-9386
▁ند	-9387
▁بەڕۆژ	-9388
▁نیمچە	-9389
▁ئۆگۆست	-9390
▁هەڵەیەکی	-9391
▁تیرۆریستانی	-9392
یة	-9393
▁نەدات	-9394
▁پێدەکرێت	-9395
▁مامە	-9396
▁گرتوو	-9397
▁تەبایی	-9398
▁حەل	-9399
▁کەرت	-9400
▁نیوەڕۆی	-9401
پێن	-9402
▁دەخەنە	-9403
▁وردەکاری	-9404
▁چەقی	-9405
وایه	-9406
▁بێر	-9407
▁ڕێگاو	-9408
▁کلتووری	-9409
▁خوێندەوە	-9410
مەتی	-9411
اندزی	-9412
▁مادام	-9413
▁ڕاستیە	-9414
▁لەوەشکرد	-9415
▁باسمان	-9416
▁خەڵکێکی	-9417
روستکردنی	-9418
wn	-9419
دەوری	-9420
▁ڕۆژێ	-9421
▁زریان	-9422
▁هەڵدەست	-9423
درا	-9424
▁تایم	-9425
▁هەوڵێک	-9426
▁پاشەکش	-9427
▁سێو	-9428
▁حزبەکانی	-9429
▁بەشداربوون	-9430
▁ئەسپ	-9431
▁چارە	-9432
▁پێشێلکردنی	-9433
▁پژ	-9434
▁بەرین	-9435
▁ناڕازی	-9436
▁پەردەی	-9437
▁ڕووبەری	-9438
▁لەکو	-9439
ەرمەند	-9440
▁ستافی	-9441
▁سندوق	-9442
▁یارییە	-9443
▁ئیسلامدا	-9444
▁تەقینەوە	-9445
تای	-9446
▁گۆشت	-9447
▁تاکوو	-9448
▁لەمیانی	-9449
▁نەگەڕ	-9450
▁شوباتی	-9451
▁بخات	-9452
▁سەرچاوەکەی	-9453
▁نەشتەرگەری	-9454
▁سەرە	-9455
▁یەکڕیزی	-9456
▁ئیراد	-9457
▁منە	-9458
▁سۆزی	-9459
ەکەشدا	-9460
▁ئەوەن	-9461
▁نەتەوەکەمان	-9462
▁قەدەغە	-9463
▁پارلەمان	-9464
▁کردار	-9465
▁ئێرانەوە	-9466
پت	-9467
▁ئەودا	-9468
▁بێسەر	-9469
▁قوبادی	-9470
وتن	-9471
ۆگی	-9472
▁کرابێت	-9473
▁پەیامێکی	-9474
▁بوخ	-9475
▁ڕێوشوێن	-9476
▁بریتانیا	-9477
▁مێژوویەکی	-9478
تەرا	-9479
▁دیبلۆم	-9480
▁جیهانیدا	-9481
▁فێڵ	-9482
▁نالەب	-9483
▁ماڵپەڕ	-9484
▁فەرەیدون	-9485
▁الب	-9486
▁بگر	-9487
▁لایان	-9488
▁گیراوە	-9489
▁بەفەرمی	-9490
▁کوا	-9491
▁چیدی	-9492
▁ئێمەو	-9493
جێفی	-9494
▁ساڵیدا	-9495
▁بۆمبێکی	-9496
ali	-9497
▁مق	-9498
▁دیز	-9499
▁لووت	-9500
ادزێ	-9501
▁دەچوو	-9502
▁ئاڵوگۆڕی	-9503
▁سنوورەکانی	-9504
▁نەکرا	-9505
ێوەبەری	-9506
▁وەسفکرد	-9507
▁ها	-9508
▁فێم	-9509
▁دیدارەدا	-9510
▁هەفتەیەک	-9511
▁عیشق	-9512
خستووە	-9513
▁نەگرت	-9514
▁دەداتەوە	-9515
▁e	-9516
انک	-9517
▁لێپێچ	-9518
▁دەرهەق	-9519
▁جیهانیی	-9520
نس	-9521
▁وگ	-9522
▁بگەنە	-9523
▁لوبنانی	-9524
▁ئاوارەکانی	-9525
کۆت	-9526
▁زور	-9527
▁پارتیی	-9528
لیس	-9529
▁هێدی	-9530
▁ئەرسن	-9531
ەکەوت	-9532
چو	-9533
▁مول	-9534
▁63	-9535
▁جووتی	-9536
▁مرۆڤدا	-9537
▁بەتەواوەتی	-9538
▁هاوسەرەکەی	-9539
▁هاوکاریکردنی	-9540
ازێکی	-9541
▁ئێوەش	-9542
▁کۆنسێر	-9543
▁بزووتنەوە	-9544
▁هەڵسەنگاندن	-9545
▁160	-9546
▁هەوا	-9547
▁ئالی	-9548
▁بەستن	-9549
▁دادەمەز	-9550
خوێند	-9551
▁هێزانە	-9552
▁هەرێمیش	-9553
سێن	-9554
شید	-9555
نوری	-9556
▁600	-9557
نامەن	-9558
▁دەستگیرکران	-9559
▁ئاسن	-9560
▁خانەواد	-9561
▁کرماشان	-9562
خانەکان	-9563
▁بکرێنەوە	-9564
انگی	-9565
▁فەن	-9566
▁بڕێکی	-9567
▁لەدرێژەی	-9568
ئاماد	-9569
▁هەڵی	-9570
▁لەشوێنی	-9571
گەینە	-9572
ەباتی	-9573
▁ناسک	-9574
▁هەڵن	-9575
▁تەماشا	-9576
▁ڕەتکردەوە	-9577
بازی	-9578
▁پاشکۆی	-9579
لاوە	-9580
کاوی	-9581
▁ئایە	-9582
▁85	-9583
▁قازی	-9584
▁هەندی	-9585
▁68	-9586
▁بەژ	-9587
▁تەوەری	-9588
رۆی	-9589
ارتی	-9590
▁شەپۆلی	-9591
▁نابێتەوە	-9592
▁گوتو	-9593
▁هەڤال	-9594
▁سێیەمین	-9595
▁مەرکەزی	-9596
▁شێرزاد	-9597
▁ڕانی	-9598
▁ناوەندە	-9599
▁پچ	-9600
ایتی	-9601
▁دوبارە	-9602
▁بەراستی	-9603
▁سەرشانی	-9604
▁پێشکەشکرد	-9605
الیت	-9606
▁داواش	-9607
ۆخی	-9608
▁سەرجەمی	-9609
▁ئەنجامدەد	-9610
▁بەهەم	-9611
▁گرووپە	-9612
▁حەج	-9613
▁سوودێکی	-9614
تردا	-9615
▁ئەلح	-9616
▁بینیمان	-9617
▁بپارێزێت	-9618
ەواو	-9619
▁گوناه	-9620
▁بڵاویان	-9621
▁هەموارکردنی	-9622
▁موحسین	-9623
ەرێ	-9624
▁ڕان	-9625
▁نێوەند	-9626
▁دەنگدەران	-9627
▁کرێی	-9628
▁دەفرۆش	-9629
▁دەستەڵاتی	-9630
▁ئەوەم	-9631
▁نەجەف	-9632
▁دراوسێی	-9633
فیسی	-9634
▁بڕێک	-9635
▁بخرێت	-9636
▁عەقید	-9637
▁پێشڕەو	-9638
▁دەدرێن	-9639
▁شتانەی	-9640
اوم	-9641
▁پرسێکی	-9642
▁هەنگاوێک	-9643
▁شاره	-9644
ئار	-9645
ینار	-9646
ستەم	-9647
▁بووی	-9648
▁دەرگ	-9649
▁بۆمبی	-9650
▁موک	-9651
▁خۆزگە	-9652
▁عەرەبە	-9653
ەدەب	-9654
▁تۆپباران	-9655
تیه	-9656
▁کال	-9657
▁شێوەیەی	-9658
▁تاقیکردنەو	-9659
▁کۆمپانیاکان	-9660
▁یەکدی	-9661
▁مێژووە	-9662
▁سێم	-9663
▁فرمێسک	-9664
▁عێراقیان	-9665
▁پوخت	-9666
پیشاند	-9667
▁خۆکوژی	-9668
▁دامودەزگاکانی	-9669
▁پەنای	-9670
▁لەبەیاننام	-9671
ەشێو	-9672
▁بەلاڤ	-9673
اونەتەوە	-9674
▁ئەندامەکانی	-9675
ss	-9676
▁بەرشلۆنه	-9677
یانەدا	-9678
▁موفتی	-9679
▁نەبوە	-9680
▁کاکەیی	-9681
▁ئاژانسا	-9682
▁2001	-9683
▁دەوام	-9684
ێکیشیان	-9685
▁لەیەکەم	-9686
▁ڕاستییەکان	-9687
▁داواکارییەکانی	-9688
▁دەدۆز	-9689
▁کۆمەکی	-9690
▁نەهاتووە	-9691
▁یۆتۆ	-9692
▁لاپەڕە	-9693
▁خێزانەکەی	-9694
▁زستان	-9695
▁لەمەر	-9696
▁کۆمپیوتەر	-9697
▁تاوانباران	-9698
▁وێرای	-9699
▁پێوەند	-9700
▁خودای	-9701
▁خیانەت	-9702
▁ناوەوە	-9703
اردان	-9704
▁یەکێکه	-9705
▁ئافرەتێک	-9706
▁هەڕ	-9707
▁برایانی	-9708
▁شوف	-9709
▁دەگرت	-9710
▁لەیەکتر	-9711
ساد	-9712
▁هەڵەبجه	-9713
▁چارەنوس	-9714
▁هەڵەبجەو	-9715
▁سووکایەتی	-9716
یشم	-9717
▁گوێم	-9718
▁بەرپرسان	-9719
▁عەرەبەکان	-9720
سۆ	-9721
▁ڕاستگ	-9722
▁پەپ	-9723
اتێکی	-9724
ێژکراو	-9725
▁کاسب	-9726
▁سوننەکان	-9727
برد	-9728
مۆن	-9729
جانی	-9730
▁ڕەگ	-9731
▁باشیان	-9732
▁خوازراو	-9733
▁کەلتوور	-9734
▁پشتیوانیی	-9735
▁ئاخاو	-9736
▁پێشوی	-9737
ارییەوە	-9738
سیتی	-9739
▁عەو	-9740
کردووەو	-9741
▁لەهەردوو	-9742
▁مۆسکۆ	-9743
▁هێرشە	-9744
▁بارەوە	-9745
▁هاتیه	-9746
نەکردنی	-9747
▁واق	-9748
▁بەشدارن	-9749
▁ڕۆم	-9750
ایەنێت	-9751
▁زۆرمان	-9752
▁پڕۆژەکان	-9753
▁لەهەڵبژاردنی	-9754
▁دەشت	-9755
▁ڕەچاوی	-9756
▁جێبەجێکردنەوە	-9757
راف	-9758
گۆش	-9759
▁وردەکاریی	-9760
ەرێت	-9761
▁پێشوەخت	-9762
▁بەسەرپەرشتی	-9763
▁نەڕ	-9764
▁کوو	-9765
پەروەری	-9766
خال	-9767
ەکرن	-9768
▁داهێنەر	-9769
▁بوت	-9770
▁لەهۆڵی	-9771
ug	-9772
▁نادرێت	-9773
▁قەرەباڵ	-9774
عەد	-9775
▁بادین	-9776
▁قژ	-9777
شێوە	-9778
▁سەلەف	-9779
▁داڵ	-9780
▁پێوەر	-9781
▁فڕۆکەی	-9782
▁هەنووکە	-9783
ەروو	-9784
▁دوپ	-9785
▁نایابەکانی	-9786
▁کارئ	-9787
▁ئۆل	-9788
▁ئەنتەر	-9789
▁ئێمەیە	-9790
▁مانایە	-9791
▁لەرێگای	-9792
▁ڕێکخراوەیی	-9793
▁be	-9794
چێتی	-9795
▁گرژی	-9796
▁کونسوڵی	-9797
▁زەردەشت	-9798
▁پەنجەی	-9799
▁سرووشتی	-9800
ابێ	-9801
▁نەبەز	-9802
▁قاعیده	-9803
▁دراون	-9804
▁وەلامی	-9805
▁دادەنێن	-9806
▁داواکارین	-9807
▁زمانەوانی	-9808
سەنگ	-9809
▁حزبەکەی	-9810
ێکن	-9811
▁غەد	-9812
▁نیوە	-9813
▁گرفتە	-9814
▁سەرووی	-9815
▁ستراتیجی	-9816
هێنن	-9817
▁سەفەری	-9818
▁لەگەلا	-9819
▁خواردنەوەی	-9820
72	-9821
▁زانین	-9822
▁کارەکتەر	-9823
بێتە	-9824
▁شەک	-9825
▁ئێرانیش	-9826
96	-9827
az	-9828
▁بازن	-9829
▁پیادە	-9830
گیرکردنی	-9831
▁وێنەگرتنی	-9832
ێدانی	-9833
▁کۆلێژ	-9834
ارییەکی	-9835
▁ئامادەبووان	-9836
▁دلێر	-9837
▁لەکەس	-9838
▁دانوست	-9839
▁شوێنەواری	-9840
اوێژ	-9841
ەنەکردنی	-9842
▁شێعرەکانی	-9843
کردە	-9844
ەماندا	-9845
▁لەهەندێک	-9846
▁پاشماوەی	-9847
دێر	-9848
▁مانی	-9849
▁کایەی	-9850
▁کاربەدەس	-9851
زن	-9852
فرانس	-9853
▁جەولەی	-9854
▁نەتوان	-9855
▁ئایندەیەکی	-9856
▁هند	-9857
▁ڕوکن	-9858
▁شایستەی	-9859
▁باند	-9860
▁کەرب	-9861
▁دواییەی	-9862
▁منداڵەکانیان	-9863
ەخانە	-9864
ۆیەکی	-9865
▁زاراوەی	-9866
▁هاوپەیمانان	-9867
حە	-9868
▁جور	-9869
▁بەخشینی	-9870
▁لەئەندا	-9871
▁مێژوودا	-9872
▁خنک	-9873
▁هەبوە	-9874
▁سەپتەمبەر	-9875
76	-9876
▁قۆڵ	-9877
▁تائی	-9878
▁کچێک	-9879
▁گەلێکی	-9880
تەق	-9881
▁ئێش	-9882
▁حەد	-9883
▁دەمێکە	-9884
▁...	-9885
▁000	-9886
▁ژنانە	-9887
وورو	-9888
▁بۆری	-9889
▁تاکه	-9890
▁فەیسبوو	-9891
▁فاکتەری	-9892
▁بەردەر	-9893
بووەوە	-9894
▁نەگۆڕ	-9895
ەکت	-9896
▁بخەن	-9897
▁لەخولی	-9898
نییە	-9899
انداو	-9900
▁بووک	-9901
▁بێشک	-9902
▁لێژن	-9903
▁بەپەلە	-9904
▁هەستیار	-9905
کوت	-9906
▁فەق	-9907
▁کاتەوە	-9908
▁بەمجۆرە	-9909
▁لەوڵاتانی	-9910
▁باسم	-9911
▁بیروڕا	-9912
▁نازناو	-9913
▁لێپرسراو	-9914
▁دەنگێکی	-9915
▁هاوولاتیانی	-9916
▁کم	-9917
▁لەیاد	-9918
▁پشی	-9919
رەم	-9920
▁پۆش	-9921
شێوەی	-9922
▁بنوس	-9923
▁داوەتە	-9924
▁گەنجە	-9925
▁پێوەری	-9926
▁ئەفریقی	-9927
▁کت	-9928
▁لەشوێن	-9929
▁بەوپەڕی	-9930
▁ناسراوی	-9931
▁دەکردو	-9932
▁شەیتان	-9933
▁نیویۆرک	-9934
▁بڕیاردان	-9935
جارە	-9936
ڕووی	-9937
▁دەڵی	-9938
▁خەڵکەوە	-9939
▁نایەوێت	-9940
▁بوارەکاندا	-9941
▁بەرچ	-9942
▁خرایە	-9943
▁بەرشل	-9944
▁گریان	-9945
جان	-9946
▁نوق	-9947
▁قەزاو	-9948
▁لەبەری	-9949
▁لەوەکرد	-9950
الاک	-9951
کتۆر	-9952
▁2002	-9953
▁بزانم	-9954
▁شەممەی	-9955
▁یانەکە	-9956
▁دگەل	-9957
▁یادەوەری	-9958
▁بەکەم	-9959
▁هەتاو	-9960
▁عیز	-9961
▁فۆل	-9962
▁ئەستەم	-9963
▁ناسینی	-9964
▁مەترسیی	-9965
اشەوە	-9966
انەیەکی	-9967
▁کێشانە	-9968
ews	-9969
▁خات	-9970
▁نەبو	-9971
▁نەزاه	-9972
▁هەواڵە	-9973
▁حاڵەتێکی	-9974
وڵا	-9975
▁شەراک	-9976
هەروەها	-9977
▁شۆفێر	-9978
▁گەیاندە	-9979
▁مەند	-9980
ایەوەو	-9981
▁چالاکیی	-9982
▁تێپەڕبوونی	-9983
ter	-9984
حیا	-9985
اتیکی	-9986
دراوە	-9987
وانینە	-9988
▁توێژینەوە	-9989
▁ڕونکردنەوەی	-9990
16	-9991
▁شادی	-9992
▁ئەڵێن	-9993
▁بۆیەش	-9994
مەس	-9995
ینن	-9996
▁هەڵواس	-9997
▁بڕوانە	-9998
نەم	-9999
ۆکاری	-10000
▁پارەیەکی	-10001
▁کۆک	-10002
▁کیلۆ	-10003
زەکانی	-10004
▁گەیاندن	-10005
▁یاساکان	-10006
▁بەزەیی	-10007
▁هێنایە	-10008
▁هەندرێن	-10009
▁پڕۆژەکانی	-10010
▁ڕاگو	-10011
ێندرێت	-10012
▁کەیەک	-10013
▁ڕێگرتن	-10014
▁ڕاپەرین	-10015
کرابوو	-10016
▁پڕۆژه	-10017
کردنێکی	-10018
▁خۆشبەختانە	-10019
▁نەیانتوانیوە	-10020
▁دەیکەن	-10021
▁ئێستایش	-10022
قام	-10023
▁ئەنجامدراوە	-10024
▁جلی	-10025
▁سەک	-10026
▁پێهات	-10027
▁مەراسیم	-10028
▁قەرەداغی	-10029
ێزان	-10030
▁دوەم	-10031
ڤن	-10032
▁سەه	-10033
▁کێیە	-10034
▁ڕەسەنی	-10035
ەنینی	-10036
▁بەگرنگ	-10037
▁نەدەبوو	-10038
ێردا	-10039
▁فکر	-10040
▁ناودەب	-10041
▁کۆمسیۆنی	-10042
▁ئاسانکاری	-10043
ویان	-10044
▁ڕیت	-10045
▁هەنوک	-10046
▁زانینی	-10047
▁کەشوه	-10048
▁ئەمەیان	-10049
▁دابەزینی	-10050
▁ڤال	-10051
▁لەتوان	-10052
▁خواردنەوە	-10053
▁پێدان	-10054
▁بەئامان	-10055
ەلەی	-10056
▁120	-10057
▁ئاستە	-10058
▁بگواز	-10059
▁منداڵەکانی	-10060
▁لەکۆبوونەوەکەدا	-10061
▁فین	-10062
▁تەخت	-10063
▁دەرگا	-10064
▁پارچه	-10065
▁خۆپیشاندانەکانی	-10066
خات	-10067
▁یەکگرتنەوەی	-10068
وودا	-10069
اکەم	-10070
▁وروژ	-10071
▁چاوم	-10072
▁پێشکێش	-10073
▁پەیکەری	-10074
▁بڕیارەکەی	-10075
▁ئەندازیاری	-10076
▁دەکەوێتەوە	-10077
اگا	-10078
▁مەین	-10079
▁فیلمەکە	-10080
▁ئەقڵ	-10081
▁لەلا	-10082
▁ئەجێند	-10083
▁ڕابەری	-10084
▁نەیویست	-10085
کەرک	-10086
▁دەبەستێت	-10087
48	-10088
ia	-10089
▁کەمین	-10090
ەتیی	-10091
▁محەمەدی	-10092
▁ئاوەدانکردنەوە	-10093
ەبڕ	-10094
▁کارل	-10095
▁لاپەڕەی	-10096
▁شارەزایانی	-10097
▁بڕین	-10098
▁حسێن	-10099
▁وازی	-10100
▁کردەو	-10101
▁بەئەندا	-10102
▁قوربانیان	-10103
▁مافەکانیان	-10104
▁66	-10105
▁وەفد	-10106
▁پارەو	-10107
ەکانیەوە	-10108
▁پێچەوانە	-10109
▁سێبەر	-10110
▁حەوتەم	-10111
▁سەربە	-10112
▁کوردییە	-10113
▁سەروەریی	-10114
▁ڕائ	-10115
دەکرد	-10116
▁بەرتەس	-10117
▁دروستکردن	-10118
تاش	-10119
ەگەڵ	-10120
▁سەت	-10121
▁بۆچوونە	-10122
▁لەحکومەت	-10123
▁پارێزگار	-10124
هێنین	-10125
▁ناوخۆو	-10126
▁لەسوریا	-10127
▁پەیوەندیان	-10128
▁بباتەوە	-10129
▁کوردوستان	-10130
▁خولەکەکانی	-10131
▁درک	-10132
▁خرای	-10133
▁نیوەڕۆ	-10134
32	-10135
▁بلی	-10136
▁شێع	-10137
▁کەخ	-10138
▁کودەت	-10139
▁ڕکابەری	-10140
ووب	-10141
▁سلیمانی	-10142
▁دابمەزرێن	-10143
▁لێدوانێکیدا	-10144
▁بێگەر	-10145
▁چەندەها	-10146
▁ئازادیخوازی	-10147
▁جەزائ	-10148
▁هونەرە	-10149
ێبەجێکردنی	-10150
▁موسل	-10151
هەولێر	-10152
▁ئەلبوو	-10153
▁دەرچووی	-10154
▁سەندیکا	-10155
▁بەختەوەر	-10156
▁دێنێت	-10157
▁قەوارەی	-10158
▁شەهر	-10159
▁لەفەر	-10160
▁کامیر	-10161
▁جوانتر	-10162
▁مۆندیال	-10163
▁بنکەکانی	-10164
▁گەشەکردن	-10165
ەراڵ	-10166
▁قادری	-10167
▁کۆیلە	-10168
▁ئێستاکە	-10169
▁بەکرێ	-10170
▁پشووی	-10171
▁هەریەکەیان	-10172
▁بدە	-10173
▁یەن	-10174
▁سادق	-10175
▁خۆیانە	-10176
▁زۆرەوە	-10177
▁قەرەبووی	-10178
▁پرۆژەکانی	-10179
▁ترۆ	-10180
▁ڕۆڵە	-10181
▁ئاشتەو	-10182
▁ئۆز	-10183
▁بۆئ	-10184
▁سۆل	-10185
▁تاکەکەس	-10186
▁یو	-10187
▁پرەنسیپ	-10188
▁خۆشم	-10189
▁دەکەون	-10190
▁نیسانی	-10191
▁شەرعییەتی	-10192
▁ئەمجار	-10193
▁بەڕێزان	-10194
▁کەمپینی	-10195
▁پێشانگایەکی	-10196
▁)،	-10197
▁دەگوز	-10198
▁پێنجشەممە	-10199
▁نوخ	-10200
▁بڕیارێک	-10201
▁بیرەوەر	-10202
▁پێوەندیی	-10203
▁لەماف	-10204
▁لەوەڵ	-10205
▁سۆرانی	-10206
▁مەهاباد	-10207
▁ڕێبەرانی	-10208
▁دادو	-10209
▁ساڵەدا	-10210
ێنرێتەوە	-10211
▁خاوەنەکەی	-10212
▁2015	-10213
▁ئامەد	-10214
▁میدیاکان	-10215
▁ڕەواکانی	-10216
ابو	-10217
▁گوندنشین	-10218
▁ڕوژ	-10219
▁ئەڵێ	-10220
▁کوردا	-10221
▁بەکارهێن	-10222
ستمی	-10223
اوەدا	-10224
▁سودی	-10225
▁عاشقی	-10226
▁ئاوازی	-10227
▁ناتوانیت	-10228
▁ماونەتەوە	-10229
▁بەتۆم	-10230
▁ئەرمەن	-10231
▁پاشەکشەی	-10232
▁بپرسین	-10233
▁دەڵێیت	-10234
▁قەزافی	-10235
▁خۆپیشاندانەکان	-10236
واند	-10237
▁پیرە	-10238
خۆشبوو	-10239
▁مامەڵەکردن	-10240
▁میژ	-10241
▁کارێ	-10242
رابوون	-10243
▁دەیگوت	-10244
▁ئیسلامییە	-10245
▁ڕەها	-10246
▁ئەدیب	-10247
▁شوناسی	-10248
▁نابێتە	-10249
▁ڕاوێژکار	-10250
کیش	-10251
نەوەو	-10252
▁بەئاوێنەنیوزی	-10253
کێک	-10254
▁قاو	-10255
▁سۆڤیەت	-10256
▁هەبووەو	-10257
▁بنکەیەکی	-10258
▁کاول	-10259
▁دەرنە	-10260
▁بەرزنج	-10261
▁نالی	-10262
ێتەوەو	-10263
▁بەختی	-10264
▁لەوەر	-10265
▁منەوە	-10266
▁نوجێفی	-10267
▁یەکیتی	-10268
▁کۆمەڵگەدا	-10269
نێ	-10270
▁فەڵ	-10271
▁تەمەنیان	-10272
گەیە	-10273
▁نۆز	-10274
ویانە	-10275
گیراو	-10276
▁کۆدەب	-10277
▁نەتەوەیەکی	-10278
▁وەڵامدانەوەی	-10279
امه	-10280
خۆشە	-10281
▁کەبۆ	-10282
▁نەوەد	-10283
▁خەڵکەکەی	-10284
▁سڕینەوەی	-10285
نەوه	-10286
ەخۆر	-10287
▁ڕۆناڵ	-10288
▁لانیکەم	-10289
▁ڕۆژهەلاتی	-10290
▁هاوخ	-10291
▁نازانین	-10292
▁کۆبوونەوەیەدا	-10293
▁توش	-10294
▁لەمە	-10295
▁میری	-10296
▁خشتەی	-10297
▁ئەنجامە	-10298
▁وبە	-10299
▁سواری	-10300
▁پرۆفیسۆر	-10301
▁کردوه	-10302
▁ئەوکەس	-10303
▁مەحکوم	-10304
▁بۆمبڕ	-10305
▁ئۆفیسی	-10306
▁ئیمپراتۆری	-10307
ویر	-10308
▁فیدرال	-10309
ێلسی	-10310
▁کۆشش	-10311
▁ئەیان	-10312
▁قسەیان	-10313
▁ئەواندا	-10314
▁ناوبانگی	-10315
▁بەیاننامەیەکی	-10316
باس	-10317
▁نەشی	-10318
▁بۆندی	-10319
▁بەچاو	-10320
▁دەگاته	-10321
▁خۆپێشاندان	-10322
▁دواین	-10323
▁لەبارە	-10324
▁هەفتەیەدا	-10325
▁کۆمەڵگایە	-10326
امدا	-10327
▁کارگێڕ	-10328
▁یەکیان	-10329
▁یاسادان	-10330
▁گۆت	-10331
میلان	-10332
▁یۆنیۆ	-10333
▁فیدرالی	-10334
▁جەنگە	-10335
▁خۆڕاگری	-10336
▁پێویستیی	-10337
▁جینۆسایدی	-10338
▁بڕیاردرا	-10339
▁هەوڵەکان	-10340
▁قاڵ	-10341
▁هۆکارەکەی	-10342
▁ئاشکراکردنی	-10343
ak	-10344
مێنن	-10345
ێکیدا	-10346
▁هێمنی	-10347
▁ساتەوە	-10348
▁دەیەوێت	-10349
پۆرت	-10350
ەکەکانی	-10351
ماڵی	-10352
▁دەپ	-10353
▁قون	-10354
▁ئوسامە	-10355
▁هەرزان	-10356
▁جوانەکانی	-10357
▁لەکۆتاییدا	-10358
▁کۆمەڵگەیەکی	-10359
▁ئامار	-10360
مس	-10361
▁بتر	-10362
▁حام	-10363
▁مووش	-10364
▁میانی	-10365
▁دەروێش	-10366
▁سەرچاوه	-10367
▁بەفی	-10368
▁نامە	-10369
▁لەناک	-10370
▁کەناری	-10371
▁سەرەوەی	-10372
ورک	-10373
▁جەمسەر	-10374
▁دەربچێت	-10375
▁سلێمانیدا	-10376
▁فڵ	-10377
▁لیبی	-10378
▁کرانەوە	-10379
▁بەرامبەردا	-10380
se	-10381
بارانی	-10382
▁سێر	-10383
▁سعود	-10384
▁مێژو	-10385
▁دەباغ	-10386
▁ئەفسەری	-10387
▁دونی	-10388
▁گوشار	-10389
▁سەرمای	-10390
▁77	-10391
▁مەرجەکانی	-10392
▁76	-10393
▁کڕ	-10394
▁ڕووباری	-10395
▁کارنامەی	-10396
▁چارەسەرێکی	-10397
هام	-10398
وابوو	-10399
▁بخەینە	-10400
▁گشتگیر	-10401
▁لەسنوری	-10402
▁بەئەنجام	-10403
▁دیوی	-10404
▁خوالێ	-10405
بوک	-10406
عەی	-10407
ندەی	-10408
رانەوە	-10409
▁شۆرشی	-10410
▁دێتەوە	-10411
▁فەرمووی	-10412
▁ڕۆب	-10413
right	-10414
ەکەوێت	-10415
▁هەوڵە	-10416
▁پێشەکی	-10417
▁ڕێوڕەسمی	-10418
الەتی	-10419
▁وەربگرین	-10420
▁عیس	-10421
▁ئۆبام	-10422
▁پێکدێت	-10423
▁تیرۆرستی	-10424
▁بەناوبانگی	-10425
▁کوڕەکەی	-10426
▁کەموکوڕی	-10427
▁مورسی	-10428
▁ئەلبوم	-10429
ەکانیشدا	-10430
▁بزوتنەو	-10431
ەفەر	-10432
▁گۆڵچی	-10433
▁لەکوردستانی	-10434
▁ئەول	-10435
▁خوداو	-10436
▁هەشتەم	-10437
▁کوبانێ	-10438
▁دووەمیان	-10439
▁یارییەکەی	-10440
دوتی	-10441
امنێر	-10442
▁ئەمیش	-10443
▁بابان	-10444
▁خوایە	-10445
▁لەدایکبوونی	-10446
کراوه	-10447
▁کردی	-10448
▁ئەوین	-10449
▁فریشت	-10450
▁بەخۆوە	-10451
▁ڕێکخراوه	-10452
ذا	-10453
▁جە	-10454
وارە	-10455
کەند	-10456
▁ئەوجا	-10457
▁تاچەند	-10458
▁ئەستەمە	-10459
▁سەردانەی	-10460
▁ئەندازیار	-10461
▁فیدراسیۆن	-10462
▁شاج	-10463
▁چەمکە	-10464
▁بەبیان	-10465
▁دابنێن	-10466
▁داعشەوە	-10467
▁دیالۆگی	-10468
▁ئەلیکترۆنی	-10469
▁کۆشک	-10470
▁پێکردنی	-10471
ستین	-10472
▁کێن	-10473
▁پەردە	-10474
▁سەرمایەی	-10475
▁دیاریکراوە	-10476
▁نەخشە	-10477
▁جەوهەری	-10478
▁مەعنەوی	-10479
▁بابەتەکە	-10480
▁کۆنترۆڵکردنی	-10481
ووداو	-10482
ەقامی	-10483
▁پردی	-10484
▁کارم	-10485
▁شتانە	-10486
▁هەڵیان	-10487
▁ئەوروپادا	-10488
▁لێپرسراوانی	-10489
wnj	-10490
نەڤ	-10491
ەکردنە	-10492
▁نووسەرە	-10493
▁نەخوێندەو	-10494
▁بیروڕای	-10495
▁دووەمدا	-10496
▁ئاشکراشی	-10497
▁باڵادەست	-10498
▁لەکۆنگرەیەکی	-10499
خوا	-10500
ەهۆی	-10501
▁بیرمەند	-10502
▁ئەمریکاوە	-10503
▁zwnj	-10504
▁بایدن	-10505
▁سیروانی	-10506
▁حزبایەتی	-10507
▁دەکاتەوه	-10508
اتێ	-10509
نوس	-10510
زیاتر	-10511
▁بانگی	-10512
▁ئەنجامێکی	-10513
▁بەپێویستی	-10514
▁لێدوانەکەی	-10515
زافی	-10516
▁کۆنەپەر	-10517
▁ئەزموونە	-10518
حید	-10519
▁جنێو	-10520
▁شیاوی	-10521
بژ	-10522
ایلی	-10523
▁تەقلی	-10524
▁بەهێزە	-10525
▁قەوارە	-10526
▁پێکەوه	-10527
▁جیاوازن	-10528
▁خۆپێشاند	-10529
▁میح	-10530
▁زانای	-10531
▁برادەر	-10532
▁نەیارانی	-10533
▁هەناردەکردنی	-10534
ستۆ	-10535
▁کەپێو	-10536
▁دەدوێت	-10537
بەند	-10538
▁بەباش	-10539
▁زانستە	-10540
ەدەم	-10541
▁org	-10542
▁بەنرخ	-10543
▁ڕۆڵەکانی	-10544
▁کۆمەڵەکانیش	-10545
▁کەسایەتییەکی	-10546
ویس	-10547
▁سازی	-10548
▁کەپێش	-10549
▁دیمانە	-10550
▁قر	-10551
ئەگەر	-10552
▁نوێب	-10553
▁پەند	-10554
▁ناگرێت	-10555
▁گەڕاندنەوەی	-10556
▁دهوکێ	-10557
▁تەلاری	-10558
▁پەرەسەندنی	-10559
▁لەنزیکەوە	-10560
اول	-10561
▁ئاپۆ	-10562
▁شوناس	-10563
▁پەرەی	-10564
▁بڕۆن	-10565
▁یۆنانی	-10566
▁کەئێستا	-10567
▁هەموولایەک	-10568
▁ئەندامەی	-10569
▁داوایکرد	-10570
سار	-10571
▁یەکدا	-10572
▁بێگانە	-10573
▁لەدەرەوە	-10574
ێکەی	-10575
▁توێژە	-10576
▁کاغەز	-10577
▁باخچەی	-10578
▁ئەنارکی	-10579
▁لەزۆربەی	-10580
کردوو	-10581
▁ئاگا	-10582
▁بۆچونی	-10583
▁خۆرئاوای	-10584
▁عێراقیەکان	-10585
▁خانی	-10586
▁وح	-10587
▁ئابی	-10588
▁نیگار	-10589
▁توخ	-10590
▁مۆری	-10591
▁دیف	-10592
بکرێن	-10593
▁بازار	-10594
ەکەشیان	-10595
▁کاتژمێری	-10596
▁چەر	-10597
▁پایی	-10598
▁زەمەنی	-10599
▁گەمەی	-10600
▁تێرۆری	-10601
▁مەحاڵە	-10602
▁نەکراو	-10603
بولی	-10604
ێیدا	-10605
▁دایه	-10606
▁لەلی	-10607
▁لەپێک	-10608
هەموو	-10609
ێیەکی	-10610
▁بالی	-10611
▁تاقە	-10612
▁ڕێگایەکی	-10613
▁گۆرانکاری	-10614
ێدەه	-10615
وونەوە	-10616
▁شێعردا	-10617
▁بەپارێز	-10618
▁پێبدرێت	-10619
▁ئەمجارەیان	-10620
لق	-10621
ورو	-10622
ورا	-10623
▁هار	-10624
ووترین	-10625
اویی	-10626
▁بەگژ	-10627
▁تێدەگ	-10628
▁دوژمنان	-10629
▁بزوتنەوە	-10630
▁نشین	-10631
▁جیاجیا	-10632
▁خێزانە	-10633
▁کارانە	-10634
▁مسوڵمان	-10635
▁ئەنداز	-10636
▁پاشەکشە	-10637
▁فراوانکردنی	-10638
قوب	-10639
▁ڕامان	-10640
دەکرێتەوە	-10641
پارتی	-10642
▁فاتی	-10643
▁قانون	-10644
▁لاتینی	-10645
ەکەماندا	-10646
▁موقتەدا	-10647
▁جارێکیتر	-10648
▁هەورامان	-10649
▁نمایشکردنی	-10650
▁شارۆچکەکانی	-10651
▁ئەنفالکراوەکان	-10652
▁جوتیاران	-10653
▁لەداهاتوودا	-10654
▁ساتی	-10655
▁دەگمەن	-10656
▁ئەمڕۆدا	-10657
▁جلوبەرگ	-10658
▁ئەزموونێکی	-10659
▁ساتێک	-10660
▁کەمتەرخەم	-10661
▁بڵاوکرایەوە	-10662
ُّ	-10663
▁بەرپەر	-10664
▁بدەنەوە	-10665
▁گوندەکان	-10666
▁هاوڕێکانی	-10667
ect	-10668
یرەی	-10669
▁مرو	-10670
▁گۆشتی	-10671
▁دامەزراند	-10672
▁تیژ	-10673
▁مەراسیمی	-10674
ڤێ	-10675
ەکەسی	-10676
▁زۆرم	-10677
▁بزاڤی	-10678
▁ئازادییە	-10679
▁بەرزترین	-10680
▁بەرزنجەیی	-10681
▁مۆزەخانەی	-10682
قول	-10683
▁ببەن	-10684
▁سنورد	-10685
▁تاڕادەیەک	-10686
▁دیپلۆماسی	-10687
▁شۆ	-10688
▁بەربەر	-10689
▁بەرگەی	-10690
▁شەشەمی	-10691
▁ابن	-10692
▁فەلاح	-10693
▁لەکۆم	-10694
▁سری	-10695
▁ئەفریقا	-10696
▁کوژراوە	-10697
▁دامەزراوەکانی	-10698
▁لەلێدوانێکدا	-10699
▁پاڵەوانەکانی	-10700
تار	-10701
وڵاتی	-10702
▁کڕین	-10703
▁لەنەخۆش	-10704
ەپانی	-10705
▁کەتی	-10706
دیو	-10707
اوەیە	-10708
▁نییەلە	-10709
▁دەرئەنجامەکانی	-10710
▁ات	-10711
▁پشدەر	-10712
▁گەنجێک	-10713
▁قەززافی	-10714
▁کوردستانن	-10715
▁لەبەرامبەریشدا	-10716
▁ڕەوشتی	-10717
▁بەخۆیان	-10718
▁ناکەوێت	-10719
▁نمایشکرا	-10720
ەگەر	-10721
▁شکۆ	-10722
▁گرانی	-10723
▁هەوڵیان	-10724
▁سۆسیالیستی	-10725
▁بدەیت	-10726
▁بڕوایان	-10727
▁ئەوانەوە	-10728
▁دەرهێنان	-10729
▁بەرامبەری	-10730
▁نیشاندانی	-10731
▁لۆژیکی	-10732
▁ئامرازی	-10733
urd	-10734
ۆڵە	-10735
▁بول	-10736
▁کۆتا	-10737
▁بەپێش	-10738
▁چێلسی	-10739
زخ	-10740
خەی	-10741
▁نالین	-10742
▁ڕابکێش	-10743
▁ئەندازەی	-10744
▁کۆنتڕۆڵی	-10745
▁داکۆکیکردن	-10746
▁بەحر	-10747
▁بەپێ	-10748
▁جوام	-10749
▁لەبوار	-10750
▁هەڵخەڵ	-10751
▁دیدارەکەدا	-10752
▁بەپلەی	-10753
▁ض	-10754
فۆر	-10755
▁هەڵگرتنی	-10756
▁جەهانگیری	-10757
▁دەسەڵاتەکانی	-10758
ەکەکان	-10759
aw	-10760
▁تارم	-10761
▁ناوبانگ	-10762
▁هەڵبەست	-10763
یشن	-10764
نیە	-10765
▁بەڕێوەبچێت	-10766
اریا	-10767
▁لەکوێ	-10768
زیا	-10769
▁نیوەر	-10770
▁نەخۆشییە	-10771
▁قڕ	-10772
هەڵات	-10773
▁تەکنیک	-10774
▁لەناوەڕ	-10775
▁پلاندانان	-10776
▁موچە	-10777
ۆرینەی	-10778
▁بەرهەمهێن	-10779
▁پەروەردگار	-10780
18	-10781
▁تەلەڤ	-10782
▁سەفین	-10783
▁ڕاهێن	-10784
▁کوتله	-10785
▁خواستەکانی	-10786
▁بەرژەوەندیەکانی	-10787
▁پژاک	-10788
▁قەدەر	-10789
▁دەرهێن	-10790
▁بۆردومانی	-10791
▁شەع	-10792
▁هەقیق	-10793
کردۆتەوه	-10794
▁پرسیارێک	-10795
نت	-10796
دید	-10797
ەپەگە	-10798
▁موسا	-10799
▁ئەوروپای	-10800
ەبێ	-10801
▁پیلان	-10802
▁پێشین	-10803
▁کاریکات	-10804
▁چالاکییە	-10805
▁دەگێڕێتەوە	-10806
وودە	-10807
▁102	-10808
▁چیت	-10809
▁لەخۆر	-10810
▁ئەمنیی	-10811
نێکی	-10812
کراوەی	-10813
ەیەکیش	-10814
▁پرۆسە	-10815
▁پێدەکەن	-10816
▁کێشانەی	-10817
▁ڕزگاریخوازی	-10818
▁ڕوم	-10819
بووین	-10820
▁لەڕی	-10821
▁فۆتۆگراف	-10822
▁شێرپەنجەی	-10823
سادق	-10824
▁ئیمە	-10825
▁دانەن	-10826
بایە	-10827
▁138	-10828
▁زۆرەی	-10829
سەند	-10830
عەزیز	-10831
ەسازی	-10832
▁ناخۆشی	-10833
▁ئەیوب	-10834
▁دەستەواژەی	-10835
حان	-10836
▁ساڵێکە	-10837
▁شوێنەی	-10838
▁پیرۆزە	-10839
▁خوێنەران	-10840
▁خایاند	-10841
▁ئیئتلافی	-10842
▁یاوەر	-10843
▁پاشگەز	-10844
▁عیل	-10845
▁لەری	-10846
▁مەکسی	-10847
▁دەنگۆی	-10848
▁دەگواز	-10849
▁لەپرۆسەی	-10850
▁قوتابخانەکان	-10851
ێدان	-10852
▁ماڵو	-10853
▁هەرێما	-10854
▁لەوڵاتی	-10855
▁منداڵێک	-10856
▁کەج	-10857
▁موجاه	-10858
کەرکوکی	-10859
▁بزاڤ	-10860
▁ئەوەوە	-10861
▁سەرچاوەکان	-10862
▁بەرنامەکانی	-10863
▁ببینین	-10864
▁بەختەوەری	-10865
▁دروستدەکات	-10866
وڵی	-10867
▁نها	-10868
▁چەن	-10869
▁نەدرێت	-10870
▁ام	-10871
▁شیعەو	-10872
▁بەچاوی	-10873
▁ناوەڕۆک	-10874
روف	-10875
اییان	-10876
▁بەشیر	-10877
▁هەتاوی	-10878
زەت	-10879
▁73	-10880
▁تواناو	-10881
▁خۆمانی	-10882
▁دینارە	-10883
▁چارەسەرکردن	-10884
▁بڵاویکردۆتەوە	-10885
ۆچوون	-10886
▁تەلەفیزی	-10887
▁جید	-10888
▁لەبەشی	-10889
▁هەستکردن	-10890
▁ئازیز	-10891
▁ئۆڵۆمپی	-10892
▁ئەوەکرد	-10893
▁بەردەوامەو	-10894
▁دیجلە	-10895
▁بەدواوە	-10896
▁کتێبێکی	-10897
art	-10898
یتەر	-10899
روستی	-10900
▁بگەن	-10901
▁ڕەوتە	-10902
▁ڕیکلام	-10903
▁پێگەیەکی	-10904
▁پڕکردنەوەی	-10905
ڕم	-10906
ەکیی	-10907
یتەوە	-10908
▁ناوێت	-10909
▁ساڵێکی	-10910
▁ڕۆشنبیرانی	-10911
ۆرکشۆپ	-10912
▁خراوەتە	-10913
▁کیمیابارانی	-10914
▁بەهی	-10915
▁زەردەشتی	-10916
▁حکومەتەوە	-10917
▁باشترکردنی	-10918
▁هۆر	-10919
ونەوە	-10920
▁وەکی	-10921
ڤیچ	-10922
▁پوچەڵ	-10923
کێشانەوەی	-10924
▁بۆچ	-10925
▁هەڵات	-10926
▁لەمەوپێش	-10927
▁حەڵ	-10928
مەکێش	-10929
▁عەتا	-10930
▁جۆرەی	-10931
کوردستان	-10932
▁یەحیا	-10933
▁شێوەیه	-10934
▁وڵاتەی	-10935
▁حیزبەکانی	-10936
تدا	-10937
▁لو	-10938
بنەوە	-10939
▁نموونەیەکی	-10940
▁سەرکەوتنێکی	-10941
▁ئەوس	-10942
▁ئایاری	-10943
▁وەبەرهێن	-10944
▁سالارکەرکوکی	-10945
▁کەهەموو	-10946
▁گفتوگۆکان	-10947
اشا	-10948
گیان	-10949
ەکمان	-10950
▁پێگە	-10951
▁دەسەڵاتداری	-10952
▁دژایەتیکردنی	-10953
▁64	-10954
▁زاهیر	-10955
▁گەمارۆ	-10956
▁پارتێکی	-10957
▁شاعیرە	-10958
باب	-10959
▁لک	-10960
▁نوسراو	-10961
▁پۆزەتیڤ	-10962
عم	-10963
درێژ	-10964
▁پایە	-10965
محەمەد	-10966
▁پەرلەمانتارێکی	-10967
کة	-10968
دەوام	-10969
▁لەمەش	-10970
▁سوریای	-10971
▁ڕێگەیان	-10972
▁ناونیشان	-10973
▁لێدوانەکانی	-10974
▁جۆش	-10975
▁ئەیلوول	-10976
10	-10977
▁بۆته	-10978
▁گفتوگۆیەکی	-10979
▁قۆرخ	-10980
▁گوتار	-10981
▁وەستاوە	-10982
▁بزووتنەو	-10983
▁هەماهەنگ	-10984
ort	-10985
وێنێت	-10986
▁1990	-10987
▁ناعەدا	-10988
ەواوی	-10989
▁پرۆت	-10990
ێوەردان	-10991
رور	-10992
ەرد	-10993
▁دادی	-10994
▁کێشەکەی	-10995
▁بەرەکانی	-10996
▁لێبووردن	-10997
▁بەکاتی	-10998
▁موزایەد	-10999
▁زل	-11000
▁سەنگی	-11001
▁عیراقی	-11002
▁گەڕایەوە	-11003
oc	-11004
▁لەتر	-11005
▁فیشەک	-11006
▁ترین	-11007
▁فریاد	-11008
▁پاداشت	-11009
▁لایەنانە	-11010
▁پیشەسازیی	-11011
▁700	-11012
▁وەش	-11013
▁کەرکوکدا	-11014
▁پێکهاتبوو	-11015
▁فلی	-11016
▁لەجیهاندا	-11017
▁کەمپی	-11018
▁کەژاڵ	-11019
▁بارهەڵ	-11020
▁دەرماڵ	-11021
▁بیرەوەری	-11022
▁پێشمەرگه	-11023
بم	-11024
▁بپ	-11025
▁باڵند	-11026
▁دەیەی	-11027
▁هاتوونەتە	-11028
▁گفتوگۆیان	-11029
▁نوک	-11030
▁درێژکردنەوەی	-11031
▁غەی	-11032
▁وڵام	-11033
▁لەکەن	-11034
▁کردین	-11035
▁هێرشبەر	-11036
▁الث	-11037
▁کود	-11038
▁حەزم	-11039
▁لەداد	-11040
▁دەگیرێت	-11041
▁سازش	-11042
▁دانوو	-11043
▁شارەزوور	-11044
▁کەلوپەلی	-11045
▁قۆڵی	-11046
▁مەعریف	-11047
▁کەوتنی	-11048
▁فۆتۆگرافی	-11049
باش	-11050
لاد	-11051
ئاوای	-11052
▁شێخان	-11053
▁تکری	-11054
▁پاوان	-11055
▁ئەوروپاو	-11056
▁جیابوونەوەی	-11057
▁داوەتەوە	-11058
▁ڕۆژنامەکە	-11059
▁کاراکتەری	-11060
▁بەنم	-11061
▁بەکەس	-11062
▁شەهرستانی	-11063
کردووه	-11064
▁نایەک	-11065
▁پێناد	-11066
▁ڕوانین	-11067
▁کارزان	-11068
▁تەلەڤزی	-11069
▁بەرلەوەی	-11070
دیای	-11071
▁جێگ	-11072
ووسەری	-11073
▁خەلاف	-11074
▁تاوانەکان	-11075
▁حوزەیرانی	-11076
▁کامیان	-11077
▁بتوانرێت	-11078
▁دەیانەوێت	-11079
▁پەرلەمانەوە	-11080
▁دەبرد	-11081
▁یارمەتیدەر	-11082
▁تازه	-11083
▁چاکساز	-11084
▁مانایەی	-11085
▁بابەتەکان	-11086
دەوامی	-11087
▁باوەش	-11088
▁ڕاگرت	-11089
▁جیاوازدا	-11090
▁ڕۆژنامەگەریی	-11091
▁هەنووک	-11092
▁کوردێک	-11093
جەر	-11094
▁تێنسی	-11095
▁ئازادە	-11096
▁وەزارەتەکان	-11097
▁یەکگرتوەکان	-11098
وع	-11099
وسڵ	-11100
arch	-11101
▁زەری	-11102
▁کۆمیدی	-11103
▁ئاماژەم	-11104
نەد	-11105
اکەش	-11106
▁ڕادەکێش	-11107
یشمان	-11108
▁کلین	-11109
▁ئاگایی	-11110
▁کۆمۆنیست	-11111
اکت	-11112
شەمم	-11113
ەرتی	-11114
▁نور	-11115
▁چەور	-11116
▁خولێکی	-11117
▁گەلەکەی	-11118
▁قوم	-11119
▁بەپەر	-11120
▁وێنەگرتن	-11121
▁ڕاشکاوانە	-11122
لەک	-11123
ودە	-11124
▁بام	-11125
▁دوک	-11126
▁تۆیە	-11127
▁تورکیاش	-11128
▁لەبەڕێو	-11129
▁بەبەراورد	-11130
▁مانچستەری	-11131
▁بایی	-11132
▁دیزای	-11133
▁ملکەچی	-11134
▁ڕابگرێت	-11135
▁توانیمان	-11136
▁یەکخستنی	-11137
▁خانو	-11138
گرنەوە	-11139
▁پسپۆری	-11140
▁ئازایەتی	-11141
▁دەستدرێژ	-11142
▁ئەهل	-11143
▁ئیمزای	-11144
▁دێرسیم	-11145
▁ڕاپۆرتە	-11146
ێزەکانی	-11147
▁ڕۆژگار	-11148
▁لێدەکەن	-11149
▁y	-11150
خوازیی	-11151
▁جوتیار	-11152
▁خەڵکیش	-11153
▁بەرایی	-11154
▁فرۆشتن	-11155
لەند	-11156
▁ئەرج	-11157
▁لەرێی	-11158
▁هەیانە	-11159
▁کەرنەڤ	-11160
▁کەسایەتیی	-11161
▁گەشتوگوزار	-11162
▁ئاشتەوایی	-11163
▁ۆ	-11164
▁پیری	-11165
▁گیرۆ	-11166
▁ڕەحمەتی	-11167
▁کراوەتە	-11168
▁لەناوچەکانی	-11169
▁ئایندەدا	-11170
ێوەبەرایەتی	-11171
▁In	-11172
فرۆشی	-11173
▁ڕووخس	-11174
▁دەستپێب	-11175
▁ناوچەکەی	-11176
▁بازرگانیی	-11177
▁ئەنجامبدرێت	-11178
ەندێ	-11179
▁حەقی	-11180
بەرایەتی	-11181
▁ژور	-11182
▁لەباری	-11183
▁خر	-11184
uary	-11185
▁قسانەی	-11186
▁کەسەکان	-11187
پڵ	-11188
ine	-11189
▁لم	-11190
▁عەمەلی	-11191
▁ڕیشەیی	-11192
▁تەقەیان	-11193
▁لێپرسینەوە	-11194
▁لل	-11195
▁خوە	-11196
▁دراما	-11197
▁سەندیک	-11198
پەیامنێر	-11199
▁یاریزانێکی	-11200
▁دەمار	-11201
▁دەخرێتە	-11202
▁سنە	-11203
▁دەمو	-11204
ئەحمەد	-11205
▁گەردوون	-11206
▁پڕۆژەیەک	-11207
دڵ	-11208
ەوەز	-11209
▁بۆس	-11210
کردنەوه	-11211
▁لەرۆژی	-11212
بەڵ	-11213
▁لادن	-11214
▁بەگەڕ	-11215
▁دابڕێن	-11216
▁سەربەست	-11217
▁بەردەوامبوونی	-11218
▁ئافرەتێکی	-11219
▁گەیاندووە	-11220
▁کەسایەتییە	-11221
▁عەبدولمەهدی	-11222
14	-11223
▁ڤه	-11224
ەسەن	-11225
ەوێڵ	-11226
▁تەقەی	-11227
▁ئاستێک	-11228
▁خۆڕاگر	-11229
▁قورئانی	-11230
ۆکۆ	-11231
▁وأ	-11232
ۆلیس	-11233
▁لێبێت	-11234
▁زەمینە	-11235
▁بادینان	-11236
▁بەرنامه	-11237
▁ڕاگەیاندنەکان	-11238
▁بابەتێک	-11239
▁هۆڵەندی	-11240
▁شوێنانەی	-11241
▁ئەمنیەکانی	-11242
▁پەیوەندیەکی	-11243
▁داخوازییەکانی	-11244
▁1975	-11245
▁ئاوە	-11246
▁بووبوو	-11247
▁هێزەکان	-11248
20	-11249
▁ئیبن	-11250
▁خەڵکەکە	-11251
امۆست	-11252
▁لەبارەوە	-11253
▁پێکدادانی	-11254
میر	-11255
ەبە	-11256
▁الإ	-11257
اهیرە	-11258
▁دێته	-11259
▁لیژنەکە	-11260
▁ناوەندەکانی	-11261
ەلەر	-11262
▁پاپ	-11263
▁کۆرپ	-11264
▁گرتە	-11265
▁قائیم	-11266
▁شارەدا	-11267
▁ڕەخنەگرتن	-11268
▁شەکر	-11269
اتەکانی	-11270
▁بەرزنرخ	-11271
▁کردۆتەوە	-11272
لوو	-11273
▁ڕاچ	-11274
▁بەخت	-11275
▁ئاوێت	-11276
▁ڕووبدات	-11277
باڵ	-11278
ەگەڕ	-11279
▁گرژ	-11280
▁مەست	-11281
▁گۆری	-11282
وویەکی	-11283
▁سەرکۆماری	-11284
▁پێکەوەژیان	-11285
▁بەکۆم	-11286
▁74	-11287
▁ڕۆڵیان	-11288
▁کۆچبەر	-11289
▁یەپەگە	-11290
▁داگیرکەران	-11291
▁بەرپرسیاریەتی	-11292
▁باق	-11293
▁زەرەر	-11294
▁هاوشێو	-11295
▁چاوەڕێ	-11296
حەی	-11297
▁سید	-11298
▁بەساڵ	-11299
▁لەخۆیدا	-11300
▁لەهەوڵ	-11301
▁سەرئەنجام	-11302
▁هەڵوێستەی	-11303
▁ڕۆڵەی	-11304
▁لەیەکێک	-11305
عای	-11306
▁لاس	-11307
▁مەعسوم	-11308
▁شێوەکار	-11309
▁هەوڵدەدات	-11310
▁تەرخانکراوە	-11311
pr	-11312
▁پاڕ	-11313
▁تاقمە	-11314
▁دەستگیرکراون	-11315
▁نادر	-11316
▁تایفی	-11317
▁خستەسەر	-11318
▁ئەجێندای	-11319
ریا	-11320
▁کریم	-11321
▁گەمژ	-11322
▁دراوی	-11323
▁دەگرین	-11324
▁هوشیار	-11325
▁توانایی	-11326
▁جێبەجێن	-11327
▁سەربازانی	-11328
▁ین	-11329
▁یەخ	-11330
ۆلیسی	-11331
▁مەتری	-11332
▁بەخوێند	-11333
▁لەنێوانی	-11334
▁عەرەبیدا	-11335
▁دامودەزگا	-11336
ەوەکان	-11337
▁مووسڵ	-11338
▁حیزبەکەی	-11339
▁ئەنفالکراوان	-11340
کۆن	-11341
▁جب	-11342
▁زیات	-11343
▁جۆراوجۆرەکانی	-11344
▁دڵڕ	-11345
ازدەی	-11346
اوەنی	-11347
▁کلاسیکی	-11348
▁دەسەڵاتیان	-11349
اندنە	-11350
▁دەسەڵاتدارێتی	-11351
لێکی	-11352
▁ڤین	-11353
▁دەبا	-11354
هاتوون	-11355
کردندا	-11356
▁لەحاڵ	-11357
▁بەهمەن	-11358
▁ڕەنگاو	-11359
ەکم	-11360
▁پاڵن	-11361
▁ئێمەوە	-11362
▁ڕۆمانە	-11363
▁بکاتەوەو	-11364
▁بەرەبەیانی	-11365
▁هەڵبژاردنێکی	-11366
▁78	-11367
گرنگی	-11368
▁دەیخ	-11369
▁حوسنی	-11370
▁بەدیار	-11371
▁دڵنیاییەوە	-11372
▁وەزارەتەکانی	-11373
بەستن	-11374
▁شۆڕشە	-11375
▁گرتوە	-11376
▁ئەلفوب	-11377
▁دووچاری	-11378
▁بیروباوەڕی	-11379
یدایە	-11380
▁میدیایی	-11381
▁69	-11382
▁سێدارە	-11383
▁شەمەند	-11384
▁قەناعەت	-11385
▁ناوێکی	-11386
▁دووپاتیکردەوە	-11387
....	-11388
▁گریمان	-11389
▁هەمەلایەن	-11390
▁جڵ	-11391
ایەخ	-11392
وڵاتە	-11393
▁قەزا	-11394
▁تێوەگ	-11395
ژمێر	-11396
▁کەمان	-11397
▁190	-11398
▁گوو	-11399
▁پاساوی	-11400
▁تێیاندا	-11401
▁کەسێ	-11402
▁نواندن	-11403
▁جەعفەری	-11404
▁بەردەستی	-11405
▁دەکرێ	-11406
▁میرات	-11407
▁خۆبەخش	-11408
▁دەداتە	-11409
▁شۆفێری	-11410
▁کۆبونەوە	-11411
▁زۆرو	-11412
▁چیرۆکە	-11413
ou	-11414
mber	-11415
وتاب	-11416
▁ژاپۆنی	-11417
▁ڕابوردوو	-11418
▁بڵاوکردۆتەوە	-11419
▁r	-11420
▁اس	-11421
زخورم	-11422
▁سیڤی	-11423
▁وەرنا	-11424
▁دۆخەکە	-11425
▁کلاسیک	-11426
▁جیابوونەوە	-11427
ێهر	-11428
▁کاز	-11429
ازیلی	-11430
▁توێژەر	-11431
▁ڕووداوه	-11432
▁سووتەمەنی	-11433
▁بەڕێوەبردن	-11434
▁شاجوانی	-11435
▁سەلماندنی	-11436
▁لەکەم	-11437
▁داستان	-11438
▁ئەگەرنا	-11439
▁خۆماندا	-11440
▁لەدەسەڵات	-11441
▁چاودێریکردنی	-11442
▁دەریان	-11443
▁هەمبەر	-11444
▁ڕەخنەو	-11445
▁ناوەندیی	-11446
▁1979	-11447
▁ئۆتۆن	-11448
▁بێئەوەی	-11449
▁بەرێت	-11450
▁لێبورد	-11451
▁ڕەوەندی	-11452
کردنه	-11453
▁سکۆت	-11454
▁شۆک	-11455
زێکی	-11456
ەجۆر	-11457
▁دابونەری	-11458
▁چەکدارێکی	-11459
▁ڕووداوانە	-11460
▁دیاریکراودا	-11461
▁بەقەد	-11462
▁ڕێنماییەکانی	-11463
▁پاشای	-11464
▁ڕۆیشتن	-11465
▁لەچەندین	-11466
▁لەڕا	-11467
▁دەخۆن	-11468
▁وەستا	-11469
▁ئارارات	-11470
▁بدۆزێتەوە	-11471
▁دابڕاوەکان	-11472
گرتنە	-11473
▁مەکە	-11474
▁حەشار	-11475
▁پێوەی	-11476
ستا	-11477
▁چو	-11478
ەترسی	-11479
▁نەقش	-11480
▁شانبەش	-11481
▁مۆدێلی	-11482
ەبرای	-11483
▁فرۆشت	-11484
انەوەیە	-11485
▁شێواندنی	-11486
▁مەدا	-11487
▁دادەب	-11488
اڵەکانی	-11489
▁گەمارۆی	-11490
وێنن	-11491
▁ڕوونە	-11492
▁ملیارو	-11493
▁کۆبوونەوەکەی	-11494
مەزر	-11495
▁یۆڤان	-11496
▁هەشتەمی	-11497
▁دەرفەتێکی	-11498
▁بەرفراوانی	-11499
▁تێپەڕاندنی	-11500
ڵێن	-11501
▁هەوای	-11502
▁86	-11503
کوتی	-11504
▁دەمێنێت	-11505
▁وەزارەتە	-11506
▁ڕژێمەکەی	-11507
▁گفتوگۆکانی	-11508
▁خوالێخۆشبوو	-11509
رنا	-11510
▁بەرپا	-11511
▁حیکای	-11512
▁61	-11513
▁بزر	-11514
▁پین	-11515
▁گێژ	-11516
▁کەمەوە	-11517
▁زەحمەتە	-11518
اعی	-11519
▁ڤاڵ	-11520
وانگەی	-11521
ەتەکان	-11522
▁بەرزە	-11523
▁لوق	-11524
▁دیوە	-11525
▁نازی	-11526
▁کامل	-11527
▁خۆشناو	-11528
▁زیادەڕ	-11529
▁دەستکەوتەکانی	-11530
ارس	-11531
▁خوی	-11532
▁ناف	-11533
▁لەئاک	-11534
▁ڕێکخراوەکە	-11535
نۆ	-11536
ڵاوە	-11537
▁بەڕەسمی	-11538
▁عەقڵانی	-11539
یلان	-11540
▁ڕاپۆڕ	-11541
▁ئێستاو	-11542
▁دەگەڕێت	-11543
▁بەتۆمەتی	-11544
▁کێشمەکێش	-11545
▁لێدەکەوێتەوە	-11546
بوی	-11547
▁ڕوح	-11548
▁نیوان	-11549
▁دواخرا	-11550
▁کۆمەڵگاو	-11551
▁هێش	-11552
▁چەوری	-11553
▁نەفرەت	-11554
▁دەرک	-11555
▁زووترین	-11556
▁خوارەوەی	-11557
▁وەربگیردرێت	-11558
▁فرس	-11559
▁لەئایند	-11560
ائیل	-11561
▁نەبووەو	-11562
▁عەبدولقادر	-11563
▁سیح	-11564
▁کەزۆر	-11565
▁لیستەکەی	-11566
▁سەرنووسەری	-11567
لک	-11568
انیا	-11569
لەسەر	-11570
▁کۆڵان	-11571
جەو	-11572
▁هاید	-11573
▁کایە	-11574
▁جێبەجێی	-11575
گرد	-11576
▁83	-11577
سیری	-11578
▁بەکۆی	-11579
▁هەستە	-11580
▁تەنیشت	-11581
▁عبداللە	-11582
▁دانیشتووان	-11583
▁88	-11584
رۆژی	-11585
▁هیج	-11586
▁پیک	-11587
▁دەکرێتە	-11588
▁ناکاتەوە	-11589
▁ڕێگەیەوە	-11590
▁دانیشتنەکانی	-11591
▁پێشمەرگایەتی	-11592
اسەی	-11593
▁گورگ	-11594
▁قایل	-11595
▁برسێتی	-11596
▁بمێننەوە	-11597
▁ڕایگەیاندبوو	-11598
▁پەرستی	-11599
▁بەسەرچوو	-11600
▁جیاوازییەکی	-11601
ڕەوە	-11602
▁خەتی	-11603
▁لێکردن	-11604
▁زەبەلاح	-11605
▁نائارامی	-11606
▁پەیوەندیە	-11607
هین	-11608
▁نەبی	-11609
▁دەمەی	-11610
▁تارمایی	-11611
▁پابەندبوون	-11612
لینی	-11613
▁حمە	-11614
گیریی	-11615
▁گۆڕانە	-11616
▁درۆز	-11617
▁گروپه	-11618
▁هەناسە	-11619
▁حکومەتیش	-11620
▁مێژووییە	-11621
▁لەبەرانبەر	-11622
وترێت	-11623
▁کپ	-11624
▁بەشێکن	-11625
▁پاڵپشت	-11626
▁ڕاگەیەنراو	-11627
▁ڕۆژنامەنوسی	-11628
▁چیا	-11629
▁کرو	-11630
▁هەمیشه	-11631
▁سەنگاوی	-11632
▁گفتوگۆک	-11633
▁ئەمنیەکان	-11634
▁شانبەشانی	-11635
).	-11636
▁لاری	-11637
▁پێتان	-11638
▁ئەکرەم	-11639
▁نەتەوەییەکان	-11640
▁هه	-11641
رەحمان	-11642
▁ستۆکه	-11643
▁پێشەوا	-11644
▁جەختیان	-11645
واد	-11646
▁هەق	-11647
▁ئێجگار	-11648
▁ئەمساڵی	-11649
▁تێکچوونی	-11650
▁سازکردنی	-11651
▁ڕاپۆرتەکە	-11652
▁لەگەڵیاندا	-11653
▁ڕاگەیاندنەکانی	-11654
▁چڵ	-11655
▁گۆن	-11656
▁دۆنم	-11657
▁ئوتوم	-11658
▁پڕۆسەی	-11659
▁بدۆزنەوە	-11660
▁توێژەکانی	-11661
ەزا	-11662
▁800	-11663
▁لێق	-11664
▁کەمن	-11665
▁ئەنفالی	-11666
▁خۆکوشتن	-11667
سیل	-11668
گۆن	-11669
▁کەف	-11670
▁بتوانم	-11671
▁هێنانە	-11672
▁هێنانەدی	-11673
▁ڕادەگەیەنێت	-11674
▁کەمئەندامان	-11675
▁قیر	-11676
ەینەوە	-11677
▁خاوێن	-11678
▁نووسەرو	-11679
▁بڕیارەکە	-11680
▁کارئاسانی	-11681
ەنجی	-11682
▁وەسفی	-11683
▁گفتوگۆو	-11684
▁دەهێنرێت	-11685
▁تق	-11686
ەرکی	-11687
▁لەباک	-11688
▁دەکوژرێن	-11689
▁کەمبوونەوەی	-11690
بەکر	-11691
گادا	-11692
▁ئامێز	-11693
▁شاراوە	-11694
▁چەکدارە	-11695
▁لەهەمبەر	-11696
▁لەیەکێتی	-11697
17	-11698
بۆری	-11699
ودجەی	-11700
▁سەدی	-11701
لایەنی	-11702
▁قەرەبووکردنەوەی	-11703
ئەب	-11704
کەدا	-11705
▁لێمان	-11706
▁چیمەن	-11707
▁خەڵاته	-11708
▁تەکنەلۆژیای	-11709
▁دەستەبەرکردنی	-11710
▁هیر	-11711
بونەوە	-11712
▁کەبەر	-11713
▁ڕوخساری	-11714
▁باڵاکانی	-11715
▁شێعرە	-11716
▁توانرا	-11717
▁بەعسییەکان	-11718
▁دیموکراسیەت	-11719
▁ناسیۆنالیزمی	-11720
ۆپی	-11721
▁حەیدەری	-11722
▁لەزانکۆی	-11723
▁هەرکاتێک	-11724
▁تاوانبارانی	-11725
▁فەه	-11726
▁لان	-11727
▁کەربەلا	-11728
▁سەرچاوەکە	-11729
▁لایەنانەی	-11730
▁دەستێوەردانی	-11731
▁ئاسا	-11732
▁فۆلکل	-11733
▁بەهەشتی	-11734
▁دەکەوێته	-11735
▁ساڵەکانی	-11736
▁بەکارهێناوە	-11737
▁جێبەجێد	-11738
▁ئازادانە	-11739
▁بابەتەکانی	-11740
▁داگیرکەرانی	-11741
جیم	-11742
عەتی	-11743
▁گرتو	-11744
▁دیزاین	-11745
net	-11746
▁جووت	-11747
▁لەتەمەنی	-11748
▁جەماوەریی	-11749
▁لەماوەیەکی	-11750
▁جه	-11751
▁عەن	-11752
▁ڕیس	-11753
▁یەد	-11754
▁عەممار	-11755
▁کوشتار	-11756
▁موتڵ	-11757
▁ئەبین	-11758
▁ئەنیم	-11759
▁تێکستی	-11760
▁چاودێران	-11761
▁مسۆگەرکردنی	-11762
▁یۆرانی	-11763
وێنە	-11764
▁زەین	-11765
▁شایەت	-11766
▁دەرببڕ	-11767
▁پیلانی	-11768
▁فەیسبووک	-11769
▁باڵەخانەی	-11770
گران	-11771
▁هالی	-11772
▁وکاری	-11773
▁هەناسەی	-11774
▁بەخێرایی	-11775
▁ڕێگەیەکی	-11776
▁کوردیەکان	-11777
▁as	-11778
▁خەف	-11779
▁دەستەوە	-11780
▁ئەکادیمیای	-11781
ریدی	-11782
ێژێت	-11783
▁بمێنێت	-11784
▁شیرینی	-11785
▁بانگەشە	-11786
▁بەردەمی	-11787
▁بەئاژانسی	-11788
▁تەکنەلۆژیا	-11789
رەف	-11790
ێگەیشت	-11791
▁پەرۆش	-11792
▁سەرەتاوە	-11793
ember	-11794
▁وامان	-11795
▁خوێنەرانی	-11796
گەدا	-11797
▁ئیز	-11798
▁قەش	-11799
ستەفا	-11800
▁هۆتێل	-11801
▁دەبرێت	-11802
چین	-11803
ەنگە	-11804
▁1980	-11805
▁دووک	-11806
▁لەسەرەوە	-11807
▁گرفتەکان	-11808
گرام	-11809
▁کۆس	-11810
▁دەسەپ	-11811
▁ئەکەین	-11812
▁ئینگلتەرا	-11813
▁ناعەدالەتی	-11814
▁جاک	-11815
▁سەرا	-11816
▁بیکات	-11817
▁بەناچ	-11818
▁نەمسا	-11819
▁موخ	-11820
▁یەو	-11821
لایەنە	-11822
▁ئەرسناڵ	-11823
▁بۆوە	-11824
خوازان	-11825
▁بەلجیکا	-11826
▁یادەوەر	-11827
▁سەرکوتکردنی	-11828
نتن	-11829
ۆچکەی	-11830
▁هاوئ	-11831
▁بارانی	-11832
▁بێزاری	-11833
▁جگەلەوەی	-11834
▁لەگەڵی	-11835
▁ئیسلامیدا	-11836
▁99	-11837
ەژنی	-11838
ێندەر	-11839
▁ئەبوو	-11840
موکراسی	-11841
▁دەکرێنەوە	-11842
▁de	-11843
ress	-11844
ەبرایەر	-11845
▁کەمترە	-11846
▁کەسان	-11847
ابردوودا	-11848
▁بەمەرجێک	-11849
▁بارەگاکانی	-11850
وەت	-11851
▁دێو	-11852
▁گاڵتەج	-11853
▁بەڕێزیان	-11854
▁شڵ	-11855
▁خۆشمان	-11856
▁ئەفغانی	-11857
▁نامەیەک	-11858
▁گوتویەتی	-11859
▁بەبیر	-11860
▁79	-11861
▁بەلێ	-11862
▁دەربر	-11863
▁قورسە	-11864
▁بەشێوازی	-11865
ێتر	-11866
▁سەرەرای	-11867
▁ئاوازدان	-11868
▁ئۆتۆمبیلی	-11869
جه	-11870
ەسەی	-11871
ابینی	-11872
ەلەرز	-11873
▁چۆتە	-11874
▁لەیلا	-11875
▁یارمەتیی	-11876
▁سروشتییەکان	-11877
▁سه	-11878
▁گوێز	-11879
▁تایمز	-11880
▁بچووکی	-11881
▁زنجیره	-11882
▁پەرۆشی	-11883
▁ناساندن	-11884
▁دەمێننەوە	-11885
▁پارێزگەها	-11886
ترێ	-11887
یندا	-11888
▁ناون	-11889
▁ئیدان	-11890
▁مەقام	-11891
▁بەشێوازێکی	-11892
av	-11893
خا	-11894
تۆس	-11895
ۆلا	-11896
▁الف	-11897
ەکەری	-11898
▁باقی	-11899
▁کالی	-11900
▁دادەخ	-11901
ەییەکان	-11902
▁ئەستێرە	-11903
▁گۆڕانکارییە	-11904
▁ساتە	-11905
▁ڕواڵ	-11906
▁لەگەڵیان	-11907
▁زاو	-11908
▁پادش	-11909
▁سکاڵا	-11910
▁دەسکەوت	-11911
▁نائومێد	-11912
▁واتایەکی	-11913
▁ئۆتۆمبێلێک	-11914
▁بۆمبڕێژکراو	-11915
روپا	-11916
▁ستال	-11917
ەسەلەی	-11918
▁ئاسوود	-11919
▁بەکارب	-11920
▁گوشاری	-11921
▁دەڕوانێت	-11922
▁هەژموونی	-11923
▁ڕووخاندنی	-11924
▁سەرکەوتنیان	-11925
ژێت	-11926
گوڕ	-11927
▁تەری	-11928
چەندین	-11929
▁خەونە	-11930
▁قەڵادزێ	-11931
▁هەرێمێکی	-11932
▁بارودۆخێکی	-11933
▁یەکپار	-11934
▁یانەکان	-11935
▁سەردانێکی	-11936
چوونە	-11937
▁مێزی	-11938
▁مێژوون	-11939
▁دوورخستنەوەی	-11940
ubli	-11941
▁حاز	-11942
▁فارو	-11943
▁دەمێک	-11944
▁نییەل	-11945
▁باسێکی	-11946
ەبا	-11947
▁قەیرانێکی	-11948
▁سەرەکیەکانی	-11949
وەکانی	-11950
▁ئیداریی	-11951
▁هەردوول	-11952
عب	-11953
▁شێرپەنجە	-11954
▁خۆشەویستیی	-11955
سل	-11956
▁پێنوس	-11957
▁هەڵدەس	-11958
▁لەڕۆ	-11959
▁تەوەر	-11960
▁نەجیب	-11961
▁یانیش	-11962
▁ئەمجۆرە	-11963
لولی	-11964
ودۆخی	-11965
▁گیرفانی	-11966
▁لەبڕی	-11967
▁وابێت	-11968
ئێمه	-11969
ەدەکات	-11970
▁مەلای	-11971
▁وەرگرتنەوەی	-11972
زەر	-11973
بینن	-11974
پێدان	-11975
گیانی	-11976
▁بەپەی	-11977
▁خێرای	-11978
▁شکاند	-11979
▁شەوێک	-11980
▁ناگەڕ	-11981
▁ڕەزامەندیی	-11982
▁لەسێدارەدانی	-11983
هیچ	-11984
شانی	-11985
▁گۆشەی	-11986
بکەینەوە	-11987
▁پارەیەی	-11988
▁هەندێکجار	-11989
ەڕو	-11990
▁بۆکان	-11991
▁ئێراقی	-11992
▁هەرچۆن	-11993
▁هو	-11994
ەبەست	-11995
▁میترۆ	-11996
▁نوێکرد	-11997
▁فیلمەکەی	-11998
▁نارەزایی	-11999
زانم	-12000
▁لێش	-12001
▁جگەرە	-12002
▁ڕادەست	-12003
▁زیاتریان	-12004
▁پێشمەرگەدا	-12005
▁بریندارەکان	-12006
▁ئەلج	-12007
▁مەشقی	-12008
▁سەپاند	-12009
▁زیاتریش	-12010
▁لەلیستی	-12011
▁نەتوانن	-12012
ەکەى	-12013
گێرانی	-12014
▁گوێبیستی	-12015
گەش	-12016
▁ڕێژی	-12017
▁ئیستی	-12018
▁بەشێکیان	-12019
▁هەناردەی	-12020
▁فریاکەوتن	-12021
▁هەفته	-12022
▁پێیدا	-12023
▁دەربڕیوە	-12024
▁دێموکراسیی	-12025
باو	-12026
شیدا	-12027
▁بنەر	-12028
▁پەرچ	-12029
▁گیرا	-12030
ەتێ	-12031
▁ڕۆژه	-12032
▁دیکەشەوە	-12033
▁بەرەوڕووی	-12034
▁شارێک	-12035
▁هەلوێست	-12036
▁بەهرەمەند	-12037
٠٠	-12038
یەکەوە	-12039
▁ڕادەیەکی	-12040
▁ناڕاستەوخۆ	-12041
خە	-12042
گین	-12043
ەوس	-12044
وڵڵا	-12045
▁تێز	-12046
▁ولی	-12047
▁پێنجەمی	-12048
▁سەرۆککۆم	-12049
▁هەڵدەبژێر	-12050
اپۆرت	-12051
▁کەلتور	-12052
▁پاککردنەوەی	-12053
▁بوک	-12054
▁لیۆن	-12055
▁شەقامەکانی	-12056
بووەو	-12057
▁1000	-12058
▁دەڵێ	-12059
▁سەما	-12060
▁بەسرە	-12061
▁نییەبۆ	-12062
▁کریستیان	-12063
▁گێل	-12064
▁فاشیزم	-12065
▁کۆمونی	-12066
▁هەنگاوەی	-12067
▁ئامانجێکی	-12068
▁تایبەتیان	-12069
بەن	-12070
▁عە	-12071
ڵاوی	-12072
▁ڕاک	-12073
▁1970	-12074
▁نێوخۆ	-12075
▁دیاریی	-12076
▁لەساڵانی	-12077
اوین	-12078
اڵێکی	-12079
وکاری	-12080
▁هەستان	-12081
▁سەریهەڵ	-12082
▁دەستپێشخەری	-12083
▁کوشتووە	-12084
کردووەتەوە	-12085
▁گیراو	-12086
▁ئاوێنەی	-12087
▁ئەنجامیان	-12088
▁زنجیرەیەک	-12089
لۆپی	-12090
▁بادی	-12091
▁غەیر	-12092
▁قەتی	-12093
▁بەزۆری	-12094
▁ئیتاڵیا	-12095
▁کۆنەپەرستی	-12096
▁قورسی	-12097
▁Al	-12098
خۆشک	-12099
▁بۆنە	-12100
وربانی	-12101
▁کوڕان	-12102
▁بەئەزم	-12103
▁خۆشیەوە	-12104
▁لەسەرەتادا	-12105
ێنەوه	-12106
▁سوێن	-12107
▁سەروو	-12108
▁گوزەر	-12109
▁قسەیەکی	-12110
▁تۆماربکات	-12111
▁شیعه	-12112
▁لەوی	-12113
▁ناسر	-12114
▁بیمەی	-12115
▁لەئەو	-12116
▁نەورۆ	-12117
▁گەندەڵیی	-12118
ینه	-12119
▁إلی	-12120
▁سەدە	-12121
▁یەکەوە	-12122
▁بەسەریدا	-12123
▁ڕێگەگرتن	-12124
▁عم	-12125
▁عیسا	-12126
▁کچەکەی	-12127
▁گوتمان	-12128
گەرم	-12129
▁حەت	-12130
نای	-12131
▁باد	-12132
▁ئیله	-12133
▁ڕێزو	-12134
▁بفرۆش	-12135
▁گۆڕاوە	-12136
▁ئەنجوومەن	-12137
▁سایکۆلۆژی	-12138
▁ڕۆن	-12139
▁ئەکا	-12140
▁بەنداوی	-12141
▁هێشتنەوەی	-12142
▁گرنگییەکی	-12143
▁دەستکەوتێکی	-12144
▁فەرمانڕەوایی	-12145
اوازی	-12146
لەبەر	-12147
▁لەئەنجامدا	-12148
▁گشتییەکانی	-12149
▁ئەسڵ	-12150
▁ئەقڵی	-12151
▁دۆلارە	-12152
▁لەژیان	-12153
▁عێراقێکی	-12154
▁بازاڕەکانی	-12155
▁زەل	-12156
▁پری	-12157
دەکرێن	-12158
▁بەرخو	-12159
▁ئامادەکردن	-12160
▁چالاکوانانی	-12161
دز	-12162
▁بگەین	-12163
▁ڕوبەڕوی	-12164
▁لەسەریان	-12165
▁84	-12166
▁هید	-12167
ەگرێت	-12168
▁لێوەرب	-12169
▁خزمەتێکی	-12170
ووف	-12171
▁ئیمر	-12172
▁دەنێن	-12173
▁دەڕۆن	-12174
▁سەددام	-12175
▁شەرمەزاری	-12176
سکۆ	-12177
▁بۆخ	-12178
مەسعود	-12179
پرسانی	-12180
▁بنیاد	-12181
▁ناساند	-12182
▁نیزامی	-12183
▁کۆبوونەوه	-12184
▁پارتەکەی	-12185
▁دۆڵ	-12186
اکرێت	-12187
▁بەراو	-12188
▁ئاستەی	-12189
▁لەمبار	-12190
▁سەنگەری	-12191
دل	-12192
رێکی	-12193
ەوری	-12194
▁لەسێ	-12195
▁قوباد	-12196
▁تۆقاندن	-12197
▁دیزاینی	-12198
▁وتەکانی	-12199
▁خۆپیشاندەرانی	-12200
iz	-12201
▁لەمافی	-12202
▁مەینەتی	-12203
▁تێنە	-12204
▁بەهەند	-12205
▁شاردنەوەی	-12206
گەیەک	-12207
▁بیرە	-12208
▁بهێته	-12209
▁پارکی	-12210
▁بیریان	-12211
▁پەیمانگا	-12212
▁پڕوپاگەندەی	-12213
ەمەی	-12214
▁هاوکێشە	-12215
▁هەژاران	-12216
روت	-12217
▁هەبن	-12218
▁ژەنی	-12219
▁گەشتیار	-12220
▁ئەوەشکرد	-12221
▁جون	-12222
ڕێتەوە	-12223
▁بداتە	-12224
▁ئازادو	-12225
▁ئەفسانە	-12226
▁نەدراوە	-12227
▁زانیاریانەی	-12228
اسیی	-12229
▁پێشوودا	-12230
▁دەستکەوتە	-12231
ەما	-12232
عەبدول	-12233
لیتاری	-12234
ژەنتین	-12235
▁مۆسیقا	-12236
▁تۆتالیت	-12237
▁هێنایەوە	-12238
▁ڕاستیەکان	-12239
▁خۆپیشاندەر	-12240
ووشی	-12241
▁بزانە	-12242
▁پەنجەر	-12243
▁بەرازیلی	-12244
▁ستاندارد	-12245
ers	-12246
ووسەر	-12247
گەلێک	-12248
▁مەشه	-12249
▁باڵاو	-12250
▁داخست	-12251
▁دەگەن	-12252
کاتیشدا	-12253
هاتەکانی	-12254
▁سەعدییە	-12255
▁بەزووترین	-12256
▁ئاماژەشیدا	-12257
▁پاڵەوانیتیه	-12258
انیت	-12259
کۆتی	-12260
▁کاربکەن	-12261
رۆسی	-12262
ەدەری	-12263
▁بەرێ	-12264
▁لەشێو	-12265
▁فیدڕاڵ	-12266
▁لاوازە	-12267
▁لێکۆڵەر	-12268
▁سەربەرزی	-12269
▁بەهەمانشێوە	-12270
▁مەسیحییەکان	-12271
▁سانس	-12272
▁دەوامی	-12273
▁دیسەمبەر	-12274
▁ڕێکخراوەی	-12275
▁دەنگدەرانی	-12276
▁کادیر	-12277
▁لێکدان	-12278
▁ڕێزلێنان	-12279
36	-12280
iew	-12281
▁ڕەچ	-12282
▁هەڤپەی	-12283
بوڵی	-12284
▁فازڵ	-12285
▁لێیە	-12286
کردایەتی	-12287
▁82	-12288
▁بارزان	-12289
▁باشتری	-12290
▁دێرینی	-12291
▁مێردەکەی	-12292
▁دادگایەکی	-12293
▁مانچستەریۆن	-12294
گڵ	-12295
▁تاراو	-12296
▁دەمام	-12297
▁پورتوگ	-12298
▁کاتێکدایە	-12299
ارک	-12300
▁چۆل	-12301
▁0770	-12302
سیاسی	-12303
ەیران	-12304
▁خۆمم	-12305
وڵاتانی	-12306
▁تەسک	-12307
▁سەلم	-12308
▁کافر	-12309
▁ئەگەڕ	-12310
▁چەندی	-12311
▁ڕەمەز	-12312
▁ڕاپۆڕتی	-12313
▁بنچینەیی	-12314
▁گۆڕانکارییەکانی	-12315
▁ڕوونکردنەوەیەک	-12316
ەڵێن	-12317
▁دەستەب	-12318
▁داگیرکاری	-12319
▁نەتەوەکان	-12320
وولی	-12321
▁خەلیفە	-12322
▁مشتومڕ	-12323
▁ئەوەیشی	-12324
▁پیادەکردنی	-12325
چک	-12326
ەورە	-12327
▁1998	-12328
دانێکی	-12329
▁لێکراوە	-12330
▁بەکاریان	-12331
▁دەخایەنێت	-12332
▁دانوستاندن	-12333
▁بەسەرۆکایەتیی	-12334
▁مەرجێک	-12335
▁جلوبەرگی	-12336
▁چاوەکانی	-12337
▁کەمایەتی	-12338
▁سینەماکانی	-12339
▁الی	-12340
▁هەبو	-12341
▁کەڵکی	-12342
▁مامەند	-12343
▁یارییەدا	-12344
▁kurdistan	-12345
▁ئۆپەراسیۆن	-12346
حمود	-12347
▁موم	-12348
▁ئەری	-12349
▁ستەمکار	-12350
▁دەرخستنی	-12351
▁یەکێتییە	-12352
ەریی	-12353
▁تازەپ	-12354
▁لێپرسینەوەی	-12355
▁لەئەندامانی	-12356
ڕۆک	-12357
▁ودا	-12358
تیلاف	-12359
▁بهێڵ	-12360
▁قسانە	-12361
▁جۆرێکە	-12362
▁پەیمانگەی	-12363
▁زەی	-12364
▁دەیبینین	-12365
▁هەوادارانی	-12366
▁هەقی	-12367
اوەندی	-12368
▁بەرۆژ	-12369
▁دەبوون	-12370
▁لەسەرۆک	-12371
▁ئەمساڵیش	-12372
▁مامەڵەیان	-12373
هانی	-12374
ابیلی	-12375
▁قەڵای	-12376
ەیەکەوە	-12377
▁دوێنێی	-12378
▁گوێگرتن	-12379
▁یەنایەر	-12380
▁بەهێزترین	-12381
▁دەستگیرکرد	-12382
زەکردنی	-12383
▁دەگەڕێنەوە	-12384
گەوە	-12385
▁بەوپێی	-12386
▁دیکتاتۆرییەت	-12387
▁ڕۆمانەکە	-12388
▁هەڵبژاردنەکاندا	-12389
▁کز	-12390
▁چاوە	-12391
▁بەرخۆ	-12392
▁دەیویست	-12393
▁نوسراوە	-12394
im	-12395
شتێک	-12396
کەنە	-12397
ەربای	-12398
▁سوار	-12399
▁ڕەواندزی	-12400
▁وەرچەرخان	-12401
▁تێدە	-12402
▁کارانەی	-12403
▁دەسەڵاتەوە	-12404
دراو	-12405
▁خەڵکانێک	-12406
▁پڕۆژەیاسای	-12407
اکۆ	-12408
▁بەشه	-12409
▁دەرهاو	-12410
▁گوێیان	-12411
▁St	-12412
▁شاهۆ	-12413
▁تۆکمە	-12414
▁سەختە	-12415
▁دەقێکی	-12416
▁پەتی	-12417
▁بدرێن	-12418
▁بەغداد	-12419
▁لەپشتی	-12420
نیشتمانی	-12421
▁پێداچوونەوە	-12422
▁الکرد	-12423
▁ئیمپری	-12424
▁چێنراو	-12425
گەیەنرێت	-12426
▁لێدوانەی	-12427
▁لەناوچەکە	-12428
▁پێنەد	-12429
▁ئەنجامدەدرێت	-12430
چووی	-12431
▁نوسر	-12432
▁کەسه	-12433
▁ئەسڵی	-12434
▁لاپەر	-12435
▁کەڵەک	-12436
▁ئیحسان	-12437
▁ئەنجامه	-12438
▁بۆخۆیان	-12439
▁سەیدسادق	-12440
▁دوژمنایەتی	-12441
▁سینەماکارانی	-12442
▁ناجێ	-12443
▁پاڵی	-12444
▁چەکە	-12445
▁پیادەی	-12446
▁بۆنموونە	-12447
▁هەڵدەگرێت	-12448
▁نج	-12449
▁کۆمە	-12450
▁ئیمامی	-12451
▁لەزیاد	-12452
▁سوتەمەنی	-12453
▁دروستبووە	-12454
▁زادەی	-12455
▁قسەیە	-12456
▁هەوڵب	-12457
▁ئێمەیان	-12458
▁بەواتای	-12459
▁فێرکردن	-12460
▁لة	-12461
▁گوڕ	-12462
نەهێن	-12463
ەکەوه	-12464
▁دەموچاو	-12465
▁ڕۆژانەدا	-12466
گۆی	-12467
▁بکش	-12468
▁هەرد	-12469
▁هەمی	-12470
▁پاکس	-12471
▁پیتی	-12472
▁سەرکە	-12473
▁لۆژیک	-12474
▁گەردی	-12475
▁دووبەر	-12476
▁پێشووت	-12477
▁ڕەوانە	-12478
▁کیشوەر	-12479
▁عەبدولعەزیز	-12480
راد	-12481
بێتی	-12482
▁سوون	-12483
وندوتی	-12484
▁ساکار	-12485
▁ڕۆژێکدا	-12486
▁ڕاستگۆیی	-12487
▁وەن	-12488
ارەکە	-12489
ەوانە	-12490
▁شمشێر	-12491
▁ئامارێکی	-12492
▁گەشەسەندنی	-12493
▁96	-12494
▁هەشتی	-12495
▁گاڵتە	-12496
▁گشتیدا	-12497
▁هاوشانی	-12498
▁کۆمۆنیزم	-12499
▁یۆتۆبۆری	-12500
▁j	-12501
اندو	-12502
گەکەی	-12503
▁تاپۆ	-12504
▁حەوی	-12505
▁ناڕاز	-12506
▁مەترسییەکانی	-12507
▁بەتی	-12508
▁فیست	-12509
▁هەڵاو	-12510
▁هەبووه	-12511
▁تەوافوقی	-12512
▁پێکهێناوە	-12513
▁Fri	-12514
▁جێگە	-12515
▁فەیسبوک	-12516
▁پەرلەمانتارە	-12517
▁کۆمەڵایەتییە	-12518
▁نەبێتە	-12519
▁نزیکەوە	-12520
▁نووسینە	-12521
▁بارودۆخەی	-12522
▁ڕێکخستنەکانی	-12523
ئیل	-12524
▁خی	-12525
▁حوکووم	-12526
▁ئاخاوتن	-12527
▁ئەولەوی	-12528
▁نەکراون	-12529
▁سەراسەری	-12530
▁87	-12531
▁کێو	-12532
▁یاخ	-12533
▁1987	-12534
دەزانی	-12535
▁مەرامی	-12536
▁ئامادەکرد	-12537
▁لیژنەکانی	-12538
کردنەوەیەکی	-12539
مینی	-12540
ینیت	-12541
اداری	-12542
▁قەسی	-12543
▁ناداد	-12544
▁درێژەدان	-12545
▁مۆندیالی	-12546
▁نزیکبوونەوەی	-12547
ۆشن	-12548
لیای	-12549
حکومەت	-12550
▁جێناک	-12551
▁مەزنە	-12552
▁هالیوود	-12553
▁پرسیارەکە	-12554
▁بۆچوونەکانی	-12555
▁میللەتەکەمان	-12556
▁تائ	-12557
▁ئاوو	-12558
▁لەکێش	-12559
▁وتووە	-12560
▁مەودای	-12561
▁شانازیی	-12562
▁لەراستیدا	-12563
▁ڕۆلی	-12564
عد	-12565
اوەیس	-12566
منداڵ	-12567
▁نیین	-12568
▁دنیایە	-12569
▁ناسنامە	-12570
▁نەتەوەییە	-12571
▁قانونی	-12572
▁هەفتەیه	-12573
▁پشتڕاست	-12574
iv	-12575
▁بووژ	-12576
▁پەنجە	-12577
▁ملیارد	-12578
▁ڕامیاریی	-12579
وژی	-12580
▁فاروق	-12581
▁ئایەتی	-12582
▁خانمان	-12583
▁تەوەرێکی	-12584
▁ڕزگاریان	-12585
▁ئەدای	-12586
▁چەشنی	-12587
▁ڕەسول	-12588
▁کارەکە	-12589
ومان	-12590
▁تەقە	-12591
▁قاهیر	-12592
▁گوێڕای	-12593
▁بینەران	-12594
▁پێرس	-12595
ۆکەکان	-12596
▁لەزین	-12597
▁هیندی	-12598
▁ئەبێتە	-12599
▁بایکۆت	-12600
▁تورکەکان	-12601
▁نۆڤەمبەر	-12602
▁هۆشیاریی	-12603
▁سنورەکانی	-12604
▁هاوپەیمانەکانی	-12605
هەڵوێستی	-12606
▁جەنگێکی	-12607
▁هاوکاتی	-12608
▁زانکۆکان	-12609
▁سەرکردەو	-12610
▁خستنەڕووی	-12611
▁کیژ	-12612
▁جیاد	-12613
▁چرکە	-12614
▁هەڵگیرس	-12615
ڵەی	-12616
کارێکی	-12617
▁تەعریب	-12618
▁سەرکوتی	-12619
▁is	-12620
▁ئیفلی	-12621
▁بازاری	-12622
▁پراکتیکی	-12623
▁لەپی	-12624
▁10000	-12625
▁ئاسەو	-12626
▁ڕیفۆر	-12627
▁توندڕەوی	-12628
▁حیکمەت	-12629
▁ڕێکخستنەوەی	-12630
▁باوی	-12631
▁شەونم	-12632
▁ئیدریس	-12633
▁دیارترین	-12634
▁دیمەنەکانی	-12635
▁ئەنتەرمیلان	-12636
▁دۆڵی	-12637
▁بۆئەو	-12638
▁دووان	-12639
▁کوردێکی	-12640
▁گوندێکی	-12641
▁هەموومانە	-12642
▁دەمێ	-12643
▁بایرن	-12644
▁دەگری	-12645
▁بکەینە	-12646
▁بیانوی	-12647
▁دیکەیە	-12648
▁پارتیدا	-12649
▁پیشەساز	-12650
▁ئاژانسەکان	-12651
گیرێ	-12652
▁بست	-12653
▁گوی	-12654
خەڵکی	-12655
▁میرانی	-12656
▁جەزائیر	-12657
▁بەبۆچوونی	-12658
▁تێدەپەڕێت	-12659
▁98	-12660
▁هیتل	-12661
▁ملکەچ	-12662
▁مێینە	-12663
▁قێزەون	-12664
▁ژنەکەی	-12665
▁هەستێکی	-12666
▁وەستانی	-12667
▁تاوتوێکرد	-12668
▁پێویستیمان	-12669
حق	-12670
▁بناری	-12671
عل	-12672
▁بەجێب	-12673
▁ئیرادە	-12674
▁دامەزرا	-12675
▁پێشووتر	-12676
▁ئارادایە	-12677
▁سوم	-12678
▁دیوان	-12679
▁هاورێ	-12680
▁بیانوو	-12681
▁ئامادەبوو	-12682
▁بارو	-12683
▁ناوەرۆک	-12684
اواز	-12685
▁هێڵە	-12686
وبەندی	-12687
▁بگۆڕن	-12688
▁ئەمیری	-12689
▁هەڵپەسێرد	-12690
▁لەئێستاشدا	-12691
پۆر	-12692
بێرگ	-12693
ێوەدە	-12694
▁گێمی	-12695
ێکخراوی	-12696
▁چێندراو	-12697
▁قوربانیی	-12698
▁گرنگیدان	-12699
▁پیاوەکانی	-12700
ەخشن	-12701
ەشمان	-12702
▁سەرئ	-12703
▁ڕفیق	-12704
▁تەگەر	-12705
▁مەحاڵ	-12706
▁زانیوە	-12707
▁دەربکات	-12708
▁عێراقەوه	-12709
▁نایەکسانی	-12710
ووق	-12711
اتیان	-12712
▁ناوزەد	-12713
▁ڕایگەیاندووه	-12714
زار	-12715
ێرم	-12716
▁خاتری	-12717
▁قایمقام	-12718
▁باڵادەستی	-12719
▁1994	-12720
▁بروس	-12721
▁نەچوو	-12722
▁ئاماژەمان	-12723
ڕاو	-12724
▁الد	-12725
الیکی	-12726
▁پارک	-12727
▁بچوکی	-12728
▁بایەخێکی	-12729
▁گفتوگۆیەک	-12730
▁ڕوونیکردەوه	-12731
▁هەڵوەشانەوەی	-12732
▁en	-12733
▁ناردووە	-12734
▁کەرەستە	-12735
▁سەرەخۆشی	-12736
▁شاعیرانی	-12737
▁نایانەوێت	-12738
▁ئەمەریکادا	-12739
▁پێگەیاندنی	-12740
▁پەیوەندییه	-12741
▁خەڵکیان	-12742
▁زوم	-12743
▁درکاند	-12744
▁بەتوانا	-12745
▁شارەکەی	-12746
ist	-12747
▁دڵیان	-12748
▁دەخرێت	-12749
▁لەبنەڕ	-12750
▁نێوانیاندا	-12751
▁چالاکیەکانی	-12752
ووسین	-12753
▁دەژم	-12754
▁هۆنراو	-12755
▁کێشاوە	-12756
▁فێربوونی	-12757
▁دواکەوتوو	-12758
▁ڕاپۆرتەکەی	-12759
ەقە	-12760
▁زێ	-12761
▁بەرمی	-12762
▁نەهێڵ	-12763
▁دنیایەکی	-12764
35	-12765
▁حسن	-12766
▁داعشدا	-12767
▁لەگەڕەکی	-12768
▁1996	-12769
▁باخی	-12770
▁سەوا	-12771
▁وەرن	-12772
▁ڕەبی	-12773
چوونەوەی	-12774
▁ناگەیەنێت	-12775
▁هاندەرانی	-12776
▁بەردەوامیش	-12777
ەمێرد	-12778
▁دەستل	-12779
▁مریشک	-12780
▁قاهیرە	-12781
▁مۆدێرنی	-12782
اندنێ	-12783
جەلال	-12784
▁هانا	-12785
▁حەمەڕەش	-12786
▁موزایەدەی	-12787
ۆڵم	-12788
ەیدا	-12789
پێویست	-12790
▁کادری	-12791
▁بوونەو	-12792
▁شارەکه	-12793
▁خراپترین	-12794
کارییەکانی	-12795
▁بنبڕکردنی	-12796
▁هێرشکردنە	-12797
▁سەرەتاکانی	-12798
▁مەترسیدارە	-12799
وەڕۆی	-12800
▁بەغداوە	-12801
▁قارەمانی	-12802
▁پارتەکانی	-12803
▁گرتنەبەری	-12804
▁پێداچوونەوەی	-12805
▁گەشتیاران	-12806
▁لەئارادایە	-12807
ەرن	-12808
▁دارو	-12809
▁ویەک	-12810
▁ڕێورەس	-12811
▁ئەسکەند	-12812
▁کۆتاییان	-12813
بووه	-12814
▁شوێنانە	-12815
ریە	-12816
ورت	-12817
▁بەدەیان	-12818
▁هەڵسوڕاوی	-12819
▁ڕوداوەکانی	-12820
▁شیعەی	-12821
▁فێربوون	-12822
▁بەندەکانی	-12823
▁خوێندنەوەیەکی	-12824
کۆپ	-12825
▁پاداشتی	-12826
▁مست	-12827
▁نەقیب	-12828
▁1997	-12829
▁ئورد	-12830
▁ئەور	-12831
▁گۆشە	-12832
▁هێرشه	-12833
▁قابیلی	-12834
▁بەیەکێک	-12835
▁ئازەربای	-12836
40	-12837
eed	-12838
▁قەف	-12839
اوەیی	-12840
▁زەمینی	-12841
▁هەناوی	-12842
▁ژەهراوی	-12843
امانی	-12844
▁بوەتە	-12845
▁قۆناخ	-12846
▁نابەر	-12847
▁وەهای	-12848
▁بێگەرد	-12849
▁حیزبانە	-12850
بەد	-12851
ولا	-12852
ەنەی	-12853
▁نەوتە	-12854
▁نائومێدی	-12855
ەهای	-12856
▁لەرا	-12857
▁مایۆ	-12858
▁پێکد	-12859
▁وانییە	-12860
▁کێڵگەی	-12861
▁میلیشیا	-12862
▁ئەندامێتی	-12863
هە	-12864
▁میش	-12865
▁ڕێپێو	-12866
▁مەغریب	-12867
ۆو	-12868
ادات	-12869
▁شاکر	-12870
▁لەکتێب	-12871
▁ژنانەی	-12872
▁کەرامەتی	-12873
49	-12874
▁براوە	-12875
▁بزانیت	-12876
▁تیمێکی	-12877
▁خودایە	-12878
▁مۆسیقای	-12879
▁عەرەبستانی	-12880
▁گومانلێکراو	-12881
▁بخۆن	-12882
ۆگرافی	-12883
▁ببینە	-12884
▁قەرەتە	-12885
▁ئەوانەن	-12886
▁شاعیران	-12887
▁فەڕەنسی	-12888
▁هێلی	-12889
▁کەنار	-12890
▁تێکۆشەر	-12891
▁تێکەڵاو	-12892
▁شێوازێک	-12893
▁کرایەوه	-12894
▁بەکردەوە	-12895
▁وەهم	-12896
▁بەرزتر	-12897
▁شانۆکار	-12898
▁کتێبەکانی	-12899
▁ڕونیکردەوە	-12900
▁پێکهاتەیەکی	-12901
▁بق	-12902
▁نازم	-12903
▁پەری	-12904
▁ئەسعەد	-12905
▁پیشانی	-12906
▁نێردراوە	-12907
▁ئاشتیخواز	-12908
ەبونی	-12909
▁فلمێ	-12910
▁کۆڕی	-12911
اکەمان	-12912
▁تۆزێک	-12913
▁بەرتەسک	-12914
▁کەوتەوە	-12915
▁سەرەکییە	-12916
▁دروستبونی	-12917
سەم	-12918
▁بزانرێت	-12919
▁لێکتر	-12920
▁پێبکات	-12921
▁لەناکاو	-12922
▁لایەکەوە	-12923
▁گفتوگۆکه	-12924
▁فەرمانبەری	-12925
▁لەخۆدەگرێت	-12926
هەنگ	-12927
▁1993	-12928
▁بوین	-12929
▁فیزی	-12930
▁هێما	-12931
▁تاوانێکی	-12932
▁هەندەران	-12933
▁یەکڕیزیی	-12934
▁بەدەستهێن	-12935
▁وف	-12936
ادار	-12937
▁جێم	-12938
▁ڕۆژا	-12939
▁هاوتا	-12940
▁ئەیلولی	-12941
تانیا	-12942
▁پۆسته	-12943
▁توڕەیی	-12944
▁خۆپاراست	-12945
▁بەزۆرینەی	-12946
نێک	-12947
خوێن	-12948
الیتی	-12949
▁فریا	-12950
▁بنێین	-12951
▁ئێرانە	-12952
▁دەریایی	-12953
▁تەئکیدیشی	-12954
▁دایان	-12955
▁سەرای	-12956
▁ڕێککەوتنە	-12957
ایێ	-12958
خانەو	-12959
▁تانک	-12960
▁زامن	-12961
▁گروپێک	-12962
▁هەمویان	-12963
▁بەلایەنی	-12964
▁پێدەدرێت	-12965
▁ڕەخساندنی	-12966
▁ئۆپۆزیسیۆنی	-12967
▁مانچستەرسیتی	-12968
اندز	-12969
▁درێ	-12970
▁نەدی	-12971
▁کرابوون	-12972
▁هەبووبێت	-12973
▁پەرلەمانە	-12974
▁تەقینەوەکانی	-12975
ئاس	-12976
دواتر	-12977
▁سالم	-12978
ترد	-12979
▁نیت	-12980
▁Friday	-12981
▁سەرنجە	-12982
▁پیلانگ	-12983
▁گیروگرفت	-12984
▁گێڕانەوە	-12985
چه	-12986
کەرە	-12987
ێستا	-12988
▁نادا	-12989
▁کەناڵێکی	-12990
▁ناوەراستی	-12991
▁قو	-12992
▁تیڤی	-12993
▁دوورن	-12994
▁گونجاوە	-12995
▁پڕۆژەکەی	-12996
▁ڕێگەچارەی	-12997
جین	-12998
▁Mon	-12999
▁fal	-13000
▁پشێوی	-13001
▁هێناوەتە	-13002
یلک	-13003
ڕەنگ	-13004
▁تەنگژ	-13005
▁میهرەبان	-13006
▁ڕۆژنامەیەکی	-13007
▁هونەرمەندێکی	-13008
انداوە	-13009
▁دەگێڕێت	-13010
▁لەیاریی	-13011
▁جوانکاری	-13012
▁وەرگێڕان	-13013
▁چێژی	-13014
▁ژمارەیە	-13015
ئین	-13016
▁سەرفر	-13017
▁ناسنام	-13018
چوار	-13019
▁عین	-13020
▁هۆم	-13021
▁بەدب	-13022
▁کەمیی	-13023
شتیمانی	-13024
▁بەفیڕۆ	-13025
▁مەعریفە	-13026
▁کردۆتەوه	-13027
▁مامۆستایەکی	-13028
ۆجی	-13029
ێکه	-13030
▁ئەچ	-13031
▁ڕقی	-13032
ایبەت	-13033
▁جاسم	-13034
▁زاخو	-13035
▁ساڵانێکی	-13036
اتیا	-13037
▁وێڵ	-13038
▁ڕاسی	-13039
▁هۆیەوه	-13040
▁نەقشبەندی	-13041
▁بیروبۆچوون	-13042
▁بەسەریاندا	-13043
▁فرۆکەخانەی	-13044
▁پەیمانگاکان	-13045
هەمی	-13046
▁ئێکێ	-13047
▁پێکراوە	-13048
▁داس	-13049
▁ناڤێ	-13050
▁نامان	-13051
▁پەیامە	-13052
ەڕۆژ	-13053
▁ئەچێت	-13054
▁قاچاخ	-13055
▁پەرلەمانیش	-13056
▁بەیاننامەکەدا	-13057
ublish	-13058
رایەوه	-13059
▁مەرکەز	-13060
▁تاوتوێک	-13061
▁لەخەڵکی	-13062
▁پشکداری	-13063
▁لەوانەیه	-13064
▁نەمری	-13065
▁چەتری	-13066
▁پاکستانی	-13067
▁تیرۆرستان	-13068
▁لەسێدارەدان	-13069
99	-13070
▁زادە	-13071
▁دوبەی	-13072
▁بارێکی	-13073
▁تەقاند	-13074
▁جیاوازیان	-13075
▁دەهێنێتەوە	-13076
▁٤	-13077
▁ڕم	-13078
▁خەست	-13079
▁نەخو	-13080
▁کۆیی	-13081
▁بردوو	-13082
▁بهێنێتە	-13083
▁تۆمارکردووە	-13084
▁کاریگەرییان	-13085
30	-13086
ەڵا	-13087
▁مج	-13088
اڵەی	-13089
▁مەق	-13090
▁چونە	-13091
▁خولەکه	-13092
▁بەدەنگی	-13093
▁حیزبێکی	-13094
▁دەخەینە	-13095
▁جوگرافیای	-13096
زینی	-13097
▁دوم	-13098
ستەمی	-13099
▁دەخەن	-13100
▁قەبوڵ	-13101
▁ژەنەڕ	-13102
▁ئۆمەران	-13103
▁وەڵامێکی	-13104
▁مومار	-13105
▁گەیشتی	-13106
▁هێرشبەری	-13107
▁وتارەکەی	-13108
▁پەروەرده	-13109
کەل	-13110
▁دری	-13111
▁بابە	-13112
▁ڕەوشە	-13113
▁کرایە	-13114
▁حەڤدەی	-13115
▁دیاربەکر	-13116
▁کێشەکانیان	-13117
▁کۆتاییهێنان	-13118
ودەی	-13119
▁احمد	-13120
▁دەرس	-13121
▁سەرپ	-13122
▁خۆیانن	-13123
▁پێبەخش	-13124
▁پرنسیپی	-13125
▁یەکێتیش	-13126
▁خزمەتکردن	-13127
▁false	-13128
▁خاڵێک	-13129
▁بەخشین	-13130
▁سنوورە	-13131
▁چاندنی	-13132
▁لایەنگر	-13133
دینی	-13134
▁جورئ	-13135
▁حاشا	-13136
▁ڕۆما	-13137
▁گوتە	-13138
▁پایەی	-13139
▁کامە	-13140
▁پێڵاو	-13141
▁هەڵگەڕ	-13142
port	-13143
اکانە	-13144
▁بەلاوە	-13145
▁جولەکە	-13146
▁دەردەکەوێ	-13147
▁بارم	-13148
▁گەمە	-13149
▁فریای	-13150
▁پاڵێوراوی	-13151
▁وەت	-13152
▁دکەت	-13153
▁بڕیارو	-13154
▁لەمانە	-13155
▁کەشێکی	-13156
▁نەخۆشییەکانی	-13157
رافی	-13158
▁جەواد	-13159
▁ئۆرگانی	-13160
▁هونەرییەکانی	-13161
▁دەکەوت	-13162
▁ئەفسەرێکی	-13163
▁تۆڵەی	-13164
▁خویند	-13165
▁دهۆکی	-13166
▁کارەساتێکی	-13167
▁دانیشتوانەکەی	-13168
▁نق	-13169
بینم	-13170
ساڵدا	-13171
▁فەیلی	-13172
▁پێستی	-13173
▁ئێزدییەکان	-13174
KK	-13175
▁بلیم	-13176
▁فرانک	-13177
▁بێشکچی	-13178
▁لێقەوم	-13179
▁واشنتۆن	-13180
▁ئەلعێراقیه	-13181
▁ئەمریکییەکان	-13182
ختی	-13183
دەنی	-13184
رینە	-13185
لملان	-13186
▁وکار	-13187
▁ستایش	-13188
▁موکری	-13189
▁یاسایه	-13190
▁ئەفسانەی	-13191
▁حکومڕانی	-13192
▁کاتێکدایه	-13193
▁ناسیۆنالیزم	-13194
رة	-13195
▁یەع	-13196
▁هەولی	-13197
▁دیکەیش	-13198
▁ناحکوم	-13199
▁ئەمانەی	-13200
▁تاوانباری	-13201
ust	-13202
▁بەپشت	-13203
▁توێژەران	-13204
▁دەسەلمێنێت	-13205
▁دەگەرێتەوە	-13206
▁زەیت	-13207
اییەکی	-13208
▁ئەشکەنجە	-13209
▁خانووبەرە	-13210
▁سونە	-13211
▁لێدێت	-13212
▁دانیان	-13213
▁سیاسیش	-13214
▁بەحرەین	-13215
▁مرۆڤەوە	-13216
▁خەتەنەکردنی	-13217
▁زانیارییانەی	-13218
ac	-13219
سێت	-13220
خەری	-13221
▁تۆدا	-13222
▁لەرز	-13223
▁لەپڕ	-13224
▁ڕاوە	-13225
▁ناگۆڕ	-13226
▁مانگدا	-13227
▁دەستخۆش	-13228
وەوە	-13229
ەونە	-13230
▁110	-13231
▁سیل	-13232
▁دڵەڕاوکێ	-13233
▁مەبەستمان	-13234
▁چەوساندنەوەی	-13235
▁تیۆر	-13236
▁کامکار	-13237
▁کردەوەو	-13238
▁گرفتێکی	-13239
▁بنەڕەتدا	-13240
▁بەرشەلۆن	-13241
هەلات	-13242
▁مەیلی	-13243
▁ڕیشەی	-13244
▁ناوەکەی	-13245
▁گوتەیەکی	-13246
▁بەبەشداری	-13247
▁توێژینەوەیەکی	-13248
ازانجی	-13249
▁ناشار	-13250
▁لەخۆیان	-13251
▁کۆنگرەکە	-13252
▁دەرکردووە	-13253
▁شارەزایان	-13254
▁پێشکەوتووی	-13255
▁News	-13256
▁ئەنت	-13257
▁خومەی	-13258
▁سیستانی	-13259
▁ئەمریکاش	-13260
درێن	-13261
▁بچینە	-13262
▁نامرۆڤ	-13263
▁بگەیەنن	-13264
▁زانستیی	-13265
▁لەیەکتری	-13266
▁چاککردنی	-13267
▁سەربازێکی	-13268
▁تاقیکردنەوە	-13269
خرێت	-13270
▁بنە	-13271
▁بۆل	-13272
▁حیس	-13273
▁چاڤ	-13274
▁مارسی	-13275
▁قوربان	-13276
▁هەوێنی	-13277
▁کەمینە	-13278
▁لەوکاتەدا	-13279
▁pr	-13280
▁خۆری	-13281
▁عومەری	-13282
▁دەپارێزێت	-13283
▁پرسیارانە	-13284
42	-13285
درێ	-13286
▁71	-13287
کەیت	-13288
ەتەوەی	-13289
▁بچکۆل	-13290
▁خەلات	-13291
▁سیمین	-13292
▁دەولەت	-13293
▁گەورەکەی	-13294
▁ئەنجومەنە	-13295
داخ	-13296
▁هێڕ	-13297
▁تایف	-13298
▁بۆلای	-13299
▁خستنی	-13300
▁تێبپەڕ	-13301
▁دووجار	-13302
▁ئاڕاستە	-13303
▁قۆناغەی	-13304
▁ئاشتیانە	-13305
▁توانایەکی	-13306
▁ڕاگەیەنرا	-13307
ڤیا	-13308
ێنرێن	-13309
پارێزی	-13310
▁ئیقلیمی	-13311
▁دۆستەکانی	-13312
ردە	-13313
شاری	-13314
▁ڕایی	-13315
▁ڕۆژوو	-13316
▁بینەری	-13317
▁ناڕاست	-13318
▁بەڕێژەی	-13319
▁جیهانیش	-13320
▁دیمانەی	-13321
▁شۆڕشگێڕی	-13322
▁ساختەکاری	-13323
▁ئاماژەیەکی	-13324
تانه	-13325
▁جود	-13326
ەخواز	-13327
▁میوە	-13328
▁ئەڤین	-13329
▁تکریت	-13330
▁ستەمی	-13331
▁دەکوژێت	-13332
▁ناوچەیەدا	-13333
▁خیت	-13334
▁فتو	-13335
ەنتین	-13336
▁حەقە	-13337
▁بکەون	-13338
▁هاتەوە	-13339
▁بونیادی	-13340
▁ئامادەین	-13341
دری	-13342
زمە	-13343
▁کن	-13344
ازەی	-13345
اوەکەی	-13346
▁لەگەرم	-13347
لەر	-13348
▁وار	-13349
▁تالی	-13350
▁ڕسول	-13351
▁یادە	-13352
▁بەشەر	-13353
▁هەڵنە	-13354
▁یەکلا	-13355
▁ئامێدی	-13356
▁ملیۆنی	-13357
▁یەکسانیی	-13358
گوای	-13359
▁مەخمور	-13360
▁مانگرتنی	-13361
کراونەتەوە	-13362
▁پەژ	-13363
▁بێتاوان	-13364
▁پرۆگرامێکی	-13365
شێت	-13366
▁چرک	-13367
▁چووم	-13368
ووچێهر	-13369
▁العرب	-13370
▁دۆخەی	-13371
▁ناوەک	-13372
▁کراوی	-13373
▁هاوڕێیەتی	-13374
▁دامەزرێنەری	-13375
▁بف	-13376
▁زەه	-13377
▁لەفر	-13378
▁داعشی	-13379
▁وتارە	-13380
▁پێکان	-13381
▁سالانی	-13382
▁ئێستاوە	-13383
▁میللەتە	-13384
▁1989	-13385
اینەوە	-13386
▁هاتینه	-13387
▁لەبازاڕ	-13388
▁تەقینەوەکەی	-13389
▁لاش	-13390
▁مۆم	-13391
▁شوێنه	-13392
▁ڕۆژنامەکان	-13393
ێنج	-13394
ڕۆسەی	-13395
▁وەلا	-13396
دەوڵەت	-13397
▁ڕەخنەیی	-13398
ەبوونەوەی	-13399
▁کەمئەندام	-13400
37	-13401
▁داخە	-13402
▁فەتح	-13403
▁بەرێک	-13404
▁دەخوات	-13405
▁سۆنگەی	-13406
▁پیشانگ	-13407
▁شەراکەتی	-13408
فاتی	-13409
▁بەڵی	-13410
▁خەوی	-13411
▁هاوت	-13412
▁ئەمەو	-13413
▁شاردا	-13414
▁وەرگر	-13415
▁ئێواران	-13416
▁مەبەسته	-13417
▁زیندانیانی	-13418
ەڵێت	-13419
ەبووە	-13420
▁هەوە	-13421
▁گولل	-13422
▁بەکرد	-13423
▁سوێندی	-13424
▁ڕادیکاڵ	-13425
▁حەمەڕەشید	-13426
▁دروستبکات	-13427
▁پێکەوەژیانی	-13428
▁هەموارکردنەوەی	-13429
▁کۆمەڵایەتیەکان	-13430
um	-13431
لیسی	-13432
▁ڕواە	-13433
ارانەی	-13434
▁داواد	-13435
▁دواڕۆژ	-13436
▁حکومەتێک	-13437
▁بەئامانجی	-13438
قان	-13439
رەوی	-13440
گراد	-13441
▁دزینی	-13442
▁دانووستان	-13443
▁فە	-13444
ەخۆی	-13445
▁کیس	-13446
▁بەڕۆ	-13447
▁جیان	-13448
▁نزار	-13449
دەیەکی	-13450
▁تشرین	-13451
▁دڵتەز	-13452
▁شایەتی	-13453
▁هاوبیر	-13454
▁گرینگە	-13455
▁بڕیاریان	-13456
▁بەنێو	-13457
▁جەلاد	-13458
▁بونەتە	-13459
▁بگوترێت	-13460
▁تووشبوون	-13461
ێنا	-13462
ۆتایی	-13463
▁بەرژ	-13464
دارەکان	-13465
▁فەرموود	-13466
▁دەیتوانی	-13467
شه	-13468
ۆیەک	-13469
▁فات	-13470
▁چێڵ	-13471
اکسیۆنی	-13472
▁پێزانی	-13473
▁کودەتا	-13474
▁ئامادەیه	-13475
▁هەڤپەیڤین	-13476
▁بة	-13477
بەهۆی	-13478
▁کلتور	-13479
▁ڕێژەیە	-13480
▁دەستوەر	-13481
▁نامەوێت	-13482
▁گرنگیان	-13483
ەکرێن	-13484
▁خوان	-13485
یانەیە	-13486
▁خۆمدا	-13487
▁سالانە	-13488
ublished	-13489
▁نووسینەوەی	-13490
▁فیت	-13491
یانەش	-13492
▁دەکردن	-13493
▁ئیسلامە	-13494
▁هەڵبوەش	-13495
▁کەسێکیش	-13496
▁پیرەمێرد	-13497
▁پێنجشەممه	-13498
▁بەناونیشانی	-13499
▁خاوەندارێتی	-13500
گەیان	-13501
▁بانی	-13502
▁ڕایس	-13503
▁شتێکە	-13504
▁سەلەفی	-13505
▁مەعریفی	-13506
▁دەوڵەتێک	-13507
ەوتر	-13508
▁ڕوس	-13509
▁ڕەب	-13510
▁کڵێس	-13511
▁کوبانی	-13512
▁ڕێوڕەسم	-13513
▁کۆنەکان	-13514
▁کەسوکار	-13515
▁حەقیقەتی	-13516
▁دیدارێکی	-13517
▁هەڵگرتووە	-13518
▁تازەپێگەیشت	-13519
"(	-13520
▁91	-13521
چەیی	-13522
▁بکەت	-13523
▁لەسەدا	-13524
▁کورستان	-13525
ەکانییەوە	-13526
▁بیناسازی	-13527
▁عەقڵییەتی	-13528
▁لێکدانەوە	-13529
▁نەخوازراو	-13530
▁کراونەتەوە	-13531
رب	-13532
▁Se	-13533
▁پرۆف	-13534
▁چۆنییەتی	-13535
▁92	-13536
▁خوش	-13537
▁جیاک	-13538
▁گەیەن	-13539
▁دائ	-13540
▁سەرەتادا	-13541
▁پاشایەتی	-13542
▁بەبەردەوامی	-13543
دوەر	-13544
▁کازم	-13545
▁لادانی	-13546
▁نەگونج	-13547
▁یەکیەتیی	-13548
دڵی	-13549
ارەو	-13550
اشین	-13551
▁بەنگ	-13552
▁وەرگێر	-13553
▁گۆڕانیش	-13554
▁داوایەکی	-13555
▁دەرکەوتن	-13556
▁خەڵاتەکانی	-13557
▁ڕێککەوتنێکی	-13558
▁وەبیرهێنانەوەی	-13559
▁جەڵ	-13560
▁دیبە	-13561
▁ڕەگەزپەرستی	-13562
▁خراون	-13563
▁باژێرێ	-13564
▁کولتور	-13565
▁خومەینی	-13566
▁ناهێڵێت	-13567
ویل	-13568
▁سۆڤ	-13569
▁بێژەر	-13570
▁ژوورەوە	-13571
▁داگیرکەری	-13572
▁چەواشەکاری	-13573
غدا	-13574
▁دەرێ	-13575
▁چەندێ	-13576
▁ئارادا	-13577
▁مەدریدی	-13578
▁وێنەکانی	-13579
▁دەربکەوێت	-13580
▁هەرێمایەتی	-13581
▁سمکۆ	-13582
انەمان	-13583
▁بگاته	-13584
▁بووایە	-13585
▁هەستیاری	-13586
▁بەرژەوەندیە	-13587
▁it	-13588
▁سێپت	-13589
ڵاتیان	-13590
▁کەلێن	-13591
▁تورکیایە	-13592
▁خوێندنگە	-13593
▁بیانییەکان	-13594
▁هەڕەشەکانی	-13595
▁جیهانییەکان	-13596
ەستن	-13597
▁180	-13598
▁PKK	-13599
▁فرو	-13600
▁چیک	-13601
▁وادی	-13602
▁توێژی	-13603
▁لینین	-13604
▁لەشەڕ	-13605
▁ئەوانەشی	-13606
▁هاتووچۆی	-13607
▁ئامێرژەنی	-13608
عێراق	-13609
▁سانتی	-13610
ابێتەوە	-13611
▁بەناچاری	-13612
▁ئەنجامەکان	-13613
▁ڤێت	-13614
▁1968	-13615
▁ئەلبومی	-13616
▁بەڕوونی	-13617
▁ئیسلامیە	-13618
مام	-13619
▁الذ	-13620
دابوو	-13621
▁کوێی	-13622
▁کوێتی	-13623
▁تازەیە	-13624
▁لاوەکی	-13625
▁بایکۆتی	-13626
▁تاکەکەسی	-13627
▁منداڵەکە	-13628
مة	-13629
▁مۆڕ	-13630
▁گوێد	-13631
▁زیاترو	-13632
▁مامناو	-13633
▁هەریری	-13634
▁بەهۆکاری	-13635
▁کوش	-13636
احیەی	-13637
▁زێدی	-13638
▁داستانی	-13639
▁پەرتەو	-13640
▁لەقەزای	-13641
▁پۆستەکەی	-13642
▁هێنانەوەی	-13643
▁ئەبن	-13644
▁هێزەی	-13645
▁یارییه	-13646
▁نواندنی	-13647
▁هاتووەو	-13648
▁گەشبینی	-13649
▁یەکگرتوی	-13650
▁بەڵگەیەکی	-13651
▁دەستلەکار	-13652
▁ناحیەکانی	-13653
▁عەبدولرەحمان	-13654
راپ	-13655
گێری	-13656
▁بخش	-13657
▁ئیراق	-13658
▁بەشوێن	-13659
▁کۆبکاتەوە	-13660
▁ڕێبەرایەتی	-13661
▁لەبوارەکانی	-13662
▁هوت	-13663
▁دادەڕ	-13664
▁کوردمان	-13665
▁ئاسەواری	-13666
▁بەڕێزتان	-13667
▁دەستگیرکرا	-13668
▁قە	-13669
atur	-13670
ابان	-13671
gmail	-13672
▁تۆڕە	-13673
▁خالی	-13674
▁لەخزمەتی	-13675
▁کورسییەکانی	-13676
▁دابڕێنراوەکان	-13677
▁:"	-13678
▁تاکێک	-13679
▁دانرا	-13680
▁قبوڵی	-13681
▁بابەته	-13682
▁بەستووە	-13683
▁عەدالەت	-13684
سانە	-13685
ڕێژی	-13686
▁بۆیەک	-13687
▁نەبووم	-13688
▁هاورێی	-13689
▁ڕۆناڵدۆ	-13690
▁هاریکاریی	-13691
زبی	-13692
ۆتی	-13693
▁شیوع	-13694
اندانی	-13695
▁ژیانم	-13696
▁پەرتوک	-13697
▁ببەخشێت	-13698
▁نێگەتیڤ	-13699
▁تەواویان	-13700
▁خولە	-13701
▁فۆڕم	-13702
▁بودجه	-13703
▁کۆنفڕ	-13704
اوولاتی	-13705
▁نوسەری	-13706
▁هاوینی	-13707
▁بخوێنێت	-13708
▁بەرچاویان	-13709
▁زەنگی	-13710
▁لەپڕۆژ	-13711
▁گۆڕەپان	-13712
▁عەدالەتی	-13713
▁پێکهاتەکان	-13714
▁نەکردووەتەوە	-13715
بەشی	-13716
ەبجە	-13717
▁شەل	-13718
▁بڕگە	-13719
▁کێشا	-13720
▁مەرجە	-13721
▁گەرەکی	-13722
▁خۆئاماد	-13723
▁نەتەوەیەکگرت	-13724
تێک	-13725
▁یوون	-13726
▁کەمدەر	-13727
▁وڵاتەکە	-13728
▁نیشتەجێی	-13729
▁بیرکردنەو	-13730
▁لەشارەکانی	-13731
▁ڕابەرایەتی	-13732
ەشم	-13733
▁سوڕ	-13734
▁خستۆت	-13735
▁هەفتەیە	-13736
▁ئازادییەکانی	-13737
وردا	-13738
▁چەل	-13739
▁بەبی	-13740
▁وێنا	-13741
▁دایکان	-13742
▁قسەیەک	-13743
▁بەخەڵکی	-13744
▁بینا	-13745
▁گوللە	-13746
▁زایینی	-13747
▁چۆنیەتیی	-13748
لة	-13749
▁پێنچ	-13750
ەوێتەوە	-13751
▁سووتان	-13752
▁یەکجاری	-13753
▁بارزانیی	-13754
▁ئەلقاعیدە	-13755
▁پەرەپێدان	-13756
▁بەرێوەدەچێت	-13757
▁کوردییەکاندا	-13758
رادی	-13759
▁ڕەح	-13760
▁ئەبی	-13761
▁بچێتەوە	-13762
▁بەردەوامه	-13763
▁یەکگرتوەکانی	-13764
ابووە	-13765
▁تەنێ	-13766
▁داون	-13767
▁ڕەشە	-13768
▁تریشی	-13769
▁مۆرکرد	-13770
▁فەبرایەر	-13771
▁خەڵکانێکی	-13772
ۆرا	-13773
▁ماج	-13774
▁پڕی	-13775
▁کیان	-13776
▁خواستە	-13777
▁کەوتوونەتە	-13778
کۆف	-13779
اییەی	-13780
▁پەیڤ	-13781
▁لەخول	-13782
▁ئاواتی	-13783
▁هاوڕێیان	-13784
▁جیاجیاکان	-13785
▁داهاتوویەکی	-13786
الح	-13787
▁مۆل	-13788
▁بەمە	-13789
▁بەلیستی	-13790
▁خاڵانەی	-13791
▁لەوێشەوە	-13792
▁ڕەوایەتی	-13793
▁سەقامگیریی	-13794
▁٥	-13795
▁خون	-13796
▁وشەیەکی	-13797
▁کلینتۆن	-13798
▁پێکهاتوون	-13799
▁خۆج	-13800
▁ماندو	-13801
دەتوانی	-13802
▁ڕێڕەوی	-13803
▁ترسناکە	-13804
▁ئەلمانیا	-13805
▁بارهەڵگر	-13806
ڵو	-13807
لیب	-13808
ەپەر	-13809
▁لاه	-13810
▁مود	-13811
▁هەمە	-13812
▁وەدی	-13813
▁ئەتات	-13814
▁ترمان	-13815
▁فارسیی	-13816
ییەکانمان	-13817
▁هەڵەکانی	-13818
▁مەبەستیان	-13819
ۆیا	-13820
▁جەی	-13821
▁لۆس	-13822
شنگ	-13823
گەکە	-13824
▁ڕستە	-13825
▁ڕاوبۆ	-13826
▁سەرشەقام	-13827
▁چاوەروانی	-13828
▁ڕۆژنامەکانی	-13829
▁دەوت	-13830
▁دەول	-13831
▁بوێری	-13832
▁شەرەفی	-13833
▁فیلمەدا	-13834
دەکەینەوە	-13835
▁کۆنگرەیە	-13836
پاک	-13837
▁گوتەنی	-13838
▁لەدەوری	-13839
▁کراوەیە	-13840
▁دەرچووانی	-13841
ئاڤ	-13842
▁دۆک	-13843
▁لال	-13844
▁بەخاک	-13845
▁لێرەو	-13846
▁ناهەم	-13847
▁هاوری	-13848
▁کلیلی	-13849
▁ئاسانە	-13850
▁تیرۆرو	-13851
▁فرەژنی	-13852
▁کوشندە	-13853
وبونەوەی	-13854
▁سلێمانیش	-13855
▁لێکۆڵینەوەیەکی	-13856
▁شێوه	-13857
▁گەرەک	-13858
▁لەشەڕی	-13859
▁پێمانوایە	-13860
▁ئازارەکانی	-13861
ییش	-13862
▁ڤە	-13863
انەیەک	-13864
▁وەزعی	-13865
▁بەرۆکی	-13866
▁ئەمانەن	-13867
▁خۆیانیان	-13868
ەمۆ	-13869
▁se	-13870
▁دن	-13871
▁خوشکی	-13872
▁بریارە	-13873
▁خەمخۆری	-13874
▁لەعێراقدا	-13875
▁تۆمارکراوە	-13876
▁تەلەفیزیۆنی	-13877
▁بونە	-13878
▁بێته	-13879
▁پردێ	-13880
▁کامڵ	-13881
▁شیکاری	-13882
▁نەبێتەوە	-13883
▁کەرکوکیش	-13884
خەن	-13885
نار	-13886
▁Wed	-13887
گیرێن	-13888
ەرینی	-13889
▁بابل	-13890
▁هەرسێ	-13891
اکانمان	-13892
▁بگرێتە	-13893
▁لیبراڵ	-13894
▁لێسەند	-13895
▁بەوپێیەی	-13896
▁داهاتێکی	-13897
▁دۆزرایەوە	-13898
▁ناوخۆییەکانی	-13899
▁بێوار	-13900
▁جارانی	-13901
▁خانەخو	-13902
▁گەیشتنه	-13903
▁ئەدەبیات	-13904
▁ئەکاتەوە	-13905
وتەی	-13906
▁ڕاف	-13907
▁حەمەس	-13908
▁ژیاوە	-13909
▁کارگە	-13910
▁شەوانە	-13911
▁دەستێکی	-13912
▁دەوڵەمەندی	-13913
تون	-13914
کەرەوە	-13915
▁سەیرو	-13916
▁هۆزان	-13917
▁داهاتوی	-13918
▁ڕۆژئاوایی	-13919
▁ئێرانییەکان	-13920
چار	-13921
▁فریو	-13922
ەوەیان	-13923
▁زەبری	-13924
▁شەفافییەت	-13925
▁بۆتان	-13926
▁ئەکتیڤ	-13927
▁بەڕێوه	-13928
▁شاڵاوی	-13929
▁شایستە	-13930
▁نەکردن	-13931
▁ڕەوایە	-13932
▁دنیابینی	-13933
ژێ	-13934
▁Tu	-13935
▁بیب	-13936
▁نەئ	-13937
▁تەور	-13938
▁زاتی	-13939
▁پاشانیش	-13940
▁ڕێککەوتنێک	-13941
▁گفتوگۆیەکدا	-13942
▁لەدروستکردنی	-13943
وورە	-13944
▁شەرعییەت	-13945
▁قائیمقامی	-13946
▁سندوقەکانی	-13947
▁ئەلعێراقییە	-13948
کرێ	-13949
▁بێخ	-13950
▁وتنی	-13951
ەدەستی	-13952
▁توندتر	-13953
▁گەورەیەی	-13954
▁عەبدولموت	-13955
ڵای	-13956
خالق	-13957
▁کەدەب	-13958
▁گەلەک	-13959
▁نادەین	-13960
▁تیمەکانی	-13961
▁سەرتاپای	-13962
▁بات	-13963
▁گات	-13964
▁Wedn	-13965
▁سەوزی	-13966
▁گرنگن	-13967
▁Wednesday	-13968
▁مخ	-13969
▁سکی	-13970
▁ندی	-13971
▁گۆم	-13972
▁موحەمەدی	-13973
رخی	-13974
ولە	-13975
▁إن	-13976
دایی	-13977
ڤانی	-13978
▁ناڕەو	-13979
ەکەنەوە	-13980
▁دیبلۆماسی	-13981
▁ناردنەوەی	-13982
▁هەوڵدەدەین	-13983
▁کوردییەکانی	-13984
▁لەنێوانیاندا	-13985
urs	-13986
وکمی	-13987
▁شەخس	-13988
▁غەیرە	-13989
▁تائیفی	-13990
▁دوازدە	-13991
▁لێبکات	-13992
▁کارمان	-13993
▁باسکردن	-13994
▁پڕۆژەیاس	-13995
▁دیمۆکراسی	-13996
▁لەبەرنامەی	-13997
▁مەترسییەکی	-13998
▁شێل	-13999
▁بگەی	-14000
▁دەگەڕێن	-14001
▁بەرقەرار	-14002
▁وڵاتەکەمان	-14003
▁بلا	-14004
▁ستار	-14005
▁برینی	-14006
▁بیرمان	-14007
▁پێکردن	-14008
▁شاخەوان	-14009
▁کردوویەتی	-14010
نو	-14011
▁نگ	-14012
▁تایل	-14013
▁گورج	-14014
ەکەمدا	-14015
▁قەدری	-14016
▁ماوەیەی	-14017
▁گوتەبێژ	-14018
▁گەورەدا	-14019
▁قوتابخانەو	-14020
▁کۆمپانیاکە	-14021
اوس	-14022
▁ساردی	-14023
▁بەسەرهات	-14024
▁مەنووچێهر	-14025
▁حم	-14026
▁ئەشکەوت	-14027
▁نابینێت	-14028
▁ببەسترێت	-14029
▁ڕاپۆرتێک	-14030
▁سەڵاحەدین	-14031
بکەم	-14032
▁داهاتو	-14033
▁فێمینی	-14034
هێڵ	-14035
▁ساڵەو	-14036
▁هەبیت	-14037
▁شەڕڤان	-14038
▁مەکسیک	-14039
▁یاسادا	-14040
▁بۆماوەی	-14041
▁بەڵگەوە	-14042
ارەسەرکردنی	-14043
▁بەدەستبهێنێت	-14044
▁هەڵبژاردنەوە	-14045
وتە	-14046
▁عوب	-14047
▁1974	-14048
▁لەوبار	-14049
▁نوێیەی	-14050
ێکا	-14051
وپێک	-14052
▁خوارێ	-14053
▁سەدری	-14054
▁دەهێنا	-14055
▁دەستوورە	-14056
▁شەرمەزار	-14057
▁ئەمریکایە	-14058
ەڵەک	-14059
▁خرۆش	-14060
▁قەتیس	-14061
▁گوایه	-14062
▁ئەندامە	-14063
▁ببەستێت	-14064
▁شیعرێکی	-14065
▁ژێردەست	-14066
▁هاونیشتمانی	-14067
▁بگونج	-14068
▁تەراز	-14069
▁ڕووید	-14070
▁کۆنگرێس	-14071
▁مرۆڤەکانی	-14072
هنی	-14073
ۆرن	-14074
▁وەڕ	-14075
ەبکات	-14076
▁ئینت	-14077
▁ئاغای	-14078
▁بەجیا	-14079
▁نێوەندی	-14080
▁واقیعدا	-14081
▁پاڵێوراو	-14082
▁فراکسیۆنە	-14083
▁ئینسانەکان	-14084
▁ناسیۆنالیستی	-14085
قین	-14086
ێنتی	-14087
▁کەبە	-14088
▁بێکار	-14089
▁سوننی	-14090
▁نەکەیت	-14091
تەرناتیڤ	-14092
▁هەوڵدەدەن	-14093
▁بوبێت	-14094
▁پلانە	-14095
▁زمانێک	-14096
▁تێبگەین	-14097
▁هاتبوون	-14098
▁نەتەوەیە	-14099
▁پێکبهێنرێت	-14100
▁پێداویستیەکانی	-14101
سب	-14102
▁دێی	-14103
▁ڕۆک	-14104
▁خێراتر	-14105
▁لێڤەرپ	-14106
خوازەکان	-14107
▁هاوکێشەی	-14108
▁تیرۆریستییەکان	-14109
▁کتو	-14110
▁سانت	-14111
▁کاکی	-14112
▁لەئام	-14113
▁وتەبێژ	-14114
▁ئێرانەوه	-14115
▁چەکداریی	-14116
▁ڕەتدەکاتەوە	-14117
▁گەشتوگوزاری	-14118
قل	-14119
ۆیۆرک	-14120
دانانی	-14121
▁بڕەخس	-14122
▁نوێوە	-14123
▁وێنای	-14124
▁ئەفغانس	-14125
▁لەبارەگای	-14126
▁پرۆلیتاری	-14127
گوڵ	-14128
ەجەم	-14129
▁هەردووک	-14130
▁براوەکانی	-14131
▁پرسیارەکانی	-14132
fo	-14133
ەناس	-14134
▁کانت	-14135
ەکەینەوە	-14136
▁ئەوەشیان	-14137
▁زەرەرمەند	-14138
▁باڵەکایەتی	-14139
▁ئامادەکردووە	-14140
ئەست	-14141
▁ساڵانه	-14142
▁یانەیە	-14143
▁سوتاندنی	-14144
▁داواکردنی	-14145
▁ڕەچاوکردنی	-14146
موزی	-14147
▁سوب	-14148
▁گوندە	-14149
▁خێڵەکی	-14150
▁کوڕێکی	-14151
▁لەبەرژەوەندیی	-14152
کخ	-14153
▁ەو	-14154
جێکی	-14155
▁درۆی	-14156
▁فرەیی	-14157
▁پێشبر	-14158
▁خەرجکردنی	-14159
جیری	-14160
مەنی	-14161
▁حاف	-14162
▁ڕەگی	-14163
▁وەرگی	-14164
▁دڵخۆشی	-14165
▁ئاشکرایان	-14166
▁کەپێویستە	-14167
▁81	-14168
▁ئاف	-14169
ئەمەش	-14170
▁ئارە	-14171
▁پێکی	-14172
ەسەلات	-14173
▁مەرام	-14174
▁گونجاوی	-14175
▁زمانەکانی	-14176
▁خن	-14177
▁Com	-14178
▁هەره	-14179
▁لەجێی	-14180
▁ماڵێک	-14181
▁نەرمی	-14182
▁نەیار	-14183
▁لەڕاستی	-14184
▁ولاتەکەی	-14185
▁چیرۆکێکی	-14186
▁ڕوانگەیەوە	-14187
▁سەرەتاییەکانی	-14188
دیس	-14189
▁فەریق	-14190
▁عەسکەر	-14191
▁لەترسی	-14192
▁توێژەری	-14193
▁بدەینەوە	-14194
▁دەسەڵاتەکەی	-14195
▁ئۆد	-14196
▁بەپی	-14197
▁تۆڵە	-14198
▁فیدا	-14199
▁جێگرەکەی	-14200
▁بەرهەمهێنەر	-14201
▁دەسەڵاتەکان	-14202
▁بەشداربووانی	-14203
▁دادگاییکردنی	-14204
▁سەربازییەکان	-14205
▁ئێوار	-14206
▁ناسراون	-14207
▁لەسەرووی	-14208
▁پەیامەکەی	-14209
▁تن	-14210
▁جانت	-14211
▁جەرگ	-14212
▁پێیەتی	-14213
▁بەگەرمی	-14214
دەبن	-14215
ستەکانی	-14216
▁کۆیلەی	-14217
▁خوارووی	-14218
▁دۆستانی	-14219
▁ولاتێکی	-14220
▁بەهۆیەوه	-14221
▁دەردەسەری	-14222
rom	-14223
▁هاب	-14224
▁ئیتی	-14225
▁بەوەز	-14226
▁دەردی	-14227
▁هاندان	-14228
▁بەربڵاو	-14229
▁جەمسەری	-14230
▁ئیئتیلاف	-14231
▁کوردییەوە	-14232
▁ڕونیشیکردەوە	-14233
هۆ	-14234
▁ته	-14235
▁بەئاگ	-14236
▁مابوو	-14237
▁موشەکی	-14238
▁ئەمەریکاو	-14239
▁دەردەکەون	-14240
▁نووسەرێکی	-14241
▁دەنگدانەوە	-14242
▁ناوچەکەیان	-14243
▁لێکۆڵینەوەکان	-14244
عة	-14245
▁Sun	-14246
ەزاران	-14247
▁منیان	-14248
▁خەسڵەتی	-14249
▁لەیاسای	-14250
حمن	-14251
ڕاستی	-14252
ەستێت	-14253
▁قسەم	-14254
▁چێڵسی	-14255
▁ئابوریی	-14256
▁ئۆتۆنۆمی	-14257
▁بەبڕیاری	-14258
▁بەتوانای	-14259
▁سیاسیەوە	-14260
▁هەڵبژاردنەکە	-14261
▁بوویت	-14262
▁ئامێرە	-14263
▁بوارێکی	-14264
▁هەڕەشەو	-14265
▁پێشڕەوی	-14266
▁کیشوەری	-14267
▁10000000	-14268
▁بەرەیەکی	-14269
▁زیادبوون	-14270
▁ناوچەیەک	-14271
▁ڕەزامەند	-14272
▁منداڵەکان	-14273
▁هەرێمەکان	-14274
▁بەکارهێنان	-14275
ەمای	-14276
▁وکو	-14277
انەشی	-14278
ەویست	-14279
▁نەکەوێت	-14280
▁ڕۆیشتنی	-14281
▁تەرمەکەی	-14282
▁وەرزشکردن	-14283
▁دێموکراسیدا	-14284
غانی	-14285
▁فور	-14286
الاکی	-14287
▁عەرب	-14288
▁ماوه	-14289
▁پێوو	-14290
▁ڕۆنی	-14291
▁ژناندا	-14292
▁گەورەش	-14293
▁یەکلاکردنەوەی	-14294
حد	-14295
گەشت	-14296
اندنا	-14297
▁بەچی	-14298
▁فۆڕمی	-14299
▁ماندووبوون	-14300
ۆیت	-14301
▁بنرێت	-14302
▁وێنەو	-14303
▁هەستیان	-14304
▁ستەمکاری	-14305
▁شانۆگەریی	-14306
▁کاریگەریان	-14307
▁هەوڵەکانیان	-14308
وبی	-14309
▁لەڕوی	-14310
▁مندال	-14311
▁ئەرکانی	-14312
▁بەردەوامیی	-14313
▁دڵە	-14314
▁لیتر	-14315
▁ناوچەکان	-14316
▁دەسەڵاتێک	-14317
▁ژیری	-14318
▁وەدەر	-14319
▁فەڕەنس	-14320
▁وێنەیی	-14321
▁بگەڕێینەوە	-14322
▁مانچستەریۆنایتد	-14323
▁داق	-14324
▁نیچە	-14325
▁تووڕە	-14326
▁سازکرا	-14327
▁هەڵق	-14328
▁تەزویر	-14329
▁کرمانج	-14330
▁ڕەهەندە	-14331
▁دەوڵەتدا	-14332
▁دادەمەزرێن	-14333
▁کۆبوونەوەکان	-14334
فال	-14335
ینێ	-14336
اهەت	-14337
ینیا	-14338
▁گۆرانیی	-14339
▁خێرخوازی	-14340
▁پرەنسیپی	-14341
▁کەرنەڤاڵی	-14342
▁ئاکرێ	-14343
▁ستۆدی	-14344
▁قامیش	-14345
▁لەئاس	-14346
▁تێکەڵی	-14347
▁لەبیری	-14348
▁Tuesday	-14349
▁کۆمسیۆن	-14350
▁گۆرانییەکانی	-14351
یمی	-14352
▁عەبد	-14353
▁لایێ	-14354
▁بەهان	-14355
▁باشترو	-14356
▁باوەڕم	-14357
▁سوودیان	-14358
▁ئاشکراشیکرد	-14359
رت	-14360
ەتیڤی	-14361
▁توڕە	-14362
▁نەبون	-14363
▁ئازارو	-14364
▁بونەوەی	-14365
▁پیاوسالاری	-14366
▁لەهەمانکاتیشدا	-14367
زمەت	-14368
▁شاز	-14369
▁کامپ	-14370
▁خەسرەو	-14371
▁گیرانی	-14372
▁سودمەند	-14373
▁هاوڕێیانی	-14374
60	-14375
گایە	-14376
داوای	-14377
▁خێرو	-14378
▁گوڵە	-14379
▁بەپێک	-14380
▁سپارد	-14381
▁ناهەق	-14382
▁شانۆنام	-14383
▁لەژمارەی	-14384
▁خۆرهەلاتی	-14385
▁نوێنەرێکی	-14386
▁ئازادیخوازان	-14387
▁پێشمەرگەکانی	-14388
▁خا	-14389
ەلەف	-14390
▁قووت	-14391
▁بینیم	-14392
▁موسەوی	-14393
▁لەشێوەی	-14394
▁ناڕەزای	-14395
▁ڕاگواست	-14396
▁دیبەگەیی	-14397
▁ئازادییەکان	-14398
▁ئاژانسەکانی	-14399
ۆدا	-14400
▁شەشی	-14401
▁قەوم	-14402
▁کانون	-14403
▁جۆرەها	-14404
▁لوقمان	-14405
▁ڕوونتر	-14406
▁حیزبایەتی	-14407
ەپێی	-14408
▁دژه	-14409
▁سۆف	-14410
ۆکراتی	-14411
▁نەدەب	-14412
▁نیشتمانە	-14413
▁فەرمانگەکانی	-14414
ەتیش	-14415
▁بیز	-14416
▁مۆت	-14417
یدانی	-14418
▁نزیکن	-14419
▁ڕستەی	-14420
▁ئەویتر	-14421
▁سویسری	-14422
▁سەرگەر	-14423
▁ڕێچکەی	-14424
▁کوردست	-14425
▁وەفدەکە	-14426
▁ڕاسپێرد	-14427
▁کوردۆساید	-14428
قا	-14429
دیا	-14430
▁غی	-14431
روشتی	-14432
▁ڕێنمای	-14433
▁زیندووی	-14434
▁مۆدێرنە	-14435
▁دانیشتوی	-14436
▁ماڵوێرانی	-14437
▁جمه	-14438
ایەتە	-14439
▁ڕێگاوبان	-14440
▁دروستە	-14441
▁لەبەرچاوگرتنی	-14442
یدر	-14443
وولە	-14444
▁شکۆم	-14445
▁دەدەی	-14446
▁دەخوازن	-14447
▁زەنگەنە	-14448
▁وتوویەتی	-14449
▁فیستیڤاڵە	-14450
▁لەدانیشتن	-14451
▁بەیاننامەکەی	-14452
▁نەتەوەییەکانی	-14453
لۆس	-14454
ەدام	-14455
▁الخ	-14456
▁لویس	-14457
▁لێکت	-14458
▁Monday	-14459
▁تیاییدا	-14460
▁شوێنەوار	-14461
▁هاوپ	-14462
وویانە	-14463
▁کاربکات	-14464
▁کۆنسێرتی	-14465
ەرا	-14466
▁محمد	-14467
▁جەلیل	-14468
▁دیارو	-14469
▁ڕەهای	-14470
▁زەویدا	-14471
▁بژاردەی	-14472
▁دوورگەی	-14473
زخورماتوو	-14474
▁هەڵبگرێت	-14475
we	-14476
▁no	-14477
▁کچەکە	-14478
نامەنووس	-14479
▁ناوەکانی	-14480
▁یۆڤانتۆس	-14481
▁یادکردنەوەی	-14482
سام	-14483
کرنی	-14484
ەدای	-14485
▁cha	-14486
▁زووە	-14487
▁سواڵ	-14488
▁فایق	-14489
▁لسەر	-14490
▁بارگر	-14491
▁دەرون	-14492
▁ڕێگەو	-14493
▁شەوکەت	-14494
▁ژینگەو	-14495
▁تایبەته	-14496
▁شتەکانی	-14497
▁پەراوێزی	-14498
▁لەولاتانی	-14499
▁گەڕاندەوە	-14500
▁گۆرانییەکی	-14501
▁188	-14502
ەساڵی	-14503
▁ئێسک	-14504
دارێتی	-14505
▁شەبەک	-14506
▁سەیران	-14507
▁نازانیت	-14508
▁یاریکردن	-14509
حوس	-14510
▁Satur	-14511
▁Saturday	-14512
▁توانییان	-14513
▁کۆنەپەرست	-14514
▁خۆپیشاندانەکە	-14515
▁جیدی	-14516
▁لەچی	-14517
▁کۆتر	-14518
▁ملیون	-14519
▁ئەورووپ	-14520
▁ئارەزووم	-14521
▁ئەفریقیا	-14522
▁تەواوکەری	-14523
▁نەخۆشخانه	-14524
▁کردەوەیەکی	-14525
ژمارە	-14526
▁ئینج	-14527
▁پێنجی	-14528
درێتەوە	-14529
▁لەئەزم	-14530
▁تەقاندنەوەی	-14531
▁پاسەوانەکانی	-14532
▁گەرما	-14533
▁ڕۆژگاری	-14534
▁دەبینەوە	-14535
▁نموونەیی	-14536
ارێت	-14537
▁مێدی	-14538
▁دایکە	-14539
▁نەجات	-14540
▁جوامێر	-14541
▁نەورۆزی	-14542
▁دەناڵێنن	-14543
▁نەبووبێت	-14544
▁بەدەس	-14545
▁درێژخای	-14546
▁بەیانیان	-14547
▁لەبودجەی	-14548
▁ئاماژەیەک	-14549
▁پێنوسەکان	-14550
بور	-14551
ۆڤا	-14552
▁بەسره	-14553
▁ئاودێری	-14554
▁th	-14555
ەکەر	-14556
الانی	-14557
خواست	-14558
▁ڕێژە	-14559
▁لەئاو	-14560
▁شاهیدی	-14561
▁ژیانیدا	-14562
▁شیعەکانی	-14563
▁هاتنەوەی	-14564
▁٦	-14565
تما	-14566
▁کەع	-14567
▁جاره	-14568
▁سالح	-14569
▁ستاف	-14570
▁لەمڕۆ	-14571
ەکەدایە	-14572
▁هەفتەن	-14573
▁هەمومان	-14574
▁بەکاردێت	-14575
▁بەڵگەنامەی	-14576
▁لەهەڵبژاردن	-14577
ۆکس	-14578
دەچێت	-14579
▁دەسپ	-14580
▁لەوەف	-14581
▁هەشتا	-14582
▁گرنگه	-14583
▁تێبگەن	-14584
▁ئاسانتر	-14585
چیل	-14586
▁1983	-14587
▁ولای	-14588
▁وەیە	-14589
نەکەوت	-14590
وەندیی	-14591
▁بەخۆش	-14592
▁بەرزو	-14593
▁ملوان	-14594
▁بەوەوە	-14595
▁دەڤەرە	-14596
▁دەگەنە	-14597
▁حەسرەتی	-14598
▁بەخێرهاتنی	-14599
▁نووسەرەکەی	-14600
ۆران	-14601
▁بیکەن	-14602
لۆپیدیای	-14603
گرتنەوەی	-14604
▁حەوتەمی	-14605
▁ڕێگایەک	-14606
▁نزیکترین	-14607
▁بەستنەوەی	-14608
دوڵ	-14609
ووخ	-14610
▁ئابڵ	-14611
ەکانەوه	-14612
▁دوکانی	-14613
▁سروودی	-14614
▁پتەوتر	-14615
ڕاگەیاند	-14616
▁دەرماڵەی	-14617
▁نەهێناوە	-14618
▁هۆیەشەوە	-14619
▁دەگوزەرێت	-14620
ەپەست	-14621
▁view	-14622
▁ئەنتی	-14623
▁خرایه	-14624
▁لەخزمەت	-14625
▁کێشەیان	-14626
▁دەکوژرێت	-14627
▁ڕێڤەبەری	-14628
▁لیستەکانی	-14629
▁هەڵدەستێت	-14630
▁ڕۆژنامەنوسانی	-14631
سون	-14632
▁چونی	-14633
▁دەمرێت	-14634
▁ڕۆستەم	-14635
▁پەسەندی	-14636
▁دابەشکردن	-14637
ik	-14638
▁کەین	-14639
▁فاتیح	-14640
▁بەعسدا	-14641
▁وێنەگر	-14642
▁چاومان	-14643
▁گرەنتی	-14644
▁مانگانەی	-14645
▁یۆرانیۆم	-14646
▁سەرکەوتنە	-14647
▁ناوەندێکی	-14648
75	-14649
رۆن	-14650
زمان	-14651
▁حیج	-14652
▁سنه	-14653
▁ڤیز	-14654
▁سونی	-14655
▁سەروک	-14656
▁بیستەم	-14657
▁تێدایەو	-14658
▁کوالیتی	-14659
▁پرسەکانی	-14660
لێت	-14661
ەپێش	-14662
▁جوڵەی	-14663
▁خانمه	-14664
▁سەرکەوتووی	-14665
▁بەرەوپێشبردنی	-14666
اگۆ	-14667
مەو	-14668
▁فت	-14669
وشوێن	-14670
ursday	-14671
ۆزسیۆن	-14672
▁لەئێستا	-14673
▁وڵاتەوە	-14674
▁موسوڵمان	-14675
▁برینداربوو	-14676
mal	-14677
▁فڕێد	-14678
▁میون	-14679
ۆنیەتی	-14680
▁ئاراد	-14681
▁هاتبێت	-14682
▁ڕاپەڕی	-14683
▁کاریزم	-14684
▁Thursday	-14685
22	-14686
▁شوک	-14687
تریان	-14688
▁دادە	-14689
▁لەدڵ	-14690
▁تێناگ	-14691
▁سەرەکییەکان	-14692
وة	-14693
▁لڤین	-14694
▁ووتی	-14695
وێنەری	-14696
▁پاتری	-14697
▁سورەتی	-14698
ەشک	-14699
▁وێژ	-14700
▁دزەی	-14701
▁وهاو	-14702
▁براکەی	-14703
▁ماوەیە	-14704
▁زنجیرەی	-14705
▁برادەرانی	-14706
فور	-14707
▁لات	-14708
▁نەژ	-14709
▁گار	-14710
▁هەڵەو	-14711
▁بدرێتە	-14712
▁سکرتێر	-14713
▁هەڤاڵانی	-14714
▁جیهانبینی	-14715
نیکی	-14716
▁Mag	-14717
▁بوەو	-14718
▁بودجەو	-14719
▁خوه	-14720
مارکی	-14721
▁جیددی	-14722
▁جەماع	-14723
▁ئینتەر	-14724
▁بەسیاس	-14725
▁پشتیان	-14726
▁کردۆته	-14727
▁بەدیاری	-14728
▁کامیرۆن	-14729
▁بڕیاریشە	-14730
▁دەبێتەوەو	-14731
▁برینداربوونی	-14732
▁نوێنەرایەتیی	-14733
▁کوشند	-14734
▁الثانی	-14735
▁دابڕان	-14736
▁میتۆدی	-14737
▁کوردانەی	-14738
▁نەیارەکانی	-14739
اریزم	-14740
▁ئەکاد	-14741
▁Sunday	-14742
▁لەهەمو	-14743
▁هەڵپەڕ	-14744
▁کەرکووکی	-14745
▁گەورەترە	-14746
▁زیانەکانی	-14747
▁پێداویستییە	-14748
شتاین	-14749
▁نەمام	-14750
دەولەتی	-14751
▁ئەزانن	-14752
▁بەسەدان	-14753
▁نەکردبێت	-14754
▁دەخاتەڕوو	-14755
▁هەمووشیان	-14756
▁ڕزگاربوون	-14757
▁هەمانکاتدا	-14758
▁فۆت	-14759
▁فێن	-14760
▁کەبڕی	-14761
▁دەکوژن	-14762
▁لێکراو	-14763
▁لەمیسر	-14764
▁گەرەکە	-14765
▁چوارگۆش	-14766
▁ئەردۆگان	-14767
▁دێموکراسییە	-14768
▁هەڵبژاردنەدا	-14769
گز	-14770
کارو	-14771
ۆلۆج	-14772
▁تەڤ	-14773
▁ڕەقیب	-14774
پەیمانی	-14775
▁نیشانە	-14776
▁چاوێکی	-14777
▁بەرپەرچ	-14778
▁لەداهات	-14779
ضی	-14780
ستەی	-14781
▁ئۆن	-14782
▁جێر	-14783
▁دەکران	-14784
▁زەوییە	-14785
▁سەرۆکج	-14786
▁فەرمیی	-14787
▁لەگوندی	-14788
▁کردەیەکی	-14789
▁خام	-14790
ودەست	-14791
▁ئەحز	-14792
▁حەبیب	-14793
▁گەریل	-14794
نەکراوە	-14795
▁نەوەست	-14796
▁پۆستەکانی	-14797
▁وەزیرەکانی	-14798
▁ڕۆژنامەنووسیدا	-14799
شەه	-14800
▁تات	-14801
▁وشەیە	-14802
▁داهاتودا	-14803
▁هەندێکیشیان	-14804
ابر	-14805
ناڤ	-14806
ووز	-14807
ابین	-14808
▁ڤینۆس	-14809
ێگەیشتن	-14810
▁ئەمڕۆکە	-14811
▁بەخشیوە	-14812
▁ناگرێتەوە	-14813
▁پارێزەرانی	-14814
▁توندڕەوەکان	-14815
▁پەروەردەکردنی	-14816
کۆزی	-14817
▁موه	-14818
بینێت	-14819
▁دەلێت	-14820
▁کوەیت	-14821
▁زیندەو	-14822
▁دیارەکانی	-14823
▁ئامادەبووانی	-14824
▁نۆک	-14825
▁نامی	-14826
▁حاکمی	-14827
▁ساختە	-14828
▁غەفور	-14829
▁وشیار	-14830
▁مەرگەس	-14831
▁هیتلەر	-14832
▁ڕوداوی	-14833
▁کەسانه	-14834
▁ئەمانیش	-14835
▁ئەگەریش	-14836
▁وڵاتەکه	-14837
▁زبڵ	-14838
▁خامۆش	-14839
▁خودان	-14840
▁درەوش	-14841
▁ئەردەن	-14842
▁سەردانە	-14843
▁نەتوانراوە	-14844
رێک	-14845
▁تەحری	-14846
▁دەسوت	-14847
▁بنێرێت	-14848
▁ڕەخنەیان	-14849
▁گۆلەکانی	-14850
▁ناوخۆییەکان	-14851
98	-14852
اکات	-14853
ەتەکەی	-14854
▁تەعبیر	-14855
▁کوردسات	-14856
▁جووتیاران	-14857
▁خوڵقاندنی	-14858
▁توانیویانه	-14859
▁ئاوێنەنیوزی	-14860
▁co	-14861
▁مەسئ	-14862
▁خانمی	-14863
▁واژوو	-14864
▁جیهانەوە	-14865
▁مرۆییەکان	-14866
تێکی	-14867
پانیا	-14868
▁فەنت	-14869
▁ڤیدیۆ	-14870
▁کۆبوو	-14871
ارییەتی	-14872
▁هاندەر	-14873
▁سەربەرز	-14874
▁ڕفاندنی	-14875
▁خوێندنگەی	-14876
▁پرسیارەکان	-14877
▁ڕاگەیاندنە	-14878
▁لەناوەڕاستی	-14879
▁دەیوت	-14880
▁شیعریی	-14881
▁نەبووه	-14882
▁ڕێژەیی	-14883
ەکورد	-14884
ەندەکانی	-14885
ەکردنەوە	-14886
▁خولەکانی	-14887
▁دەمانەوێ	-14888
▁هەواڵەکانی	-14889
سەت	-14890
مون	-14891
▁لیژنەیە	-14892
▁هێناوەو	-14893
▁قەرەباڵغ	-14894
▁کۆمەڵێکی	-14895
▁دەقەکەیەتی	-14896
OA	-14897
ێرش	-14898
ەرنی	-14899
▁دیلان	-14900
▁سپێرد	-14901
▁لەگشت	-14902
▁نیگای	-14903
▁ئاوایی	-14904
▁ئیعدام	-14905
▁باسکەی	-14906
▁تێبگات	-14907
▁دەستاو	-14908
▁بەندکراو	-14909
▁لەڕوانگەی	-14910
بۆل	-14911
▁بەدەپە	-14912
▁بەهەدەر	-14913
▁کتێبەکە	-14914
▁فڕۆکەوان	-14915
افر	-14916
بەز	-14917
▁بردە	-14918
ەکێشان	-14919
▁کێشەیه	-14920
▁لەئەستۆ	-14921
▁گوتراوە	-14922
▁سەردەمەی	-14923
▁ڕووبەروو	-14924
▁All	-14925
اوەکە	-14926
▁1982	-14927
▁بوود	-14928
▁بەوەیە	-14929
▁دەفتەر	-14930
▁ڕوبەروی	-14931
▁ئیسلامیش	-14932
▁ململانێیەکی	-14933
▁دێموکراتەکان	-14934
هەی	-14935
able	-14936
▁فرەن	-14937
▁پەرو	-14938
▁تورکیە	-14939
[...]
