<unk>	0
<s>	0
</s>	0
▁و	-3.21815
ی	-3.31777
▁لە	-3.91636
ە	-4.28413
▁بە	-4.45393
▁بۆ	-4.48892
▁کە	-4.53522
▁ئەو	-4.83388
دا	-5.01451
▁له	-5.03047
و	-5.13833
▁(	-5.19087
ن	-5.2594
،	-5.2694
▁"	-5.29223
▁)	-5.36729
▁:	-5.38106
▁-	-5.43251
ه	-5.44993
ان	-5.45978
ەوە	-5.47321
م	-5.52698
▁ئەم	-5.53043
▁/	-5.53194
▁کوردستان	-5.56087
یان	-5.60936
ش	-5.77715
ەکانی	-5.78166
ێکی	-5.84577
▁به	-5.89877
ەکان	-5.90049
▁هەر	-5.97198
▁لەسەر	-5.98785
ت	-6.10549
▁سەر	-6.11238
▁ئەوەی	-6.13928
▁عێراق	-6.14295
▁لەگەڵ	-6.16576
مان	-6.19425
▁خۆی	-6.20506
▁ی	-6.20645
▁لەو	-6.22278
ێک	-6.22601
▁وەک	-6.24364
ێ	-6.2498
ـ	-6.26545
▁بەڵام	-6.27699
▁هەموو	-6.28334
▁زۆر	-6.28343
ا	-6.30427
▁که	-6.31133
▁کورد	-6.32735
یە	-6.32941
▁بوو	-6.35382
▁تا	-6.37419
"	-6.41774
▁دا	-6.42447
▁دەبێت	-6.46887
▁کرد	-6.47305
▁هەیە	-6.47353
▁دەکات	-6.4793
انە	-6.49892
ەی	-6.52158
▁یان	-6.55614
ِ	-6.59667
▁دوو	-6.60453
▁بێ	-6.6096
ەکەی	-6.62184
▁ئەگەر	-6.63086
▁نە	-6.65288
▁بێت	-6.65452
یش	-6.69229
▁من	-6.6974
وە	-6.70383
یەکی	-6.70898
▁چەند	-6.71152
▁ب	-6.71742
▁هەرێمی	-6.72579
▁لەم	-6.72606
▁سیاسی	-6.72888
▁هیچ	-6.73111
▁نییە	-6.74164
▁بکات	-6.75231
کردنی	-6.77728
[	-6.79093
▁،]	-6.79223
▁ئێستا	-6.79915
▁دوای	-6.80073
▁سەرۆکی	-6.80875
▁ناو	-6.8154
▁دە	-6.82487
انی	-6.82769
انەی	-6.84531
ەکە	-6.8505
▁ئەوە	-6.85766
▁دەست	-6.86112
ک	-6.8735
▁خۆیان	-6.8737
:	-6.89861
ین	-6.91448
▁بەر	-6.91596
▁ئێمە	-6.93499
▁نا	-6.93524
▁پێ	-6.95281
▁زیاتر	-6.95416
▁یەک	-6.95836
▁دەکەن	-6.9668
▁هەولێر	-6.96698
▁هەروەها	-6.98134
▁تر	-6.98298
▁چونکە	-6.98699
▁تەنیا	-6.9892
▁[	-6.99886
▁]	-7.00057
▁حکومەتی	-7.01451
▁لێ	-7.04896
▁بوون	-7.07081
▁	-7.0772
)	-7.0798
▁بکەن	-7.08015
▁هەرێم	-7.0887
د	-7.09486
▁ساڵی	-7.09769
▁ئێران	-7.10601
▁,	-7.10817
▁سەرۆک	-7.11997
▁یەکێتی	-7.14164
▁کار	-7.14609
▁سلێمانی	-7.15011
▁د	-7.15262
▁کەس	-7.15558
یەک	-7.16556
▁بەو	-7.17157
▁نێوان	-7.17282
▁کردووە	-7.17585
▁بووە	-7.19274
ەوه	-7.19488
▁کوردی	-7.19868
ى	-7.20079
کردن	-7.20648
▁ئە	-7.21465
▁گوتی	-7.2239
▁دەکرێت	-7.2264
س	-7.2314
▁بۆیە	-7.23156
ب	-7.24345
▁خەڵکی	-7.28334
▁لەلایەن	-7.30563
▁شاری	-7.30712
▁پارتی	-7.31065
▁بەسەر	-7.31077
ل	-7.3156
▁1	-7.32532
کە	-7.32537
▁ل	-7.33542
نە	-7.33629
ەکی	-7.35604
▁دەڵێت	-7.36573
▁م	-7.36819
▁2	-7.36858
▁ئەنجومەنی	-7.36925
▁تورکیا	-7.37217
ەو	-7.3763
کان	-7.38068
کانی	-7.38156
▁ڕۆژی	-7.38365
▁کاری	-7.38652
▁پێش	-7.39635
بوو	-7.40013
▁دروست	-7.40916
▁تایبەت	-7.41287
▁3	-7.41459
تر	-7.42102
▁یەکەم	-7.42564
▁10	-7.451
▁مرۆڤ	-7.45319
▁سێ	-7.45794
▁یانەی	-7.46226
ێن	-7.46684
▁چ	-7.47536
▁گشتی	-7.47538
▁پێی	-7.47615
ر	-7.48446
▁ڕایگەیاند	-7.48586
کی	-7.4876
یەکان	-7.48824
▁هەندێک	-7.50092
▁ئەمەریکا	-7.50305
▁وەکو	-7.51076
▁ئەمڕۆ	-7.5179
▁نوێ	-7.51828
ەک	-7.52074
▁بن	-7.52725
▁بەرامبەر	-7.53316
▁ڕ	-7.5442
▁کەرکوک	-7.54956
▁بەڵکو	-7.55881
▁ئەمە	-7.55978
▁لایەن	-7.56096
▁بکرێت	-7.56346
تان	-7.5682
▁حکومەت	-7.56918
▁;	-7.57376
▁ن	-7.58779
تی	-7.59163
ێت	-7.59645
▁بەهۆی	-7.59691
▁کۆتایی	-7.60375
▁ئیسلامی	-7.60616
▁&	-7.60818
▁خۆ	-7.61854
بوون	-7.62044
▁نەک	-7.621
نا	-7.62145
▁2010	-7.62192
▁لەناو	-7.62292
▁ساڵ	-7.62376
ۆ	-7.62555
▁تۆ	-7.62557
شی	-7.62957
▁ئەوان	-7.6393
▁ش	-7.65086
▁4	-7.65196
▁ناوی	-7.65234
▁س	-7.65349
دە	-7.65595
▁11	-7.65968
▁لای	-7.66352
▁چۆن	-7.66799
▁پ	-7.67401
▁ئەمەش	-7.67732
▁،	-7.67816
▁5	-7.67892
نی	-7.68014
▁12	-7.68225
▁2011	-7.68245
▁چەندین	-7.68459
ز	-7.68732
ف	-7.69943
▁ئەنجام	-7.70294
▁داوای	-7.70856
▁نێو	-7.71085
▁بەم	-7.71231
▁پەرلەمان	-7.71578
▁ئەحمەد	-7.7172
▁وەزارەتی	-7.71943
▁کردنی	-7.72053
یەوە	-7.72108
▁سەبارەت	-7.7252
▁وەزیری	-7.72794
▁باس	-7.72815
▁بەپێی	-7.72818
▁19	-7.72865
▁هەزار	-7.73077
▁پێویستە	-7.73475
▁بەردەوام	-7.73968
▁با	-7.75324
▁عەلی	-7.75601
بە	-7.75794
▁ک	-7.76228
▁ئازادی	-7.76356
▁لەبەر	-7.76371
▁بارزانی	-7.76387
▁خەڵک	-7.76429
▁6	-7.76576
ْ	-7.76769
▁هەڵ	-7.76942
▁کەم	-7.7695
کەی	-7.7697
▁بەغدا	-7.77226
▁\	-7.77361
▁وا	-7.77656
▁هۆی	-7.77679
▁–	-7.77786
دی	-7.77955
ەدا	-7.78069
▁بکەین	-7.78686
▁گەورە	-7.7873
▁*	-7.78731
▁مافی	-7.79324
▁پەرلەمانی	-7.79546
▁عێراقی	-7.80177
بێت	-7.8046
▁پەیوەندی	-7.80718
▁یەکێک	-7.80969
▁ماوەی	-7.81019
▁بەشی	-7.81088
▁گوتیشی	-7.81348
▁بەرەو	-7.81838
▁دەستی	-7.81859
▁ڕاگەیاند	-7.82322
▁پاش	-7.82453
▁داعش	-7.8274
دان	-7.83768
یەکانی	-7.84034
▁کاتێک	-7.84133
▁هەبێت	-7.84339
▁محەمەد	-7.8458
ەکانیان	-7.85015
▁کوردستانی	-7.86092
▁ئەمریکا	-7.86115
/	-7.8613
▁دیکە	-7.86215
▁گۆڕان	-7.8746
لە	-7.88319
▁ژیان	-7.88651
▁بی	-7.89551
▁نەبێت	-7.90335
▁بوونی	-7.90458
▁هەمان	-7.91148
▁ت	-7.91412
▁7	-7.91719
▁دەسەڵات	-7.9196
▁چی	-7.91998
▁ع	-7.9221
▁2012	-7.92211
▁ئەوا	-7.92243
▁هەردوو	-7.92383
▁یا	-7.9274
▁باسی	-7.93212
▁9	-7.93793
▁ژیانی	-7.94093
▁دەرەوەی	-7.94353
کرد	-7.94738
▁دژی	-7.95019
▁هێزەکانی	-7.9502
▁جیهانی	-7.9522
▁ڕۆژ	-7.95457
▁پێشمەرگە	-7.95507
▁کراوە	-7.95542
▁بەلام	-7.95849
▁8	-7.96607
ق	-7.97095
▁چوار	-7.97289
▁ڕوو	-7.97333
▁بو	-7.97672
ح	-7.98179
▁جیهان	-7.98192
ُ	-7.98322
ڵ	-7.98563
▁پڕ	-7.98737
▁باش	-7.98833
ترین	-7.98978
▁لا	-7.991
▁کاتی	-7.99203
▁20	-7.99712
▁بیر	-8.00407
▁بەشداری	-8.00558
▁17	-8.00998
▁واتە	-8.01493
▁ژنان	-8.0158
▁2009	-8.01646
ەش	-8.01836
▁ئەوەیە	-8.01989
ع	-8.02014
▁فیلمی	-8.02751
▁خولی	-8.02838
▁ئازاد	-8.031
▁'	-8.03276
▁18	-8.03821
▁15	-8.04151
▁جۆرە	-8.04226
▁کۆماری	-8.04372
تە	-8.04752
▁یاسای	-8.05081
▁لیستی	-8.05216
▁دەکەین	-8.05341
▁تەواو	-8.05435
▁ئاستی	-8.0552
▁نزیک	-8.05587
▁زۆری	-8.06001
▁پارێزگای	-8.06275
▁دەوڵەتی	-8.06322
▁حیزبی	-8.06387
بوونی	-8.06703
▁ئاماژەی	-8.06723
▁ژن	-8.06905
▁گەر	-8.07057
▁ئەوەش	-8.07126
▁سوریا	-8.07441
▁تێدا	-8.07447
▁کرا	-8.07548
▁ئایا	-8.07948
▁دووەم	-8.08344
▁ئەندامی	-8.0841
▁کێشەی	-8.08531
▁عەرەبی	-8.08646
▁16	-8.08942
▁ف	-8.09011
▁هەمیشە	-8.09132
▁جار	-8.09271
ون	-8.09307
▁دوور	-8.09375
▁2014	-8.11005
▁ژێر	-8.11174
▁دەنگ	-8.11268
▁کۆمەڵایەتی	-8.11359
یەتی	-8.11505
▁هێزی	-8.11555
▁ڕابردوو	-8.11599
▁کات	-8.11965
چ	-8.11969
▁گەلی	-8.12565
▁دی	-8.12571
را	-8.12678
دایە	-8.12885
▁کردن	-8.13212
َ	-8.13296
▁دەکرد	-8.13327
▁2008	-8.13347
▁نەوت	-8.13411
▁بەدەست	-8.13481
▁دەدات	-8.13883
▁بەرهەم	-8.14173
▁سەرەکی	-8.1432
ەکه	-8.14427
▁بواری	-8.14683
▁تری	-8.14747
▁دواتر	-8.14842
▁تایبەتی	-8.15116
▁ملیۆن	-8.15241
لی	-8.15584
▁زمانی	-8.16032
▁دەسەڵاتی	-8.16911
▁ڕا	-8.1699
▁خاوەن	-8.17081
▁13	-8.17402
▁خۆمان	-8.17568
▁کردەوە	-8.17656
▁ئەوانەی	-8.17702
▁ئەویش	-8.17756
▁لەبارەی	-8.17822
▁پرۆسەی	-8.17886
پ	-8.18059
▁هونەری	-8.18221
▁یاری	-8.18658
▁وڵاتانی	-8.18689
▁تەنانەت	-8.18843
خ	-8.1894
مە	-8.19073
▁پێویستی	-8.19117
▁%	-8.1937
وه	-8.19866
▁وڵات	-8.19989
▁نەتەوەیی	-8.20477
▁ئاژانسی	-8.20534
▁هەواڵی	-8.20618
▁دیکەی	-8.20691
▁14	-8.20747
▁یاسا	-8.20806
▁یە	-8.20883
▁جگە	-8.20979
▁لەنێوان	-8.21262
▁تەواوی	-8.21276
▁بەرز	-8.21489
▁سەرجەم	-8.22144
▁30	-8.22726
▁سی	-8.22859
▁خۆم	-8.23027
▁سەرۆکایەتی	-8.23177
▁دەنگی	-8.23364
▁سە	-8.23455
▁سەردانی	-8.23544
ڕ	-8.23643
▁نیشتمانی	-8.23689
▁ا	-8.24086
سی	-8.24399
▁سوپای	-8.24607
▁هەڵبژاردن	-8.24746
▁مانگی	-8.24785
▁دەر	-8.24786
▁پێویست	-8.25018
▁بدات	-8.25128
▁هەست	-8.25163
▁ئابووری	-8.25254
کار	-8.25639
کاری	-8.25656
▁چاو	-8.26006
بەر	-8.26019
انه	-8.26093
▁ئاشکرا	-8.26246
▁ال	-8.26387
کردنەوەی	-8.26428
ەکاندا	-8.26571
▁quot	-8.27545
▁نەبوو	-8.27627
دەر	-8.28102
▁ئەی	-8.2859
▁هاوکاری	-8.29011
▁ئا	-8.2911
بی	-8.29597
▁خوا	-8.29614
▁کەسێک	-8.2999
▁دوێنێ	-8.3034
▁هە	-8.30396
▁حیزب	-8.30413
یت	-8.30538
s	-8.30574
▁وڵاتی	-8.31164
▁کۆ	-8.31241
▁ئەنجامی	-8.31336
ما	-8.31397
▁دوا	-8.31572
▁هاوکات	-8.31858
بن	-8.3197
▁گرنگ	-8.31975
▁بر	-8.32183
نەوە	-8.3231
ای	-8.32328
-	-8.32347
تا	-8.32793
▁هات	-8.32844
▁پێشکەش	-8.3314
ری	-8.33448
▁چارەسەر	-8.33608
▁هێزە	-8.33724
یه	-8.33826
▁ئاو	-8.33933
▁ڕێ	-8.34291
▁دژ	-8.34492
▁ڕێگەی	-8.3476
▁زۆربەی	-8.34959
▁لەوەی	-8.34981
▁ڕێکخراوی	-8.35426
▁نوێی	-8.3551
لا	-8.35843
▁تەندروستی	-8.36012
ج	-8.36022
▁دەوڵەت	-8.36156
ەتی	-8.36275
▁سەربازی	-8.36768
ست	-8.36895
▁بڕیاری	-8.36942
▁پاراستنی	-8.36983
▁خۆش	-8.37057
▁بەبێ	-8.37342
▁ە	-8.37898
▁ح	-8.37913
▁ڕێگای	-8.38081
▁دیاری	-8.38098
ێکدا	-8.38289
▁تێیدا	-8.38357
ة	-8.38387
▁دەیان	-8.3842
▁دێموکراسی	-8.3859
▁کو	-8.38665
▁فی	-8.38809
▁25	-8.39245
گ	-8.39253
ار	-8.39266
▁ڕۆڵی	-8.39342
▁عەرەب	-8.39407
انەوە	-8.40061
▁جەلال	-8.40418
▁داوە	-8.40469
▁مەدەنی	-8.4056
▁شتێک	-8.40798
▁هێشتا	-8.40842
▁حەسەن	-8.41081
▁ڕووی	-8.41709
▁نێودەوڵەتی	-8.41768
▁بەڕێوەبەری	-8.42024
▁بڵاو	-8.42063
▁هەڵبژاردنی	-8.42124
یا	-8.42249
▁هەبوو	-8.42445
▁داوا	-8.43293
▁2013	-8.43353
▁ئەوروپا	-8.43588
وا	-8.43621
▁زەوی	-8.43844
▁جێی	-8.43873
کا	-8.43896
▁لەوە	-8.44023
ییەکان	-8.44068
▁وایە	-8.4423
▁لیژنەی	-8.44304
او	-8.44317
▁جێگری	-8.44333
▁بەرگری	-8.44348
▁سیاسیی	-8.44709
وو	-8.44808
▁h	-8.44903
▁گرنگی	-8.44947
▁بەناوی	-8.45152
▁ئامادە	-8.45278
▁هەوڵی	-8.4534
▁21	-8.45394
دانی	-8.46436
▁خاڵ	-8.46499
▁شەهید	-8.46585
▁هەوڵ	-8.46598
▁هەتا	-8.46638
▁شەڕی	-8.46977
▁بەشێکی	-8.47462
▁پشت	-8.47496
ەکەیان	-8.47614
▁ڕێژەی	-8.47619
شدا	-8.47844
▁جێبەجێ	-8.4786
▁کۆمەڵێک	-8.47968
▁نابێت	-8.47988
▁هەم	-8.48319
▁دەی	-8.48397
▁یاسایی	-8.4842
▁تێ	-8.48466
▁مەلا	-8.48502
▁کێ	-8.48605
▁ئێوە	-8.48612
▁شەڕ	-8.48798
بو	-8.48822
زی	-8.49481
▁زمان	-8.49533
▁بەتایبەتی	-8.49678
▁مێژووی	-8.49858
▁ژمارەی	-8.50071
▁لایەنە	-8.50145
▁تە	-8.50291
▁کاریگەری	-8.50343
▁دەڵێن	-8.50649
▁پشتیوانی	-8.50768
▁گەورەی	-8.50877
▁هاتووە	-8.50905
▁بەشێک	-8.51215
▁ئەل	-8.51276
▁خۆیدا	-8.5133
▁ژ	-8.51351
▁داهاتوو	-8.51645
▁بەکار	-8.51913
▁کوردستاندا	-8.51951
▁قسە	-8.51959
▁پێنج	-8.51982
▁دەبێتە	-8.52057
▁دکتۆر	-8.52057
▁مام	-8.52099
▁بدەن	-8.52221
▁ئیسلام	-8.52348
▁بڕیار	-8.52644
▁نوێنەرانی	-8.52792
▁مە	-8.52947
▁دێموکراتی	-8.5308
▁دێت	-8.53233
▁ناوچەی	-8.53299
▁پێشتر	-8.53338
▁قوربانی	-8.53358
▁باشترین	-8.53398
▁جێ	-8.53608
▁أ	-8.53818
▁باڵای	-8.54019
▁وڵاتە	-8.5403
▁ئاسایشی	-8.5407
▁هی	-8.54199
کردووە	-8.54779
▁گوت	-8.54787
زە	-8.54803
▁ئەنفال	-8.54819
▁زانیاری	-8.54913
▁دەکەم	-8.55021
▁ئەندامانی	-8.55042
▁ژمارەیەک	-8.55076
▁پەیامنێر	-8.55258
▁کەچی	-8.55577
▁دیارە	-8.56048
▁ماڵ	-8.56194
بێ	-8.56262
▁دروستکردنی	-8.56585
دار	-8.56733
▁22	-8.56898
▁»	-8.57127
▁24	-8.57189
▁شوێنی	-8.57205
▁نزیکەی	-8.57385
▁ناوچەکە	-8.5741
▁پۆلیس	-8.57506
▁منداڵ	-8.57641
▁ڕۆژهەڵاتی	-8.57756
▁مامۆستا	-8.57829
▁جیا	-8.5799
▁دەدەن	-8.58034
▁ڕەنگە	-8.58088
▁قۆناغی	-8.58277
▁یاخود	-8.58381
رۆ	-8.58432
▁گەرمیان	-8.58594
▁گەل	-8.58622
▁جیاواز	-8.58825
▁کاک	-8.58862
▁پۆلیسی	-8.58919
که	-8.58938
▁ئاشتی	-8.58956
▁ڕای	-8.59291
▁وەزیرانی	-8.59303
▁جا	-8.59454
▁23	-8.59534
▁توانی	-8.59791
e	-8.59806
گەی	-8.59908
▁بەشێوەیەکی	-8.59975
▁ڕاستی	-8.60215
▁یەکێتیی	-8.60246
ەکەدا	-8.60367
,	-8.60417
▁ڕژێمی	-8.60655
▁ناوەندی	-8.6086
▁سیاسەتی	-8.60964
▁خاوەنی	-8.60975
▁یاریزانی	-8.61015
ێتی	-8.6103
▁چین	-8.61182
▁لێی	-8.61194
ژ	-8.61215
▁توانای	-8.61399
▁مەبەستی	-8.61479
سەر	-8.61562
▁دیار	-8.61612
بر	-8.61669
▁نموونە	-8.61677
▁شێوە	-8.61678
▁ڕاگەیاندنی	-8.61759
چی	-8.61809
ellip	-8.62048
ووە	-8.62135
رێت	-8.62175
▁نین	-8.62202
▁جیاوازی	-8.62267
▁لەکاتی	-8.62311
▁ڕاست	-8.62614
▁خوێن	-8.6272
▁ئاماژە	-8.62752
▁ئیتر	-8.62769
▁خەڵاتی	-8.62836
▁بازرگانی	-8.62893
▁پاشان	-8.62921
▁چەک	-8.63016
▁هونەر	-8.63047
▁بەرژەوەندی	-8.63535
▁دارایی	-8.63692
▁دایک	-8.63766
▁شەو	-8.63843
شە	-8.64049
▁ڕو	-8.64087
▁بەڕێز	-8.64215
▁مالکی	-8.64257
▁هۆکاری	-8.64311
▁دەتوانێت	-8.64314
▁شار	-8.64357
▁دەبن	-8.64593
گە	-8.64614
یەی	-8.64954
▁ڕابردوودا	-8.65032
▁فیستیڤاڵی	-8.65076
▁ناکات	-8.65151
ال	-8.65459
▁تاڵەبانی	-8.65876
▁دەستەی	-8.65881
▁بەریتانیا	-8.6611
▁ق	-8.66167
▁زانستی	-8.6646
▁لێرەدا	-8.66798
▁سیاسەت	-8.66819
▁ژمارە	-8.67084
▁ناوبراو	-8.67147
▁=	-8.67255
وان	-8.67704
▁کۆمەڵگا	-8.67782
▁ڕۆژنامەی	-8.68015
▁مەکتەبی	-8.68078
d	-8.683
▁ڕۆژانە	-8.68348
▁لەژێر	-8.68636
▁دڵ	-8.69009
ەت	-8.69279
▁شوێن	-8.69286
▁سنووری	-8.69321
▁وەزیران	-8.69581
▁پێک	-8.69718
▁کردوە	-8.69728
کرا	-8.69775
▁خودی	-8.69792
.	-8.70021
▁عێراقدا	-8.70041
▁کردنەوەی	-8.70044
▁نیشان	-8.70155
▁دۆلار	-8.70194
▁ئێستاش	-8.70201
▁ئەمنی	-8.70234
▁عە	-8.70294
▁نەتەوە	-8.70321
▁میسر	-8.70484
▁کەسی	-8.70657
ئە	-8.70718
▁پیاو	-8.70748
▁هاوپەیمانی	-8.71097
▁دو	-8.71167
▁ڕاگەیاندن	-8.71432
▁ڕۆشنبیری	-8.71512
▁ناوچە	-8.71548
▁ڕێگە	-8.71705
▁دێ	-8.71942
▁تازە	-8.72109
▁مانگ	-8.7213
پێ	-8.72219
▁عوسمان	-8.72326
▁نووسەر	-8.72338
▁ناکرێت	-8.72416
▁کۆمپانیای	-8.72557
رێ	-8.7265
▁27	-8.72743
▁بەرپرسی	-8.72767
▁ڕەش	-8.72842
ەیە	-8.72926
▁تو	-8.73056
▁هاو	-8.73222
▁گەڵ	-8.73277
▁یەکەمی	-8.73305
▁ساز	-8.73378
▁سەرکردایەتی	-8.7344
▁لەدوای	-8.7359
کەر	-8.73705
نگ	-8.73771
▁هێنا	-8.7378
▁تاکو	-8.7382
تەوە	-8.73886
ّ	-8.73899
ایە	-8.7393
یەت	-8.7402
▁چارەسەری	-8.74092
▁قادر	-8.74258
▁مەترسی	-8.74283
▁ئەندام	-8.74286
▁باری	-8.74308
▁کۆمەڵگای	-8.74495
ات	-8.74499
▁کێشە	-8.74528
▁لایەنی	-8.74639
کۆ	-8.74726
▁پرسی	-8.74776
رە	-8.74942
▁زیاد	-8.75016
▁28	-8.75098
▁تۆپی	-8.75122
▁26	-8.75189
▁کۆن	-8.75298
▁دان	-8.75429
▁ئی	-8.75474
▁شۆڕش	-8.75625
▁ئاسایش	-8.75655
▁خەبات	-8.75694
▁ئۆپۆزسیۆن	-8.75718
▁بەرهەمی	-8.75763
▁دنیا	-8.75779
▁لەبەردەم	-8.75836
▁دهۆک	-8.7584
▁باشتر	-8.75858
▁بەعس	-8.75994
▁مالیکی	-8.76102
▁ڕوون	-8.76171
y	-8.76176
▁تۆمار	-8.76301
▁بەردەم	-8.76536
▁پێکهێنانی	-8.76546
▁کاروباری	-8.76605
▁پرسیار	-8.76741
▁ئەرکی	-8.76762
▁بەرنامەی	-8.76764
دەکات	-8.76791
سە	-8.76866
▁ئاسایی	-8.77274
▁شێخ	-8.77347
▁دەم	-8.77388
▁هەن	-8.77765
_	-8.78007
▁ساڵە	-8.78046
▁تەمەن	-8.78061
▁بەتایبەت	-8.78151
▁چالاکی	-8.7824
▁بەوە	-8.78335
اوی	-8.78489
▁نیە	-8.78641
▁جێگەی	-8.78856
▁جارێکی	-8.78871
▁بودجەی	-8.78872
▁پڕۆژەی	-8.78914
▁دەکاتەوە	-8.78961
▁پلەی	-8.79154
له	-8.79276
ستی	-8.79282
▁بەوەی	-8.79305
ور	-8.7936
▁کۆبانی	-8.7944
با	-8.79498
ییە	-8.79663
▁دەرەوە	-8.79999
▁لەنێو	-8.80075
▁خوارەوە	-8.80251
▁هاوبەش	-8.80281
▁بۆئەوەی	-8.80442
▁بکەم	-8.80513
اری	-8.80582
▁بەهێز	-8.80851
▁کاتژمێر	-8.80871
▁مستەفا	-8.81003
▁ساڵح	-8.81292
▁بدرێت	-8.81347
▁مێژوو	-8.8156
فی	-8.81592
▁ڕێک	-8.81855
▁2007	-8.82023
▁هەروەک	-8.82035
▁بێگومان	-8.82069
▁کارێکی	-8.82287
▁ئەمانە	-8.82395
▁ئابوری	-8.82468
"،	-8.82778
بۆ	-8.82792
▁هەڵبژاردەی	-8.82816
▁بۆچی	-8.82838
ەکانمان	-8.82963
▁جوان	-8.82981
▁شاعیر	-8.83073
▁گۆرانی	-8.83379
▁کارە	-8.83388
▁حوسێن	-8.83712
▁کۆمەڵ	-8.8375
▁بریندار	-8.83789
▁یەکتر	-8.83934
جی	-8.84056
▁نمایش	-8.84069
▁گیانی	-8.84118
▁پر	-8.84152
▁شتێکی	-8.84445
▁بەمەبەستی	-8.84481
شیان	-8.84531
▁لەساڵی	-8.84612
▁عومەر	-8.84693
▁نوێنەران	-8.85089
▁کورسی	-8.85291
▁نووسین	-8.85354
▁دەتوانن	-8.85446
▁مەسەلەی	-8.85491
▁مو	-8.85516
▁کۆی	-8.85582
▁کۆمەڵگەی	-8.85805
▁ئیسرائیل	-8.86308
▁شێوەیەک	-8.86386
▁دەربارەی	-8.86397
▁بنەمای	-8.86413
▁ئاگادار	-8.86516
▁29	-8.86699
▁چاودێری	-8.867
ڕا	-8.8675
▁بەختیار	-8.86923
▁دەزگای	-8.86941
▁حکوومەتی	-8.87021
▁سەرەتای	-8.87022
▁قە	-8.87205
▁مەحمود	-8.87232
▁com	-8.87298
▁خێزان	-8.87369
▁«	-8.87541
▁بابەتی	-8.87665
▁جەماوەری	-8.87704
▁چارەسەرکردنی	-8.87709
▁هەبووە	-8.87781
▁گشتیی	-8.87822
ییەوە	-8.87942
▁سیستەمی	-8.87996
▁دووبارە	-8.88073
غ	-8.88119
▁هونەرمەند	-8.88181
▁سەردەمی	-8.88267
▁تیرۆر	-8.88337
▁ڕۆژێک	-8.88621
▁شێعر	-8.88662
▁تاک	-8.8868
ێکە	-8.88904
اوە	-8.88907
جە	-8.89005
▁فەرمی	-8.89186
▁بزووتنەوەی	-8.89216
▁زانکۆی	-8.89256
▁نوری	-8.89372
▁مافەکانی	-8.89399
اتی	-8.89431
▁تاران	-8.89774
▁دەچێت	-8.89782
▁گە	-8.89789
▁ئەنجامدانی	-8.89916
▁نیشتمانیی	-8.90016
▁ز	-8.90046
▁موسڵ	-8.90207
▁نەوتی	-8.90292
▁بەرچاو	-8.90425
ێتەوە	-8.90478
▁نوێنەری	-8.90644
▁یارمەتی	-8.90649
▁بەرپرسانی	-8.90661
یانە	-8.9068
▁هەرچەندە	-8.90681
▁بیست	-8.90711
▁ئەڵمانیا	-8.90729
▁تی	-8.90809
ەکەم	-8.90829
▁هێز	-8.90869
▁دینار	-8.90934
ایەتی	-8.90971
ەکانیش	-8.91031
▁تووشی	-8.91036
تۆ	-8.91047
▁کردو	-8.91073
▁ئامانج	-8.91096
▁نێت	-8.91147
مەوە	-8.91159
▁ڕازی	-8.9126
ێنێت	-8.91586
▁نەبووە	-8.91587
کراوە	-8.91605
▁ببێتە	-8.91745
▁ماڵی	-8.91757
▁نی	-8.91965
▁خۆشەویستی	-8.92138
زا	-8.92358
▁ئەوەندە	-8.92366
▁پێکەوە	-8.92387
▁برا	-8.92402
▁لەماوەی	-8.92514
▁تریش	-8.92583
‮	-8.92608
▁_	-8.92797
▁سەیر	-8.92881
▁ڕە	-8.93167
▁شێوەیەکی	-8.93525
▁وێنەی	-8.93683
▁ج	-8.93867
▁هاووڵاتی	-8.93884
ڤ	-8.94009
▁‬	-8.94012
▁سەرەتا	-8.94084
یەکەی	-8.94192
▁بڕی	-8.94587
▁خوێندن	-8.94675
▁هێرش	-8.94741
▁ئەوەشی	-8.94761
لێ	-8.94874
▁پارێزگاری	-8.94996
▁کردبوو	-8.95056
▁دەس	-8.95084
▁گومان	-8.95099
▁جۆرێک	-8.95109
▁گەندەڵی	-8.95265
▁خۆت	-8.95331
▁دابەش	-8.95429
▁ئێمه	-8.95512
▁کەسایەتی	-8.9555
▁جێبەجێکردنی	-8.95796
▁داواکاری	-8.95861
▁ئازار	-8.95995
▁سەرکەوتنی	-8.96079
داری	-8.96268
ستان	-8.96527
▁دامەزراندنی	-8.96543
▁توندوتیژی	-8.96611
▁دادگای	-8.96742
ول	-8.96943
▁دابین	-8.96962
▁بین	-8.97022
▁کا	-8.97288
▁ئاراستەی	-8.97297
▁ڕی	-8.97557
▁لەهەموو	-8.97891
▁پڕۆژە	-8.98007
▁تاوەکو	-8.98023
▁بەکارهێنانی	-8.98152
▁هەڵەبجە	-8.9818
▁پاک	-8.98185
ەوەو	-8.98301
▁ما	-8.98357
▁ڕۆژئاوا	-8.98606
▁شە	-8.98883
▁زیندانی	-8.98956
ینەوە	-8.99107
▁ڕێز	-8.99165
▁شەش	-8.99205
▁گرت	-8.99337
پی	-8.99381
▁کۆبوونەوەی	-8.99389
یار	-8.99472
▁چاک	-8.99479
گا	-8.99481
▁هەیەو	-8.99495
▁تائێستا	-8.99572
▁درێژ	-8.99722
▁نەخۆشی	-8.99726
▁تەمەنی	-8.99786
▁سیاسییەکان	-8.99852
▁ئۆ	-8.99859
▁کۆمەڵەی	-8.99871
▁کەسێکی	-8.99886
▁لەکاتێکدا	-8.99987
▁گرنگە	-8.99987
گی	-8.99988
▁شەممە	-9.00011
▁هەمو	-9.00162
اڵ	-9.00342
انەدا	-9.00411
ئەو	-9.00463
▁شەهیدان	-9.00485
▁بزوتنەوەی	-9.00515
▁پێیان	-9.00601
ەر	-9.00635
▁هەرگیز	-9.0064
ینی	-9.00677
▁ئایینی	-9.00693
▁شا	-9.00983
ڕوو	-9.01028
▁نەبوونی	-9.01193
▁ڕاستەوخۆ	-9.01207
▁عەبدوڵڵا	-9.01272
▁سەد	-9.01277
▁بکاتەوە	-9.01288
ناس	-9.01348
▁خو	-9.01357
کات	-9.01464
▁لەلایەکی	-9.01506
کەم	-9.01583
▁ڕزگار	-9.01626
▁مەبەست	-9.01638
▁دەستوور	-9.01645
▁شێوەی	-9.01803
▁هەڵوێستی	-9.01951
گۆ	-9.01961
▁جەنگ	-9.02055
▁مادەی	-9.02149
▁ئافرەت	-9.02223
▁بارودۆخی	-9.0225
انەش	-9.02504
رو	-9.02522
▁خراپ	-9.02724
▁ڕێگا	-9.02956
▁کۆمەڵگە	-9.02957
▁گۆڕینی	-9.03073
▁زە	-9.03195
▁فیدراڵ	-9.03297
▁ماف	-9.03303
کراو	-9.0359
▁قسەی	-9.03701
▁سروشتی	-9.03811
▁سێیەم	-9.03856
▁تێک	-9.03865
▁هەواڵ	-9.03918
▁ڕەخنە	-9.03988
▁ئەمساڵ	-9.04016
▁سو	-9.04049
▁دەدرێت	-9.04132
▁لی	-9.04226
▁ڕەوشی	-9.04325
▁ئەڵڵا	-9.04421
▁خاڵی	-9.04458
▁خەباتی	-9.04505
دو	-9.04645
▁وەڵامی	-9.04673
تەر	-9.04738
▁کەواتە	-9.04756
▁ئەوانیش	-9.04807
▁جە	-9.05002
▁گشت	-9.05086
▁جەنگی	-9.05108
▁دار	-9.05122
▁پەیامنێری	-9.05184
یانەی	-9.05186
اندا	-9.05192
شت	-9.05329
▁دادگا	-9.05351
▁کەریم	-9.05369
ەکەمان	-9.05446
▁ئۆباما	-9.0551
▁زوو	-9.05524
▁زانکۆ	-9.05529
▁کەمتر	-9.05571
▁لەوانە	-9.05653
بین	-9.05741
وت	-9.05748
ئا	-9.0588
▁07	-9.06033
▁ئەنجوومەنی	-9.06041
▁ئەمەریکی	-9.06051
▁هەل	-9.06104
▁پەنا	-9.06132
یس	-9.06138
▁شێوەیە	-9.06152
قی	-9.06183
▁ئاوی	-9.06252
▁پی	-9.06712
قە	-9.06806
▁کۆمار	-9.06844
▁خۆشی	-9.06848
▁گوێ	-9.06907
▁31	-9.07039
▁کەمال	-9.07194
▁مانای	-9.07224
▁لێک	-9.07397
▁باڵا	-9.07441
▁ەوە	-9.07469
▁سایتی	-9.07518
▁ئاوێنەنیوز	-9.0762
▁سپی	-9.07658
▁دیکەش	-9.07678
اد	-9.07785
▁پشتگیری	-9.07787
▁وەرگرتنی	-9.07802
▁باوەڕ	-9.08049
▁ڕۆژنامەنووس	-9.08297
▁خواست	-9.08329
▁منداڵان	-9.08339
▁وای	-9.08383
▁هەفتەی	-9.0839
▁چاوی	-9.08395
▁ناچار	-9.0847
▁دەستگیر	-9.08594
▁کۆنگرەی	-9.08678
▁کوشتنی	-9.08746
▁شارە	-9.08815
بووە	-9.091
▁بهێنێت	-9.09214
▁ترس	-9.09281
▁ناوخۆ	-9.0938
▁09	-9.09418
▁بینی	-9.09511
▁کی	-9.09547
▁دووەمی	-9.09708
▁ـ	-9.09711
▁سەرکەوتوو	-9.0972
▁بەرانبەر	-9.09764
▁بار	-9.09781
▁سوید	-9.09865
▁کارکردن	-9.09879
▁پێشمەرگەی	-9.10083
بون	-9.10479
t	-9.10512
▁ئیدی	-9.10531
▁پێوە	-9.10854
▁ناوخۆی	-9.10873
گەر	-9.10903
کردنەوە	-9.10909
▁خ	-9.11016
▁ئاینی	-9.11078
▁ئیبراهیم	-9.1108
▁دیکه	-9.11258
▁ڕۆژئاوای	-9.11382
▁ڕێکخراوە	-9.116
▁بابەتە	-9.11642
▁بڕیارە	-9.1175
▁کەسانی	-9.1186
ڕۆ	-9.11999
▁دەرهێنانی	-9.12008
▁دەبێتەوە	-9.12023
▁لەوێ	-9.1206
▁شێوازی	-9.12116
▁ئەدەبی	-9.12247
▁ئارام	-9.1229
▁سووریا	-9.12317
▁جەماوەر	-9.12646
▁گفتوگۆ	-9.12889
▁فە	-9.12921
گیر	-9.12978
▁جۆری	-9.13003
▁کام	-9.1315
▁سەرچاوەی	-9.13246
▁دەزگا	-9.13294
▁پیرۆز	-9.13299
▁چونکه	-9.13333
▁هەیه	-9.13362
▁ڕۆ	-9.13479
▁پێغەمبەر	-9.13549
▁یەکگرتووەکان	-9.13648
▁جوانی	-9.13911
▁گوڵ	-9.14038
ها	-9.142
▁ملیار	-9.14269
▁01	-9.14357
▁دایە	-9.14396
▁وشەی	-9.14587
▁تورک	-9.14613
▁پێم	-9.14616
یل	-9.14647
▁50	-9.14659
▁هاوڵاتیان	-9.14678
▁بەدی	-9.14764
▁بەرەی	-9.14771
▁ژمارەیەکی	-9.14881
▁خۆپیشاندان	-9.14974
▁دەگرێت	-9.15187
لۆ	-9.15227
▁ڕاپەڕین	-9.15227
▁تاکە	-9.15321
▁تێدایە	-9.15385
▁سەربەخۆ	-9.15387
▁08	-9.15509
▁ماوە	-9.1561
▁مەسعود	-9.15678
ەکانەوە	-9.15714
▁دەستووری	-9.15834
▁یەکەمین	-9.15931
▁دەستنیشان	-9.15973
▁سەرکەوتن	-9.15978
ایی	-9.16022
▁نیشتیمانی	-9.16039
▁بەجێ	-9.16118
▁ئاوێنە	-9.16153
▁بەڕێوە	-9.16451
▁مرۆڤایەتی	-9.16603
▁ناوچەکانی	-9.1665
▁دەنگدان	-9.16666
▁لێکۆڵینەوە	-9.16734
▁باشووری	-9.16757
داو	-9.16796
▁گۆڕانکاری	-9.16879
▁خودا	-9.16953
▁لەبەرامبەر	-9.16972
▁مرۆڤی	-9.17046
▁وەر	-9.17058
▁خاکی	-9.17196
▁04	-9.17259
▁ئایین	-9.17262
▁گونجاو	-9.17277
ران	-9.17352
دەکەن	-9.17454
▁ئامانجی	-9.1752
▁کارەکانی	-9.17596
▁02	-9.17602
▁03	-9.17676
▁تیرۆریستی	-9.17682
▁پۆستی	-9.17792
▁یەکێکە	-9.17829
▁نیشتمان	-9.17865
▁بگرن	-9.17907
▁حاجی	-9.17914
▁ڤی	-9.1793
▁گوێرەی	-9.18014
▁باوک	-9.18066
▁06	-9.18083
▁ها	-9.18157
تێ	-9.18264
▁هەرچی	-9.18307
▁ئەمرۆ	-9.18346
▁هەنگاو	-9.18558
فا	-9.18561
▁دەکرێن	-9.18609
▁تەن	-9.18652
▁قوتابی	-9.18721
▁دەسەلات	-9.18769
▁پەروەردە	-9.18831
▁بکە	-9.18874
o	-9.18971
▁شۆڕشی	-9.19255
اندنی	-9.19349
▁سەرچاوە	-9.19378
▁گەورەترین	-9.19537
▁گۆڵ	-9.19587
▁شارەوانی	-9.19645
▁عەزیز	-9.1967
▁05	-9.1967
▁کەوت	-9.19831
▁کارەبا	-9.19859
▁فەرەنسا	-9.19923
اند	-9.20086
بکرێت	-9.20128
▁مایەی	-9.20169
ئی	-9.2036
سا	-9.20435
▁منیش	-9.20546
▁لەپێناو	-9.20592
▁هەریەک	-9.20597
▁گروپی	-9.20664
بکات	-9.20749
وون	-9.2075
ڕە	-9.20862
▁بەشدار	-9.20903
▁بەدوای	-9.20958
a	-9.20987
▁وەڵام	-9.20998
ئ	-9.20998
ته	-9.21024
▁پێشوازی	-9.21115
▁سکرتێری	-9.21169
وس	-9.21238
▁چەکی	-9.21274
▁کردووەو	-9.21292
▁بون	-9.21389
▁بارەی	-9.21479
ام	-9.21612
▁واتا	-9.2163
▁قەزای	-9.21703
▁باشە	-9.21799
کر	-9.21926
▁سینەمایی	-9.2197
▁حەمە	-9.2197
اندن	-9.22011
▁سەربەخۆی	-9.22074
▁نەتەوەی	-9.22234
دەم	-9.22331
i	-9.22379
▁سەدان	-9.22701
▁خزمەت	-9.22708
▁سەرنج	-9.22871
▁گیان	-9.23058
▁حە	-9.23097
▁پەیوەندییەکانی	-9.23103
راو	-9.23126
▁دەتوانین	-9.23136
▁خوێندنی	-9.23152
▁کۆمەڵی	-9.23289
▁خوای	-9.23354
▁ئیدارەی	-9.23402
▁شت	-9.23422
▁لەڕێگەی	-9.23437
عە	-9.23483
▁بگرێت	-9.2354
▁ڕەنگ	-9.23599
(	-9.2361
ڕی	-9.23685
▁کان	-9.23717
▁دەستیان	-9.23729
▁وەها	-9.23778
▁ئاسمانی	-9.23797
▁توند	-9.23847
▁سوور	-9.23903
▁بۆتە	-9.23924
▁لەشاری	-9.23953
▁لاواز	-9.24061
ڵە	-9.24079
▁ڕاستە	-9.24173
یەکە	-9.24327
▁چوارچێوەی	-9.24401
دۆ	-9.2442
▁چەپ	-9.24486
▁هەستی	-9.24567
ەکەش	-9.24668
▁کاتێکدا	-9.24782
▁سا	-9.24807
▁ناتوانێت	-9.24897
▁بەس	-9.24938
▁لەهەر	-9.24939
▁جێگای	-9.2495
▁پە	-9.25099
▁سوود	-9.2512
دوو	-9.25333
▁نیو	-9.25447
▁پارە	-9.2545
درا	-9.2546
▁هێزێکی	-9.25485
▁زۆرینەی	-9.25508
وانی	-9.25562
▁لەگەل	-9.25594
▁لەڕووی	-9.25647
▁گەشت	-9.2566
به	-9.25709
▁چۆنیەتی	-9.25722
▁کورت	-9.25771
▁ئاوا	-9.25798
▁لایەک	-9.2581
▁بەگشتی	-9.25823
▁ئەمریکی	-9.25866
b	-9.26007
▁دەبوو	-9.26091
▁سزا	-9.26112
▁الم	-9.26251
▁ژی	-9.26338
▁لێرە	-9.26385
▁هەموومان	-9.26433
▁هێناوە	-9.26548
هەڵ	-9.26594
▁سەدەی	-9.26598
▁سیستمی	-9.26804
▁کتێب	-9.26842
▁پەر	-9.26863
▁برد	-9.26873
▁بەرپرس	-9.26973
▁باران	-9.27041
▁چاوەڕوانی	-9.27084
ێنن	-9.27243
▁سەربەخۆیی	-9.2729
گای	-9.27354
▁ئێمەش	-9.2744
▁یەکگرتوو	-9.27651
▁بکەنەوە	-9.27726
▁ڕەخنەی	-9.27737
▁سەعید	-9.27754
▁140	-9.27801
▁کردووه	-9.27805
▁پەکەکە	-9.27808
▁کر	-9.27846
▁شی	-9.27912
▁بدەین	-9.27954
وم	-9.27988
ینە	-9.28033
▁تاوانبار	-9.28069
▁کەسانەی	-9.28072
▁کەوا	-9.28129
رێن	-9.2817
بار	-9.2834
بکەن	-9.28378
▁حەز	-9.28464
▁شارەکە	-9.28476
▁دەزانن	-9.28538
▁بەردەوامی	-9.28569
▁کاندید	-9.2861
▁ئەوانە	-9.28677
▁بەش	-9.28759
یاندا	-9.2878
▁سەرەڕای	-9.2879
▁)-	-9.28803
▁ئەن	-9.28899
▁کراون	-9.28999
▁پاڵ	-9.29039
ند	-9.29138
▁تۆمەتبار	-9.2917
ژی	-9.29178
▁بووم	-9.29184
▁نرخی	-9.29216
▁دڵی	-9.29217
▁بەداخەوە	-9.29311
▁تاوان	-9.29408
▁40	-9.29445
عی	-9.29452
▁نهێنی	-9.29465
▁کانی	-9.29526
▁کاریگەریی	-9.29724
▁کوشتن	-9.29776
▁دەبینین	-9.29818
▁پێناو	-9.29846
c	-9.29903
کێ	-9.30071
▁دەریا	-9.30099
ڤان	-9.30122
▁ناکۆکی	-9.3015
▁خوێندنەوەی	-9.30321
از	-9.30395
▁پێشووی	-9.30403
اب	-9.30462
▁هیوا	-9.30524
▁هەینی	-9.30573
▁ئاین	-9.30599
▁یارییەکانی	-9.30614
▁ناوەڕاست	-9.30696
▁ستراتیژی	-9.30743
▁بیری	-9.31002
▁مەزن	-9.3107
▁کێشەکان	-9.31204
▁سەیری	-9.31206
▁دین	-9.31269
▁نەکرد	-9.3127
کو	-9.31328
▁نۆ	-9.31347
▁شیعە	-9.31365
▁سزای	-9.31415
کردەوە	-9.315
▁سوپاسی	-9.31534
▁فیلم	-9.31535
▁شارۆچکەی	-9.31587
تو	-9.3167
▁شانۆ	-9.31671
▁تەرخان	-9.31707
r	-9.31723
▁مێژوویی	-9.31844
▁ئامادەیی	-9.31882
ووی	-9.31892
▁ئینگلیزی	-9.31957
▁بچووک	-9.3197
▁دەگەڕێتەوە	-9.31973
ەم	-9.32004
ێز	-9.32047
هێنانی	-9.32155
▁ئێرانی	-9.32209
▁گۆ	-9.32224
▁کۆبانێ	-9.32351
▁ڕوسیا	-9.32494
خان	-9.3254
ێل	-9.32605
▁ڕەسمی	-9.32721
▁کەلە	-9.32739
ێش	-9.32799
▁مان	-9.32857
▁جی	-9.32868
▁هتد	-9.32892
▁هێندە	-9.32897
نەوەی	-9.33029
▁وڵاتەکەی	-9.33122
▁وێنە	-9.33208
▁نێونەتەوەیی	-9.33307
▁درا	-9.3333
▁گەیشت	-9.33361
▁سەدام	-9.33367
▁ڕەوانەی	-9.33393
▁هاتنی	-9.33428
▁ئەدەب	-9.3348
ar	-9.33509
▁کارو	-9.33667
▁نەخۆش	-9.33668
▁بڵێین	-9.33738
▁پار	-9.33861
▁فراوان	-9.33862
▁دەزانێت	-9.33889
ێنێ	-9.33987
خۆ	-9.34207
▁دنیای	-9.3426
▁خزمەتی	-9.34269
▁لەکوردستان	-9.34294
▁چوو	-9.3433
▁بکرێن	-9.34439
▁بڕوا	-9.34489
▁هەردوولا	-9.34557
▁ر	-9.3458
▁باوکی	-9.34615
▁داهاتوودا	-9.34666
یر	-9.34711
▁کرێکار	-9.34788
▁www	-9.34788
▁پەسەند	-9.34803
▁بوە	-9.34889
▁دەقی	-9.34907
▁گەرم	-9.34953
▁خۆیەوە	-9.34961
▁چییە	-9.34977
▁ماددەی	-9.35118
▁ئارامی	-9.35288
خواز	-9.35377
▁دڵنیا	-9.35464
ۆس	-9.35546
▁پەیدا	-9.3556
▁خەم	-9.35571
▁پێشوو	-9.35572
▁100	-9.35611
▁شێعری	-9.35688
▁تەنها	-9.35723
▁بەڕێوەبەرایەتی	-9.35755
▁ص	-9.35796
▁تێکەڵ	-9.358
وار	-9.35843
▁ولات	-9.35862
▁کەرکووک	-9.35957
▁سنوری	-9.36022
▁گەیشتن	-9.36225
بوونەوەی	-9.36231
▁زانست	-9.36254
▁پایتەختی	-9.36323
▁دور	-9.3654
کانیان	-9.36582
▁لێدوانێکی	-9.36607
▁هاوبەشی	-9.36675
▁کورتە	-9.36691
ڵا	-9.36749
یشدا	-9.36782
▁ساڵێک	-9.36841
▁کوردستانیش	-9.36845
▁کتێبی	-9.36873
▁وەزارەت	-9.36948
▁ببێت	-9.37095
▁زیان	-9.37192
▁بۆیه	-9.37337
▁شەر	-9.37341
جا	-9.37457
ەیەکی	-9.37556
▁ڕەت	-9.37558
▁باشی	-9.37573
▁حەوت	-9.37621
▁زۆرێک	-9.3767
▁گۆران	-9.37693
▁کۆمەڵە	-9.3775
▁فۆتۆ	-9.3776
▁کەرتی	-9.37902
ئەم	-9.37996
یشی	-9.38007
▁ئەبێت	-9.38034
بونی	-9.38066
▁دەروونی	-9.38143
▁58	-9.38153
ڵی	-9.38163
ص	-9.38166
▁خاک	-9.38174
ط	-9.38327
▁هەڵبژاردنەکان	-9.38357
▁پێگەی	-9.38358
چە	-9.38424
ییەکانی	-9.3844
ڤی	-9.38835
u	-9.38838
▁هەزاران	-9.38862
دەست	-9.38915
▁ئەمر	-9.3893
▁باشوور	-9.38974
▁ئەسەد	-9.38986
▁ئاست	-9.39005
▁هێڵی	-9.39009
ەکەیدا	-9.39014
▁بەناو	-9.39068
▁دانانی	-9.39154
یەو	-9.39301
▁هەڵوێست	-9.39468
▁دراوە	-9.39561
▁ڕووبەڕووی	-9.39657
▁پا	-9.39781
زانی	-9.39785
▁کۆمپانیا	-9.3979
▁ئاب	-9.39902
▁ئەوه	-9.39981
شەوە	-9.40049
▁لەهەرێمی	-9.40124
▁0	-9.40233
▁هاوڕێ	-9.40262
▁نەکردووە	-9.40392
ۆن	-9.40414
هەم	-9.40466
▁یاریزان	-9.40473
▁سەید	-9.40556
جار	-9.40573
▁ڕێکخراو	-9.40579
▁ماڵپەڕی	-9.40652
▁لێپرسراوی	-9.40787
▁درێژەی	-9.40801
▁ئەزموونی	-9.40854
کری	-9.40925
▁ئەنجامدا	-9.40945
▁ئاگر	-9.40981
▁کوڕی	-9.41005
▁بەیانی	-9.41093
▁کێشەکانی	-9.41101
▁ژنانی	-9.41101
پەر	-9.41216
▁دەیهەوێت	-9.41241
▁لەبەرئەوەی	-9.41266
▁سینەمای	-9.4128
▁شانۆی	-9.41402
▁لەئێستادا	-9.41469
▁دوژمن	-9.41506
▁ناکەن	-9.41525
نێ	-9.41531
هات	-9.41548
▁یش	-9.41613
▁بوونە	-9.41647
دەکرێت	-9.41664
▁بازاڕ	-9.41721
▁خەریکی	-9.41791
دەی	-9.41946
▁چینی	-9.42068
▁کراو	-9.42113
ڕو	-9.42281
شا	-9.42348
▁بەڵێن	-9.42358
▁مین	-9.42382
▁خە	-9.42441
▁هێرشی	-9.42523
▁ئێ	-9.42549
▁مێ	-9.42593
▁دەتوانیت	-9.42689
▁کردووەتەوە	-9.42788
▁هەڵە	-9.42812
▁پەروەردەی	-9.42817
▁هەشت	-9.42819
زان	-9.42866
یاری	-9.43138
n	-9.43173
▁قبوڵ	-9.43215
▁پارەی	-9.43311
▁کاتێ	-9.43379
▁ڕزگاری	-9.4339
▁نییەو	-9.4349
حە	-9.43545
▁فەرماندەی	-9.43682
▁ئێستادا	-9.43707
▁گرتووە	-9.43716
▁پرسە	-9.43836
▁مردن	-9.43905
▁ماوەیەکی	-9.43931
▁دەرکەوت	-9.4399
▁کەلار	-9.44014
▁هۆ	-9.44133
▁شتی	-9.4416
▁ئەکتەر	-9.44166
▁یەکگرتووەکانی	-9.44202
▁تاوانی	-9.44362
▁نەکراوە	-9.44375
▁بم	-9.44398
ێر	-9.44431
▁کەسە	-9.44603
▁هەموویان	-9.44687
روو	-9.4472
▁وتیشی	-9.4473
▁گەنج	-9.44749
▁لۆ	-9.4475
▁دەدا	-9.44877
پە	-9.44964
▁زیندوو	-9.45097
▁تورکی	-9.45309
ژن	-9.45318
▁دیموکراتی	-9.4534
▁موحەممەد	-9.45422
▁لاوان	-9.45441
▁تشرینی	-9.45488
▁هیوای	-9.45538
کەوت	-9.45612
بوونەوە	-9.45717
▁پەیوەندیی	-9.45819
▁دەکەوێتە	-9.45881
چاو	-9.45955
▁ئەرک	-9.45964
▁پلان	-9.45988
سێ	-9.46049
▁نو	-9.46079
▁خۆر	-9.46113
▁بەرپرسیار	-9.46276
▁جارێک	-9.46304
▁خانەقین	-9.46354
▁ئاگاداری	-9.46373
▁مۆر	-9.46412
▁خزمەتگوزاری	-9.46477
▁سەنتەری	-9.46505
▁ڕاستەقینە	-9.46591
▁نەبوون	-9.46824
▁چاکسازی	-9.46943
▁داهاتووی	-9.46988
▁دەوڵەمەند	-9.4706
▁هەڵدە	-9.47075
▁کەناڵی	-9.47081
▁نوێنەرایەتی	-9.47134
▁خوێنەر	-9.47149
▁بڵێم	-9.47241
ەبەر	-9.47291
▁حزبە	-9.47311
▁گوندی	-9.47438
گر	-9.47565
▁یادی	-9.47574
▁هەژار	-9.47582
▁دانا	-9.47669
▁پزیشکی	-9.47676
یک	-9.47898
an	-9.47927
▁زانی	-9.47927
▁پێویسته	-9.48
▁بگرە	-9.48055
کرن	-9.48108
▁چالاک	-9.48144
▁میانەی	-9.48208
گری	-9.48248
▁سەرباز	-9.48277
نۆ	-9.48317
▁ویست	-9.48344
▁ئەگەرچی	-9.48354
▁گرفت	-9.48374
▁فا	-9.48384
▁پاڵپشتی	-9.48463
▁سەرچاوەیەک	-9.48541
▁ڕاپۆرتی	-9.4857
▁گوتەبێژی	-9.4858
▁هەڤاڵ	-9.48736
▁ڕیزبەندی	-9.48742
▁جیهاندا	-9.48762
▁سەردەشت	-9.48765
▁نووسینی	-9.48839
▁چاپ	-9.48883
▁پلە	-9.49004
درێت	-9.49006
▁کۆنگرە	-9.49012
▁ڕاشیگەیاند	-9.49058
▁کاروان	-9.49152
اس	-9.49191
▁ڵ	-9.4922
▁ئار	-9.49231
▁ڕۆژە	-9.49351
▁کوێ	-9.4936
▁ئافرەتان	-9.49395
▁ناوە	-9.49414
مەر	-9.49421
ۆک	-9.4951
▁دەق	-9.49602
▁لەلای	-9.49624
▁لەخۆ	-9.4969
رس	-9.49717
در	-9.49762
گەڕ	-9.49791
▁بکرێ	-9.49863
▁حکوومەت	-9.49869
▁لەبیر	-9.49912
گرتن	-9.50005
▁بەسەردا	-9.50021
▁قەیرانی	-9.50057
▁فرە	-9.50058
▁تیا	-9.50185
▁هو	-9.50209
▁دەزانین	-9.50247
▁دۆخی	-9.50257
▁خورماتوو	-9.50301
▁لەبواری	-9.50363
▁چەکداری	-9.50389
▁نەکات	-9.50405
▁ئیسپانیا	-9.50423
▁بڕ	-9.50484
▁خۆیەتی	-9.50571
▁مانەوەی	-9.50673
▁سەری	-9.50792
▁دەرهێنەر	-9.50799
▁فەلسەفە	-9.50832
▁ڕۆشنبیر	-9.51024
▁بنکەی	-9.51115
▁ئاسان	-9.51169
پا	-9.51263
▁مەدرید	-9.51269
▁دێتە	-9.51401
▁فر	-9.51418
▁وەزیر	-9.51491
▁سیاسییەکانی	-9.51497
▁جێگیر	-9.5164
▁ئومێد	-9.51648
▁جۆر	-9.5165
▁خەون	-9.51745
▁پیاوان	-9.5177
هەر	-9.51846
▁ناوەند	-9.51898
▁دانە	-9.5192
یزم	-9.51925
▁کۆمەلایەتی	-9.5193
▁نەوشیروان	-9.51933
شمان	-9.51936
▁ئێراق	-9.51971
▁پێدا	-9.51993
▁http	-9.52216
کردنە	-9.52241
▁گەورەیە	-9.52343
▁چاوپێکەوتن	-9.52396
▁ڕۆژنامەوانی	-9.52446
▁دابەشکردنی	-9.52544
▁هێنانی	-9.52611
▁هۆڵی	-9.52622
▁کابینەی	-9.52633
کەش	-9.52711
کەن	-9.52712
گۆڕ	-9.52751
▁ئەس	-9.5279
▁جاران	-9.52816
▁کران	-9.52852
▁پۆست	-9.52866
▁تیپی	-9.52906
▁بیانی	-9.52939
▁میدیا	-9.52941
▁پەیوەست	-9.52954
▁ئینجا	-9.5303
▁توانا	-9.53034
▁ئەزموون	-9.53184
▁منداڵی	-9.53185
▁سوپا	-9.53265
▁هەڵبژاردنەکانی	-9.53276
▁ڕەزامەندی	-9.53295
▁دەکەوێت	-9.53296
دین	-9.53348
فە	-9.53433
▁شکست	-9.5347
ڕێ	-9.53523
▁دژایەتی	-9.53525
سان	-9.53528
▁سبەی	-9.5355
ماڵ	-9.53579
▁بکەیت	-9.53583
▁بەشە	-9.53623
▁پارت	-9.53698
▁هاووڵاتیان	-9.53718
ڕۆژ	-9.5381
▁بهێنن	-9.5382
لو	-9.53878
▁پێمان	-9.5398
▁بریتی	-9.54049
▁پێشکەوتن	-9.54118
▁فەرهەنگی	-9.54157
▁پێچەوانەی	-9.54208
ویست	-9.54224
شار	-9.54227
▁خانوو	-9.54254
▁گەلەکەمان	-9.54254
▁وڵاته	-9.54324
▁پێشبینی	-9.54364
▁نوسەر	-9.54403
▁چیرۆک	-9.54413
▁درێژە	-9.54417
بەست	-9.54582
خۆی	-9.54595
▁زیندان	-9.54638
▁بەڕێوەچوو	-9.54662
▁پیر	-9.54675
▁خەو	-9.54678
▁ململانێی	-9.54742
▁خواردن	-9.54842
اڵی	-9.54905
ەکەت	-9.54926
▁وێڕای	-9.54944
▁زۆرترین	-9.54967
▁2003	-9.55077
▁ڕژێم	-9.5527
▁شەقام	-9.55301
▁بووەو	-9.55302
▁مەرج	-9.55319
▁کاریگەر	-9.55442
▁علیە	-9.55533
▁بەجۆرێک	-9.55543
▁جەنابی	-9.55561
▁نەماوە	-9.55573
مار	-9.55574
توو	-9.55638
▁گو	-9.55727
▁ناڕەزایی	-9.55738
▁ناتوانن	-9.55772
▁تێبینی	-9.55811
▁عەبدول	-9.55836
▁بەها	-9.55874
▁فیستیڤاڵ	-9.55894
▁حیزبە	-9.55977
ووت	-9.55991
▁ڕاپۆرت	-9.56083
▁لەندەن	-9.56086
▁شوبات	-9.56183
▁گەڕانەوەی	-9.56312
▁پارتە	-9.56362
▁دەهێنێت	-9.56372
ماندا	-9.56451
▁بەراورد	-9.56563
▁ئیش	-9.56564
▁بتوانن	-9.56574
▁لەکار	-9.56655
▁حوکم	-9.5669
شم	-9.56702
▁کوڕ	-9.56751
دەن	-9.56812
دەدات	-9.56822
▁بیرکردنەوە	-9.56867
p	-9.56919
▁مامەڵە	-9.56948
▁عەبدوڵا	-9.56995
▁ئەکات	-9.57027
▁خەیاڵ	-9.57035
▁بتوانێت	-9.57073
▁لێژنەی	-9.57163
دێ	-9.57183
▁هاتنە	-9.57184
چوو	-9.57217
▁خوێندکار	-9.57302
▁ڕەوتی	-9.57355
▁سۆ	-9.57408
▁گ	-9.57495
▁پارچە	-9.57516
یشیان	-9.57533
▁چاپکردن	-9.57572
▁قورس	-9.57621
▁دواجار	-9.57701
▁هەنگاوی	-9.57808
al	-9.57825
وری	-9.57848
▁دەوێت	-9.57848
نووس	-9.57857
▁دەستور	-9.57861
▁پشتی	-9.57978
▁نەخۆشخانەی	-9.58023
▁خست	-9.58133
ێم	-9.58155
▁فەرمان	-9.58185
▁ساڵانی	-9.58208
▁قورئان	-9.5821
▁یەکسانی	-9.58211
▁دەبات	-9.58325
▁مەرگ	-9.58405
مین	-9.58459
▁بکرێتەوە	-9.58479
▁سەوز	-9.58482
▁کچ	-9.58537
▁بەیەک	-9.58544
▁سامان	-9.58701
▁درۆ	-9.5871
▁نابێ	-9.58759
▁حوکمی	-9.58761
▁ساڵەی	-9.58768
▁سەرچاوەیەکی	-9.58825
▁کەمی	-9.58836
▁کۆڕ	-9.58842
▁کچە	-9.5904
▁یاریی	-9.59074
▁شارستانی	-9.59103
▁ماوەیەک	-9.5917
▁زۆرجار	-9.59208
▁زانا	-9.59271
▁دانی	-9.59307
▁میوانداری	-9.5936
▁ئێوارەی	-9.59401
▁بێدەنگ	-9.59437
▁دۆزینەوەی	-9.59572
▁ڕێکخستنی	-9.59671
▁شەوی	-9.59838
▁خستە	-9.59909
▁دەوروبەری	-9.59945
▁پرس	-9.59956
▁مافە	-9.59992
▁کەسانە	-9.60268
▁کاتدا	-9.60271
فر	-9.60281
▁لەعیراق	-9.60388
▁موزیکی	-9.60421
▁باو	-9.6044
▁پاڵەوانێتی	-9.60448
▁لایەنەکان	-9.60521
گرت	-9.60609
وز	-9.60625
▁ئیسماعیل	-9.60664
er	-9.60681
▁واقیع	-9.60686
ەکانم	-9.60752
وەو	-9.60779
▁×	-9.60781
▁نەورۆز	-9.60808
سو	-9.6094
▁سەردەم	-9.60983
وەتەوە	-9.61046
▁دەرەکی	-9.61089
انەوەی	-9.6109
▁پێکرد	-9.61145
en	-9.61189
▁بەردەوامە	-9.61246
▁ست	-9.6127
▁دابینکردنی	-9.61331
▁چەکدارانی	-9.61341
k	-9.61422
▁بەڵێ	-9.61448
▁ئین	-9.61463
کس	-9.61517
▁جامی	-9.61522
▁ڕۆحی	-9.61609
▁دوایی	-9.61617
▁هەروا	-9.61624
▁بەرنامە	-9.61638
▁دەخاتە	-9.61683
▁گەنجان	-9.61747
▁مامۆستای	-9.61793
▁داگیر	-9.61956
▁ئێستای	-9.62105
▁بەهیچ	-9.62164
نێت	-9.62189
▁نیگەرانی	-9.62198
▁ئاخر	-9.62215
▁لەوەش	-9.62238
▁دایکی	-9.62273
▁کوردو	-9.62293
فرۆش	-9.62329
▁فیلمه	-9.6233
▁سینەما	-9.62379
▁داهاتی	-9.62424
▁کۆبوونەوە	-9.62447
▁بەهەمان	-9.6252
▁فێر	-9.6255
▁ئامادەی	-9.62558
▁سەدر	-9.62573
▁دانیشتوانی	-9.62689
▁گرووپ	-9.62691
▁سور	-9.62792
▁لایەنەکانی	-9.62804
▁ئاهەنگ	-9.62846
▁پتر	-9.62877
▁هاوڵاتی	-9.62918
▁مەجید	-9.62968
ناو	-9.62982
▁لەوانەیە	-9.63055
▁00	-9.6307
▁هەڕەشەی	-9.63101
▁باسە	-9.63169
▁جو	-9.63181
پەڕ	-9.63224
▁B	-9.63237
▁مرۆیی	-9.63248
▁کوردە	-9.63352
ەکەوە	-9.63481
▁فوئاد	-9.63492
▁کۆچی	-9.6354
▁35	-9.63543
▁نازانم	-9.6355
▁عیراق	-9.63578
ود	-9.63633
نوس	-9.63686
▁إ	-9.6369
▁بونی	-9.63907
▁دادوەری	-9.63929
▁بابەت	-9.63937
نج	-9.63977
▁پیرۆزبایی	-9.63984
انەیە	-9.64082
▁گۆل	-9.64122
▁سەعات	-9.64134
▁ئایندەی	-9.64247
نامەی	-9.64295
▁سوننە	-9.64311
▁پیشەسازی	-9.64404
▁ئاژەڵ	-9.64433
▁قا	-9.64605
▁وتەی	-9.64658
ترە	-9.64832
▁پرسیارە	-9.64851
▁گفتوگۆی	-9.64863
▁دەکەنەوە	-9.64872
▁ڕۆژنامەنوس	-9.64894
▁بنەڕەتی	-9.64976
▁شارەکانی	-9.65012
▁نەوەی	-9.65026
▁بەرجەستە	-9.6503
▁سادە	-9.65068
▁چیتر	-9.65124
بڕ	-9.65135
رین	-9.65139
▁چەکدار	-9.65154
ەیەک	-9.65172
▁ئاسۆ	-9.65177
یز	-9.65241
▁خوشک	-9.65243
▁نان	-9.65251
▁ئەر	-9.65391
▁نێچیرڤان	-9.65408
▁بەرهەمهێنانی	-9.65446
▁کوردەکان	-9.6547
▁سۆران	-9.65493
هاو	-9.65532
▁بچوک	-9.65554
▁گەشە	-9.65602
▁ڕاو	-9.65632
دەبێت	-9.6565
خۆش	-9.65702
▁لەسەرەتای	-9.65796
▁گوند	-9.65843
▁ئاسمان	-9.65858
▁گروپە	-9.6586
▁لایەنێک	-9.65862
▁دیموکراسی	-9.65949
▁پرسیاری	-9.66017
▁برینداربوون	-9.6605
▁خۆپیشاندەران	-9.66088
مەن	-9.66124
▁کارگێڕی	-9.66167
▁P	-9.66168
گەری	-9.66178
▁وەرزشی	-9.66202
▁سەرمایەداری	-9.66318
پێش	-9.66343
▁ئینسان	-9.66359
▁شان	-9.6637
▁قەڵەم	-9.66429
بات	-9.66448
▁ڕۆژانی	-9.66561
▁ئەردۆغان	-9.66568
▁متمانە	-9.66573
▁بووه	-9.66574
▁کور	-9.66612
▁گوتم	-9.6662
سن	-9.66635
▁ڕۆژنامە	-9.66706
▁بریار	-9.66757
▁پێدانی	-9.66774
▁بەدەر	-9.66849
▁چیرۆکی	-9.66883
@	-9.66905
▁دامەزراوە	-9.66924
▁جەستەی	-9.6694
▁ڕێی	-9.66949
▁ئەندامێکی	-9.67004
▁پێکهاتەی	-9.67016
ێڵ	-9.671
▁شوێنە	-9.67133
▁صلی	-9.67153
▁بودجە	-9.67169
چوون	-9.672
▁سەرکەوت	-9.67259
l	-9.67305
▁کەسوکاری	-9.67321
▁وەبەرهێنان	-9.67373
ەکەشی	-9.674
▁دەرمان	-9.67592
▁لەدژی	-9.67607
▁پێشەوە	-9.67675
کردۆتەوە	-9.67725
▁جەعفەر	-9.67784
▁یاریگای	-9.67982
▁گۆڤاری	-9.68053
▁ئاشنا	-9.6812
▁دیاریکراو	-9.68178
▁جەمال	-9.68239
لەم	-9.68243
قا	-9.68319
▁شانازی	-9.6837
▁مار	-9.68391
راوە	-9.68394
▁بەلای	-9.68436
ث	-9.68482
▁ئاسیا	-9.68523
▁ئابووریی	-9.68546
▁مرۆڤەکان	-9.68605
▁ناوخۆیی	-9.68639
▁ترەوە	-9.68653
▁دژە	-9.6867
▁پێشکەوتوو	-9.68707
حی	-9.68859
▁کچان	-9.68872
سم	-9.689
▁درووست	-9.69032
▁بەگوێرەی	-9.69046
▁ئازادیی	-9.69049
▁ئەفغانستان	-9.6907
▁تێگەیشتن	-9.69115
▁پایتەخت	-9.69121
▁خۆشەویست	-9.69137
▁چە	-9.6915
▁ئەکەن	-9.69191
▁سارد	-9.69218
▁ڕێکخراوەکانی	-9.69222
ً	-9.69232
▁کوردستانەوە	-9.69288
▁گرێ	-9.69326
▁واز	-9.69343
▁وەرزی	-9.6937
m	-9.6945
▁ئەڤ	-9.69468
▁زی	-9.69505
▁لەپێش	-9.6954
▁بنەما	-9.69556
▁89	-9.69568
▁کاتە	-9.69574
▁دەن	-9.6959
▁کشتوکاڵ	-9.69641
▁بنەماڵەی	-9.69674
▁ڕووسیا	-9.69737
▁سیروان	-9.69828
▁بریتییە	-9.69928
▁فشار	-9.69995
▁ئ	-9.70024
▁کرێکاران	-9.70126
▁کاوە	-9.70167
▁45	-9.70181
▁بەشار	-9.70215
▁جەخت	-9.70251
▁لقی	-9.703
وڵات	-9.70324
أ	-9.70437
خا	-9.70456
▁خوێنی	-9.70468
▁گرێبەست	-9.70487
ەکا	-9.70509
▁ناحیەی	-9.70646
▁گەلانی	-9.70688
▁ڕۆژهەڵات	-9.70776
ۆڵ	-9.70797
▁سەرکردە	-9.7086
▁ئەڵمانی	-9.70862
▁بلاو	-9.70888
▁می	-9.71165
▁پێداویستی	-9.71174
▁A	-9.71188
▁شاخ	-9.71277
▁هاتە	-9.7129
▁لێرەوە	-9.71311
▁ڕەگەز	-9.71317
گرتنی	-9.71322
▁لایەکی	-9.71341
▁بەرپرسیارێتی	-9.71425
▁سر	-9.715
▁داهات	-9.71597
▁هێمن	-9.71624
▁ڕەنگی	-9.71646
▁کردبێت	-9.7167
گێڕ	-9.71672
▁ئەمین	-9.71681
▁خراپی	-9.71684
▁پلانی	-9.71697
▁2006	-9.71711
ذ	-9.71803
▁ژینگە	-9.71855
ەتە	-9.71892
▁پێشنیاز	-9.719
▁گرتن	-9.71911
▁هەڕەشە	-9.71924
▁دەسەڵاتە	-9.71978
▁ئۆتۆمبێل	-9.71994
▁ئێرە	-9.71994
ۆری	-9.71997
▁مانگە	-9.72033
▁وسلم	-9.72034
▁شوێنێک	-9.72115
▁زاڵ	-9.72119
▁ڕەفتار	-9.72127
▁بیت	-9.72258
▁ئیرادەی	-9.72276
▁گەلێک	-9.72284
▁وەرزش	-9.72288
ستە	-9.72304
▁S	-9.72466
اک	-9.725
▁کارەبای	-9.72509
▁دەیانهەوێت	-9.72514
مای	-9.72602
▁لەبەغدا	-9.72606
یکی	-9.72624
کردوە	-9.72628
▁میدیای	-9.72666
▁دێن	-9.72733
▁لەمەوبەر	-9.72746
وەر	-9.72826
ۆنی	-9.72845
▁کشتوکاڵی	-9.72862
▁گوایە	-9.72875
▁هاوکاریی	-9.72919
▁ڕاستەقینەی	-9.72965
▁خۆراک	-9.72987
▁سەرەوە	-9.73003
ض	-9.73054
▁خۆتان	-9.73093
▁ئیسپانی	-9.73154
▁بارەیەوە	-9.73156
▁بەهەموو	-9.73159
▁ئەوکات	-9.73255
وک	-9.73422
▁وێران	-9.73455
▁مل	-9.73477
▁گا	-9.73596
▁لاو	-9.73643
▁دەزگاکانی	-9.73673
▁تیرۆریستان	-9.73676
▁خاتوو	-9.73688
▁خێرا	-9.73756
ۆم	-9.73868
ێکیان	-9.73977
رۆژ	-9.74115
▁خالید	-9.74196
ڕێژ	-9.74224
بردنی	-9.74229
▁حکومی	-9.74261
▁دۆسیەی	-9.74289
▁کردەوه	-9.74302
▁ئەیلول	-9.74337
▁سەرپەرشتی	-9.74383
▁پیاوە	-9.74387
or	-9.7439
▁کۆکردنەوەی	-9.74438
یەدا	-9.74451
ادی	-9.74487
▁دەگاتە	-9.74521
▁دیکەوە	-9.74542
▁دۆست	-9.74655
▁ڕق	-9.74702
اج	-9.74734
▁نارد	-9.7474
▁هۆکار	-9.74809
یەوه	-9.74821
کاندا	-9.74849
▁E	-9.74858
g	-9.74872
▁D	-9.74888
▁دزی	-9.74897
▁گووتی	-9.74976
دێر	-9.75011
▁گواستنەوەی	-9.75125
▁حەق	-9.7517
▁ناوداری	-9.75189
▁ڕوونیکردەوە	-9.75213
▁لەچوارچێوەی	-9.75289
▁فەرمانی	-9.75341
▁کاتەی	-9.75431
▁بانگەشەی	-9.75449
الی	-9.7554
▁داب	-9.75558
▁شوێنێکی	-9.75653
▁ئەوەندەی	-9.7568
▁بەمەش	-9.75729
▁باشوری	-9.75739
پر	-9.75757
▁دیسان	-9.75829
▁ناونیشانی	-9.75847
▁یەکسان	-9.75888
▁ئیتالیا	-9.75911
▁بووین	-9.75992
ڤێ	-9.76002
▁دانیشتن	-9.7603
▁سەخت	-9.76108
▁نەکەن	-9.7613
▁میللی	-9.76144
▁ناسراو	-9.76166
▁سیاسیەکان	-9.76171
▁میوان	-9.762
▁تێکست	-9.76231
▁هەمووان	-9.76271
▁دەکەیت	-9.76298
▁بایەخ	-9.76315
لان	-9.76357
▁ڕەزا	-9.76394
ید	-9.76462
کەیان	-9.7649
▁ڕۆمان	-9.76564
▁پێشنیار	-9.76565
▁هونەرمەندی	-9.76648
▁پارێزگا	-9.7668
▁سەرو	-9.76717
▁کوشت	-9.76724
▁بۆنەی	-9.76739
▁حزبی	-9.76845
▁بەڵگە	-9.76895
▁دەبینێت	-9.76962
▁خستەڕوو	-9.77004
▁ڕۆڵ	-9.77042
یەکدا	-9.77054
▁وشە	-9.77177
خانەی	-9.77342
کوژ	-9.77393
▁چوون	-9.77566
مۆ	-9.77624
هر	-9.77629
کێش	-9.77681
من	-9.77816
▁هێزه	-9.77925
▁پابەند	-9.77948
▁بەشداریی	-9.77974
▁سیاسییە	-9.78008
▁ڕێککەوتن	-9.78102
▁جەستە	-9.78106
▁پیلان	-9.78118
بکەین	-9.78122
▁کارەسات	-9.78137
▁غ	-9.78159
▁داد	-9.78212
▁چارەنووسی	-9.78266
▁یەکتری	-9.7828
▁خێزانی	-9.78326
ڕەو	-9.78332
داوە	-9.78367
▁قوتابخانە	-9.78396
▁لەچەند	-9.78416
ڤا	-9.78437
▁بەریتانی	-9.78449
▁بەدەستهێنانی	-9.78484
▁ڕێنمایی	-9.7849
▁دەبین	-9.78617
▁سنوور	-9.78648
▁پەیوەندییە	-9.78686
بیر	-9.78753
▁لەدایک	-9.78757
▁چڕ	-9.78807
▁ناوچانە	-9.78831
▁سلێمان	-9.78841
▁جەختی	-9.78925
▁دەرگای	-9.78929
▁حاکم	-9.78972
▁هۆشیاری	-9.78982
▁باڵیۆزی	-9.78993
▁دەوری	-9.78994
▁وەرگرت	-9.79035
لای	-9.79097
خت	-9.79129
▁بڕوای	-9.79153
▁گیانیان	-9.7922
▁لەدەست	-9.7927
▁مانا	-9.79356
خە	-9.79368
▁لەگەڵدا	-9.79388
▁در	-9.794
▁پارێزگاکان	-9.79401
▁پەنابەران	-9.79449
▁شیعر	-9.7951
کەدا	-9.79528
▁بوار	-9.79551
▁فەرمانبەر	-9.79589
▁سەرقاڵی	-9.79599
▁قەرز	-9.79625
0	-9.79631
ەوێت	-9.79691
▁ناوەکی	-9.79695
▁گرفتی	-9.79776
▁مۆدێرن	-9.79807
▁دەردەکەوێت	-9.79829
▁چوارەم	-9.7986
▁ڕوونی	-9.79899
▁دەڵێم	-9.79899
▁ڕێکخستن	-9.79935
▁وەکوو	-9.79935
▁هەماهەنگی	-9.7995
▁ڕاوێژکاری	-9.79967
▁زیانی	-9.80069
▁وەلی	-9.80075
▁بەرێز	-9.80132
▁بکوژ	-9.80189
▁هاوڵاتیانی	-9.80215
▁ڕاگرتنی	-9.80219
▁کردە	-9.80317
ۆل	-9.80342
▁کرایەوە	-9.80378
▁پەرلەمانتار	-9.80379
▁کوردیش	-9.80515
▁پڕۆژەکە	-9.80529
▁باکوور	-9.80548
▁فەرەنسی	-9.80552
▁تابلۆی	-9.80564
زم	-9.80607
▁میللەت	-9.80619
▁بیان	-9.80622
▁فەر	-9.80634
▁دەسەلاتی	-9.80647
▁ڕاستییە	-9.80663
▁میراودەلی	-9.80673
▁مەشق	-9.80698
▁ئاڕاستەی	-9.80734
▁دەکرا	-9.80811
▁جۆراوجۆر	-9.80834
ەیان	-9.80844
▁هەڵگری	-9.80877
▁کەمکردنەوەی	-9.8088
▁پەراوێز	-9.80924
▁ڕیال	-9.80989
▁ئو	-9.81013
دەکاتەوە	-9.81022
▁دەدەین	-9.81035
▁باکووری	-9.81088
▁دانیشتنی	-9.81104
خو	-9.81119
▁شاندی	-9.81126
▁تەمموز	-9.81126
in	-9.81127
بینی	-9.81167
▁لوبنان	-9.81173
بری	-9.81192
▁زاخۆ	-9.81231
بان	-9.81246
▁ڕەمەزان	-9.81263
▁هێندەی	-9.81267
▁شەڕە	-9.81339
▁دام	-9.81349
▁حیزبەکان	-9.8141
▁نەکرێت	-9.81421
▁موسڵمان	-9.81448
▁واقیعی	-9.8156
▁مارکس	-9.81629
▁دواتریش	-9.81717
▁مووچە	-9.81724
▁ڕووداوەکانی	-9.81752
▁دینی	-9.81807
▁ستەم	-9.81814
▁بۆچوونی	-9.81894
▁بەڕاستی	-9.8193
▁گۆڕ	-9.81996
▁p	-9.82001
بەندی	-9.82118
▁تردا	-9.82142
▁خۆیاندا	-9.82178
▁کۆمیتەی	-9.82182
آ	-9.82232
▁ئاڵۆز	-9.82252
▁گەرمیانی	-9.82256
▁گەڕانەوە	-9.82269
▁زیرەک	-9.8227
:"	-9.82341
▁بچێت	-9.82439
▁شانۆگەری	-9.82477
▁لیبیا	-9.82739
▁نرخ	-9.82827
▁لەمەڕ	-9.82877
▁دۆخە	-9.82999
▁ئامادەبوونی	-9.83111
▁ئیم	-9.83115
تن	-9.8314
کراون	-9.83206
▁ڕەشید	-9.83245
▁://	-9.83286
ڤە	-9.83295
▁کەمێک	-9.8331
ئاژانسی	-9.83337
▁گەیاند	-9.83385
▁حوزەیران	-9.83439
ؤ	-9.83486
ێکەوە	-9.83487
▁بری	-9.83514
▁هاوکار	-9.83564
▁متمانەی	-9.83664
ۆر	-9.83693
▁فراکسیۆنی	-9.83705
▁دۆ	-9.8371
▁دروستبوونی	-9.83711
▁کوژران	-9.8376
▁ڤێ	-9.8376
▁نەمر	-9.83836
▁زۆرتر	-9.83844
توانی	-9.83963
▁هەوڵەکانی	-9.83986
▁C	-9.84003
▁نادیار	-9.84054
نه	-9.84066
▁دەژین	-9.84094
▁موزیک	-9.84173
▁ه	-9.84176
▁بۆچوون	-9.84181
ووه	-9.84193
▁لێکۆڵینەوەی	-9.84229
▁داهێنان	-9.84291
▁زیاتری	-9.84387
▁ورد	-9.84398
▁مەبەستە	-9.84472
یەکاندا	-9.84531
رەی	-9.84611
▁ئەنجومەن	-9.84617
▁یاد	-9.84627
▁پاکستان	-9.84643
▁شوان	-9.84662
▁میر	-9.84703
▁کوژراون	-9.84845
▁وتار	-9.84883
▁60	-9.84902
▁ئاشکرای	-9.84926
رد	-9.84934
▁جۆ	-9.84958
▁ناڕەزایەتی	-9.84973
▁لەیەک	-9.84992
▁دەچێتە	-9.85003
▁گەورەتر	-9.85035
)،	-9.85056
سکی	-9.85158
▁دوکان	-9.85198
▁دەبنە	-9.8522
سۆن	-9.85245
▁نوسین	-9.85271
▁سەرکردەی	-9.85287
▁2004	-9.85327
▁سروشت	-9.855
▁قسەکردن	-9.8555
▁کێشەو	-9.85559
▁نەتەوه	-9.85595
▁پەرە	-9.85633
▁توشی	-9.85696
▁زمانێکی	-9.85763
h	-9.85887
ۆی	-9.85949
▁ئەوەشدا	-9.86004
▁باکوری	-9.86107
▁لیست	-9.86247
▁خوێندنەوە	-9.86257
▁نەبن	-9.86294
▁بزانن	-9.86337
▁کۆر	-9.86347
▁بەتەواوی	-9.86409
▁قۆناغە	-9.86432
▁یەکگرتووی	-9.86453
▁تێپەڕ	-9.86479
▁نەدە	-9.86484
▁ئەبو	-9.86488
▁گەڕان	-9.86502
▁دەژی	-9.8655
▁هونەرمەندان	-9.86556
▁دیاردەی	-9.86611
▁ئاماژەیە	-9.86614
▁comment	-9.86621
یتەوە	-9.86669
▁دەبەن	-9.86672
▁پێنجەم	-9.86679
گوت	-9.86709
▁خاڵە	-9.86712
زای	-9.86714
دوای	-9.8672
▁34	-9.86738
▁ململانێ	-9.86764
▁ئەوەیان	-9.86788
▁خۆشحاڵی	-9.86796
▁دەشێت	-9.86807
▁پیشان	-9.86833
▁لێوە	-9.86872
▁مەیدانی	-9.86919
دۆز	-9.87003
▁دیدار	-9.87067
داد	-9.8707
▁لەدەرەوەی	-9.87128
▁جەژنی	-9.87178
▁چاوەڕوان	-9.87238
▁ئۆتۆمبیل	-9.87305
تار	-9.87403
▁ئامادەکاری	-9.87438
▁فەرهەنگ	-9.87442
▁زۆریان	-9.87457
▁لاوانی	-9.87476
▁ئیمزا	-9.87495
▁سەرۆکایەتیی	-9.87565
▁عەشق	-9.87667
▁بەبۆنەی	-9.87682
▁لەمبارەیەوه	-9.87697
▁بڵێن	-9.87701
▁گەیاندنی	-9.87799
▁وەربگرێت	-9.87847
گێر	-9.87883
نەو	-9.87889
▁لێیان	-9.87889
▁دەزانم	-9.87958
▁J	-9.87979
وتی	-9.88147
▁حوکمڕانی	-9.88216
▁مەسیحی	-9.88232
▁وڵاتێکی	-9.88256
خستنی	-9.88271
▁فیلمەکانی	-9.8835
▁ڕێگری	-9.884
▁کۆڵ	-9.88426
▁نووسەری	-9.88499
▁دیوانی	-9.88506
▁زو	-9.88508
▁بەرچاوی	-9.88566
وێ	-9.88607
زەی	-9.88616
▁پەرەپێدانی	-9.88647
▁بەلا	-9.88654
▁کارا	-9.8869
بەخش	-9.88727
▁ڕۆح	-9.88784
▁شو	-9.88834
▁ێ	-9.88835
▁خۆیشی	-9.88835
▁تیایدا	-9.88847
▁دەگرێتەوە	-9.88894
کەس	-9.8893
▁قارەمان	-9.8895
▁ڕۆڵێکی	-9.88953
▁بارەیەوه	-9.88989
کۆڵ	-9.89008
ەکێ	-9.8903
نەر	-9.8909
▁ئۆپۆزیسیۆن	-9.89096
یشەوە	-9.8911
▁بخاتە	-9.89138
▁ڕۆژنامەنووسان	-9.89242
▁لایەنێکی	-9.89326
▁of	-9.89335
▁+	-9.89429
▁وەرگرتووە	-9.89431
▁هەڵبژاردە	-9.89449
▁ئەکتەری	-9.89459
▁کاریان	-9.89481
▁پیش	-9.8953
▁پارێزگاکانی	-9.89551
▁چالاکوانی	-9.89572
▁بزانین	-9.89622
▁پەلە	-9.89654
▁نموونەی	-9.89662
▁ڕەگەزی	-9.8967
مەند	-9.8976
بەش	-9.89784
▁ژنی	-9.89809
▁گەڕەک	-9.89832
▁ئیداری	-9.89844
▁گۆڤار	-9.89942
غە	-9.89949
▁دڵسۆز	-9.89957
▁چوونە	-9.89977
▁ساڵانە	-9.8999
▁بەڵێنی	-9.90056
lick	-9.90069
▁شیر	-9.90111
▁خەرج	-9.90115
▁fb	-9.90124
▁شارەزا	-9.90184
▁بەهاری	-9.90219
▁هاتوچۆ	-9.9022
▁خوار	-9.90223
▁خراپتر	-9.90294
▁لەهەمان	-9.90354
بل	-9.90367
سک	-9.90404
▁مەتر	-9.90439
▁کانونی	-9.90494
▁سەرباری	-9.90494
▁ئێمەی	-9.90504
▁سەنگەر	-9.90517
▁وەرگرتن	-9.90522
▁سەروەری	-9.9054
▁پەیامی	-9.90733
▁قەیران	-9.90803
▁s	-9.90889
▁پیس	-9.90973
▁برایەتی	-9.91027
▁یەکێکیان	-9.91038
پێک	-9.91072
رانی	-9.9109
ارە	-9.91164
▁بریتین	-9.91177
▁ڕەمزی	-9.91189
▁ئاماژه	-9.91269
▁ئای	-9.91311
▁فارس	-9.91362
ساڵ	-9.91495
▁هەوڵدان	-9.91564
ونی	-9.91618
▁تەقینەوەی	-9.91645
▁دەستوری	-9.91772
رێتەوە	-9.91803
▁بەوەدا	-9.91807
▁مامۆستایان	-9.91812
▁ڕاب	-9.91819
▁هاوار	-9.91829
▁کرێکارانی	-9.91895
▁دوایین	-9.91896
▁نووسی	-9.91933
▁ڕووداوە	-9.91947
▁دەگرن	-9.91947
▁2005	-9.9197
فەر	-9.91978
▁باڵ	-9.91981
▁ترسناک	-9.91993
ستا	-9.92029
ەوەیە	-9.92034
▁دەبنەوە	-9.92039
▁هۆڵەندا	-9.92042
▁خود	-9.92048
▁بارەگای	-9.92088
▁وتووێژ	-9.92115
▁ویستی	-9.9213
▁نایات	-9.92312
▁سەفەر	-9.92316
▁سەرنجی	-9.92356
▁کوردایەتی	-9.92358
▁خەڵکە	-9.92371
▁داکۆکی	-9.92383
▁حاڵەتی	-9.92395
▁توندی	-9.92401
تری	-9.92417
▁بازاڕی	-9.92448
زو	-9.92453
▁ئاگا	-9.92514
▁بڵاوکردنەوەی	-9.926
▁دەهێنن	-9.92601
▁هاتن	-9.92614
▁ئیسلامییەکان	-9.92671
▁لەسلێمانی	-9.92676
▁ژنە	-9.9277
▁32	-9.92779
▁سک	-9.92881
▁ڕادە	-9.92894
▁ئاراستە	-9.92911
▁شیرین	-9.92926
▁کۆتای	-9.92977
تۆن	-9.92998
▁هەربۆیە	-9.93021
▁دووپات	-9.93039
▁سەرچاوەکه	-9.93169
▁نەخشە	-9.93184
▁مامەڵەی	-9.93214
▁M	-9.93232
▁توندوتیژیی	-9.93262
▁ژینگەی	-9.93306
کەوتن	-9.93351
بەری	-9.93359
▁ڕیزی	-9.93617
▁گر	-9.93617
▁تورکمان	-9.93634
▁نێر	-9.93661
▁پۆل	-9.93727
دراو	-9.93795
▁هاتوو	-9.93883
▁چەمکی	-9.939
▁ناوچەیەکی	-9.93989
پارێز	-9.94026
▁ئێوارە	-9.94101
▁پاس	-9.94177
▁ئاشکرایە	-9.94191
هێڵ	-9.94211
بەت	-9.94213
▁36	-9.94266
▁دادەنرێت	-9.9429
نس	-9.943
▁ولاتە	-9.94332
▁500	-9.94334
لیا	-9.94377
▁پەیڕەو	-9.94414
▁ئاراوە	-9.94431
▁جدی	-9.9447
2	-9.94491
▁بکەینەوە	-9.94547
▁ئامێر	-9.94556
▁برای	-9.94592
▁سێبەری	-9.94625
اخ	-9.94632
خوازی	-9.94661
▁ئاوات	-9.94685
▁دەسەڵاتدارانی	-9.94753
▁بەرژەوەندیی	-9.94771
▁دیالە	-9.94773
▁دۆلاری	-9.94808
▁ئایەت	-9.94835
▁کورته	-9.94844
▁نیاز	-9.94879
دراوە	-9.94893
▁شیوعی	-9.94938
▁داناوە	-9.94992
دن	-9.95043
▁یاساو	-9.95126
هێنان	-9.95199
▁خەڵات	-9.95249
▁نەژاد	-9.9527
▁گۆر	-9.95308
▁دیاریکردنی	-9.95378
▁کەوتە	-9.95416
▁سامانی	-9.95431
▁دروشم	-9.95486
▁نییه	-9.95606
▁ئەوەتا	-9.95645
▁سەردانەکەی	-9.9568
درێن	-9.95692
▁ماددە	-9.95761
لک	-9.95765
▁قەبارەی	-9.95781
نین	-9.9584
▁جیهاد	-9.9585
▁مەڵبەندی	-9.9591
▁پەلامار	-9.9594
▁بەرازیل	-9.95946
▁دیالۆگ	-9.95959
▁بەهێزی	-9.95963
▁کرن	-9.96055
3	-9.96268
▁ئاکامی	-9.96298
هێن	-9.96322
▁دەگەیەنێت	-9.96336
▁واته	-9.96443
▁وال	-9.96552
▁ڕووداو	-9.96572
▁سەردەمە	-9.96693
▁دەستە	-9.9678
چوونی	-9.96811
▁بەوەش	-9.96837
▁پەیوەندییەکی	-9.96911
▁نادات	-9.96993
عا	-9.97105
▁دێموکرات	-9.97113
▁توانیان	-9.97135
▁هاشمی	-9.97151
▁سەربازیی	-9.97192
▁کۆیلە	-9.97256
▁مووچەی	-9.97272
▁بەڵگەی	-9.9728
▁خول	-9.97287
▁پێناسە	-9.97329
کەری	-9.97383
▁لەسەردەمی	-9.97385
▁پێکهاتەکانی	-9.97412
هێنا	-9.97428
▁F	-9.97449
▁کۆریای	-9.9745
زەر	-9.97527
▁هەمیشەیی	-9.97528
▁شیعەکان	-9.9753
▁ڕاستیدا	-9.97535
on	-9.97565
▁پۆستە	-9.97568
▁نەیتوانی	-9.97579
▁لەهەولێر	-9.97624
▁عەباس	-9.97641
▁هەرە	-9.97656
خۆر	-9.9766
▁قو	-9.97661
▁پرۆژەی	-9.97687
▁بەکوردستانی	-9.97702
▁گران	-9.97748
▁require	-9.97759
▁بڵاوی	-9.9776
▁پیرۆزی	-9.97773
وڵ	-9.97795
بای	-9.97809
▁کادر	-9.97825
▁لاوی	-9.97845
▁دەبیت	-9.97859
▁پێویستیان	-9.9788
▁N	-9.97928
وین	-9.97936
▁ئامادەکردنی	-9.97949
▁فەلسەفی	-9.97957
▁تاهیر	-9.98041
▁بەعسی	-9.98043
انەو	-9.98046
▁سال	-9.98077
▁دووەمین	-9.98097
بردن	-9.981
▁وردە	-9.98198
ده	-9.98199
▁زێڕین	-9.98206
▁کۆمیسیۆنی	-9.98258
▁خواستی	-9.98308
▁بەزۆر	-9.98358
▁لەرێگەی	-9.9846
▁خێر	-9.98508
▁سەرکوت	-9.98577
▁کلی	-9.98589
نامە	-9.98589
▁خولەکە	-9.98599
▁نەدا	-9.98613
▁خان	-9.98632
▁پێشکەوتنی	-9.98731
▁تەماشا	-9.98794
▁بزانێت	-9.9881
▁برین	-9.9883
چو	-9.98851
▁زۆرە	-9.98852
▁سیاسەتە	-9.98866
▁حاڵەت	-9.98868
▁گەیشتە	-9.98889
▁بەشێوەیەک	-9.98923
▁حەم	-9.9899
▁واتای	-9.99016
▁ئینسانی	-9.99022
لاو	-9.99026
▁نمایشی	-9.99029
▁ئەتۆمی	-9.99069
▁یوسف	-9.99092
▁ڕووداوەکان	-9.99096
▁گرووپی	-9.99113
تەق	-9.99128
▁بەدوور	-9.99183
سەل	-9.99263
چێ	-9.99264
بدات	-9.9935
▁ئاخۆ	-9.99379
▁توانیویەتی	-9.99381
▁نەما	-9.99393
▁هاوشێوەی	-9.99405
▁کاکە	-9.99485
▁ئەف	-9.99543
▁H	-9.9955
▁جەژن	-9.99551
▁بووەتە	-9.99582
▁سنور	-9.99657
▁تاوتوێ	-9.99711
▁تەق	-9.99728
▁بەشێوەی	-9.99731
گیری	-9.99761
بونەوەی	-9.99772
▁ئەهلی	-9.9982
رام	-9.99878
▁بەرمیل	-9.9988
نەوه	-9.99886
▁قوتابیان	-9.99892
▁ئاماده	-9.99946
گار	-10.0004
▁ئال	-10.0007
▁دابوو	-10.0021
بڕیار	-10.0022
▁بارودۆخە	-10.0022
▁مردنی	-10.003
▁دێرین	-10.0032
▁هەڵبژارد	-10.0033
▁دەگوترێت	-10.0038
وەری	-10.0039
▁کوردان	-10.0039
▁گەورەو	-10.0042
▁بەفر	-10.0042
▁بێدەنگی	-10.0043
▁یاسایە	-10.0043
ناسی	-10.0043
▁تیرۆریست	-10.0045
▁95	-10.0049
▁هزری	-10.0051
▁لەمبارەیەوە	-10.0062
▁تاکی	-10.0064
▁200	-10.0065
▁جۆن	-10.0069
________________	-10.007
▁هزر	-10.0071
▁ڕاهێنەری	-10.0077
▁وێنەیەکی	-10.0078
ەڵ	-10.008
▁فیدراڵی	-10.0084
▁فێری	-10.0088
امی	-10.0093
▁ڕۆژنامەنووسی	-10.0095
▁دادە	-10.0097
▁نیشانەی	-10.0097
▁باوەڕی	-10.0104
▁لەبری	-10.0104
▁33	-10.0107
باز	-10.0111
مدا	-10.0113
▁ڕاهێنەر	-10.0113
▁مانگێک	-10.0116
کران	-10.0118
▁الا	-10.0122
▁گەشەی	-10.0133
▁کەسانێک	-10.0135
▁منداڵانی	-10.0138
▁بەرپرسە	-10.014
▁کێشەیەکی	-10.0142
▁بۆیان	-10.0146
رک	-10.0148
▁ئاماژەیه	-10.0149
رای	-10.015
▁بینەر	-10.0151
▁ناشرین	-10.0152
▁کوژراو	-10.0159
▁موراد	-10.016
▁ئەت	-10.0162
▁شایانی	-10.0167
ناوە	-10.017
▁پێشانگای	-10.0173
▁دەگات	-10.0181
▁پێیوایە	-10.0183
▁بەرهەمەکانی	-10.0188
کم	-10.0189
واری	-10.0192
تای	-10.0205
▁هاوسەر	-10.0207
گو	-10.0207
▁ڕووداوی	-10.0212
▁خراپە	-10.0215
▁دراوسێ	-10.0217
▁لەدوو	-10.022
▁وابوو	-10.0225
▁ڕێکەوت	-10.0225
خانە	-10.0226
▁خوێندکاران	-10.0229
▁خەلک	-10.0233
ێنین	-10.0233
▁ئاغا	-10.0236
▁ڕادیۆ	-10.0237
▁جل	-10.0237
وایە	-10.0239
5	-10.0243
▁تکایە	-10.0243
ێوە	-10.0246
گات	-10.0253
نەتەوە	-10.0253
▁نەهێشتنی	-10.0254
1	-10.0254
خی	-10.0256
▁کرێکاری	-10.0259
▁شتەکان	-10.026
لام	-10.0261
ەری	-10.0261
▁بڵێ	-10.0261
▁کون	-10.0262
▁ئایار	-10.0262
▁ناوچەیە	-10.0263
▁کێش	-10.0264
▁فیلمە	-10.0271
باس	-10.0274
▁کتێبە	-10.0276
بەند	-10.0279
کوت	-10.0294
▁چینایەتی	-10.031
ێکیش	-10.0314
لەو	-10.0314
▁پێدە	-10.0316
▁یەکجار	-10.0318
▁سەرەتایی	-10.032
▁پێدەچێت	-10.0331
نت	-10.0337
▁عەقڵ	-10.0349
▁سەرتاسەری	-10.0352
▁گەش	-10.0354
▁کەوتووە	-10.0358
▁کرێ	-10.0368
ویەتی	-10.0368
جێ	-10.0371
▁ڕوانگەی	-10.0373
▁زا	-10.0374
▁داخراو	-10.0374
▁سەقامگیری	-10.0378
▁هاوپەیمانیی	-10.0379
▁الل	-10.0379
▁بەڕێ	-10.038
▁بانگ	-10.038
▁دەرببڕیت	-10.0385
▁گرنگترین	-10.0385
▁ڕادیۆی	-10.0386
▁گەڕ	-10.0387
▁سەندیکای	-10.039
▁مەترسیدار	-10.0396
▁قوتابخانەی	-10.041
▁ڕەوا	-10.0411
▁گاز	-10.0421
▁توێژینەوەی	-10.0421
▁شەرم	-10.0424
▁دیکتاتۆری	-10.043
▁عێراقییەکان	-10.0431
▁ڕۆمانی	-10.0435
▁چارە	-10.0444
باری	-10.0446
▁کەڵک	-10.0446
دڵ	-10.0447
▁کۆنسێرت	-10.0447
یة	-10.0451
▁چووە	-10.0462
▁کۆنفرانسی	-10.0465
▁بەرد	-10.047
▁وزەی	-10.0476
▁مامۆستایانی	-10.0478
▁هەولێری	-10.0479
▁نامۆ	-10.0479
▁دەزانی	-10.0483
▁ئان	-10.0488
▁فۆرم	-10.0492
▁کاتەدا	-10.0494
▁شتە	-10.0503
▁کۆنگرەیەکی	-10.0506
▁لێدوانێکدا	-10.0511
▁1991	-10.0511
▁تێر	-10.0512
▁پێکهاتە	-10.0518
▁ناوچه	-10.0518
▁تیادا	-10.0525
▁سەردان	-10.0526
ڤەر	-10.0527
▁ترسی	-10.0529
▁وەڵامێک	-10.054
▁تەم	-10.0545
▁لەبەرچاو	-10.055
▁دەش	-10.0552
▁ئەخلاقی	-10.0558
▁بوارە	-10.0563
▁بەندە	-10.0563
▁لەلایەک	-10.0566
▁پزیشک	-10.057
▁مەر	-10.0575
▁سوپاس	-10.0578
▁زەرد	-10.0579
▁پرۆ	-10.0583
▁چێژ	-10.0586
▁پەیام	-10.0589
محەمەد	-10.0589
▁عێراقەوە	-10.0593
▁دادپەروەری	-10.0596
▁گەشەپێدانی	-10.0597
هاتوو	-10.0602
▁ڤە	-10.0604
لێر	-10.0607
▁کەئەو	-10.0609
کرنا	-10.061
▁هان	-10.0611
▁داوایان	-10.0613
▁ئامار	-10.0618
▁ڕێبین	-10.062
▁مانەوە	-10.062
انیش	-10.062
▁تیۆری	-10.0621
▁پێست	-10.0624
▁کەشتی	-10.0636
▁کێشەیە	-10.0639
▁سوودی	-10.0639
▁ئەوەبوو	-10.0643
▁ئازاری	-10.0644
▁دەبینن	-10.0645
▁بیروبۆچوونی	-10.0646
کەوتنی	-10.0648
▁دەکرێتەوە	-10.0656
تاو	-10.0657
▁بیرۆکەی	-10.0659
▁شانۆیی	-10.0669
▁ئاڵای	-10.0671
وق	-10.0673
▁خەرجی	-10.0673
▁لەوبارەیەوە	-10.0673
▁باڵی	-10.0676
▁خولەک	-10.068
▁بەڕێوەبردنی	-10.0682
▁هەواڵگری	-10.0684
▁38	-10.0684
▁70	-10.069
تاری	-10.0694
بێتەوە	-10.0695
▁پشکنین	-10.0696
▁فەرمانگەی	-10.0697
کام	-10.0698
▁ژیانێکی	-10.0701
▁ئایندە	-10.0716
▁بینینی	-10.0718
▁بەشداریکردن	-10.0719
▁خزمەتگوزاریی	-10.0721
▁کێشەکە	-10.0722
▁قوڵ	-10.0727
گەیاند	-10.0735
▁ڕایگەیاندووە	-10.0741
▁شێ	-10.0742
▁ئەز	-10.0748
▁بابەتانەی	-10.075
▁پەیکەر	-10.0758
▁نەخشەی	-10.0758
▁بەیەکەوە	-10.0763
گرێت	-10.0763
ژە	-10.0766
▁لو	-10.077
▁چۆڵ	-10.077
▁37	-10.0772
▁نووسینگەی	-10.0776
▁سان	-10.0776
▁چەندە	-10.0778
▁بەرێوەبەری	-10.0781
▁تاوانە	-10.0781
▁تۆپ	-10.0782
▁نووسراوە	-10.0786
▁ناس	-10.0794
▁باخ	-10.0794
▁یەکەمجار	-10.0796
▁خاو	-10.0799
▁تاریک	-10.0801
▁ببن	-10.0807
▁ڕۆشنبیریی	-10.0807
▁جینۆساید	-10.0807
▁پیت	-10.0809
ed	-10.081
▁غەریب	-10.0811
▁ماچ	-10.0812
▁هۆشیار	-10.0812
▁لایەنگرانی	-10.0814
▁فرۆشتنی	-10.0814
▁لەپێناوی	-10.0818
▁جارە	-10.0821
▁بال	-10.0826
▁وشک	-10.0828
am	-10.0829
فت	-10.083
▁فڕۆکە	-10.0831
▁ئاواز	-10.0835
▁پەرست	-10.0836
at	-10.0836
▁بتوانین	-10.0837
▁مردوو	-10.0842
سازی	-10.0842
▁وەفدی	-10.0843
▁سەلام	-10.0847
▁بۆمب	-10.0849
جۆر	-10.0862
▁بنکە	-10.0862
▁قسەکانی	-10.0862
▁حزب	-10.0864
▁یانەکانی	-10.0869
▁قاعیدە	-10.087
▁حەقیقەت	-10.0879
▁دەرهێنەری	-10.0881
برا	-10.0881
▁شەرەف	-10.0881
▁فەلسەفەی	-10.0885
خست	-10.0886
f	-10.0887
▁ماد	-10.0888
جو	-10.0889
▁ئەکادیمی	-10.089
تنی	-10.0896
▁جودا	-10.0899
4	-10.0901
▁تونس	-10.0902
▁ئاڵۆزی	-10.0902
▁قەت	-10.0906
▁نەهات	-10.0912
▁کەوتنە	-10.0913
▁کارکردنی	-10.0915
▁ڕەحمان	-10.0915
▁39	-10.0916
▁شکستی	-10.0917
▁ئەبێ	-10.0917
▁کشانەوەی	-10.0924
▁بەند	-10.0924
▁هەنگاوێکی	-10.0925
▁دەنا	-10.0928
▁پەیمان	-10.0932
▁ئیس	-10.0932
▁گەوره	-10.0935
▁گوتار	-10.0938
▁نەداوە	-10.094
▁هەژاری	-10.0942
مەت	-10.0944
▁عێراقیش	-10.0945
▁خەریکە	-10.0951
▁تەقەمەنی	-10.0951
▁جاری	-10.0954
▁ڕون	-10.0956
بکاتەوە	-10.0957
▁ڕاپرسی	-10.0966
▁ئێن	-10.0966
▁ژوور	-10.097
بڕین	-10.0974
▁سەرکردەکانی	-10.0976
▁دەڕوات	-10.0979
▁ژاپۆن	-10.0981
▁بز	-10.0985
▁لەکەرکوک	-10.0992
▁بەدەستی	-10.0993
▁بناغەی	-10.1
لین	-10.1002
▁کاندیدی	-10.1003
▁جۆره	-10.1003
▁مەی	-10.1003
▁ڕیز	-10.1006
▁ئاستێکی	-10.1007
▁ڕاسپارد	-10.1012
▁دووشەممە	-10.1023
▁مەسەلەیە	-10.1028
▁هاوولاتیان	-10.1031
▁وایه	-10.1033
▁لایەنه	-10.1034
▁ماندوو	-10.1046
▁هێنان	-10.1046
▁دەرکردنی	-10.1047
سر	-10.1052
▁بوارەکانی	-10.1056
▁دەمێنێتەوە	-10.1061
▁دەوڵەتە	-10.1062
▁کردار	-10.1063
j	-10.1066
▁لەبار	-10.1067
▁عا	-10.1068
کەت	-10.1069
▁یێ	-10.1072
▁گۆرانیبێژ	-10.1073
▁ڕێکەوتن	-10.1074
▁}	-10.1076
▁کۆنە	-10.1084
لەی	-10.1086
▁گوزارشت	-10.1092
▁بەهای	-10.1094
▁شێرکۆ	-10.1095
▁پیادە	-10.1099
تانی	-10.11
▁هەنگاوە	-10.1102
▁دەچن	-10.1104
▁ڕۆژنامەوانیدا	-10.1104
▁خرا	-10.1108
▁دز	-10.111
▁{	-10.1111
▁80	-10.1114
▁دەرکرد	-10.1114
خەم	-10.1114
▁ولاتانی	-10.1114
▁بەشەکانی	-10.1114
▁ئێمەدا	-10.1115
▁سەنتەر	-10.1117
▁ئاشکرایکرد	-10.1117
▁دەستکەوت	-10.1123
A	-10.1127
▁سەرچاوەکانی	-10.1129
▁ئەفسەر	-10.113
▁لێدوان	-10.1134
برد	-10.1142
باش	-10.1143
▁سیاسیەکانی	-10.1149
ەها	-10.115
سەی	-10.115
▁بچێتە	-10.115
▁قۆناغ	-10.1153
▁بێکاری	-10.1153
▁بیرو	-10.1154
▁نوێیە	-10.1161
▁هونەرمەندانی	-10.1164
▁بەهەشت	-10.1166
▁نیسان	-10.117
▁یاریزانان	-10.1172
▁تیشک	-10.1176
▁ئاسانی	-10.1178
ەشدا	-10.118
▁ڕیش	-10.118
▁سۆز	-10.1183
رم	-10.1187
▁پێشکەشی	-10.1187
پرس	-10.1192
▁چاوەڕێی	-10.1194
▁ئەمجارە	-10.1195
▁48	-10.1197
▁بالا	-10.1199
▁بژی	-10.12
▁بەڵکوو	-10.1208
▁ناسراوە	-10.1212
گرێ	-10.1213
▁باراک	-10.1213
▁بینیوە	-10.1214
▁سەرمایە	-10.1217
▁ئاستە	-10.1218
▁مەیدان	-10.1219
re	-10.1221
▁مەبەستەش	-10.1221
▁حکوومەتە	-10.1221
▁بڕیاره	-10.1222
ڕاست	-10.1223
▁نیوەی	-10.1223
▁چون	-10.1225
▁ناوچەکەدا	-10.1225
▁پێدەکات	-10.1227
▁تۆمەت	-10.123
▁بەرپا	-10.123
▁داوه	-10.1237
▁دەستگیرکردنی	-10.124
▁ناتوانێ	-10.1243
کۆل	-10.1245
▁کەبە	-10.1253
▁حکومەتەکەی	-10.1262
▁لەکۆتایی	-10.1268
▁نووسراو	-10.127
▁ناسنامەی	-10.127
ەکانت	-10.1279
ییەکەی	-10.1279
▁شاندێکی	-10.1281
▁یاساکە	-10.1282
▁پایە	-10.1282
▁یەکلایی	-10.1288
▁باشترە	-10.1291
▁لەمیانەی	-10.1294
▁هاتوون	-10.1296
زار	-10.1296
▁دادگایی	-10.1298
▁کەسیش	-10.1301
▁دۆزی	-10.1302
▁ئەوروپی	-10.1303
▁چۆمان	-10.1303
▁نیشتەجێبوون	-10.1309
▁مۆ	-10.131
▁کارێک	-10.1318
▁گلەیی	-10.1318
▁موچە	-10.132
بێژ	-10.1321
▁بەنزین	-10.1322
▁لق	-10.1324
▁نیگەران	-10.1325
▁ببنە	-10.1325
▁دیکتاتۆر	-10.1327
▁ئالان	-10.1328
کاو	-10.1328
▁هەڵب	-10.1331
▁دوچاری	-10.1332
▁هەڵمەت	-10.1336
▁نزم	-10.1339
▁بازرگان	-10.134
▁کولتووری	-10.1341
▁جەلەولا	-10.1341
▁سود	-10.1346
خستن	-10.1347
▁تاقی	-10.1357
▁کۆیە	-10.1361
▁هێ	-10.1369
▁زەمان	-10.1372
▁بانکی	-10.1373
▁مزگەوت	-10.1375
▁ڕۆشن	-10.138
▁قەیرانە	-10.1386
▁پاریس	-10.1386
6	-10.1387
مال	-10.1387
▁سێکسی	-10.1388
▁دەرگا	-10.1389
اسی	-10.139
▁هاته	-10.1399
▁هەواڵێکی	-10.14
▁پارێزگار	-10.1405
▁گەڕەکی	-10.1408
▁ڕێگر	-10.1414
▁کردوون	-10.1414
▁بیرکردنەوەی	-10.1416
▁ئەستۆ	-10.1416
▁غە	-10.1421
50	-10.1423
▁خەونی	-10.1425
▁وریا	-10.1426
▁ڕابردو	-10.1429
▁ببینێت	-10.1432
▁ڕوویدا	-10.1433
▁بانگەواز	-10.1436
▁کۆمەک	-10.1436
▁پڕۆژەیە	-10.144
▁بەرپرسێکی	-10.144
▁بێبەش	-10.1441
▁سەلاحەددین	-10.1441
▁لەپشت	-10.1442
پۆ	-10.1443
شەڕ	-10.1443
▁شەممه	-10.1446
▁کۆل	-10.1447
▁بینای	-10.1448
▁سێیەمی	-10.1449
▁سویسرا	-10.145
▁وزە	-10.1464
▁عادل	-10.1471
▁مێشک	-10.1477
▁هەندێکیان	-10.1477
▁دانوستان	-10.1479
▁سەرهەڵدانی	-10.148
▁یەکەی	-10.1487
▁بەئا	-10.1488
شەم	-10.1488
▁هەفتە	-10.1488
▁بووبێت	-10.1494
سەد	-10.1496
دێت	-10.1497
▁کوردانی	-10.1497
▁کارەساتی	-10.1506
▁ڕەسوڵ	-10.1508
▁هەبوونی	-10.151
▁دەرچوو	-10.1518
▁کەر	-10.1519
▁داخوازی	-10.1519
▁ڕوداو	-10.1521
▁ئینتەرنێت	-10.1524
وب	-10.1526
▁پارێزەر	-10.1526
▁بگات	-10.153
▁بان	-10.1535
▁قاسم	-10.1536
زر	-10.1537
▁کوێت	-10.1538
▁لەڕێی	-10.1548
باران	-10.155
▁وەستان	-10.1551
▁هەرێمە	-10.1551
▁بوونەتە	-10.1553
▁هەرچەند	-10.1553
▁لاوازی	-10.1555
کردەوه	-10.1558
▁ئاوارە	-10.156
▁باب	-10.1563
▁داگیرکەر	-10.1565
▁مەن	-10.1569
▁چل	-10.1569
▁هیوادارم	-10.1575
▁شکاو	-10.1575
▁ئەوسا	-10.1579
▁مۆن	-10.1584
▁تیشکی	-10.1588
▁داخ	-10.1588
▁پان	-10.1597
▁گەشتیاری	-10.1597
▁تۆڕی	-10.1601
▁بڕە	-10.1606
▁هاوچەرخ	-10.161
▁لەدەستدا	-10.1625
▁قۆناغێکی	-10.163
▁دەکاتە	-10.1631
کاران	-10.1633
▁نیم	-10.1637
▁موحەمەد	-10.1638
▁هەڵبژاردنە	-10.1642
▁تەماشای	-10.1643
▁ئەرکە	-10.1648
سۆ	-10.1654
▁پەنجا	-10.1656
▁دەستەبەر	-10.1657
▁بنەماڵە	-10.166
▁نەخێر	-10.166
▁بوش	-10.1662
▁نابین	-10.1663
▁نیوز	-10.1664
ەکەو	-10.1665
▁هەناسە	-10.1666
دنی	-10.1673
▁سوکایەتی	-10.1677
▁ئیئتیلافی	-10.168
▁دەسەڵاتدار	-10.168
▁پێوەر	-10.1685
▁هێڵ	-10.1686
▁تۆمارکرا	-10.1689
▁ئیخوان	-10.1689
ەل	-10.1697
▁هێزو	-10.1698
▁هەڵمەتی	-10.1701
حا	-10.1705
▁چوارشەممە	-10.1706
ئۆ	-10.1713
یشە	-10.1713
بیت	-10.1713
تیک	-10.1715
▁گۆڵی	-10.1715
▁بڵێت	-10.1716
کل	-10.1717
▁قوربانیانی	-10.1725
▁سێکس	-10.1726
▁چار	-10.1726
▁سات	-10.1726
▁نەریت	-10.1732
▁سەلماند	-10.1734
▁خەت	-10.1734
▁نامێنێت	-10.1741
کردنیان	-10.1744
▁بێن	-10.1754
▁پەیوەندیدارەکان	-10.1755
▁مەکەن	-10.1757
کراوەتەوە	-10.1761
▁دامەزراندن	-10.1763
▁کارمەند	-10.1764
▁42	-10.1764
▁گەورەکان	-10.1768
لایەن	-10.1775
خوێن	-10.1776
▁بەرزی	-10.1777
▁ڕایدەگەیەنێت	-10.1781
▁ناویان	-10.1781
▁بەهەر	-10.1787
▁یەکی	-10.1787
▁ذ	-10.179
▁دەربڕین	-10.1792
▁ماسی	-10.1793
▁داواکراو	-10.1797
▁ماڵەوە	-10.1798
▁سەما	-10.1799
▁بەپێ	-10.1803
▁وڵاتێک	-10.1811
▁فیکری	-10.1815
▁بخەنە	-10.1823
اف	-10.1824
▁مرۆڤە	-10.1825
▁جیاوازە	-10.1841
▁هاوکێشە	-10.1844
▁ئام	-10.1845
▁دادوەر	-10.1845
دەکەین	-10.1846
بوونە	-10.1847
▁گۆڕی	-10.185
▁ڕێزگرتن	-10.1854
▁ڕانیە	-10.1862
▁کوردیدا	-10.1865
▁بێتە	-10.1871
نام	-10.1872
▁موچەی	-10.1876
▁یەمەن	-10.1885
▁زنجیرە	-10.1889
▁خواردنی	-10.1889
ۆڕ	-10.1892
اڵە	-10.1893
▁درەنگ	-10.1894
▁پیاوانی	-10.1899
▁ڕووداوەکە	-10.1902
▁شەپۆل	-10.1911
▁فارسی	-10.1911
▁ئەوانی	-10.1911
▁کوردییەکان	-10.1912
▁هاتووچۆ	-10.1913
شێو	-10.1919
▁دەشڵێت	-10.192
▁چەمک	-10.1926
▁کەنداو	-10.1926
▁مەزهەبی	-10.1931
▁بازار	-10.1934
دەدەن	-10.1935
▁ناتۆ	-10.1936
▁برادەر	-10.1941
▁سەرژمێری	-10.1943
▁ئیست	-10.1946
▁مۆڵەتی	-10.1954
▁گرینگ	-10.1955
▁ئۆجالان	-10.1955
▁دڵشاد	-10.1957
▁الع	-10.1959
چون	-10.1963
▁مارس	-10.1973
▁تەکنیکی	-10.1975
▁چەمچەماڵ	-10.1977
اندنەوەی	-10.1978
▁بازنەی	-10.198
▁ماوەتەوە	-10.1988
▁43	-10.1991
▁لەڕێگای	-10.1999
گان	-10.2
▁دەردە	-10.2002
▁وەردەگرێت	-10.2005
▁پێموایە	-10.2005
اژ	-10.2009
شن	-10.2016
▁دنیادا	-10.2017
ورد	-10.2021
▁هەڵبەت	-10.2024
▁نمونەی	-10.2025
▁لێکرد	-10.2026
▁سیناریۆ	-10.2028
▁بێجگە	-10.2029
▁یەکەمیان	-10.2033
▁لەپاش	-10.2035
▁ئارەزووی	-10.2036
▁وتاری	-10.2042
▁شەم	-10.2047
تێک	-10.2048
▁خێڵ	-10.2048
مەز	-10.2049
▁بەتاڵ	-10.2054
▁دەتوانرێت	-10.2056
▁بۆتەوە	-10.206
ماڵی	-10.2062
ەندە	-10.2064
▁عەبدولڕەحمان	-10.2065
▁جەبار	-10.2075
▁لەکوردستاندا	-10.2078
▁تاوانەکانی	-10.2079
▁زار	-10.208
▁پێکهاتووە	-10.2082
▁پسپۆڕ	-10.2085
بەن	-10.2092
▁ئەستۆی	-10.2094
عد	-10.2094
▁قەدەغە	-10.2096
کێشان	-10.2101
▁بەوەشدا	-10.2103
▁نەم	-10.2105
▁بڵاودەکرێنەوە	-10.2107
▁سۆسیال	-10.2108
▁کۆبونەوەی	-10.2109
▁شێوەکاری	-10.211
▁ناکەم	-10.2111
▁لەشکری	-10.2114
▁ناتوانین	-10.2119
▁دەرباز	-10.2119
▁کارمەندانی	-10.2119
▁بەکاری	-10.2122
▁نوێنەر	-10.2124
▁ڕێزی	-10.2124
▁بەردەست	-10.2126
▁مەسەلە	-10.2139
▁پێکهات	-10.2143
▁ناخۆش	-10.2151
▁خستنە	-10.2157
▁زمانە	-10.2157
▁بەخۆ	-10.2167
▁شارو	-10.2169
نسی	-10.2173
▁سیاسەتمەدار	-10.2173
▁نەتەوایەتی	-10.2174
▁فەرهاد	-10.218
گۆر	-10.2185
کەمان	-10.2187
▁ڕایانگەیاند	-10.2187
الیزم	-10.2189
▁خەیاڵی	-10.2197
مانە	-10.2198
▁بینا	-10.2198
▁بەئامادەبوونی	-10.2198
▁ڕێککەوتنی	-10.22
▁هاوسەری	-10.2201
▁قایمقامی	-10.2201
▁55	-10.2202
▁لێدە	-10.2207
▁فەرامۆش	-10.2207
8	-10.2208
ژین	-10.221
ارد	-10.2211
▁ئەمڕۆی	-10.2215
▁دەستدرێژی	-10.2217
ازی	-10.2219
ادە	-10.2221
▁وردەکاری	-10.2221
▁هۆڵ	-10.2222
▁گومانی	-10.2224
▁بگاتە	-10.2226
▁کۆچ	-10.2227
بیل	-10.2228
▁تەلەفزیۆنی	-10.2229
▁پۆ	-10.2232
▁41	-10.2241
▁گەندەڵ	-10.2244
اغ	-10.2246
ونەتەوە	-10.2247
▁وڵاتان	-10.2247
▁نامە	-10.2247
▁گۆڕەپانی	-10.2247
پەی	-10.2249
▁دروشمی	-10.225
▁b	-10.2253
ئێستا	-10.2253
لار	-10.2254
▁هۆز	-10.2264
▁هۆکارێک	-10.2264
▁لێدان	-10.2268
▁خەمی	-10.2269
▁وەربگرن	-10.2269
▁کوردستانییەکان	-10.227
مر	-10.2276
رەو	-10.2278
▁ئێستە	-10.2278
▁لێکدانەوەی	-10.228
▁دانراوە	-10.2288
▁کاردانەوەی	-10.2288
▁ئەقڵ	-10.2291
▁سل	-10.2291
رت	-10.2291
▁بایەخی	-10.2296
دەری	-10.2296
▁نەوەک	-10.2297
سیۆن	-10.2297
▁حاڵەتە	-10.23
▁خا	-10.2303
▁دەور	-10.2308
▁ئەمه	-10.2313
مەی	-10.2321
▁سیستەم	-10.2323
▁بەهاوکاری	-10.2326
▁زیادکردنی	-10.2326
▁سعودیە	-10.2329
▁نەخۆشخانە	-10.2331
کورد	-10.2333
▁زێباری	-10.2334
▁ئاش	-10.2336
▁خولەکی	-10.2343
▁ناردنی	-10.2345
هێز	-10.2345
▁پێناوی	-10.2346
▁بەشداریکردنی	-10.2351
یەکیان	-10.2353
▁پەل	-10.2355
yahoo	-10.2356
▁پاڵێوراو	-10.2356
▁پەخش	-10.2359
▁شەقامی	-10.2361
▁دەرفەتی	-10.2362
وەتە	-10.2364
▁واشنتن	-10.2369
▁هاوسەرگیری	-10.2369
▁تەرمی	-10.2374
نەی	-10.2376
▁خەریک	-10.2376
▁بەتەنیا	-10.2379
▁بەرزنجی	-10.2379
وتار	-10.2381
▁دەستخۆشی	-10.2382
▁بمێنێتەوە	-10.2384
▁نوێژ	-10.2393
▁کەمە	-10.2401
ێنەوە	-10.2402
پار	-10.2402
▁نازانێت	-10.2407
▁هەژاند	-10.241
▁هاوین	-10.241
▁بەدەستهێنا	-10.2411
▁بەدرێژایی	-10.2419
▁ژیانیان	-10.2419
سار	-10.2421
▁داواکاریی	-10.2426
ئاو	-10.2427
▁کراوەتەوە	-10.243
▁مەریوان	-10.2431
▁بەڕێوەبەر	-10.2434
▁نەناسراو	-10.2438
▁نیشاندا	-10.2438
بم	-10.2439
شەو	-10.2442
▁هەژمار	-10.2444
▁یەکشەممە	-10.2445
▁تێڕوانین	-10.2445
▁تەر	-10.2446
▁تایبەتمەندی	-10.245
▁ڕوویان	-10.2455
▁ڕێکخراوێکی	-10.2457
▁خانەی	-10.2458
000	-10.2459
▁ڕۆشنبیران	-10.246
▁کڕ	-10.2463
▁پەرلەمانتاران	-10.2464
▁دەب	-10.2469
▁ئەوکاتە	-10.247
یتە	-10.2472
▁خەلیل	-10.2477
▁بۆشایی	-10.2477
▁ئێک	-10.2478
زن	-10.2478
▁هەوا	-10.2479
▁کاڵ	-10.2481
▁نەرم	-10.2486
▁تێکۆشەر	-10.2487
کۆن	-10.249
▁یۆرۆ	-10.2494
▁44	-10.2495
▁پارێزراو	-10.2496
▁هەورامی	-10.2497
▁شین	-10.2497
▁بنەماکانی	-10.2498
▁ڕۆژانەی	-10.2499
▁باشور	-10.2499
▁الح	-10.2502
▁هەستیار	-10.2502
دەبن	-10.2502
حکومەت	-10.2504
▁وەسف	-10.2513
▁T	-10.2516
▁دەوڵەتێکی	-10.2517
▁مادی	-10.2518
▁کامیل	-10.2519
▁بەپێچەوانەوە	-10.2522
▁هاتۆتە	-10.2524
▁ئەوانەش	-10.2525
il	-10.254
▁ڕاگەیاندووە	-10.254
▁سەرەنجام	-10.2541
▁نازناوی	-10.2548
گه	-10.2549
▁کوێر	-10.255
▁کراوه	-10.256
ێنێتەوە	-10.2561
▁گیر	-10.2562
▁مەرگی	-10.2563
▁مەڕ	-10.2566
▁پێشمەرگەو	-10.2566
توان	-10.257
▁ئاڵوگۆڕ	-10.2572
زمان	-10.2575
ەسەر	-10.2575
▁بەڕ	-10.2577
بۆوە	-10.258
▁قووڵ	-10.2583
▁فرمێسک	-10.2584
دز	-10.2594
▁دەوروبەر	-10.2597
▁موبارەک	-10.2599
▁کورتی	-10.2599
▁جیاجیا	-10.2605
▁ساڵان	-10.2609
▁کامەران	-10.2611
▁لەبەرژەوەندی	-10.2614
▁پەلاماری	-10.2614
▁بڕیارێکی	-10.2617
ٍ	-10.2619
ێس	-10.2623
ۆڤ	-10.2626
▁لەوانەش	-10.2628
▁بەخشی	-10.263
▁مانگانە	-10.2632
▁سالار	-10.2632
ئێ	-10.2633
▁ئەمریکاو	-10.2633
▁بەرگ	-10.2637
▁هاریکاری	-10.2638
▁کۆبوونەوەیەکی	-10.2639
▁مانگرتن	-10.264
▁وەخت	-10.2644
▁پەنابەر	-10.2645
▁لێپرسینەوە	-10.2645
▁بک	-10.2657
▁پتەو	-10.2659
▁مەزهەب	-10.266
▁بنیات	-10.2663
▁بەرفراوان	-10.2666
تین	-10.2666
▁میلیشیا	-10.2669
▁ئازادیخواز	-10.2671
▁We	-10.2672
انەیان	-10.2675
▁ئەمنییەکان	-10.2675
▁بەدیهێنانی	-10.2679
▁یەکیەتی	-10.2681
ژیان	-10.2682
ترس	-10.2683
ئاوا	-10.2684
▁خاڵێکی	-10.2684
▁ئێراندا	-10.2687
▁تەل	-10.2687
▁دەبێ	-10.2687
▁موو	-10.2687
▁گول	-10.2697
لیستی	-10.2699
▁جاش	-10.27
بکەنەوە	-10.2701
▁کوردستانێ	-10.2707
▁ڕاهێنان	-10.2707
چۆ	-10.2708
▁ڕۆژنامەنوسان	-10.2711
▁بەتایبەتیش	-10.2711
موو	-10.2713
▁46	-10.2713
▁داو	-10.2713
▁دۆر	-10.2716
▁سەرپەرشتیاری	-10.2717
کدا	-10.2721
▁مەرجی	-10.2722
▁لەئاستی	-10.2722
▁خانمە	-10.2728
▁باج	-10.2729
▁حساب	-10.2729
▁بۆخۆی	-10.2731
▁هێرشەکانی	-10.2733
▁میل	-10.2734
▁بۆردومان	-10.2737
▁قازانج	-10.2738
▁وێنەگری	-10.274
بور	-10.274
▁فرۆش	-10.2744
▁گەنجانی	-10.2747
ەدی	-10.275
▁بەهرۆز	-10.2751
▁باپیر	-10.2752
عەلی	-10.2753
▁بکەوێت	-10.2753
▁پێکەنین	-10.2756
▁شوو	-10.2756
▁نیشتەجێ	-10.2759
نییە	-10.276
▁سەگ	-10.2764
▁بۆسەر	-10.2764
▁دیاردە	-10.2764
پێچ	-10.2767
▁بەکۆمەڵ	-10.2769
کەو	-10.2776
▁مۆڵەت	-10.2778
▁کیلۆمەتر	-10.2782
▁ئەمیر	-10.2783
▁وەستا	-10.2784
▁ڕووت	-10.2787
خەر	-10.2789
▁کۆبوونەوەکە	-10.279
▁مەح	-10.2796
▁سروود	-10.2804
▁خۆشیان	-10.2805
▁کۆشکی	-10.2809
▁47	-10.2809
▁ناشیرین	-10.2811
▁کل	-10.2812
▁هاوڕێی	-10.2818
▁تیم	-10.282
▁ڕێباز	-10.2821
▁خانم	-10.2824
▁گی	-10.2829
▁دەنگیان	-10.2829
▁سەرەکیی	-10.2838
▁حاڵی	-10.2838
▁سایەی	-10.284
ەمین	-10.2842
تیڤ	-10.2844
▁c	-10.2844
▁لەبەرئەوە	-10.2845
▁وەلا	-10.2847
▁ئۆکتۆبەر	-10.2851
▁کردنەوە	-10.2852
▁ئارەزوو	-10.2857
▁بۆنی	-10.2859
▁سیناریۆی	-10.2865
ژا	-10.2866
▁ئامانجە	-10.2874
▁49	-10.2874
▁هاووڵاتیانی	-10.2875
▁حەوتەم	-10.2878
کت	-10.2884
کراوی	-10.2884
▁کرابوو	-10.2885
▁ببێتەوە	-10.2887
▁ڕام	-10.2887
▁ئیتالی	-10.2887
▁دەکەینەوە	-10.2887
▁پێشتریش	-10.2888
▁تیپ	-10.289
▁جگه	-10.289
اح	-10.2895
▁پاراستن	-10.2895
▁ڕابردووی	-10.2897
▁ڕووخانی	-10.2899
▁گل	-10.2902
▁چا	-10.2905
▁300	-10.2909
▁کەرکوکی	-10.2911
▁بەهار	-10.2916
▁پسپۆر	-10.2922
▁خال	-10.2925
▁الت	-10.2926
▁تورکیاو	-10.2929
▁ئاڵا	-10.2933
▁دەهات	-10.2935
▁ڕێککەوتننامەی	-10.2937
▁نام	-10.2937
▁مەس	-10.2939
ەکدا	-10.2945
▁لەپەرلەمانی	-10.2947
▁باکور	-10.2947
▁زۆریش	-10.295
▁تیرۆری	-10.2952
وات	-10.2953
▁ناکەین	-10.2953
▁شاد	-10.2954
اش	-10.2957
▁ئۆسکاری	-10.2958
▁دیوار	-10.2961
▁دەمهەوێت	-10.2962
▁بونیاد	-10.2964
▁مۆبایل	-10.2965
▁پیاوێکی	-10.2967
▁خەلکی	-10.2973
▁کۆنترۆڵ	-10.2977
▁پەرتووک	-10.298
ەدین	-10.2981
▁نەشتەرگەری	-10.2982
▁بەخۆی	-10.2983
نێر	-10.2989
▁هەڵەی	-10.2994
▁هەردەم	-10.2995
▁میسری	-10.2998
▁پێشێل	-10.2999
▁ناودار	-10.3004
▁جگەرە	-10.3007
خوا	-10.3007
▁بیروڕا	-10.3008
▁درامای	-10.3014
▁a	-10.3019
زۆر	-10.3019
▁تۆمارکرد	-10.302
▁شێر	-10.3021
درێ	-10.3021
▁زۆربەیان	-10.3023
▁هەریەکە	-10.3024
ژەن	-10.3025
▁نابن	-10.3026
▁حاڵ	-10.3029
ئێمە	-10.3033
▁دامەزراو	-10.3041
ریک	-10.3043
ندی	-10.3044
▁تاڵ	-10.3045
▁مەگەر	-10.3046
سام	-10.3048
▁فەتاح	-10.3051
بڕی	-10.3052
▁بەگ	-10.3052
▁سوێند	-10.3053
تس	-10.3053
▁٢	-10.3054
یانەوە	-10.3056
▁ئیسلامیی	-10.3058
▁دەنووسن	-10.3059
▁وێنا	-10.3061
▁بهێنە	-10.3063
▁ڕۆیشت	-10.3067
▁ڕێسا	-10.3069
▁بەرێ	-10.3072
▁ئامێری	-10.3075
▁شەخسی	-10.3076
▁تەها	-10.3078
لیس	-10.3085
▁دەبینرێت	-10.3087
▁پەی	-10.3089
▁تەک	-10.309
▁بەکوردی	-10.309
▁بوارەدا	-10.3093
▁عارف	-10.3099
▁ڕوونیشیکردەوە	-10.3099
▁پله	-10.3099
▁لەناوبردنی	-10.31
▁زوڵم	-10.3101
▁بەهێزکردنی	-10.3102
▁لەوانەی	-10.3104
▁یاسایەک	-10.3104
▁خزمەتکردنی	-10.3106
▁ڕیزەکانی	-10.3107
▁دەنگدەران	-10.3112
ێکم	-10.3115
▁میلان	-10.3119
▁بەسەرۆکایەتی	-10.312
▁گواست	-10.3121
▁ئازادکردنی	-10.3121
▁پەنابەرانی	-10.3125
▁وادەی	-10.3127
▁G	-10.3137
▁ڕووبەر	-10.3137
▁بانگهێشت	-10.3145
▁ئەوەمان	-10.3146
▁تەندروست	-10.3147
▁بەربەست	-10.3149
▁تیر	-10.3152
▁وڵاتانە	-10.3154
▁کوژ	-10.3158
▁قازانجی	-10.3158
▁زاری	-10.3159
▁پوور	-10.316
▁دڵم	-10.3162
▁خزم	-10.3165
▁پێنە	-10.3168
اندووە	-10.3168
▁عێراقییە	-10.3174
▁هانی	-10.3178
▁تۆمەتی	-10.3178
▁باز	-10.3178
▁نه	-10.3179
▁یارییەکە	-10.3179
▁بەست	-10.3179
▁عەبد	-10.3184
پاک	-10.3187
▁90	-10.3188
le	-10.3188
▁ناڕازی	-10.3189
▁هەردووکیان	-10.3189
ێنەر	-10.3194
▁خۆرئاوا	-10.3198
درێژ	-10.3199
▁کەسەی	-10.3201
▁کەریمی	-10.3201
▁سیستەمە	-10.321
▁gu	-10.321
▁سێشەممە	-10.3214
ولی	-10.3216
▁چاکە	-10.3219
▁عیراقی	-10.3219
▁بەرەنگاربوونەوە	-10.3223
▁بچن	-10.3225
کردووه	-10.3225
وور	-10.3226
▁لەبەشێکی	-10.3226
▁پشکنینی	-10.3226
نانی	-10.3227
وتن	-10.3227
دانەوەی	-10.3228
▁ئەنوەر	-10.323
▁مێرد	-10.3231
بز	-10.3234
▁بوونەوە	-10.3237
▁نایاسایی	-10.3237
▁هاوولاتی	-10.3238
▁بەرگریی	-10.3239
▁موسڵمانان	-10.3241
▁دیکەدا	-10.3241
▁هەڵسوکەوت	-10.3241
▁بەڕێوەدەچێت	-10.3242
▁ببین	-10.3244
ەمی	-10.3245
▁سڵاو	-10.3246
▁ڕێکخراوەکان	-10.3252
▁لەئەنجامی	-10.3254
▁هونەریی	-10.3258
▁51	-10.3259
انا	-10.326
▁ئەح	-10.3262
▁چالاکییەکانی	-10.3263
▁پەیوەندییەکان	-10.327
▁نەینەوا	-10.3275
▁بەکر	-10.3275
▁تابلۆ	-10.3276
▁فەلەستین	-10.3279
▁اڵا	-10.3279
▁پیاوی	-10.3282
▁بۆرژوازی	-10.3286
▁ئیمام	-10.3286
▁یار	-10.3288
▁لێدانی	-10.3293
▁زەمەن	-10.3293
▁ڕێکەوتی	-10.3294
▁بڕوات	-10.3295
▁شۆرش	-10.3295
▁بابەتێکی	-10.3296
▁گرتنی	-10.3298
▁پرەنسیپ	-10.3301
هێنەر	-10.3303
▁52	-10.3306
▁وردی	-10.3309
▁سەرپێچی	-10.3311
▁جیاوازەکان	-10.3311
20	-10.3311
▁سوری	-10.3314
▁خوارد	-10.3315
▁هاوسەنگی	-10.3315
▁ناوەراست	-10.3321
▁کردۆتە	-10.3322
▁ڕیفۆرم	-10.3326
▁خوێناوی	-10.3327
▁بخرێتە	-10.3328
▁بەندی	-10.3328
▁واژۆ	-10.3328
میر	-10.333
▁خوێند	-10.3332
▁ئەحمەدی	-10.3334
▁دەروازەی	-10.3341
کردبوو	-10.3342
▁وەردەگرن	-10.3344
▁ناوەڕاستی	-10.3348
▁ده	-10.3349
▁بەدواداچوون	-10.335
▁have	-10.3351
▁دەرئەنجامی	-10.3351
▁ناچێت	-10.3352
O	-10.3355
پرسی	-10.3358
▁بدەم	-10.3363
▁بەناوبانگ	-10.3363
▁htm	-10.3363
▁پەیوەندیدار	-10.3365
پای	-10.3368
▁حەمید	-10.3369
▁هاوکارمان	-10.337
ساز	-10.3373
▁جیاتی	-10.3374
▁نەتەوەیەکگرتوو	-10.3377
▁53	-10.3378
ۆز	-10.3379
▁نەرویج	-10.3379
▁خستۆتە	-10.338
▁بەرگی	-10.3386
ەڕ	-10.3387
رۆک	-10.3388
کارانی	-10.3394
▁پێکدادان	-10.3395
▁ئۆر	-10.3403
▁شێت	-10.3403
کەوتوو	-10.3406
▁شەهیدانی	-10.3413
▁بەرزکردنەوەی	-10.3414
▁نایابی	-10.3414
ایەوە	-10.3414
▁عەدنان	-10.3424
▁پەڕ	-10.3424
▁بەرهەمە	-10.3427
▁ئێزدی	-10.3431
▁هاندەر	-10.3432
▁باوە	-10.3432
▁حکومەتێکی	-10.3433
نگی	-10.3434
▁غاز	-10.3435
▁هار	-10.3441
▁بەوەشکرد	-10.3441
▁چاکی	-10.3446
▁سەرسام	-10.3446
▁وەفا	-10.3449
▁بەتەنها	-10.3449
▁باوکم	-10.345
7	-10.3455
▁ئۆپۆزسیۆنی	-10.3458
▁بەڵ	-10.3459
▁ئاکام	-10.3462
▁بەرێوەچوو	-10.3462
بارە	-10.3465
▁لەتەک	-10.347
▁پەسەندکردنی	-10.3471
▁شەڕو	-10.3472
▁ڕادەستی	-10.3473
نەوەو	-10.3473
▁دانیشتووی	-10.3473
▁دەنێت	-10.3475
▁شێوازە	-10.3476
▁لەئاست	-10.3477
▁ئەکرد	-10.3481
▁نیشتیمان	-10.3482
▁موختار	-10.3482
▁پیشەیی	-10.3488
▁حسابی	-10.3488
هیچ	-10.3488
▁یاساکانی	-10.3494
▁بێزار	-10.3495
ناڵ	-10.3496
▁دەنگەکان	-10.3498
▁بت	-10.3498
▁54	-10.3498
▁گواستنەوە	-10.35
▁کیمیایی	-10.3501
▁الن	-10.3502
▁قوڕ	-10.3504
ەشەوە	-10.3506
▁سودان	-10.3507
▁لەسەرجەم	-10.3509
گرن	-10.3509
▁56	-10.3511
▁I	-10.3515
▁خاوەنەکانیانە	-10.3515
▁online	-10.3516
▁گڕ	-10.3517
▁پێچەوانە	-10.352
▁حیزبێک	-10.352
▁دایکم	-10.3522
▁وێستگەی	-10.3525
▁خیانەت	-10.3527
▁بمانەوێت	-10.3527
▁گوێی	-10.3527
▁خەڵکانی	-10.3528
▁لیژنەیەکی	-10.353
▁دژوار	-10.3533
▁شک	-10.3536
▁ناسک	-10.354
▁فل	-10.3541
شتی	-10.3546
وڕ	-10.355
▁خۆڵەمێش	-10.3555
▁یەکلا	-10.356
▁تازەی	-10.3562
▁زۆرینە	-10.3563
▁L	-10.3563
▁بێلایەن	-10.3568
کردو	-10.3569
ئەگەر	-10.3571
ێژ	-10.3577
▁کچی	-10.3577
▁ئامادەیە	-10.3581
دەکەوێت	-10.3582
▁زانیاریی	-10.3584
اهی	-10.3585
تم	-10.3586
ests	-10.3591
▁خۆپیشاندانی	-10.3592
▁ئیدارە	-10.3593
تیکی	-10.3598
▁دەستیپێکرد	-10.3599
▁ڕێبوار	-10.3601
▁کوتلە	-10.3607
▁خەڵ	-10.3608
▁گوتن	-10.3608
▁ژیر	-10.3615
▁لەڕاستیدا	-10.3615
▁هۆکارەکانی	-10.3618
▁لێکۆڵینەوه	-10.362
▁دووپاتی	-10.3623
کرایەوە	-10.3623
▁لەمانگی	-10.3624
▁57	-10.3626
▁نەکرا	-10.3627
▁ئیت	-10.3634
▁چاکسازیی	-10.3635
▁کچه	-10.3637
▁سەرانی	-10.3641
▁ڕاپۆرتێکی	-10.3641
▁ئیسلامیەکان	-10.3646
▁گۆڕانی	-10.3646
ریت	-10.3648
▁هەرەس	-10.3649
▁ڕیاڵ	-10.365
▁سەند	-10.3651
هەموو	-10.3653
▁هۆش	-10.3653
▁دێر	-10.3653
▁تەقینەوە	-10.3657
▁پێگە	-10.3667
▁کەنەدا	-10.3668
▁گەرمی	-10.3672
▁هێزانە	-10.3673
▁دەرکەوتنی	-10.3674
▁هاوپەیمان	-10.3678
▁ولا	-10.3678
نووسی	-10.3679
▁>	-10.3679
▁گەردوونی	-10.368
سوو	-10.3681
▁بهێنین	-10.3682
▁باڵادەست	-10.3683
▁ڕەوای	-10.3685
مانەوە	-10.3686
▁سوڵتان	-10.3689
▁قەتەر	-10.3689
لم	-10.369
شتن	-10.3697
▁هەول	-10.3706
▁کۆڵان	-10.3712
▁دەبوایە	-10.3714
▁دارستان	-10.3716
ەکانتان	-10.3722
▁هەور	-10.3728
▁d	-10.3733
▁درێژایی	-10.3733
▁ڕووناکی	-10.3734
▁لەماڵ	-10.3734
▁پەیڕەوی	-10.3734
▁لەعیراقدا	-10.3738
▁نەجمەددین	-10.3739
تەوه	-10.374
▁لەوەدایە	-10.3743
▁پێشێلکاری	-10.3743
▁فکری	-10.3743
▁دەستبەرداری	-10.3745
▁گرد	-10.3751
بووم	-10.3751
▁سەندیکا	-10.3752
▁کادیر	-10.3756
▁ماڵێکی	-10.3757
▁تایبەتدا	-10.3758
▁کەیسی	-10.376
▁باوەر	-10.3763
▁دەوڵەتانی	-10.3768
▁بەشداربوو	-10.3769
▁شاراوە	-10.377
قسە	-10.3776
▁ئەڵێ	-10.3777
▁ئاستەنگ	-10.3782
▁150	-10.3784
▁بگەڕێتەوە	-10.3785
▁دەستکاری	-10.3786
گەیشتن	-10.3787
▁تەنگ	-10.3788
▁خۆرهەڵاتی	-10.3796
▁پرۆسەکە	-10.3796
▁تاریق	-10.3798
گەلی	-10.3798
▁بەڕێوەبەرایەتیی	-10.3802
▁نووسەران	-10.3805
ئەوەی	-10.3807
▁بەرنامەیەکی	-10.3807
▁فڕێ	-10.3808
▁پاڵەوانی	-10.3813
دەکرد	-10.3814
▁هۆنراوە	-10.3814
▁دەستپێکردنی	-10.3818
▁هاورێ	-10.3819
▁ببات	-10.382
it	-10.3823
▁کڕینی	-10.3825
▁ئامۆژگاری	-10.3827
▁هەڵوەشاندنەوەی	-10.3828
زێ	-10.3831
▁یاسین	-10.3831
▁دەستپێکی	-10.3832
I	-10.3833
▁گێڕانەوەی	-10.3839
▁پاڵەوانیەتی	-10.3841
▁مەک	-10.3848
▁ئەگینا	-10.3849
▁لەکوێ	-10.3849
▁توێژەر	-10.3852
▁m	-10.3852
▁دەرچووە	-10.3853
▁بوونەوەی	-10.3854
▁سکاڵا	-10.3854
▁کۆمیسیۆن	-10.3855
▁کامێرا	-10.3855
▁سەختی	-10.3856
▁چاودێر	-10.386
▁قسەکانیدا	-10.3862
▁ئەوتۆ	-10.3863
9	-10.3863
▁لەعێراق	-10.3866
▁وڵاتەدا	-10.3866
ئین	-10.3866
▁هەردی	-10.3867
▁پاشا	-10.3874
واز	-10.3877
▁کۆنفرانس	-10.3877
▁کارەکانیان	-10.3884
▁هەو	-10.3886
▁بەشێکە	-10.3888
▁یێن	-10.3889
▁ئەنجامدرا	-10.3894
راوی	-10.3904
▁براوەی	-10.3904
▁پێغەمبەری	-10.3911
▁بێتەوە	-10.3912
▁تێکۆشان	-10.3913
ڵێ	-10.3914
▁بردەوە	-10.3917
▁شێوازێکی	-10.3917
فات	-10.3918
▁یاریگەی	-10.392
دانە	-10.392
▁شێواز	-10.3925
یەتە	-10.3925
▁بەد	-10.3926
▁مون	-10.393
▁پێشکەشکردنی	-10.3933
▁ئیمارات	-10.3938
▁هەوڵێکی	-10.3939
نیا	-10.3939
▁شانۆکار	-10.3942
▁دەنگەکانی	-10.3942
▁پشک	-10.3945
وەست	-10.3946
▁کۆبونەوە	-10.3956
▁کۆمۆنیستی	-10.3956
▁نەتەوەکانی	-10.396
▁قی	-10.3961
▁مر	-10.3962
▁بریاری	-10.3968
نەکردنی	-10.3969
▁گاڵتە	-10.3971
▁گریان	-10.3973
▁مەبەستم	-10.3985
▁دەرفەت	-10.3986
▁لەجیاتی	-10.3987
▁سەردار	-10.3994
▁نێوانیان	-10.3998
▁بەهێزتر	-10.4
▁ویلایەتی	-10.4001
▁کوتلەی	-10.4005
ستانی	-10.4006
▁مال	-10.4007
گەل	-10.4009
▁هۆشداری	-10.4011
▁یەکێ	-10.4011
▁ناساندنی	-10.4015
ڕای	-10.4015
سانی	-10.4019
دەس	-10.4022
حزب	-10.4026
یلی	-10.4027
▁ستراتیژیی	-10.4028
▁هەندێ	-10.4029
▁دەبەخشێت	-10.4032
▁کەسیان	-10.4034
▁بەرهەمهێنان	-10.4041
▁هۆکارێکی	-10.4042
▁ڕادەیەک	-10.4044
▁دەرئەنجام	-10.4045
▁لیوا	-10.4048
ورە	-10.4048
ریا	-10.4061
▁دەتوانم	-10.4063
▁تیژی	-10.4067
▁پرێس	-10.4071
سکۆ	-10.4074
▁تۆڵە	-10.4077
دروست	-10.4078
ادەی	-10.4079
▁بەدەم	-10.4079
▁کفری	-10.408
▁ئاسن	-10.4083
▁هەڵۆ	-10.4084
▁خێرایی	-10.4089
▁قوتابیانی	-10.4089
▁پاڵەوان	-10.409
ێوه	-10.4091
گەرایی	-10.4092
▁کۆسپ	-10.4094
▁ئۆپ	-10.4095
▁جاڕنامە	-10.4095
▁گفتوگۆکردن	-10.4097
▁بەرە	-10.4097
▁دەچوو	-10.4098
▁ڕووداوێکی	-10.4103
▁دەسەڵاتداران	-10.4112
▁ئاس	-10.4114
▁مەحموود	-10.4124
▁لیستە	-10.4125
▁چەشنە	-10.4129
▁پێشوازیی	-10.4134
▁W	-10.4137
▁شیاو	-10.4138
پێویست	-10.4139
▁کۆم	-10.4139
▁نەهامەتی	-10.4141
پۆش	-10.4143
وش	-10.4149
▁ژان	-10.415
▁گەیشتووەتە	-10.4153
▁کوردس	-10.4156
▁نەیار	-10.4156
▁عوسمانی	-10.4157
دەو	-10.4158
▁ئاوارەکان	-10.4159
▁درێژی	-10.416
اکانی	-10.4161
▁ویلایەتە	-10.4162
▁قەرە	-10.4163
▁نەمان	-10.4165
▁دامودەزگا	-10.417
▁هاوپەیمانێتی	-10.4171
▁بەیاننامەی	-10.4172
▁بریتیە	-10.4173
ad	-10.4175
▁دل	-10.4175
▁دڵسۆزی	-10.4176
▁k	-10.4177
▁ناوچەکه	-10.4179
▁کۆمەڵکوژی	-10.4181
▁مەع	-10.4195
▁شەنگال	-10.4197
▁خەسڵەت	-10.4199
▁بەشدارییان	-10.4203
▁فەیلەسوف	-10.4204
▁کارتی	-10.4207
▁ژووری	-10.4209
▁پێچەوانەوە	-10.4209
▁ئەسڵانی	-10.4209
▁دوورە	-10.4211
چەند	-10.4213
▁تەلەفزیۆن	-10.4214
▁نێودەوڵەتیی	-10.4214
اجی	-10.4217
▁دەمی	-10.4218
▁خۆشە	-10.4224
اق	-10.4224
▁کاس	-10.4224
▁گرنگتر	-10.4224
▁یادەوەری	-10.4227
▁بخوێن	-10.4228
ێنرێت	-10.4228
▁باسیان	-10.4228
▁کلیپ	-10.4235
▁دهۆکێ	-10.4237
▁کارت	-10.4237
سیا	-10.4238
▁ئامانجەکانی	-10.4239
لاند	-10.424
▁K	-10.424
▁تەئکید	-10.4241
▁کۆمەڵایەتییەکان	-10.4241
▁me	-10.4241
▁ئوردن	-10.4242
تاک	-10.4242
ir	-10.4243
▁ئەنجامداوە	-10.4243
▁ئۆتۆمبێلەکانی	-10.4248
هێناوە	-10.4248
ro	-10.4248
▁بالای	-10.4248
▁ئەبوبەکر	-10.4249
▁key	-10.4255
▁خۆراکی	-10.4255
▁کاڵا	-10.4255
▁پرۆسە	-10.4258
▁بەردی	-10.426
ol	-10.4262
▁بەدەنگ	-10.4266
▁ئەندازیار	-10.4267
▁ڕەسەن	-10.4273
▁تەیب	-10.4274
لەسەر	-10.4275
▁کەرت	-10.4275
▁ببینن	-10.4275
ییەی	-10.4276
▁لێو	-10.4279
پشت	-10.4283
▁موڵک	-10.4284
زین	-10.4286
▁کۆنترۆڵی	-10.4294
23	-10.4295
کانمان	-10.4298
▁لەیەکتر	-10.4299
▁نەیتوانیوە	-10.4301
▁دەمان	-10.4302
▁ماڵە	-10.4311
▁هەولێرو	-10.4314
▁دیمانە	-10.4314
بەی	-10.4315
▁ئەیاد	-10.4315
▁کوڕە	-10.4322
هاتووە	-10.433
▁وەرگیراوە	-10.4331
▁پەرلەمانتاری	-10.4337
▁کەمترین	-10.4337
▁پێویستمان	-10.4338
▁شەشەم	-10.434
▁ڕوودەدات	-10.4342
▁زەمین	-10.4343
▁جیاجیاکانی	-10.4344
▁میکانیزم	-10.4344
▁بەرواری	-10.4347
نز	-10.4349
▁دێنە	-10.4351
▁ڕێبەری	-10.4353
ۆش	-10.4353
▁درێژخایەن	-10.4356
▁دیاردەیە	-10.4358
▁ڕاگەهاند	-10.436
ۆژ	-10.436
ابی	-10.4361
خر	-10.4365
▁ڤان	-10.4366
بێر	-10.437
▁ئیران	-10.4371
رات	-10.4373
▁پێناسەی	-10.4376
کارە	-10.4378
زوو	-10.4382
ئامادە	-10.4382
▁چو	-10.4386
▁ئەمڕۆش	-10.4387
▁بەئاسانی	-10.4388
▁دەرچوون	-10.4391
▁لەپاڵ	-10.4394
▁مح	-10.4394
ژان	-10.4398
چارە	-10.4398
S	-10.4399
▁پرۆسەیەکی	-10.4402
▁حەیدەر	-10.4403
▁براو	-10.4404
▁کوشندە	-10.4405
▁دراما	-10.4405
▁ئەرکێکی	-10.4405
لۆن	-10.4409
▁هاوردە	-10.4409
▁گوندەکانی	-10.4411
▁لاپەڕە	-10.4411
▁ناوچەکەو	-10.4413
ێنی	-10.4414
▁باڵەک	-10.4414
▁بکردایە	-10.4416
▁لیژنە	-10.442
کۆم	-10.442
▁سەپاندنی	-10.4424
ۆف	-10.4428
▁فڕ	-10.4431
ch	-10.4431
▁ڕەگ	-10.4438
▁ئازیز	-10.4442
▁سەرەکییەکانی	-10.4442
▁سامانە	-10.4447
راون	-10.4452
ندە	-10.4454
▁ئامادەبووان	-10.4455
شین	-10.4458
▁هاتوە	-10.4458
▁مەڵبەند	-10.4462
▁لێدوانی	-10.4468
▁تێدە	-10.4475
▁توێژینەوە	-10.4475
دری	-10.4476
▁دیمەشق	-10.4476
بکرێتەوە	-10.4477
▁ئامادەن	-10.4478
▁گوشار	-10.4487
▁پێت	-10.4491
▁سەرخستنی	-10.4493
دەنگی	-10.4496
▁تریان	-10.4497
▁پشکی	-10.4497
▁دووەمیش	-10.4498
▁ئاسیایی	-10.4499
▁تەسلیم	-10.4504
▁فەڕەنسا	-10.4507
▁دەدەم	-10.4508
▁کردنە	-10.4509
▁گوتەی	-10.4511
وود	-10.4512
▁١	-10.4514
▁الش	-10.4514
es	-10.4515
▁درەخت	-10.4516
▁حەزی	-10.4516
▁قوتابخانەکان	-10.4517
▁هەبوون	-10.4518
▁ڕووبەرووی	-10.4524
▁mail	-10.4524
▁لەرووی	-10.4525
▁یەکە	-10.4525
▁پیاوێک	-10.4527
▁ڕۆژنامەنووسانی	-10.453
▁کەوتۆتە	-10.4539
▁ڕەنگدانەوەی	-10.4543
▁.	-10.4547
▁ڕووبەڕووبوونەوە	-10.4549
دەنگ	-10.4551
ئەنجام	-10.4557
▁سونە	-10.4559
▁کەناڵەکانی	-10.456
▁یاریزانە	-10.4567
▁ئاسایییە	-10.4568
▁قەرەبوو	-10.4571
D	-10.4574
بانی	-10.4577
▁منداڵە	-10.4578
▁حەس	-10.4578
▁دەربڕینی	-10.4579
▁خانە	-10.458
▁ڕێژەیەکی	-10.458
▁توێژ	-10.4584
▁مەهدی	-10.4585
▁ئاماژەیدا	-10.4589
▁ئاماری	-10.4592
22	-10.4597
▁پەشیمان	-10.4599
خس	-10.46
سل	-10.4601
▁خۆپ	-10.4602
▁بانگەشە	-10.4602
▁ژنێک	-10.4604
▁توڕە	-10.4605
▁ڕاپەرین	-10.4607
وتە	-10.4611
ویانە	-10.4612
▁ئەرکەکانی	-10.4613
▁کوردستانیان	-10.4617
گرە	-10.4619
▁هێل	-10.4619
▁شوێنەوار	-10.4621
▁یۆنان	-10.4622
▁تیرۆرکردنی	-10.4622
▁هەفتەیەک	-10.4623
هەڵوێست	-10.4623
as	-10.4625
رب	-10.4625
یەکانیش	-10.4626
▁قەناعەت	-10.4628
▁زیاترە	-10.4631
▁ناخی	-10.4632
▁حەماس	-10.4632
▁یەکسەر	-10.4635
▁پەروەردەو	-10.4636
چن	-10.4639
دەکرێن	-10.4641
▁وەرگر	-10.4645
▁شەرعی	-10.4646
▁بەرگریکردن	-10.4646
بیا	-10.4646
اڤ	-10.465
▁نەو	-10.4657
▁ڕاپۆرتە	-10.4658
▁بڕیاردان	-10.4658
▁ئیمەیل	-10.4659
نشین	-10.466
▁کش	-10.4661
▁ڕەو	-10.4668
▁دەیەوێ	-10.467
ژێ	-10.4671
▁جیاوازەکانی	-10.4671
▁هەڵەبجەی	-10.4678
چەی	-10.4683
رگ	-10.4687
▁نەبو	-10.4689
دەکەم	-10.4689
▁خانەنشین	-10.4691
▁ڕوانین	-10.4692
▁الس	-10.4692
▁لایەنگری	-10.4693
خول	-10.4696
▁کاربەدەستانی	-10.4698
▁شەریف	-10.4699
▁ناوەڕۆکی	-10.4701
قو	-10.4706
▁ماوەکەی	-10.4707
▁دەبینی	-10.4708
▁بابەتەکە	-10.4708
▁ماددی	-10.4711
▁دیل	-10.4716
▁پانتایی	-10.4719
▁قەزا	-10.472
▁تەشهیر	-10.4722
ێڤ	-10.4724
▁ئەمینداری	-10.4725
▁پەیوەندییان	-10.4725
ترا	-10.4726
▁59	-10.4727
▁نیوە	-10.473
▁ڕژێمە	-10.4731
خاڵ	-10.4731
▁دەچ	-10.4731
▁ڕاگەیەنراو	-10.4732
▁لەپەرلەمان	-10.4732
▁ساغ	-10.4735
▁زەرەر	-10.4736
▁لیژنەکە	-10.4738
▁دەری	-10.4739
▁برایم	-10.4744
انەن	-10.4745
▁پەنجە	-10.4746
▁نووسەرانی	-10.4746
▁توندڕەو	-10.4746
▁نوسینی	-10.4752
▁لەوەدا	-10.4757
دوا	-10.4764
پارتی	-10.4771
▁لەتورکیا	-10.4772
رن	-10.4773
گەورە	-10.4774
▁لەلێدوانێکی	-10.4775
▁تاڵان	-10.4776
بونەوە	-10.4777
▁بڵێی	-10.4777
▁کوژرا	-10.4779
▁زەحمەتکێش	-10.4782
بدەن	-10.4782
▁گازی	-10.4783
▁دەربەندیخان	-10.4786
▁فشاری	-10.4788
▁دەت	-10.4788
زاد	-10.4788
▁قژ	-10.4788
▁ئاگری	-10.479
ومە	-10.4793
▁وڵاتەکەیان	-10.4798
▁بگیرێت	-10.48
تێر	-10.4801
▁داهێنەر	-10.4802
▁نزیکدا	-10.4808
▁لەناوچەی	-10.4811
▁منداڵەکە	-10.4813
▁نەتەوەیەک	-10.4817
چین	-10.4818
▁گرژی	-10.4818
مەرج	-10.4819
▁بەستنی	-10.482
▁دەرد	-10.4821
▁دیاله	-10.4825
پۆل	-10.4828
▁مەسەلەکە	-10.4829
▁کۆمپانیاکانی	-10.4832
▁سوار	-10.4836
▁کوردەکانی	-10.4841
▁ڕاپ	-10.4843
▁کوردەواری	-10.4844
▁ئەورووپا	-10.4846
جەنگ	-10.4847
▁دامەزراوەی	-10.4848
بۆتەوە	-10.485
▁ڕوونکردەوە	-10.4854
▁پۆلی	-10.4855
▁قەوارە	-10.4856
ێکمان	-10.4856
ەکانیاندا	-10.4859
▁ڕۆژنامەگەری	-10.4867
▁قاچ	-10.4868
▁شارەزای	-10.4876
▁لەبەرامبەردا	-10.4878
بازی	-10.4878
▁بارودۆخەکە	-10.4881
گوێ	-10.4882
▁سالا	-10.4884
بول	-10.4886
گەلێکی	-10.4887
▁یو	-10.4888
▁ئەمەیش	-10.4892
گەکانی	-10.4893
▁کوشتار	-10.4895
▁ڕووەوە	-10.4896
▁سڤیل	-10.4896
افی	-10.4897
▁دەبێته	-10.49
سات	-10.4905
▁کۆپی	-10.4905
▁دارا	-10.4906
▁ئەنبار	-10.4907
ردو	-10.4909
▁بەسە	-10.4912
▁فرۆکە	-10.4913
▁چەسپاندنی	-10.4916
▁بچنە	-10.4921
▁سکاڵای	-10.4923
▁ڕزگارکردنی	-10.4923
هێشت	-10.4926
▁بەدوا	-10.4928
▁نوێدا	-10.493
ولا	-10.4932
▁لەقەڵەم	-10.4935
▁گەشەکردنی	-10.4937
▁زەر	-10.4938
▁لێب	-10.494
▁ڕانە	-10.4945
▁شارەزایی	-10.4946
▁پاکی	-10.4947
هۆ	-10.495
▁هەواڵە	-10.495
ێنرا	-10.4951
▁ئاسا	-10.4953
▁یاخی	-10.4956
خش	-10.4956
▁دواوە	-10.4957
▁دەیانەوێ	-10.4958
▁نووری	-10.4962
▁گوتیان	-10.4962
E	-10.4963
▁کانوونی	-10.4963
▁برسی	-10.4965
▁سفر	-10.497
دەکەنەوە	-10.498
▁ئاڵ	-10.4984
▁دەبا	-10.4985
▁ئێس	-10.4986
▁شایەنی	-10.4989
▁ڕابەر	-10.499
▁تەئکیدی	-10.499
▁بەزمانی	-10.4992
▁خوێندکاری	-10.4992
▁کارەکان	-10.4995
▁مایەوە	-10.4998
▁بنیاتنانی	-10.4999
ێنم	-10.5
▁ڕێگه	-10.5001
ظ	-10.5002
▁گەڕا	-10.5003
تووە	-10.5003
یەکانیان	-10.5005
▁میللەتی	-10.5005
▁نوسینگەی	-10.5006
▁قۆ	-10.5007
▁ناحی	-10.5007
▁بەدواداچوونی	-10.5008
▁زستان	-10.5012
▁گری	-10.5013
▁ئێواره	-10.5016
▁کەموکوڕی	-10.5018
▁دەقە	-10.502
▁محەممەد	-10.5021
▁بگرین	-10.5022
▁هەی	-10.5023
▁ڕاستیە	-10.5023
▁بانگهێشتی	-10.5023
دایەو	-10.5024
▁لەئەنجومەنی	-10.5025
▁نەمانی	-10.5027
▁پێیانوایە	-10.5033
یمی	-10.5035
▁ئەدات	-10.5036
▁not	-10.5038
▁ئەزمون	-10.5038
▁دەرچو	-10.5039
▁ئەلبوم	-10.5046
رۆی	-10.5051
▁کودەتا	-10.5052
▁هەڵوێستە	-10.5053
▁ث	-10.5053
▁پشوو	-10.5054
▁ببنەوە	-10.5055
▁کابرا	-10.5057
▁یانەکەی	-10.5062
▁هێزێک	-10.5064
بوە	-10.5068
▁ئەنقەرە	-10.5068
▁نوێترین	-10.5068
▁ملی	-10.5073
ۆتە	-10.5075
کن	-10.5077
▁تەوەر	-10.5079
▁کۆسرەت	-10.508
مرۆڤ	-10.508
▁ئاراس	-10.5081
▁بگەیەنێت	-10.5085
▁ڕەوان	-10.5086
▁گەنم	-10.5088
▁کۆتاییدا	-10.5088
▁شەق	-10.5088
ستن	-10.509
یدی	-10.5096
▁پاسەوان	-10.5101
خەڵک	-10.5106
▁کۆمەڵگادا	-10.5109
▁ناخ	-10.5118
▁تورکیادا	-10.5118
▁ئەمانەش	-10.5118
▁گیراوە	-10.5119
▁نوس	-10.512
قەی	-10.5121
▁کارەساتە	-10.5122
▁400	-10.5124
▁چیە	-10.5124
شێوە	-10.5127
▁لەدوا	-10.5129
کرابوو	-10.5129
کوردستان	-10.513
ەندی	-10.5131
▁قەندیل	-10.5132
▁سەروەت	-10.5135
▁سەرلەنوێ	-10.5135
▁جۆرج	-10.5138
▁پەیەدە	-10.5138
▁سوو	-10.5141
▁عەمید	-10.5142
▁کەرەستە	-10.5142
▁نەش	-10.5143
جان	-10.5144
لاوە	-10.5147
▁حەکیم	-10.5148
▁کۆشش	-10.5151
▁تەلەفۆن	-10.5155
▁هەوڵێک	-10.5156
سەند	-10.516
▁تاکەکان	-10.5161
ژێن	-10.5162
سڵ	-10.5164
▁بەرێوەبەرایەتی	-10.5165
▁ئیجابی	-10.5165
▁نوسراو	-10.5166
▁پێکەوەژیان	-10.5167
▁سەرکردایەتیی	-10.5169
▁موڵکی	-10.5171
چۆن	-10.5172
▁حەرام	-10.5173
▁تێکڕای	-10.5174
▁جارێ	-10.5174
▁کۆمپیوتەر	-10.5174
ۆکی	-10.5175
▁94	-10.5182
▁دەنگدەر	-10.5186
▁دەرکەوتووە	-10.519
▁تەڕ	-10.5194
▁ڕادەی	-10.5194
▁ئەشکەنجە	-10.5195
▁فەرمانبەران	-10.5196
▁جاف	-10.5197
ration	-10.5197
▁بەرشەلۆنە	-10.5205
▁بەدوو	-10.5209
▁دەربڕی	-10.5209
▁دواکەوتوو	-10.5213
▁نادەن	-10.5213
▁چیخۆف	-10.5214
راست	-10.5217
▁لینکەی	-10.5217
▁ئەرشیف	-10.5217
▁لەهەرێم	-10.5222
▁خوێندنگە	-10.5222
▁لابردنی	-10.5225
▁نەدەکرد	-10.5227
▁will	-10.5233
▁دوەم	-10.5238
▁خۆماڵی	-10.5243
▁بێگانە	-10.5243
داهات	-10.5246
▁تۆر	-10.5246
▁چێ	-10.5246
▁خۆزگە	-10.5249
▁وەرگێڕ	-10.525
▁بۆچوونە	-10.5252
گەرم	-10.5253
▁نەیان	-10.526
▁کولتوور	-10.526
▁لەچاو	-10.5261
▁ڕوی	-10.5264
ێنە	-10.5265
پەرست	-10.5267
▁ڕێکخراوەکە	-10.5269
نیشان	-10.5271
▁ئاژاوە	-10.5275
▁کۆنترۆڵکردن	-10.5279
▁چەندان	-10.528
▁یونس	-10.5281
نووسین	-10.5287
▁بەشداربوون	-10.5288
▁نازانن	-10.5288
▁شارەدێی	-10.5292
▁ڕێکخەری	-10.5293
▁پێشبڕکێی	-10.5294
▁نامەی	-10.5294
▁ئەسپ	-10.5294
▁شکۆ	-10.5295
▁داستان	-10.5295
▁دانیشتووانی	-10.5298
بایە	-10.5301
▁ڕۆژەی	-10.5303
چونی	-10.5304
خوارد	-10.5307
▁سەلەفی	-10.5307
▁بەرێوە	-10.5309
سەن	-10.5311
▁ڕستە	-10.5313
▁بڵند	-10.5314
▁زانایانی	-10.5314
▁ئەلع	-10.5315
▁زانایان	-10.5319
z	-10.5325
▁مات	-10.5326
▁عەقڵی	-10.5327
▁پەک	-10.5328
▁شەقامەکان	-10.5329
▁پێداچوونەوە	-10.5329
دەستی	-10.5331
تیان	-10.5333
▁هاتوچۆی	-10.5335
▁بارە	-10.5336
ئازادی	-10.5338
ڵێن	-10.5341
▁مەج	-10.5344
▁ئەب	-10.5345
▁فراوانتر	-10.5345
▁دەنگە	-10.5345
▁یەوە	-10.5346
▁لێکەوتەوە	-10.5347
▁خولە	-10.5347
▁دڵنیام	-10.5349
▁دەنووسێت	-10.5352
▁فایله	-10.5356
▁مرد	-10.5357
▁فیکر	-10.5358
▁عەلمانی	-10.536
▁نێودەوڵەتییەکان	-10.5361
▁تۆکمە	-10.5362
▁زاگرۆس	-10.5363
▁هەلی	-10.5367
مون	-10.5371
▁تۆپباران	-10.5383
▁ساتە	-10.5383
▁بەبڕی	-10.5384
▁دەمانەوێت	-10.5384
▁کردەی	-10.5391
ونەتە	-10.5399
▁ئەژمار	-10.5402
▁ساتێک	-10.5403
▁نەچێت	-10.5408
▁سۆڤیەت	-10.541
▁گەلە	-10.5411
▁تەنیایی	-10.5414
▁چەکدارەکانی	-10.5414
عل	-10.5415
▁هێرشبەر	-10.5416
▁الق	-10.5419
▁دراو	-10.542
▁لوتکەی	-10.5422
▁پاشەکشە	-10.5424
▁تەخت	-10.5427
v	-10.5429
بوور	-10.543
تەی	-10.5438
▁f	-10.544
ۆپ	-10.5444
▁گەمە	-10.5445
دەبێتەوە	-10.5445
▁بانک	-10.5445
▁سۆفی	-10.5446
▁پەنجەرە	-10.5449
▁ناوبژیوانی	-10.5449
▁ڕەحیم	-10.5451
▁بەڕای	-10.5452
▁کێشا	-10.5455
بەڕ	-10.5457
▁نائاسایی	-10.5458
▁ناش	-10.5458
▁ڕۆژگار	-10.5459
▁ئۆکرانیا	-10.5461
▁پاداشت	-10.5461
▁تۆن	-10.5462
▁بەدەستەوە	-10.5463
▁بەرلین	-10.5463
▁n	-10.5466
▁Add	-10.5467
▁Share	-10.5467
▁عەبادی	-10.5467
مێ	-10.5471
▁هند	-10.5472
▁زانیارییەکانی	-10.5474
▁سابیر	-10.5476
▁گۆلی	-10.5477
▁دۆسی	-10.5482
▁خۆڵ	-10.5482
▁the	-10.5483
▁جێگر	-10.5484
ورا	-10.5485
بیست	-10.5485
▁سبەینێ	-10.5486
▁بژێوی	-10.5489
▁دەرونی	-10.5489
▁یەکگرتوەکان	-10.549
▁فۆڕم	-10.5494
▁جیاکردنەوەی	-10.5496
▁چاویان	-10.5496
▁مەلی	-10.5497
▁دووباره	-10.5499
▁هەڵمەتێکی	-10.55
▁ویژدان	-10.5501
است	-10.5501
▁جێبەجێکردن	-10.5501
▁بدە	-10.5504
▁ڕەجەب	-10.5505
▁ڕووداوانە	-10.5508
w	-10.5509
▁گوتاری	-10.551
گل	-10.5511
▁سەروەر	-10.5513
▁سدیق	-10.5515
▁ددان	-10.5525
یەکانەوە	-10.5525
▁دانیشتوان	-10.5526
▁چیای	-10.5526
سەنگ	-10.5527
▁داود	-10.5528
ic	-10.553
▁ئەد	-10.553
▁کەلتوری	-10.553
▁وەفدێکی	-10.5534
▁تەماوی	-10.5534
▁قەڵا	-10.5534
▁سەباح	-10.5535
N	-10.5536
▁داواکارییەکانی	-10.5536
▁کەمتەرخەمی	-10.5536
▁سەرقاڵ	-10.5537
▁ڕیفراندۆم	-10.5537
▁مەعریفە	-10.5537
مێنت	-10.5538
ووس	-10.5539
ڕەش	-10.5541
میل	-10.5545
▁نەزان	-10.555
وف	-10.5551
اکان	-10.5552
وەند	-10.5552
▁لەیاد	-10.5552
▁نزیکی	-10.5553
توورەج	-10.5557
▁وایکردووە	-10.5559
▁لەدەستداوە	-10.5565
پەڕی	-10.5565
▁نواندن	-10.5567
وڵا	-10.5568
هم	-10.5568
▁دەرچوونی	-10.557
▁وەری	-10.5572
▁دەبم	-10.5572
▁ط	-10.5573
▁هادی	-10.5574
▁جەمسەر	-10.5575
▁دەیکات	-10.5578
▁ماوەیەدا	-10.5582
▁Name	-10.5585
▁هێرشە	-10.5588
ژێر	-10.5589
مس	-10.5591
▁سوودمەند	-10.5593
سین	-10.5593
▁ڕوونکردنەوەی	-10.5595
مام	-10.5595
▁دەستپێشخەری	-10.5602
شەر	-10.5604
مێر	-10.5605
▁گەلان	-10.5607
▁دوێت	-10.5608
▁پەیوەند	-10.5608
کراوەکان	-10.5609
▁پێشهات	-10.5613
زیر	-10.5616
▁لێبوردن	-10.5619
▁بارودۆخ	-10.5621
وای	-10.5625
▁and	-10.563
▁تۆفیق	-10.5632
▁بەخۆیەوە	-10.5632
پشک	-10.5634
ووم	-10.5637
▁لێکرا	-10.564
٠	-10.5641
▁فێ	-10.5643
▁گەرما	-10.5644
▁شارەکان	-10.5645
▁خوێندکارانی	-10.5651
▁پێشخستنی	-10.5652
hotmail	-10.5652
▁کەلتووری	-10.5652
شۆ	-10.5653
▁حا	-10.5654
▁جەوهەر	-10.5654
▁ناوەڕاستە	-10.5659
▁جاریش	-10.5661
▁بردنی	-10.5666
▁مارک	-10.5668
▁کەئەم	-10.567
هەق	-10.5675
▁پابەندی	-10.5676
▁دەستبەسەر	-10.5679
▁بروا	-10.5679
▁سوننەکان	-10.568
▁زەق	-10.568
▁بەرپرسان	-10.5682
▁دەشنی	-10.569
▁خانو	-10.5694
▁زیانێکی	-10.5695
▁دیم	-10.5695
▁هێرشیان	-10.5695
▁سایت	-10.5696
▁کیمیاباران	-10.5703
▁ئەفریقا	-10.5704
▁عێڕاق	-10.5707
▁بەردە	-10.5712
▁موسا	-10.5715
▁قبووڵ	-10.5717
▁ڕاستەوخۆی	-10.5718
▁چارەنووس	-10.5718
▁شۆڤێنی	-10.572
▁قورسایی	-10.5722
دیار	-10.5724
▁بەپەلە	-10.5726
▁#	-10.5727
▁سڕ	-10.5728
▁وایکرد	-10.5729
▁هەڵبژێردراوانی	-10.5732
▁ڕەئوف	-10.5733
▁کرماشان	-10.5736
▁گەشەپێدان	-10.5736
▁ئەدیب	-10.5737
▁پاسەوانی	-10.5746
▁دۆزەخ	-10.5746
راد	-10.5749
▁شای	-10.5749
▁فەرەج	-10.5753
بەرهەم	-10.5753
▁دوبارە	-10.5759
▁بژین	-10.576
▁شەیتان	-10.5761
▁تۆش	-10.5761
▁ڕۆیشتن	-10.5761
▁ناسر	-10.5762
▁ڕەق	-10.5769
▁پێشەنگی	-10.577
▁کەمپین	-10.5771
هاتنی	-10.5773
▁دەگۆڕێت	-10.5778
▁ئۆرگان	-10.5779
▁شنگال	-10.5782
▁کەسەو	-10.5782
▁لەتیف	-10.5784
وڵڵا	-10.5785
▁بوایە	-10.5788
▁ڕۆژنامەکان	-10.5788
▁خۆیانەوە	-10.579
وێن	-10.5792
15	-10.5796
هەروەها	-10.5796
▁نێوەند	-10.5796
▁مەد	-10.58
▁وەسفکرد	-10.5802
خاتە	-10.5803
▁خەلات	-10.5806
▁دابنرێت	-10.5807
▁جەنگە	-10.5807
▁ئاوەدانی	-10.5808
ڕیز	-10.581
▁ساختە	-10.5813
▁لەناوچە	-10.5813
▁ڕێژ	-10.5815
▁بۆچون	-10.5818
▁قەومی	-10.5823
▁بورهان	-10.5831
کەوە	-10.5832
▁ڕۆشنایی	-10.5836
▁styl	-10.5837
▁دەبینم	-10.5837
▁فۆنت	-10.5844
▁الج	-10.5849
▁چەکدارەکان	-10.5851
▁پارێز	-10.5853
▁مەرکەزی	-10.5857
ەڵا	-10.5858
▁دەبینێتەوە	-10.5862
سیاسی	-10.5863
▁ئەوقاف	-10.5866
▁class	-10.5867
▁هەموار	-10.5874
کەوتووە	-10.5878
▁تەسک	-10.5879
▁گەڵا	-10.5879
▁پێشوەخت	-10.588
▁text	-10.588
▁کوت	-10.5882
▁دەستپێدەکات	-10.5887
▁کوژرانی	-10.5889
share	-10.589
▁دیسانەوە	-10.5891
▁بڵاوکردەوە	-10.5891
▁ئاژانس	-10.5894
▁ڕێزلێنان	-10.5898
▁داخستنی	-10.5905
▁فراوانی	-10.5909
▁کیبۆرد	-10.5909
ناوی	-10.5913
▁مامەڵەکردن	-10.5913
▁نمایشەکەی	-10.5919
▁سوورە	-10.5926
▁دیاردەیەکی	-10.5929
▁گۆڕانکاریی	-10.5934
▁جددی	-10.5936
▁هێشت	-10.5938
▁ستایشی	-10.594
▁بتوانێ	-10.5941
▁فۆ	-10.5942
▁return	-10.5943
▁پێب	-10.5944
▁تاقە	-10.5945
ساڵی	-10.5946
باب	-10.5948
▁پاڵتۆکەی	-10.5949
▁دەمە	-10.595
▁پێکردووە	-10.595
▁پەیمانگای	-10.5951
▁target	-10.5952
▁ئەستێرە	-10.5953
▁دەچنە	-10.5955
شتنی	-10.5961
▁خدر	-10.5962
خواست	-10.5965
▁عەشیرەت	-10.5966
▁کۆنتڕۆڵ	-10.597
▁deco	-10.5972
▁بنووسیت	-10.5972
▁دێڕ	-10.5974
▁none	-10.5976
utton	-10.5979
▁onc	-10.598
▁هێناو	-10.598
▁لام	-10.5983
▁ڕێوشوێنی	-10.5984
▁بەرژەوەندییەکان	-10.5985
▁تەقی	-10.5988
▁باڵندە	-10.5988
▁لەسنووری	-10.5989
blank	-10.5989
▁بیرم	-10.5992
▁دڕندە	-10.5995
▁تێکۆشانی	-10.5995
▁تاکەکانی	-10.5997
هام	-10.5999
▁دیناری	-10.5999
▁جوگرافی	-10.6
▁بداتەوە	-10.6002
ڕۆی	-10.6003
▁لەهەمانکاتدا	-10.6006
▁برزۆ	-10.6007
▁ڕەها	-10.6012
▁لانی	-10.6013
▁باسه	-10.6016
▁ڕاپەڕینی	-10.6019
▁تاریکی	-10.602
▁ژیاندا	-10.6021
▁دابێت	-10.6023
▁پلاندانان	-10.6026
ۆت	-10.6028
▁ئەوەیش	-10.6028
پەرستی	-10.6032
▁شۆر	-10.6034
پڕ	-10.6037
▁نەکەین	-10.6038
▁دەگەن	-10.6038
▁داهاتو	-10.6038
▁بڕوانامەی	-10.604
▁دانمارک	-10.604
ژمێر	-10.604
▁شام	-10.6041
▁فیلمەکە	-10.6042
▁شۆ	-10.6043
▁دڵنیایی	-10.6044
▁زانین	-10.6044
▁بڕیاریدا	-10.6045
▁میدیاکان	-10.6046
خەبات	-10.6047
▁بینین	-10.6048
▁ڕەنج	-10.605
▁ئەمساڵدا	-10.6051
▁لەوێدا	-10.6053
▁کوا	-10.6054
▁نێ	-10.6054
▁وەرز	-10.6055
▁کۆلێژی	-10.6056
▁بخات	-10.6056
▁سن	-10.6057
▁بڵاوبوونەوەی	-10.6061
▁کاتێکیش	-10.6062
▁لێوەر	-10.6062
▁پرۆژه	-10.6063
بۆن	-10.6066
▁عیشق	-10.607
▁پرۆگرام	-10.6071
▁کەلوپەل	-10.6072
▁دەبەستێت	-10.6076
ri	-10.6081
بەرز	-10.6082
▁بەیاننامەیەکدا	-10.6083
▁سیستمە	-10.6087
▁یاداشت	-10.6088
▁بەهرە	-10.6089
▁باژێڕوان	-10.6089
▁بور	-10.6089
▁ڕووبار	-10.6091
▁دەمەوێ	-10.6093
▁دواکەوتنی	-10.6094
وڵاتە	-10.6095
مەندی	-10.6095
کۆش	-10.6095
▁ئۆپۆزیسیۆنەی	-10.6096
▁بەتوانا	-10.6097
▁دەفەرموێت	-10.6097
▁تائێستاش	-10.6098
▁هاوتا	-10.61
▁یارییەکی	-10.61
▁گەنجێکی	-10.6104
▁بەمشێوەیە	-10.6105
▁پەند	-10.6105
▁سەریان	-10.6107
▁تاقیکردنەوەی	-10.6108
▁سیاسیدا	-10.611
ەکانیدا	-10.6112
▁دیپلۆماسی	-10.6113
▁تاڕادەیەک	-10.6113
▁لەناوچەکەدا	-10.6115
▁خرایە	-10.6115
▁سیمای	-10.6115
17	-10.612
▁شۆڕ	-10.6122
▁ناکوڵێت	-10.6123
▁قوت	-10.6124
▁توو	-10.6125
▁بۆند	-10.6128
کانەوە	-10.613
▁بڵاویکردەوە	-10.6132
▁ئەرسەلان	-10.6133
▁کارگە	-10.6134
▁ة	-10.6139
▁هەرکەسێک	-10.6139
▁لێهاتوو	-10.6145
▁شاعیری	-10.6146
▁دروستکردووە	-10.6147
▁هاوەڵ	-10.6148
ژو	-10.6148
تاش	-10.6151
▁یاریدەدەری	-10.6152
▁پیرە	-10.6157
▁لەسایەی	-10.6161
▁سیستەمێکی	-10.6161
▁کەمینە	-10.6163
ێوەچوو	-10.6164
▁دەستەڵات	-10.6164
بنەما	-10.6165
وێنە	-10.6166
▁کەناڵ	-10.6167
▁بەدەستهێناوە	-10.6167
▁یوتوبو	-10.617
ستین	-10.6172
▁ژور	-10.6174
▁خوازیاری	-10.6174
▁ئوسترالیا	-10.6176
لس	-10.6176
لۆفێست	-10.6177
▁یاسایەکی	-10.6177
▁l	-10.6178
▁سووک	-10.6179
▁گیرا	-10.6181
ِّ	-10.6184
▁گوزەرانی	-10.6185
راق	-10.6185
▁زراندن	-10.6185
شک	-10.6188
▁دەخەنە	-10.619
بکەم	-10.619
▁ئەرمەن	-10.6193
▁گوللە	-10.6193
▁وڵاتەکە	-10.6197
▁گیراو	-10.6198
▁نەوە	-10.6198
▁دانوم	-10.6199
▁خور	-10.6203
▁داوەو	-10.6206
▁ویلایەته	-10.6208
▁لەمێژووی	-10.6209
هەڵات	-10.6211
ڤید	-10.6211
▁ماڵەکەی	-10.6212
▁بڕۆ	-10.6213
▁باڵەخانە	-10.6213
▁هەڵسەنگاندنی	-10.6219
▁میرات	-10.6221
نارد	-10.6222
▁دروستی	-10.6222
▁نەیانتوانی	-10.6222
سال	-10.6224
▁هۆرگێڵنەر	-10.6225
▁گەورەکانی	-10.6226
▁مۆدێل	-10.6227
▁دەسەڵاتێکی	-10.6227
▁پو	-10.6228
ۆتەوە	-10.6228
▁ۆ	-10.6229
▁ئید	-10.6229
رێژ	-10.6232
▁گەیشتووە	-10.6234
▁بزووتنەوە	-10.6236
▁وتەبێژی	-10.6237
▁کری	-10.624
▁پێوەندیی	-10.624
ئو	-10.6241
▁ڕێبازی	-10.6242
▁هاوپەیمانان	-10.6243
▁بەڕێوەچوونی	-10.6243
▁پێشنیاری	-10.6243
▁یارییەکه	-10.6243
▁ماستەر	-10.6244
▁فاکتەر	-10.6244
▁لەقۆناغی	-10.6245
ێین	-10.6246
▁مەز	-10.6246
▁پرۆسەیە	-10.6247
▁سم	-10.6248
▁گووتیشی	-10.6248
▁دەستدا	-10.6251
▁بووەوە	-10.6253
▁نەخش	-10.6255
▁فەرمانبەرانی	-10.6255
▁میلی	-10.6261
▁چوارەمی	-10.6261
▁هەلە	-10.6262
▁هۆکارە	-10.6266
▁بای	-10.6269
▁دادەنێت	-10.6271
▁عیماد	-10.6273
▁هەروەکو	-10.6274
ەکانى	-10.6274
▁فرانس	-10.6276
▁میت	-10.6279
ٌ	-10.6286
x	-10.6287
▁مافەکا	-10.6288
▁سەربە	-10.6289
▁کیمیاوی	-10.6289
▁ڕاوێژکار	-10.629
▁پەیوەندیەکانی	-10.629
▁تێکدانی	-10.6301
ناز	-10.6302
▁بڕیارەکانی	-10.6305
▁هەموان	-10.6308
▁ڕۆژنامەوان	-10.631
▁75	-10.6319
هەل	-10.632
چوار	-10.632
▁جوتیاران	-10.6324
el	-10.6325
گونج	-10.6329
▁داگیرکردنی	-10.6331
▁کەوتن	-10.6334
▁جوانە	-10.6338
▁بڕگەی	-10.6338
▁هەڵس	-10.6341
▁مناڵ	-10.6343
▁ئازا	-10.6343
▁دانان	-10.6345
▁ساڵانەی	-10.6346
▁کوو	-10.6348
▁هەلومەرجی	-10.6355
et	-10.6357
▁پەیوەستە	-10.6363
▁بڵاوکراوە	-10.6365
▁حەمەغەفور	-10.6365
▁تەرم	-10.6368
▁ژماره	-10.6372
▁غازی	-10.6374
تاب	-10.6375
▁up	-10.6379
مایە	-10.6383
▁زەحمەت	-10.6384
سەپ	-10.6385
▁توانیویانە	-10.6386
▁تەوافوق	-10.6388
ur	-10.6388
▁ڕێوشوێن	-10.639
ئەل	-10.6394
▁دەکەونە	-10.6396
▁تاڵیبان	-10.6397
▁سیاسەتەکانی	-10.6397
دەچێت	-10.6399
▁پەرلەمانتارانی	-10.6399
▁ند	-10.6403
▁لەوێوە	-10.6405
▁ئیماراتیەکان	-10.6406
▁پشتیوان	-10.6407
ڕن	-10.641
▁دۆستی	-10.6413
▁پابەندبوون	-10.6413
▁دوێنی	-10.6413
▁عەرەبەکان	-10.6414
▁ڕوویداوە	-10.6415
▁جوڵە	-10.6427
▁پێشنیازی	-10.6428
▁بردن	-10.6432
▁تیمی	-10.6439
باڵ	-10.644
لەر	-10.6442
وڵاتانی	-10.6444
▁تایبەتمەند	-10.6446
▁مرۆڤێک	-10.6447
T	-10.6447
زاری	-10.645
P	-10.6451
▁ئەکەم	-10.6456
▁پێنجشەممە	-10.6461
▁گرینگی	-10.6461
▁خۆکوژی	-10.6461
▁بردنەوەی	-10.6462
لال	-10.6463
▁دیو	-10.6463
▁لەسوریا	-10.6463
▁بوونیان	-10.6465
بازاڕ	-10.6465
▁قەد	-10.6471
▁هەڵەیە	-10.6472
گاری	-10.6475
▁لاپەڕەی	-10.6475
▁پشتگوێ	-10.6476
▁سالی	-10.6478
▁ئەنجامەکانی	-10.6479
▁فیلمێکی	-10.6479
سیر	-10.648
▁کۆک	-10.6481
▁دەڤەری	-10.6483
▁ئامێز	-10.6484
یاسای	-10.6486
▁آ	-10.6486
سور	-10.6488
▁but	-10.6491
▁تێپەر	-10.6491
▁چاودێریی	-10.6492
نان	-10.6492
▁ڕابردودا	-10.6493
▁خۆشحاڵ	-10.6493
ینەی	-10.6494
▁لادان	-10.6494
▁گەشبین	-10.6494
جوان	-10.6495
▁ئاوارەی	-10.6496
نراوە	-10.6496
▁چارەنووسساز	-10.6499
▁لێدەکات	-10.6499
▁ناڕەوا	-10.6503
▁هەرێمدا	-10.6503
▁پێشووتر	-10.6505
▁بەرهەمه	-10.6505
▁دووشەممه	-10.6508
▁میتۆد	-10.6509
▁1988	-10.651
خەڵکی	-10.6511
▁میسی	-10.6512
▁زلهێز	-10.6515
▁هەنووکە	-10.6516
▁بەچ	-10.6516
▁وڵاتدا	-10.652
▁مەعنەوی	-10.6522
▁نووس	-10.6524
▁باهۆز	-10.6526
▁جوو	-10.653
▁ئەلبووم	-10.6533
▁دیدی	-10.6533
▁هەزارو	-10.6541
▁داواشی	-10.6542
حر	-10.6548
▁لێکدانەوە	-10.655
▁هەیەتی	-10.655
رەس	-10.655
یسی	-10.6552
▁هەرسێک	-10.6553
نرێت	-10.6556
▁هەمە	-10.6558
▁مرۆ	-10.6558
▁ئاوەدانکردنەوە	-10.6561
▁نەچوو	-10.6561
▁أن	-10.6564
▁سەپاند	-10.6565
▁دەولەتی	-10.6566
▁لەنزیک	-10.6566
▁بەوردی	-10.6567
▁گفت	-10.657
▁ناسی	-10.657
▁ئەستێرەی	-10.6571
▁ّ	-10.6573
▁سیستم	-10.6573
هەنگ	-10.6577
▁چالاکیی	-10.6582
▁ئەوپەڕی	-10.6583
▁پەروەر	-10.6583
▁سەقامگیر	-10.6584
▁بەرهەمهێنەر	-10.6585
▁ژمارەیان	-10.6587
▁ئیرادە	-10.6587
▁sorani	-10.6589
▁ڕکابەری	-10.6595
▁دابنێت	-10.66
▁بگرێتەوە	-10.6602
21	-10.6602
▁ئەمنییەکانی	-10.6602
سپێر	-10.6605
سۆر	-10.6605
▁عن	-10.6605
▁کراوەو	-10.6606
ستم	-10.6607
کەرە	-10.6607
▁چالاکوان	-10.6608
▁کردوەو	-10.6609
▁بەرزبوونەوەی	-10.6611
▁نەکردنی	-10.6611
▁وایان	-10.6613
▁display	-10.6614
▁دروستکرد	-10.6616
▁شارێکی	-10.6617
هەست	-10.6617
▁ئاسانکاری	-10.662
دۆخ	-10.662
▁لەخۆی	-10.662
یەکێتی	-10.662
▁نەگەیشت	-10.6622
ریف	-10.6622
▁پرسیارێک	-10.6625
board	-10.6625
▁Send	-10.6625
▁ئۆپەراسیۆن	-10.6625
▁ڕادەربڕین	-10.6625
وازی	-10.6629
▁ڕەخنەگر	-10.6631
گوێز	-10.6631
▁لەپارێزگای	-10.6632
▁هەنگاوەکانی	-10.6632
▁بڵاوکراوەتەوە	-10.6632
▁هوشیار	-10.6632
کردووەو	-10.6634
ۆمی	-10.6635
▁شۆڕشگێڕ	-10.6635
▁سویدی	-10.6639
▁سەعدی	-10.664
▁بەئاشکرا	-10.664
is	-10.6642
▁بەرین	-10.6643
منداڵ	-10.6643
▁تەلەفۆنی	-10.6644
های	-10.6644
ێنراو	-10.6644
▁ئەدرەسەکە	-10.6646
▁بینووسیت	-10.6646
▁بایکۆت	-10.6646
▁بێر	-10.6647
▁t	-10.6649
▁قەدەر	-10.665
▁گرتووەتەوە	-10.6651
▁فەوجی	-10.6651
دەستوور	-10.6652
▁سامی	-10.6653
▁in	-10.6655
▁میز	-10.6656
ra	-10.666
▁follow	-10.666
▁بێکەس	-10.6662
▁ڕۆیتەرز	-10.6664
72	-10.6664
▁بهێنرێت	-10.6666
▁ناونیشان	-10.6666
ۆکە	-10.6667
▁دەرناکەوی	-10.6667
▁دەرک	-10.6667
▁سێدارە	-10.6668
logos	-10.6671
▁ئەند	-10.6676
▁ناوەوەی	-10.6676
▁جول	-10.6677
▁خسته	-10.6678
▁ئەندامان	-10.6679
یاره	-10.668
ڤین	-10.6681
▁ئیر	-10.6683
▁یەکەمدا	-10.6685
▁Cancel	-10.6685
▁lexi	-10.6685
▁تۆمارکردنی	-10.6687
▁تێبینییەکت	-10.6689
▁یارییەکان	-10.6691
چەک	-10.6691
▁کەناڵە	-10.6692
▁تێبینیەکەت	-10.6695
▁دامەزرا	-10.6698
▁دووپاتکردەوە	-10.6698
▁ڕەتکردنەوەی	-10.6698
▁ئاڕاستە	-10.6699
▁پێشەوا	-10.6699
▁بنێ	-10.6699
▁فەزای	-10.6701
▁عەبدولکەریم	-10.6703
▁خۆیەوه	-10.6704
Comment	-10.6705
غی	-10.6706
▁Notif	-10.6706
گرتووە	-10.6707
▁مای	-10.6708
▁ڕەهەندی	-10.6709
شوێن	-10.671
ەکەیەوە	-10.6713
▁دەستگیرکراو	-10.6714
▁وەرگێڕانی	-10.6715
بژاردن	-10.6716
▁بگەین	-10.6716
▁ناکۆک	-10.6717
تنەوەی	-10.6717
▁تەقە	-10.6718
▁تایبەتە	-10.6718
رق	-10.6724
"ـ	-10.6725
▁دەڵێین	-10.673
ژێت	-10.6731
▁دەکردەوە	-10.6731
▁عەللاوی	-10.6732
▁فایەق	-10.6732
▁بەرەنگاری	-10.6735
▁هەڵبژێردراو	-10.6739
▁دیداری	-10.6744
▁بریتانیا	-10.6745
▁جان	-10.6747
ڵەی	-10.675
دید	-10.6751
▁بەباشی	-10.6753
▁کردم	-10.6754
▁چاوە	-10.6755
دەسەڵات	-10.6757
▁بەوەکرد	-10.6757
▁هیند	-10.6759
▁میدیاکانی	-10.676
▁جیاوازیی	-10.6762
▁خواردنەوە	-10.6763
▁هەڵبژێر	-10.6766
▁بکەوێتە	-10.6766
▁ڕەوش	-10.6771
خۆشی	-10.6771
خوێندن	-10.6772
▁ئەزموونە	-10.6772
ائی	-10.6774
▁سوریاو	-10.6775
▁پیشەی	-10.6777
▁زیادبوونی	-10.6778
یەش	-10.6784
مەد	-10.6784
▁سەلیم	-10.6784
▁سەڵاح	-10.6785
16	-10.6786
▁کێبڕکێی	-10.6787
▁فەلەستینی	-10.679
▁خەڵکانێک	-10.679
تاوان	-10.6792
▁نیش	-10.6792
▁چوونی	-10.6793
▁نای	-10.6797
▁دەک	-10.6798
▁ڕاستییەکان	-10.6799
▁شەری	-10.6799
▁پرۆژەیەکی	-10.6803
▁ڕەوشت	-10.6804
رێک	-10.6807
▁بوێر	-10.6811
▁فێستیڤاڵی	-10.6811
▁بەخت	-10.6811
رابوو	-10.6817
▁بردووە	-10.6818
▁تاوتوێکردنی	-10.6819
یەکیش	-10.682
▁نەهاتووە	-10.682
▁تەنگژە	-10.6823
▁پێشەنگ	-10.6823
پاش	-10.6824
▁پتەوکردنی	-10.6825
▁ئەنفالکراوەکان	-10.6827
▁دروستکراوە	-10.6827
▁ئومێدی	-10.6831
▁ناوەرۆکی	-10.6834
▁دەریای	-10.6835
▁دۆستایەتی	-10.6836
ڕەنگ	-10.6837
▁پێدان	-10.684
▁سیفەت	-10.6842
ing	-10.6842
▁پارەیە	-10.6842
▁خۆشگوزەرانی	-10.6847
▁سنە	-10.6847
▁سەعد	-10.6849
▁ڕوخانی	-10.6849
▁کچێکی	-10.6851
پس	-10.6854
▁زانیارییەکان	-10.6854
▁چاوەڕێ	-10.6857
اون	-10.6857
ئەن	-10.6858
▁ڕووسی	-10.6859
کور	-10.686
▁نەبووایە	-10.686
▁گروپێکی	-10.6862
▁کارەی	-10.6862
▁خواز	-10.6864
▁شرۆڤە	-10.6865
om	-10.6867
▁گەنجی	-10.6868
▁بیرمەند	-10.6873
▁دەشتی	-10.6883
▁ئامادەبوون	-10.6885
▁گرتەوە	-10.6891
▁دوژمنی	-10.6891
▁هیندستان	-10.6892
▁نەبین	-10.6895
▁ئایدیا	-10.6902
▁دایەوە	-10.6902
▁بنێت	-10.6904
▁کەرەستەی	-10.6904
▁لەسەرەتاوە	-10.6905
خۆم	-10.6909
بەد	-10.6911
تەن	-10.6911
▁فیشەک	-10.6913
پێکردنی	-10.6916
پیاو	-10.6917
▁کارگەی	-10.6918
▁شەڕێکی	-10.6925
▁نامەیەکی	-10.6926
▁هاتووه	-10.6933
▁مەرجەع	-10.6933
▁ڕەفتاری	-10.6935
▁هەنگاوێک	-10.6936
▁حزبەکانی	-10.6937
▁نمایشکرا	-10.6937
▁کۆبوونەوەکانی	-10.6937
▁قر	-10.6938
▁زریان	-10.6939
▁پارێزگاکە	-10.6939
▁لەکۆی	-10.694
▁مۆسیقا	-10.6943
▁بەنا	-10.6944
▁ئارا	-10.6944
انەوه	-10.6946
▁بەپ	-10.6949
▁دۆستانە	-10.6953
▁فت	-10.6956
▁نییەکە	-10.6958
ەند	-10.6959
▁کۆمەڵایەتیی	-10.6964
▁ئەنفالکراوان	-10.6964
▁پەیمانی	-10.6968
▁هێما	-10.6968
راب	-10.6969
▁گروپ	-10.6972
▁سەرانسەری	-10.6975
▁گوو	-10.6976
▁هاتبوو	-10.6978
▁فۆرمی	-10.6979
▁دەستبەجێ	-10.6983
تەری	-10.6984
▁وتوێژ	-10.6984
▁ڕاز	-10.6986
▁نووسیوە	-10.6987
▁2000	-10.6997
▁گوێبیس	-10.6998
▁قۆناغەکانی	-10.6999
▁کێشانە	-10.7002
▁خۆپێشاندان	-10.7004
▁نیازی	-10.7005
19	-10.7008
▁تێڕوانینی	-10.7009
▁بەچەند	-10.7009
▁جۆرەکانی	-10.701
▁بیرەوەری	-10.7011
قەت	-10.7011
▁لەهیچ	-10.7016
▁دەرو	-10.7016
▁دەسکەوت	-10.7017
▁تواناکانی	-10.7018
▁ئاماژەیان	-10.7021
48	-10.7022
▁ترە	-10.7026
▁دەردەچێت	-10.7029
▁بەخش	-10.7029
▁پڕۆژەکان	-10.7031
▁هیوادارین	-10.7031
▁دەنگۆی	-10.7032
گشت	-10.7033
▁وەزع	-10.7034
قۆناغ	-10.7037
▁بەدیار	-10.7037
▁هەڵبەتە	-10.7037
▁سەرهەڵ	-10.7039
▁دەزگایەکی	-10.704
▁دەڵی	-10.704
▁مسوەگەر	-10.7041
▁شیعری	-10.7042
▁جەمیل	-10.7042
▁نازناو	-10.7043
▁یانه	-10.7047
رێنەوە	-10.705
▁بکەون	-10.7054
لانی	-10.7056
▁ئەوتۆی	-10.7056
▁مێژوی	-10.7058
عەرەب	-10.7059
▁ناوکی	-10.706
▁کردوو	-10.7062
شیر	-10.7063
▁وادەکات	-10.7063
دۆست	-10.7064
30	-10.707
▁هەڤال	-10.707
▁شکاند	-10.7074
▁ئاسەوار	-10.7074
قر	-10.7075
خواردن	-10.7079
▁سەن	-10.7082
▁یارییە	-10.7083
▁بل	-10.7085
18	-10.7087
▁ئەرێنی	-10.7088
▁دانیشتنەکە	-10.7088
▁ڕۆمانەکە	-10.709
▁کەسێتی	-10.7092
▁زووتر	-10.7092
▁بایز	-10.7093
▁گەمارۆ	-10.7093
▁چەواشە	-10.7094
▁کاردەکات	-10.7095
▁زیادی	-10.7096
▁بوونه	-10.7096
▁پشتگیریی	-10.71
▁ئیل	-10.71
▁پەرلەماندا	-10.7101
▁تێز	-10.7102
▁ڕێبەر	-10.7102
▁هەرچەنده	-10.7104
▁دانیشت	-10.7106
▁w	-10.7108
▁ستراتیجی	-10.7108
دەخات	-10.7108
▁توانرا	-10.7109
▁فیدرالی	-10.711
کڕ	-10.711
▁فەراهەم	-10.7111
ۆرک	-10.7115
▁ماڵپەر	-10.7116
▁سەیرە	-10.7121
▁واش	-10.7125
ژم	-10.7126
وێر	-10.7127
▁نەمێنێت	-10.713
▁بنچینەی	-10.713
▁نەوزاد	-10.7138
▁بکەمەوە	-10.7143
▁حەج	-10.7143
▁فڕۆکەخانەی	-10.7149
▁لێکۆڵەر	-10.715
گۆڕین	-10.7152
▁نارەزایەتی	-10.716
▁مەنسوور	-10.716
▁داڕشتنی	-10.7161
▁مافێکی	-10.7162
▁شانی	-10.7162
▁لەحکومەت	-10.7163
▁کلتوری	-10.7164
▁گووت	-10.7165
▁دوژمنانی	-10.7165
ۆرت	-10.7166
▁چینە	-10.7167
▁لیژنەیەک	-10.7167
کردنەوەو	-10.7168
▁ڕۆمانە	-10.7174
▁کەنار	-10.7175
▁کۆنگرەکە	-10.7177
▁ئاشت	-10.7178
ئیسلام	-10.7179
▁بەنرخ	-10.718
مەترسی	-10.7181
▁ناچاری	-10.7182
▁زەمینەی	-10.7182
▁ئەرێ	-10.7185
▁جولەکە	-10.7187
▁سەرف	-10.719
▁دەستکرد	-10.7194
شتە	-10.7197
سنوور	-10.7197
بەرنامە	-10.7198
▁سید	-10.72
ەوانی	-10.72
▁کۆمەڵگایەکی	-10.72
وەرگرتن	-10.7204
▁دەکەمەوە	-10.7205
▁ئاشتیانە	-10.7206
▁نوی	-10.7208
▁ئەمشەو	-10.7208
دەدا	-10.7209
▁سۆسیالیست	-10.7211
▁سیاسەتێکی	-10.7212
بت	-10.7213
▁چوارچێوەیەدا	-10.7214
بوار	-10.7218
▁دونیا	-10.7219
▁یەکێتیدا	-10.722
ولات	-10.7223
▁چواردە	-10.7224
▁لێم	-10.7229
▁کیشوەر	-10.723
▁یاوەری	-10.7231
▁ڕۆژێکی	-10.7239
ۆلۆژی	-10.724
▁ڕەوشە	-10.724
خەو	-10.7242
▁فێستیڤاڵ	-10.7244
▁عەسکەری	-10.7245
▁داتا	-10.7253
▁مێشکی	-10.7255
▁پێداویستییەکانی	-10.7259
▁مس	-10.7259
▁ئاری	-10.7264
وست	-10.7264
▁لەمەودوا	-10.7266
▁هاندانی	-10.7266
▁عەدالەت	-10.7269
ۆلی	-10.7272
ڵاو	-10.7278
▁عەلاوی	-10.728
▁پەڕی	-10.7281
▁ماڵئاوایی	-10.7284
لاف	-10.7285
ستۆ	-10.7285
لێن	-10.7291
▁تێگەیشتنی	-10.7291
▁ڕۆژنامەکە	-10.7293
▁کێشەیەک	-10.7293
▁جادە	-10.7294
▁تەواوبوونی	-10.7295
em	-10.7297
▁نەسر	-10.7298
تاڵ	-10.7302
▁هەبو	-10.7302
پێی	-10.7302
▁نەفرەت	-10.7303
▁پێشەکی	-10.7305
▁سادق	-10.7307
▁کۆمەلگا	-10.7308
▁زیندو	-10.7312
▁ناڤ	-10.7312
▁سروشتییەکان	-10.7313
▁ناتوانم	-10.7315
▁پشدەر	-10.7315
▁کایەوە	-10.7316
▁فاشیزم	-10.7324
▁هەڵگرت	-10.7325
▁عەقید	-10.7326
▁هاوڕێیان	-10.7326
▁سینەماکاری	-10.7331
▁چەق	-10.7334
یەکەوە	-10.7335
▁کوردیت	-10.7339
▁250	-10.7339
▁پلانێکی	-10.734
▁هانا	-10.7343
گواز	-10.7344
▁ئەمەریکایی	-10.7346
▁هیچیان	-10.7347
▁گشتگیر	-10.7349
▁کچانی	-10.7351
▁کێشی	-10.7352
ەرز	-10.7356
▁ئیشی	-10.7359
اع	-10.7362
▁گوزار	-10.7363
تەم	-10.7363
لێک	-10.7367
▁وتی	-10.7367
▁کۆب	-10.7368
▁نەگۆڕ	-10.737
▁ساڵیادی	-10.7371
لاس	-10.7373
▁بارەگا	-10.7376
▁گشتییەکان	-10.7376
▁لەئە	-10.7379
▁عبدال	-10.738
تریش	-10.7381
▁پارێزەری	-10.7381
▁هۆیەوە	-10.7383
▁@	-10.7384
▁بەکورتی	-10.7391
درۆ	-10.7396
▁جێگا	-10.7397
▁ئەکرێت	-10.7402
گرم	-10.7405
▁دۆخێکی	-10.7407
▁ئەدەن	-10.7407
▁ئیسرائیلی	-10.7408
▁سەربازییەکانی	-10.7408
یاسا	-10.7409
▁ئەفسانە	-10.741
▁دەخات	-10.7413
▁جێگە	-10.7414
▁تەندروستیی	-10.7414
شکێن	-10.7415
▁پێشینەی	-10.7415
▁دیموکرات	-10.7416
▁گرتە	-10.7417
▁یانەکە	-10.7418
شێت	-10.742
▁سیتی	-10.7421
دەزانی	-10.7422
▁بەپێچەوانەی	-10.7427
▁هێمای	-10.7429
کای	-10.743
▁ڕاوێژ	-10.7432
▁بیرۆکە	-10.7435
▁کەمئەندامان	-10.7435
▁چوونکە	-10.7436
▁بەندیخانە	-10.7436
▁بکرێتە	-10.7437
▁ببەن	-10.7438
گوزار	-10.7439
▁سەرۆکوەزیرانی	-10.744
کەڵ	-10.744
▁تفەنگ	-10.7441
▁هەڵنە	-10.7442
▁ماک	-10.7443
▁پێیەی	-10.7444
▁تەش	-10.7444
▁دۆستان	-10.7445
▁خاڵەکانی	-10.7447
▁نەکردوە	-10.7449
▁زاراوەی	-10.7449
▁پەروەردەیی	-10.7452
▁ئاوەدان	-10.7453
aw	-10.7456
▁ستان	-10.7458
گەلێک	-10.7461
▁بەئەنجام	-10.7462
▁لەوانه	-10.7467
▁بەمجۆرە	-10.7468
▁بیەوێت	-10.7471
کەین	-10.7473
▁نیشانی	-10.7474
▁دیکۆمێنتی	-10.7475
▁چرکە	-10.7478
عەت	-10.748
▁تێپەڕی	-10.748
▁تایبەتیش	-10.748
▁میهرەبان	-10.7483
نەکراوە	-10.7486
شتێک	-10.7487
▁پەروەردگار	-10.7487
وەزارەت	-10.7488
▁نەخۆشیی	-10.7488
▁حسێن	-10.7489
▁شتانە	-10.7489
▁ڕوودانی	-10.7494
▁پێشان	-10.7495
▁فەرماندەیی	-10.7495
▁ڕۆن	-10.75
▁خۆرئاوای	-10.75
▁ئیمان	-10.7502
▁لەحکومەتی	-10.7504
جۆ	-10.7509
▁نەوەکانی	-10.751
▁قەدەغەکردنی	-10.7512
▁وەرگێر	-10.7513
▁تریشەوە	-10.7513
▁وەرچەرخان	-10.7514
▁نووسیویەتی	-10.7515
▁خێزانەکەی	-10.7518
▁ڕەتکردەوە	-10.7522
▁پسپۆڕی	-10.7522
▁پیشە	-10.7526
پەیوەندی	-10.7528
▁ئاوە	-10.753
▁هاشم	-10.7534
▁لاوە	-10.7534
▁یەکێکی	-10.7535
▁ڕووبەڕوو	-10.7536
▁یۆلیۆ	-10.7537
بکرێن	-10.754
▁ڕاپۆرتەکە	-10.7541
▁دەستپێ	-10.7542
▁پاساو	-10.7543
▁پلا	-10.7545
دەزگا	-10.7546
▁سای	-10.7548
▁هێرۆ	-10.755
▁بەسترا	-10.7551
▁لەدەسەڵات	-10.7552
▁ساڵدا	-10.7555
▁کۆمپانیاکان	-10.7557
▁مەسعوود	-10.7557
▁بنێن	-10.7565
▁فەرموودە	-10.7565
▁بەتوندی	-10.7566
▁جێهێشت	-10.7567
▁گەیشتنە	-10.7569
▁هەڵسەنگاندن	-10.7571
▁دیت	-10.7574
▁هەڵوێستێکی	-10.7575
نەتە	-10.7576
▁دەرنە	-10.7577
▁پەنابەری	-10.7577
▁ئەڵ	-10.7579
▁میوە	-10.7585
▁بۆمان	-10.7585
▁بوونەتەوە	-10.7591
▁ڕووداوەکه	-10.7591
ەکەتان	-10.7592
مەتی	-10.7593
▁نەبوە	-10.7596
بۆچوون	-10.7597
▁گۆشت	-10.7597
▁تاکتیک	-10.76
قل	-10.76
▁الر	-10.7601
▁بەلکو	-10.7602
▁دوابەدوای	-10.7604
بژێر	-10.7604
▁قال	-10.7606
وڵاتی	-10.7606
وویەتی	-10.7607
▁ئیدانەی	-10.7608
▁دواخرا	-10.7608
▁لەزۆر	-10.7609
▁حەمەی	-10.7609
ڕاو	-10.761
▁جووڵە	-10.7611
▁شوێنەکانی	-10.7611
▁بەرنامەو	-10.7612
▁دزەیی	-10.7614
▁کاتیشدا	-10.7616
▁عاشق	-10.7618
▁دەربر	-10.7618
▁دیکەوه	-10.762
▁کورددا	-10.762
وپ	-10.7622
▁چیا	-10.7628
خانەکان	-10.7631
▁لێبووردن	-10.7631
رایەوە	-10.7633
▁یاریزانانی	-10.7635
ماوە	-10.7637
▁لەوڵات	-10.7638
▁یاساکان	-10.7643
▁نیگا	-10.7645
▁چوارشەممه	-10.7647
▁بنەمایەکی	-10.7649
us	-10.765
▁لێدەکرێت	-10.7652
▁وتارە	-10.7653
▁داخەوە	-10.7657
نار	-10.7659
▁گرنگەکانی	-10.7661
▁مانایەکی	-10.7662
▁شاڵاو	-10.7664
ووک	-10.7665
▁ڕۆژەدا	-10.7667
▁هێرشێکی	-10.7667
عب	-10.767
▁یەکان	-10.7672
کانیش	-10.7672
▁نییەلە	-10.7673
▁خوێندەوە	-10.7673
▁فیدڕاڵ	-10.7674
▁بگۆڕێت	-10.7676
▁ڕەگەزپەرست	-10.7676
بگرن	-10.7677
▁دەخو	-10.7679
▁نیمچە	-10.7679
تور	-10.7679
▁تەواوەتی	-10.7681
▁چارەنوسی	-10.7686
▁بەسەرهات	-10.7686
▁گەورەیان	-10.7688
▁چرا	-10.7691
▁ئۆسکار	-10.7692
▁فێڵ	-10.7692
▁باجی	-10.7695
درێتەوە	-10.7696
▁سەروەریی	-10.7699
داوه	-10.7701
▁نەکراو	-10.7701
وبەری	-10.7701
▁بەدڵ	-10.7702
▁R	-10.7704
▁سەلامەتی	-10.7705
▁ماو	-10.7706
▁نەتوانێت	-10.771
▁دڵخۆش	-10.7711
40	-10.7713
▁ئاسۆی	-10.7713
C	-10.7714
لەندا	-10.7717
▁بەڵکە	-10.7718
▁ڕوسی	-10.7721
سای	-10.7722
دەگرێت	-10.7722
st	-10.7723
▁ڕاهێنانی	-10.7724
▁زەوت	-10.7724
▁کرداری	-10.7725
▁مانگه	-10.7727
▁چاودێرانی	-10.7727
▁مێینە	-10.7727
▁وەزار	-10.7728
▁بیابان	-10.773
▁چارەی	-10.7731
▁پرسیارێکی	-10.7732
▁چەوساندنەوە	-10.7734
کەون	-10.7736
ێتەوه	-10.7737
ژەی	-10.7739
▁زێڕ	-10.7742
▁مەلە	-10.7743
هۆکار	-10.7744
▁گار	-10.7745
▁خەلیفە	-10.7746
بەرپرس	-10.7747
▁ناوچەیی	-10.7747
▁بگەڕێ	-10.7748
▁بەمانای	-10.7753
▁شێوەکار	-10.7755
لەند	-10.7755
▁بگەن	-10.7756
▁دابڕاوەکان	-10.7757
▁دەرەوه	-10.7757
▁پڕۆژەیەکی	-10.7758
گن	-10.7758
لیک	-10.7758
▁سەرما	-10.7759
▁باوەشی	-10.776
▁گرتبوو	-10.7762
▁موس	-10.7762
چاک	-10.7764
▁کەمپ	-10.7764
▁ئەنجامدراوە	-10.7764
▁دەگمەن	-10.7765
▁O	-10.7766
▁میوانی	-10.7767
▁خوو	-10.7767
▁کارەکەی	-10.7771
وخ	-10.7771
لەت	-10.7772
وزی	-10.7774
١	-10.7777
▁شێو	-10.7777
▁تاو	-10.7777
▁مشتومڕ	-10.7781
▁ولاتی	-10.7786
▁پیرۆزە	-10.7789
▁اب	-10.7789
▁ستراتیژ	-10.779
▁گەرچی	-10.779
ویستی	-10.7792
ێندراو	-10.7795
مەرگ	-10.7795
▁مۆسکۆ	-10.78
▁مەسەلەیەکی	-10.7804
خستنەوەی	-10.7807
ناکرێت	-10.7808
▁ئاهەنگی	-10.7811
▁دروستکراو	-10.7814
▁نەتەوەو	-10.7814
▁دواخستنی	-10.7815
▁لیوای	-10.7815
▁کۆمەڵانی	-10.7816
▁ئاستێک	-10.7816
کۆی	-10.7818
▁ناسنامە	-10.7819
▁خشتەی	-10.7823
▁ئەک	-10.7824
ماو	-10.7826
▁کوردوستان	-10.7826
گەیشت	-10.7829
▁ئاژانسەکان	-10.783
▁ڕەوت	-10.7831
▁کوڕان	-10.7837
▁حیکمەت	-10.7837
▁نەدات	-10.7837
وسی	-10.7844
▁کچێک	-10.7845
▁to	-10.785
▁ڕۆژان	-10.7853
▁زەردەشت	-10.7857
▁هونەرمەندە	-10.7857
▁بەشداریان	-10.7861
▁بەسەرچوو	-10.7864
▁گرووپە	-10.7864
▁هەوڵە	-10.7866
▁گەیاندووە	-10.787
▁فێرکردن	-10.787
گەیەکی	-10.7871
گیان	-10.7873
▁خوازراو	-10.7875
▁نکۆڵی	-10.7878
▁ئایدۆلۆژیا	-10.7882
کیش	-10.7886
▁هێزەکان	-10.789
▁بێنێت	-10.7891
▁ڕاس	-10.7894
▁دەروون	-10.79
▁بینەران	-10.79
▁خۆپیشاندانەکان	-10.7901
▁هەڵدەبژێر	-10.7902
وونی	-10.7906
▁نیەو	-10.7907
بگرێت	-10.7908
▁گۆی	-10.7913
▁کاندیدەکانی	-10.7917
▁ژێردەست	-10.792
▁سەرشانی	-10.7924
▁بەردەوامن	-10.7925
▁حزبێکی	-10.7925
▁لەگەڵیدا	-10.7926
▁بگەڕێن	-10.7928
▁لەژیانی	-10.7929
ab	-10.7937
▁خانەوادەی	-10.7938
▁سەرهەڵدان	-10.7938
▁ئاکۆ	-10.794
▁سڵ	-10.7941
▁ڕووناک	-10.7943
▁لەکاتێکدایە	-10.7954
▁بووبوو	-10.7954
چەندین	-10.7957
لات	-10.796
▁1999	-10.7961
پوور	-10.7961
▁پێشەوەی	-10.7961
▁داوامان	-10.7962
▁جوانتر	-10.7962
ێنراوە	-10.7969
▁توندو	-10.7971
▁شەماڵ	-10.7976
▁یارمەتیدەر	-10.7977
▁کاتەوە	-10.7977
▁لەدیدارێکدا	-10.7978
▁یۆ	-10.7979
▁ژنێکی	-10.798
▁گرفتەکانی	-10.7981
پێدانی	-10.7982
▁هاواری	-10.7982
▁دەدرێن	-10.7984
▁هاتنه	-10.7984
وایه	-10.7984
▁بگە	-10.7985
▁سپ	-10.7985
▁سەدا	-10.7988
▁نەمسا	-10.799
▁ڕژا	-10.799
▁مەرجێک	-10.799
▁جۆراو	-10.7994
▁نەجەف	-10.7995
▁دەستەواژەی	-10.7996
▁مەست	-10.8001
▁دابن	-10.8003
▁دیاریکراوی	-10.8003
چارەسەر	-10.8006
▁دەخوازێت	-10.8007
ێتە	-10.8009
▁کۆمکاری	-10.8011
پان	-10.8013
▁ڕیکلام	-10.8015
▁لەوەشکرد	-10.8016
خزمەت	-10.8017
تەو	-10.8021
▁مانایە	-10.8027
ماف	-10.8027
▁بەڕووی	-10.8027
▁ڤایرۆس	-10.8027
▁ئەنج	-10.8027
▁هەرکەس	-10.8029
▁گەیشتنی	-10.8034
لایەنە	-10.8034
هاتن	-10.8035
▁لەمێژ	-10.8035
▁نوسی	-10.8037
▁سەردەمەدا	-10.804
▁خاوێن	-10.8041
▁کاره	-10.8046
▁شەوە	-10.8047
▁وتارێکی	-10.8047
▁لەهەوڵی	-10.8047
▁گوڕ	-10.8048
▁جیابوونەوە	-10.805
▁مێژو	-10.8051
▁شاند	-10.8051
▁ڕەخنەگران	-10.8052
▁e	-10.8054
▁دلێر	-10.8058
▁شەشەمی	-10.806
▁زانکۆکانی	-10.8062
▁ئاماژەشی	-10.8063
▁پێدراوە	-10.8064
▁گرفتە	-10.8064
▁مانچستەر	-10.8064
▁ئاک	-10.8065
▁فەرمانڕەوا	-10.8067
▁دیکتاتۆرییەت	-10.8068
▁تووڕە	-10.8068
▁بگەڕێنەوە	-10.8068
▁نەدەبوو	-10.8071
▁بەستن	-10.8071
▁قووڵی	-10.8072
▁هەوڵەکان	-10.8075
▁دیجلە	-10.8077
▁زیادە	-10.8079
▁جوانترین	-10.8084
▁پرۆفیسۆر	-10.8085
▁ئاکامدا	-10.8088
▁تۆم	-10.8092
▁de	-10.8093
▁جوتیار	-10.8095
▁شێخان	-10.8096
▁نگ	-10.8096
▁تاکێکی	-10.8097
رج	-10.8097
ئەمەش	-10.81
▁ئۆگۆست	-10.81
▁لەسەرتاسەری	-10.8105
▁براوە	-10.8109
▁پێشکەشکرد	-10.811
تون	-10.811
▁ئەندامەکانی	-10.8113
سەری	-10.8113
دارەکان	-10.8113
▁سەل	-10.8115
▁گەشەکردن	-10.8118
▁ئاگای	-10.8118
زادە	-10.8118
▁دەیکەن	-10.8119
▁دابڕان	-10.8123
▁باڵیۆزخانەی	-10.8123
▁جیاجیاکان	-10.8125
▁جیهانە	-10.8125
▁مەکتەب	-10.8127
▁ئەڵێت	-10.8128
▁هاوسەرەکەی	-10.813
وشەی	-10.8131
گرین	-10.8132
▁کردەوەی	-10.8132
▁کرابێت	-10.8135
▁ڕاکێش	-10.8137
▁دەرب	-10.8137
▁ئاکار	-10.8142
بەرد	-10.8142
▁بریکاری	-10.8142
▁شەفاف	-10.8146
▁دادەن	-10.8147
یانکرد	-10.815
▁داوی	-10.8152
▁بس	-10.8154
▁بەرنامەکە	-10.8155
▁ڕوناک	-10.8156
جل	-10.8156
▁سین	-10.8159
زمی	-10.816
▁ئۆتۆمبێلێکی	-10.8161
▁ناوەندە	-10.8163
▁نەدەن	-10.8163
▁حو	-10.8164
إ	-10.8164
▁ڕۆژێ	-10.8164
▁نەریتی	-10.8167
▁فەرمانگە	-10.8168
▁زامن	-10.8169
▁ئاییندە	-10.817
▁پۆزەتیڤ	-10.8171
▁1992	-10.8174
خاوەن	-10.8174
▁٣	-10.8178
ڵت	-10.818
ناکات	-10.8182
▁زەمینە	-10.8182
▁ناتوانرێت	-10.8183
▁120	-10.8183
کێشە	-10.8184
▁ئەمن	-10.8184
▁منداڵێکی	-10.8184
▁گەنجە	-10.8189
▁تاوانباران	-10.8191
▁خراوەتە	-10.8191
▁خوێنەری	-10.8193
▁بباتەوە	-10.8193
▁سووکایەتی	-10.8193
▁تەڵ	-10.8195
▁یەکڕیزی	-10.8199
▁مانگەدا	-10.8202
تۆنی	-10.8203
▁بەنیاز	-10.8204
▁بەخۆیان	-10.8204
▁بووەتەوە	-10.8208
▁پێشوازییکرد	-10.8211
▁لەبن	-10.8211
▁کۆمپانیایەکی	-10.8212
▁قۆناغەدا	-10.8214
▁پێیە	-10.8216
▁ئاخ	-10.8219
▁کردنیان	-10.8219
▁یەکشەممه	-10.8229
▁سەردانە	-10.8229
▁کاروانی	-10.823
▁پێوانە	-10.8231
▁پێکان	-10.8233
▁خوە	-10.8233
رز	-10.8233
▁ئەڵماس	-10.8234
▁زەبر	-10.8234
▁بەوه	-10.8235
▁ئەندازەی	-10.8236
▁ولە	-10.8236
دیر	-10.8237
▁مەم	-10.8239
▁سازدانی	-10.824
▁مامە	-10.8244
▁کاتێکی	-10.8244
▁حیکایەت	-10.8246
▁ڕوکن	-10.8249
▁ژیانە	-10.825
▁سیا	-10.8253
▁نەتەوەکەمان	-10.8258
▁ڕاکێشا	-10.8259
مۆن	-10.8261
▁گەلێ	-10.8263
▁مرۆڤێکی	-10.8265
▁بیروباوەڕ	-10.8266
▁خۆکوشتن	-10.8267
▁بکەی	-10.8267
▁پرۆگرامی	-10.827
▁دەردەخات	-10.827
▁شور	-10.8273
▁سەرنجڕاکێش	-10.8275
▁شیوە	-10.8276
دەگرن	-10.8277
▁پێداگری	-10.828
id	-10.8282
▁موع	-10.8288
▁ئەندێشە	-10.8288
▁65	-10.829
هەزار	-10.8291
▁لێدوانەکەیدا	-10.8293
▁لەشار	-10.8294
▁وەرە	-10.8294
25	-10.8294
▁ئەمەیە	-10.8297
دور	-10.8299
▁دەرەوەو	-10.8299
▁یەکدی	-10.83
▁بەغداو	-10.8301
دران	-10.8301
بینین	-10.8301
▁نەبەز	-10.8302
▁چوارەمین	-10.8309
▁دەنگدانی	-10.8314
▁سیم	-10.8317
▁ئۆتۆمبێلی	-10.8318
▁وشیار	-10.8319
▁خانەنشینی	-10.832
گەرا	-10.8321
▁سزادانی	-10.8322
67	-10.8323
▁سازکرد	-10.8326
▁کۆمەڵه	-10.8328
▁بەدڵنیاییەوە	-10.8328
▁دەگوت	-10.833
▁تووند	-10.8333
رەت	-10.8335
▁زەین	-10.8338
پارێزی	-10.8338
▁گۆرانیبێژی	-10.834
▁مادام	-10.8342
▁جەستەیی	-10.8345
▁لەوەزارەتی	-10.8346
نوری	-10.835
▁قسەیە	-10.8351
▁میکانیزمی	-10.8353
▁ئافرەتانی	-10.8354
کەرەوە	-10.8355
ەڵات	-10.8356
▁وتارەکەی	-10.8359
▁دانرا	-10.8359
▁نەبونی	-10.836
سەرۆک	-10.836
▁کۆنی	-10.8361
▁هاولا	-10.8362
▁تێکەڵاو	-10.8363
سێن	-10.8364
▁کەموکورتی	-10.8366
▁ڕۆڵە	-10.8367
▁دەگەڕێن	-10.8368
▁ژێرخانی	-10.8368
ستەر	-10.8368
▁ڕاکێشانی	-10.8368
▁وڵاتانەی	-10.8369
▁گور	-10.837
▁فڕۆکەی	-10.837
▁ماڵپەری	-10.837
▁خەڵکدا	-10.837
▁سەدە	-10.8375
▁تراژیدیا	-10.8378
▁حزبەکەی	-10.8379
▁گەریلا	-10.8381
▁بخەینە	-10.8383
▁تەبایی	-10.8383
هەن	-10.8385
▁گۆرانکاری	-10.8385
▁کارگێری	-10.8386
▁بابەتێک	-10.8387
▁پەردەی	-10.8387
R	-10.8387
ناخ	-10.8387
▁گوندەکان	-10.8388
▁کۆتا	-10.8388
زانین	-10.839
th	-10.839
▁وتویەتی	-10.8391
▁فیدراسیۆنی	-10.8392
▁هاوکاریکردنی	-10.8394
▁تاقیکردنەوە	-10.8395
لیب	-10.8395
کانم	-10.8397
▁پارچەی	-10.84
▁شل	-10.8401
▁بەرهەڵستکار	-10.8401
▁ڕوونکردنەوەیەک	-10.8403
▁سازش	-10.8404
▁پەیامە	-10.8405
▁خەمخۆر	-10.8412
▁باوەڕیان	-10.8412
▁پرۆژە	-10.8414
▁بیکات	-10.8415
▁ڕۆژانه	-10.8421
▁بەبڕوای	-10.8422
جەر	-10.8424
▁ئەوکاتەی	-10.8428
▁جنێو	-10.8436
مات	-10.8437
▁گۆرانییەک	-10.8438
▁ڕەوشەنبیری	-10.8444
ێرا	-10.8448
▁سیستمێکی	-10.8451
▁لەدەستدانی	-10.8453
فری	-10.8455
▁بێتاوان	-10.8459
▁میس	-10.846
▁بەرژەوەندییە	-10.8462
▁هەلومەرج	-10.8462
▁هەرزان	-10.8463
▁ئافرەتێک	-10.8464
▁ڕاگەیاندنەکان	-10.8464
▁دابمەزرێن	-10.8465
▁ئەدەبیاتی	-10.8465
▁هەستم	-10.8467
قد	-10.8467
نرخ	-10.8472
بەم	-10.8479
▁سندوقی	-10.8479
پڕۆژە	-10.8486
▁دڕندانە	-10.8487
کەفت	-10.8488
▁گوتوویەتی	-10.8489
▁یارمەتیدانی	-10.8491
▁بەغداد	-10.8493
▁پۆستەکان	-10.8494
▁لێنە	-10.8494
▁فریاکەوتنی	-10.8498
هێل	-10.8498
▁مێژووە	-10.8498
▁Kurdistan	-10.8499
▁بپارێزن	-10.8499
47	-10.8501
لێت	-10.8502
باسی	-10.8503
▁ناز	-10.8504
▁پەردە	-10.8504
▁قۆڵی	-10.8509
▁زەنگ	-10.851
عێراق	-10.8511
▁قازی	-10.8511
▁ئیمپراتۆر	-10.8512
▁بڕیاردرا	-10.8512
▁فڕۆکەوان	-10.8514
▁بکەر	-10.8514
▁حکوم	-10.8515
▁پۆش	-10.8516
▁تەکنیک	-10.8516
▁ڕەنگه	-10.8516
▁دامەزرێنەر	-10.8517
خور	-10.8517
▁ڕامیاری	-10.8517
▁زین	-10.8518
▁کۆمەل	-10.8518
▁نار	-10.8519
▁ئەبین	-10.852
▁لەڕۆژی	-10.8522
▁هەبوە	-10.8524
▁بەختەوەری	-10.8526
▁کۆبونەوەکە	-10.8532
▁ئاوێتە	-10.8532
ریکا	-10.8532
▁ببێته	-10.8534
▁سەرکردەیەکی	-10.8535
دایه	-10.8536
هەولێر	-10.8537
▁گەلەکەی	-10.8539
▁بەشداربووان	-10.8539
▁ئادار	-10.854
▁جگەر	-10.8541
▁دەموچاو	-10.8542
▁تایبەتمەندیی	-10.8544
تەوەو	-10.8544
▁موشەک	-10.8549
un	-10.855
▁The	-10.8551
▁کەسوکار	-10.8551
▁بکاتە	-10.8552
▁کۆبوونەوەکەدا	-10.8552
▁بڕێک	-10.8553
▁گۆت	-10.8562
▁سوریادا	-10.8564
▁کرانەوە	-10.8564
ۆسی	-10.8566
▁سەنگ	-10.857
▁ئێستاکە	-10.8572
▁قۆناخ	-10.8573
یاس	-10.8574
ۆد	-10.8576
ماوەی	-10.8576
حەق	-10.8576
ئیس	-10.858
▁لەژیان	-10.8582
▁جم	-10.8583
▁بزوتنەوە	-10.8583
▁فکر	-10.8584
▁هیز	-10.8584
▁بەرشلۆنە	-10.8585
لف	-10.8588
راوەکان	-10.8593
▁بەکەم	-10.8595
▁کاغەز	-10.8598
▁گولە	-10.86
▁لل	-10.8603
دەوڵەتی	-10.8607
ئەسوات	-10.8608
▁بەجێهێشت	-10.8608
▁بەفەرمی	-10.8611
▁هەڵبژاردندا	-10.8612
▁ئێش	-10.8613
▁شکاندنی	-10.8613
▁ویژدانی	-10.8618
▁کایە	-10.862
هەنگاو	-10.8622
la	-10.8624
▁تارق	-10.8624
▁کەلتوور	-10.8624
▁ئاوەدانکردنەوەی	-10.8626
▁لەولات	-10.8627
بخات	-10.8627
▁لەسیاسەت	-10.8633
▁دیمەنی	-10.8635
ڕێت	-10.8639
▁دەستم	-10.864
▁هەردو	-10.864
▁توێژەران	-10.8641
▁بەرایی	-10.8642
▁زۆ	-10.8642
▁جەوهەری	-10.8643
▁دووری	-10.8646
▁بەخۆوە	-10.8646
افە	-10.8647
▁یاریگا	-10.865
خانی	-10.8651
▁دەستکەوتی	-10.8653
▁ئەمریکادا	-10.8657
▁گوێم	-10.8661
▁گرێبەستی	-10.8663
▁دواییدا	-10.8666
▁کێشه	-10.8668
K	-10.8668
▁دەرهەق	-10.8671
▁پای	-10.8674
▁وەفدەکە	-10.8674
24	-10.8674
▁دوعا	-10.8675
▁جام	-10.8675
▁هەلبژاردن	-10.8678
چەشن	-10.8679
▁نەرێنی	-10.8679
▁گورز	-10.8679
14	-10.8681
▁بەرەوپێش	-10.8681
تۆر	-10.8682
▁هن	-10.8684
▁پارچەکانی	-10.8684
▁سەرلەبەیانی	-10.8685
▁لەوەتەی	-10.8686
▁سوک	-10.8689
▁ماڵپەڕ	-10.869
▁سالان	-10.8691
▁مەسیحییەکان	-10.8694
▁هەموولایەک	-10.8699
▁الص	-10.87
▁کرانەوەی	-10.87
▁پێشانگا	-10.8702
▁بڕیارێک	-10.8703
▁شەست	-10.8705
▁فەرماندە	-10.8706
▁کەسانێکی	-10.8708
▁بەرن	-10.8711
چان	-10.8712
▁عیسا	-10.8712
▁پەیمانگا	-10.8715
▁بەیاسا	-10.8715
▁بۆمبێکی	-10.8717
▁گەمەی	-10.8717
▁دەستنیشانکردنی	-10.8718
▁دیدە	-10.8718
▁ستاندارد	-10.872
▁هەوای	-10.872
▁کاربەدەست	-10.8721
▁گۆڵچی	-10.8722
▁پیک	-10.8722
▁ناوەوە	-10.8723
ووش	-10.8726
▁کارانە	-10.8726
▁وەلام	-10.8732
سلام	-10.8734
▁قوربانیان	-10.8734
▁تانک	-10.8737
دەوڵەت	-10.8738
▁بوارێک	-10.8738
▁نادرێت	-10.8738
▁تەواوکردنی	-10.8741
نیش	-10.8742
▁قێزەون	-10.8742
▁هەورامان	-10.8742
▁نۆر	-10.8746
▁پڕە	-10.8747
ئامانج	-10.8748
▁نوو	-10.8749
▁ڕۆژدا	-10.8752
▁کاریگەرییەکی	-10.8753
لاک	-10.8754
▁وەبەرهێنانی	-10.8756
▁تورکمانی	-10.8757
▁ڕوح	-10.8759
▁سێشەممه	-10.8759
▁برۆ	-10.8761
▁نزیکە	-10.8762
▁ئینگلیز	-10.8764
نیشت	-10.8766
49	-10.8766
57	-10.877
▁ڕێکەوتنی	-10.877
▁دوژمنان	-10.8771
▁ڕەواکانی	-10.8774
▁...	-10.8774
بەخت	-10.8777
▁بەدواوە	-10.8778
▁نەجیب	-10.8778
قوڵ	-10.8784
▁کایەی	-10.8788
ڕەوی	-10.879
▁داگیرکەران	-10.879
گومان	-10.8791
▁ئیمە	-10.8792
▁بکرێنەوە	-10.8792
▁بەهۆیەوە	-10.8792
▁ڕەتی	-10.8794
▁هەڵەبجەو	-10.8795
▁کردۆتەوە	-10.8796
ێوەبەری	-10.8796
▁دامەزراند	-10.8798
یات	-10.8799
▁شادی	-10.88
دارە	-10.88
▁کەڵە	-10.88
ێننەوە	-10.8803
▁شایستەی	-10.8803
ەڵە	-10.8807
یانداوە	-10.8815
32	-10.8817
▁ئەدا	-10.8818
▁دیموکراسیەت	-10.882
کەل	-10.8824
▁نالی	-10.8825
▁سێو	-10.8828
▁دۆخەکە	-10.8829
×	-10.883
ێری	-10.8831
ڤاڵ	-10.8832
کەوێت	-10.8836
▁چیرۆکە	-10.8838
▁موحسین	-10.8839
▁یانە	-10.8839
بووین	-10.8839
وزە	-10.8841
▁ناوەڕاستدا	-10.8841
▁کافر	-10.8844
دوور	-10.8846
▁کێشان	-10.8847
▁هەڵەیەکی	-10.8848
امە	-10.8849
▁خودای	-10.8851
▁هەشتەم	-10.8852
خوێنی	-10.8853
▁ڕایان	-10.8853
▁سنوورەکانی	-10.8854
جم	-10.886
دەسەلات	-10.8861
▁دەستمان	-10.8863
▁ئاف	-10.8864
▁ڕامان	-10.8864
▁ساڵه	-10.8865
▁لەئەستۆ	-10.8867
▁پێدەکرێت	-10.8868
▁فەرەیدون	-10.887
کێشی	-10.8871
▁چاوەروان	-10.8872
▁ڤ	-10.8872
▁پارلەمانی	-10.8872
▁پێشێلکردنی	-10.8874
▁شیکردنەوەی	-10.8875
چەم	-10.8884
▁دیواری	-10.8884
▁ڕێگرتن	-10.8887
▁شوناس	-10.8887
▁قام	-10.8888
▁ڕووناکبیری	-10.8889
▁قوبادی	-10.8891
▁هاتی	-10.8895
▁پادشا	-10.8896
▁ناوچانەی	-10.8897
▁دەگەر	-10.89
▁ئەزمونی	-10.8902
▁گەیاندن	-10.8908
▁بانگەوازی	-10.8909
▁مێر	-10.8909
▁چاوم	-10.8911
سالار	-10.8913
▁پەیمانگاکان	-10.8916
▁پڕۆژەکانی	-10.8921
▁کۆنگرێس	-10.8923
▁مادد	-10.8924
ایەکی	-10.8925
▁ئێوەش	-10.8925
▁تاقم	-10.8926
▁ماندووبوون	-10.8926
▁مۆندیال	-10.8927
وشە	-10.8928
▁قسەو	-10.8928
▁لەوەکرد	-10.8929
▁کیش	-10.8931
▁کلاسیکی	-10.8931
▁باخچە	-10.8932
غا	-10.8932
▁کەبۆ	-10.8933
▁جەولەی	-10.8933
▁باند	-10.8933
▁وەلامی	-10.8937
خستووە	-10.8938
▁چەقی	-10.8939
▁چەمکە	-10.8942
رف	-10.8942
▁بڕین	-10.8943
ێکى	-10.8944
▁کول	-10.8944
▁کڵ	-10.8945
کوژی	-10.8946
ەکانیانەوە	-10.8947
▁پەیامێکی	-10.8948
▁ڕۆم	-10.8948
▁سست	-10.8948
▁سەرچاوەکەی	-10.8949
فرین	-10.895
▁لێپرسراو	-10.895
▁تەکنەلۆژیا	-10.8952
▁گفتوگۆکان	-10.8953
▁قەزافی	-10.8953
بوڵ	-10.8954
▁نیه	-10.8954
▁پێشوی	-10.8955
فرە	-10.8956
▁ئازادیخوازان	-10.8957
▁بڕگە	-10.8958
▁سەردەمێک	-10.8958
▁کۆنەکان	-10.8961
▁پەخشی	-10.8962
▁هێدی	-10.8964
▁بەرزە	-10.8967
اندان	-10.8971
▁لەشوێن	-10.8978
▁لک	-10.8984
▁ڕێککەوتننام	-10.8985
▁نوێژی	-10.899
▁دڵەڕاوکێ	-10.899
▁ئەیلوول	-10.899
▁قور	-10.8991
▁قەلا	-10.8991
▁هەرەشە	-10.8994
▁نالەبار	-10.8995
▁جێبەجێکردنەوە	-10.9002
▁بەرهەمێکی	-10.9002
▁هەڤ	-10.9003
▁گێڕا	-10.9006
▁نەخۆشییە	-10.9006
▁پاشەکشەی	-10.9007
هۆی	-10.9009
ئەوەش	-10.9009
پارچە	-10.9011
▁شارەزوور	-10.9013
▁چەوساوە	-10.9013
▁شێرزاد	-10.9013
چک	-10.9019
▁تورکیاوە	-10.9019
▁کارێ	-10.9019
▁ئەندازیاری	-10.902
▁سەنگی	-10.902
▁سام	-10.9022
▁دەگرت	-10.9024
▁شۆفێر	-10.9024
▁کۆشک	-10.9024
▁دەڕ	-10.9026
▁مێژوویەکی	-10.9031
▁سعودی	-10.9031
▁نیوەڕۆ	-10.9032
▁سەپتەمبەر	-10.9032
▁مەرجە	-10.9033
▁ڕفاندن	-10.9033
▁دەستگیرکران	-10.9034
ۆڵە	-10.9034
توانا	-10.9035
▁دیدارەدا	-10.9036
▁ناحەز	-10.9037
▁بەندکراو	-10.9039
▁یادگار	-10.904
▁جلوبەرگ	-10.9045
▁نووسینە	-10.9045
▁کامە	-10.9046
▁لەمیانی	-10.9046
▁توێژە	-10.9048
ووری	-10.9051
▁شاشە	-10.9054
▁پشێوی	-10.9055
▁ستافی	-10.9055
ویت	-10.9056
▁دەسەڵاتدا	-10.9057
▁گوڵی	-10.9058
▁فەرمانگەکان	-10.9058
▁بگەنە	-10.9058
▁کاربەدەس	-10.9059
▁دەداتەوە	-10.9059
▁ڕوژ	-10.906
▁هام	-10.9063
سوڕ	-10.9065
▁چیدی	-10.9066
دابوو	-10.9066
▁شایستە	-10.9068
▁نیوەڕۆی	-10.9071
▁بەتەواوەتی	-10.9076
ترن	-10.9078
▁جۆراوجۆری	-10.9081
▁بدوێ	-10.9082
▁دەولەت	-10.9084
12	-10.9085
▁نائارامی	-10.9085
ساید	-10.9091
▁کوژراوە	-10.9091
10	-10.9092
جیاواز	-10.9093
سوور	-10.9093
▁نەگرت	-10.9094
▁بەزەیی	-10.91
▁بەهاو	-10.91
کراوەو	-10.9103
مافی	-10.9104
▁سوودێکی	-10.9106
▁پەنجەی	-10.9106
▁بڕینی	-10.9106
▁داوەت	-10.9107
▁لەهەندێک	-10.9107
▁کۆلێژ	-10.9108
▁ئەمریکای	-10.9109
▁ڕێکخراوەیی	-10.9111
▁قاهیرە	-10.9112
نجی	-10.9113
▁لەدرێژەی	-10.9113
راس	-10.9113
▁پارک	-10.9114
▁نزیکبوونەوە	-10.9115
▁هەڵسوکەوتی	-10.9117
▁شتانەی	-10.9117
▁دەسەلاتدار	-10.9118
▁160	-10.9118
سیم	-10.912
▁هاور	-10.9121
▁ببو	-10.9121
▁عەقڵییەت	-10.9124
نەوانە	-10.9124
بەسەر	-10.9125
▁کارەکتەر	-10.9126
ردن	-10.9127
▁داگیرکراو	-10.9128
▁ڕەچاو	-10.9128
کیان	-10.9128
▁بەرقەرار	-10.9131
▁فراکسیۆن	-10.9134
مة	-10.9136
▁بەخشرا	-10.9137
▁ئەوەیه	-10.9138
▁کاراکتەر	-10.914
▁باسکردنی	-10.914
▁جین	-10.9143
▁دەوام	-10.9146
▁ڤا	-10.915
وج	-10.915
▁کەهەر	-10.915
▁سێدارەدان	-10.9155
▁زر	-10.9155
▁ئەویتر	-10.9156
▁ئازادییە	-10.9156
▁کولتوری	-10.9157
▁مەهاباد	-10.9158
▁کلتووری	-10.916
▁ڕزگاریخوازی	-10.916
▁کڕین	-10.9161
▁ئازادانە	-10.9161
▁دابەشبوون	-10.9161
▁بیانووی	-10.9161
▁نووسیندا	-10.9162
شێر	-10.9162
▁ڕێور	-10.9162
▁ناوخۆو	-10.9164
▁لەدەرەوە	-10.9165
▁پرسێکی	-10.917
کاتێک	-10.917
▁وێرای	-10.9171
▁ئامەد	-10.9172
▁قەر	-10.9173
▁نازی	-10.9175
▁هێلکە	-10.9177
▁بەراستی	-10.9177
لاح	-10.9178
▁کارمەندی	-10.9179
▁هەڵی	-10.918
▁ڕکابەر	-10.9183
وال	-10.9184
▁ڕێڕەو	-10.9185
▁لەکۆبوونەوەی	-10.9185
▁منداڵەکانیان	-10.9187
▁بەدیل	-10.9192
▁دروستکردن	-10.9193
▁هەشتەمی	-10.9197
▁مەل	-10.9198
▁تەفسیر	-10.9199
نامەکە	-10.9199
ئەرک	-10.9201
گێ	-10.9202
▁خوێندەوار	-10.9209
▁شەریعەت	-10.9209
▁جەنگاوەر	-10.9209
▁کلیل	-10.921
وتین	-10.9212
▁ئاڵوگۆڕی	-10.9212
▁فەرموو	-10.9212
▁نیویۆرک	-10.9213
▁بپارێزێت	-10.9216
▁فلم	-10.9216
▁زێدە	-10.9218
▁لەیەکەم	-10.9219
▁تێب	-10.9225
▁سێیەمین	-10.9231
▁جوولەکە	-10.9231
گفتوگۆ	-10.9232
▁تەس	-10.9233
▁هۆل	-10.924
▁بەلێ	-10.9242
▁پزیشکان	-10.9242
▁ڕاگرت	-10.9244
▁باک	-10.9244
انێ	-10.9247
▁بینیمان	-10.9252
▁لۆژیکی	-10.9252
▁شوێنەواری	-10.9252
▁قسانە	-10.9254
▁مع	-10.9255
▁بابان	-10.9255
▁ماونەتەوە	-10.9257
▁شەوێک	-10.9258
▁ڕۆڵەکانی	-10.9259
▁کۆمەڵگایە	-10.9259
▁بڕوانە	-10.926
گەن	-10.926
▁زل	-10.926
▁ئایە	-10.9261
▁مەراسیم	-10.9261
▁وابەستە	-10.9261
▁چالاکییە	-10.9262
▁ناوخۆییەکان	-10.9262
▁600	-10.9264
▁پرسیارەکە	-10.9265
▁پێچ	-10.927
37	-10.9271
▁مەزنی	-10.9272
▁دادەنێن	-10.9273
باخ	-10.9274
▁خەز	-10.9275
▁ساکار	-10.9276
▁ئاژانسا	-10.9278
▁بوارەکاندا	-10.9278
زیاتر	-10.9279
▁شوانی	-10.9281
▁بەسرە	-10.9281
▁برایانی	-10.9283
▁خایاند	-10.9283
▁ڕەوتە	-10.9284
بڵ	-10.9284
ter	-10.9287
▁خۆبەخش	-10.9289
▁سێبەر	-10.929
▁کوری	-10.9295
▁کەنیسە	-10.9295
▁دیکەیان	-10.9297
▁پرۆژەکانی	-10.9298
کتێب	-10.9298
▁تۆقاندن	-10.9301
کول	-10.9302
▁بەرشلۆنه	-10.9305
▁ڕۆژنامەو	-10.9307
▁بلۆک	-10.9307
▁پاشماوەی	-10.9308
▁لیستەکەی	-10.9308
قار	-10.9309
▁دامودەزگاکانی	-10.9309
▁موفتی	-10.931
▁دەرمانی	-10.9311
▁تاد	-10.9312
حاڵی	-10.9312
27	-10.9313
پاڵ	-10.9314
پل	-10.9318
ڵۆ	-10.9318
▁سووتەمەنی	-10.9319
▁لانیکەم	-10.9321
تایبەت	-10.9321
وەتەوه	-10.9322
▁2001	-10.9327
جەو	-10.9327
هێنن	-10.9327
▁تاوانانە	-10.9328
فێر	-10.9328
یزمی	-10.933
ist	-10.9332
▁g	-10.9332
حیزب	-10.9335
▁سۆزی	-10.9336
▁هاوڕا	-10.9342
▁داخوازییەکانی	-10.9342
▁هەموارکردنی	-10.9343
▁قانون	-10.9343
▁بیستەم	-10.9348
▁کاکەیی	-10.9348
نوسی	-10.9351
▁شانۆنامە	-10.9353
ڵێت	-10.9354
▁دەکەون	-10.9355
▁گێڕانەوە	-10.9356
▁هەڵەبجه	-10.9356
▁یەپەگە	-10.9356
ئەس	-10.9357
▁تین	-10.9359
رة	-10.9361
▁سیاسییەوە	-10.9363
جر	-10.9367
داین	-10.9371
▁سەربەستی	-10.9371
▁هەستکردن	-10.9373
▁ئوس	-10.9375
▁خۆشبەختانە	-10.9375
خراو	-10.9375
▁ئەستەم	-10.9376
▁ماوەیەکە	-10.9377
▁وەرنە	-10.9383
اتۆر	-10.9383
زه	-10.9385
قام	-10.9386
▁تێی	-10.9386
باد	-10.9388
▁چەن	-10.9389
▁ئازادیخوازی	-10.939
وردە	-10.9391
کارانە	-10.9393
▁حەمەد	-10.9394
▁منداڵەکان	-10.9395
66	-10.9395
▁تایفی	-10.9395
▁گۆشەی	-10.9395
باوەڕ	-10.9397
▁هۆگر	-10.9397
▁هێند	-10.9398
بڕاو	-10.9399
▁لێکۆڵینەوەکان	-10.94
▁کارنامەی	-10.94
▁کلاسیک	-10.94
▁پێڵاو	-10.9402
▁ئایدیۆلۆژیا	-10.9403
▁نەخوازراو	-10.9403
▁سەربەست	-10.9404
▁بەکورد	-10.9405
▁بارەوە	-10.9408
▁کۆمیتە	-10.9408
▁کارەکە	-10.941
▁کچەکە	-10.941
▁بهێت	-10.941
▁ڕێکخست	-10.9412
▁درک	-10.9413
ناوچە	-10.9414
▁بەرنامەکانی	-10.9415
▁داهێنانی	-10.9416
وەندی	-10.9416
ئان	-10.9418
▁قڕ	-10.9419
▁پەسند	-10.9419
هیوا	-10.9423
▁سیاسیە	-10.9424
▁بنکەکانی	-10.9424
▁ناخۆشی	-10.9426
▁دێرینەکان	-10.9427
▁کۆمپانیاکە	-10.9427
▁باسمان	-10.943
▁قەرزی	-10.943
▁ڕاوەستا	-10.943
▁تەح	-10.9432
▁تەقینەوەیەک	-10.9432
▁ئالا	-10.9433
گیرا	-10.9434
▁بایدن	-10.9434
▁بڕێکی	-10.9435
▁کتێبخانەی	-10.9437
▁نامەیەک	-10.9438
▁کۆبو	-10.944
▁کونسوڵی	-10.9445
▁لەرێگای	-10.9446
ڤار	-10.945
▁نایابەکانی	-10.945
▁ڕەخنەگرتن	-10.9451
رەنگ	-10.9451
هێڵێت	-10.9451
▁ڕەشی	-10.9452
خەنە	-10.9455
▁لەهۆڵی	-10.9456
▁خەڵکێکی	-10.9456
▁دەستەو	-10.9458
▁ملم	-10.9458
▁ڕاشکاوانە	-10.9459
هیر	-10.9459
▁سایکۆلۆژی	-10.9459
▁بەسەرپەرشتی	-10.946
بخەن	-10.9462
مەبەست	-10.9463
▁نیشت	-10.9464
▁ماندو	-10.9465
▁دەستپێکرد	-10.9465
▁گەشتوگوزار	-10.9465
▁گەردوون	-10.9467
▁ڕیکخراو	-10.9467
لۆس	-10.9468
ژمار	-10.947
کەشی	-10.947
▁تاکوو	-10.9471
▁مەش	-10.9474
▁گورگ	-10.9474
▁ڕاد	-10.9474
▁000	-10.9475
گڵ	-10.9478
شەممە	-10.9478
دێن	-10.9478
▁دەنگدانەوە	-10.9483
▁جموجۆڵ	-10.9493
▁چاڵ	-10.9493
▁لەئەنجامدا	-10.9493
▁ستایل	-10.9495
▁بڕۆن	-10.9497
کتۆر	-10.9497
▁هەندرێن	-10.9498
▁حکومەتدا	-10.9499
▁لەپەیوەندی	-10.9499
▁ئیسلامدا	-10.9503
▁دیارترین	-10.9504
زانێت	-10.9505
▁گێ	-10.9505
▁هەندی	-10.9506
ul	-10.9507
ەکانیشی	-10.9507
▁بەخێر	-10.9509
▁دەگە	-10.951
▁مزگەوتی	-10.9511
ڕۆڵ	-10.9511
▁کۆمەکی	-10.9514
▁لەگەلا	-10.9515
▁ئاشکراکرد	-10.9517
▁ڕووبەری	-10.9522
سول	-10.9522
▁بابەتەکان	-10.9523
▁نابێتەوە	-10.9524
▁قاعیده	-10.9526
▁مه	-10.9529
▁فەیلی	-10.953
▁خەڵکەکە	-10.9534
▁هێنایە	-10.9535
▁ناسیۆنالیست	-10.9535
راوەتەوە	-10.9535
▁زمانەوانی	-10.9536
▁سەوا	-10.9539
▁منداڵەکانی	-10.9543
▁بادینان	-10.9546
▁بەڕۆژ	-10.9547
▁خۆپیشاندانەکە	-10.9549
▁قانوون	-10.955
▁چاپی	-10.9551
▁وێستگ	-10.9555
▁بلێ	-10.9555
▁بەڕێزان	-10.9556
▁پێدەکەن	-10.9557
▁لایان	-10.956
▁لەهەردوو	-10.956
▁چر	-10.9562
▁کوڕەکەی	-10.9563
واس	-10.9566
▁ئۆردوگا	-10.9568
کاتی	-10.9569
▁گوناه	-10.9572
بکەوێت	-10.9576
پەنا	-10.9576
یەکمان	-10.9581
▁ئیز	-10.9582
▁ژمار	-10.9584
▁نەکەوت	-10.9584
▁بابە	-10.9586
▁چەوسانەوە	-10.9587
تەمەن	-10.9589
▁گرنگیدان	-10.9589
▁مەقام	-10.9592
▁ناساند	-10.9596
▁خەل	-10.9597
گیراوە	-10.9597
▁کال	-10.9602
▁خۆکوژ	-10.9602
▁بروسک	-10.9606
▁گێر	-10.961
▁ئایندەیەکی	-10.9611
▁لەشوێنی	-10.9612
▁ئینت	-10.9614
▁وشەیەک	-10.9617
▁زۆرن	-10.9617
▁دەمێکە	-10.9619
بکەینەوە	-10.962
ەتێکی	-10.9621
چکە	-10.9622
شێتەوە	-10.9625
▁کوردییە	-10.9626
▁نەبی	-10.9626
▁ئەرز	-10.9626
▁داوەتە	-10.9628
▁سیل	-10.9629
▁لەمەش	-10.963
▁ڕۆل	-10.963
▁نەهێن	-10.963
▁ئاوڕ	-10.963
▁لەهەڵبژاردنی	-10.9632
im	-10.9636
▁ڕۆما	-10.9637
▁سنووردار	-10.9637
▁چەپی	-10.9639
▁کریم	-10.964
▁ئیستا	-10.9641
▁سنگ	-10.9647
▁ئافرەتی	-10.9647
▁پاشکۆی	-10.9648
▁خی	-10.9649
▁لیبراڵ	-10.9654
هەوا	-10.9655
▁ڕەچاوی	-10.9655
▁نەخ	-10.9656
▁خۆڕاگر	-10.9657
▁لەخولی	-10.9657
▁ئەفسانەی	-10.9657
▁ئەنگ	-10.9657
▁شێعرە	-10.9658
▁گرنگیی	-10.966
جوڵ	-10.9662
▁باخچەی	-10.9668
▁ئاخاوتن	-10.9669
▁فەیسبووک	-10.9669
▁قەرەداغی	-10.967
▁بگەیەن	-10.9671
▁خەر	-10.9675
▁شاره	-10.9676
گەشە	-10.9677
رێس	-10.9677
▁تەوەری	-10.9678
▁کوم	-10.9678
87	-10.9681
▁نەتەوەییەکان	-10.9682
فەرمان	-10.9683
▁شێرپەنجە	-10.9683
▁ستەمکار	-10.9684
▁تاوانەکان	-10.9686
▁درکاند	-10.9687
▁ڕەوانە	-10.9691
▁بەیاننامەیەکی	-10.9692
▁بەوپەڕی	-10.9692
▁تاپۆ	-10.97
▁شێرپەنجەی	-10.9703
ێژە	-10.9704
▁سەرمایەدار	-10.9705
گەیەنێت	-10.9707
نیوە	-10.9708
▁هاوڕێکانی	-10.9712
▁حیزبەکەی	-10.9713
▁لێبوردنی	-10.9714
▁نەزانی	-10.9714
ەکەیەتی	-10.9716
▁یەکگرتن	-10.9716
زل	-10.9718
▁نەقیب	-10.9718
گرنگ	-10.9719
▁دەرهێنان	-10.972
بدەین	-10.972
هاد	-10.9721
▁بۆیەش	-10.9722
ئارا	-10.9722
▁سەرسوڕمان	-10.9722
▁مەمک	-10.9722
فەی	-10.9723
▁فۆتۆگرافی	-10.9727
ئەندام	-10.9727
▁ڕوانگە	-10.9728
▁دواییەی	-10.9728
کاروباری	-10.9729
▁لەدەستی	-10.973
رۆن	-10.9732
▁لیستەکان	-10.9736
▁پارەیەکی	-10.974
▁سەرووی	-10.9743
▁نایەوێت	-10.9745
▁فرۆشتن	-10.9747
▁پرسیارانە	-10.9748
قول	-10.9751
▁ژەهراوی	-10.9757
▁یۆنیۆ	-10.9759
بێن	-10.976
▁بریندارەکان	-10.9761
▁یەکەکانی	-10.9764
▁حاڵەتێکی	-10.9764
▁تێپەڕبوونی	-10.9767
▁ئاوارەکانی	-10.977
▁پیشەسازیی	-10.9773
کرێ	-10.9774
▁سووری	-10.9779
▁چارەسەرکردن	-10.9779
▁لایەنانە	-10.9781
▁نۆڤەمبەر	-10.9781
▁بزانم	-10.9782
▁مەعریفی	-10.9785
▁موح	-10.9786
▁2002	-10.9788
فان	-10.9791
کردوون	-10.9792
گەهێ	-10.9793
پەل	-10.9794
ئیم	-10.9794
▁بەخشینی	-10.9795
▁نەیانتوانیوە	-10.9795
▁خواستەکانی	-10.9796
▁دگەل	-10.9797
▁هەرێمەوە	-10.9799
تانیا	-10.9799
▁شێعرەکانی	-10.98
▁بخرێت	-10.9801
▁حەڤد	-10.9801
▁فیدراسیۆن	-10.9801
▁ئەڵێن	-10.9801
▁قەزاو	-10.9804
بهێنێت	-10.9805
▁لەیاریی	-10.9807
▁خوێنەران	-10.9808
▁زەبەلاح	-10.9809
▁هەلوێست	-10.981
▁نووسەرە	-10.9811
کوشتن	-10.9814
▁شەپۆلی	-10.9816
▁پێهات	-10.9822
▁چەندەها	-10.9823
▁بیروڕای	-10.9824
42	-10.9827
ولە	-10.9828
فڕ	-10.983
▁سووتان	-10.9832
▁کتێبخانە	-10.9832
▁بۆمبی	-10.9833
▁سەرەک	-10.9834
▁چاوەر	-10.9834
▁بش	-10.9835
▁تاچەند	-10.9836
▁وەدەست	-10.9841
▁ناوەڕۆک	-10.9843
▁خەونە	-10.9844
رەوی	-10.9848
▁ئەدی	-10.985
▁کەڵەکە	-10.985
▁هاوولاتیانی	-10.9851
▁داکۆکیکردن	-10.9853
▁پاڵەوانیتی	-10.9854
اوەتەوە	-10.9857
▁بەشەی	-10.9861
▁گۆڕستان	-10.9863
خوێندنەوە	-10.9866
▁بەمە	-10.9868
▁وەزارەتەکان	-10.9869
▁پارەکە	-10.9871
بەهۆی	-10.9872
▁قەوارەی	-10.9872
▁دیمەن	-10.9872
▁پڕۆژه	-10.9875
▁مەرجەکانی	-10.9876
پیر	-10.9878
▁وەرگێڕان	-10.9878
▁بڵاویان	-10.9879
▁ڕاستگۆ	-10.9879
▁ناسینی	-10.9882
▁کەسایەتیی	-10.9884
▁الد	-10.9884
فاق	-10.9887
▁ناکەوێت	-10.9888
▁پێگەیشت	-10.9888
▁وێنەگرتنی	-10.9888
▁کۆمۆنیزم	-10.9889
▁تەپ	-10.989
▁دەیەی	-10.989
ation	-10.9894
▁ئوسامە	-10.9898
▁هەڵکەوت	-10.99
▁مسۆگەر	-10.99
▁چەقۆ	-10.9901
گەشت	-10.9902
▁لەکۆبوونەوەکەدا	-10.9902
▁سرووشتی	-10.9904
▁کم	-10.9904
▁لەکۆنگرە	-10.9905
▁ئێسک	-10.9906
کوڕ	-10.9909
دل	-10.9911
▁دەخرێتە	-10.9911
▁بزر	-10.9913
▁خانووبەرە	-10.9914
▁دکتۆرا	-10.9914
▁ڕاگیرا	-10.9914
▁خاوەنەکەی	-10.9919
▁داین	-10.992
▁شوێنانە	-10.9921
▁شێروان	-10.9921
▁ناوبانگی	-10.9923
▁شانازیی	-10.9925
▁خێزانە	-10.9926
کەکان	-10.9927
▁پەرۆشی	-10.9928
▁بەئاگا	-10.9931
▁داواکارین	-10.9931
▁خۆشم	-10.9931
▁هۆڵەندی	-10.9933
▁دواڕۆژ	-10.9933
▁عەتا	-10.9935
اتە	-10.9936
▁دادو	-10.9937
▁قەڵەو	-10.9939
▁ڕێورەسم	-10.9939
▁کێن	-10.994
▁لەوڵاتانی	-10.994
▁منداڵێک	-10.9944
سەت	-10.9945
▁مافەکانیان	-10.9945
▁هونەرە	-10.9945
▁تەرخانکراوە	-10.9946
ووین	-10.9946
▁کێیە	-10.9947
▁پارچه	-10.9947
▁گوای	-10.9947
▁تەنیشت	-10.9949
بەستن	-10.9951
ئاس	-10.9953
▁هەشتاکان	-10.9954
▁کوردەوە	-10.9954
چار	-10.9955
F	-10.9958
▁مشت	-10.9958
▁یەکگرتنەوەی	-10.9962
▁نەیویست	-10.9964
▁کەشوهەوا	-10.9967
▁ئۆز	-10.997
▁ڕاپۆرتێک	-10.9974
▁پارەو	-10.9975
▁سەرمایەی	-10.9977
چڵ	-10.9977
کراونەتەوە	-10.9977
▁بەشەر	-10.9978
زاب	-10.9979
▁سەرچاوەکان	-10.9979
▁نوجێفی	-10.9981
کەوێ	-10.9982
گیرس	-10.9985
▁دێم	-10.9986
▁گیروگرفت	-10.9986
▁پێشکێش	-10.9987
▁ئەمنیی	-10.9988
پەیامنێر	-10.9993
وویانە	-10.9997
▁دەنگێکی	-11
▁لادن	-11.0001
▁مێژووییە	-11.0003
▁وێنەگرتن	-11.0004
ەمەنی	-11.0005
▁مورسی	-11.0006
راز	-11.0007
▁کیان	-11.0009
▁بگەیەنن	-11.0009
▁خەڵکەکەی	-11.0009
▁بڕیارەکە	-11.0009
▁غەدر	-11.0011
ڵد	-11.0014
▁لوبنانی	-11.0021
▁دیاریکراوە	-11.0025
▁دەکەوێتەوە	-11.0026
▁تواناو	-11.0027
▁شارەزایانی	-11.0028
▁فاشی	-11.0028
▁پێزانین	-11.0029
▁بەشدارن	-11.0032
▁گەنجێک	-11.0034
▁سودی	-11.0034
▁بەڕێژەی	-11.0035
▁هۆکارەکەی	-11.0041
▁زێد	-11.0041
▁بپرسین	-11.0041
▁ڕابوردوو	-11.0041
▁ئیدانە	-11.0042
▁فەتوا	-11.0044
▁ڕەهەند	-11.0044
▁بەشیر	-11.0045
▁مێژوودا	-11.0046
▁دەباغ	-11.005
لیل	-11.0056
لەگەڵ	-11.0056
کەند	-11.0059
▁بڕیارەکەی	-11.006
▁سەرسەخت	-11.0061
▁سلیمانی	-11.0061
▁هۆتێل	-11.0062
▁بخەن	-11.0063
پۆرت	-11.0063
سۆز	-11.0064
▁پیا	-11.0064
▁زاراوە	-11.0064
▁لێدوانەکانی	-11.0065
ڤال	-11.0067
▁مریشک	-11.0067
دیس	-11.0074
ئەمڕۆ	-11.0076
▁ستران	-11.0077
▁هەریەکەیان	-11.0077
▁لەیەکێتی	-11.0079
▁دەف	-11.008
▁دەگەین	-11.0081
▁گەشتیاران	-11.0085
گەریی	-11.0087
▁کلا	-11.009
▁یادە	-11.0092
▁فلمێ	-11.0093
▁ئارەزو	-11.0095
▁67	-11.0097
62	-11.0097
▁پێکهێنا	-11.0098
▁پڕۆژەیاسای	-11.0099
▁کوبانێ	-11.0102
▁هەمەلایەنە	-11.0102
▁خێڵەکی	-11.0102
▁مەترسیی	-11.0102
▁ڕەز	-11.0102
▁گەیاندە	-11.0102
ترو	-11.0104
پەروەر	-11.0107
▁شوفێر	-11.0107
▁ڕێبەرانی	-11.0108
▁دەبو	-11.0108
▁دێنێت	-11.0109
ڕان	-11.0109
▁هەنوکە	-11.011
دەبرێ	-11.011
▁دەروێش	-11.0113
▁بەهمەن	-11.0113
▁لایەنگر	-11.0115
خوازان	-11.0118
حمد	-11.0118
▁پێشانگایەکی	-11.012
▁دەڵێیت	-11.012
▁نەیارانی	-11.012
▁بەیاننامە	-11.012
▁ناڕاست	-11.0125
▁گەشتیار	-11.0129
▁ئیتاڵیا	-11.0129
▁بەسەرۆک	-11.0131
▁داری	-11.0132
▁بەبیر	-11.0135
▁مەزنە	-11.0136
کردۆتەوه	-11.0136
▁خولەکەکانی	-11.014
▁کۆت	-11.0141
▁هەستە	-11.0143
اوه	-11.0145
قور	-11.0147
▁فلیم	-11.0147
▁ئەخلاق	-11.015
▁گرتوو	-11.0151
▁وەستاوە	-11.0153
▁بەئاوێنەنیوزی	-11.0154
▁هەڵگر	-11.0155
▁خۆپیشاندانەکانی	-11.0155
▁2015	-11.0157
▁دوپات	-11.0158
▁گرفتەکان	-11.0158
▁قەب	-11.0161
گەڕانەوە	-11.0161
▁هێنرا	-11.0162
گرتوو	-11.0162
▁نانی	-11.0163
▁کۆمەڵگاو	-11.0165
▁ئەوێ	-11.0165
بەخۆ	-11.0165
▁وەزیرەکان	-11.0166
▁بەهێزە	-11.0167
▁دەستەڵاتی	-11.0167
▁ناتوانیت	-11.0172
▁بدرێن	-11.0174
▁پەنای	-11.0177
لق	-11.0178
ce	-11.0181
یەوەو	-11.0181
▁ناوبانگ	-11.0181
▁پایز	-11.0182
▁فاکتەری	-11.0183
مێژوو	-11.0185
▁کۆمسیۆنی	-11.0185
▁هەرکاتێک	-11.0188
▁بدەیت	-11.0189
ەددین	-11.019
▁کەربەلا	-11.0192
▁تاکه	-11.0193
▁وبە	-11.0194
ێنیت	-11.0195
▁زانستە	-11.0195
▁بنکەیەکی	-11.0197
▁نەدرێت	-11.0198
▁ئیسلامییە	-11.0199
▁دەیگوت	-11.02
لیۆن	-11.02
کردنێکی	-11.0203
46	-11.0203
شیدا	-11.0205
شۆڕش	-11.0205
▁لینک	-11.0205
▁دابەزینی	-11.0206
▁کەلێن	-11.0208
▁ئەرسناڵ	-11.0212
▁شارێک	-11.0213
▁ڕیسوا	-11.0213
▁لەشکر	-11.0214
پێنج	-11.0214
▁ستی	-11.0216
▁خانمان	-11.0216
پاس	-11.0217
▁جەن	-11.0218
▁مۆزەخانەی	-11.0221
▁تیرۆریستییەکان	-11.0222
▁دیمەنێک	-11.0224
▁بڵاوکرایەوە	-11.0227
▁لەپرۆسەی	-11.0228
خات	-11.0229
▁ڕابەری	-11.0231
▁ڕامیاریی	-11.0231
▁بەربڵاو	-11.0231
▁پارتەکەی	-11.0236
▁دابنێن	-11.0236
ساو	-11.0237
▁نێگەتیڤ	-11.0238
▁ئەوروپاو	-11.0248
▁سڕینەوەی	-11.0248
بانگ	-11.0248
▁یەکیتی	-11.025
▁جیهانیدا	-11.0252
▁مەحکوم	-11.0254
▁سترا	-11.0254
▁بێگەرد	-11.0255
زیاد	-11.0259
▁دەکردو	-11.026
▁هۆکارانە	-11.026
▁بەرتەسک	-11.026
▁کۆبوونەوەیەدا	-11.026
▁تازەیە	-11.0264
▁کرێی	-11.0264
٢	-11.0265
▁دەورو	-11.0268
▁نازانین	-11.027
کردووەتەوە	-11.0273
اکی	-11.0275
حەی	-11.0278
▁شمشێر	-11.0279
نەری	-11.0279
▁داڕشت	-11.0285
▁وەبەرهێنەر	-11.0286
▁باوەش	-11.0286
44	-11.0289
▁ئەوەدا	-11.029
تیف	-11.0294
▁برینداربوو	-11.0294
▁بد	-11.0294
▁دیسەمبەر	-11.0296
▁لۆژیک	-11.0297
▁کز	-11.0301
▁نادر	-11.0304
▁کەئێستا	-11.0307
▁دیوی	-11.0307
▁عەرەبە	-11.0308
▁جەزائیر	-11.0309
▁ڕەسەنی	-11.031
▁کەناری	-11.0312
▁چۆ	-11.0313
64	-11.0314
▁نها	-11.0316
▁زانینی	-11.0316
▁ئەلقاعیدە	-11.032
▁سەرکۆماری	-11.0322
▁ئەڵقە	-11.0322
بەدەست	-11.0326
▁بێژەر	-11.0329
▁ئەلیکترۆنی	-11.033
شیعر	-11.033
▁لەمەو	-11.0333
خەی	-11.0334
▁سیما	-11.0334
▁دەشت	-11.0335
▁شوناسی	-11.0336
▁ئەکا	-11.0338
▁پەیڤ	-11.0341
ئامێز	-11.0342
▁زانای	-11.0345
▁v	-11.0346
دیموکراسی	-11.0347
▁ئۆفیسی	-11.0349
▁ڕێوڕەسم	-11.0351
▁زەمەنی	-11.0353
▁هەفتەیەدا	-11.0355
لاد	-11.0355
▁دیوان	-11.0356
▁هەسارە	-11.0356
▁دۆز	-11.0359
▁دانیشتووان	-11.0361
▁سەرچاوه	-11.0361
▁لۆک	-11.0362
▁شەریک	-11.0364
▁بێزاری	-11.0365
▁زور	-11.0365
ێندرا	-11.0366
▁هەرزەکار	-11.0367
▁کۆمەڵگەیەکی	-11.0369
▁هەمیش	-11.037
▁دەیەوێت	-11.0373
▁قوربانیدان	-11.0374
▁لێدوانێکیدا	-11.0375
ماد	-11.0378
کۆمەڵ	-11.038
وابوو	-11.0381
▁دەربچێت	-11.0383
▁ئاپۆ	-11.0384
کسی	-11.0384
▁حزبایەتی	-11.0385
▁گفتوگۆیان	-11.0385
سون	-11.0392
▁کۆمەڵگەدا	-11.0392
▁لێدوانەکەی	-11.0394
▁لەکۆتاییدا	-11.0395
راف	-11.0395
▁کیلۆ	-11.0395
؟	-11.0397
▁کیژ	-11.04
▁باشیان	-11.04
للە	-11.0401
▁ڕیشەیی	-11.0401
▁ببینین	-11.0402
کاتە	-11.0405
▁جووت	-11.0407
▁گرتوە	-11.0408
▁بڕیارەی	-11.0411
▁هێنانەدی	-11.0412
نەدان	-11.0413
▁مژدە	-11.0414
زانم	-11.0416
ڕین	-11.0416
▁ئینگلتەرا	-11.0418
▁ئەستەمە	-11.0418
▁شێوەیەی	-11.0419
▁ڕێککەوتنە	-11.042
▁سەختە	-11.0424
▁چارەسەرێکی	-11.0424
▁لەیلا	-11.0425
▁ئێرانیش	-11.0426
▁فاشیست	-11.0427
▁بەرژەوەندیەکانی	-11.0427
▁ڕاگەیەندراو	-11.0427
▁کاردانەو	-11.0431
▁لاتینی	-11.0433
▁لەسنوری	-11.0434
▁مەحاڵە	-11.0437
▁پێکدێت	-11.0437
▁ناڕاستەوخۆ	-11.0443
▁تەع	-11.0446
▁مۆم	-11.0446
▁85	-11.0447
▁وەربگرین	-11.0449
▁بەپلەی	-11.0451
▁کوردیان	-11.0452
عات	-11.0452
دیا	-11.0453
▁شۆک	-11.0456
▁لێپرسراوانی	-11.0459
لەبەر	-11.046
▁لادێ	-11.0461
توانێ	-11.0464
دەبین	-11.0466
▁سالانە	-11.0472
▁پێوەری	-11.0472
ێنەی	-11.0473
▁ئینتیما	-11.0476
▁گومانلێکراو	-11.0476
▁بزاڤ	-11.0476
▁دەڤەرە	-11.048
▁ئادەم	-11.0485
ەکانیشیان	-11.0485
قاڵ	-11.0486
ak	-11.0489
▁ڕۆژهەلاتی	-11.049
▁فەرمووی	-11.0491
▁میانی	-11.0491
▁سەفین	-11.0493
▁ئور	-11.0493
▁ڕادیکاڵ	-11.0496
▁بوونەوەر	-11.0496
▁ناکۆکییەکان	-11.0496
▁شیعەو	-11.0496
▁بروسکە	-11.0496
▁ترو	-11.0497
عود	-11.0498
گرفت	-11.0501
بەردەوام	-11.0502
▁عاشقی	-11.0503
بدرێت	-11.0506
▁ئەنجوومەن	-11.0509
بۆر	-11.0511
▁چاڤ	-11.0512
گەیاندنی	-11.0513
▁فەلاح	-11.0513
▁تۆز	-11.0516
▁سەفەری	-11.0517
قڵ	-11.0518
▁فریشتە	-11.0518
▁بەهرەمەند	-11.0519
▁پەرەسەندن	-11.0522
▁گۆڕاوە	-11.0522
هەردوو	-11.0523
▁پێرس	-11.0524
کردە	-11.0525
▁نۆیەم	-11.0526
▁بچم	-11.0526
نوێ	-11.0526
▁بەڕێوەبردن	-11.0527
▁خوی	-11.0528
▁کەسایەتییە	-11.053
پەیمان	-11.053
▁سواری	-11.0534
٣	-11.0534
رێز	-11.0541
چەر	-11.0541
▁تەمەنیان	-11.0543
پرۆژە	-11.0543
▁بەعسییەکان	-11.0543
کۆر	-11.0545
▁پێشڕەوی	-11.0546
▁ناسراوی	-11.0546
▁گوزەر	-11.0546
▁ئاشکراکردنی	-11.0548
▁zwn	-11.0548
▁لەلا	-11.0551
▁داگیرکاری	-11.0553
گەها	-11.0553
▁هەڵویست	-11.0554
تەنها	-11.0557
▁ژەن	-11.0558
▁سنوورەکە	-11.0558
▁نەخوێندەوار	-11.0558
▁حەسرەت	-11.0559
▁ئازایەتی	-11.0559
▁لەکۆنگرەیەکی	-11.0561
▁پڕۆژەیەک	-11.0567
▁ڕێو	-11.057
▁یارییەکەی	-11.057
▁ماون	-11.0571
▁ئەوجا	-11.0573
▁لەسێ	-11.0574
▁هەناردەکردنی	-11.0575
▁لەداهاتوودا	-11.058
▁دهوکێ	-11.0582
▁ئەجێندای	-11.0582
▁ملکەچی	-11.0583
35	-11.0585
▁شاهید	-11.0585
غان	-11.0585
٥	-11.0587
▁بەپێویستی	-11.0587
▁قودس	-11.059
▁پێبدرێت	-11.0592
▁تیڤی	-11.0592
53	-11.0593
▁دانیش	-11.0596
▁نوسراوە	-11.0598
▁لێپێچینەوە	-11.0601
▁دەدوێت	-11.0601
▁خەڵکەوە	-11.0601
ژاو	-11.0601
▁شارستانییەت	-11.0603
▁کۆمە	-11.0603
▁جوانەکانی	-11.0604
▁وازی	-11.0604
▁پژاک	-11.0606
▁بەرزتر	-11.0608
بابەت	-11.061
▁org	-11.0611
▁موقتەدا	-11.0611
▁خێرخوازی	-11.0613
گاکانی	-11.0614
▁کۆمەڵەکانیش	-11.0616
▁دەکرێ	-11.0619
▁هەندێکجار	-11.0619
▁الب	-11.0619
▁ابن	-11.0621
▁کۆنگرەیە	-11.0623
▁گەڕاندنەوەی	-11.0624
▁کەمئەندام	-11.0624
ندن	-11.0624
دەبات	-11.0624
ەسمی	-11.0624
هەند	-11.0625
▁لەزۆربەی	-11.0625
▁یەحیا	-11.0627
▁لەنزیکەوە	-11.0628
▁الف	-11.0629
▁لەمە	-11.063
▁یازدە	-11.063
▁لەدایکبوونی	-11.0632
▁زام	-11.0634
▁ئێر	-11.0636
▁ڕوونیشی	-11.0636
71	-11.0636
▁تیرۆریستانی	-11.0638
ەکەیاندا	-11.0639
▁باسم	-11.0639
▁گۆڕانکارییە	-11.0642
▁دارو	-11.0643
36	-11.0644
▁بەچاوی	-11.0649
▁وەرزە	-11.065
▁دابڕ	-11.0651
▁سەرئەنجام	-11.0652
▁دامەزراوەکانی	-11.0652
▁هەتاوی	-11.0654
▁پوچەڵ	-11.0654
▁هەنار	-11.0657
▁زێر	-11.0658
▁فراوانکردنی	-11.0658
▁لەناوچەکە	-11.0659
▁میللەتێک	-11.066
▁هەشتا	-11.066
52	-11.0661
▁ناسیۆنالیزم	-11.0661
▁قۆرخ	-11.0664
▁لەسەرۆک	-11.0669
▁جۆرێکی	-11.0669
▁شەرعییەتی	-11.067
▁بێکار	-11.067
▁دراون	-11.0672
▁پێکەوه	-11.0673
▁نەتەوەیەکی	-11.0675
رچ	-11.0676
▁نمایشکردنی	-11.0677
▁مووشەک	-11.0677
▁کامکار	-11.0679
▁تیپەکە	-11.068
▁شارۆچکەکانی	-11.0683
▁لەبارەوە	-11.0685
▁هه	-11.0686
ڕەگەز	-11.0693
▁دەرئەنجامەکانی	-11.0693
▁تایمز	-11.0696
▁ڤیدیۆ	-11.0697
▁وەردە	-11.0697
▁بەهەمانشێوە	-11.0697
لاق	-11.07
▁بدەنەوە	-11.07
▁عەقل	-11.0701
ۆلۆجی	-11.0701
▁سەردانەی	-11.0703
نزیک	-11.0704
▁پەیکەری	-11.0705
▁جارێکیتر	-11.0705
▁وەزارەتە	-11.0705
▁کەسایەتییەکی	-11.0706
▁شۆڕشە	-11.0706
▁تووشبوون	-11.0707
نەبوونی	-11.0708
▁پاشای	-11.0709
▁گەڕایەوە	-11.0712
براو	-11.0714
▁بەرزترین	-11.0714
▁تیژ	-11.0715
▁سەلاح	-11.0715
سەرەتا	-11.0717
▁ئێرانەوە	-11.0717
▁دەگیرێت	-11.0718
▁ڕێکخراوه	-11.0718
▁پاڵەوانەکانی	-11.0721
▁قەرەبووی	-11.0726
هۆڵ	-11.0726
▁زاهیر	-11.0729
▁ئەبن	-11.0729
▁جوگرافیای	-11.0729
▁لەجیهاندا	-11.073
▁بانگی	-11.073
جیهان	-11.0731
▁توێژی	-11.0731
▁گڵ	-11.0732
الا	-11.0732
▁بۆندی	-11.0734
▁لافاو	-11.0734
▁گەردون	-11.0736
▁پردی	-11.074
▁لێهات	-11.0743
دەکەینەوە	-11.0745
▁شوباتی	-11.0746
▁دەرچووی	-11.0747
▁پەیوەندیان	-11.0749
جیر	-11.0749
زیک	-11.075
▁یاریکردن	-11.0753
▁کۆمەڵناس	-11.0754
▁سوڕ	-11.0758
▁قەززافی	-11.076
قال	-11.0761
▁72	-11.0762
▁نەدی	-11.0763
▁ململانێکان	-11.0767
▁دەمێک	-11.0768
▁گوڵە	-11.0771
▁هەلومەرجە	-11.0773
▁ئەزموونێکی	-11.0774
▁هاتوونەتە	-11.0774
▁ساڵەدا	-11.0777
▁هەژاران	-11.0782
یستەکان	-11.0785
▁هەواڵەکان	-11.0788
حەت	-11.0788
▁شاعیران	-11.079
▁بەغدای	-11.0791
▁دەهێنرێت	-11.0791
▁گوی	-11.0792
▁کەمپینی	-11.0795
▁ئەمجارەیان	-11.0796
▁نیشاندانی	-11.0797
▁ئەمنیەکان	-11.0797
▁بەرزنجەیی	-11.0798
▁ئەنتەرمیلان	-11.0798
▁ڕێگایەکی	-11.08
▁ناگرێت	-11.0801
▁پەت	-11.0802
ائیل	-11.0802
▁ئەندامەی	-11.0803
▁لەلێدوانێکدا	-11.0803
▁خوایە	-11.0806
▁فیدرال	-11.0807
▁دیپۆرت	-11.0807
▁ڕێوڕەسمی	-11.0808
گاکان	-11.0809
٤	-11.0811
▁سەربەرزی	-11.0812
ُّ	-11.0812
وقی	-11.0814
▁دیپلۆمات	-11.0814
▁هەبووەو	-11.0814
لة	-11.0815
دۆر	-11.0815
ma	-11.0816
رەج	-11.0818
▁دەفتەر	-11.0818
▁بەرپرسیاریەتی	-11.0823
▁دەقیقە	-11.0824
▁بێژ	-11.0825
▁پاڵپشت	-11.0828
▁بڵاوکردۆتەوە	-11.0828
گریت	-11.0831
▁جون	-11.0832
▁زێ	-11.0832
▁حمە	-11.0835
فۆن	-11.0835
▁کامیان	-11.0838
ئەحمەد	-11.0838
▁جۆش	-11.0839
▁نەدراوە	-11.0839
▁کۆنەپەرست	-11.084
ناسین	-11.084
▁خواردنەوەی	-11.0841
▁ئۆڵۆمپی	-11.0841
▁هاوڵاتیەک	-11.0842
65	-11.0842
▁لەبەرامبەریشدا	-11.0842
▁لاوەکی	-11.0843
نوسین	-11.0844
▁دەگێڕێتەوە	-11.0844
▁ڕێککەوت	-11.0844
▁62	-11.0846
اگ	-11.0846
▁ئوم	-11.0846
▁خۆڕاگری	-11.0847
▁ئاوازی	-11.085
▁مت	-11.0851
▁قەیرانەکان	-11.0852
▁ئەکەین	-11.0852
▁ئایدیۆلۆژی	-11.0857
▁شاعیرە	-11.0857
▁هەڵبژاردنەکە	-11.0858
▁العرب	-11.0858
▁یۆنانی	-11.0861
کێشەی	-11.0861
▁هەفتەیە	-11.0862
فل	-11.0865
تاران	-11.0866
دۆن	-11.0866
▁دەرس	-11.087
گاو	-11.087
▁بەدر	-11.0872
▁ئێواران	-11.0874
▁تیرۆرستی	-11.0874
▁دانوستاندن	-11.0874
پۆلیس	-11.0874
بەشدار	-11.0876
▁پاییز	-11.0879
▁کوێستان	-11.088
▁ناردووە	-11.0881
M	-11.0881
بگیرێت	-11.0882
ریس	-11.0882
▁ئێستایش	-11.0882
▁میترۆ	-11.0882
▁نەتەوەکان	-11.0882
▁چێلسی	-11.0884
▁پیاوسالاری	-11.0884
ۆلیس	-11.0886
▁چەم	-11.0887
سیاسەت	-11.0887
▁ڕەهای	-11.089
▁قوربانییەکان	-11.0892
▁شیاوی	-11.0893
▁تەلاری	-11.0894
▁خاڵێک	-11.0894
07	-11.0899
لۆر	-11.0902
▁لینین	-11.0903
باو	-11.0904
▁ببم	-11.0905
▁تێڕامان	-11.0906
se	-11.0908
▁بڵاویکردۆتەوە	-11.0908
▁دوورکەوتنەوە	-11.0912
▁کۆبوو	-11.0912
▁پەرەسەندنی	-11.0913
▁جەهانگیری	-11.0917
▁داوایکرد	-11.0917
▁پەرلەمانتارە	-11.0918
▁پاڵاوتن	-11.0921
▁خانووی	-11.0922
▁کرۆ	-11.0922
▁سەیارە	-11.0924
▁خەبەر	-11.0924
▁مانایەی	-11.0926
▁زانکۆکان	-11.0926
یەکم	-11.0927
▁لێدەکەن	-11.0927
▁دەبرێت	-11.093
▁هەڵگرتنی	-11.093
هاب	-11.093
▁نیسانی	-11.0931
▁ڕووباری	-11.0931
ah	-11.0931
▁دیوە	-11.0933
▁گیرۆدە	-11.0933
▁عبد	-11.0936
▁کردوه	-11.0937
▁بارو	-11.0938
▁جوانکاری	-11.0938
▁پاشگەز	-11.0939
▁بەڕێوەبچێت	-11.094
▁کۆلیژ	-11.0941
▁نالین	-11.0943
▁توندڕەوی	-11.0943
▁گەلێکی	-11.0943
بینن	-11.0943
▁خز	-11.0948
▁ض	-11.0949
▁دیدارەکەدا	-11.0949
▁لەبەردەست	-11.0951
▁چاودێران	-11.0953
▁دەهێنا	-11.0954
▁مەعسوم	-11.0955
بینێت	-11.0956
33	-11.0964
▁چڵ	-11.0965
▁دێتەوە	-11.0967
▁داوەتەوە	-11.0969
مبەر	-11.097
▁لەوێش	-11.0972
▁کراوەتە	-11.0973
▁بەرگەی	-11.0974
▁دڵخۆشی	-11.0974
▁شارۆچکە	-11.0974
▁کوتله	-11.0974
تەواو	-11.0978
جن	-11.098
گوڵ	-11.098
▁تاوتوێکرد	-11.0981
کەوین	-11.0982
▁ئامراز	-11.0984
توور	-11.0985
▁کارزان	-11.0986
پور	-11.0987
▁ئاشتەوایی	-11.0988
▁بدۆزێتەوە	-11.0988
زانن	-11.0991
▁دراوی	-11.0991
▁لەئێستا	-11.0996
▁پێگەیەکی	-11.0998
▁نوخبە	-11.0999
▁بەهەند	-11.1002
▁مێز	-11.1002
▁هەناردە	-11.1004
یەتێکی	-11.1004
▁ئیئتلافی	-11.1005
▁دەبرد	-11.1006
▁نەتەو	-11.1011
▁بەناوبانگی	-11.1013
▁جلی	-11.1016
▁دوازدە	-11.1016
▁مەزار	-11.1017
▁لم	-11.102
ناک	-11.102
▁پێناد	-11.1024
▁غا	-11.1026
▁وڵام	-11.1032
سەرجەم	-11.1033
▁شۆرشی	-11.1035
▁ئامرازی	-11.1039
▁خوازیار	-11.104
▁واڵا	-11.1045
▁ئەیوب	-11.1049
▁دیزاین	-11.1049
▁ڕوونکردنەوە	-11.105
▁هەرێمیش	-11.1051
▁هەستا	-11.1052
▁دەسەڵاتدارێتی	-11.1052
▁نائومێدی	-11.1054
▁بەلجیکا	-11.1054
▁وەڵامدانەوەی	-11.1055
▁ڕاڤە	-11.1057
60	-11.1057
▁دایکان	-11.1057
▁جینۆسایدی	-11.1059
▁کۆبوونەوەیەک	-11.1059
▁ناوبژیوان	-11.106
کۆبوونەوە	-11.1064
▁دروستدەکات	-11.1065
▁دابڕێنراوەکان	-11.1065
باشترین	-11.1066
▁لەبەشی	-11.1066
90	-11.1066
وەزیر	-11.1067
▁ئەمریکاوە	-11.1067
▁کەهەموو	-11.107
▁ئێمەیە	-11.107
▁چێنراو	-11.1074
▁بڕیاریان	-11.1076
▁دەمار	-11.1077
تەل	-11.1079
لوو	-11.1082
▁فریو	-11.1084
▁شەهیدی	-11.1084
▁دەسەڵاتەکانی	-11.1087
▁قسەیان	-11.1089
▁سەربەرز	-11.109
▁دایه	-11.1092
▁شمەک	-11.1093
▁وەربگیردرێت	-11.1093
▁پاسپۆرت	-11.1093
▁کلتور	-11.1094
▁بەهەڵە	-11.1095
55	-11.1096
▁تیۆر	-11.1098
75	-11.1098
کۆمپانیا	-11.1101
▁هەژدە	-11.1104
ia	-11.1105
▁درێژەدان	-11.1105
شێواز	-11.1106
▁داعشەوە	-11.1107
▁ئێراقی	-11.1109
▁عەر	-11.1109
▁حەزم	-11.1112
▁حەشار	-11.1114
▁سەرشەقام	-11.1114
▁بزاڤی	-11.1115
▁ئاسودە	-11.1116
▁شەکر	-11.1117
▁لەیەکێک	-11.1117
ۆڤیچ	-11.1117
▁کریست	-11.1118
▁یه	-11.1119
ێنەری	-11.1121
لب	-11.1124
▁دینارە	-11.1125
59	-11.1127
▁ئەکادیمیای	-11.1129
▁کۆنترۆڵکردنی	-11.1132
▁داواش	-11.1133
▁ڕزگاربوون	-11.1133
▁جیاوازن	-11.1134
ئەمریکا	-11.1134
عەبدول	-11.1135
▁ئەخ	-11.1137
▁سپارد	-11.1138
▁دژایەتیکردنی	-11.1139
▁پێکهاتبوو	-11.1139
▁دێرسیم	-11.1143
گێڕان	-11.1148
▁حەر	-11.1151
▁جن	-11.1154
▁ئەنجامێکی	-11.1156
ونەته	-11.1156
▁سەرچاوەکە	-11.116
▁ڕاستیەکان	-11.1161
بەس	-11.1164
▁لەناوچەکانی	-11.1164
▁لەمەوپێش	-11.1166
▁مرۆڤدا	-11.1167
▁بیکەن	-11.1168
▁ئالی	-11.1168
▁گۆشە	-11.1168
▁بەڕەسمی	-11.1171
بایەخ	-11.1172
▁ڕۆژنامەگەریی	-11.1174
▁بەخشین	-11.1175
▁دۆسێ	-11.1178
▁بڕوایان	-11.118
▁کامپ	-11.1181
کراوەکانی	-11.1181
▁سمینار	-11.1182
▁مەودای	-11.1182
▁مەکسیک	-11.1182
حەم	-11.1184
رۆژنامە	-11.1184
▁ساختەکاری	-11.1187
▁دۆنم	-11.1187
پۆست	-11.1188
▁پەیوەندیەکی	-11.1188
▁مەراسیمی	-11.1189
▁پلانە	-11.1189
▁لوتکە	-11.1189
▁تاکەکەس	-11.1193
▁سالارکەرکوکی	-11.1193
▁دووەمیان	-11.1194
▁ژنانە	-11.1195
▁پڕکردنەوەی	-11.1198
▁هەقیقەت	-11.1199
56	-11.12
ستێت	-11.1202
▁توندڕەوەکان	-11.1204
▁کەژاڵ	-11.1205
▁جەرگ	-11.121
▁فراکسیۆنەکان	-11.121
▁ببیت	-11.1212
▁تەکنەلۆژیای	-11.1214
یەکەم	-11.1215
▁ئۆک	-11.1216
70	-11.1218
▁بڕوایەدا	-11.1221
▁بەدواداچون	-11.1221
گەیەنرا	-11.1222
▁خوێ	-11.1225
▁بۆمبڕێژکراو	-11.1227
▁جوامێر	-11.1227
▁پارتێکی	-11.1229
▁دراوسێی	-11.1229
تەنگ	-11.1232
▁باشترکردنی	-11.1232
▁پل	-11.1232
▁داڕێژراو	-11.1234
▁لەسەد	-11.1234
بەشێک	-11.1234
▁ات	-11.1234
▁گوێز	-11.1237
▁کتێبێکی	-11.1241
▁لەبەرانبەر	-11.1244
▁چەواشەکاری	-11.1248
▁دەسته	-11.125
▁نەرمی	-11.1252
▁ڵا	-11.1254
گووت	-11.1255
▁کۆنتڕۆڵی	-11.1258
▁شیعریی	-11.1259
▁چۆتە	-11.126
دراون	-11.1262
▁کارای	-11.1262
▁1990	-11.1265
▁شیکاری	-11.1265
نشینەکان	-11.1267
▁حەبیب	-11.1269
▁ئۆپۆز	-11.1273
▁سۆرانی	-11.1275
▁دەستگیرکرد	-11.1275
▁لەهەوڵ	-11.1276
▁میک	-11.1276
▁ئەبوو	-11.1277
▁تاقمە	-11.1277
▁سەرەتایەک	-11.1277
▁دنیایە	-11.1278
▁کوشتووە	-11.1279
▁گریمان	-11.128
▁ئەفسەری	-11.1284
▁دەخەینە	-11.1286
خراپ	-11.1288
▁ئەکرەم	-11.1289
▁لەچوار	-11.1289
▁مور	-11.1292
▁سەرکەوتنێکی	-11.1292
▁یاریزانەکان	-11.1296
▁کێشانەی	-11.1297
▁نادروست	-11.1298
▁هێور	-11.1298
▁پەرلەمانتارێکی	-11.1301
سێت	-11.1303
▁تیرۆرستان	-11.1303
پلان	-11.1305
▁گوندەکە	-11.1306
تالی	-11.1306
▁سەرکەوتنە	-11.1307
▁ئەوروپادا	-11.1307
▁شێعردا	-11.1308
فیر	-11.1309
▁فایل	-11.131
▁بازنە	-11.131
▁پێشمەرگه	-11.1312
کردنەوه	-11.1312
▁جیهانییەکان	-11.1317
▁تورکەکان	-11.1317
▁هەریم	-11.1318
چر	-11.1318
▁دەستپێک	-11.1324
▁کێشەکەی	-11.1328
▁عەبدولمەهدی	-11.1328
▁دووچاری	-11.1329
▁دەکاتەوه	-11.1331
اوا	-11.1332
▁کتێبەکە	-11.1333
▁ڕواندز	-11.1334
خستنە	-11.1337
▁چنگ	-11.1337
گەو	-11.1339
▁پەرەی	-11.134
▁ئارارات	-11.134
▁بۆماوەی	-11.1343
▁لووت	-11.1343
▁بەردەوامبوونی	-11.1345
▁هەیانە	-11.1348
▁درێژکردنەوەی	-11.1351
▁خێرای	-11.1351
چا	-11.1355
نامەیەکی	-11.1355
کەناڵ	-11.1355
28	-11.1355
▁زنجیرەیەک	-11.1355
ناسان	-11.1356
▁مەکە	-11.1357
▁پێنجوێن	-11.1361
نەبوو	-11.1362
▁دیالۆگی	-11.1363
▁بەبەراورد	-11.1363
▁قوربان	-11.1366
▁هەڵوێستەی	-11.1367
▁زەرەرمەند	-11.1367
▁ئێم	-11.1369
▁یاوەر	-11.1369
▁بەنداو	-11.1372
▁شەهرستانی	-11.1374
▁مووسڵ	-11.1375
بارەوه	-11.1376
▁فەتح	-11.138
▁بەرلەوەی	-11.138
▁جووتیاران	-11.1382
▁تەلەفیزیۆن	-11.1385
▁ڕەشە	-11.139
▁خولێکی	-11.1391
▁کۆنفرانسەکە	-11.1393
▁سەددام	-11.1394
▁بتوانرێت	-11.1397
▁بەخێرهاتن	-11.1403
ێوەبەرایەتی	-11.1404
گران	-11.1404
▁ئەمەیان	-11.1405
▁سەیران	-11.1407
تیژی	-11.1409
li	-11.1414
▁بەختەوەر	-11.1419
▁تەقلیدی	-11.1425
▁تێنسی	-11.1426
▁مەرز	-11.1426
▁نموونەیەکی	-11.1426
▁تازه	-11.1426
خوڕ	-11.1426
▁پڕۆسەی	-11.143
▁ناوێت	-11.1432
▁تەلار	-11.1432
ووەو	-11.1434
▁دەیانەوێت	-11.1437
▁سەردانێکی	-11.1442
گوند	-11.1443
▁مەغریب	-11.1443
▁تکریت	-11.1443
▁چیک	-11.1444
▁کازم	-11.1444
▁ئیبن	-11.1449
▁بەقەد	-11.1454
▁بەکاتی	-11.1455
▁یاریزانێکی	-11.146
▁بلا	-11.1464
▁هێنانە	-11.1465
▁قایم	-11.1465
▁ڕەخنەو	-11.1465
ریز	-11.1467
بەل	-11.1468
▁ڕۆک	-11.1469
گوڕ	-11.147
▁ئەنجامبدرێت	-11.1471
▁ڕابگرێت	-11.1471
ڵین	-11.1471
▁نمونە	-11.1471
▁ئیقلیمی	-11.1471
▁پێوەندی	-11.1477
▁شارەدا	-11.1478
▁میللەتە	-11.1481
▁لێکراوە	-11.1481
▁ئامرازێک	-11.1484
▁هیندی	-11.1486
هەندێک	-11.1487
▁درو	-11.1487
▁بهێنم	-11.149
▁کۆمۆنیست	-11.1491
▁گەورەیی	-11.1493
کێت	-11.1496
▁نایاب	-11.1497
▁خۆشمان	-11.1498
توون	-11.1499
▁میللەتەکەمان	-11.15
▁بەرپرسەکان	-11.15
▁یەکخستنی	-11.1501
هەوڵ	-11.1502
▁دەنێن	-11.1503
sh	-11.1504
کۆتایی	-11.1504
▁700	-11.1504
▁ئۆتۆمبێلێک	-11.1504
▁بەنێو	-11.1506
بڵاو	-11.1507
▁ڕەس	-11.1511
▁هەندەران	-11.1512
▁تۆماری	-11.1514
▁نەخۆشخانەکان	-11.1516
▁قەڵادزێ	-11.1518
کۆمەڵگا	-11.1519
▁کەمپی	-11.1521
▁حەفتا	-11.1521
▁موسوڵمان	-11.1523
خۆن	-11.1524
▁الک	-11.1525
▁سەنگاوی	-11.1526
▁ڕۆژوو	-11.1527
▁لەرێی	-11.1529
▁بەردەوامەو	-11.1534
▁پەیرەو	-11.1535
جارە	-11.1536
▁ناوچەکان	-11.1536
▁63	-11.1537
▁کەسەکان	-11.1538
هەمین	-11.1545
▁دەستەیەک	-11.1548
▁مژ	-11.1552
داران	-11.1552
▁ژوورەوە	-11.1554
وێل	-11.1557
▁زای	-11.1557
▁عەقڵانی	-11.1558
▁هەمبەر	-11.1562
▁شەرمەزاری	-11.1563
▁دائە	-11.1564
▁لەهەڵبژاردن	-11.1564
فڵ	-11.1565
▁بەسوود	-11.1565
▁شەونم	-11.1567
▁ڕەحمەتی	-11.1568
▁درۆی	-11.1569
▁پێشمەرگایەتی	-11.157
▁بەپارێزگا	-11.1575
▁برسێتی	-11.1576
شەقام	-11.1578
▁تێیاندا	-11.158
▁لەرۆژی	-11.1582
▁عەل	-11.1585
▁بۆری	-11.1586
▁گۆڕا	-11.1586
ۆته	-11.1587
▁هاوپەیمانەکانی	-11.1587
▁لێبێت	-11.1588
▁شێوەیه	-11.1588
گرد	-11.1589
▁بۆچوونەکانی	-11.1592
▁موکری	-11.1592
▁بدۆزنەوە	-11.1593
▁دانووستان	-11.1593
▁بەڕێزیان	-11.1594
▁سۆسیالیستی	-11.1595
▁گۆشتی	-11.1597
▁حیزبانە	-11.1598
▁سەوزە	-11.1599
▁ڕاگە	-11.16
مامۆستا	-11.1602
▁دەرببڕ	-11.1603
▁گفتوگۆکانی	-11.1604
▁بخە	-11.1604
▁کارئاسانی	-11.1605
سەرکردایەتی	-11.1605
▁ساتەوەخت	-11.1605
▁کیمیابارانی	-11.1605
▁نیوان	-11.1607
▁بەرنامه	-11.1609
▁دانوستانەکان	-11.161
▁لەناکاو	-11.1611
▁ام	-11.1613
▁توانیمان	-11.1614
▁لێکردن	-11.1614
▁گفتوگۆیەکی	-11.1618
▁پۆڵ	-11.1619
موسڵ	-11.162
حد	-11.162
خەین	-11.162
ساس	-11.1621
▁1975	-11.1621
▁ئایندەدا	-11.1624
دواتر	-11.1627
▁عەبدولقادر	-11.1629
▁بارهەڵگر	-11.1629
▁واقع	-11.163
▁الإ	-11.1638
▁سنوورە	-11.1638
▁چەکدارە	-11.1638
ذا	-11.1639
▁شکا	-11.164
یای	-11.1641
▁ڤه	-11.1642
توری	-11.1642
▁حکومییەکان	-11.1644
▁ناسیونالیست	-11.1646
خرا	-11.1646
▁خنکا	-11.1646
39	-11.1648
▁هەڵبژێردرا	-11.1649
▁تەقەیان	-11.1649
▁چونە	-11.165
▁دڕ	-11.1652
▁دووەمدا	-11.1655
▁مندالان	-11.1655
G	-11.1655
▁ڕاگر	-11.1656
▁ئاسوودە	-11.1657
▁قسانەی	-11.166
▁ئەلف	-11.166
▁خستەسەر	-11.1662
▁مۆل	-11.1663
بەها	-11.1664
▁وازهێنان	-11.1664
▁ڕۆشنبیرانی	-11.1665
▁ستا	-11.1668
▁ڕووبدات	-11.1669
▁بمێننەوە	-11.1669
▁مەخمور	-11.1669
▁ڕێنماییەکانی	-11.167
▁وەهم	-11.1671
▁تور	-11.1671
▁دەربڕیوە	-11.1672
▁کۆتر	-11.1675
▁دیمانەی	-11.1675
▁ڕۆڵەی	-11.1677
▁مێردەکەی	-11.1678
▁ساخ	-11.1679
▁بانکەکان	-11.168
▁بەکارهێناوە	-11.1683
▁باقی	-11.1683
▁U	-11.1686
▁بۆردومانی	-11.1686
▁بەڵگەنامەی	-11.1687
▁be	-11.1688
بڕن	-11.1688
▁کینە	-11.1689
▁سەعدییە	-11.1691
▁سەف	-11.1692
▁داخست	-11.1693
▁ژەهر	-11.1697
▁ئۆل	-11.1701
▁گفتوگۆو	-11.1701
▁ژمارەیە	-11.1702
داوای	-11.1704
▁ئیعت	-11.1705
▁دووپاتیکردەوە	-11.1707
▁برینداری	-11.171
▁خانەوادە	-11.1711
▁ئیمزای	-11.1711
▁ئاسانتر	-11.1714
▁هەوڵدەدات	-11.1715
▁هەناسەی	-11.1716
▁گوێگرتن	-11.1716
▁میدیایی	-11.1716
▁تەلەڤزیۆن	-11.1716
▁لەخۆیدا	-11.1717
▁ڕژێمەکەی	-11.1717
▁ئامادەبوو	-11.1719
لیف	-11.1722
▁لێدەکەوێتەوە	-11.1722
لۆژی	-11.1724
▁68	-11.1724
▁حیزبەکە	-11.1724
▁مەسەلەکان	-11.1724
▁نییەبۆ	-11.1725
▁پچڕ	-11.1727
▁بشکێن	-11.1727
▁پراکتیکی	-11.1727
▁خوالێخۆشبوو	-11.1728
▁قایل	-11.173
▁سەربازانی	-11.1732
▁دەکری	-11.1733
ارەکانی	-11.1734
▁زۆرمان	-11.1734
▁توێژەکانی	-11.1735
▁چاودێریکردنی	-11.1736
▁ئامارەکان	-11.1736
٩	-11.1738
▁سەپێنرا	-11.1741
▁بیروباوەڕی	-11.1741
▁ناوەندەکانی	-11.1742
کارو	-11.1743
▁کەوتوون	-11.1744
▁موش	-11.1745
man	-11.1749
بێرگ	-11.175
26	-11.175
ڕێگا	-11.175
▁حوسنی	-11.1752
▁گەمارۆی	-11.1757
38	-11.1757
▁عبداللە	-11.1759
▁نەشیاو	-11.1761
▁وشەکان	-11.1761
▁ئاشتیخواز	-11.1762
▁هێمنی	-11.1763
▁کاراکتەری	-11.1763
▁کلیک	-11.1764
os	-11.1765
▁دۆڕاو	-11.1765
▁بیناسازی	-11.1765
▁کپ	-11.1767
▁دانیشتنەکانی	-11.1767
▁هەڵمەتە	-11.1769
▁خەلافەت	-11.177
▁بەکردەوە	-11.177
▁میری	-11.1774
▁خانی	-11.1775
▁مارە	-11.1775
▁تەقەی	-11.1778
▁دابەشکردن	-11.1779
▁ناساندن	-11.178
▁نێردراو	-11.1782
▁مەه	-11.1785
▁بێئاگا	-11.1787
دیۆ	-11.1788
▁102	-11.1788
▁جۆراوجۆرەکانی	-11.179
▁دەسەڵاتداری	-11.1793
▁ئاقار	-11.1797
▁سووتاو	-11.1799
▁سەلماندنی	-11.1801
▁پاساوی	-11.1802
باک	-11.1802
زەوی	-11.1803
▁هێڵە	-11.1803
▁وەفد	-11.1807
▁ڕێگەیان	-11.1808
▁دۆڵ	-11.1808
▁وەبیر	-11.181
▁بەرەوپێشچوون	-11.1811
▁ڕووخسار	-11.1811
▁کەلوپەلی	-11.1813
▁نیگەرانیی	-11.1813
ڕێن	-11.1814
▁فریاکەوتن	-11.1814
مید	-11.1815
بڵێ	-11.1815
▁سوتاند	-11.1815
▁ئایدۆلۆژی	-11.1817
▁کاب	-11.1819
▁ئەوەکرد	-11.182
▁دەستکەوتەکانی	-11.1823
▁بگێڕێت	-11.1823
▁تارمایی	-11.1823
▁ژوورەکە	-11.1824
▁خۆشناو	-11.1825
▁r	-11.1829
▁ئامادەکردن	-11.1829
▁چەکدارێکی	-11.183
فور	-11.1833
شتووە	-11.1834
▁ئیمتیاز	-11.1834
▁کۆبوونەوەکەی	-11.1834
▁ساڵێکە	-11.1835
▁هۆیەک	-11.1835
▁وەزیفە	-11.1835
پێدان	-11.1837
▁دڵنیاییەوە	-11.1837
گوای	-11.1837
دەین	-11.1838
▁مندال	-11.1839
▁مەو	-11.1839
▁هیج	-11.184
▁هاوبیر	-11.1842
▁ڕۆستەم	-11.1842
▁کۆبوونەوەکان	-11.1843
▁بەرەبەیانی	-11.1846
▁هێناوەتە	-11.1847
▁نارەزایی	-11.1847
▁شاجوانی	-11.1853
▁وام	-11.1854
▁درز	-11.1856
▁برەو	-11.1858
▁نیزامی	-11.1859
اڵح	-11.1862
▁دەمێننەوە	-11.1864
خەیاڵ	-11.1865
ئاڵ	-11.1866
▁ئاماژەم	-11.1866
▁پشووی	-11.1867
▁وەزارەتەکانی	-11.1867
▁نابێتە	-11.1871
▁قورسە	-11.1873
٦	-11.1875
▁گرێدراو	-11.1875
سترا	-11.1876
▁وتەکانی	-11.1877
▁پاڵنەر	-11.1878
▁پەرتوک	-11.1879
▁یەکلاکەرەوە	-11.188
▁دەبوون	-11.1883
ێژی	-11.1885
▁شۆڕشگێڕانە	-11.189
▁دەستگیرکراون	-11.189
▁گردبوونەوە	-11.1891
بوونیان	-11.1891
▁فەرمانڕەوایی	-11.1892
▁دەگرین	-11.1893
ڤۆ	-11.1894
▁بیانییەکان	-11.1895
▁بخرێن	-11.1895
▁فەڕەنسی	-11.1895
▁کەرنەڤاڵ	-11.1895
▁بۆچونی	-11.1897
▁1979	-11.1898
▁زلهێزەکان	-11.1898
▁بەرێت	-11.1898
▁شوێنانەی	-11.19
▁سەرمایەداران	-11.1902
▁دیکەیش	-11.1904
▁هەنگ	-11.1905
▁زەحمەتە	-11.1905
مەسعود	-11.1911
▁کەوتنی	-11.1912
▁شۆڕشگێر	-11.1913
▁عەممار	-11.1913
▁هەڵوەش	-11.1914
▁لەوڵاتی	-11.1914
▁دەگەڕێت	-11.1915
▁گروپێک	-11.1917
▁سەرەرای	-11.1917
▁هەڵکشان	-11.1919
▁61	-11.192
▁عێراقیەکان	-11.192
▁ڕیک	-11.1921
▁قوو	-11.1923
▁ڕەوشتی	-11.1925
▁ڕاگەیاندنەکانی	-11.1928
▁سەرەوەی	-11.1929
ئایندە	-11.1929
▁بێئەوەی	-11.1932
نەخۆش	-11.1937
▁دەستگیرکرا	-11.1937
▁کامل	-11.1939
▁شوێنەی	-11.194
▁دڵۆپ	-11.1941
▁دۆکیۆمێنت	-11.1943
▁ماڵوێران	-11.1943
کێشا	-11.1945
▁لەگەڵیاندا	-11.1946
▁ناتەواو	-11.1948
▁گۆڕین	-11.1948
▁دەخۆن	-11.195
▁ژین	-11.195
▁یەنایەر	-11.1951
ent	-11.1952
هەڵبژاردن	-11.1952
▁دیاریکراودا	-11.1955
▁کەلتور	-11.1956
▁مەند	-11.196
13	-11.1961
ڕۆژنامە	-11.1961
▁ڕەوەندی	-11.1962
رەم	-11.1963
▁لەکورد	-11.1963
▁واشنتۆن	-11.1963
▁ئافرەتێکی	-11.1966
بوایە	-11.1968
جیا	-11.1968
علی	-11.1969
▁گرانی	-11.1969
سیل	-11.1972
▁شێواندنی	-11.1973
▁دابونەریت	-11.1973
▁گێل	-11.1977
▁وێنەگر	-11.1978
▁ئاگایی	-11.198
▁کانتۆن	-11.1984
▁بیانوو	-11.1985
فس	-11.1986
▁بەرپرسیاری	-11.1988
▁داخوازیی	-11.1991
دانیشتن	-11.1993
کارێکی	-11.1993
▁تێپەڕاندنی	-11.1994
▁جیاوازدا	-11.1995
▁کوردا	-11.1995
▁ڕوخساری	-11.1997
نووسەر	-11.2002
▁نەوتییەکان	-11.2003
ماسی	-11.2004
▁77	-11.2004
▁بابەتەکانی	-11.2005
دەکرا	-11.2005
▁دەگری	-11.2006
▁وەسفی	-11.2007
▁گەرەک	-11.2008
▁فیزیا	-11.2009
▁دەچم	-11.2014
▁کۆمەڵایەتیەکان	-11.2014
▁ئەفغانی	-11.2016
▁جیاوازییەکی	-11.2016
▁سەرنووسەری	-11.2017
▁ئەمنیەکانی	-11.2019
▁کۆمەڵایەتییە	-11.2023
▁سکالا	-11.2024
▁خۆجێی	-11.2024
▁پێشڕەو	-11.2024
قەیران	-11.2025
▁لەهەمو	-11.2025
هونەر	-11.2025
41	-11.2026
▁تەقاند	-11.2029
▁ڕێگەگرتن	-11.203
▁ڕووداوه	-11.2032
▁ئێجگار	-11.2034
▁بەتۆمەتی	-11.2034
▁ناوزەد	-11.2034
▁دەرفەتێکی	-11.2038
▁هەقی	-11.2038
▁دەکێش	-11.2039
▁ئیداریی	-11.2047
▁لایە	-11.2049
▁هەرێما	-11.205
▁ئەمساڵیش	-11.2051
▁کتێبێک	-11.2051
▁سیر	-11.2052
▁کێشمەکێش	-11.2052
▁سەرەخۆشی	-11.2059
▁هۆلیوود	-11.206
سپی	-11.2064
▁تەعریب	-11.2065
▁باڵاکانی	-11.2067
▁تەوژم	-11.2071
▁پشتڕاست	-11.2071
▁کردین	-11.2074
▁دەڵێ	-11.2076
سف	-11.2077
▁بخۆ	-11.2077
▁کێشاوە	-11.2079
80	-11.208
گانە	-11.2082
▁پووچ	-11.2083
▁دیبلۆماسی	-11.2083
بەین	-11.2083
ئومێد	-11.2083
▁تۆڕ	-11.2085
▁پێتان	-11.2085
ڕێکخراو	-11.2086
▁شەوانە	-11.2089
▁باسکردن	-11.2092
▁بەرزنرخاند	-11.2095
▁ئینتەر	-11.2097
▁شۆڕشگێڕی	-11.2097
ریق	-11.2099
▁مەغ	-11.21
▁موز	-11.2101
▁پراکتیزە	-11.2101
▁هەفت	-11.2106
▁بەبەشداری	-11.2107
▁کڵاو	-11.2107
فەت	-11.2111
▁سوتەمەنی	-11.2114
ببێت	-11.2114
▁سیروانی	-11.2119
▁زووترین	-11.2119
▁هەند	-11.2121
▁ساتی	-11.2122
▁ئارادا	-11.2126
▁V	-11.2126
▁تاکەکەسی	-11.2133
▁دڵدار	-11.2133
▁چاکتر	-11.2133
▁ماڵێک	-11.2135
▁وتارێک	-11.2135
▁هەفتانە	-11.2136
▁ئەنجومەنە	-11.214
▁تورکیاش	-11.2141
▁بۆته	-11.2143
▁مرۆییەکان	-11.2145
نامه	-11.2147
▁پارچەیەک	-11.2149
▁سۆزان	-11.2149
▁توندوتیژ	-11.2151
▁خزمەتکردن	-11.2151
بارەی	-11.2153
دەدرێت	-11.2153
▁ڕۆشت	-11.2154
▁تۆیە	-11.2155
▁زیاتریش	-11.2157
▁هۆن	-11.216
▁گەڵاڵە	-11.2161
▁هەڵواس	-11.2165
▁کچەکەی	-11.2166
دة	-11.2167
▁ئەڤین	-11.2167
▁شانبەشانی	-11.2169
).	-11.2169
▁پێکهێناوە	-11.217
سەرچاوە	-11.2174
▁بڕیاردەر	-11.218
▁لەهەمبەر	-11.2182
▁دەورە	-11.2184
▁کۆنفرانسە	-11.2194
سروشت	-11.2196
▁ڕادەست	-11.2198
دەق	-11.2201
29	-11.2202
▁شیعی	-11.2205
جد	-11.2206
▁توخم	-11.2206
▁بەکۆی	-11.2212
▁چەوری	-11.2213
oc	-11.2213
وەخت	-11.2215
▁بەرەوڕووی	-11.2215
▁تێکچوونی	-11.2215
▁هەڵبژاردنێکی	-11.2215
پارت	-11.2216
▁مەرام	-11.2216
خن	-11.2217
ڤن	-11.2218
خەون	-11.2218
▁بتوانم	-11.2219
▁پارێزگەها	-11.2219
▁ئێمەوە	-11.2219
▁تاوانەکە	-11.2219
▁تۆمارکراوە	-11.2221
▁بیمەی	-11.2222
▁ڕادەگەیەنێت	-11.2225
▁دەکوژرێن	-11.2231
▁بناغە	-11.2231
▁علی	-11.2232
▁بەستووە	-11.2233
▁کەیسە	-11.2233
▁دەبیست	-11.2236
▁جەلیل	-11.2239
▁هەمیشه	-11.224
▁لەسەرەتادا	-11.224
▁مەسیح	-11.224
▁گروپه	-11.2241
▁هەوار	-11.2241
▁دەستەبەرکردنی	-11.2241
لۆگ	-11.2243
پەرلەمان	-11.2246
▁داواکار	-11.2247
▁ناگە	-11.2247
▁پڕوپاگەندەی	-11.2247
▁هاندان	-11.2249
▁پێگەیشتوو	-11.2249
▁فۆلکلۆر	-11.225
▁جیابوونەوەی	-11.2251
گیراو	-11.2251
▁بەخێرایی	-11.2252
▁ئیدریس	-11.2256
نەکراو	-11.2257
▁دێته	-11.2258
▁دەستبەکار	-11.2258
▁لەرز	-11.2259
ئێمه	-11.226
▁پەتای	-11.2261
▁لەپڕ	-11.2262
▁ناهێڵێت	-11.2262
▁دابەشکرا	-11.2264
▁بنیاد	-11.2265
▁حیزبەکانی	-11.2265
▁قەرەبووکردنەوەی	-11.2268
▁ڕێگاوبان	-11.2268
▁هاوشێوە	-11.2271
تێل	-11.2272
▁ئەسڵی	-11.2275
حاڵ	-11.2276
▁بگێڕ	-11.2276
نادات	-11.2277
▁بارزان	-11.2277
شێخ	-11.2278
▁ئابی	-11.2278
▁دەگێڕێت	-11.2279
▁کابینە	-11.2282
▁کەمبوونەوەی	-11.2282
▁قۆناغێک	-11.2283
▁بابل	-11.2283
▁لەچەندین	-11.2283
▁لەتەمەنی	-11.2285
86	-11.2287
نوێنەر	-11.229
▁ڕۆژاوا	-11.2291
▁پرد	-11.2292
▁لەسێدارەدان	-11.2292
▁لەنەخۆشخانە	-11.2294
▁تاقیکردنەوەکان	-11.2296
▁فێربوون	-11.2296
▁فیل	-11.2298
▁ڕۆناڵدۆ	-11.2299
زۆ	-11.23
▁ڕاستگۆیی	-11.2301
▁دەڕۆن	-11.2302
34	-11.2303
▁ڕوونە	-11.2306
▁سیاس	-11.2306
▁ڕەگەزنامە	-11.2306
▁بەمەرجێک	-11.2306
▁هەڵدەگرێت	-11.2309
▁فەریق	-11.2309
▁عەیب	-11.2309
q	-11.2309
خۆپیشاندان	-11.231
▁بەرپ	-11.2312
▁سازکردنی	-11.2312
رۆز	-11.2314
97	-11.2314
▁پێکردنی	-11.2317
دارێتی	-11.232
▁شێوازێک	-11.232
43	-11.2324
جه	-11.2325
▁ئەگەرنا	-11.2327
▁مسۆگەرکردنی	-11.2327
▁ڕێژە	-11.2327
77	-11.2329
▁مەترسیدارە	-11.2331
▁لەسێدارەدانی	-11.2331
▁خرۆش	-11.2331
▁دەکرێنەوە	-11.2335
▁تاقیگە	-11.2335
▁ئەنجومەنەکە	-11.2337
عة	-11.2342
▁تەشەنە	-11.2346
▁پارا	-11.2346
▁پیاسە	-11.2347
▁ئەوەشکرد	-11.2347
▁ئەمجۆرە	-11.2351
▁جێگایەک	-11.2352
▁ئەفریقیا	-11.2352
▁سنوردار	-11.2353
▁800	-11.2353
▁دێموکراسییە	-11.2357
▁درۆزن	-11.2358
▁سینەماکار	-11.2359
▁شەڕەکە	-11.2359
خوار	-11.2362
▁ئەرجەنتین	-11.2362
▁سیمبول	-11.2363
▁دابڕاو	-11.2363
بارودۆخ	-11.2365
وەشێن	-11.2365
▁پیران	-11.2365
▁بست	-11.2365
▁دەستکەوتە	-11.2365
▁سەرپەرشتیار	-11.2366
دەبێ	-11.2367
▁مزگەوتەکان	-11.2368
خوان	-11.2371
▁ملیارو	-11.2372
▁کۆد	-11.2372
▁میژوو	-11.2375
▁ڕایگەیاندبوو	-11.2376
▁سینا	-11.2376
▁کیس	-11.2379
سکا	-11.2379
▁مەلیک	-11.2379
▁تائیفی	-11.2381
▁دەوڵەتێک	-11.2382
▁لیستەکە	-11.2382
صر	-11.2385
▁لەماوەیەکی	-11.2393
▁1980	-11.2394
▁لاوازە	-11.2394
500	-11.2394
لەق	-11.2397
▁بەخێو	-11.2398
خۆیان	-11.24
▁ئارادایە	-11.2401
▁گەرەکی	-11.2402
▁بەشێوازی	-11.2405
▁ناعەدالەتی	-11.2406
▁ناوەرۆک	-11.2408
▁هەوڵانە	-11.2409
▁غەزە	-11.2411
▁چێندراو	-11.2415
▁باڵیۆز	-11.2416
▁شەبەک	-11.2417
▁خەڵاته	-11.242
بڕوا	-11.2421
▁ڕم	-11.2423
عیراق	-11.2424
▁on	-11.2425
ویل	-11.2426
زده	-11.2428
▁بردنەوە	-11.2429
▁شوکر	-11.243
▁جگەلەوەی	-11.2432
▁سازکرا	-11.2433
خراوە	-11.2434
دەرەوەی	-11.2437
▁ڕوخسار	-11.2438
▁دەعوە	-11.2439
وشک	-11.2442
▁بکاتەوەو	-11.2442
▁بایەخدان	-11.2442
▁ئاوار	-11.2443
▁ئینسانەکان	-11.2443
▁کاسب	-11.2446
▁وردبین	-11.2447
▁لەناوچوون	-11.2447
▁اس	-11.2448
▁سوتان	-11.245
▁مالی	-11.2451
▁جەو	-11.2453
▁جیاکاری	-11.2454
▁ڕۆڵیان	-11.2454
▁76	-11.2454
▁توندتر	-11.2454
▁سەرەتاوە	-11.2454
ئەر	-11.2456
▁مەودا	-11.2457
▁مەبەستمان	-11.2462
▁بکەنە	-11.2462
بکەون	-11.2463
▁بابا	-11.2463
▁خشت	-11.2464
دژ	-11.2464
▁شەفافییەت	-11.2464
▁پێوست	-11.2468
عاد	-11.2468
▁دەوامی	-11.247
▁موسل	-11.2473
کچ	-11.2474
▁لەژمارە	-11.2476
▁گوتویەتی	-11.2477
11	-11.2478
▁شەعب	-11.2479
▁مەینەتی	-11.2483
▁بەشێوازێکی	-11.2483
▁تاوانبارانی	-11.2485
▁سەلمان	-11.2489
▁دابەزی	-11.2489
▁ڕست	-11.2491
▁جەر	-11.2494
▁دادگاکان	-11.2499
▁ڕێگەیەکی	-11.2502
▁زەوییە	-11.2503
سنور	-11.2503
ay	-11.2506
مەل	-11.2506
▁یۆرانیۆم	-11.2508
راک	-11.2509
▁خەڵاتە	-11.2509
گەنج	-11.2512
▁دەربەدەر	-11.2513
▁ئەدەبیات	-11.2519
▁گیرفانی	-11.252
▁دەستێوەردانی	-11.252
▁جڵەو	-11.2521
▁دەڕوانێت	-11.2521
▁بارەگاکانی	-11.2522
▁بوین	-11.2523
▁شۆفێری	-11.2523
▁مۆدێلی	-11.2525
▁شاهۆ	-11.2525
پشتیوانی	-11.2526
▁حکومەتەوە	-11.2527
چوونەوە	-11.2529
وەته	-11.253
کوشت	-11.2532
▁محمد	-11.2533
▁ساوا	-11.2533
▁زنجیره	-11.2534
▁دادەنێ	-11.2534
▁ڕاپۆرتەکەی	-11.2536
▁ڕووخاندنی	-11.2536
▁کوش	-11.2538
جەستە	-11.2538
▁بەرفراوانی	-11.2538
▁جەختیان	-11.2539
54	-11.254
▁دەرفەتە	-11.2541
▁دەگەڕا	-11.2541
▁سەرکوتکردنی	-11.2543
▁بخ	-11.2546
▁دەخوات	-11.2546
▁ڕوبەر	-11.255
▁بارودۆخێکی	-11.2551
▁کاریکاتێر	-11.2553
▁واتایەکی	-11.2554
▁نمرە	-11.2555
▁دوورخستنەوەی	-11.2558
▁لوقمان	-11.2559
▁ناکاتەوە	-11.2563
▁پەرلەمانەوە	-11.2564
▁کۆنگ	-11.2566
▁قاوە	-11.2568
پێکهات	-11.2568
▁دوژمنایەتی	-11.2568
▁چێشتخانە	-11.2568
▁کریکار	-11.257
▁نێچیر	-11.2571
▁هەڵسوڕاو	-11.2575
▁ناسیۆنالیزمی	-11.2576
▁کڕیار	-11.2577
▁ستار	-11.2578
▁خاچ	-11.2578
گەکان	-11.258
▁لەمیسر	-11.258
▁دادگاو	-11.2581
▁شاخەوان	-11.2584
▁کیمیا	-11.2585
▁کێڵگەی	-11.2588
▁دیاربەکر	-11.2592
▁فارسیی	-11.2592
گەڕێن	-11.2594
نجام	-11.2596
▁گۆن	-11.2597
دەکا	-11.2597
▁چالاکوانانی	-11.2601
▁بۆرژوا	-11.2602
▁دەگێڕ	-11.2602
▁نیشتەجێی	-11.2603
▁سانت	-11.2608
پێشمەرگە	-11.261
▁سەروو	-11.261
▁تەعبیر	-11.2612
▁نەتەوەکەی	-11.2612
ناچێت	-11.2612
▁ڕێکار	-11.2615
▁مۆسیقای	-11.2615
▁پەیمانگەی	-11.2615
▁فەیسبوک	-11.2617
زانست	-11.2618
▁قەبوڵ	-11.2621
▁ئەکرێ	-11.2621
خایەن	-11.2623
هەلات	-11.2625
▁ئیمتیازات	-11.2625
▁وەرگرتنەوەی	-11.2626
▁خەڵکیش	-11.2626
▁سیمینار	-11.263
ne	-11.2632
▁بایی	-11.2634
▁کورستان	-11.2635
▁ڤیتۆ	-11.2642
▁فاروق	-11.2643
▁بەواتای	-11.2643
▁مۆدێرنە	-11.2644
▁کێوی	-11.2649
▁نەتوانن	-11.265
▁ئاماژەشیدا	-11.2652
▁پێکدادانی	-11.2653
▁بەسەریدا	-11.2654
▁حازر	-11.2657
▁1000	-11.266
▁تۆڕە	-11.2662
دەخەن	-11.2662
▁بگۆڕن	-11.2663
▁لێمان	-11.2664
پرسیار	-11.2664
▁فڵان	-11.2664
▁ژیا	-11.2664
▁بەشوێن	-11.2664
هۆش	-11.2667
تیایدا	-11.2669
▁گوێبیستی	-11.2669
▁قەیرانێکی	-11.267
▁وابێت	-11.2672
▁ژیانم	-11.2675
▁فیستیڤاڵە	-11.2675
▁سەیدسادق	-11.2676
▁لەزانکۆ	-11.2678
اوەکانی	-11.2679
▁باڵاو	-11.2681
▁هەواڵەکە	-11.2682
▁پەرت	-11.2682
▁حوزەیرانی	-11.2682
▁بونەتە	-11.2684
▁هەوادارانی	-11.2686
فیق	-11.2687
▁66	-11.2687
▁ئەشکەوت	-11.2689
▁بەرکەوت	-11.269
▁ئەدای	-11.269
وریا	-11.2692
▁ڕز	-11.2692
▁هێنایەوە	-11.2693
▁بەدەسەڵات	-11.2695
▁ڕیتم	-11.2695
ۆڤا	-11.2696
▁دید	-11.2696
▁پێکهاتەکان	-11.2701
▁کراس	-11.2701
▁بەکەس	-11.2705
▁مامەند	-11.2706
▁کۆتاییهێنان	-11.2707
▁میلەت	-11.2707
▁شەرعییەت	-11.2709
کوێ	-11.271
هێرش	-11.2711
▁تۆزێک	-11.2711
▁حەیدەری	-11.2712
▁گرتۆت	-11.2714
▁هەفته	-11.2714
▁زەردەخەنە	-11.2715
▁فیلمساز	-11.2715
تگیر	-11.2716
زمە	-11.2716
▁نەبووەو	-11.2716
▁شارد	-11.2718
▁لێنا	-11.2721
▁موجاهید	-11.2721
▁ڕواڵەت	-11.2721
▁بەهێزترین	-11.2722
▁دڵە	-11.2722
▁نیگار	-11.2724
▁قسەیەکی	-11.2725
▁دەستکەوتێکی	-11.2726
گراف	-11.2726
▁إلی	-11.2727
ڵەتی	-11.2727
▁هەژموونی	-11.2728
▁لەساڵانی	-11.2729
▁ئەوەم	-11.2729
▁پیاوەکانی	-11.273
▁دەلێ	-11.2731
▁یەکگرتو	-11.2732
▁پاککردنەوەی	-11.2734
▁بازاڕەکانی	-11.2736
▁کەسێ	-11.2738
▁1970	-11.2739
H	-11.2739
فراوان	-11.2739
▁سەرکردەکان	-11.274
▁قەڵای	-11.274
▁سەراسەری	-11.2741
▁پرۆژەکە	-11.2742
▁بەڵگەنامە	-11.2745
گور	-11.2746
▁ئەزانی	-11.2746
▁سەرۆککۆمار	-11.2747
▁پاسداران	-11.2747
▁ڕێکخراوانە	-11.2749
▁عام	-11.2749
▁بریارە	-11.275
▁تۆماربکات	-11.2752
▁تاکێک	-11.2752
▁هەنگوین	-11.2755
ەکى	-11.2756
▁کۆش	-11.2756
بژارد	-11.2757
51	-11.2759
ڕشت	-11.2761
▁نەخو	-11.2763
tion	-11.2768
▁ئەندامێتی	-11.2768
▁گفتوگۆیەک	-11.2768
▁پەیامەکەی	-11.277
▁قاڵب	-11.277
▁لایەنانەی	-11.2772
▁هەوڵیان	-11.2772
▁زادە	-11.2774
▁مایۆ	-11.2778
▁شیعه	-11.278
▁بەجیا	-11.2781
▁ترسناکە	-11.2782
▁ئەستێرەکان	-11.2783
خوازەکان	-11.2783
▁هەڵسا	-11.2785
▁ئامانجێکی	-11.2785
▁ئیحسان	-11.2787
خێزان	-11.2787
▁سیحر	-11.2789
ەتێک	-11.279
▁جەلاد	-11.279
▁ڕفیق	-11.2792
▁ماس	-11.2793
▁بەراز	-11.2793
▁فەڵەستین	-11.2793
▁نووسەرو	-11.2793
زیان	-11.2794
▁دروستبووە	-11.2795
▁سالم	-11.2795
▁دێموکراتەکان	-11.2796
▁شارەزایان	-11.2796
ژاندن	-11.2796
▁سمکۆ	-11.2797
▁لەئارادا	-11.2798
▁هەڵنا	-11.2798
▁نەگەیشتوو	-11.2799
▁سیخوڕی	-11.28
▁کۆمەڵگایەک	-11.2805
شوو	-11.2807
▁چاپەمەنی	-11.2807
▁دەرخست	-11.2808
▁نوسەران	-11.281
سڕ	-11.2811
بکە	-11.2811
چەسپ	-11.2815
قوربانی	-11.2818
▁کۆچکردوو	-11.2819
▁حسن	-11.2819
▁re	-11.2819
▁ڕادەیەکی	-11.282
▁گیرفان	-11.2822
▁هێشتنەوەی	-11.2822
▁فیلمەکەی	-11.2823
▁لەزانکۆی	-11.2824
▁کەمایەتی	-11.2825
▁ڕاشکاو	-11.2827
▁پلەو	-11.2827
▁ڕێگەیەوە	-11.2832
▁فازڵ	-11.2833
بڕێت	-11.2834
▁سەرکەوتو	-11.2834
▁ڤۆ	-11.2835
▁لیژنەکانی	-11.2835
▁ڕوبەڕوی	-11.2838
▁عەبدولعەزیز	-11.284
▁بەحرەین	-11.2846
▁پەخشان	-11.285
▁چاوەکانی	-11.2853
82	-11.2854
▁شاکر	-11.2854
▁بەئاژانسی	-11.2855
▁بەنیازی	-11.2857
▁سەرەکییە	-11.2858
▁بەرنامەیە	-11.2861
▁بوەتە	-11.2862
▁ئەبی	-11.2863
▁بکێشێت	-11.2864
▁نەزاهە	-11.2866
▁ببەستێت	-11.2866
▁کۆبوونەوه	-11.2868
▁لەبەردەستدا	-11.287
▁بیانوی	-11.2871
▁گوندە	-11.2871
08	-11.2871
▁پارلەمانتار	-11.2871
▁بنچینە	-11.2871
▁نامرۆڤانە	-11.2873
▁چوارچێوە	-11.2873
99	-11.2874
▁ترین	-11.2874
▁وامان	-11.2875
ونەتەوه	-11.2878
▁پارەیەی	-11.2878
▁نەقشبەندی	-11.2879
▁کتێبەکانی	-11.2879
قەزا	-11.288
▁نێردراوە	-11.2881
▁گرنگییەکی	-11.2881
▁خزمەتێکی	-11.2883
سەڵ	-11.2888
▁بەکارهێنان	-11.2889
▁ڕایەڵ	-11.2889
▁سووتاند	-11.2889
▁هەمویان	-11.289
▁زانیاریانەی	-11.2892
جوو	-11.2893
▁سنورەکانی	-11.2893
سیون	-11.2899
▁بەفیڕۆ	-11.2899
▁پەیامێک	-11.2901
▁ڕۆژا	-11.2905
ئاسا	-11.2905
▁شاردنەوەی	-11.2908
▁کانزا	-11.2909
▁دەیبینین	-11.291
ڵان	-11.2915
▁نابە	-11.2915
شارێتەوە	-11.2915
▁ڕەسول	-11.2918
ێندرێت	-11.2921
▁هەڕ	-11.2921
▁کوتلەکان	-11.2921
▁بەهەرێم	-11.2921
▁بزانە	-11.2925
▁جەنابت	-11.2926
کورت	-11.2926
▁شەرمەزار	-11.2926
▁مێزی	-11.2928
▁قۆڵ	-11.2928
▁بڕیوە	-11.2929
▁تێرۆریس	-11.2934
رید	-11.2935
▁ببەخشێت	-11.2936
هێنانەوەی	-11.2937
▁کاربکەن	-11.2938
نابێت	-11.2938
هێزەکانی	-11.294
▁بزوتنەوەکە	-11.294
▁ناڤێ	-11.2946
کەرەوەی	-11.2946
▁هەناردەی	-11.2948
▁ڕێکخستنەکانی	-11.2951
89	-11.2953
ڕێز	-11.2954
▁ئایاری	-11.2955
▁خاکە	-11.2956
▁بینراو	-11.2959
▁پسپۆری	-11.2961
▁دەیەم	-11.2962
▁هەبن	-11.2962
▁ڕووخاو	-11.2962
▁مێژویی	-11.2963
جەلال	-11.2964
▁ڤیتامین	-11.2966
▁ئۆمەران	-11.2966
▁بەزووترین	-11.2966
▁ڕۆلی	-11.2966
▁فرسەت	-11.2967
▁بەردەوامیش	-11.2968
▁بەشێکن	-11.2968
▁گوشاری	-11.2969
▁شوێنەکە	-11.297
ڕاز	-11.2973
لایەک	-11.2975
▁ڕۆژگارە	-11.2977
▁ئەمریکییەکان	-11.2977
▁چالاکیەکانی	-11.2978
▁ئۆتۆنۆمی	-11.2979
▁نیشتمانپەروەر	-11.298
▁یاریدەدەر	-11.2982
▁پاوان	-11.2983
▁ئیف	-11.2986
▁ئیلهام	-11.2986
▁بمێن	-11.2986
▁دیدارێکی	-11.2988
دەڵێت	-11.2989
وڵی	-11.2989
▁بادی	-11.2989
▁ڕۆژنامەڤان	-11.299
▁تەموز	-11.2991
▁إن	-11.2992
▁ناسیونالیزم	-11.2992
▁ستەمکاری	-11.2993
▁دۆزینەوە	-11.2994
▁دەکەوت	-11.2994
▁لوت	-11.2995
▁ڕیگا	-11.2999
▁قوباد	-11.3001
▁دەسەڵاتیان	-11.3001
▁دەمەی	-11.3002
▁ئەلعێراقییە	-11.3006
▁co	-11.3007
▁تەوافوقی	-11.3011
ڕم	-11.3012
▁گەورەکەی	-11.3014
پاراستنی	-11.3018
▁ڕێزو	-11.3018
▁سەریهەڵدا	-11.3026
▁لەزیندان	-11.3027
دارانی	-11.3029
نەکەوت	-11.303
بینم	-11.3031
گۆڕان	-11.3035
دەرگا	-11.3038
▁ڕاپۆڕتی	-11.3039
▁زیادبوون	-11.304
▁لەکۆبونەوە	-11.304
وتم	-11.3043
ئەت	-11.3044
▁زەردەشتی	-11.3046
▁نەبا	-11.3048
ومانە	-11.3049
▁دادی	-11.3049
▁خۆپیشاندانێکی	-11.3052
▁واژوو	-11.3053
گەیەندرا	-11.3055
کەرانی	-11.3057
ەرەوە	-11.3057
▁هەڵگرتووە	-11.3057
▁دیکەشەوە	-11.3066
▁هاتبێت	-11.3066
ew	-11.3067
▁پیادەکردنی	-11.3067
▁مەتری	-11.3067
▁فڕین	-11.3067
شتاین	-11.3068
لێکراو	-11.3068
▁دەگەڕێنەوە	-11.3071
▁زمانێک	-11.3073
▁دەخایەنێت	-11.3073
▁ڕەواندزی	-11.3073
and	-11.3075
ta	-11.3076
▁وەستاو	-11.3077
▁1998	-11.3078
▁بۆنموونە	-11.308
▁لاپەر	-11.3082
رەق	-11.3084
▁خوداوەند	-11.3084
▁لەخۆیان	-11.3084
▁لێرەو	-11.3089
اندەران	-11.3091
روز	-11.3095
▁واقیعە	-11.3097
گەیاندن	-11.3098
▁سەرەکیەکانی	-11.31
▁لەئەندامانی	-11.3101
▁بەکاریان	-11.3101
▁بەرلە	-11.3103
کۆتا	-11.3104
▁دەرخستنی	-11.3105
▁چەتە	-11.3106
▁مەترسییەکانی	-11.3107
▁ئاوازدانەر	-11.3107
▁کۆدەنگی	-11.3107
▁نەمام	-11.3108
92	-11.3108
▁دەڕوانن	-11.3108
▁سینەماکانی	-11.3109
▁ترسنۆک	-11.3114
▁دەریایی	-11.3115
▁داڵدە	-11.3116
▁ڕایس	-11.3117
فید	-11.3119
▁لێکراو	-11.3121
▁کەمتەرخەم	-11.3121
▁زانیوە	-11.3122
▁زەنگی	-11.3126
▁گێڕ	-11.3127
▁ئس	-11.313
ئاگا	-11.3133
▁بازگ	-11.3134
▁شەنگ	-11.3136
▁هەناوی	-11.3141
▁ئەچێت	-11.3142
▁کتێبەکەی	-11.3143
▁Re	-11.3146
▁جیدی	-11.3146
▁دۆزرا	-11.3147
▁شەقامەکانی	-11.3149
▁هێنانەوەی	-11.3149
▁موزایەدەی	-11.3149
▁داگیرکەرانی	-11.3151
▁شر	-11.3151
▁باڵە	-11.3151
▁ڕۆتین	-11.3152
▁دادگایەکی	-11.3153
٨	-11.3153
▁بەنداوی	-11.3154
▁بەلاوە	-11.3155
گال	-11.3157
▁یەکڕیزیی	-11.3157
چەڵ	-11.3158
▁قووت	-11.316
▁میدیاکار	-11.3161
پۆشی	-11.3162
قاو	-11.3163
▁سار	-11.3167
▁عەب	-11.3168
▁سەرکەوتنیان	-11.3168
▁دەقێکی	-11.3168
▁دەیویست	-11.3169
▁لێدێت	-11.3171
ڕوانی	-11.3173
▁ئێزدییەکان	-11.3174
▁هاولاتی	-11.3174
▁دانیشتوانەکەی	-11.3177
▁گۆڕانکارییەکانی	-11.3179
کەرکوک	-11.318
ساد	-11.318
▁کەوتوونەتە	-11.3181
▁مێژ	-11.3182
▁لێدوانەی	-11.3182
▁مرۆڤدۆست	-11.3186
▁خەس	-11.3187
▁ڕاگەیەنرا	-11.3189
▁لەمافی	-11.3189
▁ئەنجامدەدرێت	-11.3194
▁پارکی	-11.3194
▁بەناچاری	-11.3196
▁مناڵان	-11.3196
گەکە	-11.3198
وێنی	-11.3199
▁خش	-11.3201
▁ئەلمانیا	-11.3203
پێکراو	-11.3204
▁ببینە	-11.3204
کخراو	-11.3206
▁توانایەکی	-11.3206
لیزا	-11.3207
▁پێشوودا	-11.3208
▁جلوبەرگی	-11.3211
▁64	-11.3211
▁حەب	-11.3211
▁سینەماکارانی	-11.3211
▁ڕەخسا	-11.3211
98	-11.3213
▁بژاردەی	-11.3214
▁سەقەت	-11.3215
▁بچینە	-11.3215
▁پێکراوە	-11.3217
▁دیزاینی	-11.3217
▁جەزا	-11.3218
▁یارییەدا	-11.3219
▁ئابوورییەکان	-11.3219
▁خۆشیەوە	-11.3221
▁تەزویر	-11.3223
▁گوێگر	-11.3223
▁قەزاکە	-11.3227
خودی	-11.3228
▁دەمێ	-11.3229
▁لەباری	-11.3232
▁ئامارێکی	-11.3232
▁شانە	-11.3234
▁قورستر	-11.3235
واقیع	-11.3236
▁پۆستەکەی	-11.3237
▁تاکڕەوی	-11.3239
ow	-11.3242
▁هالیوود	-11.3244
▁پێگەیاندنی	-11.3244
▁سەڵاحەدین	-11.3244
▁بەیەکتر	-11.3247
٧	-11.3249
▁هاتبوون	-11.325
▁ئەسعەد	-11.325
▁میحوەر	-11.325
▁دەمامک	-11.3251
اندەوە	-11.3253
▁کێبڕکێ	-11.3255
▁باسێکی	-11.3261
▁هەنگاونان	-11.3262
▁تێگەیشت	-11.3265
▁بۆخۆیان	-11.3265
▁ڕەب	-11.3267
▁ئاڤا	-11.3268
▁تاڵە	-11.327
▁یۆتۆبۆری	-11.3271
▁دیمەنەکانی	-11.3271
▁شەیدا	-11.3273
▁نامەیە	-11.3275
ستەم	-11.3277
▁سوننەت	-11.3281
▁گوندێکی	-11.3282
▁دووای	-11.3284
ژەنتین	-11.3285
▁پرۆژانە	-11.3286
▁گروپەکە	-11.3286
▁دەرامەت	-11.3287
▁تەقینەوەکانی	-11.329
▁پەرەپێدان	-11.329
▁کاتێکدایە	-11.329
B	-11.329
خوارەوە	-11.3292
▁وێنەکان	-11.3293
▁مۆرکرد	-11.3293
ناکەن	-11.3295
▁کەوتبوو	-11.3296
▁هەڵوەشاند	-11.3298
ڕانی	-11.3298
سود	-11.3298
▁بایرن	-11.33
ئاهەنگ	-11.33
▁ڕێگایەک	-11.3302
ئاست	-11.3302
▁خۆپیشاندەر	-11.3304
▁دەریان	-11.3305
▁j	-11.3306
▁دەرکرا	-11.3307
▁1987	-11.3312
▁هاوشانی	-11.3313
▁میرنشین	-11.3313
▁ڕێکەوتنێک	-11.3314
01	-11.3317
▁لەراستیدا	-11.332
▁چەشنی	-11.332
▁بارین	-11.3321
▁هەستیارە	-11.3321
▁مەرامی	-11.3322
▁فیلمێک	-11.3326
▁مابوو	-11.3328
▁نشین	-11.3329
▁دیکتاتۆرەکان	-11.3331
▁گرفتێکی	-11.3331
گروپ	-11.3331
▁زانرا	-11.3332
▁هەڵواسراو	-11.3333
▁سەرای	-11.3333
▁جگەلە	-11.3333
▁پەتی	-11.3333
▁لێکۆلینەوە	-11.3333
▁دەستوورە	-11.3335
▁خوان	-11.3335
▁تەوا	-11.3335
▁خوێنەرانی	-11.3336
▁کۆمەڵگاکان	-11.3336
▁هۆشمەند	-11.3336
▁توڕەیی	-11.3336
▁پارتەکانی	-11.3337
▁گوتمان	-11.3337
▁دووجار	-11.3339
▁دەکوژێت	-11.334
ژمارەیەک	-11.3346
▁وڵاتەکەمان	-11.3347
▁چانس	-11.3348
خال	-11.335
▁ستایش	-11.3352
▁هەستیاری	-11.3354
▁دەرزی	-11.3355
▁ڤال	-11.3358
▁St	-11.336
▁مانچستەریۆنایتد	-11.3361
▁خستنەڕووی	-11.3361
ەکەشیان	-11.3364
▁ڕاکردن	-11.3367
▁سۆر	-11.3372
▁چیاکان	-11.3372
▁بەگرنگی	-11.3372
خرێت	-11.3373
▁تەوەرێکی	-11.3375
▁سەربازییەکان	-11.3377
بەغدا	-11.3377
▁قات	-11.3379
جارێک	-11.3383
▁لاسایی	-11.3384
▁لەئارادایە	-11.3386
▁گوزەران	-11.3386
▁دەوەستێت	-11.3389
op	-11.339
▁لەئێستاشدا	-11.3392
▁تیرۆریزم	-11.3392
▁توێژینەوەیەکی	-11.3393
▁دەچین	-11.3394
ڕوون	-11.3398
▁مەحاڵ	-11.34
▁داخرا	-11.34
▁قەشە	-11.3401
▁فلا	-11.3402
31	-11.3403
▁نایەکسانی	-11.3403
▁بیل	-11.3404
▁ژنەکەی	-11.3404
▁تێدابوو	-11.3404
▁دیمۆکراسی	-11.341
▁خزمەتکار	-11.3412
▁حوکوومەت	-11.3417
▁بەڕێکەوت	-11.3418
▁is	-11.3421
▁کۆنەپەرستی	-11.3422
▁هەڵوەشانەوەی	-11.3425
بال	-11.3426
▁ئیراق	-11.3428
▁هۆزان	-11.3429
▁ڕووناکبیر	-11.3429
▁بایەخێکی	-11.343
▁بەندەکانی	-11.3432
▁تۆمارکردووە	-11.3432
▁سەربازگە	-11.3435
▁پێبکات	-11.3435
▁گەشەسەندنی	-11.3436
▁خراپترین	-11.3437
▁فریاد	-11.3437
▁بیروبۆچوون	-11.344
▁زادەی	-11.344
کێی	-11.3441
▁بەیەکێک	-11.3441
▁ئامێرە	-11.3442
پەنجە	-11.3444
▁میرانی	-11.3444
▁جیددی	-11.3445
▁فریای	-11.3447
▁هەوال	-11.3449
▁فرۆشرا	-11.345
▁دەرێ	-11.345
▁میرزا	-11.3452
▁هەڵخەڵەتان	-11.3452
▁ئیعدام	-11.3452
▁لیر	-11.3452
ویژدان	-11.3452
فیلم	-11.3453
▁گرینگە	-11.3454
▁نیین	-11.3455
▁ڕێکخستنەوەی	-11.3456
▁تکا	-11.3456
بع	-11.3457
▁گوێیان	-11.3462
▁تێدەپەڕێت	-11.3465
▁هەڵبژاردنەکاندا	-11.3465
▁ڕەهەندە	-11.3466
▁بەبۆچوونی	-11.3467
ۆژەی	-11.3469
▁لة	-11.3469
▁ڕوداوەکانی	-11.3471
▁ئەلکترۆن	-11.3473
▁نازم	-11.3475
▁دەسەڵاتێک	-11.3477
▁بخەمە	-11.3477
▁بەدەیان	-11.3478
▁لەئێران	-11.3478
▁چۆک	-11.3479
▁یۆڤانتۆس	-11.348
▁حەوز	-11.3485
▁سەرکردەو	-11.3487
▁دوورگەی	-11.3487
▁نج	-11.349
پڕۆسەی	-11.3493
▁پڕۆژانە	-11.3495
05	-11.3497
ڤه	-11.3498
ti	-11.35
ot	-11.3503
▁ئێکێ	-11.3503
▁پڕۆ	-11.3508
▁بەخاک	-11.3508
▁ولاتانە	-11.3509
▁74	-11.3509
▁مۆندیالی	-11.3509
▁دەربکات	-11.351
▁ئەسڵ	-11.351
▁دەرکردووە	-11.3511
کردوو	-11.3511
خاو	-11.3513
▁گەشتوگوزاری	-11.3514
الیست	-11.3514
▁ناگەیەنێت	-11.3515
▁مامەڵەیان	-11.3516
▁بناری	-11.3519
▁دزێو	-11.3523
شارەزا	-11.3524
▁ژێ	-11.3524
▁هاوڕێیەتی	-11.3525
▁بنێین	-11.3525
▁پاکس	-11.3525
▁بنبڕکردنی	-11.3526
گۆرانی	-11.3526
▁خاتری	-11.3526
▁غەیرە	-11.353
▁موتە	-11.3532
▁نەهاتوو	-11.3532
▁1994	-11.3533
گۆشە	-11.3536
▁خودایە	-11.3536
▁جانتا	-11.3541
▁دۆستەکانی	-11.3542
▁خوازی	-11.3543
▁ئێرانییەکان	-11.3544
▁جیهانیش	-11.3545
▁ڕوونیکردەوه	-11.3546
▁دەرکەوتن	-11.3548
▁ڕایگەیاندووه	-11.3549
▁تەب	-11.355
▁دوبەی	-11.3551
▁باوەڕەدا	-11.3552
▁بەیاننامەکەی	-11.3554
ئۆر	-11.3555
▁چاوەڕوانکراو	-11.3556
▁جەنگێکی	-11.3556
▁دۆن	-11.3557
▁بەرهەمهێن	-11.3557
▁نایانەوێت	-11.356
▁دەتوان	-11.3564
▁فرێ	-11.3565
▁دڵیان	-11.3567
▁جەواد	-11.3567
گەڕێ	-11.3572
▁دانیمارک	-11.3573
▁کێڵگە	-11.3575
▁مەدەنییەکان	-11.3575
لێدان	-11.3575
دانانی	-11.3579
▁قابیلی	-11.3579
▁نزار	-11.358
ناوەند	-11.3581
▁پیاوەکە	-11.3583
▁دۆزرایەوە	-11.3583
▁تاوانێکی	-11.3583
▁ناوچەیەک	-11.3585
▁سیادی	-11.3587
▁لەگەڕەکی	-11.3587
▁ماج	-11.3589
ووڕ	-11.3591
▁ئیفلیج	-11.3593
▁چەوسێنەر	-11.3593
▁نەوەستا	-11.3594
▁ئامادەباشی	-11.3594
▁بۆگەن	-11.3597
▁کەوتەوە	-11.3598
عر	-11.3599
چالاکی	-11.36
▁ڕێچکەی	-11.3602
▁پێناس	-11.3603
▁بنێرێت	-11.3603
▁1996	-11.3604
▁کۆچەر	-11.3605
▁سەربازێکی	-11.3607
▁پەیماننامەی	-11.3608
▁گرتنەبەری	-11.3608
کاریگەری	-11.3608
▁جێب	-11.3608
▁کرمانجی	-11.3609
▁نور	-11.361
▁110	-11.3613
▁دیتن	-11.3613
▁بەزۆرینەی	-11.3615
▁قەیرانەکە	-11.3615
▁ئەکتیڤ	-11.3615
▁حوکمڕان	-11.3617
▁دۆخ	-11.3617
▁هێرشکردنە	-11.3617
عام	-11.362
ئەنجومەن	-11.3621
▁ئێزیدی	-11.3622
▁ڕۆز	-11.3622
▁بەبەردەوامی	-11.3623
▁کلۆ	-11.3623
▁پاشایەتی	-11.3623
▁نێوانیاندا	-11.3624
▁کورسییەکانی	-11.3625
02	-11.3626
اوەر	-11.3626
▁ئەوانەوە	-11.3626
▁پۆڵا	-11.3626
▁مەیل	-11.3627
▁پورتوگال	-11.3629
▁خێرو	-11.3632
▁احمد	-11.3633
▁بەشه	-11.3639
▁ڕێکوپێک	-11.3641
▁سەرەتاکانی	-11.3645
کرات	-11.3647
▁کوەیت	-11.3648
دەور	-11.3648
دوێنێ	-11.365
▁ڕونیکردەوە	-11.3651
▁مەککە	-11.3651
▁کراونەتەوە	-11.3651
▁خوێندنەوەیەکی	-11.3652
▁کولتور	-11.3652
▁هاندەرانی	-11.3653
▁ببەسترێت	-11.3665
▁چاپخانە	-11.3665
▁تیمێکی	-11.3667
▁ڕێکخرا	-11.3668
▁ئەڵلا	-11.3668
بەیاننامەیەکدا	-11.3671
▁73	-11.3672
▁بەروبووم	-11.3672
▁بەڕێزتان	-11.3678
▁یەکگرتوی	-11.3679
▁خستنی	-11.368
▁داخە	-11.3683
ڕوخ	-11.3683
وێست	-11.3684
▁شارەکه	-11.3685
45	-11.3685
▁پێکهاتەیەکی	-11.3685
▁گرتووخانە	-11.3686
▁بەسەریاندا	-11.3687
▁هونەرییەکانی	-11.3688
▁وانییە	-11.3688
صل	-11.3689
▁1997	-11.3691
▁کۆمۆنیستەکان	-11.3693
▁بتوانی	-11.3696
▁جوڵ	-11.3696
▁ئاڵۆزتر	-11.3696
▁جاسم	-11.3697
te	-11.3698
▁بەشداربو	-11.3699
نەدانی	-11.3699
▁خۆشتر	-11.3701
ئازار	-11.3702
▁کامڵ	-11.3703
▁داواکانی	-11.3704
▁لەسەدا	-11.3705
▁تیپە	-11.3714
▁وەرگیراو	-11.3715
نیشتمان	-11.3717
▁پەڵە	-11.3718
دەبەن	-11.3721
▁تۆتالیتار	-11.3722
▁گێمی	-11.3728
▁ڕێپێوان	-11.373
▁بزانیت	-11.373
▁بچین	-11.3731
ینه	-11.3731
ڕێگە	-11.3735
▁86	-11.3736
▁جیاوازتر	-11.3736
▁پەیامبەر	-11.3737
▁ئامێدی	-11.3737
▁پێدەدرێت	-11.3738
▁ڕۆژنامەیەکی	-11.374
▁عەرەبستانی	-11.3744
راونەتەوە	-11.3746
▁بەتوانای	-11.3748
بونە	-11.3751
بهێنن	-11.3751
فیز	-11.3753
▁تاراوگە	-11.3759
▁ڕێبەرایەتی	-11.3763
▁کاروبار	-11.3764
▁فڕۆکەخانە	-11.3764
▁پرچ	-11.3765
▁بڕوانین	-11.3765
▁ڕوداوە	-11.3766
▁پوخت	-11.3766
▁خێراتر	-11.3772
▁بزانرێت	-11.3773
رەف	-11.3774
▁بێشکچی	-11.3774
▁پیشاندا	-11.3777
▁کرایەوه	-11.3778
▁گۆش	-11.3779
▁لەخۆدەگرێت	-11.3782
▁موزیکژەن	-11.3782
▁هەفتەیه	-11.3782
▁گۆلەکانی	-11.3784
▁کەوتوو	-11.3784
▁هەق	-11.3784
قۆز	-11.3786
▁هەڵپەسێردراو	-11.3788
▁لەمەسەلە	-11.3788
▁چیرۆکەکە	-11.3791
▁1993	-11.3798
▁ڕاگەیاندنە	-11.3798
▁لیتر	-11.3798
▁کۆڵەکە	-11.3799
ut	-11.3799
▁دکەت	-11.3802
▁بەخشیوە	-11.3803
▁گفتوگۆکه	-11.3806
▁دروستبونی	-11.3807
▁ڕابەرایەتی	-11.3808
▁ئاوەڕۆ	-11.381
▁دەرفەتێک	-11.3815
▁حەڤدەی	-11.3815
▁نواند	-11.3816
▁نۆژەن	-11.3817
▁ئاماژەمان	-11.3821
▁ڕونکردنەوە	-11.3821
▁کامیرۆن	-11.3824
▁دەستتێوەردان	-11.3824
▁بوختان	-11.3824
▁بەدبەخت	-11.3824
٠٠	-11.3826
▁شەڕڤان	-11.3826
▁نییەبە	-11.3826
▁نەخۆشییەکانی	-11.3827
▁گونجان	-11.3827
▁جاک	-11.3829
▁گەورەش	-11.3831
▁مانچستەرسیتی	-11.3831
▁بەرخۆدان	-11.3831
▁ملکەچ	-11.3833
▁گۆڕەپان	-11.3835
▁یەکسانیخواز	-11.3835
▁مشک	-11.3836
▁ڕەخساندنی	-11.3836
▁ئامریکا	-11.3839
▁کەناڵێکی	-11.384
زەل	-11.3841
روان	-11.3845
▁بەلایەنی	-11.3846
تیپ	-11.3847
ەپان	-11.3848
▁دۆڵی	-11.3851
▁فێربوونی	-11.3852
▁خر	-11.3852
▁باژێرێ	-11.3853
▁Friday	-11.3853
▁قەتیس	-11.3853
▁88	-11.3854
▁وێنەکانی	-11.3854
▁خۆپاراستن	-11.3857
▁ڕێککەوتنێک	-11.3857
دەکرێتەوە	-11.386
بة	-11.3861
▁گۆشەگیر	-11.3862
▁عەلەوی	-11.3863
▁بەکاردەهێ	-11.3864
▁ببڕ	-11.3864
▁فرۆکەخانەی	-11.3865
▁بڕاو	-11.3869
▁کانت	-11.387
دەڵێن	-11.3875
▁لاساییکردنەوە	-11.3875
▁71	-11.3876
▁بەگرنگ	-11.3879
▁فەزا	-11.3881
▁پێکردن	-11.3881
▁لێکەوت	-11.3885
پێکردن	-11.3885
▁تەرمەکەی	-11.3887
▁کۆرپە	-11.3888
▁بودجەو	-11.3888
▁نەجات	-11.389
▁لۆکاڵی	-11.3891
▁زاخو	-11.3892
▁هەڕەشەکانی	-11.3893
▁خاوەندارێتی	-11.3893
▁کارانەی	-11.3894
چێتی	-11.3895
▁هەبووبێت	-11.3895
▁ئامادەکردووە	-11.3897
▁ڕۆژنامەوانان	-11.3898
▁پەڕە	-11.3903
▁دەسەلمێنێت	-11.3904
we	-11.3905
▁پەست	-11.3907
ئار	-11.3909
▁ئۆب	-11.3911
▁بومەلەرز	-11.3912
▁هەڤپەیڤین	-11.3912
L	-11.3916
سێر	-11.3916
قەرە	-11.3917
▁سکرتێر	-11.3918
▁ڕوانگەیەوە	-11.3919
▁چای	-11.392
▁عەلا	-11.392
ستێر	-11.3921
▁مۆڵگە	-11.3921
▁بەخوا	-11.3921
▁ڕاوەستان	-11.3924
ریب	-11.3926
▁تەوافق	-11.3926
▁کۆریا	-11.3926
▁بڕوانامە	-11.3928
دژی	-11.393
▁شەوکەت	-11.3933
▁ڕەوایە	-11.3934
▁ئازەربایجان	-11.3934
▁تیمەکانی	-11.3934
رادیۆ	-11.3937
ۆلۆژیا	-11.3938
▁بەشێکیان	-11.394
▁نابینێت	-11.394
▁حکومڕانی	-11.3941
▁دەردەسەری	-11.3942
▁چاوپۆشی	-11.3945
▁دەردەکەوێ	-11.3945
▁کردۆتەوه	-11.3945
▁هەستێکی	-11.3946
▁ڕەنجدەر	-11.3948
▁ناوەر	-11.3949
▁هەڵگیرسا	-11.395
▁نەهێنا	-11.3951
▁دەگەرێتەوە	-11.3952
▁پێویستیمان	-11.3954
▁گشتییەکانی	-11.3956
▁پۆرت	-11.396
فرانس	-11.3961
▁چالاکیەک	-11.3964
▁بەتەمەن	-11.3968
▁حورمەت	-11.3971
▁ناچ	-11.3972
کرێت	-11.3975
▁ڕوبەڕو	-11.3976
▁تووش	-11.3976
▁عەز	-11.3978
▁زانیارییانەی	-11.398
▁بخۆن	-11.3981
▁قسەیەک	-11.3981
▁خڕ	-11.3983
▁ڕونکردنەوەیەک	-11.3984
▁بەیاننامەکەدا	-11.3984
▁پەیوەندییه	-11.3984
▁تیرۆریستەکان	-11.3984
▁پاشکۆ	-11.3985
بەرپرسیار	-11.3986
▁خستووەتە	-11.3986
▁دیدگا	-11.3986
▁تشرین	-11.3987
▁٤	-11.3989
▁مست	-11.3992
▁ئاگربەست	-11.3992
▁سەرفراز	-11.3993
▁پەروەرده	-11.3994
▁شاعیرانی	-11.3996
▁بەدرخان	-11.3996
▁گۆرانییە	-11.3998
سەردەم	-11.4
▁ئەکاد	-11.4001
▁کوڵ	-11.4003
▁ئەفسەرێکی	-11.4005
▁توێژینەوەکە	-11.4006
▁ساڵانێکی	-11.4007
▁کرابوون	-11.4008
خەڵ	-11.4008
خوێند	-11.401
▁نەکراون	-11.4011
وومە	-11.4014
▁false	-11.4015
▁هیتلەر	-11.4015
خوات	-11.4015
رەگەز	-11.4015
▁بیریان	-11.4017
▁پێشکەشکرا	-11.4018
▁هەڵسوڕاوی	-11.4019
▁خاس	-11.4024
▁هونەرمەندێکی	-11.4025
فۆرم	-11.4026
کردوەو	-11.4026
▁قانونی	-11.4029
▁بوبێت	-11.403
کاڵ	-11.403
▁ڕزگاریان	-11.403
▁فرۆشت	-11.4034
▁مامۆستایەکی	-11.4036
▁جورئەت	-11.4037
▁قوم	-11.4038
▁بنەماڵەکەی	-11.4039
04	-11.4041
▁دابەز	-11.4045
▁گوێڕایەڵ	-11.4045
09	-11.4047
▁بندەست	-11.4048
نەبێت	-11.4049
▁ناکاو	-11.405
▁بخو	-11.4052
▁کارەساتێکی	-11.4059
▁هەنووکەیی	-11.4059
▁لەوکاتەدا	-11.406
▁کۆبکاتەوە	-11.4061
حەسەن	-11.4062
▁دەرماڵەی	-11.4064
▁موستە	-11.4065
um	-11.4065
داواکاری	-11.4067
▁بنێرن	-11.4069
▁ڕەتدەکاتەوە	-11.4071
▁کۆمیدی	-11.4072
▁ڕووەک	-11.4073
▁دنیایەکی	-11.4074
ئێران	-11.4076
▁هەوڵبدە	-11.4079
▁سووڕ	-11.4081
▁گرەو	-11.4082
▁پۆسته	-11.4083
▁چاندنی	-11.4084
لەلایەن	-11.4084
▁نەکەوێت	-11.4087
▁ولاتەکەی	-11.4087
▁دەروازە	-11.4087
▁هاوسەنگ	-11.4088
رێکخراو	-11.4088
▁بەکرێ	-11.4089
▁پێداویستیەکانی	-11.4094
▁چوومە	-11.4095
▁بەڵگەیەکی	-11.4096
▁دووگیان	-11.4097
▁لایەکەوە	-11.4097
▁ئەلعێراقیه	-11.4097
▁یاسادانان	-11.4102
▁فەرد	-11.4107
▁دراوسێکان	-11.4115
▁ئەردەن	-11.4116
▁لێقەوماو	-11.412
▁بچکۆل	-11.412
▁قین	-11.4122
کۆت	-11.4122
▁خوڵقاند	-11.4122
حوکم	-11.4123
▁نەزانراو	-11.4124
▁نەبینی	-11.4124
▁خەڵاتەکانی	-11.4126
▁کەشێکی	-11.4127
▁جێنۆساید	-11.4127
▁خامۆش	-11.4127
▁ڕف	-11.4127
▁خەتەنەکردنی	-11.4129
▁دەهێن	-11.4131
▁سێر	-11.4131
▁زان	-11.4132
▁نیت	-11.4135
سیب	-11.4135
▁دیراسە	-11.4135
▁ناحیەکانی	-11.4136
▁مەیلی	-11.4137
▁ڕەوایەتی	-11.4137
ge	-11.4138
هاوڵاتی	-11.4139
▁ئەج	-11.4143
ەکەى	-11.4144
▁سازان	-11.4144
▁عیلم	-11.4146
▁نەوەدەکان	-11.4146
▁کاتێکدایه	-11.4147
▁گەواهی	-11.415
▁سۆنگەی	-11.415
▁ستالین	-11.4151
▁بەغداوە	-11.4152
خۆمان	-11.4152
▁69	-11.4153
▁بنچینەیی	-11.4154
▁زاناکان	-11.4155
▁دەهێنێتەوە	-11.4159
▁نەفەر	-11.416
▁دروستبکات	-11.4161
▁خولەکه	-11.4162
▁ڕاپرسییەک	-11.4163
▁گوتەیەکی	-11.4163
▁کلینتۆن	-11.4165
▁چەوت	-11.4165
▁ئۆقرە	-11.4165
▁هێرشه	-11.4165
تەپ	-11.4166
▁91	-11.417
▁بەگژ	-11.417
▁ناحکومی	-11.4173
▁بەهەوڵ	-11.4174
▁گال	-11.4174
▁ڕووکەش	-11.4176
V	-11.4179
▁لویس	-11.418
▁News	-11.418
▁بگوترێت	-11.418
▁83	-11.4181
▁پڕوپاگەندە	-11.4184
▁دەڤەر	-11.4185
▁فراکسیۆنە	-11.4186
▁چاککردنی	-11.4188
▁گۆڕێ	-11.4189
▁سیستانی	-11.419
ساند	-11.4191
بەڕێوەبەر	-11.4192
▁بنەڕەتدا	-11.4193
▁ژیاوە	-11.4193
▁دیپ	-11.4194
ململانێ	-11.4194
▁خومەینی	-11.4195
▁چەتری	-11.4197
▁78	-11.4198
▁کێشەکانیان	-11.4198
▁هەوێنی	-11.42
▁بارێکی	-11.4203
▁فیکریی	-11.4204
▁ژەنیار	-11.4204
▁ڕوناکبیر	-11.4204
حال	-11.4204
▁کوفر	-11.4204
▁ڕابوون	-11.4205
▁قەرەباڵغی	-11.4205
بس	-11.4207
▁جیاوازییەکان	-11.4208
▁ئاید	-11.4211
▁دەپارێزێت	-11.4211
▁هۆیەوه	-11.4219
ڕادە	-11.4221
▁دەخوێنن	-11.4222
روژێن	-11.4222
▁هەڵوەستە	-11.4226
▁سەمیر	-11.4226
▁خۆرهەڵات	-11.4226
▁وەهمی	-11.4229
لیست	-11.423
▁ناوچەیەدا	-11.4231
▁پازدە	-11.4238
▁دەقەکە	-11.424
▁قەسیدە	-11.4241
▁ندی	-11.4242
خوازانە	-11.4245
راڵ	-11.4248
▁فرا	-11.425
▁کارمەندان	-11.4251
▁گەنجەکان	-11.4254
▁سارا	-11.4255
▁ئەردۆگان	-11.4256
▁دەناسرێت	-11.4256
▁ڕسول	-11.4257
▁هەرێمایەتی	-11.4257
▁پرنسیپی	-11.426
مەیدان	-11.426
▁دیک	-11.4261
▁دەشکێن	-11.4261
▁کەرامەتی	-11.4263
▁پرۆگرامێکی	-11.4264
▁پردێ	-11.4275
▁بکەت	-11.4278
دەهێنێت	-11.4279
▁بکێش	-11.4281
▁دەربکەوێت	-11.4283
▁وەزارەتەکەی	-11.4285
فق	-11.4286
▁دەنێرێت	-11.4286
▁پشکداری	-11.4288
▁بەکاربەر	-11.4288
کوڵ	-11.4289
▁هەڵداوە	-11.4289
61	-11.429
ڤیا	-11.429
▁شانۆگەرییەک	-11.4293
▁ناجێگیر	-11.4294
▁ئەشکەنجەدان	-11.4297
▁لەخەڵکی	-11.4301
▁بەئامانجی	-11.4302
نیاز	-11.4302
▁حالەت	-11.4302
▁هەموارکردنەوەی	-11.4302
▁کۆمیس	-11.4304
▁تێبینییەک	-11.4305
▁سواڵ	-11.4306
▁نەکەیت	-11.4306
▁1989	-11.4306
▁هاتینه	-11.4307
▁بەدەپە	-11.4308
ڕووداو	-11.4314
▁ڕواە	-11.4314
▁نووسرا	-11.4319
خەل	-11.4321
88	-11.4322
ha	-11.4324
▁دزینی	-11.4324
بەخشێت	-11.4324
▁دەخرێن	-11.4325
▁دواکەوتو	-11.4329
▁داوایەکی	-11.433
▁لیگ	-11.433
▁حەمەڕەشید	-11.4332
▁دیدارەکە	-11.4334
▁پێشکەوتو	-11.4334
▁شۆخ	-11.4335
▁ئازادییەکان	-11.434
▁گەیشتوونەت	-11.434
▁تەنێ	-11.434
▁چاپکراو	-11.4341
az	-11.4344
▁پشیلە	-11.4345
▁دەستەواژە	-11.4346
▁مومارەسە	-11.4347
▁عەبدولرەحمان	-11.4347
▁ڕوونتر	-11.4348
▁فەبرایەر	-11.4349
▁تەقینەوەکەی	-11.435
▁نامەکەی	-11.435
▁بزووتنەوەکە	-11.4352
▁ببرێت	-11.4353
▁حیزبایەتی	-11.4355
▁سۆمەری	-11.4356
▁دهوک	-11.4361
▁79	-11.4362
▁شەمەندەفەر	-11.4363
▁هێواش	-11.4363
▁نیچە	-11.4363
▁بەعسیەکان	-11.4363
هەڵگر	-11.4367
▁بەرۆکی	-11.4367
▁گەیشتۆت	-11.437
ani	-11.4372
▁مەلاکان	-11.4375
▁نادەین	-11.4377
▁پیرەمێرد	-11.4386
▁فیزیکی	-11.4386
▁دیمەنە	-11.4388
ێستا	-11.4389
▁دەیتوانی	-11.4391
▁لەئەوروپا	-11.4393
▁فرەژنی	-11.4394
▁ژنەکە	-11.4395
▁دەمانچە	-11.4396
▁نامەوێت	-11.4396
▁مەفرەزەی	-11.4397
▁شەراکەتی	-11.4397
▁دەربازبوون	-11.4398
▁سنوورێک	-11.4399
▁فاتیح	-11.4401
رووداو	-11.4402
▁لاس	-11.4403
▁لێبکات	-11.4404
▁بەکارهێنا	-11.4406
▁وەرنەگرت	-11.4406
▁خەونەکانی	-11.4407
▁نابەجێ	-11.4407
▁کاتژمێرێک	-11.4409
▁بەناونیشانی	-11.4409
▁کردووم	-11.4413
بێل	-11.4414
▁پور	-11.4415
▁پێنجشەممه	-11.4415
سلم	-11.4415
▁ئاوایی	-11.4416
▁ئاوەکە	-11.4416
نایەت	-11.4419
▁حەل	-11.4422
▁شایەتی	-11.4422
▁ئەوانەن	-11.4423
▁زیندانیانی	-11.4424
▁دادەمەزرێن	-11.4424
▁بەگەرمی	-11.4427
▁ناڵە	-11.4431
▁بووایە	-11.4433
▁ڕەقیب	-11.4435
▁دادگە	-11.4436
▁کوبانی	-11.4437
▁99	-11.444
▁قائیمقامی	-11.444
▁موسلیمین	-11.4441
▁چۆنییەتی	-11.4445
جاد	-11.4446
▁ئیماندار	-11.4447
▁پێداویستییە	-11.4448
▁نووسینەوەی	-11.445
▁فرەیی	-11.4452
▁بەیانیان	-11.4458
باح	-11.4459
▁بێباک	-11.446
سایتی	-11.4461
▁ئۆتۆ	-11.4463
کردوەتەوە	-11.4463
▁ڕەوشەکە	-11.4467
▁قوڵایی	-11.4469
▁بوویت	-11.447
▁بەئەزموون	-11.4471
▁ئامێرژەنی	-11.4471
▁ڤیدیۆیی	-11.4471
قین	-11.4471
▁نەجم	-11.4472
▁لەنێوانیاندا	-11.4474
ۆست	-11.4478
▁پیشانگە	-11.4483
▁ڕێککەوتنێکی	-11.4484
▁87	-11.4486
▁تەنگە	-11.4487
تیرۆر	-11.4487
▁نەیارەکانی	-11.4487
ابردوو	-11.4491
بەکار	-11.4493
▁لەهەڵبژاردنەکان	-11.4494
دنیا	-11.4496
▁ڕەمز	-11.4502
▁بڕەخسێ	-11.4505
▁گوتەبێژ	-11.4506
▁هەمومان	-11.4507
▁لەقەزای	-11.4507
▁سەرەتاییەکان	-11.4507
▁وەرزشکردن	-11.4508
▁وێنەکە	-11.4508
▁بارمت	-11.4512
مێنی	-11.4516
▁عەمەلی	-11.4516
دیموکرات	-11.4517
یاسی	-11.4518
"(	-11.4518
▁بەهۆکاری	-11.4518
▁سوننی	-11.4519
▁ئازارەکانی	-11.452
▁کوردسات	-11.452
▁هۆشبەرەکان	-11.4522
▁گەڕاندەوە	-11.4522
▁سەردانەکە	-11.4525
gmail	-11.4525
▁81	-11.4529
▁قوڵتر	-11.4531
▁PKK	-11.4533
▁سەرتاپای	-11.4533
▁فێرکاری	-11.4535
ێنرێن	-11.4535
▁شیعرێکی	-11.4537
ie	-11.4539
رەزا	-11.4546
▁مارکسیزم	-11.4548
▁پاراست	-11.4549
▁بلیمەت	-11.4549
▁it	-11.4549
▁العراق	-11.455
▁1968	-11.4553
کەوتو	-11.4556
▁بەڕوونی	-11.4556
▁بەیاننامەکە	-11.4562
▁لەخزمەتی	-11.4562
▁حەفتاکان	-11.4564
▁لێکۆڵ	-11.4566
▁فەلەک	-11.4568
نەوت	-11.4568
▁دەبەست	-11.457
▁ڵێ	-11.457
لوج	-11.4572
▁تەلەف	-11.4573
▁سەلاحەدین	-11.4573
▁جڤاکی	-11.4573
▁پێنچ	-11.4574
▁ڕەشەبا	-11.4575
▁پێکهاتوون	-11.4576
▁لەدەوری	-11.4578
▁زەنگەنە	-11.4581
▁ماشێن	-11.4582
76	-11.4582
▁ژوان	-11.4582
▁کۆکردنەوە	-11.4583
▁ئەمڕۆکە	-11.4585
▁لەبوارەکانی	-11.4587
▁دەڕوا	-11.4587
▁کرایە	-11.4591
▁کۆست	-11.4593
تورک	-11.4596
▁هەریری	-11.4597
58	-11.4598
▁پاسەوانەکانی	-11.4602
▁وەدەر	-11.4602
دەکەون	-11.4602
▁ژنانەی	-11.4605
غر	-11.4606
▁ئاکرێ	-11.4607
▁زایینی	-11.4607
85	-11.4609
▁بچێتەوە	-11.461
▁عین	-11.4613
▁نەکردووەتەوە	-11.4616
▁لێکۆڵینەوەیەکی	-11.4619
▁ڕۆمانسی	-11.4619
▁گومرگ	-11.462
▁لۆس	-11.4621
▁وەهاب	-11.4622
▁مەڵ	-11.4628
کراسی	-11.463
▁شارەوانییەکان	-11.4631
▁ڵات	-11.4632
▁خواردووە	-11.4635
▁بودجه	-11.4635
▁تەڵاق	-11.4636
▁پارێزگاریکردن	-11.4636
▁نەهێشت	-11.4638
▁دەکێشێت	-11.464
▁شوق	-11.4643
▁ژینگەو	-11.4643
▁الخ	-11.4648
▁سول	-11.4648
▁مۆڵ	-11.4649
کۆمەڵگە	-11.4651
▁ڕووداوێک	-11.4652
▁دەخەن	-11.4654
▁خەسرەو	-11.466
▁پێکبهێن	-11.4664
▁ڵک	-11.4665
▁کاول	-11.4665
▁قوتابخانەو	-11.4666
▁سکۆتلەند	-11.4667
▁پتەوتر	-11.4672
▁ئاماژەیەکی	-11.4674
▁بەڕێزانە	-11.4675
▁پێنوسەکان	-11.4675
▁گوندنشین	-11.4676
▁دادگاییکردنی	-11.4677
▁مامناوەند	-11.4677
▁بێوێنە	-11.4678
▁بة	-11.468
▁لاشەی	-11.4684
▁کەسێکیش	-11.4685
▁زاوا	-11.4688
نوور	-11.4692
▁دۆڕاندن	-11.4693
▁ڕک	-11.4693
پەرەست	-11.4696
▁گۆرانییەکانی	-11.4696
▁جوانەکان	-11.4697
▁دەزگە	-11.4699
▁لەشارەکانی	-11.4705
▁بەرێوەدەچێت	-11.4708
▁دانیان	-11.4709
▁نەبون	-11.4712
▁قەدری	-11.4726
▁لەوێشەوە	-11.4726
▁دیندار	-11.4727
دهۆک	-11.4728
▁خاڵانەی	-11.4729
هەشت	-11.4731
▁ئامادەیه	-11.4733
▁مێش	-11.4736
▁زەریا	-11.4737
▁شورای	-11.4739
▁زۆرداری	-11.474
ویلایەت	-11.4743
▁سەرەکییەکان	-11.4745
▁مید	-11.4745
▁بەدەستبهێنێت	-11.4747
▁نەهێناوە	-11.4747
ئایین	-11.4748
▁کراوەیە	-11.4751
▁عومر	-11.4755
▁هەڵدەستێت	-11.4756
▁دەکە	-11.4757
me	-11.4757
▁٥	-11.4759
▁سنوورەکان	-11.4759
▁ڕوداوەکە	-11.476
▁بگەر	-11.4763
▁چەپڵە	-11.4763
کەسێک	-11.4765
▁نەست	-11.4766
سوت	-11.4767
▁زاتی	-11.477
▁ئاسمانییەکان	-11.4773
▁دەرچووانی	-11.4775
▁کوڕێکی	-11.4775
▁بابەتانە	-11.4775
▁نزا	-11.4775
ئال	-11.4778
▁دڵتەزێن	-11.4779
▁بەوپێیەی	-11.4779
▁جڤات	-11.4779
▁موسەوی	-11.4779
▁مەبەسته	-11.478
▁نەدەکرا	-11.4783
▁کۆدەبێتەوە	-11.4785
فەق	-11.4786
▁مێزگرد	-11.4787
▁گوتەنی	-11.4788
▁لەعێراقدا	-11.4789
▁وتەبێژ	-11.479
▁پێمانوایە	-11.479
▁84	-11.4792
کۆپ	-11.4792
▁هەڵئە	-11.4793
▁لەتوانای	-11.4795
▁شەقڵاوە	-11.4795
▁ئامادەین	-11.4796
▁نەناس	-11.4796
▁لەجێی	-11.4796
ماس	-11.4796
ۆگ	-11.4797
▁سینگ	-11.4798
▁no	-11.4799
▁ڕویدا	-11.4802
▁کەرکوکیش	-11.4802
قۆ	-11.4802
▁داهاتێکی	-11.4802
▁تێکدەر	-11.4804
▁ناوشار	-11.4805
▁قەدەغەکراو	-11.4807
▁هەڵبەست	-11.4811
▁کەمپەین	-11.4813
▁ئەفغانس	-11.4813
فۆرد	-11.4813
ئازاد	-11.4814
▁ئازادییەکانی	-11.4815
اوێژ	-11.4816
▁فیر	-11.4819
0000	-11.482
مەڵ	-11.4821
ساب	-11.4821
▁کارەش	-11.4821
مۆر	-11.4821
▁سندوقەکانی	-11.4825
▁دوورودرێژ	-11.4827
▁فرانک	-11.4828
▁ژمێر	-11.4828
▁دنیابینی	-11.4828
▁گۆرەپان	-11.4836
▁نۆبڵ	-11.4837
▁نەبرد	-11.4838
▁بچیت	-11.4839
▁ملیون	-11.484
▁ئاڵمان	-11.484
▁وەلاتێ	-11.4843
▁حەڵاڵ	-11.4843
▁خوارێ	-11.4844
▁کاربکات	-11.4847
▁جێگرەکەی	-11.4847
▁بگێڕن	-11.4847
▁Wed	-11.485
▁نامەکە	-11.4852
▁هاولاتیان	-11.4852
ۆنگ	-11.4853
▁ئاماژەیەک	-11.4857
▁لەدروستکردنی	-11.486
▁پەسەندکرا	-11.4864
▁سالح	-11.4865
▁سەرەتاییەکانی	-11.4865
▁شەکرە	-11.4867
▁بخوات	-11.4867
بکرێ	-11.4869
▁نرخاند	-11.4871
▁مول	-11.4872
▁هەڵچوون	-11.4873
امەت	-11.4875
▁کاندیدەکان	-11.4877
▁کۆمسیۆن	-11.4879
▁بخوێنێت	-11.488
▁فەرز	-11.488
▁ئیشکردن	-11.488
▁بخشێن	-11.4882
▁بگەرێ	-11.4883
▁شێوه	-11.4884
نووسراو	-11.4886
▁هەڵوێستەکانی	-11.4886
▁کۆچبەران	-11.4887
▁هەربۆیەش	-11.4887
▁باڵەکایەتی	-11.4887
▁کوردییەکاندا	-11.4888
▁جوگرافیا	-11.4889
نامەیەک	-11.4889
▁دەخرێت	-11.489
▁مەنووچێهر	-11.4892
پوو	-11.4892
▁نەبووبێت	-11.4894
▁بابەته	-11.4895
چارەسەرکردنی	-11.4896
▁بەڕێوه	-11.4898
▁لیس	-11.4899
▁شیکردنەوە	-11.49
▁مەملەکەت	-11.49
▁چێڵسی	-11.49
▁داون	-11.49
▁تواناسازی	-11.4903
▁ئاشکراشیکرد	-11.4903
▁سرود	-11.4904
خەن	-11.4905
▁نەکردبێت	-11.4906
▁دڵڕەق	-11.4908
▁مۆد	-11.4909
▁بڵی	-11.4909
▁زێتر	-11.4909
بەجێ	-11.4911
▁پێداوە	-11.4911
▁خواوەند	-11.4912
▁دانیشتوی	-11.4913
▁هەرسێ	-11.4915
nesda	-11.4916
▁غەمگین	-11.4916
ماوەیەک	-11.4916
کسۆن	-11.4917
▁عیرفان	-11.4924
▁هێڕش	-11.4924
▁پوختەی	-11.4925
▁زیانەکانی	-11.4929
باوک	-11.4932
Y	-11.4932
▁وەرگرتوە	-11.4932
▁زبڵ	-11.4935
▁بێوار	-11.4936
سوار	-11.4937
▁ئەنتی	-11.4938
▁قەوم	-11.4939
▁عەلمانییەت	-11.4939
▁هەوڵدەدەین	-11.4942
▁ناردنەوەی	-11.4947
هەتا	-11.4953
▁کارەباو	-11.4956
▁کەمدەرامەت	-11.4957
ek	-11.496
▁بوێرانە	-11.4961
▁بەڕیوە	-11.4962
قوو	-11.4966
▁گفتوگۆیەکدا	-11.4967
▁وەلامێک	-11.4969
▁بنرێت	-11.4973
▁موسلیم	-11.4974
▁هێنابوو	-11.4975
▁داهاتوویەکی	-11.4976
▁ڤەکرن	-11.4979
▁یارییه	-11.498
▁سونی	-11.498
▁نوێنەرێکی	-11.4983
▁لاش	-11.4983
▁ڕێکەوتننامەی	-11.4983
▁داواکەی	-11.4984
▁قول	-11.4989
▁سەردەست	-11.499
ig	-11.4994
▁لەڕوانگەی	-11.4998
رەوش	-11.4998
دزێ	-11.5001
95	-11.5005
قوتابخانە	-11.5006
▁لەبارەگای	-11.5006
▁بەرەیەکی	-11.5006
▁پێشینە	-11.5008
▁پێکبهێنرێت	-11.5009
▁کردوویەتی	-11.5011
▁دواخست	-11.5014
▁هەبیت	-11.5015
▁کانون	-11.5016
▁ئەکتەرەکان	-11.5017
▁دەردەکەون	-11.5017
▁1974	-11.5018
▁حەوشە	-11.5019
▁پشکدار	-11.502
▁ڕەچاوکردنی	-11.502
رەب	-11.5023
▁تەز	-11.5026
▁کەپێویستە	-11.5027
▁تێنەگەیشت	-11.5028
▁هۆشبەر	-11.503
▁هاونیشتمانی	-11.5031
▁پۆستەر	-11.5031
▁ئەلفوبێی	-11.5034
▁ئەکاتەوە	-11.5036
▁کوڕەکە	-11.5037
مەحمود	-11.5039
▁شەهرام	-11.5039
▁لەباشوور	-11.5039
▁دەستداوە	-11.5044
▁بەڵگەوە	-11.5044
سوود	-11.5044
▁مەترسییەکی	-11.5045
▁هەڕەشەو	-11.5046
▁پاساوێک	-11.5047
▁تێبگەین	-11.5047
▁سانا	-11.5049
▁هەوڵدەدەن	-11.5055
دامەزراندن	-11.5056
▁لیژنەکان	-11.5058
06	-11.5058
▁لەسەرووی	-11.5061
ەحمان	-11.5062
▁سندوق	-11.5063
▁چاند	-11.5066
▁دهێت	-11.5068
▁خەرجکردنی	-11.5069
جووڵ	-11.5071
▁لەترسی	-11.5071
▁خولیای	-11.5076
▁ڕێزمان	-11.5076
▁سەودا	-11.5086
قات	-11.5087
▁سویسری	-11.5088
ـــ	-11.5092
▁دەتەوێ	-11.5093
▁پێکدێن	-11.5094
▁فیلمەدا	-11.5095
▁لەشێوەی	-11.5096
▁وێنەیەک	-11.5101
▁مز	-11.5105
دەکرێ	-11.511
▁تەما	-11.5114
▁پەشێو	-11.5114
▁پاپا	-11.5115
ناکەم	-11.5116
▁داگیرکرد	-11.5119
▁سیڤیل	-11.512
▁لڤین	-11.512
پەیام	-11.5121
▁موستەفا	-11.5123
▁سودمەند	-11.5124
▁سوتاندنی	-11.5124
▁داڕمان	-11.5126
▁خەندە	-11.5126
نیوز	-11.5128
▁لیۆن	-11.5128
▁بەشداربووەکان	-11.5131
▁دەستەمۆ	-11.5135
▁نیک	-11.5137
▁قەبووڵ	-11.5138
▁نایەن	-11.5138
پۆڕ	-11.5139
▁یاداشتێک	-11.5141
▁پاشانیش	-11.5144
▁شاندەکە	-11.5145
▁ساب	-11.5147
هاوکاری	-11.515
▁پۆلێن	-11.5153
▁جۆرەکان	-11.5154
گوزەران	-11.5154
▁دابەزین	-11.5157
▁هەڵاتن	-11.5158
▁پۆشاک	-11.516
▁حەوانەوە	-11.5163
ژوور	-11.5164
ئاشتی	-11.5165
▁بلیت	-11.5168
▁کوژراوەکان	-11.5169
▁جۆرەها	-11.5169
▁عامر	-11.5171
▁کۆنفڕانس	-11.5172
▁بەئەندام	-11.5172
▁نادادپەروەر	-11.5175
گرتنەوەی	-11.5178
▁چیرۆکێکی	-11.518
خز	-11.518
▁ئەنتەر	-11.5183
هەڵمەت	-11.5184
▁نەفت	-11.5184
روپا	-11.5187
▁82	-11.5189
ۆتۆ	-11.5192
▁گۆڕانیش	-11.5192
▁ئیئتیلاف	-11.5194
▁10000000	-11.5195
▁ڕونیشیکردەوە	-11.5197
▁بۆئەوە	-11.5198
بۆل	-11.52
96	-11.5201
▁تەرازو	-11.5207
▁جووتیار	-11.521
بکرێنەوە	-11.5213
▁نەئە	-11.5217
▁توانیویان	-11.5217
▁ژیرانە	-11.5217
▁یادکردنەوەی	-11.5219
▁دوودڵی	-11.522
▁داماو	-11.522
▁ژەنەڕاڵ	-11.5221
▁زوممار	-11.5221
بەرامبەر	-11.5223
وشیار	-11.5224
▁توانست	-11.5224
▁پارتەکان	-11.523
▁پێبەخشرا	-11.523
▁نوێبوونەوە	-11.523
▁بگەڕێینەوە	-11.5233
▁مەترسییە	-11.5234
بوونەتەوە	-11.5235
▁بەبڕیاری	-11.5237
▁دەربە	-11.5237
▁کوردۆساید	-11.5238
▁مەنسور	-11.5239
▁تەقیەوە	-11.524
▁دەکران	-11.5243
عال	-11.5243
▁ناوازە	-11.5244
▁بەرگرتن	-11.5245
▁کچەکان	-11.5246
▁میوزیک	-11.5247
▁قیامەت	-11.5247
▁دەهاتن	-11.5249
▁دەرهێنا	-11.5252
▁ڕێکخەر	-11.5256
▁بلو	-11.5256
گواست	-11.5259
کەریم	-11.5261
▁یەکلاکردنەوەی	-11.5263
▁هاوسۆزی	-11.5264
▁قووڵتر	-11.5265
فیل	-11.5265
▁شەهاب	-11.5265
▁Comment	-11.5266
ran	-11.5273
▁نەتەوەیەکگرتوەک	-11.528
▁غەفور	-11.5281
▁لەڕوی	-11.5281
▁ببینم	-11.5282
گوزەر	-11.5283
▁فەرید	-11.5285
عەل	-11.5286
▁فۆر	-11.5288
▁نڤیسەر	-11.5289
گەیەنین	-11.5291
بۆڵ	-11.5291
▁حکوومەتەکەی	-11.5296
▁نفوز	-11.5297
▁پەرۆش	-11.5299
▁زانیارییەکی	-11.5299
▁ئەشک	-11.5301
▁گیرانی	-11.5304
▁ئەسکەندەر	-11.5305
نەبوون	-11.5307
▁دەمێنێت	-11.5307
▁گەلاوێژ	-11.5307
▁پێشکەوتنخواز	-11.5308
▁داپۆشی	-11.5308
▁گێران	-11.531
▁ناهەموار	-11.5314
▁قەیسەر	-11.5316
تال	-11.5319
▁هەڵبگرێت	-11.5323
▁بکرایە	-11.5326
▁جاڕ	-11.5326
▁زاڵبوون	-11.5328
▁سەردەمیانە	-11.533
▁Tuesday	-11.5331
▁دیبەگەیی	-11.5331
▁ئەرکانی	-11.5334
▁پرنسیپ	-11.5335
ێوەدەچێ	-11.5335
▁تف	-11.5339
▁فۆتۆگرافەر	-11.5339
▁لەهەمانکاتیشدا	-11.5339
▁سۆسیالیزم	-11.534
▁ڵام	-11.5341
▁لەڕاستی	-11.5342
▁مایک	-11.5343
▁براکەی	-11.5347
▁مافەکان	-11.5349
ish	-11.5352
بۆیه	-11.5357
▁دیلان	-11.5358
▁ماوه	-11.5364
▁خۆرهەلاتی	-11.5365
فەو	-11.5366
03	-11.5374
▁ئەوکەسانە	-11.5375
▁بەرگریکار	-11.5376
▁بەسەدان	-11.5377
پیت	-11.5379
▁غیر	-11.538
▁مەولود	-11.5382
▁یەدەگ	-11.5383
عەقڵ	-11.5384
▁نەدرا	-11.5385
▁داواکردنی	-11.5389
▁کارامە	-11.5391
کێشەکان	-11.5391
▁پووچەڵ	-11.5392
▁لەدایکبووە	-11.5392
فەرموو	-11.5392
▁ئەوانیتر	-11.5394
▁تێرۆر	-11.5394
فارس	-11.5396
91	-11.5399
▁حاشا	-11.5401
▁ساڵانه	-11.5403
ion	-11.5407
▁بەڵێندەر	-11.5409
▁تەقەکردن	-11.5411
▁ستاف	-11.5415
▁All	-11.5416
▁تەواوکەری	-11.5416
▁حەیران	-11.5417
▁هەوڵەکانیان	-11.542
پچڕ	-11.5424
▁کۆگا	-11.5424
▁گەندەل	-11.5424
▁دەخوازن	-11.5425
▁غەرامە	-11.5425
▁تیاییدا	-11.5425
▁هەڵسوڕ	-11.5427
▁لەبەرچاوگرتنی	-11.5427
▁نێرینە	-11.5429
▁شاکار	-11.5431
▁دووبەرەکی	-11.5433
▁دۆڕان	-11.5434
ڕەزا	-11.5435
▁وتوویەتی	-11.5436
▁دەستیپێکردووە	-11.5437
▁هێرشانە	-11.5437
تەنیا	-11.5438
▁گوتراوە	-11.544
بکەیت	-11.5441
▁Monday	-11.5441
▁نۆزدە	-11.5447
▁سۆلاڤ	-11.545
▁سوتاو	-11.545
▁هاوارێک	-11.5452
▁دەروازەیەک	-11.5453
▁بسەپ	-11.5454
▁سەبار	-11.5454
▁هل	-11.5454
▁ڕووەو	-11.5456
بەرایەتی	-11.5456
▁هۆیەشەوە	-11.5456
▁ڕوبەروی	-11.5457
▁شەڕکەر	-11.5458
▁لەبودجەی	-11.5458
میدیا	-11.5459
▁موتڵەگ	-11.5459
ou	-11.5459
▁فایق	-11.546
▁زانستییەکان	-11.5461
گەیاندووە	-11.5464
▁مشەخۆر	-11.5467
▁دەلالەت	-11.5467
▁تەبا	-11.547
▁دڵتەنگ	-11.547
▁تۆخ	-11.5471
▁ئەرستۆ	-11.5471
ەکایەوە	-11.5475
▁پێوەرێک	-11.5476
▁نزیکترین	-11.5477
▁پێکهێنرا	-11.5478
▁ڕامیار	-11.5479
▁لەسێدارە	-11.5481
▁لەولاتانی	-11.5484
▁نازانیت	-11.5485
▁کەشف	-11.5485
▁دەبینیت	-11.5486
اللە	-11.5486
چڕ	-11.549
▁Saturday	-11.5493
▁بەسەرکردەوە	-11.5499
▁مینا	-11.5499
▁مەق	-11.5501
▁بەکاردێت	-11.5501
▁دەکوژرێت	-11.5502
▁نەخۆشخانه	-11.5502
▁خۆئامادەکردن	-11.5502
گەیشتوو	-11.5502
▁شەراب	-11.5504
تورکیا	-11.5507
▁چەرخ	-11.5508
▁سلبی	-11.5511
▁تەقاندنەوەی	-11.5514
▁هیوادار	-11.5515
▁نراوە	-11.5518
▁view	-11.5519
U	-11.5519
لینا	-11.552
▁نووسەرەکەی	-11.552
▁دەرنەچوو	-11.552
ڕاگەیاندن	-11.5523
▁دەناڵێنن	-11.5528
[...]
