<unk>	0
<s>	0
</s>	0
ی	-3.00343
▁و	-3.31792
▁لە	-3.94952
ە	-4.07738
▁بە	-4.44572
▁بۆ	-4.58284
▁کە	-4.61843
و	-4.80149
دا	-4.87568
▁ئەو	-4.92184
ن	-4.97654
▁له	-5.14205
م	-5.16535
ه	-5.2582
ان	-5.27001
▁(	-5.30222
ەوە	-5.31563
،	-5.38005
▁"	-5.40388
یان	-5.42229
▁)	-5.47882
▁:	-5.49261
ەکانی	-5.49482
ێکی	-5.53348
▁-	-5.54389
ش	-5.55718
▁ئەم	-5.60877
▁کوردستان	-5.64237
▁/	-5.64336
ەکان	-5.7002
ت	-5.75668
ێک	-5.9445
▁به	-5.99537
▁سەر	-6.00941
مان	-6.01969
▁هەر	-6.02243
▁لەسەر	-6.08014
ا	-6.0831
ێ	-6.10647
▁ب	-6.13692
▁عێراق	-6.23679
▁ئەوەی	-6.23849
▁دە	-6.24571
یە	-6.25945
▁لەگەڵ	-6.26004
▁	-6.27937
▁ی	-6.29639
انە	-6.29652
▁لەو	-6.29793
▁خۆی	-6.30825
انی	-6.33219
▁زۆر	-6.34323
▁کورد	-6.34962
▁وەک	-6.35397
ک	-6.35683
وە	-6.36118
ـ	-6.36274
▁نە	-6.36871
ەکەی	-6.36961
ەی	-6.37493
▁دا	-6.37894
د	-6.38196
▁تا	-6.38416
▁بەڵام	-6.38832
▁هەموو	-6.39353
▁بوو	-6.40574
یەکی	-6.41787
▁که	-6.42367
کردنی	-6.47013
ین	-6.48272
ب	-6.4943
▁کرد	-6.50782
"	-6.50817
یش	-6.5157
▁نا	-6.55653
▁دەبێت	-6.55889
ل	-6.5677
▁بێ	-6.56856
▁هەیە	-6.57025
ەکە	-6.57725
▁دەکات	-6.57783
س	-6.58141
▁یان	-6.61325
▁دوو	-6.65009
ر	-6.69868
▁پێ	-6.70317
▁بێت	-6.70709
ِ	-6.708
▁بەر	-6.73128
▁ئەگەر	-6.73228
▁لەم	-6.7334
نە	-6.75448
انەی	-6.77926
▁من	-6.78382
▁چەند	-6.78457
▁سیاسی	-6.78612
▁ناو	-6.78853
▁نییە	-6.79032
▁دەست	-6.79567
▁لێ	-6.81633
▁هیچ	-6.81857
▁هەرێمی	-6.8413
▁بکات	-6.8454
دە	-6.8578
▁یەک	-6.86672
▁ئێستا	-6.86867
▁دوای	-6.88863
یەک	-6.89651
[	-6.90135
▁،]	-6.90356
▁ئەوە	-6.90467
ف	-6.90654
▁سەرۆکی	-6.9317
ز	-6.94406
کانی	-6.95499
کردن	-6.9559
▁خۆیان	-6.96486
▁تر	-6.97228
دی	-6.98189
تر	-6.98229
▁ئە	-6.98681
▁کار	-6.99679
▁هەولێر	-7.00394
:	-7.00921
▁ئێمە	-7.00992
▁زیاتر	-7.01337
کە	-7.01483
کان	-7.02597
ەکی	-7.03786
ێت	-7.04092
▁هەرێم	-7.06144
▁تەنیا	-7.07234
ەوه	-7.07691
▁دەکەن	-7.07769
▁بوون	-7.0865
▁هەروەها	-7.09269
▁چونکە	-7.09834
ڵ	-7.09982
▁م	-7.10386
بوو	-7.11069
▁[	-7.1113
▁]	-7.1119
ێن	-7.11274
▁د	-7.11391
▁ئێران	-7.12166
▁حکومەتی	-7.13726
▁کەس	-7.13786
ق	-7.14854
نا	-7.15334
کی	-7.16162
نی	-7.16279
▁سەرۆک	-7.16989
)	-7.17482
▁بکەن	-7.17646
▁چ	-7.18029
تە	-7.18237
بە	-7.18689
تی	-7.19227
ەو	-7.20753
▁یەکێتی	-7.21348
▁هەڵ	-7.21614
▁,	-7.21971
ى	-7.21987
▁ساڵی	-7.22161
▁ل	-7.22612
ۆ	-7.22978
▁کوردی	-7.24627
▁بەو	-7.26109
▁پێش	-7.26227
▁سلێمانی	-7.26238
▁س	-7.26667
▁نێوان	-7.28007
ەک	-7.28176
▁کردووە	-7.28485
▁بووە	-7.29486
یەکان	-7.3018
▁ڕ	-7.30402
ح	-7.30546
▁گوتی	-7.31636
▁بۆیە	-7.32667
▁دەکرێت	-7.33734
▁بەسەر	-7.34391
▁ن	-7.34483
▁تورکیا	-7.34604
لا	-7.35498
▁دروست	-7.35507
▁مرۆڤ	-7.37411
▁19	-7.37734
ەدا	-7.37884
لە	-7.38147
پ	-7.39252
▁خەڵکی	-7.39599
▁تایبەت	-7.40219
لی	-7.40466
ڕ	-7.41417
▁لەلایەن	-7.4158
بوون	-7.41794
▁پارتی	-7.4282
▁بن	-7.42947
چ	-7.43085
▁شاری	-7.43209
دان	-7.43515
▁خۆ	-7.44614
▁ک	-7.45115
▁دەر	-7.45147
▁سێ	-7.45311
را	-7.47153
▁دەڵێت	-7.4771
کرد	-7.4789
خ	-7.4822
▁یەکەم	-7.48289
▁ئەنجومەنی	-7.48389
▁ش	-7.4889
▁کۆ	-7.49093
▁ئەمڕۆ	-7.49864
▁10	-7.50554
▁ڕۆژی	-7.51744
▁تۆ	-7.51771
ع	-7.51987
▁پ	-7.52366
کەی	-7.52524
▁کاری	-7.52578
شی	-7.52639
▁ڕا	-7.52981
▁نوێ	-7.53331
▁باس	-7.53635
▁لایەن	-7.54412
▁1	-7.54782
▁حکومەت	-7.54802
▁پێی	-7.54991
▁ڕایگەیاند	-7.55363
گ	-7.56421
▁هەندێک	-7.56676
▁ئەمەریکا	-7.57566
▁گشتی	-7.576
▁یانەی	-7.5761
▁ئیسلامی	-7.57789
بێت	-7.57838
▁کەرکوک	-7.58014
▁ساڵ	-7.58059
تان	-7.58561
▁ئەمە	-7.59193
سی	-7.5936
▁ئەنجام	-7.59748
▁با	-7.59913
▁3	-7.60727
▁2	-7.6083
▁کۆتایی	-7.62325
▁وەکو	-7.62821
▁بکرێت	-7.63393
▁سە	-7.64354
▁بەرامبەر	-7.6445
ست	-7.64577
▁لەناو	-7.65124
▁ڕۆژ	-7.65412
مە	-7.6576
▁خەڵک	-7.65982
ەکانیان	-7.66038
▁بەڵکو	-7.66792
ری	-7.66873
▁بەهۆی	-7.67105
ج	-7.67547
▁;	-7.68509
▁لا	-7.69064
▁6	-7.69183
▁نەک	-7.70379
▁11	-7.70611
▁کەم	-7.71005
▁ع	-7.71473
▁&	-7.71951
▁بەردەوام	-7.72602
▁ڕوو	-7.72979
▁2010	-7.73324
▁پەرلەمان	-7.73428
▁وا	-7.73793
▁پەیوەندی	-7.73822
▁بەغدا	-7.73871
▁ئەوان	-7.73898
یەکانی	-7.74319
▁دی	-7.74956
▁لای	-7.75415
بەر	-7.75504
▁چۆن	-7.75671
▁ئەحمەد	-7.75802
▁چی	-7.75824
▁12	-7.75911
▁پاش	-7.76299
کاری	-7.7667
▁هەزار	-7.76829
▁ئەمریکا	-7.76862
▁هە	-7.76954
▁سی	-7.77038
▁گەورە	-7.77563
کار	-7.7757
▁ئا	-7.77674
▁چەندین	-7.77915
▁هۆی	-7.78644
▁دیکە	-7.78923
▁داوای	-7.78943
▁بەم	-7.79072
▁ئەمەش	-7.79097
▁2011	-7.79377
▁دەسەڵات	-7.79639
کردنەوەی	-7.79828
▁،	-7.79957
▁نێو	-7.8023
▁ف	-7.8024
ترین	-7.80251
دار	-7.80776
▁ناوی	-7.81237
ة	-7.81857
▁کردنی	-7.82249
ای	-7.8236
▁تە	-7.82872
یەوە	-7.82996
▁سەبارەت	-7.83652
▁وەزارەتی	-7.8379
▁4	-7.83871
▁ژیان	-7.84058
▁بەپێی	-7.84092
▁کاتێک	-7.841
رێت	-7.84392
▁5	-7.84422
▁ئازادی	-7.84425
▁وەزیری	-7.84438
بوونی	-7.84458
گە	-7.84594
▁پێویستە	-7.84775
ما	-7.84897
▁7	-7.85598
▁لەبەر	-7.8601
تا	-7.86251
یەتی	-7.86563
▁عەلی	-7.86654
▁نزیک	-7.87171
▁بارزانی	-7.87357
ەش	-7.87589
▁یەکێک	-7.87736
ار	-7.87852
ْ	-7.87902
زی	-7.8811
▁ت	-7.8814
▁8	-7.88165
▁مە	-7.88228
▁گۆڕان	-7.8844
▁\	-7.88494
▁–	-7.88921
▁بکەین	-7.89768
▁*	-7.89865
▁داعش	-7.90191
▁9	-7.90247
شە	-7.90347
▁یا	-7.90431
▁بی	-7.90928
▁بەشی	-7.91129
▁ماوەی	-7.91334
ون	-7.91482
▁مافی	-7.91513
▁گوتیشی	-7.92515
▁پەرلەمانی	-7.92655
▁ڕاگەیاند	-7.92937
▁بو	-7.93218
▁بەرەو	-7.93403
دەر	-7.935
▁کو	-7.93869
▁کراوە	-7.9402
ڕا	-7.94097
▁بیر	-7.94616
▁جیهان	-7.9509
▁پێشمەرگە	-7.95463
▁هەبێت	-7.95507
وو	-7.95649
▁بەرهەم	-7.95706
▁محەمەد	-7.95723
▁چوار	-7.9604
▁ال	-7.96075
▁عێراقی	-7.96143
زە	-7.96403
وه	-7.9697
/	-7.97172
▁پڕ	-7.97213
▁چاو	-7.97306
نەوە	-7.98271
▁جیهانی	-7.98299
▁دەستی	-7.98858
e	-7.98916
▁دوور	-7.99247
گەی	-7.99683
▁بەشداری	-7.99683
▁کرا	-7.99695
رە	-7.99927
▁هەوڵ	-8.00074
▁هەمان	-8.00179
▁بەرز	-8.00399
او	-8.00973
▁نەبێت	-8.01651
▁گەر	-8.02081
کۆ	-8.02293
▁ئاماژەی	-8.02943
▁2012	-8.03344
▁هەردوو	-8.03561
▁بوونی	-8.03622
بی	-8.03762
▁ئەوا	-8.04286
▁باسی	-8.04415
یا	-8.04769
ُ	-8.05039
▁هاو	-8.05134
▁باش	-8.05267
▁ژنان	-8.05383
ور	-8.05465
▁ژن	-8.05598
▁سوریا	-8.05653
ژ	-8.0566
ییەکان	-8.05886
▁هێزەکانی	-8.05926
▁تەواو	-8.06225
▁دەرەوەی	-8.0637
▁دەنگ	-8.06491
▁ئازاد	-8.06681
پێ	-8.06878
▁دژی	-8.07115
▁بەلام	-8.07139
▁کۆمەڵایەتی	-8.07248
▁هەست	-8.07395
▁ژیانی	-8.07444
ئە	-8.07513
▁یاری	-8.07618
▁عە	-8.08202
▁جۆرە	-8.08673
▁بەدەست	-8.0868
▁20	-8.0876
کا	-8.09045
ووە	-8.09066
ڤ	-8.09275
▁ئاو	-8.09409
▁کوردستانی	-8.09476
▁ڕابردوو	-8.09546
▁17	-8.09667
با	-8.09838
▁دووەم	-8.10246
▁18	-8.10918
ایەتی	-8.10949
▁بەکار	-8.10964
▁ئی	-8.1126
ەکه	-8.11506
▁دوا	-8.11621
▁کاتی	-8.11947
▁خۆش	-8.11971
▁خولی	-8.12077
وا	-8.12282
بن	-8.12344
▁یە	-8.12404
انەوە	-8.12425
▁واتە	-8.12524
▁ڕێ	-8.12535
▁2009	-8.1278
▁ئەوەش	-8.12978
ەتی	-8.12993
▁یاسا	-8.13011
▁15	-8.13018
انه	-8.13484
▁کات	-8.13757
دایە	-8.14058
▁دەکرد	-8.14069
دانی	-8.14081
▁'	-8.14409
▁کردن	-8.14702
▁فیلمی	-8.15044
▁مو	-8.15116
▁تێدا	-8.15169
وان	-8.15237
▁هەم	-8.15321
▁ئەوەیە	-8.15715
▁پارێزگای	-8.15924
▁یاسای	-8.15994
▁کۆماری	-8.16012
▁هەڵبژاردن	-8.16126
▁ا	-8.16289
▁وڵات	-8.16334
▁دەکەین	-8.16431
▁سەرەکی	-8.17048
▁کێشەی	-8.17088
▁خاوەن	-8.171
▁جار	-8.17153
▁تێ	-8.17172
زا	-8.17181
▁ئاستی	-8.17354
▁حیزب	-8.1747
▁لیستی	-8.17504
بو	-8.17811
▁16	-8.17817
▁هات	-8.18124
▁پێشکەش	-8.1816
▁ئامادە	-8.18598
ال	-8.18862
▁دەوڵەتی	-8.18885
▁ئایا	-8.18913
▁شار	-8.18984
▁دەدات	-8.19073
▁ژێر	-8.19209
▁عەرەبی	-8.19493
▁حیزبی	-8.1971
▁کردەوە	-8.19855
▁هەمیشە	-8.20015
▁بڵاو	-8.20349
▁جگە	-8.20569
▁شا	-8.20649
▁دەم	-8.2068
▁پرۆسەی	-8.20977
0	-8.21087
▁تری	-8.21116
قە	-8.21209
▁13	-8.21375
▁ئەندامی	-8.21503
▁نەوت	-8.21738
غ	-8.2196
َ	-8.22028
نگ	-8.2209
▁2014	-8.22135
▁ح	-8.22313
ەکاندا	-8.23056
فی	-8.23152
▁ما	-8.23435
▁جا	-8.23484
▁هێزی	-8.23497
ێکدا	-8.23589
▁ملیۆن	-8.23743
▁داوا	-8.2375
▁فە	-8.23752
▁ئاشکرا	-8.23755
▁تایبەتی	-8.23773
▁بڕیار	-8.2443
▁2008	-8.24481
s	-8.24658
▁زۆری	-8.25468
یه	-8.2583
▁گەلی	-8.2589
▁دواتر	-8.26008
یت	-8.26073
▁گوت	-8.26319
▁نەتەوەیی	-8.26604
ستی	-8.26619
▁بواری	-8.26656
لێ	-8.26659
▁فی	-8.26757
ڵە	-8.26991
▁پێویستی	-8.27065
▁عەرەب	-8.27111
▁بدات	-8.27224
کات	-8.27382
▁بر	-8.27628
▁14	-8.2823
▁زمانی	-8.28414
سەر	-8.28445
ەکەیان	-8.28583
▁لەنێوان	-8.28589
ێتەوە	-8.2863
ات	-8.28644
▁هونەری	-8.28728
▁دیکەی	-8.28761
▁لەبارەی	-8.28922
▁خۆمان	-8.28959
▁جێ	-8.29039
ڕۆ	-8.29298
کرا	-8.2934
ئا	-8.29379
▁دەسەڵاتی	-8.2948
رۆ	-8.29666
▁ج	-8.29756
▁ئەویش	-8.29886
▁ئەوانەی	-8.29936
▁تەنانەت	-8.29974
▁وڵاتانی	-8.30125
▁شەڕ	-8.30213
▁منداڵ	-8.30312
▁چارەسەر	-8.30316
▁%	-8.30504
یار	-8.30626
▁خوا	-8.3094
4	-8.31177
▁گەل	-8.31392
▁هاوکاری	-8.31538
ول	-8.31623
▁سا	-8.31637
سە	-8.31718
بۆ	-8.3204
▁ئاژانسی	-8.32126
▁ڕو	-8.322
▁30	-8.32351
3	-8.32547
جی	-8.32755
▁قە	-8.32801
▁نەبوو	-8.32801
▁سەرجەم	-8.33281
▁سەرۆکایەتی	-8.33286
5	-8.33639
▁هەواڵی	-8.33657
▁گرنگ	-8.33945
▁ئابووری	-8.34237
▁نیشتمانی	-8.34477
▁تەواوی	-8.34586
▁پێویست	-8.34741
▁خۆم	-8.34875
ێنێت	-8.3488
▁سو	-8.34906
وت	-8.3498
9	-8.35013
8	-8.35214
▁خاڵ	-8.35244
▁هی	-8.3536
▁تاک	-8.35561
جە	-8.35631
▁ڕێگەی	-8.35649
کراوە	-8.35696
کردووە	-8.357
ەر	-8.35718
▁دەوڵەت	-8.35914
بڕ	-8.36048
▁کێ	-8.36321
▁ئەل	-8.36382
▁سوپای	-8.36452
▁خ	-8.36503
▁سەردانی	-8.36559
▁کا	-8.36573
6	-8.36659
چی	-8.36736
▁دەنگی	-8.36797
▁کۆمەڵگا	-8.3706
رێ	-8.37169
▁مانگی	-8.37247
▁بەرگری	-8.37429
اوە	-8.37458
▁گرنگی	-8.37486
▁هەبوو	-8.37611
o	-8.37663
▁لەوە	-8.37719
تۆ	-8.37723
▁لیژنەی	-8.37734
▁دەی	-8.37737
اری	-8.37743
▁پێک	-8.37799
▁ژ	-8.37961
▁ئۆ	-8.38266
شت	-8.38292
▁کەسێک	-8.38428
▁تەندروستی	-8.38485
▁quot	-8.38678
▁بەشێک	-8.38685
▁قسە	-8.38774
بێ	-8.39101
▁دڵ	-8.39245
نەوەی	-8.39358
ێتی	-8.39359
▁ماڵ	-8.39368
یەت	-8.3938
ڵا	-8.39759
▁نی	-8.40104
▁نێودەوڵەتی	-8.40499
ەکەدا	-8.40996
▁کۆن	-8.4102
▁ئەوروپا	-8.41351
▁دوێنێ	-8.41475
▁هەتا	-8.41478
▁داوە	-8.41664
کەر	-8.4186
i	-8.41974
t	-8.42021
▁دەیان	-8.42362
▁قوربانی	-8.425
▁ئەی	-8.42668
▁هێزە	-8.42711
▁جیاواز	-8.42972
▁هاوکات	-8.43017
▁جوان	-8.43087
▁ساز	-8.4322
ڵی	-8.43238
▁خو	-8.43414
-	-8.43437
▁ڕۆ	-8.43454
ەت	-8.43521
▁گرت	-8.43801
ند	-8.43933
▁بڕیاری	-8.43947
▁دژ	-8.43958
▁هێرش	-8.43975
▁دێموکراسی	-8.44096
▁جە	-8.442
▁ڕێگای	-8.44368
▁ق	-8.44385
سا	-8.44405
d	-8.44507
▁وڵاتی	-8.44575
▁سەربازی	-8.44731
قی	-8.44794
ایە	-8.44805
▁شەو	-8.45077
▁ڕە	-8.45121
▁زانیاری	-8.45319
▁توانی	-8.45381
رو	-8.45421
زان	-8.45448
▁پشت	-8.45539
اد	-8.45726
1	-8.4583
▁هێنا	-8.45866
که	-8.4587
▁نابێت	-8.45907
▁ئەندام	-8.4599
▁زۆربەی	-8.46054
ەکانیش	-8.46106
▁بار	-8.46455
اوی	-8.46595
▁مەدەنی	-8.466
کەوت	-8.46891
▁ڕۆڵی	-8.47183
گا	-8.47303
▁ئەنجامی	-8.47336
▁زیاد	-8.47658
اندنی	-8.47726
▁ڕێکخراوی	-8.47738
قا	-8.47833
▁25	-8.47921
▁پاراستنی	-8.48313
▁حە	-8.48316
▁دیار	-8.48546
▁ئاشتی	-8.48578
▁بەبێ	-8.4885
اڵ	-8.48954
▁بەڕێز	-8.48971
تەر	-8.49175
▁لەوەی	-8.49201
▁زەوی	-8.49214
▁ڕوون	-8.4939
▁تێیدا	-8.49452
▁گوێ	-8.49527
▁ژمارەی	-8.4958
▁هەن	-8.49823
▁نوێی	-8.50072
▁کۆمەڵ	-8.50103
▁شەهید	-8.50109
▁جێبەجێ	-8.50635
▁ئاماژە	-8.50644
y	-8.50659
ئ	-8.50677
▁شتێک	-8.50692
اس	-8.50698
از	-8.50888
▁پر	-8.51
▁ست	-8.51198
▁ئێوە	-8.51223
▁دیاری	-8.5138
▁جەلال	-8.5155
▁پیاو	-8.51611
تەوە	-8.51666
▁نەتەوە	-8.51674
▁تیرۆر	-8.51702
▁ز	-8.51753
▁ڕاستی	-8.51966
گیر	-8.51989
ییە	-8.52
▁هێشتا	-8.52053
▁سیاسەت	-8.52072
▁حەسەن	-8.52215
▁ڕەش	-8.52225
▁ئیسلام	-8.52256
▁21	-8.52409
کێش	-8.52411
بر	-8.52605
▁ناوچەی	-8.52777
▁زمان	-8.53008
▁مەلا	-8.53109
▁کاریگەری	-8.53216
a	-8.53275
▁بەڕێوەبەری	-8.53574
▁أ	-8.53619
▁دێت	-8.53873
▁تۆمار	-8.54384
▁گەورەی	-8.54419
▁2013	-8.54486
▁مەترسی	-8.5476
▁ڕووی	-8.54835
▁تی	-8.55007
▁دکتۆر	-8.55079
▁دەکەم	-8.55448
ران	-8.555
▁h	-8.55597
▁بدەن	-8.55735
▁دو	-8.55769
▁هەوڵی	-8.55924
▁جێگری	-8.56128
▁هەڵبژاردنی	-8.5616
کو	-8.56425
▁ئەمنی	-8.56591
▁شاعیر	-8.56691
▁وایە	-8.56855
▁بەناوی	-8.56858
▁مێژووی	-8.56938
▁ڕێگە	-8.56988
اند	-8.57032
▁داهاتوو	-8.57148
▁سیاسیی	-8.57185
▁چالاکی	-8.5726
ناس	-8.57364
▁مێژوو	-8.57725
گەر	-8.57943
▁هاتووە	-8.58112
▁نووسەر	-8.58126
▁مام	-8.58131
ەیە	-8.58213
▁دان	-8.58256
▁جێی	-8.58309
▁ڕێژەی	-8.58334
▁تو	-8.58508
▁بەشێکی	-8.58621
▁جیا	-8.58847
▁مامۆستا	-8.58947
شدا	-8.59206
چە	-8.59256
▁کۆمەڵێک	-8.59368
درێت	-8.59437
▁هونەر	-8.5986
▁شوێن	-8.60145
▁لی	-8.60163
▁ڕای	-8.6065
کراو	-8.60679
▁ە	-8.60931
▁نموونە	-8.61168
▁شەڕی	-8.61219
▁ڕۆژانە	-8.61223
▁زە	-8.61239
ێنن	-8.61264
▁جیاوازی	-8.61318
▁دێموکراتی	-8.61414
وێ	-8.6147
▁بەرژەوەندی	-8.61645
▁یاسایی	-8.61662
▁بەتایبەتی	-8.61739
▁دەڵێن	-8.61779
دو	-8.61873
لۆ	-8.61991
▁چین	-8.62002
▁پشتیوانی	-8.62052
گر	-8.62084
داری	-8.62113
▁ئەنفال	-8.62301
ایی	-8.62567
▁کام	-8.62638
▁لایەنە	-8.62641
▁پا	-8.62652
▁22	-8.62806
ئی	-8.62914
▁پێنج	-8.63072
▁میسر	-8.63131
▁خۆیدا	-8.63313
▁شێوە	-8.63343
▁نووسین	-8.6337
▁نیشان	-8.63373
▁پرسیار	-8.63422
▁گۆ	-8.63574
ینەوە	-8.63593
پی	-8.63625
ستان	-8.63683
▁ئۆپۆزسیۆن	-8.63777
کێ	-8.63848
اندن	-8.63952
▁دنیا	-8.63988
ام	-8.64089
▁24	-8.64222
▁وڵاتە	-8.64238
پەڕ	-8.64248
کردنەوە	-8.64347
▁قا	-8.64368
▁هەل	-8.64531
▁باشترین	-8.6461
▁خوێن	-8.64619
▁پێشتر	-8.64623
▁ناوچە	-8.64771
گری	-8.64788
وس	-8.64886
▁نوێنەرانی	-8.64909
▁ژمارەیەک	-8.64928
▁پەیامنێر	-8.65096
▁ڕاست	-8.65135
▁کوردستاندا	-8.65165
کردەوە	-8.65212
ینی	-8.65311
▁وەر	-8.65319
▁تازە	-8.65722
پە	-8.65796
▁ئەندامانی	-8.65803
▁دەبێتە	-8.65842
▁دایک	-8.6586
▁دێ	-8.6592
▁23	-8.6605
▁ئاسایشی	-8.66267
▁کەسایەتی	-8.66371
ۆک	-8.66526
▁عوسمان	-8.66561
▁بریندار	-8.6668
فە	-8.66686
▁باڵای	-8.66764
یاری	-8.66818
بار	-8.66941
▁شێعر	-8.66972
▁کەچی	-8.67016
▁مانگ	-8.67271
▁چە	-8.67295
▁می	-8.67325
▁پۆلیس	-8.67338
▁ڕی	-8.67553
▁دروستکردنی	-8.67586
▁شۆڕش	-8.67747
ڕە	-8.67804
▁ڕێز	-8.67884
▁دیارە	-8.68068
▁شی	-8.68237
▁ناوچەکە	-8.6824
▁»	-8.6826
▁نزیکەی	-8.68404
▁چاک	-8.68418
▁گەرمیان	-8.68479
ەیەکی	-8.68538
▁ڕەنگە	-8.68563
رێن	-8.68939
نووس	-8.68939
▁سەرکردایەتی	-8.6903
▁زانستی	-8.6917
▁دەدەن	-8.69236
▁ناکات	-8.69274
▁ڕۆژهەڵاتی	-8.69327
▁یاخود	-8.69512
▁کاک	-8.69572
▁پاشان	-8.69667
ها	-8.69751
سێ	-8.6979
▁هەواڵ	-8.69967
▁گەنج	-8.69987
▁بەهێز	-8.69999
گۆ	-8.70183
▁شوێنی	-8.7045
▁گۆرانی	-8.70731
▁قۆناغی	-8.70735
گەڕ	-8.70782
▁کردوە	-8.70943
دەکات	-8.71205
▁سێیەم	-8.7133
یەی	-8.71337
▁پۆلیسی	-8.71376
▁بەشێوەیەکی	-8.71446
▁ژمارە	-8.71449
,	-8.71459
کر	-8.71523
ۆن	-8.71634
▁وەزیرانی	-8.71673
▁توانای	-8.71708
▁دابەش	-8.71879
▁ئەن	-8.71926
دەست	-8.72009
▁خێزان	-8.72071
وون	-8.72231
ڕوو	-8.72407
ێکە	-8.72689
▁هاوڕێ	-8.72695
یس	-8.72861
▁ڕاگەیاندن	-8.72865
.	-8.72875
▁نەخۆشی	-8.72939
ellip	-8.73181
▁گە	-8.73193
▁ڕێک	-8.73255
▁پاک	-8.7334
▁لەکاتی	-8.73344
▁ڕژێمی	-8.73507
هەڵ	-8.73621
پا	-8.73681
▁شە	-8.73944
▁کۆمەڵگای	-8.74021
▁ناوەندی	-8.74024
▁ئیتر	-8.74047
▁چەک	-8.74055
ێل	-8.74122
▁بازرگانی	-8.74338
▁مەبەستی	-8.74375
▁یاریزانی	-8.74386
▁سیاسەتی	-8.74621
▁ڕاگەیاندنی	-8.74657
بین	-8.74702
خۆ	-8.74717
جا	-8.74763
▁نین	-8.74828
▁دارایی	-8.74864
▁خاوەنی	-8.74974
دەکرێت	-8.75028
وەتەوە	-8.75044
ییەوە	-8.75207
▁سەیر	-8.75225
▁مالکی	-8.75401
▁دەتوانێت	-8.75443
▁خەڵاتی	-8.75516
▁چاودێری	-8.75583
▁درێژ	-8.75693
دەی	-8.7573
ّ	-8.75757
درا	-8.7576
▁دەبن	-8.75861
▁تاکو	-8.75948
یاندا	-8.76122
▁تاوان	-8.76133
▁هونەرمەند	-8.76265
▁دینار	-8.763
عە	-8.76356
▁دەستەی	-8.76364
▁شێخ	-8.76409
▁ڕابردوودا	-8.76505
ەوەو	-8.76799
▁یەکێتیی	-8.76971
▁تاڵەبانی	-8.77009
راوە	-8.77059
▁تێک	-8.7719
▁بەریتانیا	-8.7726
▁کۆمپانیای	-8.77301
▁نو	-8.77309
ەکانمان	-8.77362
▁هەڵەبجە	-8.77381
▁فیستیڤاڵی	-8.77382
▁خۆپیشاندان	-8.77392
▁باشتر	-8.77499
دەم	-8.77669
ەکەم	-8.77788
ۆر	-8.77813
اتی	-8.77847
▁هۆکاری	-8.77893
جار	-8.77923
▁بڕی	-8.7793
▁برا	-8.77963
▁هەروەک	-8.77973
▁لێرەدا	-8.78105
▁کارە	-8.78241
▁ناوبراو	-8.78271
▁ڕۆژنامەی	-8.78303
بکات	-8.78305
▁=	-8.78389
▁بکەم	-8.78489
فا	-8.78531
_	-8.78956
▁دەرەوە	-8.78993
▁هۆ	-8.78994
مەوە	-8.79279
▁کردو	-8.79319
▁سەرەتا	-8.79348
▁مەکتەبی	-8.79366
▁وەزیران	-8.79612
▁بەعس	-8.79649
حە	-8.79673
▁لەژێر	-8.79864
▁دۆلار	-8.80016
▁ماف	-8.80029
▁27	-8.80353
▁ناوەڕاست	-8.80402
نج	-8.80451
▁هەمو	-8.8051
▁بەرنامەی	-8.80676
▁کێشە	-8.80786
▁نیە	-8.80812
▁پە	-8.80869
▁جارێکی	-8.80948
یل	-8.81024
▁26	-8.81092
خان	-8.81114
▁گەڵ	-8.81182
راو	-8.81323
خواز	-8.81327
▁خودی	-8.81495
▁خەبات	-8.81581
▁گومان	-8.81645
▁دەس	-8.81666
▁ئێستاش	-8.81741
▁گو	-8.81818
▁کردنەوەی	-8.81968
▁هاوپەیمانی	-8.82147
▁ڕۆشنبیری	-8.82205
ستە	-8.82326
له	-8.82331
▁عێراقدا	-8.82347
▁هەنگاو	-8.8251
▁28	-8.8261
گی	-8.82613
▁ساڵە	-8.82661
بووە	-8.82703
▁تەمەن	-8.82764
پەر	-8.82778
▁ئاسایی	-8.82915
▁کوڕ	-8.8305
▁ئیسرائیل	-8.83204
▁جەنگ	-8.833
▁نمایش	-8.83323
▁ناکرێت	-8.83556
وڵات	-8.83756
▁کەوت	-8.83801
▁لەدوای	-8.83925
▁پار	-8.8419
▁مەرج	-8.8454
ژی	-8.84573
▁سنووری	-8.84602
▁باری	-8.847
▁چەکدار	-8.84735
ویست	-8.84753
زانی	-8.84954
▁ئەر	-8.84983
▁کچ	-8.8499
اب	-8.84994
▁کاتژمێر	-8.85056
خە	-8.85311
تێ	-8.85366
▁قادر	-8.85415
▁ئاسایش	-8.85483
▁کی	-8.85697
▁بەرپرسی	-8.8579
وری	-8.85888
▁پەر	-8.86027
▁دوژمن	-8.86246
▁گرفت	-8.86329
▁باوەڕ	-8.8644
▁ئێ	-8.86498
▁ڕادە	-8.86607
گای	-8.86611
هات	-8.86657
ینە	-8.86673
▁تۆپی	-8.86757
▁گفتوگۆ	-8.86836
فر	-8.8689
▁گوند	-8.86944
▁دهۆک	-8.86949
▁لەبەردەم	-8.86985
▁ئەمساڵ	-8.87075
▁وتار	-8.87084
▁نەبووە	-8.87182
▁مالیکی	-8.87229
نوس	-8.87248
▁کەسی	-8.87406
▁بینی	-8.8757
▁بەردەم	-8.87665
▁پێکهێنانی	-8.87681
▁پرسی	-8.87773
▁لێی	-8.87784
▁لەوێ	-8.87926
▁بەتایبەت	-8.87937
▁دەستگیر	-8.8795
گو	-8.87992
▁کاروباری	-8.88162
▁جێگەی	-8.88169
ژن	-8.88387
ەکەمان	-8.8857
در	-8.88579
▁چارەسەری	-8.88582
▁دادگا	-8.88618
▁کورسی	-8.88637
▁ڕاپۆرت	-8.88671
▁ڕۆژێک	-8.8873
▁بەوە	-8.88738
▁هەفتەی	-8.88762
▁زا	-8.88772
▁ئەرکی	-8.8884
▁بودجەی	-8.8892
▁ناوە	-8.89036
وانی	-8.89227
▁شەهیدان	-8.89353
کری	-8.89556
an	-8.89557
ەڵ	-8.89665
▁یەکەمی	-8.89796
یزم	-8.898
▁هێز	-8.89818
▁خەم	-8.89824
▁مانای	-8.899
▁مافەکانی	-8.9
▁هاوبەش	-8.90106
▁ئاگادار	-8.90301
▁پڕۆژەی	-8.90318
▁تریش	-8.90406
▁کۆبانی	-8.90576
یانە	-8.90584
ییەکانی	-8.90678
▁هەبووە	-8.90745
▁ئامانج	-8.90861
▁حەمە	-8.90876
▁دەکاتەوە	-8.9093
کوژ	-8.90935
▁لەنێو	-8.91143
▁بۆئەوەی	-8.91399
▁کۆمەڵگە	-8.91438
▁خوارەوە	-8.91465
▁سنوور	-8.91498
▁لایەنی	-8.91535
▁حەز	-8.91666
▁کەریم	-8.91677
▁لۆ	-8.91691
▁سەرەتای	-8.91762
▁بڕوا	-8.91903
▁بنەمای	-8.92058
▁گوڵ	-8.92125
▁مستەفا	-8.92133
▁خە	-8.92168
▁بەرهەمی	-8.92265
عی	-8.92358
▁زانا	-8.9236
▁بدرێت	-8.92465
▁ساڵح	-8.92575
▁تائێستا	-8.92605
▁ئەمانە	-8.92666
ڕی	-8.9274
نێ	-8.92852
▁پلەی	-8.92852
▁فیلم	-8.92944
▁بەوەی	-8.92989
▁2007	-8.93155
▁بێگومان	-8.93185
▁ڕاستەوخۆ	-8.93258
▁دار	-8.93279
▁دەزگای	-8.93308
ەکانەوە	-8.9332
u	-8.93371
▁لەبەرامبەر	-8.93378
"،	-8.93411
ێر	-8.93411
▁کان	-8.935
کەم	-8.93552
ووی	-8.93566
▁ئابوری	-8.93611
لان	-8.93641
▁یەکتر	-8.93997
▁لەماوەی	-8.94033
▁یاریزان	-8.94176
▁بەشدار	-8.9419
▁پی	-8.94215
▁29	-8.94235
▁هەڵبژاردەی	-8.94379
▁پەنا	-8.94475
▁بۆچی	-8.94502
دوو	-8.94564
▁سەردەمی	-8.94569
▁ژی	-8.94738
▁ڕزگار	-8.9476
ێز	-8.94777
▁حوسێن	-8.9484
▁نوێنەران	-8.94999
▁کارێکی	-8.95036
▁داواکاری	-8.95067
▁سەد	-8.95119
▁ه	-8.95256
▁ڤی	-8.95296
▁لەساڵی	-8.95461
▁کتێب	-8.95486
ڕێ	-8.95567
▁جۆرێک	-8.95593
▁بەمەبەستی	-8.95609
شیان	-8.95649
▁خودا	-8.9575
▁لەکاتێکدا	-8.95754
▁توند	-8.95812
▁عومەر	-8.95822
▁ڕێگا	-8.95896
▁کۆمەڵگەی	-8.95955
▁باڵا	-8.96009
▁ها	-8.96068
ۆڵ	-8.96104
▁مەبەست	-8.96323
▁شێوەیەک	-8.96376
خانەی	-8.96499
▁دەتوانن	-8.96535
▁سەرکەوتن	-8.96539
▁لێدوان	-8.96543
▁ئافرەت	-8.96648
▁گیانی	-8.96705
▁میللەت	-8.96841
▁پێناو	-8.97039
▁لەوانە	-8.97335
▁کۆبوونەوەی	-8.97453
▁مەسەلەی	-8.97478
▁دەربارەی	-8.97518
▁فا	-8.97615
▁ئازار	-8.97618
▁نەوتی	-8.97636
▁شتێکی	-8.9771
▁چارەسەرکردنی	-8.98034
▁بەختیار	-8.98052
▁چەپ	-8.98052
گۆڕ	-8.98162
ته	-8.98167
▁بین	-8.98238
▁دیدار	-8.98335
▁دەنگدان	-8.98348
▁مەحمود	-8.98372
انەدا	-8.98376
▁com	-8.98431
سو	-8.98622
▁«	-8.98673
▁پارێزگاری	-8.98711
▁خەون	-8.98776
وز	-8.98781
▁دەق	-8.98947
▁خزمەت	-8.99052
▁قو	-8.99117
▁دووبارە	-8.99225
▁حکوومەتی	-8.99274
▁ڕێککەوتن	-8.99474
▁پێغەمبەر	-8.9961
▁سیستەمی	-8.99663
▁زیان	-8.99795
▁سوور	-8.99809
▁جەماوەری	-8.99888
ڤان	-8.99958
▁ئەس	-9.00186
بون	-9.00211
▁دۆست	-9.00244
▁نوری	-9.00293
▁فەرمی	-9.00347
▁بەرچاو	-9.00375
گرت	-9.004
▁قسەی	-9.00496
▁بەرپرس	-9.00643
▁دەچێت	-9.009
ەم	-9.00977
شا	-9.01053
▁پشتگیری	-9.01062
▁تاران	-9.01097
▁ئەنجامدانی	-9.01138
▁بەرپرسانی	-9.0118
▁پێشوازی	-9.01277
▁ڕەخنە	-9.0132
▁موسڵ	-9.01323
مار	-9.01325
▁بابەتی	-9.01353
▁_	-9.01406
▁دەستوور	-9.01484
▁گشتیی	-9.01488
▁زانکۆی	-9.01564
▁بزووتنەوەی	-9.01699
وەر	-9.01717
▁پڕۆژە	-9.01738
▁یارمەتی	-9.01756
▁ناچار	-9.0181
▁تووشی	-9.01859
▁ئەڵمانیا	-9.01884
▁ڕەت	-9.01936
گەل	-9.02012
▁بیست	-9.02014
▁دابین	-9.02088
▁سوید	-9.02118
مەت	-9.0214
▁بکە	-9.02175
▁هەرچەندە	-9.0219
گرتن	-9.0219
▁ئەوەندە	-9.02332
زم	-9.02515
▁ڕەنگ	-9.02534
اک	-9.02537
▁ناوخۆ	-9.02553
▁نوێنەری	-9.02622
▁نێت	-9.0268
h	-9.02686
▁زیندانی	-9.02885
▁شەر	-9.02946
خوێن	-9.02953
دەکەن	-9.02997
▁وێنەی	-9.03056
▁شارە	-9.03056
▁هۆکار	-9.03124
▁لێکۆڵینەوە	-9.03196
▁ڕازی	-9.03225
▁ببێتە	-9.03297
ڕو	-9.03343
انەش	-9.0338
اڵی	-9.03458
▁مل	-9.03475
▁نیشتمانیی	-9.03487
مەر	-9.03507
▁شێوەی	-9.03695
‮	-9.03741
▁خواست	-9.03799
▁ئاگر	-9.03834
▁خۆشەویستی	-9.03856
▁پێکەوە	-9.03924
ساڵ	-9.03977
ڕۆژ	-9.0399
▁ولات	-9.03996
▁بڕیارە	-9.04009
دۆ	-9.04013
مەند	-9.04094
ەکەیدا	-9.04112
▁هاووڵاتی	-9.04182
خا	-9.04279
▁پیرۆز	-9.04388
▁بکاتەوە	-9.04392
خو	-9.04526
▁خوێندن	-9.04606
▁کورت	-9.04609
p	-9.04617
▁خۆر	-9.04724
▁سەرکەوتنی	-9.04791
ئەم	-9.04801
وڵ	-9.04832
بوونەوەی	-9.04904
لو	-9.05064
▁‬	-9.05146
▁توندوتیژی	-9.05171
▁شێوەیە	-9.05216
▁بەش	-9.05228
▁ڕاپەڕین	-9.05278
وار	-9.05568
2	-9.05961
بەست	-9.06024
گێڕ	-9.06125
▁بەدی	-9.0614
▁مۆ	-9.06148
▁شێوەیەکی	-9.06197
▁دادگای	-9.06323
▁ملیار	-9.06346
یر	-9.0635
ar	-9.06394
▁کردبوو	-9.06439
▁حزب	-9.06543
▁تەمەنی	-9.06566
نامەی	-9.06574
▁ئێمه	-9.06608
▁کۆی	-9.06653
▁07	-9.06749
ۆس	-9.06753
▁گەندەڵی	-9.06763
▁فراوان	-9.06815
▁دەریا	-9.06896
ئەو	-9.07181
▁چاپ	-9.07225
دوا	-9.07244
▁خۆت	-9.07326
تو	-9.0733
▁سەرباز	-9.07354
بکەن	-9.07363
▁ماڵی	-9.0737
▁گەشت	-9.0781
▁ئایین	-9.07862
روو	-9.07977
کەس	-9.07986
▁دامەزراندنی	-9.08058
▁جێبەجێکردنی	-9.08101
▁بزوتنەوەی	-9.08206
▁گەرم	-9.08347
▁ڕۆژئاوا	-9.08375
c	-9.08379
▁کۆنگرەی	-9.08527
▁ڕێکخراوە	-9.08567
▁بەکارهێنانی	-9.08722
کەن	-9.08722
پارێز	-9.0873
▁وەزارەت	-9.08747
▁پاڵ	-9.08893
▁هەڵە	-9.08899
▁کاندید	-9.08905
اندا	-9.08922
دێ	-9.08928
▁تێپەڕ	-9.09044
▁تەن	-9.09086
▁خراپ	-9.09128
▁تاوەکو	-9.09146
▁لەهەموو	-9.09161
▁پارە	-9.09186
▁ئاراستەی	-9.09286
▁ئایینی	-9.09325
▁گەیشتن	-9.09406
▁وەڵام	-9.09408
گەری	-9.09469
▁دیکەش	-9.09475
رەو	-9.09507
ەکەش	-9.09515
▁پارت	-9.09653
▁ئەوەشی	-9.09776
▁سیاسییەکان	-9.09779
▁چیرۆک	-9.09924
▁کەسێکی	-9.10054
▁گرنگە	-9.10166
▁بەجێ	-9.1024
▁شەش	-9.10357
▁کل	-9.10414
▁دەستنیشان	-9.10515
▁مەزن	-9.1058
ۆنی	-9.10583
▁تورک	-9.10666
▁پیر	-9.10802
▁دەزگا	-9.10927
قو	-9.10993
بیر	-9.11137
▁شەممە	-9.11179
▁زوو	-9.11471
هێن	-9.11487
▁دۆ	-9.11707
▁هەرگیز	-9.11772
چاو	-9.11774
▁دڵنیا	-9.12022
داو	-9.12029
بوونەوە	-9.12179
▁پەیام	-9.12193
▁کۆمەڵەی	-9.12213
▁سوود	-9.12296
▁ترس	-9.123
▁عەبدوڵڵا	-9.12403
▁کۆمپانیا	-9.12645
7	-9.12698
▁پارچە	-9.12746
▁بەخۆ	-9.1275
▁بەرنامە	-9.12822
▁غە	-9.12868
انەوەی	-9.13001
▁لەلایەکی	-9.13136
▁فیدراڵ	-9.13145
g	-9.1317
▁بگرێت	-9.13245
▁ستراتیژی	-9.13318
er	-9.13386
▁سال	-9.13407
▁جی	-9.13421
مۆ	-9.13436
▁مەرگ	-9.13469
▁31	-9.13473
▁نەبوونی	-9.13538
▁فر	-9.13595
▁سەرچاوە	-9.1364
یشدا	-9.1364
▁هەیەو	-9.13645
▁گۆڕینی	-9.13783
▁جەنگی	-9.1392
▁ناوەند	-9.13968
▁لێرە	-9.14007
▁مادەی	-9.14051
k	-9.141
مەن	-9.14248
▁بارودۆخی	-9.14298
▁زانکۆ	-9.1434
ێنێ	-9.14378
هێنانی	-9.14444
▁پێیان	-9.14533
توانی	-9.14553
یەکدا	-9.14559
▁هەڵوێست	-9.14583
▁در	-9.14696
▁فڕۆکە	-9.14795
▁گشت	-9.14889
زای	-9.15003
▁ئار	-9.15027
▁بایەخ	-9.15156
▁پۆست	-9.15161
▁ئیش	-9.15293
▁هیوا	-9.15375
▁دەدرێت	-9.15413
▁سروشتی	-9.15479
ناو	-9.15487
یانەی	-9.15556
▁ئەڵڵا	-9.1556
سەنگ	-9.15655
▁نیشتمان	-9.15687
بکرێت	-9.15696
ەیەک	-9.15698
ڤی	-9.15724
▁ئاب	-9.15756
▁وێنە	-9.15767
سان	-9.15836
▁هەڵوێستی	-9.15899
▁کەواتە	-9.15926
دراو	-9.15931
▁پلان	-9.15994
دین	-9.16087
جۆر	-9.16096
▁بەڕێوەبەرایەتی	-9.16163
▁لەخۆ	-9.162
▁توانا	-9.16276
▁نەکرد	-9.16287
نۆ	-9.16288
▁ئەوانیش	-9.16321
ێژ	-9.16416
▁لێک	-9.16586
▁خۆشی	-9.16609
▁سۆ	-9.16633
▁چاوی	-9.16634
▁ئۆباما	-9.1664
▁خا	-9.16658
▁کۆمار	-9.16674
▁پەرلەمانتار	-9.16778
▁کەمتر	-9.16803
▁بەس	-9.16846
▁ڕژێم	-9.16899
▁ڕەوشی	-9.17132
▁ڕێکخراو	-9.17148
▁ڕۆژنامەنووس	-9.17164
▁ئەمەریکی	-9.17184
▁تیرۆریستی	-9.17232
▁ئەنجوومەنی	-9.17353
n	-9.17453
▁گیان	-9.17475
بەخش	-9.17493
▁دەکرێن	-9.17515
▁گەشە	-9.17628
▁سپی	-9.17639
▁کەمال	-9.17651
r	-9.17696
ەوێت	-9.17732
▁خەباتی	-9.17739
▁ئاینی	-9.17857
▁کاتێکدا	-9.17889
چوو	-9.17971
▁گەیشت	-9.18038
▁ئۆتۆمبێل	-9.18367
▁وەڵامی	-9.18396
▁سەربەخۆ	-9.18412
▁پەیامنێری	-9.18505
▁پێگەی	-9.18526
خۆش	-9.18555
▁ئاوێنەنیوز	-9.18752
وم	-9.18846
▁فەر	-9.18855
ۆم	-9.18887
▁سایتی	-9.18949
▁بابەت	-9.19009
▁تەرخان	-9.19026
▁ئەزموون	-9.19048
هۆ	-9.19076
بونی	-9.19147
ڵێ	-9.19267
▁پەروەردە	-9.19501
فەر	-9.19553
▁ماوە	-9.19567
▁گ	-9.19591
▁ڕۆمان	-9.19598
بەش	-9.19636
▁منداڵان	-9.19651
▁مار	-9.19739
▁کارەبا	-9.19742
▁هەشت	-9.19792
▁وەرگرتنی	-9.19828
▁لیست	-9.19832
▁ص	-9.19878
▁جو	-9.20032
▁عەبدول	-9.20088
▁خاڵی	-9.20094
▁دیاریکراو	-9.20109
فرۆش	-9.20157
ص	-9.20191
▁کارکردن	-9.20241
داوە	-9.20426
▁لەگەل	-9.20483
▁09	-9.20541
▁ناوخۆی	-9.20547
▁گۆڕانکاری	-9.20553
▁نۆ	-9.20585
کس	-9.20593
▁بهێنێت	-9.20614
▁لاواز	-9.20642
چوون	-9.20878
▁بەرانبەر	-9.20899
▁شارەوانی	-9.20919
▁سەرکەوتوو	-9.20928
رانی	-9.20934
▁کوشتنی	-9.20975
▁ئیدی	-9.21077
ید	-9.2108
▁دووەمی	-9.21182
▁بەئا	-9.21223
▁واتا	-9.21307
جو	-9.21436
ارە	-9.21709
خت	-9.21734
▁دەستکەوت	-9.21736
▁خست	-9.21754
▁مێ	-9.21881
▁نیو	-9.2193
▁هەرچی	-9.21962
▁ڕاب	-9.22121
▁ئیبراهیم	-9.22209
▁ئارام	-9.2228
▁دیکه	-9.22398
▁ـ	-9.22418
▁مان	-9.22425
▁جەماوەر	-9.2244
▁دەرهێنانی	-9.22547
▁ئاوا	-9.2255
b	-9.22612
▁کێش	-9.22786
▁مۆر	-9.22855
توو	-9.23138
▁شەقام	-9.23141
ێم	-9.23173
▁بریتی	-9.23339
▁پێوە	-9.23366
▁ڕۆژە	-9.23374
▁سووریا	-9.23425
▁گۆل	-9.23448
▁دایە	-9.23461
▁کەسانی	-9.23468
یەکەی	-9.23479
هەم	-9.23517
▁یەکگرتووەکان	-9.23535
▁50	-9.23622
▁چوارچێوەی	-9.23658
ۆل	-9.23778
▁چاکسازی	-9.23791
▁ئ	-9.2398
▁ەوە	-9.24032
▁بابەتە	-9.24033
▁ڕۆژئاوای	-9.24096
▁بەها	-9.24203
▁شت	-9.24251
▁ڕۆژنامە	-9.24266
(	-9.24285
▁ئەدەبی	-9.24344
▁دەبێتەوە	-9.24375
▁بەرەی	-9.24434
ادی	-9.24467
▁چونکه	-9.2447
ێش	-9.24635
▁جۆر	-9.24645
▁شێوازی	-9.24651
▁ئەمریکی	-9.24764
ژە	-9.248
▁هەیه	-9.24845
▁تاکە	-9.24872
▁هاوڵاتیان	-9.24875
▁لایەک	-9.24975
گوت	-9.25085
▁وای	-9.25172
▁پلە	-9.2518
▁مێژوویی	-9.25182
▁ڕاستە	-9.25232
به	-9.25287
سن	-9.25328
▁01	-9.25389
ەتە	-9.2548
جێ	-9.25515
▁ورد	-9.25713
▁بەرپرسیار	-9.25796
کەش	-9.25855
شتن	-9.2589
رس	-9.25949
▁زانست	-9.25984
▁پێدا	-9.25992
▁خاک	-9.26047
▁ئاست	-9.26059
▁دەبوو	-9.26088
▁بریار	-9.26196
▁ئاوی	-9.262
▁شیعە	-9.26223
▁08	-9.26287
▁سەرچاوەی	-9.26362
▁دەگرێت	-9.2639
▁هێناوە	-9.26415
▁جۆری	-9.26436
▁وەها	-9.26498
▁تێدایە	-9.26547
لایەن	-9.26595
▁إ	-9.26682
▁ئاسمانی	-9.26802
▁مەسعود	-9.26823
▁ناوچەکانی	-9.26869
▁داد	-9.26919
▁کارەسات	-9.26937
شار	-9.26981
▁وشەی	-9.26996
کانیان	-9.27084
▁پێشمەرگەی	-9.27104
▁بەڕێوە	-9.27115
▁گۆڕ	-9.27162
▁بکرێن	-9.27173
▁هاووڵاتیان	-9.27212
▁ناکۆکی	-9.27306
▁ئاوێنە	-9.27341
▁میر	-9.27374
▁خوای	-9.27378
هەر	-9.2741
▁باوک	-9.27548
تور	-9.2757
▁سەردان	-9.27584
▁نیشتیمانی	-9.27598
▁کر	-9.27598
ازی	-9.27608
زار	-9.27635
▁سور	-9.27638
▁ببێت	-9.27681
▁یەکەمین	-9.27769
▁جێگای	-9.27772
▁سەخت	-9.27772
▁سزا	-9.27776
▁مرۆڤایەتی	-9.27862
نه	-9.27905
▁دەرفەت	-9.27935
ڕەو	-9.27989
ەکەوە	-9.28019
▁بون	-9.28034
دن	-9.28047
▁ئیم	-9.28164
وەو	-9.28191
▁04	-9.28318
▁گونجاو	-9.2841
الی	-9.28471
رین	-9.28529
▁02	-9.2859
▁ژمارەیەکی	-9.28608
▁فەرماندەی	-9.28711
▁03	-9.28714
▁شیعر	-9.28718
شەوە	-9.28741
▁خول	-9.28878
▁باشووری	-9.28966
▁کارەکانی	-9.2904
▁پرس	-9.2905
▁حاجی	-9.29056
▁بگرن	-9.29156
▁گوێرەی	-9.2916
▁سەدەی	-9.29164
▁قوتابی	-9.29169
▁06	-9.29189
▁دەسەلات	-9.2932
ۆش	-9.29341
▁بەڵێن	-9.2935
▁پێم	-9.2942
▁دەستووری	-9.29496
▁گۆڵ	-9.29665
m	-9.29776
▁ئەمرۆ	-9.29916
بان	-9.2997
▁هێ	-9.30014
کرێ	-9.30097
▁چوو	-9.3025
▁ئەوانە	-9.30338
هێنان	-9.30341
▁لەپێناو	-9.30364
▁کەلە	-9.30393
▁دەبین	-9.30395
▁خاکی	-9.30584
بێژ	-9.30591
▁یەکێکە	-9.30594
▁05	-9.30715
شێو	-9.3073
▁گەورەترین	-9.30756
▁عەزیز	-9.30797
▁دور	-9.30797
▁بەدوای	-9.30874
▁سەرکردە	-9.30904
▁داگیر	-9.30968
▁لێدوانێکی	-9.30976
▁فەرەنسا	-9.30993
▁نەخۆش	-9.31145
▁دنیای	-9.31166
ڤا	-9.3128
▁کۆبوونەوە	-9.31281
▁ئاین	-9.31322
▁مایەی	-9.31332
▁ئامانجی	-9.31341
▁برد	-9.31367
کردنە	-9.31493
▁هەڵدە	-9.31782
▁بارەی	-9.31796
▁پەروەردەی	-9.31855
▁پێشوو	-9.31995
▁پۆستی	-9.32055
▁منیش	-9.32129
▁وەزیر	-9.3218
هێنا	-9.32253
رۆژ	-9.32287
▁گروپ	-9.32303
▁هەریەک	-9.32359
▁سامان	-9.32404
▁سکرتێری	-9.32451
▁درا	-9.32722
▁بەشە	-9.32835
▁کوێ	-9.32859
▁جوانی	-9.32874
▁ژوور	-9.32942
▁نهێنی	-9.33001
رد	-9.3303
▁بەیەک	-9.33064
▁سەرنج	-9.33136
ەها	-9.33139
▁مین	-9.33174
▁دین	-9.33279
ۆکی	-9.33455
▁فرە	-9.33488
یەکە	-9.33497
▁سەربەخۆی	-9.33675
▁پەسەند	-9.33682
▁خوێنەر	-9.33864
ماڵ	-9.33975
▁خوێندکار	-9.34016
▁شۆڕشی	-9.34043
هاو	-9.34135
▁کردووەو	-9.34138
وک	-9.34185
▁سینەمایی	-9.34246
▁باشە	-9.34247
▁دەتوانین	-9.34256
▁ساڵێک	-9.34281
▁دەقی	-9.34287
▁سەدان	-9.3429
▁بڕ	-9.34332
▁کڕ	-9.34344
وور	-9.34375
▁A	-9.3442
▁لەڕێگەی	-9.34561
تن	-9.34605
ەری	-9.34785
▁ئامار	-9.34836
▁40	-9.34893
▁پەیوەندییەکانی	-9.34897
مای	-9.3495
▁زانی	-9.35014
▁ئیدارەی	-9.35017
▁گەنجان	-9.35073
▁بۆچوون	-9.35092
▁قەزای	-9.3512
▁چەکی	-9.35215
ڕێژ	-9.35297
▁شو	-9.35308
▁باب	-9.35397
بات	-9.35508
▁پەیوەست	-9.35523
▁چوارەم	-9.35551
▁نەتەوەی	-9.35594
▁بچووک	-9.3569
▁ئومێد	-9.35723
امی	-9.35738
▁گروپی	-9.35761
زەی	-9.35762
بەری	-9.35867
▁سەردەم	-9.35869
▁جۆراوجۆر	-9.35906
▁بەرد	-9.35999
▁دەستیان	-9.36017
وەند	-9.36042
▁ناتوانێت	-9.36069
▁خوێندنی	-9.36139
▁هەڵبژاردنەکان	-9.36208
▁کێشەکان	-9.36224
گرتنی	-9.36235
▁ئو	-9.36347
▁لەهەر	-9.36349
▁لەشاری	-9.3637
▁دەرکەوت	-9.36404
▁بازاڕ	-9.36481
▁درۆ	-9.36644
▁ئین	-9.36796
▁خوێندنەوەی	-9.36805
▁قورس	-9.36893
▁چۆنیەتی	-9.36898
▁لەڕووی	-9.36898
▁بەگشتی	-9.36959
▁دامەزراوە	-9.36968
کەون	-9.37041
▁باران	-9.37093
▁زۆرینەی	-9.37117
ط	-9.37154
▁هێزێکی	-9.37219
تاو	-9.37352
▁یەکگرتوو	-9.3757
▁هەموومان	-9.37605
▁دەردە	-9.37637
ڕاست	-9.37655
▁دانا	-9.3766
al	-9.37815
▁کور	-9.37829
▁نەدە	-9.37918
ووت	-9.37992
▁ئافرەتان	-9.38125
ەبەر	-9.38176
▁هەژار	-9.38208
▁ئاسۆ	-9.38271
▁فیستیڤاڵ	-9.38294
▁کاروان	-9.38361
ۆز	-9.38365
▁تاوانبار	-9.38533
▁140	-9.38554
گێر	-9.38648
▁پاڵەوان	-9.38659
v	-9.38665
▁غ	-9.38787
▁الم	-9.38797
مین	-9.3884
▁فێر	-9.38842
▁سەعید	-9.38878
▁کردووه	-9.38956
▁بدەین	-9.38962
▁پەکەکە	-9.39093
بینی	-9.39168
▁بم	-9.39245
▁ئامێر	-9.39256
▁ئێمەش	-9.39445
▁کراون	-9.39486
▁بکەنەوە	-9.39588
▁بۆتە	-9.39589
▁دەزانن	-9.39656
رۆک	-9.39732
▁)-	-9.3981
▁سەربەخۆیی	-9.39814
▁سەرەڕای	-9.39923
▁دەن	-9.39943
▁کاریگەریی	-9.40007
▁کوشتن	-9.40023
▁مرۆڤی	-9.40045
کاو	-9.40136
▁کۆمەڵی	-9.40333
▁تۆمەتبار	-9.4034
▁سەوز	-9.40345
▁چاوەڕوانی	-9.40351
▁100	-9.40401
▁کەسانەی	-9.40406
▁بەداخەوە	-9.40444
کردۆتەوە	-9.40479
▁چارە	-9.40513
سم	-9.4054
▁کەوا	-9.40671
▁یارییەکانی	-9.4074
▁ڵ	-9.40768
کەوتن	-9.41041
▁سیستمی	-9.41057
لەو	-9.41073
خۆی	-9.41106
▁ڕۆڵ	-9.41106
▁دەبینین	-9.41224
درێن	-9.41232
خستنی	-9.41256
افی	-9.41465
▁شانۆ	-9.4157
▁ئەکتەر	-9.4157
▁کەسە	-9.41605
▁کارو	-9.41643
ترە	-9.41708
▁لەدایک	-9.41804
▁هەینی	-9.41874
▁بەست	-9.41884
▁بەڵگە	-9.41886
▁یاریی	-9.41892
کرن	-9.41958
▁شارەکە	-9.41971
▁ڕەخنەی	-9.42043
▁فەرمان	-9.42059
خانە	-9.42208
▁نام	-9.42295
▁هەڕەشە	-9.42326
پۆ	-9.4249
▁بودجە	-9.42686
نەر	-9.42698
▁هێندە	-9.42713
یشیان	-9.42721
دەدات	-9.42815
▁هاوڵاتی	-9.42869
▁ئاسان	-9.42871
هر	-9.42889
▁دڵی	-9.42919
تری	-9.42933
▁نرخی	-9.42946
▁بەردەوامی	-9.42947
000	-9.42979
گار	-9.43019
▁سنور	-9.43062
▁بووم	-9.43131
ماندا	-9.43133
▁دەگەڕێتەوە	-9.43158
▁ئەدەب	-9.43167
▁حوکم	-9.43285
▁ڕوسیا	-9.43304
▁فشار	-9.43378
▁ئینگلیزی	-9.43385
▁درێژە	-9.434
▁کۆبانێ	-9.43483
پێش	-9.43534
▁پەیوەندیی	-9.4354
نیا	-9.43572
▁خان	-9.43659
حی	-9.43659
▁پێشووی	-9.43691
▁خۆراک	-9.43692
▁قەیران	-9.43743
▁دیموکراتی	-9.4375
▁سوپاسی	-9.43777
▁دێن	-9.4381
دۆز	-9.43828
▁ڕەسمی	-9.43858
▁ڕەوانەی	-9.4389
▁هتد	-9.44026
▁دڵسۆز	-9.44107
▁هەستی	-9.44139
پۆش	-9.44154
▁چالاک	-9.44214
نێت	-9.44295
▁بز	-9.44302
▁گرووپ	-9.44356
▁شان	-9.44386
یەوه	-9.44396
یشی	-9.44403
▁پەیمان	-9.44415
▁سەدام	-9.4443
▁نێونەتەوەیی	-9.44436
▁ئێراق	-9.44565
سەل	-9.44579
▁بوە	-9.44703
▁کرێکار	-9.44711
▁سزای	-9.44754
▁گرتن	-9.44835
▁پەنابەران	-9.44856
▁پەیڕەو	-9.44909
l	-9.44929
▁دانە	-9.4497
▁بوار	-9.44992
▁دەزانێت	-9.45001
ده	-9.45003
▁بڵێین	-9.45028
or	-9.45063
سازی	-9.4512
▁گرتووە	-9.45141
بەی	-9.45246
▁لەکوردستان	-9.4532
▁وڵاتەکەی	-9.45405
▁خەڵات	-9.45498
لم	-9.45509
▁میدیا	-9.45576
▁لاو	-9.45646
دێر	-9.45745
▁خانوو	-9.45809
ووه	-9.45834
▁ئامادەی	-9.45885
▁www	-9.45921
▁هەردوولا	-9.45939
▁دژایەتی	-9.45947
▁لەدەست	-9.46054
▁داهاتوودا	-9.46113
▁ئامادەیی	-9.46227
▁زی	-9.46228
دەن	-9.46247
▁بەیانی	-9.46395
ئێستا	-9.46468
▁ئاهەنگ	-9.4652
رێتەوە	-9.46521
▁دوایی	-9.46541
▁گۆران	-9.46576
ستا	-9.46579
کردوە	-9.46606
▁شارۆچکەی	-9.46663
▁هاتنی	-9.46665
▁پەڕ	-9.46828
▁شێ	-9.46834
ۆپ	-9.46865
▁تەنها	-9.46904
▁تێکەڵ	-9.46928
▁ڕێکەوتن	-9.46958
▁چییە	-9.46997
▁کەرکووک	-9.47089
▁سەیری	-9.47094
بردنی	-9.47171
▁پەیدا	-9.47185
هێڵ	-9.47189
▁بەند	-9.47205
▁نەکردووە	-9.47226
▁داخ	-9.47314
▁58	-9.47363
▁ماددەی	-9.47385
▁شوبات	-9.47409
▁S	-9.47409
▁ویست	-9.47463
ض	-9.47495
▁ماد	-9.47512
▁گەیاند	-9.47553
▁بیری	-9.47636
▁باوکی	-9.47642
▁بەڕێ	-9.47774
▁خستە	-9.47794
اج	-9.47809
▁کێشەکانی	-9.47835
نشین	-9.47843
▁بەناو	-9.47894
▁حکوومەت	-9.47906
▁خۆیەوە	-9.48011
▁ئارامی	-9.48015
▁هەوا	-9.4803
▁نوسین	-9.48097
▁گرێ	-9.48146
▁ڕام	-9.48153
ماوە	-9.48249
▁ئێرانی	-9.48266
▁کانی	-9.48348
عا	-9.48401
▁پایتەختی	-9.48407
▁پۆل	-9.48491
تار	-9.48523
▁هان	-9.4857
▁دەکەوێت	-9.48583
▁حەوت	-9.48659
▁باشوور	-9.48797
▁عەقڵ	-9.48847
▁فۆتۆ	-9.48907
▁دەرمان	-9.48957
کران	-9.49152
تۆن	-9.49173
▁سوو	-9.49173
▁کوردستانیش	-9.49299
▁دانانی	-9.49304
▁نوسەر	-9.49362
▁چا	-9.49386
▁هو	-9.4946
تین	-9.49472
▁شارستانی	-9.49544
▁کەرتی	-9.49546
▁باشی	-9.49579
▁کورتە	-9.49584
بەت	-9.49595
▁پێشنیاز	-9.49639
▁ناسراو	-9.49646
▁خزمەتی	-9.49696
▁سوپا	-9.49729
▁خێرا	-9.49776
اف	-9.49856
▁بنەما	-9.49905
▁ئەرک	-9.49907
ذ	-9.50019
▁ئەبێت	-9.50133
برد	-9.50135
▁دەستپێ	-9.50136
▁تێگەیشتن	-9.50165
▁تیم	-9.50177
▁هاوبەشی	-9.50178
▁تەقینەوە	-9.50215
▁ئەسەد	-9.50215
باز	-9.50287
لەم	-9.50293
▁بۆیه	-9.50295
ریا	-9.5031
▁دانیشتن	-9.50337
▁نارد	-9.5047
▁مەر	-9.50473
▁نرخ	-9.5048
▁زۆرێک	-9.50484
▁پەی	-9.50581
▁پێشکەوتن	-9.50632
ناوچە	-9.50743
▁دەروونی	-9.50777
▁هەزاران	-9.50837
▁هێرشی	-9.50912
▁جەستەی	-9.51008
▁ڕووبەڕووی	-9.51149
▁ڕەفتار	-9.51172
▁ماوەیەک	-9.51187
▁بوونە	-9.51254
▁گر	-9.51365
شتی	-9.51379
▁کۆمەڵە	-9.51411
ۆری	-9.5142
▁سنوری	-9.51495
▁پابەند	-9.51586
▁بۆمب	-9.51595
▁پێداویستی	-9.51602
▁پۆ	-9.51605
▁هێڵی	-9.51667
▁لەهەرێمی	-9.51692
▁فل	-9.51711
▁پەلامار	-9.51715
▁ئاگا	-9.51717
کۆڵ	-9.51756
▁ڕزگاری	-9.51764
▁هێمن	-9.51842
ناسی	-9.51842
▁P	-9.51869
ترس	-9.51893
▁دەکەوێتە	-9.51906
▁پرسە	-9.51976
▁ئای	-9.52061
▁ماڵپەڕی	-9.52091
▁پێشەوە	-9.52102
▁وەبەرهێنان	-9.52123
▁پیشەسازی	-9.52135
دراوە	-9.52295
▁ئەنجومەن	-9.5231
▁جۆ	-9.5231
▁دەیهەوێت	-9.52374
▁پێشنیار	-9.52375
ێکیان	-9.52407
▁شێعری	-9.52431
▁لەئێستادا	-9.52481
▁کتێبی	-9.52613
▁کۆم	-9.52648
▁پیشان	-9.52661
▁تێبینی	-9.52707
▁قۆناغ	-9.52715
▁ناکەن	-9.52786
▁ر	-9.5282
▁پارەی	-9.52832
▁ئەنجامدا	-9.52838
▁کچان	-9.52842
▁واقیع	-9.52845
یەو	-9.52858
▁سەید	-9.52917
▁کراو	-9.52919
▁شانۆی	-9.52923
▁دراوە	-9.52938
▁عا	-9.5294
▁لەبەرئەوەی	-9.52944
▁تیا	-9.53051
ەمین	-9.53106
خست	-9.53115
▁سینەمای	-9.53125
▁دەستە	-9.53155
مەز	-9.53176
ێڵ	-9.53402
▁پێمان	-9.53417
▁دەخاتە	-9.5343
▁سیستم	-9.53453
▁دەهێنێت	-9.53478
ەکەشی	-9.53495
▁سینەما	-9.53504
▁خەریکی	-9.53557
▁ئازادیی	-9.53574
▁0	-9.53679
▁ئەمر	-9.537
en	-9.53782
بری	-9.53792
کاندا	-9.53797
▁دەتوانیت	-9.53817
▁مردن	-9.53833
▁لێپرسراوی	-9.53838
ۆت	-9.53981
▁کردووەتەوە	-9.53989
▁ناز	-9.54088
▁حزبە	-9.54123
پر	-9.54212
▁حا	-9.54223
▁بیانی	-9.54334
▁قبوڵ	-9.54344
▁گرێبەست	-9.54388
نسی	-9.54396
▁چوون	-9.54436
شوێن	-9.5444
▁درێژەی	-9.54542
▁کاتێ	-9.54586
وود	-9.54679
▁لەبار	-9.54834
دەکاتەوە	-9.54836
خوا	-9.54849
▁مامەڵە	-9.54897
▁یەکسانی	-9.54929
▁ژینگە	-9.55061
▁ئەکات	-9.5507
▁نیگەرانی	-9.55071
▁لەکار	-9.55121
on	-9.55159
▁ڕێبەر	-9.55243
▁شارەزای	-9.55273
▁کەلار	-9.55324
▁دەب	-9.5536
▁گا	-9.55406
▁ڕاو	-9.55551
▁قەرز	-9.55587
▁شانازی	-9.55589
حکومەت	-9.55609
▁واز	-9.55613
▁ئەزموونی	-9.55732
▁وەرزش	-9.55801
▁وتیشی	-9.55872
یاسا	-9.55933
▁سۆران	-9.55958
▁هاوار	-9.55971
▁ڕەوا	-9.55981
▁شوێنە	-9.56001
▁مرۆیی	-9.56105
▁داخوازی	-9.56118
▁لاوان	-9.56168
▁ئینسان	-9.5628
▁زیندوو	-9.56313
وێنە	-9.56429
سر	-9.56443
▁بنکەی	-9.56445
▁نەکراوە	-9.56477
▁نێر	-9.56516
▁بەسەردا	-9.56526
▁کوژران	-9.56532
▁ڕاستەقینە	-9.56545
▁موحەممەد	-9.56555
▁دەرئەنجام	-9.56593
▁ئێستادا	-9.56603
▁ڕۆژنامەنووسان	-9.56671
▁میوان	-9.56705
لەی	-9.56712
▁جارێک	-9.56729
▁بەلا	-9.56748
▁تشرینی	-9.56809
▁دواجار	-9.56843
▁بیان	-9.571
▁هەموویان	-9.57101
▁خزمەتگوزاری	-9.57127
▁پێناسە	-9.57182
رەی	-9.57192
▁کۆنگرە	-9.57221
▁شکست	-9.57226
▁یش	-9.57239
▁یەکگرتووەکانی	-9.57262
ود	-9.57275
▁ماوەیەکی	-9.57281
▁خەلک	-9.57363
▁خانەقین	-9.57481
نس	-9.57516
▁ڕێکخستن	-9.57561
▁ڕێکەوت	-9.57612
شم	-9.57646
▁گاز	-9.57809
▁شتی	-9.57848
▁پاڵپشتی	-9.58028
پار	-9.58108
▁ببین	-9.58113
▁چینی	-9.58128
▁قوتابخانە	-9.58148
▁ئال	-9.58157
▁دەوڵەمەند	-9.58189
▁نەبوون	-9.58228
▁نوێنەرایەتی	-9.58272
نام	-9.58371
▁سوننە	-9.58389
▁سەرچاوەیەک	-9.58447
▁نییەو	-9.58478
▁بڵێم	-9.58486
▁هاتوچۆ	-9.58696
▁دێتە	-9.58713
بدات	-9.58851
▁خەو	-9.58887
▁توێژ	-9.58893
▁سەنتەری	-9.58963
▁تورکی	-9.58991
▁یاد	-9.59036
ۆی	-9.59137
▁سۆز	-9.59143
▁گوتەبێژی	-9.59217
گەن	-9.59222
▁بگرە	-9.59251
▁ژنانی	-9.59309
دەنگ	-9.59313
▁بکرێ	-9.59408
▁مانگە	-9.59434
▁پێویسته	-9.59458
ڤێ	-9.59497
▁کوڕی	-9.5952
زیر	-9.59532
▁ئەگەرچی	-9.59614
▁تورکمان	-9.5964
▁میانەی	-9.59656
باس	-9.59734
▁دەسەڵاتدار	-9.59859
▁هەڤاڵ	-9.59871
▁سەردەشت	-9.59873
▁ڕیزبەندی	-9.59875
▁داب	-9.59895
▁داهاتووی	-9.59896
لای	-9.59972
ێوە	-9.59982
گیری	-9.59984
▁سەرکەوت	-9.59997
▁قۆناغە	-9.60005
دێت	-9.60032
▁دەرەکی	-9.6004
ەکا	-9.60152
▁ڕاشیگەیاند	-9.6019
وەری	-9.60271
▁سر	-9.60349
▁ڕۆشنبیر	-9.6035
ادەی	-9.60422
▁پێکهات	-9.60442
پێک	-9.60576
▁پشکنین	-9.60629
▁ئاگاداری	-9.6068
▁دەرهێنەر	-9.60686
▁دیمەن	-9.60691
▁ڕەگەز	-9.60704
رگ	-9.60719
▁فەلسەفە	-9.60746
▁دەور	-9.60753
▁ململانێ	-9.60755
▁جیهاندا	-9.60791
▁لەلای	-9.60794
▁ڕووداو	-9.6083
▁ڤێ	-9.60838
▁داکۆکی	-9.60919
زەر	-9.60965
زر	-9.61039
▁هیوای	-9.6104
▁قوتابیان	-9.6105
▁سیروان	-9.61054
▁هاوسەر	-9.61069
▁ئەوه	-9.61109
▁سەرکوت	-9.61211
اسی	-9.61223
▁ناوچانە	-9.61265
کەیان	-9.61313
▁دانی	-9.61321
▁بەخشی	-9.61331
خوازی	-9.61339
دنی	-9.61355
پۆرت	-9.61409
▁کەناڵی	-9.61413
▁خورماتوو	-9.61431
پەی	-9.61436
▁دەزانین	-9.61453
▁سات	-9.61521
▁لەبواری	-9.61531
کاران	-9.6156
▁ئیمزا	-9.6158
▁ئیسپانیا	-9.6161
▁کوتلە	-9.61617
▁ناوخۆیی	-9.61653
▁یادی	-9.61841
فت	-9.61851
ەکەت	-9.61902
دروست	-9.61929
▁نەکات	-9.61954
▁سەعات	-9.61965
▁تیرۆریستان	-9.61982
ژیان	-9.61983
▁نامە	-9.62038
دەبێت	-9.62083
▁خۆیەتی	-9.62092
▁پزیشکی	-9.6212
بکەین	-9.62139
▁نان	-9.6218
▁دۆخی	-9.6222
▁مەدرید	-9.62402
▁جەختی	-9.62532
▁بەردەوامە	-9.62569
کەری	-9.62643
▁خواز	-9.62652
▁B	-9.62687
▁مانەوەی	-9.6273
▁لەبیر	-9.62773
▁پارتە	-9.62785
▁جێگیر	-9.6284
▁تاوانی	-9.62962
▁وەرگرت	-9.62974
چون	-9.62991
▁دابەشکردنی	-9.63025
▁پیاوان	-9.63061
▁نەوشیروان	-9.63066
▁کۆمەلایەتی	-9.63078
پرس	-9.63214
▁قەرە	-9.63274
▁http	-9.63349
▁تۆمەت	-9.63364
چوونی	-9.63417
حا	-9.63485
▁دید	-9.63505
▁چاوپێکەوتن	-9.63538
ندی	-9.63633
▁گرینگ	-9.63729
▁ئیداری	-9.63741
▁زیندان	-9.6378
▁مەن	-9.63808
هەڵات	-9.63845
▁مەس	-9.63857
اخ	-9.6391
▁زار	-9.63928
▁سان	-9.63928
▁ململانێی	-9.64033
انیش	-9.64176
▁ئینجا	-9.64192
بارە	-9.64237
▁کوژراو	-9.64276
▁ڕێنمایی	-9.64295
▁دەڤەر	-9.64296
▁کوشت	-9.64363
▁پرۆ	-9.64405
▁35	-9.64406
▁مارکس	-9.64407
▁ڕەزامەندی	-9.64422
سکی	-9.6445
▁ڕوداو	-9.64458
▁قەیرانی	-9.6452
▁بهێنن	-9.64541
▁بکەیت	-9.64584
ێنراو	-9.64704
▁داهات	-9.64717
سوو	-9.64731
▁سبەی	-9.64818
سۆن	-9.64831
▁وەرگێڕ	-9.64913
▁هۆڵی	-9.6492
▁جاران	-9.64924
خەم	-9.64941
▁کاریگەر	-9.6497
▁ئەڤ	-9.64983
▁خولەک	-9.65001
▁کابینەی	-9.65022
▁قووڵ	-9.65042
ویانە	-9.65097
▁گەورەیە	-9.65106
▁ناڕەزایی	-9.65111
▁میدیای	-9.65171
▁بچوک	-9.65203
▁سیاسییەکانی	-9.65231
▁ئاوارە	-9.65242
▁ڕۆژنامەوانی	-9.65272
▁موزیک	-9.65324
کەت	-9.65389
▁گەلەکەمان	-9.65409
▁حکومی	-9.65459
بیت	-9.65473
ویەتی	-9.65491
▁بووەو	-9.65504
▁پەرە	-9.65504
▁خواردن	-9.65519
▁پێشبینی	-9.65547
▁هاتوو	-9.65568
▁حیزبە	-9.6562
انەیە	-9.65628
نین	-9.65631
باش	-9.65663
▁سەرپەرشتی	-9.65687
▁تێر	-9.65716
▁لوبنان	-9.65748
▁بەڕێوەچوو	-9.65766
▁گوندی	-9.65799
▁هاتنە	-9.65825
▁پزیشک	-9.6583
▁گەلێک	-9.65876
▁کوردەکان	-9.65886
▁ڕاپۆرتی	-9.65926
▁زانیاریی	-9.66065
▁وێڕای	-9.66075
▁وڵاته	-9.66097
ستانی	-9.66108
رم	-9.66112
هێناوە	-9.6616
▁سیناریۆ	-9.6619
▁2003	-9.66217
▁کران	-9.66283
▁فەرهەنگی	-9.66286
▁علیە	-9.66354
▁سادە	-9.66371
سک	-9.66388
▁زۆرترین	-9.66397
▁بانگ	-9.66408
▁هێنانی	-9.66409
▁نووسینی	-9.6644
▁پێچەوانەی	-9.66461
▁لو	-9.66493
▁تیپی	-9.66516
▁پێکرد	-9.66517
▁بیرکردنەوە	-9.66526
توان	-9.66569
ئۆ	-9.66679
▁بەجۆرێک	-9.6669
▁جەنابی	-9.66693
نەتەوە	-9.66726
تەوه	-9.66735
▁ئازادیخواز	-9.66768
▁باڵ	-9.669
▁ناتوانن	-9.66905
▁خەیاڵ	-9.66915
خستن	-9.66929
▁دراما	-9.6704
وق	-9.67113
▁چاوەڕوان	-9.67131
▁جەخت	-9.67213
▁لەندەن	-9.6722
▁سەروەری	-9.67294
▁کەناڵ	-9.67352
▁کارا	-9.67376
گات	-9.67403
▁مزگەوت	-9.67411
▁ئێوارەی	-9.67419
شمان	-9.67424
▁دراوسێ	-9.67464
▁میل	-9.67584
▁M	-9.67614
کت	-9.6763
▁هەڵبژاردنەکانی	-9.67632
▁بنکە	-9.67645
▁بەراورد	-9.67696
▁بتوانن	-9.67708
▁دەستور	-9.67791
▁نیاز	-9.67819
▁ئاش	-9.67824
▁بل	-9.67838
▁کۆنفرانس	-9.67861
▁پارێزەر	-9.67889
▁نەماوە	-9.67899
▁دەدا	-9.67982
▁کلی	-9.68013
▁کردە	-9.68065
▁عەبدوڵا	-9.68125
▁داهێنان	-9.68162
▁بڕوای	-9.68204
▁p	-9.68211
▁بتوانێت	-9.68235
▁بەرگ	-9.68249
▁ئایندە	-9.68265
▁لێژنەی	-9.68296
▁چاودێر	-9.68337
▁00	-9.68442
▁گەڕانەوەی	-9.68443
▁ئەف	-9.68497
نامە	-9.68543
▁بالا	-9.68572
▁سارد	-9.68602
چەند	-9.68691
▁سەعد	-9.68727
▁زاڵ	-9.68788
▁ساڵانە	-9.68826
سەد	-9.6904
▁چاپکردن	-9.69041
▁پێشکەوتوو	-9.69043
▁دەوێت	-9.69083
▁C	-9.69169
ڕەوی	-9.69178
▁شوان	-9.69188
▁سەرەوە	-9.69208
لین	-9.69242
▁خوێندکاران	-9.69263
▁ئایندەی	-9.69284
▁هاتن	-9.69328
▁قورئان	-9.69342
▁بیرو	-9.69427
ً	-9.69427
▁تاوتوێ	-9.69487
▁بێدەنگ	-9.69571
▁نابێ	-9.6959
▁دۆزینەوەی	-9.69668
▁دەبات	-9.6975
▁هەڵبژێر	-9.69764
▁ئابووریی	-9.69805
اش	-9.69861
▁کاتە	-9.69963
▁مانا	-9.70088
یەکاندا	-9.70145
▁مۆدێرن	-9.70165
کردەوه	-9.70226
▁ڕەوتی	-9.70228
گرێت	-9.70234
▁بکرێتەوە	-9.70279
▁کەسانە	-9.70282
▁گفتوگۆی	-9.70368
▁گێ	-9.7047
▁میوانداری	-9.70505
▁زۆرجار	-9.7056
وایە	-9.70579
▁سەرمایە	-9.70666
برا	-9.7073
وەست	-9.70752
ث	-9.71004
واز	-9.7104
▁دۆزی	-9.71042
▁ئاڵۆز	-9.71076
ونەتە	-9.71105
▁بلاو	-9.71163
پشت	-9.7118
لیا	-9.71194
▁باوە	-9.71217
▁لایەنەکان	-9.71234
▁چەکداری	-9.71244
▁نەما	-9.71294
▁ڕووبەر	-9.71304
٠	-9.71374
▁پسپۆڕ	-9.71374
▁ده	-9.71379
▁مافە	-9.7139
ئەن	-9.71462
▁سەرچاوەیەکی	-9.71508
▁لەعیراق	-9.71564
▁پاڵەوانێتی	-9.71616
نەو	-9.71655
▁جامی	-9.71707
کام	-9.71723
▁دەوروبەری	-9.7179
▁ئیسماعیل	-9.71792
▁×	-9.71939
▁نەورۆز	-9.71941
▁کۆبوونەوەکە	-9.72029
ەکانم	-9.72076
▁شۆ	-9.72118
▁شاخ	-9.72157
▁کاتدا	-9.72164
▁45	-9.72196
کەدا	-9.7225
▁ساڵانی	-9.72257
▁پەخش	-9.72286
f	-9.72324
پاڵ	-9.72336
▁تەقە	-9.72336
زاد	-9.72352
▁سەربازیی	-9.72401
▁گوتار	-9.72525
▁کچە	-9.72541
▁دابینکردنی	-9.72565
▁تەر	-9.72618
▁تاریک	-9.72641
▁حوکمی	-9.72658
▁هەموار	-9.72695
▁کارمەند	-9.72738
▁گوتم	-9.72768
▁بکەوێت	-9.7277
▁چەکدارانی	-9.72831
▁حساب	-9.72836
▁حاڵەت	-9.7285
لاو	-9.72991
ئێ	-9.73006
بونەوەی	-9.73037
▁ئەفسەر	-9.73074
کورد	-9.73103
▁عیراق	-9.73111
ئاژانسی	-9.73149
▁گەڕان	-9.73181
▁حوزەیران	-9.73184
لک	-9.73317
▁کۆڕ	-9.73357
▁دەرچوو	-9.73382
▁دەربڕین	-9.73392
▁پێکهاتەی	-9.73414
ئەنجام	-9.73416
▁هەروا	-9.73419
▁ئاخر	-9.7345
▁نەخۆشخانەی	-9.73465
▁پشک	-9.73533
▁وێران	-9.73569
▁نەزان	-9.73573
ۆڕ	-9.7361
▁ڕێکخستنی	-9.73612
▁فۆرم	-9.7363
▁پرسیارە	-9.73639
▁بەهەمان	-9.73658
▁ئاسمان	-9.73691
▁بەهیچ	-9.73698
▁لەوانەیە	-9.73734
▁بەڵێ	-9.73868
▁گەڕا	-9.73881
▁دادەن	-9.73908
▁شیر	-9.73968
▁فیلمه	-9.73988
▁موزیکی	-9.74012
in	-9.74088
▁مەجید	-9.74101
▁سەدر	-9.74146
پەرست	-9.74151
▁داو	-9.74171
گونج	-9.7424
▁ساڵەی	-9.74351
سات	-9.74402
▁لەوەش	-9.74429
▁باو	-9.7448
▁پتر	-9.74487
▁خوار	-9.74523
▁گران	-9.74552
▁ڕۆحی	-9.74611
▁فوئاد	-9.74621
▁نازانم	-9.74665
بل	-9.74673
▁قۆ	-9.74687
▁باز	-9.74728
▁بینەر	-9.74809
▁پشتی	-9.74874
▁فرۆش	-9.74878
▁نابین	-9.74881
لەت	-9.74902
▁هەنگاوی	-9.74944
▁مامۆستای	-9.7495
ەشدا	-9.74976
▁ئەمجارە	-9.74991
تنی	-9.75018
▁منداڵی	-9.75077
▁بنەڕەتی	-9.75097
▁سود	-9.75097
▁پیرۆزبایی	-9.75118
▁نەدا	-9.75134
▁بنێ	-9.7528
▁هەڕەشەی	-9.75288
▁شانۆگەری	-9.7529
▁لێدان	-9.75333
مەی	-9.75438
کراون	-9.75484
▁سەفەر	-9.75495
▁دانیشتوانی	-9.75514
▁ئاژەڵ	-9.75564
ێنی	-9.75605
▁دزی	-9.75667
▁خوشک	-9.75667
▁شارەکانی	-9.75689
▁داهاتی	-9.75784
▁ڕۆژنامەنوس	-9.75836
at	-9.75863
▁هۆش	-9.75971
▁سەردەمە	-9.75985
▁یاریگای	-9.76056
پێویست	-9.76087
▁کۆڵ	-9.76102
▁بکوژ	-9.76124
مر	-9.76142
▁بەرجەستە	-9.76143
▁برای	-9.76165
▁وەلی	-9.76174
ێنین	-9.76316
ونەتەوە	-9.76325
is	-9.76346
لام	-9.76478
▁لایەنێک	-9.76486
▁نێچیرڤان	-9.76552
▁چیتر	-9.76596
▁دیموکراسی	-9.766
▁کشتوکاڵی	-9.76614
▁لایەنەکانی	-9.76668
▁متمانە	-9.7669
▁کۆنترۆڵ	-9.76709
▁دادوەری	-9.76745
▁پێدانی	-9.76745
▁وەستا	-9.76813
▁لەیەک	-9.76827
▁ئەز	-9.76846
▁لەسەرەتای	-9.76959
زو	-9.76998
▁بیت	-9.7705
لیس	-9.77055
دانەوەی	-9.77068
▁برینداربوون	-9.77087
▁دەکەنەوە	-9.77091
▁دراو	-9.77133
▁بەرهەمهێنانی	-9.7722
▁خۆپیشاندەران	-9.77248
▁حیزبەکان	-9.77249
▁کشتوکاڵ	-9.7729
▁دز	-9.77304
▁کارگێڕی	-9.77309
▁کۆچی	-9.7733
▁کەسانێک	-9.77333
▁دەچن	-9.77337
▁ئەت	-9.77439
▁ڕۆژانی	-9.7747
▁بونی	-9.77487
▁هەڵب	-9.7751
▁موسڵمان	-9.77514
▁توو	-9.77543
▁قەڵەم	-9.77558
re	-9.77596
▁لەپێش	-9.77605
▁ئەردۆغان	-9.77701
▁ڕابردو	-9.7774
▁پاسەوان	-9.77784
دانە	-9.77836
زێ	-9.77865
@	-9.77947
ێکیش	-9.78078
▁حەق	-9.78096
▁J	-9.78147
▁پێوەر	-9.7817
▁پیلان	-9.78221
▁ناخ	-9.78251
▁قوڵ	-9.78265
▁دایکی	-9.78294
بانی	-9.78347
▁صلی	-9.78363
▁بەدەر	-9.7837
▁لەدژی	-9.78372
▁دێرین	-9.78485
▁گۆڕانکاریی	-9.78492
▁شەوی	-9.78545
ەندە	-9.78675
شن	-9.78716
دەدەن	-9.78746
رب	-9.78751
▁نەبو	-9.78755
ونی	-9.78805
▁پێدە	-9.78871
▁کەسوکاری	-9.78874
▁جەعفەر	-9.78913
▁ئەندامێکی	-9.78922
▁پایتەخت	-9.78942
▁بچێت	-9.78951
▁s	-9.78957
▁خۆشەویست	-9.79016
▁نەمان	-9.79037
تاب	-9.79045
موو	-9.79047
▁بری	-9.79216
▁دەش	-9.79254
▁E	-9.7934
▁ئاشنا	-9.79343
▁جەمال	-9.79385
▁سەرمایەداری	-9.79417
خەڵک	-9.7946
باری	-9.79473
▁ئاسیا	-9.79566
▁D	-9.79832
▁خەرج	-9.79902
▁کرێکاران	-9.7992
خی	-9.79931
▁N	-9.80051
▁هۆکارێک	-9.80128
▁درووست	-9.80153
▁بەگوێرەی	-9.80179
▁ئەفغانستان	-9.80202
▁دیالۆگ	-9.80206
▁ترسناک	-9.80246
▁تیپ	-9.80283
وزی	-9.8033
▁کری	-9.80372
▁نیشتەجێ	-9.80376
▁ڕووسیا	-9.80397
▁ئەکەن	-9.80414
▁گەلانی	-9.80593
▁نەخۆشخانە	-9.80594
▁ڕۆژهەڵات	-9.80605
▁هەرچەند	-9.80614
▁تەک	-9.80644
▁مەتر	-9.80753
▁ڕوونی	-9.80796
بێتەوە	-9.80825
▁گۆڤاری	-9.80825
▁دەکرا	-9.80862
پەروەر	-9.80877
ژا	-9.80931
اغ	-9.81003
▁تەم	-9.81041
▁وەرزشی	-9.81056
▁مێشک	-9.81059
▁ستەم	-9.81159
چن	-9.81167
▁دێموکرات	-9.8123
▁ئەستێرە	-9.81243
▁چڕ	-9.81246
▁دانوستان	-9.81268
بای	-9.81269
▁وتەی	-9.81278
▁بریتییە	-9.81289
▁مەسیحی	-9.81299
▁لاپەڕە	-9.81315
▁دژە	-9.81324
▁بەشداربوو	-9.81348
▁بووه	-9.8135
▁کوردو	-9.81415
تێک	-9.81455
▁توێژینەوە	-9.81475
أ	-9.81479
▁باسە	-9.81527
▁ڕێکخراوەکانی	-9.81559
▁نەوەی	-9.81631
▁کۆر	-9.8168
▁گروپە	-9.81684
▁ئەبو	-9.81761
▁ترەوە	-9.81766
بەندی	-9.81773
ەدین	-9.81804
▁مرۆڤەکان	-9.81814
رک	-9.81835
ولات	-9.81845
▁براوە	-9.81891
▁هاتە	-9.81937
دەکەین	-9.81956
▁ئەڵمانی	-9.81959
▁ئامادەکاری	-9.82022
▁بەعسی	-9.82042
▁کاوە	-9.82049
▁ناحیەی	-9.82064
کەوێت	-9.82095
▁بەشار	-9.82177
ێنەر	-9.82185
▁لێرەوە	-9.82203
▁ڕۆح	-9.82208
▁بانگهێشت	-9.82219
w	-9.82422
▁گۆرانیبێژ	-9.82432
▁بچن	-9.82433
▁شوێنێک	-9.82442
هەوڵ	-9.82458
▁وسلم	-9.82486
▁لقی	-9.82505
▁وەرزی	-9.82527
▁ئێرە	-9.82536
▁تیرۆریست	-9.82552
▁ئاڵ	-9.82576
▁بەرپرسیارێتی	-9.82587
ستن	-9.82601
یەدا	-9.82628
▁پارێزگا	-9.82654
ئەندام	-9.82674
▁کاکە	-9.82803
▁2006	-9.82851
شەو	-9.83058
هێشت	-9.83169
▁کەمی	-9.83183
▁ئۆتۆمبیل	-9.83231
بەرز	-9.83252
▁بەدواداچوون	-9.83259
▁لەبەغدا	-9.83342
ێکەوە	-9.8335
▁کردبێت	-9.83355
دڵ	-9.83416
▁بەرژەوەندیی	-9.83543
▁دوکان	-9.83633
▁دەیانهەوێت	-9.83647
▁گوایە	-9.83668
▁پرسیاری	-9.8368
▁بنەماڵەی	-9.83709
▁ئیرادەی	-9.83779
▁هەوڵەکانی	-9.83823
▁قەزا	-9.83824
▁کارت	-9.83843
سیۆن	-9.83847
▁شۆڕشگێڕ	-9.83851
▁لەمەوبەر	-9.83871
N	-9.83919
▁چیرۆکی	-9.83934
▁هێنان	-9.83939
▁کۆچ	-9.83989
▁بەلای	-9.84037
▁یاریزانان	-9.84105
▁ئیسپانی	-9.84215
▁کرێ	-9.84326
▁کردار	-9.84339
▁ئەوکات	-9.84363
▁هەڵبەت	-9.84395
▁بارەیەوە	-9.84396
سۆ	-9.8441
▁خوێندنەوە	-9.8443
▁پیاوە	-9.8447
▁گەورەکان	-9.84478
▁هەلومەرج	-9.84568
▁خۆتان	-9.84578
نیاز	-9.84579
▁بەهەموو	-9.84607
▁بەزۆر	-9.8465
▁ڕەهەند	-9.84706
▁خوێند	-9.84716
▁خاتوو	-9.84781
شکێن	-9.84824
▁دەزگاکانی	-9.84894
▁کۆکردنەوەی	-9.84948
سین	-9.84953
▁ئام	-9.8502
▁هەربۆیە	-9.8505
▁هەستیار	-9.85178
▁پێشانگای	-9.85274
▁ئەڵێ	-9.85298
▁خالید	-9.85334
▁70	-9.85367
▁ئەیلول	-9.8547
▁ئاوات	-9.85494
▁سکاڵا	-9.85555
وای	-9.85639
▁دۆسیەی	-9.85646
▁ڕاستەقینەی	-9.85653
▁بەهەر	-9.85659
▁کوردستانەوە	-9.85677
▁ڕێباز	-9.85684
▁دەگاتە	-9.85793
▁خراپی	-9.858
ڤە	-9.85868
▁یەکسان	-9.85901
▁پەلە	-9.85907
▁کردەوه	-9.86047
▁89	-9.86056
▁دیکەوە	-9.86181
▁بەمەش	-9.86246
▁سەرو	-9.86289
▁توندڕەو	-9.8629
▁نەریت	-9.86299
▁دەچ	-9.8632
▁کوردە	-9.86338
▁ڕوونیکردەوە	-9.86359
▁گۆڤار	-9.86388
▁لەچوارچێوەی	-9.86422
▁دەگێڕ	-9.86476
▁دام	-9.8649
▁تێڕوانین	-9.86493
ەسەر	-9.86508
▁خراپتر	-9.86511
▁لایەکی	-9.86541
▁ڕەوش	-9.86626
▁بەرێوە	-9.86646
▁گووتی	-9.86702
▁بانگەواز	-9.86708
نێر	-9.86824
▁ڕەزا	-9.86926
▁دیسان	-9.86948
▁گواستنەوەی	-9.86991
▁کارەبای	-9.86998
ورد	-9.87025
▁خێر	-9.87048
▁ئیتالیا	-9.87077
▁هاوولاتیان	-9.87091
▁بردن	-9.87098
▁خوێنی	-9.87166
▁بانگەشەی	-9.87195
▁چوونە	-9.87306
نەوه	-9.87307
▁قەرەبوو	-9.87311
▁پەیکەر	-9.87314
▁میللی	-9.87348
▁ڕق	-9.8735
▁ناوداری	-9.87365
▁ڕاستییە	-9.8737
▁لێوە	-9.87374
▁لەچەند	-9.87404
▁دەکەیت	-9.87417
▁چەمک	-9.8743
▁سیاسیەکان	-9.87506
▁ناونیشانی	-9.87517
بوونە	-9.87585
▁نەکەن	-9.87599
▁تاقیکردنەوە	-9.87695
▁پیس	-9.87708
▁ئیس	-9.87733
▁ئەمین	-9.8774
▁باشوری	-9.87745
▁جینۆساید	-9.87759
▁دەسەڵاتە	-9.87811
▁تێکست	-9.87867
دەسەڵات	-9.8789
▁ئەمنییەکان	-9.87892
▁پەرلەمانتاران	-9.87932
▁پلانی	-9.87956
ییەکەی	-9.87987
▁دەرب	-9.88001
▁ئەب	-9.88011
ڵێن	-9.88026
▁دەبینێت	-9.88078
▁خستەڕوو	-9.88147
▁جل	-9.8818
ەڕ	-9.8841
▁ڕەنگی	-9.88416
▁گۆڕی	-9.88418
سار	-9.88423
▁ناسی	-9.88497
▁پەنابەر	-9.88527
▁هەی	-9.88579
▁ئێس	-9.88639
▁سلێمان	-9.88651
▁مەترسیدار	-9.88677
بردن	-9.88693
▁شوێنێکی	-9.88721
▁چەق	-9.88781
بیل	-9.88809
▁نەیار	-9.88942
▁موڵک	-9.88993
▁کاتەی	-9.89017
مون	-9.89057
▁سیاسییە	-9.89067
▁پۆستە	-9.89125
▁جەستە	-9.89134
▁هەڵبژارد	-9.89135
▁ئاواز	-9.89173
▁34	-9.89227
▁کۆمۆنیست	-9.89247
▁پارێزگاکان	-9.89254
گرتووە	-9.89262
▁ئەکادیمی	-9.89335
▁سەنگ	-9.89364
▁هێزه	-9.89421
▁یارییەکە	-9.89428
it	-9.8945
▁دەهێن	-9.89499
▁بەریتانی	-9.8954
▁لەکۆتایی	-9.89549
▁سک	-9.89585
▁کۆمەک	-9.89589
▁بەیاننامەی	-9.89648
▁سەرەتایی	-9.89655
▁بەدەستهێنانی	-9.89667
▁تەوەر	-9.89701
آ	-9.8981
▁ئەوەندەی	-9.89863
▁غاز	-9.8987
▁فەرمانی	-9.89925
▁چارەنووسی	-9.89989
▁بەشداریی	-9.89993
▁حەم	-9.90006
▁بووین	-9.9008
▁حاکم	-9.90111
▁فەرمانبەر	-9.90121
رای	-9.90122
▁32	-9.90123
وتی	-9.90157
▁نووسەران	-9.90161
کەوتوو	-9.90166
▁وەرگرتن	-9.90219
▁هاوکاریی	-9.90238
ریکا	-9.90337
▁باکوور	-9.90348
اندووە	-9.90471
▁هەماهەنگی	-9.90607
▁فەلەستین	-9.90622
▁قەدەغە	-9.90693
▁بۆنەی	-9.90761
راون	-9.9077
▁تێکۆشان	-9.90802
▁هەڵگری	-9.9081
اق	-9.90838
▁هەمووان	-9.9085
▁گیانیان	-9.90878
▁نیسان	-9.90888
▁فەرەنسی	-9.90921
▁دەڵێم	-9.90923
▁دەردەکەوێت	-9.90941
▁شارەزا	-9.90976
▁کۆمەل	-9.91013
نگی	-9.91022
▁پرۆگرام	-9.91028
بکاتەوە	-9.91043
▁قی	-9.91116
A	-9.91136
هەنگ	-9.91138
ەشەوە	-9.91212
▁بەرێز	-9.91283
▁80	-9.91315
▁60	-9.91345
کۆل	-9.91353
▁پەیوەندییە	-9.91357
▁سەرقاڵی	-9.91381
بڕیار	-9.91387
پڕ	-9.9139
▁ڕاگرتنی	-9.91394
▁ئایار	-9.91395
▁ڕێی	-9.91417
خول	-9.91423
سیا	-9.91495
▁ئێستای	-9.91508
▁کێشەکە	-9.91516
مال	-9.91535
▁کرایەوە	-9.91552
▁باج	-9.91555
وات	-9.91645
▁ڕاوێژکاری	-9.91695
▁مووچە	-9.91698
▁حو	-9.91706
من	-9.91726
▁پڕۆژەکە	-9.9173
ed	-9.91753
▁هەڵمەت	-9.91763
▁ناوەکی	-9.91773
▁ڕاهێنان	-9.91792
▁میراودەلی	-9.91806
▁ڕیال	-9.91818
▁هۆشیاری	-9.91871
▁مەشق	-9.91902
▁پەراوێز	-9.92047
▁خانم	-9.9208
▁دەدەین	-9.9215
▁ڕوانگەی	-9.92199
▁کەمکردنەوەی	-9.92225
▁تەمموز	-9.92259
▁گری	-9.9235
▁گەڕانەوە	-9.92384
▁سەل	-9.92389
▁ڕەمەزان	-9.92396
یتەوە	-9.92422
▁ڕابەر	-9.92432
هیچ	-9.92461
▁ڕێژ	-9.92478
▁دەرگای	-9.92491
▁زاخۆ	-9.92496
▁قەت	-9.92539
هێنەر	-9.92557
▁ئاڕاستەی	-9.92779
▁شەپۆل	-9.92834
▁پاس	-9.92842
▁ساڵان	-9.92903
▁باڵیۆزی	-9.92918
:"	-9.92985
▁ماددە	-9.92996
▁نەکرێت	-9.93
▁یەکتری	-9.9301
▁خۆرئاوا	-9.93013
▁دواتریش	-9.93015
▁ئەوکاتە	-9.93058
تەق	-9.93081
▁توندوتیژیی	-9.93098
▁ناخۆش	-9.93137
کەوتنی	-9.93152
▁بەڕاستی	-9.93155
▁فڕ	-9.93218
▁تایبەتمەندی	-9.9326
رز	-9.93291
ۆته	-9.93313
ستۆ	-9.93345
ۆتەوە	-9.93351
ڤەر	-9.93379
▁زەمینە	-9.93391
▁خرا	-9.93402
▁زیرەک	-9.93408
▁لەگەڵدا	-9.93514
هاتوو	-9.93554
▁باکووری	-9.93576
▁کۆمیتەی	-9.93638
▁دەرچوون	-9.93725
▁وەکوو	-9.93731
خۆر	-9.93791
▁لیبیا	-9.93882
▁هونەرمەندی	-9.93947
▁سەرکردەی	-9.93975
▁هاوڵاتیانی	-9.9402
▁سل	-9.94021
زوو	-9.94033
▁36	-9.94046
▁دەسەلاتی	-9.94047
▁ئاکام	-9.94054
▁ئەهلی	-9.94055
▁شۆرش	-9.94057
ۆڤ	-9.94076
یشەوە	-9.9408
▁لەمەڕ	-9.94102
▁کارگە	-9.9417
et	-9.94225
▁هاوکار	-9.94238
گرن	-9.94312
▁ڕەشید	-9.94312
▁ڕووداوەکانی	-9.94357
▁کوردیش	-9.94387
▁شاندی	-9.94392
ێنەوە	-9.94416
▁://	-9.94418
اڵە	-9.94517
▁ناوچەیە	-9.94531
▁هێندەی	-9.94552
▁نوێژ	-9.94561
▁مەسەلە	-9.94605
ؤ	-9.94618
▁ڤە	-9.94632
داد	-9.94641
▁خێڵ	-9.9469
▁ڕون	-9.94718
▁شێواز	-9.94753
▁ئایەت	-9.94783
▁شەڕە	-9.94843
▁تابلۆی	-9.94855
▁دیکتاتۆر	-9.9489
▁ئامادەبوونی	-9.94911
▁دروستبوونی	-9.95016
▁چون	-9.95023
گەیەنێت	-9.95033
▁مێرد	-9.95044
سل	-9.95059
▁زۆرتر	-9.95109
▁پەنجە	-9.95133
▁نادیار	-9.95222
شەر	-9.9524
▁ئاڵوگۆڕ	-9.95287
le	-9.95288
▁نەمر	-9.95364
ۆژ	-9.95374
▁دۆخە	-9.9538
)،	-9.95389
▁پیادە	-9.95391
▁ئێک	-9.95406
▁زر	-9.9544
دز	-9.95468
▁وشە	-9.95477
▁خۆیاندا	-9.95485
▁دەژین	-9.95495
▁دیاردەی	-9.95511
کۆن	-9.9553
▁سروشت	-9.95557
هێز	-9.95608
▁دادە	-9.95649
▁وتووێژ	-9.95695
▁هێڵ	-9.95756
▁گرد	-9.9581
▁پاکستان	-9.95831
▁کەمێک	-9.95945
پای	-9.95977
▁متمانەی	-9.95988
j	-9.96008
ch	-9.96056
▁واقیعی	-9.9606
il	-9.96092
▁ناڕەزایەتی	-9.96102
▁تاقی	-9.96144
▁دانیشتنی	-9.9615
▁مال	-9.96207
▁گەورەتر	-9.96234
▁گۆر	-9.96253
▁ئێوارە	-9.96273
▁لەبەرچاو	-9.96273
▁جیاوازەکان	-9.96306
▁مامەڵەی	-9.96322
▁ئەوتۆ	-9.96323
نووسی	-9.96365
▁یەکجار	-9.96415
▁2004	-9.9647
▁T	-9.96476
▁تردا	-9.96494
▁کوژراون	-9.96495
▁دەچێتە	-9.9655
▁زمانێکی	-9.96572
تاری	-9.96574
▁هەناسە	-9.96642
گەیاند	-9.96689
سەند	-9.96746
▁نەتەوه	-9.96758
▁سن	-9.96759
▁توشی	-9.96946
▁ئاماژەیە	-9.96958
▁سەلماند	-9.96961
▁ئامراز	-9.97004
▁پێشێل	-9.97029
لیۆن	-9.9703
ڕێت	-9.97039
▁دیوار	-9.97067
▁خێزانی	-9.97071
تای	-9.97098
▁لێکۆڵینەوەی	-9.97123
▁گەڕ	-9.97138
▁ڕاپرسی	-9.97139
▁مەبەستە	-9.97174
▁ڕەسەن	-9.97187
▁فەرهەنگ	-9.97201
▁گەیاندنی	-9.97222
▁بینا	-9.97227
▁دەوری	-9.97285
▁قسەکردن	-9.97308
میر	-9.97326
▁کەوتووە	-9.97339
▁دینی	-9.97358
▁شەرم	-9.97416
▁هونەرمەندان	-9.9744
▁بزانن	-9.97445
▁دەبنە	-9.97503
رت	-9.97524
▁بەتەواوی	-9.97573
تەن	-9.97623
▁فراکسیۆنی	-9.97709
▁یاسایەک	-9.97714
▁زو	-9.97734
▁کون	-9.97747
▁comment	-9.97752
ەوەیە	-9.97755
am	-9.97756
▁حوکمڕانی	-9.97816
کەو	-9.97857
▁گەرمیانی	-9.9786
سەن	-9.97962
▁نەبن	-9.98018
▁دەستەبەر	-9.98032
▁دابەز	-9.98047
▁دەبەن	-9.98061
▁باکوری	-9.98088
▁کێشەو	-9.98098
ژان	-9.98131
▁دەشێت	-9.98141
▁خوارد	-9.98144
▁ڕووناک	-9.98185
▁لەدەرەوەی	-9.98223
▁ئیست	-9.98226
▁33	-9.98227
▁مەز	-9.98239
▁پێنجەم	-9.9825
▁ئەوەشدا	-9.98257
▁دیوانی	-9.98278
ناوە	-9.9829
▁فێستیڤاڵ	-9.98539
ادە	-9.98589
باران	-9.98618
▁ئیت	-9.98635
▁نموونەی	-9.98641
▁خۆشحاڵی	-9.98642
ڕەش	-9.98659
چێ	-9.9878
▁عەشق	-9.98809
▁بەبۆنەی	-9.98814
▁لەمبارەیەوه	-9.9883
▁نەبین	-9.98834
تووە	-9.9886
خەر	-9.98864
▁بنەماڵە	-9.98985
▁وەربگرێت	-9.98989
سەی	-9.99019
▁دەزانم	-9.99061
▁مەیدانی	-9.99099
▁بووەتە	-9.99102
▁کوردان	-9.99175
▁بڵێن	-9.99223
▁فیلمە	-9.99232
▁بۆچوونی	-9.99285
▁نووسی	-9.99301
واری	-9.9931
▁هەڵسوکەوت	-9.99349
▁بال	-9.99398
ناڵ	-9.994
▁گول	-9.99487
▁پاشا	-9.99522
▁جەژنی	-9.99524
▁پێکهاتە	-9.99553
▁خود	-9.99576
کردنیان	-9.99584
▁پیشە	-9.99602
ارد	-9.99609
▁فەرمانبەران	-9.99628
▁خاڵە	-9.99659
▁حزبی	-9.99698
▁سەنتەر	-9.99715
▁زنجیرە	-9.99734
▁بخاتە	-9.9977
▁ببات	-9.99786
▁زیانی	-9.99803
▁لیوا	-9.99809
ڕن	-9.99862
▁پرۆژە	-9.99868
▁کۆتای	-9.99873
▁یەکگرتووی	-9.99953
▁تیایدا	-9.99986
اڤ	-10
▁تەقینەوەی	-10.0002
▁دەژی	-10.0006
▁قارەمان	-10.0008
▁پەرەپێدانی	-10.0009
▁جوگرافی	-10.001
کۆم	-10.0011
▁گەڕەک	-10.0012
▁بارەیەوه	-10.0014
▁١	-10.0015
▁ئۆپۆزیسیۆن	-10.0017
▁دەگرێتەوە	-10.0017
▁خۆیشی	-10.0026
▁بیروڕا	-10.0026
▁فیلمەکانی	-10.0026
▁سوپاس	-10.0032
▁of	-10.0044
z	-10.0048
▁ڕۆڵێکی	-10.005
▁وڵاتانە	-10.0051
▁+	-10.0056
▁تەلەفۆن	-10.0057
▁ڕێگری	-10.0058
▁وەرگرتووە	-10.0058
▁فارس	-10.0064
▁بزانین	-10.0072
زۆر	-10.0075
لار	-10.0085
▁لاوانی	-10.0088
▁گرفتی	-10.0088
وەتە	-10.0089
▁کانونی	-10.0091
ژمار	-10.0094
▁بڕگە	-10.0106
▁نامۆ	-10.0106
تانی	-10.0109
▁دابن	-10.0112
▁ناوبژیوان	-10.0114
گوزار	-10.0118
lick	-10.012
▁هێما	-10.0123
▁پیت	-10.0124
▁شارۆچکە	-10.0124
▁توێژەر	-10.0126
▁fb	-10.0126
▁وڵاتێکی	-10.0129
▁ڕەمزی	-10.0132
نیشت	-10.0137
▁نەرم	-10.0141
▁بنیات	-10.0142
رام	-10.0146
▁لەهەمان	-10.015
▁الع	-10.0152
هەلات	-10.0157
▁تەقی	-10.0159
▁کەرەستە	-10.0165
▁سەنگەر	-10.017
▁سەرباری	-10.0178
رەت	-10.0183
▁ئەد	-10.0184
▁هەڵبژاردە	-10.0186
▁ئاراستە	-10.019
▁مامۆستایان	-10.0194
کراوی	-10.0199
گل	-10.0205
▁فاکتەر	-10.0212
▁تێدە	-10.0217
▁پارێزگاکانی	-10.0219
50	-10.0226
▁ئیسلامییەکان	-10.0226
▁بەهاری	-10.023
▁دووپاتی	-10.0232
▁هۆشیار	-10.0234
▁برایەتی	-10.0235
▁ئاماژه	-10.024
▁فارسی	-10.0255
▁چالاکوانی	-10.0268
▁چووە	-10.027
▁دووپات	-10.0277
▁زۆریان	-10.0278
▁شاد	-10.0284
▁نیشاندا	-10.0285
▁گیراو	-10.0286
▁ڕۆشنبیران	-10.0286
▁بڵاوکردنەوەی	-10.0291
▁یەکێکیان	-10.0294
▁شەشەم	-10.0301
اژ	-10.0301
▁بەرچاوی	-10.0304
▁جیاجیاکان	-10.0306
▁نەخشە	-10.0306
▁بریتین	-10.031
▁2005	-10.0311
▁هۆڵەندا	-10.0318
▁لەدوو	-10.0318
راوی	-10.0323
کەرەوە	-10.0324
لێن	-10.0324
▁دەگرن	-10.0327
▁میکانیزم	-10.0329
▁کەبە	-10.0335
▁هەوڵدان	-10.0338
رۆی	-10.0338
▁گەردوون	-10.0341
▁نایات	-10.0342
▁500	-10.0343
▁لەسلێمانی	-10.0348
▁دەبنەوە	-10.0351
▁وەسف	-10.0353
▁لێیان	-10.0355
زن	-10.0363
▁ڕێوشوێن	-10.0365
ەکەو	-10.0369
▁ئەکتەری	-10.0371
وڵا	-10.0372
▁ڕەگەزی	-10.0374
▁لایەنێکی	-10.038
▁بەندە	-10.038
▁ئەوەیان	-10.0382
ژمێر	-10.0383
بێر	-10.0384
▁ژینگەی	-10.0397
▁بەوەدا	-10.0401
▁زەمەن	-10.0406
▁بڕۆ	-10.0417
▁کوردایەتی	-10.0419
▁سێبەری	-10.0421
▁بۆردومان	-10.0423
▁گێڕانەوە	-10.0424
▁دادگایی	-10.0425
▁سەرچاوەکه	-10.0432
اون	-10.0433
▁شیرین	-10.0433
مێنت	-10.0435
لێر	-10.0438
es	-10.0438
▁ناوچەیەکی	-10.0441
چو	-10.0441
ابی	-10.0443
▁بەفر	-10.0446
▁سەرۆکایەتیی	-10.0447
تون	-10.0456
▁شک	-10.0457
▁ژنە	-10.0457
▁پێشەنگ	-10.0461
بەن	-10.0462
▁نەهات	-10.0463
ژین	-10.047
▁ڕۆشن	-10.0471
▁کاریان	-10.0477
شین	-10.0479
▁کرێکارانی	-10.0481
باڵ	-10.0482
▁فیکری	-10.0484
▁ئاشکرای	-10.0492
▁I	-10.0495
▁دەستوری	-10.0498
شێوە	-10.0499
▁دوایین	-10.0517
▁دروشم	-10.0522
▁خانەنشین	-10.0523
▁نوێنەر	-10.0527
▁خەڵکە	-10.0527
▁ناحی	-10.0541
▁سەردانەکەی	-10.0544
▁تەئکیدی	-10.0544
▁ئەندازیار	-10.0545
▁دەهێنن	-10.0545
▁بێزار	-10.0546
▁دادەنرێت	-10.0547
▁کۆمپانیاکان	-10.0548
▁ڕووداوە	-10.055
▁داوایان	-10.0552
▁c	-10.0554
▁هەفتە	-10.0556
▁ناس	-10.056
▁پیش	-10.0575
رات	-10.0576
▁ئاراوە	-10.0576
▁پەرست	-10.0586
▁هاوپەیمان	-10.0588
▁دامودەزگا	-10.0593
▁ڕیزی	-10.0593
▁دیالە	-10.0594
ئاس	-10.0599
▁ئاشکرایە	-10.0599
▁سەرنجی	-10.06
گان	-10.0606
▁مەح	-10.0606
▁جێگر	-10.0606
▁شیوعی	-10.0607
▁جدی	-10.0608
▁قەوارە	-10.0609
ەکێ	-10.0611
▁بەرفراوان	-10.0612
▁هەریەکە	-10.0615
▁بارەگای	-10.0616
▁F	-10.0622
▁دەرگا	-10.0622
▁بکەینەوە	-10.0627
▁وەلام	-10.0638
هاتنی	-10.0638
▁دادوەر	-10.0639
▁نەژاد	-10.064
as	-10.065
▁داناوە	-10.0652
▁بەناوبانگ	-10.0654
▁باخ	-10.0657
▁تۆمارکرا	-10.0657
▁سەلام	-10.0661
▁کەوتە	-10.0669
▁دەرباز	-10.0669
▁دیاریکردنی	-10.0673
▁ئەوەتا	-10.0675
▁کورته	-10.0679
سول	-10.0685
▁دەسەڵاتدارانی	-10.0689
▁قەبارەی	-10.0691
▁بەنزین	-10.0692
▁نییه	-10.0693
▁جیهاد	-10.0698
▁ئیخوان	-10.07
ژێ	-10.0704
▁هەڵوەش	-10.0705
▁بەرازیل	-10.0707
▁پەک	-10.0714
سەپ	-10.0715
▁حاڵەتی	-10.0718
ێنم	-10.0722
بور	-10.0723
▁یەکلایی	-10.0726
▁بازاڕی	-10.0728
▁میدیاکان	-10.0728
▁تەق	-10.0734
▁مس	-10.0737
ووم	-10.0739
ناک	-10.0741
▁ئاوەدان	-10.0745
▁هەبو	-10.0746
▁ویستی	-10.0746
▁خولەکە	-10.0748
▁پێکهاتەکانی	-10.0752
درێ	-10.0757
دوای	-10.0757
▁دەگەیەنێت	-10.0766
هەموو	-10.0766
▁پایە	-10.0767
▁بەڵێنی	-10.0769
▁وشک	-10.0769
▁کۆریای	-10.0769
▁واته	-10.077
▁قاچ	-10.0779
لال	-10.078
▁ڕستە	-10.078
دەور	-10.0782
▁دەستەڵات	-10.0783
گەیاندن	-10.0783
▁هێشت	-10.0785
▁باوەڕی	-10.0785
▁مەڵبەندی	-10.0789
▁38	-10.0803
▁ئامادەکردنی	-10.0811
▁چەمکی	-10.0812
الیزم	-10.0813
ایەوە	-10.0817
▁برادەر	-10.0817
خر	-10.0819
▁پەل	-10.0823
▁نادات	-10.0824
گرنگ	-10.0833
▁واتای	-10.0842
▁مەک	-10.0843
▁ئاوارەکان	-10.0844
▁لەبری	-10.0844
▁لەسەردەمی	-10.0852
مۆن	-10.0856
▁ئەتۆمی	-10.0857
▁شوێنەوار	-10.0859
▁سۆسیال	-10.086
▁نووسەری	-10.0861
▁بک	-10.0867
▁نەیتوانی	-10.0867
▁تەماشا	-10.0869
▁لەهەولێر	-10.0873
▁بەشێوەیەک	-10.0873
▁عەباس	-10.0877
▁ولاتە	-10.0877
▁کۆیلە	-10.0878
▁شیعەکان	-10.0883
▁تەنگ	-10.0884
کرنا	-10.0884
▁بەکوردستانی	-10.0884
▁قاسم	-10.0886
▁پەیوەندییەکی	-10.0886
▁دەڕ	-10.0888
▁کوردییەکان	-10.0889
▁سینەماکار	-10.0889
▁require	-10.0889
▁هاشمی	-10.089
▁زەر	-10.0898
ینەی	-10.0907
▁فەلسەفی	-10.0909
▁پسپۆر	-10.0912
▁تاهیر	-10.0921
▁کادر	-10.0924
▁ئازا	-10.0925
▁توانیان	-10.0928
ژێن	-10.0931
▁هۆز	-10.0933
▁دەبیت	-10.0934
▁زێڕین	-10.0938
چەک	-10.0938
▁جەژن	-10.0938
▁ڕووداوەکان	-10.0948
قل	-10.0948
▁یاساو	-10.0955
▁لەرێگەی	-10.096
▁بەوەش	-10.0962
▁بۆخۆی	-10.0963
▁ئەزمون	-10.0965
هەند	-10.0969
▁هەمیشەیی	-10.097
▁کێشەیەکی	-10.097
کەوتووە	-10.0972
▁بەدوور	-10.0972
▁ڕاستیدا	-10.0974
▁مووچەی	-10.098
▁n	-10.0985
▁کرن	-10.0987
اندنەوەی	-10.0988
▁بزانێت	-10.099
یەکیان	-10.0992
ساز	-10.0996
▁مر	-10.1003
▁37	-10.1004
کۆمەڵ	-10.1008
دەری	-10.1008
▁بڵێ	-10.1009
▁پێویستیان	-10.1017
▁دانیشت	-10.102
▁ێ	-10.1021
▁یوسف	-10.1022
▁کۆمیسیۆنی	-10.1027
ێنرێت	-10.1029
کم	-10.1032
ڤین	-10.1033
▁دووەمین	-10.1033
▁39	-10.1034
▁هزر	-10.1046
▁ڕۆژگار	-10.1048
▁ڕیش	-10.1052
▁توانیویەتی	-10.1053
▁بخوێن	-10.1054
چۆن	-10.1055
▁سیاسەتە	-10.1057
▁دۆلاری	-10.1065
▁ئاخۆ	-10.1066
▁ڕەچاو	-10.1066
▁H	-10.1071
▁ئاکامی	-10.1074
▁بەڵگەی	-10.1076
شێت	-10.1078
▁فراکسیۆن	-10.1088
▁بەشێوەی	-10.1089
▁عاشق	-10.1092
▁تۆپ	-10.1093
▁بەخێر	-10.1094
گەیشت	-10.1096
غە	-10.1097
▁ڕاهێنەر	-10.11
▁بەرمیل	-10.1106
▁ئاماده	-10.1108
▁وێنەیەکی	-10.1108
▁ویژدان	-10.1122
▁K	-10.1125
▁پاساو	-10.1127
▁پەیامی	-10.1133
▁پتەو	-10.1139
▁200	-10.1147
▁دەگوترێت	-10.115
▁جۆن	-10.1151
▁توندی	-10.1151
بدەن	-10.1152
▁تەح	-10.1155
▁کێشەیە	-10.1156
▁سامانی	-10.1163
▁دامەزراو	-10.1166
▁گەمە	-10.1168
▁ڕایانگەیاند	-10.1168
▁پێکدادان	-10.117
▁تێب	-10.1172
ئارا	-10.1174
▁لەمبارەیەوە	-10.1176
▁گەیشتە	-10.1177
________________	-10.1183
بڕین	-10.1185
▁مۆن	-10.119
▁برین	-10.1191
▁کۆنە	-10.1191
ومە	-10.1195
▁هاوشێوەی	-10.1195
گۆر	-10.1197
گواز	-10.1206
▁کەلتوور	-10.1209
▁بەسە	-10.1214
▁جەوهەر	-10.1218
▁ڕادیۆ	-10.1219
97	-10.122
▁ئاژانس	-10.1225
▁دیاردە	-10.1232
▁شیاو	-10.1234
ئەوەی	-10.1236
▁پاشەکشە	-10.1237
▁ڕەوان	-10.1238
▁بگەڕێن	-10.124
کەڵ	-10.1242
▁بەڕێوەبەر	-10.1243
دەبن	-10.1249
▁وردە	-10.1249
▁وال	-10.125
▁پەردە	-10.1256
▁ناشرین	-10.1266
▁موراد	-10.1272
راق	-10.1275
▁بەرپرسە	-10.1283
خور	-10.1289
▁شایانی	-10.1289
▁دەگات	-10.1297
▁پێیوایە	-10.13
▁نەگەیشت	-10.1301
▁فریا	-10.1301
هێڵێت	-10.1302
لیک	-10.1303
▁پێنە	-10.1304
▁هزری	-10.1305
▁ژنی	-10.1305
▁دابوو	-10.1307
بەند	-10.1309
▁بێدەنگی	-10.1315
تیژی	-10.132
▁ڕاهێنەری	-10.1322
▁وەستان	-10.1322
▁لێپرسراو	-10.1322
▁پێشکەوتنی	-10.1324
▁تکایە	-10.1328
▁دڵخۆش	-10.1337
▁ئێزدی	-10.1341
▁مانگێک	-10.1346
▁ئاغا	-10.1349
بۆچوون	-10.1359
P	-10.1363
▁نەهێشتنی	-10.1365
لاک	-10.1368
▁هەرە	-10.1371
▁ئێمەی	-10.1376
70	-10.1377
دەگرێت	-10.1378
▁یاسایە	-10.1379
▁مردنی	-10.1379
▁بارودۆخە	-10.1384
▁هاوکێشە	-10.1387
▁ئاماژەیه	-10.1392
تیڤ	-10.1393
▁خراپە	-10.1395
ic	-10.1401
▁زۆرە	-10.1402
ژەن	-10.1402
▁پەیمانگا	-10.1403
▁لاوی	-10.1403
▁داخراو	-10.1406
▁وابوو	-10.1407
▁وزەی	-10.141
لاف	-10.1414
▁زیاتری	-10.1423
▁وەلا	-10.1423
▁شتەکان	-10.1429
▁چینایەتی	-10.1432
▁پرۆژەی	-10.1433
▁تابلۆ	-10.1438
▁خەت	-10.1441
▁یۆنان	-10.1445
▁تیۆری	-10.1445
▁فێ	-10.1446
▁ئینسانی	-10.1447
▁پێدەچێت	-10.1448
▁گرووپی	-10.1451
▁ئەڵ	-10.1451
▁نیشانەی	-10.1451
▁سعودی	-10.1453
▁سەرتاسەری	-10.1465
▁ئارەزوو	-10.1468
▁هاندەر	-10.147
ڵێت	-10.1471
▁We	-10.148
ماف	-10.1488
▁لەلایەک	-10.1488
▁خواستی	-10.1491
▁بناغەی	-10.1492
کور	-10.1495
▁ماندوو	-10.1496
▁دەرببڕیت	-10.1497
▁دیمانە	-10.1505
▁بەرهەمەکانی	-10.1509
▁گرنگترین	-10.1509
▁وێنا	-10.1514
▁شەم	-10.1525
بۆوە	-10.1527
▁تیر	-10.1529
▁بۆند	-10.153
▁سەرەکیی	-10.1537
▁ڕەخنەگر	-10.1537
▁ڕۆژنامەنووسی	-10.1539
▁بەهێزی	-10.154
▁95	-10.154
▁توێژینەوەی	-10.1542
▁فیدراڵی	-10.1546
▁سەقامگیری	-10.155
عل	-10.1558
▁کۆنسێرت	-10.156
ئاوا	-10.1561
▁بڵاوی	-10.1561
▁بینینی	-10.1563
▁گەورەو	-10.1568
▁نامەی	-10.1571
▁هۆڵ	-10.1571
▁بەپێ	-10.1573
▁هەناردە	-10.1575
▁فۆ	-10.1575
D	-10.1583
تێر	-10.1587
▁پان	-10.1587
▁پیرۆزی	-10.1591
▁جێبەجێکردن	-10.1591
▁کەڵک	-10.1593
اهی	-10.1596
▁سەندیکای	-10.1606
▁کرێکاری	-10.1608
▁عێراقییەکان	-10.1609
▁نمایشی	-10.1612
▁دادپەروەری	-10.1616
▁1991	-10.1624
▁بیروبۆچوونی	-10.1627
▁لێکرد	-10.163
▁لێدوانێکدا	-10.1631
▁ناوچه	-10.1632
▁48	-10.1634
▁کۆنگرەیەکی	-10.1635
▁تیادا	-10.1636
▁دەزانی	-10.1639
▁لێبوردن	-10.1639
▁ڕادیۆی	-10.1639
▁ئێن	-10.1641
▁کاردانەوەی	-10.1643
▁کۆلێژ	-10.1646
▁منداڵانی	-10.1646
▁کاتەدا	-10.1652
گران	-10.1663
کردو	-10.1665
رج	-10.1672
گەرم	-10.1679
▁هاتوون	-10.1681
▁دەروازەی	-10.1684
کراوەکان	-10.1685
▁سوار	-10.169
محەمەد	-10.1693
▁دانیشتووان	-10.1693
▁قەڵا	-10.1695
تیک	-10.17
▁مانەوە	-10.17
▁نمونەی	-10.1701
▁چێژ	-10.1703
▁90	-10.1703
▁کتێبە	-10.1707
▁کەئەو	-10.1709
▁ڕۆژنامەگەری	-10.1714
رێژ	-10.1717
▁ئەخلاقی	-10.1718
▁کێشا	-10.1719
▁خانەوادە	-10.1722
ur	-10.1728
▁نەم	-10.1729
▁کردۆتە	-10.1729
هام	-10.173
▁کەمپ	-10.1731
▁بەشداریکردن	-10.1733
▁ڕێبین	-10.1739
▁نووسینگەی	-10.1741
اکی	-10.1741
ماو	-10.1744
▁فێری	-10.1746
▁لێدە	-10.1749
▁ئیل	-10.1754
چارە	-10.1756
▁ئاوەدانکردنەوە	-10.1759
▁مامۆستایانی	-10.176
▁گەش	-10.176
▁الا	-10.1761
▁گی	-10.1762
گراف	-10.1762
▁لەهەڵبژاردن	-10.1763
▁ناڤ	-10.1768
▁b	-10.1771
بوار	-10.1773
▁وەڵامێک	-10.1775
▁مح	-10.1776
خەو	-10.1777
▁بابەتانەی	-10.1782
▁قەیرانە	-10.1783
▁ڕووداوی	-10.1784
نەوەو	-10.1786
▁لەوبارەیەوە	-10.1787
▁٢	-10.1788
▁گەشەپێدانی	-10.1789
▁بچێتە	-10.1791
▁شتە	-10.1791
▁یاداشت	-10.1792
▁تاوانە	-10.1794
پان	-10.1796
▁هەواڵگری	-10.1803
▁دەهات	-10.1803
▁بیرۆکەی	-10.1811
▁بەرێوەبەری	-10.1813
▁ئەوەبوو	-10.1815
قەت	-10.1815
تەو	-10.1816
ێنێتەوە	-10.1817
▁بانک	-10.1821
▁زەرد	-10.1823
پاک	-10.1826
▁زوڵم	-10.1828
▁43	-10.1828
▁سەرکردەکانی	-10.1835
▁نەخ	-10.1835
▁زێ	-10.184
▁بەڕێوەبردنی	-10.1845
بەستن	-10.1857
▁هەنگاوێکی	-10.1858
st	-10.1861
است	-10.1862
▁بۆشایی	-10.1865
سەرۆک	-10.1865
▁فرۆکە	-10.1872
▁ڕایگەیاندووە	-10.1874
▁کشانەوەی	-10.1876
▁بەیەکەوە	-10.1879
▁دەکرێتەوە	-10.188
▁زەنگ	-10.188
▁ئاڵای	-10.1882
▁لیژنە	-10.1884
▁نووسراوە	-10.1887
▁نوسراو	-10.189
▁فەرمانگەی	-10.1893
▁چۆڵ	-10.1893
زمان	-10.1894
▁یەکەمجار	-10.1894
▁حەیدەر	-10.1901
▁کەشتی	-10.1902
▁الل	-10.1904
O	-10.1905
▁ماڵپەر	-10.191
▁گیر	-10.1913
▁42	-10.1918
▁لایەنگرانی	-10.1921
▁خزمەتگوزاریی	-10.1923
▁سیستەم	-10.1924
▁غەریب	-10.1925
▁دەولەت	-10.1927
▁دەبینن	-10.1937
▁بتوانین	-10.1937
▁دیکتاتۆری	-10.1938
دری	-10.1951
▁هاوپەیمانیی	-10.1951
▁فەرموو	-10.1953
سپێر	-10.1956
▁سەند	-10.1957
▁ئاستێکی	-10.1965
▁مردوو	-10.1967
▁باخچە	-10.1969
نرخ	-10.1974
خش	-10.1974
▁ڕەوای	-10.1975
▁ژیانێکی	-10.1976
▁اڵا	-10.1981
▁فرۆشتنی	-10.1982
▁قاعیدە	-10.1982
▁شانۆیی	-10.1983
▁ڕکابەر	-10.1986
کوت	-10.1991
▁ببن	-10.1991
▁حەقیقەت	-10.1992
▁شەرەف	-10.1994
▁وەفدی	-10.1998
تەمەن	-10.1999
▁دەربڕی	-10.2001
▁قسەکانی	-10.2006
▁ماچ	-10.2015
▁تونس	-10.2022
▁نەخشەی	-10.2024
▁پێست	-10.2028
x	-10.203
▁نەیانتوانی	-10.203
▁ڕادەیەک	-10.203
گرێ	-10.2031
▁باڵیۆز	-10.2034
▁گەشەی	-10.2037
▁گوشار	-10.2038
▁دەستیپێکرد	-10.2041
بەخت	-10.2042
▁ئەبێ	-10.2042
▁پشوو	-10.2045
▁گەوره	-10.2048
ۆلۆجی	-10.2051
گاکان	-10.2052
▁سەرچاوەکانی	-10.2055
▁یەکلا	-10.2056
▁دەنا	-10.2063
▁لوتکە	-10.2063
▁تەقەمەنی	-10.2065
▁بێکاری	-10.2067
ردو	-10.2068
زین	-10.2077
▁فەرمانڕەوا	-10.2083
▁سەما	-10.209
دەکەم	-10.2091
▁ڕەحمان	-10.2092
▁ژاپۆن	-10.2094
▁خەریکە	-10.2097
وویەتی	-10.2097
▁بارودۆخ	-10.21
▁پەت	-10.2101
▁عێراقەوە	-10.2102
▁لەکەرکوک	-10.2103
▁حکوومەتە	-10.2108
ژم	-10.2109
بیست	-10.2112
▁لەعێراق	-10.2115
▁ژیر	-10.2115
▁کۆنفرانسی	-10.2118
▁دەڕوات	-10.2121
ێندراو	-10.2122
▁ئاشکرایکرد	-10.2124
▁ڕاسپارد	-10.2125
▁نەتەوەیەک	-10.2125
▁ڕیز	-10.2128
▁گەیشتوو	-10.2129
▁کەمپین	-10.2129
▁جارە	-10.213
▁ماو	-10.2135
▁دووشەممە	-10.2138
ئاگا	-10.2142
▁هەفت	-10.2143
گەیشتن	-10.2151
بونەوە	-10.2152
▁کۆنترۆڵکردن	-10.2155
▁دەمێنێتەوە	-10.216
▁دەستگیرکردنی	-10.2164
▁تیشک	-10.2166
کل	-10.217
▁جۆره	-10.2173
▁ترسی	-10.2179
▁بوارە	-10.2182
▁جودا	-10.2182
▁ئۆر	-10.2184
▁هەڵوێستە	-10.2186
▁شۆفێر	-10.2188
▁}	-10.219
▁مەیدان	-10.2194
▁ژنێک	-10.2194
▁سیما	-10.2195
▁بازنەی	-10.2195
▁قوتابخانەی	-10.2198
▁وایه	-10.22
▁گوزارشت	-10.2206
▁شێرکۆ	-10.2209
▁d	-10.2217
▁بوارەکانی	-10.2219
▁فەلسەفەی	-10.222
▁منداڵەکان	-10.2224
▁{	-10.2224
کارانی	-10.2226
▁دەرهێنەری	-10.2226
پەرلەمان	-10.2227
▁ڕۆژنامەوانیدا	-10.2235
▁توڕە	-10.2237
▁خەرجی	-10.2239
▁ڕەو	-10.224
▁شوو	-10.2241
▁نیوە	-10.2247
▁کش	-10.2249
▁بەهەشت	-10.2249
خراو	-10.225
▁دەیەوێ	-10.225
▁مەسەلەیە	-10.2251
▁نووس	-10.2254
▁عێراقیش	-10.2265
▁لەپێناوی	-10.2265
وڵاتانی	-10.2266
▁ولاتانی	-10.2268
انەیان	-10.2272
▁نیگەران	-10.2272
▁تاڵ	-10.2274
مەد	-10.2281
▁موع	-10.2284
پێچ	-10.2288
▁بگەڕێ	-10.2296
لاوە	-10.2297
▁ساختە	-10.2304
▁نووسراو	-10.2304
▁هەنگاوە	-10.2309
▁باڵی	-10.2311
▁بازرگان	-10.2313
▁کەوتنە	-10.232
ra	-10.232
خوێندن	-10.2321
▁باراک	-10.2329
▁نەداوە	-10.2332
▁گەشتیاری	-10.2336
▁ئازاری	-10.2336
▁زانین	-10.2338
▁شکستی	-10.2339
▁بەشەکانی	-10.234
▁یاخی	-10.2345
▁ڕۆشنبیریی	-10.2345
▁لایەنه	-10.2345
▁مەبەستەش	-10.2347
▁کرابوو	-10.2352
▁ناتوانێ	-10.2353
▁پڕۆژەکان	-10.2356
▁هەبوونی	-10.2357
▁موچە	-10.236
▁ڕەها	-10.2366
▁دروستکراو	-10.2366
▁بژی	-10.2366
▁بەرپا	-10.2368
مدا	-10.2368
▁دەرکردنی	-10.2368
▁بەکر	-10.2371
▁ناوچەکەدا	-10.2373
▁وەرز	-10.2374
▁شکاو	-10.2378
▁چاوەڕێی	-10.2381
▁ڕوویدا	-10.2389
ۆلۆژی	-10.2389
بگرێت	-10.2393
گەکانی	-10.2399
▁44	-10.2399
▁لەپشت	-10.2402
▁پێدەکات	-10.2403
▁یێ	-10.2405
▁کیمیاباران	-10.2406
▁چۆمان	-10.2409
دەکەوێت	-10.2409
▁سوودی	-10.2412
▁ئەوروپی	-10.2416
▁کەلتور	-10.2417
▁شاندێکی	-10.2418
▁یەکەی	-10.2418
▁تازەی	-10.2419
▁لەمیانەی	-10.2422
▁سندوق	-10.2422
▁نەوە	-10.2423
وێر	-10.2425
▁لەنزیک	-10.2429
▁گلەیی	-10.2433
▁ڕێگر	-10.2435
▁پارێزگار	-10.2436
▁باڵەک	-10.2438
▁دەرکرد	-10.2438
▁نیشتەجێبوون	-10.2438
▁ئەستۆ	-10.2439
▁کارێک	-10.244
▁41	-10.2441
▁لق	-10.2441
▁حکومەتەکەی	-10.2443
▁یانەکانی	-10.2444
▁نزم	-10.2444
▁دوچاری	-10.2445
▁بینیوە	-10.2447
▁یاساکە	-10.2449
▁ناسنامەی	-10.2449
▁کۆنتڕۆڵ	-10.245
▁جەلەولا	-10.2454
▁نوێیە	-10.2455
▁داوه	-10.2456
▁ببنە	-10.2468
▁ڕووبار	-10.2469
حمد	-10.2474
▁کردوون	-10.2478
بز	-10.2486
▁هونەرمەندانی	-10.2488
▁ئۆپ	-10.2493
▁مێر	-10.2495
▁ئێمەدا	-10.2496
▁بڕیاره	-10.25
▁ئالان	-10.2501
▁مەلە	-10.2504
▁دەوڵەتە	-10.2507
▁پاریس	-10.2507
▁ناش	-10.2508
▁ئاڵۆزی	-10.2512
▁ڕووناکبیر	-10.2514
▁ئاستە	-10.2519
یەکێتی	-10.2524
▁55	-10.2524
راوەکان	-10.2531
▁خەڵ	-10.2532
I	-10.2533
▁زەمان	-10.2534
▁دانیشتوان	-10.2536
▁دەیانەوێ	-10.2538
گەیەکی	-10.254
کێشان	-10.2542
▁کەسیش	-10.2543
▁هەژاری	-10.2552
▁بگەن	-10.2552
▁کولتووری	-10.2553
پۆل	-10.2554
▁سەلاحەددین	-10.2555
▁ڕۆمانی	-10.2555
▁R	-10.2556
▁بیانوو	-10.2559
▁شەممه	-10.2559
▁کارکردنی	-10.2561
▁سویسرا	-10.2563
▁کۆل	-10.2566
▁ناسراوە	-10.257
▁مەراسیم	-10.2574
▁بێبەش	-10.2577
▁عادل	-10.2584
▁بۆچون	-10.2589
▁ڕەوت	-10.2589
▁هێل	-10.259
▁چێ	-10.259
▁باشترە	-10.2593
▁کاراکتەر	-10.2595
▁خزم	-10.2597
▁داگیرکەر	-10.2605
▁ببینێت	-10.2607
▁چەندە	-10.261
▁بەهای	-10.2612
▁بەڵکوو	-10.2614
▁پڕۆژەیە	-10.2618
▁ڕەسوڵ	-10.262
▁هەواڵێکی	-10.2622
ریت	-10.2622
▁خاو	-10.2623
▁بەرپرسێکی	-10.2624
▁پێچەوانە	-10.2624
▁هەندێ	-10.2626
▁لەخۆی	-10.2633
پەیوەندی	-10.2633
▁ئینتەرنێت	-10.2638
▁نیوەی	-10.2642
▁سێکسی	-10.2642
کراوەتەوە	-10.2643
▁بوونەتە	-10.2645
إ	-10.265
▁بگات	-10.2651
سوڕ	-10.2652
▁ئەفسانە	-10.2652
ریک	-10.2654
▁قۆناغێکی	-10.2657
کۆتا	-10.2659
▁هاته	-10.2668
▁دۆزرا	-10.2669
▁سەرهەڵدانی	-10.2671
چوار	-10.2677
▁هیوادارم	-10.2678
▁مون	-10.268
▁شتانە	-10.2683
▁لەڕێی	-10.2684
▁ڕوی	-10.2685
▁بووبێت	-10.2685
▁پرسیارێک	-10.2688
▁ئیئتیلافی	-10.2697
▁پێوەندی	-10.27
▁قوربانیانی	-10.27
▁سێکس	-10.2702
ەندی	-10.2703
▁گەڕەکی	-10.2703
87	-10.2711
▁بەهاو	-10.2711
بول	-10.2711
▁کەلوپەل	-10.2716
▁ئان	-10.2718
لیستی	-10.2719
▁هاوچەرخ	-10.2723
▁تۆمارکرد	-10.2723
▁ئەوسا	-10.2728
▁میت	-10.2738
▁کۆبونەوەی	-10.2743
▁هەندێکیان	-10.2744
▁کێشانە	-10.2745
▁هەور	-10.2745
گرم	-10.275
▁موحەمەد	-10.2751
▁ئاسانی	-10.2756
ەرز	-10.276
مبەر	-10.2768
▁پەنجا	-10.2769
▁htm	-10.277
▁نەخێر	-10.2772
▁نێوانیان	-10.2773
▁لێب	-10.2776
خانەکان	-10.278
▁بیرکردنەوەی	-10.2784
▁کاندیدی	-10.2784
▁بانکی	-10.2788
▁سوکایەتی	-10.279
▁ئەح	-10.279
لیل	-10.2792
▁خواردنەوە	-10.2797
کانمان	-10.2797
▁داوەت	-10.2798
▁کەمتەرخەم	-10.2807
▁کایە	-10.2811
▁لەدەستدا	-10.2814
▁ئیر	-10.2817
▁جاری	-10.2818
▁سیاسیەکانی	-10.2818
▁لەشار	-10.2818
▁چوارشەممە	-10.282
▁مامە	-10.2829
▁نیوز	-10.2831
ri	-10.2833
▁تیشکی	-10.2835
▁لەزۆر	-10.2838
▁هەردو	-10.2839
▁کوێت	-10.284
دەوڵەت	-10.2847
▁کەنار	-10.285
▁مەکەن	-10.2852
ئومێد	-10.2853
شەڕ	-10.2855
▁کۆیە	-10.2856
▁بڵێت	-10.2862
▁بخەنە	-10.2863
▁زاراوە	-10.2863
▁پەیوەندیدارەکان	-10.2867
▁لەچاو	-10.2869
▁تەڵ	-10.2876
ێنیت	-10.2876
▁تاکی	-10.2879
بڕاو	-10.2879
ووش	-10.2882
▁نامێنێت	-10.2883
کەمان	-10.2883
▁پەیوەند	-10.2886
▁عەبد	-10.2887
▁دامەزراندن	-10.2888
▁پێگە	-10.2888
▁خور	-10.2891
گرتوو	-10.2892
▁ڕایدەگەیەنێت	-10.2894
▁ڕاستگۆ	-10.2894
▁خستۆتە	-10.2895
▁وڵاتێک	-10.2901
▁بەکۆمەڵ	-10.2902
▁هەول	-10.2905
▁تەماشای	-10.2907
▁ذ	-10.2908
▁46	-10.2908
ڤاڵ	-10.2909
خس	-10.2914
▁بوش	-10.2917
▁ئیدانە	-10.2918
▁تۆڕی	-10.2919
▁ئەشکەنجە	-10.2925
منداڵ	-10.2928
ۆف	-10.293
▁ئەرکە	-10.293
رابوو	-10.2931
▁هێزو	-10.2931
▁هونەریی	-10.2932
▁مێز	-10.2939
▁زەحمەت	-10.2942
▁مەلی	-10.2944
چەسپ	-10.2956
▁ئەنجامدرا	-10.2964
▁وریا	-10.2969
▁فیدرال	-10.2969
▁ڕێزگرتن	-10.2976
▁داواکراو	-10.2978
ڕەنگ	-10.298
R	-10.2984
▁بینای	-10.2986
▁قایمقامی	-10.2986
تەواو	-10.299
▁ڕانیە	-10.3003
▁هاتۆتە	-10.301
▁درەنگ	-10.301
پرسی	-10.3015
▁دەگەڕێن	-10.3016
▁ماڵەوە	-10.3019
▁یەمەن	-10.3023
▁تاوانەکانی	-10.3026
▁گێڕا	-10.3026
▁هاتووچۆ	-10.3027
▁زلهێز	-10.3028
▁لەپاش	-10.3029
▁دەشڵێت	-10.3033
▁کەنداو	-10.3042
▁بازار	-10.3051
▁کرانەوە	-10.3055
▁سەرژمێری	-10.3058
▁هیند	-10.3064
▁ئۆجالان	-10.3068
▁مۆدێل	-10.3068
▁دڵشاد	-10.3071
▁کاربەدەس	-10.3074
▁بۆتەوە	-10.3076
▁دەستگیرکراو	-10.3077
ەمەنی	-10.308
▁چالاکوان	-10.3081
▁دۆر	-10.3083
▁ناتۆ	-10.3084
خستنەوەی	-10.3084
▁چەمچەماڵ	-10.309
▁تۆڵە	-10.3101
درێژ	-10.3103
▁چرکە	-10.3104
▁هاوین	-10.3104
▁ماوەتەوە	-10.3105
▁دەک	-10.3106
▁لەڕێگای	-10.3108
▁شایستە	-10.3116
▁ڕووداوەکە	-10.3118
▁کلیپ	-10.3119
▁پێموایە	-10.3119
▁موچەی	-10.3119
▁وەردەگرێت	-10.312
▁کارمەندانی	-10.3123
▁هەڵبژاردنە	-10.3123
بژاردن	-10.3125
▁نوسی	-10.3126
▁49	-10.3133
▁چەواشە	-10.3137
▁بێجگە	-10.314
▁نیم	-10.3141
چۆ	-10.3143
T	-10.3145
وتن	-10.3146
نییە	-10.3148
▁L	-10.3148
▁دڵنیایی	-10.3153
▁شاند	-10.3155
نامەیەک	-10.3155
▁ڕۆژنامەوان	-10.3156
▁بزووتنەوە	-10.3156
▁تەکنیکی	-10.3165
▁دەتوانرێت	-10.3167
▁هەڵمەتی	-10.3169
▁مەزهەبی	-10.3171
تیکی	-10.3173
▁پۆڵ	-10.3174
▁گۆڵی	-10.3174
▁هەڵس	-10.3175
▁یاریدەدەر	-10.3176
▁عەبدولڕەحمان	-10.3178
▁47	-10.3184
▁مارس	-10.3184
▁مۆڵەتی	-10.3185
▁بەردەست	-10.3186
▁ڕوویان	-10.3186
▁بەتاڵ	-10.319
سام	-10.3196
ماڵی	-10.3196
▁پێکهاتووە	-10.3198
▁جەبار	-10.3207
▁f	-10.3208
میل	-10.321
▁لەکوردستاندا	-10.321
▁شێر	-10.3213
▁کۆبونەوە	-10.3216
▁بەوەشدا	-10.3216
▁نەوەک	-10.3216
▁لاوازی	-10.3217
▁ئێستە	-10.322
▁بڵاودەکرێنەوە	-10.3221
▁عەلمانی	-10.3223
▁گەندەڵ	-10.3226
▁دل	-10.3227
▁ناتوانین	-10.3232
▁نیوەڕۆ	-10.3232
ساید	-10.3238
عد	-10.3249
▁ناکەم	-10.325
▁خواردنی	-10.3252
▁فیدراسیۆن	-10.3252
▁کوردانی	-10.3254
▁دنیادا	-10.3255
▁وڵاتان	-10.3258
▁گل	-10.3266
بەیاننامە	-10.3268
دەبێتەوە	-10.3271
بۆتەوە	-10.3272
جر	-10.3284
▁نەتەوایەتی	-10.3286
▁سیاسەتمەدار	-10.3286
▁فەرهاد	-10.3293
▁الح	-10.3298
شەم	-10.3299
▁کەموکوڕی	-10.3302
ئین	-10.3303
▁چل	-10.3307
▁پێت	-10.3307
▁بەهێزتر	-10.331
▁گواست	-10.3311
▁بەئامادەبوونی	-10.3311
▁بڕە	-10.3314
▁خەریک	-10.3314
باو	-10.3316
▁شێوەکاری	-10.3318
id	-10.3319
▁فەرامۆش	-10.332
▁پیاوانی	-10.3326
▁ئەوانی	-10.3326
▁گور	-10.3327
▁دەستدرێژی	-10.3331
▁وردەکاری	-10.3336
▁a	-10.3336
▁گەمارۆ	-10.3336
▁تەوافوق	-10.3341
▁ئەستۆی	-10.3341
▁کلاسیک	-10.3343
▁سۆسیالیست	-10.3346
▁جیاوازە	-10.3347
▁هەشتەم	-10.3348
▁یۆ	-10.3353
▁بگاتە	-10.336
▁یەکەمیان	-10.3362
▁مەبەستم	-10.3363
▁شەقامەکان	-10.3367
▁ڕەوشت	-10.338
▁الن	-10.3381
▁وەربگرن	-10.3384
▁بارەگا	-10.3386
▁کارەساتی	-10.3389
▁پارەیە	-10.3389
▁تەرم	-10.3398
بوور	-10.34
▁لێکرا	-10.3405
▁مناڵ	-10.3406
▁ئەقڵ	-10.3409
▁بەهاوکاری	-10.341
▁موو	-10.3414
سیاسەت	-10.342
▁بڵێی	-10.342
▁دانراوە	-10.3422
▁قوڕ	-10.3423
▁شەرعی	-10.3423
▁ڕەنج	-10.3423
▁بەتوانا	-10.3425
▁تەل	-10.3433
▁کۆنەپەرست	-10.3434
ژو	-10.3434
▁لەشکری	-10.3435
فات	-10.3442
▁خستنە	-10.3445
▁زێباری	-10.3447
▁جگەرە	-10.3448
▁کۆبوونەوەیەکی	-10.3451
▁ئارەزووی	-10.3455
▁تەلەفزیۆنی	-10.3456
▁بەتەنیا	-10.3461
yahoo	-10.347
▁پاڵێوراو	-10.347
▁بەرێ	-10.3475
▁لێکدانەوەی	-10.3475
▁ناردنی	-10.3476
▁بمێنێتەوە	-10.348
▁واشنتن	-10.3481
▁هاوسەرگیری	-10.3483
گه	-10.3484
▁ماسی	-10.3489
▁دەستخۆشی	-10.3491
▁بەرزنجی	-10.3492
▁باشور	-10.3492
▁زیادکردنی	-10.3492
▁گۆڕەپانی	-10.3492
▁m	-10.3499
▁نەناسراو	-10.35
سور	-10.35
▁چار	-10.3507
▁عبدال	-10.3513
▁هەژاند	-10.3514
▁بزوتنەوە	-10.3514
▁نازانێت	-10.3516
▁ناویان	-10.3518
▁زمانە	-10.3524
▁کوردستانییەکان	-10.3525
▁بەدەستهێنا	-10.3526
▁ئاک	-10.3527
▁بەدرێژایی	-10.3532
▁کەوتن	-10.3534
▁کراوەتەوە	-10.354
خزمەت	-10.3541
▁حەس	-10.3542
▁مەریوان	-10.3545
▁دروشمی	-10.3547
▁فیلمەکە	-10.355
▁خەیاڵی	-10.3559
▁یەکشەممە	-10.356
▁هەژمار	-10.3562
▁مۆسیقا	-10.3563
دەخرێ	-10.3565
دەدرێت	-10.3567
▁دەوروبەر	-10.357
▁دەوڵەتێکی	-10.3577
▁150	-10.3582
▁بخرێتە	-10.3584
رایەوە	-10.3586
ad	-10.3586
▁جیاوازیی	-10.3588
بکرێتەوە	-10.3589
▁خەلیل	-10.3592
▁گۆشت	-10.3598
▁تێکۆشەر	-10.36
نەکردنی	-10.3602
▁هار	-10.3605
▁یۆرۆ	-10.361
▁هەورامی	-10.3611
▁سەربەست	-10.3611
▁پارێزراو	-10.3618
▁G	-10.3621
▁جیاجیا	-10.3622
▁بنەماکانی	-10.3623
▁بڕیارێکی	-10.3624
بکەنەوە	-10.3626
▁ڕەق	-10.363
▁بەپێچەوانەوە	-10.3635
▁مەزهەب	-10.3637
▁مەع	-10.3639
▁ڕێکخراوێکی	-10.3639
▁53	-10.3645
▁کامیل	-10.3647
▁سەرەنجام	-10.3655
▁گێر	-10.3656
▁ڕاگەیاندووە	-10.3662
▁52	-10.3673
▁گوێبیس	-10.3674
تنەوەی	-10.3676
ئاو	-10.3678
▁بەشداریکردنی	-10.3678
▁خەس	-10.3679
▁سەرپەرشتیاری	-10.3681
▁سەڵاح	-10.3683
▁ئەوانەش	-10.3685
▁کێبڕکێ	-10.3687
گەیەنن	-10.3687
▁51	-10.3692
▁فرمێسک	-10.3697
▁ڕاگەهاند	-10.3697
تس	-10.3708
▁کراوه	-10.3712
▁وێنەگری	-10.3713
▁موبارەک	-10.3713
▁شارو	-10.3718
▁کامەران	-10.3723
▁خاڵێکی	-10.3725
▁لەبەرژەوەندی	-10.3725
▁بنچینەی	-10.3725
خاتە	-10.3726
▁قازانج	-10.373
ٍ	-10.3732
ژێر	-10.3736
▁ئەند	-10.3737
بخرێت	-10.3747
▁لەپەرلەمانی	-10.3747
▁مانگانە	-10.3749
▁نازناوی	-10.3749
▁هاریکاری	-10.3752
▁سیستەمە	-10.3757
▁کاس	-10.3757
▁لێپرسینەوە	-10.3759
▁مانگرتن	-10.3761
کتۆر	-10.3762
▁مۆڵەت	-10.3764
▁وەخت	-10.3766
عەلی	-10.377
ئیس	-10.3771
▁مێژوی	-10.3772
▁هەنووکە	-10.3773
el	-10.3773
▁کوێر	-10.3777
▁میلیشیا	-10.3782
▁300	-10.3785
▁اب	-10.3788
▁تەرمی	-10.3789
▁شوناس	-10.379
▁بەدیهێنانی	-10.3794
▁سالار	-10.38
▁سعودیە	-10.38
ێنرا	-10.3805
▁ژیانیان	-10.3813
لاند	-10.3818
▁بۆسەر	-10.3819
▁پەروەر	-10.3819
▁w	-10.382
▁لەبەرئەوە	-10.3821
▁کتێبخانە	-10.3827
یمی	-10.3829
▁نوس	-10.3831
▁کاڵ	-10.3838
E	-10.3839
▁بەکاری	-10.3841
گیان	-10.3842
▁یەکیەتی	-10.3843
سترا	-10.3846
▁دیل	-10.3847
▁لەوانەش	-10.3854
▁ناودار	-10.386
▁ڕۆژنامەنوسان	-10.3861
▁بەهرۆز	-10.3864
▁جوو	-10.3867
▁باپیر	-10.3867
▁پێکەنین	-10.3869
▁شێرپەنجە	-10.3874
دەچێت	-10.3876
▁وڵاتەکە	-10.3881
▁بەتایبەتیش	-10.3882
▁بەخش	-10.3886
اتۆر	-10.3887
▁داواکاریی	-10.3891
▁خوێندنگە	-10.3891
▁کیلۆمەتر	-10.3895
▁زانکۆکان	-10.3897
▁گفتوگۆیەک	-10.3916
دۆست	-10.3917
▁سروود	-10.3919
▁حاڵەتە	-10.3921
قر	-10.3924
▁ناشیرین	-10.3924
▁باکور	-10.3934
ظ	-10.3936
دەکەنەوە	-10.3937
▁پێشهات	-10.3939
▁لۆژیک	-10.3941
بژارد	-10.3948
▁بەکوردی	-10.3949
▁خانەی	-10.3953
هاتن	-10.3957
▁خانە	-10.3961
▁ئۆکتۆبەر	-10.3963
▁سایەی	-10.3963
ەکانتان	-10.3965
▁داهاتو	-10.3966
▁هاوسەری	-10.3968
▁لەئاستی	-10.3974
▁پاراستن	-10.3981
ol	-10.3986
▁کۆشکی	-10.3987
sh	-10.3989
▁54	-10.3992
دەکرد	-10.3993
▁ئاژاوە	-10.3993
▁ئیتالی	-10.3995
▁گڵ	-10.3996
▁کردنەوە	-10.4
▁دەکاتە	-10.4003
▁جگه	-10.4005
لەر	-10.4007
▁56	-10.4008
▁ڕووخانی	-10.4011
▁قبووڵ	-10.4012
▁پێشتریش	-10.4016
▁خولەکی	-10.402
▁لێهاتوو	-10.4023
کردبوو	-10.4026
▁دروستکرد	-10.4026
▁بەڵگەنامە	-10.4027
▁گەلە	-10.4028
ریز	-10.4031
▁حەوتەم	-10.4032
▁بیروباوەڕ	-10.4034
▁ئۆرگان	-10.4037
▁خزمەتکردنی	-10.4043
▁بەختەوەر	-10.4049
▁دەکەینەوە	-10.4053
▁خانمە	-10.4056
بیا	-10.4057
توون	-10.4059
▁ئەستەم	-10.4062
▁ناکەین	-10.4064
▁مەڕ	-10.4068
▁بەهار	-10.4069
▁حاڵ	-10.4069
دەس	-10.4071
▁دەمهەوێت	-10.4076
▁مۆبایل	-10.4078
مەرگ	-10.4079
دۆخ	-10.4082
▁بونیاد	-10.4083
▁ببێتەوە	-10.4092
▁پەرتووک	-10.4093
▁جاش	-10.4095
▁نەشتەرگەری	-10.4095
نووسین	-10.4098
▁تەندروست	-10.4101
▁حاڵی	-10.4102
▁ئەمیر	-10.4113
▁کریست	-10.4119
▁یارییە	-10.4121
▁پیشەیی	-10.4121
▁ڕێککەوتننامەی	-10.4122
▁ئاڵا	-10.4124
▁هاوسەنگی	-10.4126
▁هێرشەکانی	-10.4127
١	-10.4127
▁بەیاننامەکە	-10.4135
▁ڕۆیشت	-10.4138
▁دڕندە	-10.4139
▁سەگ	-10.4146
▁وێنەگرتن	-10.4149
▁ڕۆڵە	-10.4149
▁تەکنەلۆژیا	-10.415
▁ئۆسکاری	-10.4153
▁دەنگیان	-10.4153
▁بهێنە	-10.4159
▁خۆشیان	-10.4159
▁هەردەم	-10.4161
▁بڕێک	-10.4161
▁فەتاح	-10.4165
▁جیابوونەوە	-10.4167
▁سوێند	-10.4167
ئێمە	-10.4173
▁دەنووسن	-10.4173
ێوه	-10.4174
▁ڕێسا	-10.4175
▁مەگەر	-10.4176
▁پەسند	-10.4184
▁شەخسی	-10.419
بەڕ	-10.419
▁ئامانجە	-10.4194
ئامادە	-10.4196
باب	-10.4199
▁پله	-10.4201
▁زۆریش	-10.4202
▁کێڵگ	-10.4202
▁ڕیزەکانی	-10.4207
▁بەسەرۆکایەتی	-10.4207
▁زۆربەیان	-10.4208
▁فریاکەوتن	-10.4208
▁57	-10.4211
▁عارف	-10.4212
▁ڕوونیشیکردەوە	-10.4213
▁دەبینرێت	-10.4216
▁دەبینی	-10.4217
▁لەناوبردنی	-10.4218
▁بابەتێکی	-10.4219
▁تەها	-10.422
▁تاقم	-10.422
▁بروسک	-10.4223
▁نابن	-10.4223
▁بوارەدا	-10.4223
▁نۆر	-10.4225
▁گەڵا	-10.4226
▁ناوبانگ	-10.4226
▁چالاکییەکانی	-10.4236
گرە	-10.4236
▁دەنگدەران	-10.4237
کەوێ	-10.4246
▁بەهێزکردنی	-10.4253
سکۆ	-10.4255
هەندێک	-10.4256
▁ئاماژەشی	-10.4257
▁یاساکانی	-10.4265
▁بوێر	-10.4265
▁شکۆ	-10.4267
▁پڕۆژەیەک	-10.4272
▁دۆسی	-10.4276
Comment	-10.4277
خوڕ	-10.4278
وتار	-10.428
▁ئایدیۆلۆژی	-10.4284
▁پوور	-10.4285
▁ئاوڕ	-10.4289
هەردوو	-10.429
▁ئازادکردنی	-10.4291
▁gu	-10.4293
لەبەر	-10.4297
▁دەبێ	-10.4299
▁زەردەشت	-10.43
▁بەربەست	-10.4301
▁هاوولاتی	-10.4301
▁هەردووکیان	-10.4301
▁ناڕازی	-10.4302
▁بەرێوەچوو	-10.4303
▁ڕێکخراوەکان	-10.4313
▁پیاوێکی	-10.4317
▁عێراقییە	-10.4321
▁سێشەممە	-10.4329
▁بەرەنگاربوونەوە	-10.4332
▁پەیوەندییەکان	-10.4334
▁لەبەشێکی	-10.4337
▁نایابی	-10.4344
▁نایاسایی	-10.435
▁ئەنوەر	-10.4352
▁بەڕێوەدەچێت	-10.4356
▁سڵاو	-10.4359
▁بەدڵ	-10.4369
▁سەرچاوەکە	-10.4369
▁ناکۆک	-10.4374
▁لەئاست	-10.4376
بکەوێت	-10.4386
▁لەئەنجامی	-10.4386
▁نەینەوا	-10.4388
▁میلان	-10.439
▁جۆرج	-10.4395
▁بۆرژوازی	-10.44
پشک	-10.4403
▁قازانجی	-10.4405
▁لەکۆنگرە	-10.4408
▁ئیمام	-10.441
▁خال	-10.4411
▁ڕادەستی	-10.4411
67	-10.4413
▁پرەنسیپ	-10.4413
چەندین	-10.4414
▁خۆڕاگر	-10.4415
▁ڕێزلێنان	-10.4418
▁کوژ	-10.4419
▁سەرپێچی	-10.4426
▁موسڵمانان	-10.4426
وشەی	-10.4429
▁دیکۆمێنت	-10.4434
▁ناوەراست	-10.4435
72	-10.4438
▁ڕیفۆرم	-10.4439
▁بەوەشکرد	-10.4439
▁واژۆ	-10.4442
▁خوێناوی	-10.4446
لۆن	-10.4447
▁قوت	-10.4448
کردووه	-10.4454
▁ناچێت	-10.4456
▁نیشتیمان	-10.4456
▁ڕووت	-10.4457
▁وەردەگرن	-10.4458
▁دەستپێشخەری	-10.4459
▁بدەم	-10.4462
▁have	-10.4464
▁سالا	-10.447
▁ئاخ	-10.4483
▁گواستنەوە	-10.4484
▁حەمید	-10.4485
▁هاوکارمان	-10.449
▁نەتەوەیەکگرتوو	-10.449
▁نەرویج	-10.4492
کرایەوە	-10.4502
▁تاوانباران	-10.4503
▁پەیوەندیدار	-10.4506
▁جیاتی	-10.4513
▁بەدەستەوە	-10.4513
▁شێوازە	-10.452
▁سەرمایەدار	-10.4526
▁وەفا	-10.4527
▁شین	-10.4533
▁ئەدەبیات	-10.4534
▁عەدنان	-10.4536
▁ئیدارە	-10.4547
▁نێوەند	-10.4549
▁یەکڕیزی	-10.4555
▁بەرزکردنەوەی	-10.4555
▁ئارادا	-10.4559
▁بەتەنها	-10.4563
▁ژەن	-10.4565
▁قسانە	-10.4567
▁سەرسام	-10.4568
▁ڵا	-10.4571
▁دانیشتووی	-10.4588
▁موختار	-10.4595
▁پەسەندکردنی	-10.46
جوڵ	-10.4608
▁بڕوات	-10.4609
▁دەرکەوتنی	-10.4613
▁دەنگەکان	-10.4616
▁خاوەنەکانیانە	-10.462
▁لەسەرجەم	-10.462
▁ماس	-10.4621
▁کیمیایی	-10.4623
▁لەتەک	-10.4626
▁باوکم	-10.4626
▁مادی	-10.4627
خوازان	-10.4629
▁online	-10.4629
ئەگەر	-10.4629
▁بمانەوێت	-10.4637
▁خیانەت	-10.4641
▁دژوار	-10.4647
▁بەدەنگ	-10.4648
بهێنێت	-10.4655
خەبات	-10.4656
جەر	-10.4659
▁خۆپیشاندانەکان	-10.466
▁زۆرینە	-10.4661
▁عیراقی	-10.4665
▁خۆڵەمێش	-10.4668
جەنگ	-10.4677
▁دەنێت	-10.4681
▁بێلایەن	-10.4681
ests	-10.4702
▁لەڕاستیدا	-10.4708
▁دڵم	-10.4711
▁وێستگەی	-10.4715
C	-10.4716
▁ڕێبوار	-10.4717
▁هاوردە	-10.4719
▁سەندیکا	-10.4722
▁یار	-10.4724
▁ڕاپۆرتەکە	-10.473
ێوەچوو	-10.4731
▁داڕشت	-10.4733
▁لێکۆڵینەوه	-10.4734
▁کەنەدا	-10.4738
▁لەمانگی	-10.4739
▁گڕ	-10.474
کێشە	-10.4741
ەکەتان	-10.4746
▁هێزانە	-10.4749
▁گفتوگۆکان	-10.4749
مەرج	-10.4754
▁ڕێوڕەسم	-10.4757
بەرپرس	-10.4762
▁لێوەر	-10.4768
چکە	-10.4772
بچێت	-10.4773
▁دایکم	-10.4774
▁ڕیاڵ	-10.4775
نیشان	-10.4779
▁باڵادەست	-10.4791
▁>	-10.4793
▁دەستبەرداری	-10.4794
▁ناسک	-10.4796
▁الت	-10.4798
▁شێت	-10.4801
▁بەرنامەیەکی	-10.4802
▁سوڵتان	-10.4802
بکرێن	-10.4805
▁دیاردەیە	-10.4809
▁هەرەس	-10.481
▁تۆز	-10.4811
▁بهێنین	-10.4814
▁خەڵکانی	-10.4815
▁قەتەر	-10.4816
▁k	-10.4818
▁ماڵێکی	-10.4831
▁خێرایی	-10.4832
▁نەتەوەکانی	-10.4833
▁دەبوایە	-10.4834
▁سودان	-10.4834
▁لەوەدایە	-10.4835
▁W	-10.4836
▁کۆمیسیۆن	-10.4837
لەندا	-10.484
▁دارستان	-10.4841
▁نەجمەددین	-10.4853
▁درێژایی	-10.4854
▁دەستەواژە	-10.4855
▁دەوام	-10.4857
▁پێشێلکاری	-10.4861
٥	-10.4863
هۆکار	-10.4865
▁لەعیراقدا	-10.4866
▁کەیسی	-10.4866
▁لەماڵ	-10.4868
▁کادیر	-10.487
ژاو	-10.4872
▁هۆکارەکانی	-10.4878
ro	-10.4879
▁بگەڕێتەوە	-10.4885
▁هاورێ	-10.4892
▁پەرەسەندن	-10.4895
▁ئاستەنگ	-10.4897
پیر	-10.4897
دیا	-10.4901
▁شێوازێکی	-10.4901
▁لەکوێ	-10.4901
▁تاریق	-10.4904
▁کچه	-10.4908
▁ئەکرد	-10.4909
▁پرۆسەکە	-10.491
▁ناساندنی	-10.4911
▁ڕوناک	-10.4913
▁شەڕو	-10.4916
▁قوباد	-10.4917
▁هۆنراوە	-10.4918
▁خۆڵ	-10.492
▁کۆڵان	-10.4934
▁شاراوە	-10.4935
▁ئامۆژگاری	-10.4941
▁هەڵوەشاندنەوەی	-10.4941
▁فڕێ	-10.4944
▁کەسەی	-10.4947
▁دەروون	-10.495
▁یاسین	-10.495
گەرایی	-10.4955
▁دەوڵەتانی	-10.4958
▁دەستپێکردنی	-10.496
▁پاڵەوانیەتی	-10.4961
▁نەکرا	-10.4962
▁ئەگینا	-10.4962
لەسەر	-10.4963
▁حیزبێک	-10.4964
▁کامێرا	-10.4969
قسە	-10.4971
▁بزاڤ	-10.4973
هاتووە	-10.4976
▁کارەکانیان	-10.4983
سۆز	-10.4984
▁ڕەحم	-10.4988
▁قسەکانیدا	-10.4989
▁دەستکاری	-10.499
خوارد	-10.4992
▁بەرهەمهێنان	-10.5009
چارەسەر	-10.5011
▁ئامادەیە	-10.5014
▁داگیرکەران	-10.5016
جۆ	-10.5016
▁دەڕوا	-10.5017
▁بیرەوەری	-10.5022
ائیل	-10.5028
▁دێر	-10.5032
▁59	-10.5037
▁چاکە	-10.5038
▁باوەر	-10.5041
▁آ	-10.5051
▁شانۆکار	-10.5053
▁ئیمارات	-10.5057
▁بگەیەن	-10.5058
▁بردەوە	-10.5061
▁نێ	-10.5065
▁یاریگەی	-10.5066
▁وڵاتەدا	-10.5071
▁گاڵتە	-10.5084
▁جلوبەرگ	-10.5092
▁لەجیاتی	-10.51
▁وەردە	-10.5101
▁ناساند	-10.5107
▁پرۆسە	-10.5108
شیر	-10.5109
▁پێشکەشکردنی	-10.5113
▁ویلایەتی	-10.5115
▁هۆشداری	-10.5128
حزب	-10.5134
▁مەد	-10.5137
▁مۆندیال	-10.5138
▁ئاس	-10.5139
▁ڕووداوێکی	-10.514
▁دەبەخشێت	-10.5142
▁تەئکید	-10.5145
سال	-10.5158
▁کۆمەڵایەتییەکان	-10.5159
▁دەتوانم	-10.5161
▁کۆک	-10.5162
▁کەرت	-10.5176
▁بڕیاریدا	-10.5178
▁پرێس	-10.5183
▁کفری	-10.519
▁تەلەفزیۆن	-10.519
ێڤ	-10.5192
20	-10.5196
▁کۆسپ	-10.5202
82	-10.5205
▁جاڕنامە	-10.5207
▁ڕاپ	-10.5208
▁وەرگیراوە	-10.521
▁یێن	-10.5213
▁مسۆگەر	-10.5221
ir	-10.5222
تاک	-10.5226
ساب	-10.5227
▁ماستەر	-10.5232
▁ئاسن	-10.5234
▁خەل	-10.5236
کرابوو	-10.5237
▁مەحموود	-10.5237
▁گوتەی	-10.524
▁چەشنە	-10.5246
▁نەهامەتی	-10.5254
▁سەردار	-10.5257
▁دەمە	-10.5258
▁گەیشتووەتە	-10.5261
▁هەڵگرت	-10.5265
▁دەرچووە	-10.5271
▁مەش	-10.5273
▁ویلایەتە	-10.5277
بژێر	-10.5287
▁هاوپەیمانێتی	-10.5288
▁دەسەڵاتداران	-10.5293
▁کۆمەڵکوژی	-10.5294
▁ناوچەکه	-10.5297
▁کاڵا	-10.5304
▁شەنگال	-10.5309
▁خەسڵەت	-10.5314
▁فەیلەسوف	-10.5318
▁ئەسڵانی	-10.5318
ئامانج	-10.5331
▁هەڵۆ	-10.5334
▁کولتور	-10.5334
▁پێچەوانەوە	-10.5334
▁یادەوەری	-10.534
▁me	-10.5344
▁گرنگتر	-10.5345
un	-10.535
▁گوتن	-10.5355
▁گفتوگۆکردن	-10.5356
▁ئوردن	-10.5358
▁دەنگەکانی	-10.5359
▁گریان	-10.536
▁ئەبوبەکر	-10.5362
قڵ	-10.5364
▁دهۆکێ	-10.5364
▁تەقاند	-10.5367
▁key	-10.5368
▁تووڕە	-10.5371
▁زەمین	-10.5372
▁تەلار	-10.5374
▁بەکاردەهێ	-10.5375
▁ئەنجامداوە	-10.5389
▁سەرەکییەکانی	-10.5391
بگرن	-10.5395
▁دانرا	-10.54
راست	-10.54
▁تەیب	-10.5409
▁ئامانجەکانی	-10.5416
▁ڤان	-10.5418
▁نەیتوانیوە	-10.5423
▁لەیەکتر	-10.5429
نجام	-10.5434
▁ستەمکار	-10.5434
▁ئەیاد	-10.5439
▁مەڵبەند	-10.5439
▁هاتبوو	-10.5445
ردن	-10.5455
▁ڕوودەدات	-10.546
▁گەشتوگوزار	-10.5466
▁بەرواری	-10.5469
▁درێژخایەن	-10.547
▁کەمینە	-10.5474
▁کوت	-10.5475
▁خەز	-10.5476
▁ئافرەتێک	-10.5477
▁نار	-10.5481
▁ڕووبەرووی	-10.5481
▁ئامادەبووان	-10.5482
چەشن	-10.5483
▁پێویستمان	-10.5485
▁خەر	-10.5488
ing	-10.5497
▁بەئاسانی	-10.5501
▁کەمترین	-10.5502
S	-10.5503
▁دەستبەسەر	-10.5503
▁پارک	-10.5515
▁کوشندە	-10.5517
▁ند	-10.5519
لێت	-10.5526
▁بکردایە	-10.5529
▁هاتوە	-10.5532
▁ئۆتۆمبێلەکانی	-10.5535
▁سەپاندنی	-10.5541
▁ئازیز	-10.5545
▁پرۆسەیەکی	-10.5546
▁کەوتۆتە	-10.5546
▁زووتر	-10.555
ناخ	-10.5552
▁ئەرکێکی	-10.5559
▁ببینن	-10.5561
▁گیرا	-10.557
هەن	-10.5576
▁بردووە	-10.5577
▁ڕاگەیاندنەکان	-10.5578
▁دەچوو	-10.5579
سەرەتا	-10.5582
دیار	-10.5584
▁دیمەشق	-10.5589
▁ڕەگ	-10.5591
▁قانون	-10.5595
▁شوێنانە	-10.5596
▁بانگەشە	-10.5597
▁جێهێشت	-10.5597
▁پیاوێک	-10.5605
▁ماک	-10.5608
▁ئیران	-10.5609
▁ڕوبەڕو	-10.5612
▁پڕۆ	-10.5616
▁تەسلیم	-10.5617
▁فەڕەنسا	-10.562
▁کوژرا	-10.5622
▁درەخت	-10.5629
▁mail	-10.5637
▁ژان	-10.5639
▁ئاسیایی	-10.5642
▁گرژی	-10.5645
▁سەرخستنی	-10.5646
▁دووەمیش	-10.5649
پارتی	-10.565
راوەتەوە	-10.5657
▁ڕەنگدانەوەی	-10.5657
▁لیستەکە	-10.5659
▁ڕووبەڕووبوونەوە	-10.5662
▁ڕاز	-10.5663
▁لەرووی	-10.5664
دەکرێن	-10.5671
▁ئاسایییە	-10.5679
▁گشتییەکان	-10.5683
▁مەهدی	-10.5696
▁دیت	-10.5697
▁کچەکە	-10.5698
▁ڕاوەستا	-10.5698
▁قوتابخانەکان	-10.5701
▁دەدەم	-10.5702
▁ئیستا	-10.5702
▁ڕاپەرین	-10.5707
▁ڕێژەیەکی	-10.5708
▁پەشیمان	-10.5713
▁ئەرکەکانی	-10.5717
▁ناوچەکەو	-10.5725
هەڵوێست	-10.5727
توانا	-10.5733
▁پێوانە	-10.5735
▁وەرگر	-10.5737
▁قەناعەت	-10.5741
▁بەرەوپێش	-10.5744
▁حەماس	-10.5748
▁ناسیۆنالیزم	-10.5753
▁ڕاگەیەنراو	-10.5753
▁کەناڵەکانی	-10.5758
▁بڕیارەکە	-10.5761
خواردن	-10.5767
▁ئیمەیل	-10.5771
ration	-10.5773
▁یەکسەر	-10.5786
▁حەڤد	-10.579
▁ئەلف	-10.5802
▁گار	-10.5803
▁خۆپ	-10.5803
▁کاربەدەستانی	-10.5804
▁دەربر	-10.5805
ma	-10.5805
▁شەریف	-10.5806
▁تیرۆرکردنی	-10.5808
▁ڕوانین	-10.581
▁لەتورکیا	-10.5817
▁تاکەکەس	-10.582
▁هەفتەیەک	-10.5824
▁بەرگریکردن	-10.5827
▁ئەبین	-10.5831
▁پانتایی	-10.5832
▁تەشهیر	-10.5835
▁ئەمینداری	-10.584
چەر	-10.5844
▁ماوەکەی	-10.5848
اوێژ	-10.5856
▁زەرەر	-10.5858
▁قەد	-10.5862
▁هەڵنە	-10.5865
▁بڕیاردان	-10.5868
▁شەرعییەت	-10.5869
▁ساغ	-10.5874
▁دەرچو	-10.5875
▁لیژنەکە	-10.5877
▁نوسینگەی	-10.5878
▁لەلێدوانێکی	-10.5888
گەورە	-10.5891
▁دەربەندیخان	-10.59
▁زەحمەتکێش	-10.5902
▁پەروەردەو	-10.5902
▁بگیرێت	-10.591
▁الش	-10.5918
جیهان	-10.592
▁داهێنەر	-10.5921
▁سەرهەڵ	-10.5923
▁برایم	-10.5928
▁نەکراو	-10.5934
هەوا	-10.5936
▁دیاله	-10.5938
▁ئاکۆ	-10.5938
▁مەسەلەکە	-10.5939
▁بەمانای	-10.5942
▁مەودا	-10.5944
▁وڵاتەکەیان	-10.5954
▁کوردەواری	-10.5958
77	-10.5958
▁ئەورووپا	-10.5959
▁تاڵان	-10.5959
ۆرت	-10.5969
خەین	-10.5969
▁گفت	-10.5974
سۆر	-10.5975
▁ڕوونکردەوە	-10.5976
▁نووری	-10.5982
▁.	-10.5987
وەرگرتن	-10.6002
وڵڵا	-10.6003
▁قژ	-10.6003
▁پێشانگا	-10.6004
ent	-10.6009
▁سڤیل	-10.601
▁ئەلع	-10.6011
مێر	-10.6012
▁مەحاڵ	-10.6016
فەرمان	-10.6018
▁ئاسا	-10.6022
دەخەن	-10.6022
هێنانەوەی	-10.6023
▁چەسپاندنی	-10.6027
▁کوشتار	-10.6029
▁بنیاتنانی	-10.6031
▁ئەنبار	-10.6032
▁لەبەردەست	-10.6033
▁بارودۆخەکە	-10.6038
▁پێشبڕکێی	-10.6039
▁شەق	-10.6045
▁لەقەڵەم	-10.6048
▁400	-10.6053
▁بابەتەکە	-10.6059
هەزار	-10.606
▁هێزێک	-10.6067
▁ڕزگارکردنی	-10.607
▁سفر	-10.6075
▁کانوونی	-10.6076
▁کۆپی	-10.6084
▁خوێنەران	-10.6088
خستووە	-10.6092
▁شایەنی	-10.6103
▁ئەدات	-10.6106
بەردەوام	-10.6109
▁مایەوە	-10.611
▁بەزمانی	-10.611
عەرەب	-10.6113
▁ڕێگه	-10.6116
▁ئەکا	-10.6125
▁بگرین	-10.6126
▁ئێواره	-10.6129
▁لەئەنجومەنی	-10.6135
▁محەممەد	-10.6137
▁not	-10.6139
▁ئارا	-10.6143
▁مایک	-10.6146
▁زستان	-10.6146
▁پێیانوایە	-10.6148
▁برسی	-10.6148
▁تێکڕای	-10.6149
▁کلتوور	-10.6158
▁ئەلبوم	-10.616
▁سونە	-10.6162
▁کودەتا	-10.6166
▁کابرا	-10.6169
▁ئەنقەرە	-10.6181
ئازادی	-10.6184
خاڵ	-10.6185
▁ببنەوە	-10.6188
مرۆڤ	-10.6189
▁ث	-10.619
▁کۆسرەت	-10.6193
رەنگ	-10.6199
▁دواوە	-10.62
em	-10.6204
▁گەنم	-10.6204
▁نوێترین	-10.6204
▁لەهەرێم	-10.6204
▁بەدیار	-10.6218
▁ڕۆل	-10.6225
▁کۆشش	-10.6226
▁لەیاد	-10.6227
▁کولتوور	-10.623
▁هند	-10.6234
▁دواکەوتوو	-10.6235
▁بگەیەنێت	-10.6238
کوردستان	-10.6238
توور	-10.6239
▁نێودەوڵەتییەکان	-10.624
▁منداڵەکە	-10.6242
▁قەندیل	-10.6245
▁سەرلەنوێ	-10.6248
▁ئەمانەش	-10.6248
la	-10.6251
▁پەیەدە	-10.6252
▁ئاراس	-10.6253
▁عەمید	-10.6254
▁دیزاین	-10.6255
▁بابەتەکان	-10.6257
▁ملکەچ	-10.6257
▁حەکیم	-10.6263
هەل	-10.6263
▁ڕێکخەری	-10.6263
▁سەروەت	-10.6267
پارچە	-10.6272
▁الق	-10.6276
▁ئیجابی	-10.6279
▁بەرێوەبەرایەتی	-10.6279
▁پێکەوەژیان	-10.6282
▁کۆمپیوتەر	-10.6288
12	-10.6288
▁حەرام	-10.6289
▁دارا	-10.6301
▁دەنگدەر	-10.6303
ڤار	-10.6304
▁فیکر	-10.6308
گوێ	-10.6316
▁دەرکەوتووە	-10.6318
▁بەرشەلۆنە	-10.6318
▁نادەن	-10.632
▁g	-10.6327
▁چیخۆف	-10.6328
▁ئەرشیف	-10.6331
▁جارێ	-10.6335
▁لینکەی	-10.6335
▁لابردنی	-10.6346
▁will	-10.6346
گەیەنرا	-10.6357
▁بێگانە	-10.6362
▁خۆزگە	-10.6362
هەق	-10.6363
60	-10.6364
▁خۆماڵی	-10.6365
▁بور	-10.637
▁ڕێککەوت	-10.637
▁دوەم	-10.6377
▁نەدەکرد	-10.6378
▁یونس	-10.6392
▁ڕوخسار	-10.6396
▁وەزارەتەکان	-10.6397
▁نازانن	-10.6398
▁ئیمتیاز	-10.6402
▁شەرمەزار	-10.6402
23	-10.6404
▁شارەدێی	-10.6405
▁زۆ	-10.6411
چاک	-10.6418
▁سەلەفی	-10.6421
th	-10.6422
▁جێگا	-10.6425
▁بڵند	-10.6429
کڕ	-10.6429
▁75	-10.6432
▁جاف	-10.6434
▁لێکەوتەوە	-10.6437
▁ئەسپ	-10.6437
▁کۆمسیۆن	-10.6441
▁in	-10.6441
▁پێداچوونەوە	-10.6442
▁فایله	-10.6446
لەند	-10.6447
▁مەج	-10.6448
▁دەنووسێت	-10.6452
٤	-10.6455
▁موح	-10.6458
▁تۆکمە	-10.6476
▁زاگرۆس	-10.6477
▁بەنداو	-10.6478
دەزگا	-10.6479
نارد	-10.6485
▁دەمانەوێت	-10.6489
▁تۆپباران	-10.6496
▁تەخت	-10.6498
▁سەرقاڵ	-10.65
▁فراوانتر	-10.65
▁لەسێدارەدان	-10.6503
عێراق	-10.6505
▁الس	-10.6513
K	-10.6519
▁نەچێت	-10.6523
▁سۆڤیەت	-10.6524
▁ئەژمار	-10.6525
هیر	-10.6534
ژێت	-10.6536
▁سەروەر	-10.654
▁نێردراو	-10.6543
٢	-10.6544
▁دۆڕان	-10.6551
op	-10.6555
▁قەر	-10.6558
86	-10.6561
▁ڕەحیم	-10.6565
▁نائاسایی	-10.6571
▁شەست	-10.6571
▁ئۆکرانیا	-10.6574
▁پاداشت	-10.6575
▁سۆفی	-10.6577
▁Add	-10.658
▁Share	-10.658
▁عەبادی	-10.658
▁بەرلین	-10.6581
▁دڕ	-10.6586
▁ڤیدیۆ	-10.6587
▁هێرشبەر	-10.6593
▁داواکارییەکانی	-10.6594
▁داستان	-10.6595
▁the	-10.6596
▁سابیر	-10.6598
▁سبەینێ	-10.66
▁بژێوی	-10.6602
▁فۆڕم	-10.6606
▁پەنجەرە	-10.6611
▁دەرونی	-10.6611
▁دووباره	-10.6612
گرام	-10.6614
ter	-10.6615
▁بەشداربوون	-10.6617
▁ڕەجەب	-10.6618
▁گوزەر	-10.6622
▁جیاکردنەوەی	-10.6624
▁t	-10.6626
خاوەن	-10.6627
▁سدیق	-10.6628
▁دەبا	-10.6635
▁بڕوانامەی	-10.6642
▁قەومی	-10.6642
▁پێکبهێن	-10.6642
▁سەباح	-10.6647
▁ڕیفراندۆم	-10.665
▁مەعریفە	-10.665
▁سایت	-10.6652
▁وەفدێکی	-10.6654
▁تەماوی	-10.6654
▁ڕێکخراوەکە	-10.6656
یانداوە	-10.6656
▁هەڵمەتێکی	-10.666
توانێ	-10.6663
▁موسا	-10.6664
▁تەڕ	-10.6669
30	-10.6672
▁وایکردووە	-10.6677
چک	-10.6679
▁گوزەرانی	-10.6681
گەشە	-10.6682
▁جەمسەر	-10.6688
▁لەدەستداوە	-10.669
بەها	-10.6694
▁ئور	-10.6695
▁دەیکات	-10.6697
▁Name	-10.6698
▁نواندن	-10.67
▁دەخەنە	-10.6705
▁چارەنووس	-10.6706
▁سوودمەند	-10.6707
▁بەخۆیەوە	-10.671
▁وایکرد	-10.6712
▁گەشەپێدان	-10.6717
22	-10.6719
▁مرد	-10.6722
▁ط	-10.6723
▁ڕووداوانە	-10.6728
▁هادی	-10.6732
▁ماوەیەدا	-10.6734
▁مەرکەزی	-10.6736
▁دەخات	-10.6736
▁and	-10.674
▁تۆفیق	-10.6743
▁ڕوبەر	-10.6757
▁دوێت	-10.6762
▁لەشکر	-10.6764
hotmail	-10.6765
...	-10.6766
توورەج	-10.6767
▁یەکگرتوەکان	-10.6775
▁پێشخستنی	-10.6778
▁ئەدیب	-10.678
▁لەتیف	-10.678
خوار	-10.6786
▁لایەنانە	-10.6797
خاک	-10.6797
بژار	-10.6802
62	-10.6802
▁ددان	-10.6805
▁سوننەکان	-10.6808
خواست	-10.681
شتێک	-10.6811
ئەرک	-10.6815
▁داود	-10.6816
▁ئەفریقا	-10.6817
▁عێڕاق	-10.682
▁شور	-10.6822
▁دەشنی	-10.6824
▁جاریش	-10.6825
▁مافەکا	-10.6826
▁شۆڤێنی	-10.6833
▁هەڵبژێردراوانی	-10.6833
▁بەپەلە	-10.6834
▁ستایشی	-10.684
▁#	-10.6841
▁قورسایی	-10.6841
▁ڕەئوف	-10.6846
▁کرماشان	-10.6849
▁گیرفان	-10.685
▁ئوس	-10.6852
▁دۆزەخ	-10.6859
▁ساتێک	-10.6864
▁پلا	-10.6868
▁فەرەج	-10.687
▁دوبارە	-10.6875
▁شەیتان	-10.6876
▁تەسک	-10.6882
89	-10.6889
▁جووت	-10.689
▁دەگۆڕێت	-10.6892
▁شنگال	-10.6895
هەروەها	-10.69
▁پارێز	-10.6907
▁بردنەوەی	-10.6908
▁هەڵواس	-10.691
▁وەسفکرد	-10.6916
▁زەق	-10.6918
▁ڕۆیشتن	-10.6922
درۆ	-10.6922
بەرهەم	-10.6924
▁بژین	-10.6926
▁خەلات	-10.6926
▁بروا	-10.6927
▁دابنرێت	-10.6928
ڤال	-10.6929
▁دەبم	-10.693
▁لەزانکۆ	-10.6931
▁حەفتا	-10.6935
▁بورهان	-10.6944
▁styl	-10.695
▁پێکردووە	-10.6952
▁ڕۆشنایی	-10.6952
▁ڕاس	-10.6953
om	-10.6955
▁فۆنت	-10.6958
▁ئەوقاف	-10.6959
▁بوایە	-10.6961
▁مەرام	-10.6964
پڕۆسەی	-10.6966
▁دیاردەیەکی	-10.6979
▁class	-10.698
سیاسی	-10.6985
▁پێشوەخت	-10.699
▁text	-10.6993
گریت	-10.6994
▁دەبینێتەوە	-10.6999
share	-10.7003
▁شەکر	-10.7004
▁جوڵە	-10.7009
▁دەگەن	-10.7016
▁بڵاوکردەوە	-10.7018
ئەس	-10.702
▁دیسانەوە	-10.7022
▁کیبۆرد	-10.7023
ڕیز	-10.7025
▁گەرما	-10.7028
رێس	-10.7029
▁دەستپێدەکات	-10.7032
▁داواشی	-10.7042
▁الج	-10.7044
▁داخستنی	-10.7045
▁وەهم	-10.7047
▁جددی	-10.7049
▁return	-10.7056
▁دواکەوتنی	-10.7056
▁الر	-10.7058
▁بتوانێ	-10.706
▁پاڵتۆکەی	-10.7062
▁مامەڵەکردن	-10.7065
▁target	-10.7066
▁نمایشەکەی	-10.7067
▁بەجێهێشت	-10.7068
▁عەشیرەت	-10.7079
▁ڕۆژنامەکان	-10.708
▁deco	-10.7086
▁بنووسیت	-10.7086
▁none	-10.7089
▁خدر	-10.709
utton	-10.7092
▁onc	-10.7092
وابوو	-10.7097
▁ناگرێت	-10.71
جل	-10.7101
▁دەکێش	-10.7101
blank	-10.7102
▁لەسنووری	-10.7104
▁باڵندە	-10.7109
▁دۆڵ	-10.7109
هیوا	-10.711
بکەم	-10.711
▁لەهەمانکاتدا	-10.7119
▁برزۆ	-10.7119
▁یەکگرتو	-10.7123
▁چاڵ	-10.7125
نەوانە	-10.7131
بەین	-10.7132
▁پلاندانان	-10.7136
▁تۆر	-10.7144
▁هەرکەسێک	-10.7147
▁دانمارک	-10.7152
بخات	-10.7159
گوێز	-10.7161
▁بەمشێوەیە	-10.7166
▁نەکەین	-10.7167
▁بەیاننامەیەکدا	-10.7169
تاڵ	-10.7175
▁لەناوچەکەدا	-10.7176
▁پرۆژه	-10.7176
▁سڕ	-10.7178
▁ناسر	-10.7179
▁بڵاوبوونەوەی	-10.7181
▁مۆزەخان	-10.7183
▁عیشق	-10.7184
ڤید	-10.7195
▁بوونەوەر	-10.7196
▁باژێڕوان	-10.7203
▁مارک	-10.7203
▁دێڕ	-10.7205
▁تۆڕ	-10.7207
▁دامەزراند	-10.7209
▁دەفەرموێت	-10.7214
▁ئۆپۆزیسیۆنەی	-10.7222
بنەما	-10.7224
▁تاڕادەیەک	-10.7226
▁دیپلۆماسی	-10.7226
ئەسوات	-10.7231
▁کارانە	-10.7236
▁ناکوڵێت	-10.7236
us	-10.7237
کردۆتەوه	-10.7245
▁ئەرسەلان	-10.7246
▁بڵاویکردەوە	-10.7247
▁دروستکردووە	-10.7249
▁ڕاوێژکار	-10.7256
▁خەندە	-10.7256
▁ئوسترالیا	-10.727
▁لەسایەی	-10.7274
تەنگ	-10.7275
▁هاوەڵ	-10.7277
▁هاوتا	-10.728
V	-10.728
▁یوتوبو	-10.7284
▁لەئارادا	-10.7288
ۆرک	-10.729
لۆفێست	-10.729
باوەڕ	-10.7292
▁پەند	-10.7293
▁بخات	-10.7294
▁دەبەستێت	-10.7295
ِّ	-10.7295
▁94	-10.7298
▁خرایە	-10.73
▁بەرژەوەندییەکان	-10.73
▁سیستەمێکی	-10.7301
▁زراندن	-10.7304
▁بەدەستهێناوە	-10.7307
▁باڵەخانە	-10.731
▁ئەرمەن	-10.7312
▁بەهرە	-10.7312
▁دانوم	-10.7318
aw	-10.7319
▁ویلایەته	-10.7321
▁گوللە	-10.7325
▁لەمێژووی	-10.7328
لاق	-10.7333
▁تایبەتمەند	-10.7335
▁ژور	-10.7336
▁هۆرگێڵنەر	-10.7338
▁بڵاوکراوە	-10.7342
▁پڕوپاگەندە	-10.7349
▁نەخش	-10.735
▁هێنرا	-10.735
کراونەتەوە	-10.7351
▁شۆڕ	-10.7352
▁لەقۆناغی	-10.736
▁یارییەکه	-10.7363
▁میرات	-10.7363
▁گووتیشی	-10.7365
▁فێربوون	-10.7366
▁دەمەوێ	-10.7366
▁بەڕێوەچوونی	-10.7371
▁عیماد	-10.7386
▁دادەنێت	-10.7395
▁ماڵەکەی	-10.7397
ٌ	-10.74
▁کیمیاوی	-10.7404
▁فرانس	-10.7404
▁پشتیوان	-10.7405
▁تێکدانی	-10.7428
▁عیسا	-10.7434
▁ئەنج	-10.7436
▁جوتیاران	-10.7444
▁هەڵسوڕاو	-10.7444
▁خۆشحاڵ	-10.7446
▁ناوەوەی	-10.7447
ەسمی	-10.7456
▁ژمار	-10.7459
▁زێر	-10.7472
▁داگیرکردنی	-10.7477
▁حەمەغەفور	-10.7479
▁نەهاتووە	-10.7485
▁هاوپەیمانان	-10.7489
▁سوتاند	-10.749
▁up	-10.7493
گوای	-10.7501
▁زادە	-10.7505
▁ژماره	-10.7508
▁تاڵیبان	-10.751
▁ئیماراتیەکان	-10.7513
رەج	-10.7514
▁دوێنی	-10.7529
▁لێکدانەوە	-10.7541
▁ڕوویداوە	-10.7546
▁کۆبوونەوەکانی	-10.7557
76	-10.7558
▁پابەندبوون	-10.7559
▁تەما	-10.7565
92	-10.7565
بازاڕ	-10.757
▁بەسترا	-10.7574
▁پێنجشەممە	-10.7574
▁لەسوریا	-10.7577
▁تاقە	-10.7577
▁گەشبین	-10.7584
▁پشتگوێ	-10.7589
▁زنجیر	-10.7591
▁سووک	-10.7592
▁ئەکەم	-10.7594
ul	-10.7596
▁سەقامگیر	-10.7596
گوند	-10.7597
▁ئاڕاستە	-10.7603
17	-10.7604
▁but	-10.7604
▁دەرد	-10.7604
▁ئیرادە	-10.7605
▁ئامێز	-10.7606
▁لەوێوە	-10.7607
▁پێشووتر	-10.761
▁مع	-10.7611
▁مرۆ	-10.7612
▁چارەنووسساز	-10.7613
▁تێپەر	-10.7617
▁ناڕەوا	-10.7619
▁دووشەممه	-10.7621
▁1988	-10.7621
▁بەرەنگاری	-10.7621
فرانس	-10.7622
▁میتۆد	-10.7622
▁تواناکانی	-10.7633
▁مەعنەوی	-10.7636
▁ئۆفیس	-10.7636
▁باهۆز	-10.7639
▁ئەلبووم	-10.7644
تانیا	-10.7645
▁فەوجی	-10.7646
▁ناونیشان	-10.7651
▁بچین	-10.7652
▁شۆر	-10.7658
کردووەتەوە	-10.7658
▁هەرسێک	-10.766
دەستوور	-10.7661
▁سرووشت	-10.7664
▁دیموکرات	-10.7669
▁ڕاڤە	-10.7671
▁سەپاند	-10.7676
▁بەوردی	-10.7692
▁بەرهەمهێنەر	-10.7696
▁sorani	-10.7702
▁لەکۆبوونەوەی	-10.7704
▁زیادبوونی	-10.7706
▁لێدەکات	-10.7713
یستەکان	-10.7722
▁بەئاشکرا	-10.7724
▁display	-10.7727
▁دابنێت	-10.7733
▁سێدارە	-10.7734
▁بەرزبوونەوەی	-10.7734
٦	-10.7734
شەممە	-10.7736
▁ئامادەبوون	-10.7737
board	-10.7738
▁Send	-10.7738
▁ئۆپەراسیۆن	-10.7738
▁ڕادەربڕین	-10.7738
▁ئاسانکاری	-10.7742
▁گووت	-10.7742
▁بڵاوکراوەتەوە	-10.7745
▁لەپارێزگای	-10.7745
▁هوشیار	-10.7745
▁ئاسوودە	-10.7752
▁وەبیر	-10.7756
▁ئەدرەسەکە	-10.7759
▁بایکۆت	-10.7759
▁بینووسیت	-10.7759
▁ّ	-10.776
▁گرتووەتەوە	-10.776
▁ئاپۆ	-10.777
15	-10.7772
▁follow	-10.7773
▁ڕۆیتەرز	-10.7777
▁دەرناکەوی	-10.778
▁پووچ	-10.7781
پور	-10.7781
logos	-10.7784
هەست	-10.7786
▁250	-10.7788
▁تێبینییەکت	-10.7791
زیاد	-10.7793
▁پێشینەی	-10.7793
▁بهێنرێت	-10.7794
▁بگەین	-10.7796
▁بریتانیا	-10.7796
▁Cancel	-10.7798
▁lexi	-10.7798
مێژوو	-10.7802
▁لووت	-10.7804
▁لاسایی	-10.7806
▁قەدەر	-10.7807
▁تێبینیەکەت	-10.7808
▁دووپاتکردەوە	-10.7813
▁بێکەس	-10.7814
▁عەبدولکەریم	-10.7816
سیر	-10.7817
▁بەوەکرد	-10.7817
▁Notif	-10.782
▁پێشەوا	-10.7822
▁ڕەتکردنەوەی	-10.7827
▁وڵام	-10.7833
▁دەڵێین	-10.7834
▁چاوەڕێ	-10.7839
▁ئەنفالکراوەکان	-10.7842
▁عەللاوی	-10.7845
▁فایەق	-10.7845
▁داواکار	-10.7848
li	-10.786
جێبەجێ	-10.7871
پرۆسەی	-10.7874
▁دامەزرا	-10.7875
▁بەباشی	-10.788
▁دەبەست	-10.7897
پیاو	-10.7903
▁ئایدیا	-10.7904
▁سەلیم	-10.7906
▁کتێبەکە	-10.7909
▁لادان	-10.7911
▁هاندانی	-10.7916
▁وتوێژ	-10.7917
▁خەڵکانێک	-10.792
▁تەنگژە	-10.7937
ئێران	-10.7945
▁پرۆژەیەکی	-10.795
ەڵات	-10.7951
▁پتەوکردنی	-10.7953
▁تاوتوێکردنی	-10.7953
▁سیفەت	-10.7954
▁خۆشگوزەرانی	-10.796
▁ڕوخانی	-10.7961
▁دۆستایەتی	-10.7964
▁هێور	-10.7965
▁ڕاستییەکان	-10.7972
▁بیرمەند	-10.7974
▁شرۆڤە	-10.7978
▁نەبووایە	-10.7983
▁مەیل	-10.7992
▁l	-10.7992
▁ستراتیجی	-10.7993
▁بسەپ	-10.7994
19	-10.8
▁لەکۆی	-10.8001
▁نمایشکرا	-10.8004
▁هیندستان	-10.8008
▁ئەنفالکراوان	-10.8011
نڤیس	-10.8016
▁لەسەرەتاوە	-10.8019
ist	-10.8025
▁2000	-10.8029
▁مەرجەع	-10.8032
▁فیشەک	-10.8033
▁نازناو	-10.8033
48	-10.8035
نزیک	-10.8037
نامەکە	-10.8039
وەشێن	-10.8048
▁خنکا	-10.8049
▁گوناه	-10.8052
▁تانک	-10.8056
▁پارێزگاکە	-10.8057
▁ڕونکردنەوە	-10.8076
▁نەچوو	-10.8082
▁سەرانسەری	-10.8088
گوڕ	-10.8097
40	-10.8107
▁دەستبەجێ	-10.8115
▁خۆپێشاندان	-10.8117
q	-10.8121
لۆس	-10.8121
▁ڕاکێشا	-10.8123
قۆناغ	-10.8138
گۆڕین	-10.8139
▁هیوادارین	-10.814
عود	-10.8141
▁دەسکەوت	-10.8142
▁وەزع	-10.8148
▁دەردەچێت	-10.8148
▁هاولاتی	-10.8149
▁مسوەگەر	-10.8154
▁عەسکەری	-10.8154
▁جەمیل	-10.8158
▁دەنگۆی	-10.8159
▁هەڤال	-10.8182
▁وادەکات	-10.8186
ریف	-10.8186
دەخات	-10.8187
▁ئاسەوار	-10.8188
▁قایم	-10.8188
قوڵ	-10.8188
▁حەشار	-10.8194
گەیەنین	-10.8196
▁بایز	-10.8197
▁ئەرێنی	-10.8201
گشت	-10.8211
▁شکاند	-10.8214
▁پراکتیک	-10.8217
کەوین	-10.8223
▁65	-10.8225
▁فەراهەم	-10.8225
▁زێدە	-10.8227
زەوی	-10.8228
▁کاردەکات	-10.8231
▁توانرا	-10.8231
▁قر	-10.8244
▁لیژنەکان	-10.8247
▁نەوزاد	-10.8251
im	-10.8251
▁نەمێنێت	-10.8253
▁بکەون	-10.8257
▁لێکۆڵەر	-10.8258
▁نووسیوە	-10.8259
▁نارەزایەتی	-10.8273
▁مەنسوور	-10.8273
سنوور	-10.8279
کۆر	-10.8285
ئیسلام	-10.8285
▁داڕشتنی	-10.8286
▁وەدەست	-10.8286
مەترسی	-10.8289
▁کۆنگرەکە	-10.829
کۆمەڵگا	-10.83
▁جولەکە	-10.8303
▁چارەنوسی	-10.8312
61	-10.8316
▁زور	-10.8322
▁فریشتە	-10.8331
▁کیشوەر	-10.8338
▁دونیا	-10.834
▁جەرگ	-10.8342
▁چوارچێوەیەدا	-10.8342
▁پێداویستییەکانی	-10.8354
دور	-10.8365
▁بەواتای	-10.8366
ڵەتی	-10.8367
▁کەمئەندامان	-10.8368
▁لەمەودوا	-10.8379
▁عەدالەت	-10.8382
▁عەلاوی	-10.8391
▁دۆخێکی	-10.8392
▁زیندو	-10.8394
▁ماڵئاوایی	-10.8398
بەرنامە	-10.8399
▁سروشتییەکان	-10.8401
▁نەفرەت	-10.8417
▁سادق	-10.8421
▁تەواوبوونی	-10.8422
▁کیلۆ	-10.8422
▁حەر	-10.8423
ئەزموون	-10.8425
13	-10.8426
▁ناتوانم	-10.8428
▁پشدەر	-10.8429
▁فاشیزم	-10.8436
▁عەقید	-10.844
هونەر	-10.8441
▁جول	-10.8446
▁کۆمەلگا	-10.8449
▁حەج	-10.845
▁دانیشتنەکە	-10.8459
▁ئەکرێت	-10.846
▁گشتگیر	-10.8469
▁نەسر	-10.8491
▁ڕۆژنامەکە	-10.8492
▁پێکهاتبوو	-10.8495
▁ڕۆمانەکە	-10.85
▁بەندیخانە	-10.85
▁کاسب	-10.85
▁کایەوە	-10.8501
▁بەکورتی	-10.8501
▁ساڵیادی	-10.8504
▁گوزار	-10.8505
▁بیرۆکە	-10.8506
▁پوخت	-10.8508
▁ڕووبەڕوو	-10.851
▁هاشم	-10.8517
▁دەستبەکار	-10.852
▁@	-10.8524
▁ئەدەن	-10.8529
▁بەخێو	-10.8535
▁نەوەکانی	-10.8535
▁بەپێچەوانەی	-10.8539
47	-10.8545
▁تێز	-10.8552
▁تفەنگ	-10.8554
ونەته	-10.8557
دانیشتن	-10.8561
▁ڕاوێژ	-10.8566
▁چوونکە	-10.8566
▁بەمجۆرە	-10.8582
وەزارەت	-10.8591
دنیا	-10.8592
▁بیەوێت	-10.8593
▁میهرەبان	-10.8597
▁ببەن	-10.8597
▁پەروەردگار	-10.86
▁حسێن	-10.8601
▁مانایەکی	-10.8609
▁وەرچەرخان	-10.8627
▁نووسیویەتی	-10.8629
▁وەرگێر	-10.8632
دیس	-10.8635
▁ڕەتکردەوە	-10.8643
▁یۆلیۆ	-10.8647
▁قەدەغەکردنی	-10.8648
▁ڕوودانی	-10.8649
▁سەلامەتی	-10.8651
▁دواخرا	-10.8653
وەڵام	-10.8663
▁هێرۆ	-10.8668
▁مەسعوود	-10.867
▁وێنەکان	-10.8673
▁ئۆسکار	-10.8673
▁بەتوندی	-10.8678
▁گەشەسەندن	-10.8682
▁دابڕاوەکان	-10.8691
▁هانا	-10.8691
▁میز	-10.8695
▁شێوەکار	-10.8697
▁ڕووداوەکه	-10.8709
ئیر	-10.8715
▁کاروبار	-10.8716
بەخۆ	-10.8717
▁دوابەدوای	-10.8717
▁بەلکو	-10.8719
دەزانی	-10.8725
دەگرن	-10.8726
▁تاکتیک	-10.8727
▁جووڵە	-10.8729
▁بوونەتەوە	-10.873
▁ستراتیژ	-10.873
▁دابڕان	-10.8731
▁کاتیشدا	-10.8733
▁دزەیی	-10.8733
▁فەرموودە	-10.8733
78	-10.8735
32	-10.8738
▁لێبووردن	-10.8744
▁کابینە	-10.8748
▁چوارشەممه	-10.876
▁فریو	-10.8764
بگیرێت	-10.8766
▁پێدراوە	-10.8773
▁شاڵاو	-10.8777
▁بگۆڕێت	-10.878
▁ڕەگەزپەرست	-10.8782
▁بەسەرهات	-10.8786
▁فیدڕاڵ	-10.8788
▁دەگەڕێت	-10.8796
▁نیمچە	-10.8799
▁ناسنامە	-10.8802
▁خشتەی	-10.8804
▁وەزار	-10.8804
▁تەواوەتی	-10.8812
▁نەتوانێت	-10.8823
▁بەڵکە	-10.8824
▁فێڵ	-10.8842
▁خوڵقاند	-10.8843
▁بیابان	-10.8844
▁چەوساندنەوە	-10.8847
▁زەوت	-10.8855
▁خەلیفە	-10.8859
گەشت	-10.886
▁ساوا	-10.886
▁عبد	-10.8862
▁بخەینە	-10.8869
ئایندە	-10.8877
▁مێینە	-10.8878
▁دەگمەن	-10.8879
▁پشکدار	-10.8883
▁be	-10.889
▁مشتومڕ	-10.8895
▁موسلیم	-10.8896
▁O	-10.8902
▁120	-10.8903
▁ئەنجامدراوە	-10.8913
▁مۆسکۆ	-10.8913
▁ڕوونیشی	-10.8914
ناکرێت	-10.892
▁گەرچی	-10.8921
ab	-10.8927
▁to	-10.893
▁دواخستنی	-10.8932
▁زێڕ	-10.8934
ak	-10.8939
▁کوردوستان	-10.8944
▁مێژو	-10.8945
▁حیکمەت	-10.8951
F	-10.8957
▁مەسەلەیەکی	-10.8959
▁دەستپێکرد	-10.8962
▁پرنسیپ	-10.8963
▁سڵ	-10.8964
▁ئایدۆلۆژیا	-10.8974
▁نیگا	-10.8979
▁گەیاندووە	-10.8987
▁دۆخ	-10.8989
▁نکۆڵی	-10.8992
▁سەرهەڵدان	-10.8996
▁ڕژا	-10.8997
▁بەسەرچوو	-10.9003
▁خوازراو	-10.9008
▁U	-10.901
▁موسل	-10.9014
▁حکوم	-10.9016
▁هەڵدەبژێر	-10.9016
▁ژێردەست	-10.902
▁160	-10.9022
ئەمەش	-10.9029
پوور	-10.9039
▁...	-10.9042
▁سەرشانی	-10.9045
▁نیگار	-10.9049
٩	-10.9051
▁پێشوازییکرد	-10.9063
▁1999	-10.9071
16	-10.9075
▁لەیەکەم	-10.9084
▁لەدیدارێکدا	-10.9092
▁یارمەتیدەر	-10.9095
▁نەمسا	-10.9096
▁شەماڵ	-10.9097
▁فەرمانگە	-10.9099
▁مەکتەب	-10.9107
▁نەجەف	-10.9108
▁خراوەتە	-10.9119
▁دەخوازێت	-10.912
▁جۆراو	-10.9121
▁ڕیکلام	-10.9128
▁فێرکردن	-10.9131
▁هاوشێوە	-10.9134
▁لەوەشکرد	-10.9139
▁کۆمکاری	-10.9139
▁ڤایرۆس	-10.9141
▁سزادانی	-10.9151
▁خاوێن	-10.9168
٧	-10.9169
▁دیکتاتۆرییەت	-10.9176
▁دلێر	-10.9176
▁مانچستەر	-10.9177
▁ڕەخسا	-10.9184
▁de	-10.9188
▁میک	-10.9189
▁دیجلە	-10.9191
▁نەبەز	-10.9193
18	-10.9196
▁پرۆفیسۆر	-10.9198
▁جوتیار	-10.9198
▁بەڕووی	-10.9199
▁زامن	-10.9201
بهێنن	-10.9203
▁جوانترین	-10.921
▁ئۆگۆست	-10.921
▁لەسەرتاسەری	-10.9218
▁ئاژانسەکان	-10.9225
▁دەیکەن	-10.9246
▁شەفاف	-10.9259
▁بریکاری	-10.9265
▁هەڵگیرسا	-10.9277
▁پۆزەتیڤ	-10.9284
▁1992	-10.9292
▁ناتوانرێت	-10.9293
▁٣	-10.9298
▁نەدەبوو	-10.9301
▁سووکایەتی	-10.9309
▁سۆشیال	-10.9334
▁یەکشەممه	-10.9342
▁نۆژەن	-10.9345
▁ئەڵماس	-10.9347
▁ڕوونکردنەوەیەک	-10.9351
▁ژێرخانی	-10.9352
بایەخ	-10.9353
٨	-10.9359
▁حیکایەت	-10.9359
▁ڕوکن	-10.9362
▁نەتەوەکەمان	-10.9372
tion	-10.9373
▁سازدانی	-10.9376
▁خۆکوشتن	-10.9376
▁دەردەخات	-10.9387
▁سەرنجڕاکێش	-10.9388
▁زەبر	-10.939
▁پێداگری	-10.9401
▁ئەندێشە	-10.9402
چار	-10.9406
▁خەتەنە	-10.9407
▁مەفرەز	-10.9409
▁قسەیەک	-10.9413
بخرێن	-10.9417
▁بەدڵنیاییەوە	-10.943
▁بەرنامەکە	-10.9435
▁تراژیدیا	-10.9455
▁لەوەزارەتی	-10.9462
▁تووند	-10.9465
▁مادام	-10.9466
▁ڕاکێشانی	-10.9475
▁کەموکورتی	-10.9477
▁تەبایی	-10.9478
▁تێکەڵاو	-10.9486
▁گەریلا	-10.9493
▁تەکنیک	-10.9494
▁کارگێری	-10.9501
دەچن	-10.9502
▁موشەک	-10.9504
سلام	-10.9506
▁وشیار	-10.9507
▁وتویەتی	-10.9507
▁گۆرانکاری	-10.9507
▁بەرهەڵستکار	-10.9515
▁کرۆ	-10.952
▁کەسوکار	-10.9527
▁خەمخۆر	-10.9527
▁ڤال	-10.9529
▁پێکدەهێن	-10.953
▁الص	-10.953
▁بەبڕوای	-10.9532
▁ڕێکخست	-10.9533
کوڕ	-10.9543
▁جنێو	-10.9549
▁بێتاوان	-10.9555
▁ڕەوشەنبیری	-10.9557
42	-10.9558
نوێنەر	-10.9565
57	-10.9567
▁دەستگیرکرد	-10.9575
▁دابمەزرێن	-10.9578
▁ئاکار	-10.9583
▁لەدەستدانی	-10.9584
پڕۆژە	-10.9593
▁دڕندانە	-10.96
ئەوەش	-10.9605
▁گوتوویەتی	-10.9605
▁Kurdistan	-10.9613
▁یارمەتیدانی	-10.9613
▁بپارێزن	-10.9614
▁ئیمپراتۆر	-10.9625
▁دامەزرێنەر	-10.9625
▁ڕێچکە	-10.9628
هەولێر	-10.9648
▁ئاوێتە	-10.965
▁دەموچاو	-10.9656
کەفت	-10.9656
▁گوڕ	-10.9659
▁The	-10.9664
▁کۆبونەوەکە	-10.9671
▁قازی	-10.9672
▁لەڕۆژی	-10.9673
▁ماڵپەڕ	-10.9687
▁قۆناخ	-10.9687
▁بەرشلۆنە	-10.9699
▁فڕۆکەوان	-10.9702
▁دەستێوەردان	-10.9703
▁بەقەد	-10.9705
▁کاغەز	-10.9712
▁بەفەرمی	-10.9725
ژەنتین	-10.9735
▁ئینگلیز	-10.9735
▁شکاندنی	-10.9736
▁کرمانج	-10.9742
هەنگاو	-10.9761
▁بڕیاردرا	-10.9774
ۆڤا	-10.9775
▁ئینتەر	-10.9778
▁وەفدەکە	-10.9783
▁دوعا	-10.9786
ation	-10.9788
▁دەرهەق	-10.9789
▁هەلبژاردن	-10.9793
▁سەرلەبەیانی	-10.9798
▁هەموولایەک	-10.9801
▁نەرێنی	-10.9806
▁مەسیحییەکان	-10.9812
بنەڕەت	-10.9816
▁لەوەتەی	-10.9819
بارودۆخ	-10.982
▁ستاندارد	-10.9833
گەها	-10.9838
▁گۆڵچی	-10.984
ێوەدەچێ	-10.9848
▁قێزەون	-10.9855
▁هەورامان	-10.9855
▁ئیئتلاف	-10.9859
▁دەسەلاتدار	-10.9871
▁سێشەممه	-10.9873
▁گورز	-10.9887
▁تێگەیشت	-10.9894
▁نەجیب	-10.9894
▁کەرامەت	-10.9901
ێوەبەری	-10.9913
پێکراو	-10.9913
▁کافر	-10.9925
▁دیموکراسیەت	-10.993
▁موزایەدە	-10.9934
×	-10.9935
ڕێز	-10.9937
حوکم	-10.9944
دەکرا	-10.9947
49	-10.9948
▁موحسین	-10.9953
دەسەلات	-10.9966
▁چاوەروان	-10.997
▁لەئەستۆ	-10.9979
▁فەرەیدون	-10.9983
▁دۆخەکە	-10.9986
▁سووتاند	-10.9989
ew	-10.9991
▁ئۆپۆز	-11.0007
▁پادشا	-11.001
▁ڕێگرتن	-11.0013
بودجە	-11.0024
▁بخوێنێت	-11.0029
21	-11.0033
▁تەلەف	-11.0034
▁کۆنگرێس	-11.0036
▁ماندووبوون	-11.0039
جیاواز	-11.0043
▁جەولەی	-11.0046
▁پاشماوەی	-11.0071
▁قەزافی	-11.0074
▁بدوێ	-11.0078
سالار	-11.0079
▁تێدەپەڕێ	-11.008
L	-11.0091
▁ڕفاندن	-11.0091
▁دڵەڕاوکێ	-11.0104
▁ئەیلوول	-11.0104
ابردوو	-11.0104
▁نالەبار	-11.0109
▁ڕێککەوتننام	-11.0123
37	-11.0126
▁شارەزوور	-11.0126
▁چەوساوە	-11.0126
▁شێرزاد	-11.0127
بەڕێوەبەر	-11.0134
▁پەیمانگاکان	-11.014
▁سەپتەمبەر	-11.0144
oc	-11.0145
▁یادگار	-11.0148
▁هەرەشە	-11.015
▁عەقڵییەت	-11.0151
▁ناحەز	-11.0153
▁لەدەرەوە	-11.0156
▁پشێوی	-11.0171
ەددین	-11.0184
فێر	-11.0185
▁فەرمانگەکان	-11.0186
▁بەتەواوەتی	-11.0189
▁وەرنەگرت	-11.0195
هەتا	-11.0204
▁بەندکراو	-11.0222
▁قاهیرە	-11.0226
▁لەدرێژەی	-11.0227
پرسیار	-11.023
25	-11.0239
▁کارەکتەر	-11.0239
▁بەرقەرار	-11.0244
▁بەزەیی	-11.0258
▁کۆشک	-11.0266
▁مەهاباد	-11.0271
▁وێرای	-11.0272
▁سێدارەدان	-11.0273
▁ڕزگاریخوازی	-11.0275
▁گۆڕەپان	-11.0291
▁بەراستی	-11.0297
▁ئامەد	-11.03
▁جڤاک	-11.0304
▁تەفسیر	-11.0312
▁600	-11.0314
▁بپارێزێت	-11.0317
▁هێلکە	-11.0321
▁شەریعەت	-11.0322
▁خوێندەوار	-11.0322
▁جەنگاوەر	-11.0322
▁نیویۆرک	-11.0326
▁داگیرکراو	-11.033
گفتوگۆ	-11.0336
▁جوولەکە	-11.0345
▁کۆمیدی	-11.035
▁هەژموون	-11.0372
▁2001	-11.0375
▁وابەستە	-11.0376
▁ماونەتەوە	-11.0379
زیاتر	-11.0381
▁گوندنشین	-11.0383
▁کەیسە	-11.039
▁ڕاگیرا	-11.0397
▁بوارەکاندا	-11.0398
کتێب	-11.0404
▁تۆقاندن	-11.0414
▁بەرشلۆنه	-11.0419
▁کەنیسە	-11.042
▁موفتی	-11.0424
▁بەخشرا	-11.0425
تایبەت	-11.0426
بخەن	-11.0428
58	-11.0429
▁سووتەمەنی	-11.0433
▁لانیکەم	-11.0433
▁پرۆژەکانی	-11.0436
بوایە	-11.0439
حیزب	-11.0449
▁خایاند	-11.0454
نجشەممه	-11.046
▁بلۆک	-11.0462
▁کۆمیتە	-11.0463
▁هەڵەبجه	-11.047
▁یەپەگە	-11.047
▁شانۆنامە	-11.0471
G	-11.0476
گەیەندرا	-11.0478
▁کۆرپە	-11.048
▁خۆشبەختانە	-11.0488
▁ڕوژ	-11.0494
▁بەسرە	-11.0502
▁نەخوازراو	-11.0517
▁تایفی	-11.052
▁بیستەم	-11.0521
▁مەمک	-11.0522
▁وێستگ	-11.0528
▁ڕاشکاوانە	-11.053
▁بایدن	-11.0548
▁بەسەرپەرشتی	-11.0549
▁لەرێگای	-11.0554
▁هێند	-11.0555
▁کونسوڵی	-11.0559
▁لەهۆڵی	-11.0564
▁ماندو	-11.0566
▁سایکۆلۆژی	-11.0573
▁ڕەخنەگرتن	-11.0575
▁ڕیکخراو	-11.0577
▁ئەنارکی	-11.0578
خوڵقێن	-11.0593
هاویشت	-11.0601
▁ستایل	-11.0603
▁جموجۆڵ	-11.0606
▁درکاند	-11.0614
▁هەندرێن	-11.0617
▁فرۆشتن	-11.0625
▁لەئەنجامدا	-11.0637
▁قاعیده	-11.0639
▁زمانەوانی	-11.0648
▁ناسیۆنالیست	-11.0648
▁فەیلی	-11.0652
▁بادینان	-11.0658
گەهێ	-11.066
▁هۆگر	-11.066
▁گورگ	-11.0663
▁قانوون	-11.0663
▁ئۆردوگا	-11.0682
عیراق	-11.0691
▁چەوسانەوە	-11.0701
▁مەقام	-11.0701
▁وشەیەک	-11.0702
▁گەمژە	-11.073
▁ڕوانگە	-11.0748
▁پاراست	-11.0757
52	-11.0764
▁لیبراڵ	-11.0768
▁ئاخاوتن	-11.0782
▁فەیسبووک	-11.0782
بدەین	-11.0797
ah	-11.0809
▁نەقیب	-11.0832
کاروباری	-11.0834
▁سەرسوڕمان	-11.0835
▁فۆتۆگرافی	-11.084
▁نایەوێت	-11.0855
▁یۆنیۆ	-11.0869
▁ژەهراوی	-11.0871
پێکهات	-11.0875
▁بزانم	-11.0887
▁نۆڤەمبەر	-11.0893
▁2002	-11.0897
▁مەعریفی	-11.0898
میدیا	-11.0906
▁زەبەلاح	-11.0923
▁هەلوێست	-11.0923
▁شەراکەت	-11.0937
▁کەڵەکە	-11.0961
▁پڕۆژه	-11.0986
▁سیڤیل	-11.0998
▁کۆمۆنیزم	-11.1001
▁گۆڕستان	-11.1003
▁قەڵەو	-11.1008
▁ئوسامە	-11.1011
▁لەکۆبوونەوەکەدا	-11.1016
▁بەگژ	-11.1021
▁خانووبەرە	-11.1028
دەهێنێت	-11.1033
▁شێروان	-11.1043
▁پێناد	-11.1045
▁دابەزینی	-11.1045
▁هۆڵەندی	-11.1046
ەحمان	-11.1049
▁ئەجێندای	-11.105
▁ڕێورەسم	-11.105
▁پارچه	-11.106
▁تەنیشت	-11.1065
▁یەکگرتنەوەی	-11.1065
▁کەشوهەوا	-11.108
▁نەیویست	-11.1083
▁نوجێفی	-11.1095
پەیامنێر	-11.1097
▁گیروگرفت	-11.11
▁نەتوانرا	-11.1113
▁مورسی	-11.1116
▁ڕابوردوو	-11.112
خایەن	-11.1128
لەگەڵ	-11.1138
▁ئەخلاق	-11.1141
▁دەگەین	-11.1141
ئەمڕۆ	-11.1153
▁بپرسین	-11.1155
▁غەدر	-11.1159
▁فەتوا	-11.116
▁بخەن	-11.1165
▁دەباغ	-11.1167
Y	-11.1169
▁سەرسەخت	-11.1175
▁ئیتاڵیا	-11.1175
▁هۆتێل	-11.1175
▁سلیمانی	-11.1175
▁پێکهێنرا	-11.1176
▁بەڕێژەی	-11.118
▁مریشک	-11.118
▁شەریک	-11.1181
▁کاردانەو	-11.1201
▁ئارەزو	-11.1206
▁پڕۆژەیاسای	-11.1212
▁کوبانێ	-11.1215
▁لاتینی	-11.1218
▁شوفێر	-11.1221
▁قەرەباڵغ	-11.1225
▁دەروێش	-11.1226
▁هەنوکە	-11.1228
▁ئامادەکراو	-11.1229
▁بەهمەن	-11.1229
▁دەڵێیت	-11.123
B	-11.1263
▁2015	-11.127
▁دوپات	-11.127
▁بدەیت	-11.1272
▁مەند	-11.1281
▁پایز	-11.1285
▁ناتوانیت	-11.1285
▁فلیم	-11.1289
▁کەربەلا	-11.1305
شۆڕش	-11.1311
▁ئەرسناڵ	-11.1326
▁ڕیسوا	-11.1326
500	-11.1333
▁بڵاوکرایەوە	-11.1341
▁نێگەتیڤ	-11.1351
▁پەسەندکرا	-11.136
وشک	-11.1362
▁سڕینەوەی	-11.1362
▁مەحکوم	-11.1366
▁بێگەرد	-11.1371
▁مسوڵمان	-11.1382
▁لینک	-11.139
▁شمشێر	-11.1392
شیعر	-11.1392
▁وەبەرهێنەر	-11.1397
▁عەمەلی	-11.1397
▁دیسەمبەر	-11.1407
▁جەزائیر	-11.1423
▁ئەلقاعیدە	-11.1433
دەبرێ	-11.1439
▁بێژەر	-11.1439
▁هاتوونەتە	-11.1443
▁ئەلیکترۆنی	-11.1443
▁ئەڵقە	-11.1444
ئامێز	-11.1446
دیموکراسی	-11.1451
▁ڕاگەیەندراو	-11.1474
▁سەرچاوه	-11.1475
▁هەسارە	-11.1478
▁هەرزەکار	-11.1482
▁ئەنجوومەن	-11.149
▁بەڕێوەبردن	-11.1509
؟	-11.151
▁بوەستێ	-11.1513
▁فاشیست	-11.1516
▁ڕیشەیی	-11.1518
▁هێنانەدی	-11.1521
▁ئینگلتەرا	-11.1531
تیرۆر	-11.1547
▁قوربان	-11.1548
▁ناڕاستەوخۆ	-11.1557
▁وەربگرین	-11.1562
▁بەپلەی	-11.1563
▁گومانلێکراو	-11.1588
▁ئینتیما	-11.1588
▁سەفین	-11.1595
▁ڕادیکاڵ	-11.1609
گرفت	-11.1612
▁بەرتەسک	-11.1622
27	-11.1624
▁فەلاح	-11.1625
▁بەهرەمەند	-11.1632
٣	-11.1639
M	-11.1986
U	-11.37
H	-11.3843
î	-11.4454
X	-11.4728
Z	-11.501
Q	-11.5225
ê	-11.5765
–	-11.6886
ء	-11.8229
W	-11.9079
©	-11.9456
’	-11.9617
%	-12.3439
J	-12.4037
$	-12.5474
*	-12.569
é	-12.6033
·	-12.6601
״	-12.6743
ä	-12.6838
`	-12.7354
ö	-12.7507
”	-12.7584
ı	-12.7979
ş	-12.8995
|	-12.9266
!	-12.9297
•	-12.9358
“	-12.9389
ü	-13.0923
=	-13.1014
>	-13.1771
<	-13.1946
#	-13.2009
'	-13.2131
	-13.2692
+	-13.2892
‬	-13.4106
υ	-13.4173
‘	-13.4632
﴿	-13.5224
	-13.5505
﴾	-13.5735
û	-13.6336
	-13.6336
	-13.6714
	-13.6909
å	-13.7243
◦	-13.7872
]	-13.8369
	-13.8778
›	-13.9019
ת	-13.9019
ç	-13.9348
ו	-13.9348
←	-13.9517
٭	-13.9602
	-13.9688
~	-14.0041
а	-14.0041
е	-14.0499
ٱ	-14.0689
о	-14.0689
מ	-14.0689
	-14.0882
	-14.0882
¬	-14.098
‹	-14.098
	-14.1079
❊	-14.1486
	-14.1801
и	-14.1909
р	-14.2018
ל	-14.2018
ד	-14.2351
	-14.2579
	-14.3053
ρ	-14.3423
ָ	-14.3678
è	-14.3808
μ	-14.3808
⁄	-14.3808
т	-14.394
с	-14.4073
ר	-14.4073
	-14.4484
Ş	-14.4484
θ	-14.4625
°	-14.4768
	-14.4913
	-14.506
	-14.506
●	-14.5209
λ	-14.5514
н	-14.5514
א	-14.5514
	-14.5829
ּ	-14.6491
ה	-14.6491
	-14.6663
	-14.6663
в	-14.7017
ש	-14.7017
Ω	-14.7199
Ö	-14.7384
Ǥ	-14.7765
ω	-14.7765
	-14.7961
	-14.7961
„	-14.7961
□	-14.8161
	-14.8365
	-14.8573
к	-14.8573
נ	-14.9004
à	-14.9004
י	-14.9004
	-14.9004
ğ	-14.9226
	-14.9453
	-14.9686
Ç	-14.9686
ۊ	-14.9686
	-14.9686
	-14.9924
ך	-14.9924
л	-15.0168
	-15.0168
ב	-15.0168
	-15.0168
π	-15.0418
м	-15.0418
	-15.0418
	-15.0674
÷	-15.0674
۔	-15.0674
»	-15.092
	-15.0937
ȥ	-15.0937
ν	-15.0937
ь	-15.1208
	-15.1485
́	-15.1485
Φ	-15.1485
‚	-15.1485
ч	-15.1485
	-15.1485
ְ	-15.1771
	-15.1771
ß	-15.1771
	-15.2065
İ	-15.2065
χ	-15.2065
	-15.2368
^	-15.2368
ā	-15.2681
ƥ	-15.2681
∆	-15.2681
	-15.2681
	-15.2681
	-15.2681
ִ	-15.3003
	-15.3003
С	-15.3003
д	-15.3003
ַ	-15.3003
	-15.3003
;	-15.3319
	-15.3337
	-15.3337
Ǧ	-15.3337
䦣	-15.3337
	-15.3337
	-15.3681
Ϧ	-15.3681
α	-15.3681
▼	-15.4039
Ѧ	-15.4039
	-15.4039
	-15.4039
	-15.4409
堦	-15.4409
	-15.4409
ι	-15.4409
̊	-15.4409
	-15.4409
á	-15.4794
Ȧ	-15.4794
榣	-15.4794
	-15.4794
Î	-15.5194
ߥ	-15.5194
ߦ	-15.5194
ο	-15.5194
τ	-15.5194
	-15.561
	-15.561
ھ	-15.561
	-15.561
؛	-15.561
ᥝ	-15.561
	-15.561
	-15.561
	-15.6045
坦	-15.6045
А	-15.65
ʥ	-15.65
ς	-15.65
κ	-15.65
я	-15.65
ֹ	-15.65
	-15.65
	-15.65
	-15.6976
	-15.6976
—	-15.6976
Ä	-15.6976
	-15.6976
	-15.6976
ٴ	-15.6976
	-15.6976
ѐ	-15.7476
ן	-15.7476
Ü	-15.8002
£	-15.8002
ó	-15.8002
ǘ	-15.8002
ϥ	-15.8002
߇	-15.8002
ἱ	-15.8002
у	-15.8002
ק	-15.8002
п	-15.8002
	-15.8558
	-15.8558
	-15.8558
ф	-15.8558
ӥ	-15.8558
\	-15.9128
	-15.9146
	-15.9146
ƒ	-15.9146
ј	-15.9146
坠	-15.9146
ǐ	-15.9146
	-15.9146
	-15.9146
М	-15.9771
Ѡ	-15.9771
	-15.9771
É	-15.9771
ō	-15.9771
Н	-15.9771
ג	-15.9771
}	-16.042
Б	-16.0437
Р	-16.0437
	-16.0437
	-16.0437
К	-16.0438
б	-16.0438
ڎ	-16.0438
σ	-16.0438
	-16.0438
	-16.0438
	-16.1152
Ê	-16.1152
й	-16.1152
ߑ	-16.1152
í	-16.1152
Ǡ	-16.1152
ם	-16.1152
ᥠ	-16.1152
ᦣ	-16.1152
坐	-16.1152
楝	-16.1152
	-16.1152
Ʀ	-16.1152
И	-16.1152
ח	-16.1152
	-16.1152
	-16.1921
	-16.1921
?	-16.1921
Å	-16.1921
ô	-16.1921
۞	-16.1921
䇦	-16.1921
	-16.1921
	-16.1921
	-16.2754
â	-16.2754
ø	-16.2754
ī	-16.2754
Ƈ	-16.2754
ʠ	-16.2754
ε	-16.2754
ы	-16.2754
٪	-16.2754
ަ	-16.2754
′	-16.2754
䥝	-16.2754
坁	-16.2754
	-16.2754
ע	-16.2754
	-16.3663
	-16.3663
η	-16.3663
坟	-16.3663
堟	-16.3663
榦	-16.3663
	-16.3663
楠	-16.3663
	-16.3663
ׁ	-16.3664
	-16.3664
«	-16.4646
♣	-16.4663
	-16.4663
	-16.4663
	-16.4663
ē	-16.4663
Ŕ	-16.4663
Ș	-16.4663
ə	-16.4663
ά	-16.4663
Ԙ	-16.4663
妣	-16.4663
	-16.4663
	-16.5775
	-16.5775
堤	-16.5775
ū	-16.5775
ǁ	-16.5775
Δ	-16.5775
П	-16.5775
ῶ	-16.5775
	-16.5775
г	-16.5775
з	-16.5775
Ґ	-16.5775
Ԡ	-16.5775
	-16.5775
	-16.5775
	-16.5775
	-16.5775
У	-16.7024
	-16.7024
	-16.7024
	-16.7024
	-16.7025
В	-16.7025
ц	-16.7025
Û	-16.7025
ʘ	-16.7025
ʦ	-16.7025
ώ	-16.7025
О	-16.7025
ж	-16.7025
ӊ	-16.7025
כ	-16.7025
ڦ	-16.7025
ہ	-16.7025
ߠ	-16.7025
ὶ	-16.7025
◊	-16.7025
	-16.7025
δ	-16.7025
Ϥ	-16.7025
ъ	-16.7025
	-16.7025
ȇ	-16.7025
	-16.8453
䏇	-16.8453
	-16.8453
ł	-16.8453
э	-16.8453
Ԋ	-16.8453
Ǒ	-16.8453
ǣ	-16.8453
̦	-16.8453
ψ	-16.8453
ю	-16.8453
ԇ	-16.8453
۲	-16.8453
ޥ	-16.8453
€	-16.8453
㦣	-16.8453
䠦	-16.8453
䥠	-16.8453
坝	-16.8453
	-16.8453
	-16.8453
	-16.8453
Ԧ	-16.8453
	-16.8453
	-17.012
æ	-17.012
ί	-17.012
Ϡ	-17.012
®	-17.012
±	-17.012
Ĥ	-17.012
ĺ	-17.012
ŕ	-17.012
ˌ	-17.012
̡	-17.012
Ͽ	-17.012
З	-17.012
ш	-17.012
ѥ	-17.012
҇	-17.012
Ӧ	-17.012
ե	-17.012
ۥ	-17.012
ۦ	-17.012
۰	-17.012
ር	-17.012
ኛ	-17.012
≈	-17.012
㑦	-17.012
坘	-17.012
坡	-17.012
懠	-17.012
	-17.012
	-17.012
Г	-17.012
	-17.012
া	-17.012
	-17.012
	-17.012
ȑ	-17.212
	-17.212
ž	-17.212
ʤ	-17.212
φ	-17.212
懓	-17.212
	-17.212
§	-17.212
Á	-17.212
č	-17.212
ʇ	-17.212
ʐ	-17.212
ʮ	-17.212
ˈ	-17.212
γ	-17.212
ό	-17.212
ԟ	-17.212
ԥ	-17.212
ݥ	-17.212
ἡ	-17.212
㥝	-17.212
坎	-17.212
坑	-17.212
坤	-17.212
堡	-17.212
懤	-17.212
抦	-17.212
	-17.212
	-17.212
堈	-17.212
	-17.212
	-17.212
{	-17.4602
	-17.462
	-17.462
	-17.462
	-17.462
	-17.462
ã	-17.462
פ	-17.462
	-17.462
Ø	-17.462
ñ	-17.462
	-17.462
	-17.462
	-17.462
¿	-17.462
À	-17.462
Ǫ	-17.462
̋	-17.462
Д	-17.462
Ӂ	-17.462
Ө	-17.462
ֲ	-17.462
ֻ	-17.462
ᇦ	-17.462
∷	-17.462
≡	-17.462
䠡	-17.462
文	-17.462
	-17.462
џ	-17.462
Ӈ	-17.462
ֵ	-17.462
ܒ	-17.462
ܪ	-17.462
ܐ	-17.462
&	-17.7936
ї	-17.7953
	-17.7953
	-17.7953
	-17.7953
	-17.7953
Ф	-17.7953
	-17.7953
	-17.7953
̈	-17.7953
奝	-17.7953
È	-17.7953
ζ	-17.7953
ϡ	-17.7953
ӑ	-17.7953
ܝ	-17.7953
Ó	-17.7953
ï	-17.7953
Ľ	-17.7953
ń	-17.7953
œ	-17.7953
Ž	-17.7953
ǎ	-17.7953
ǡ	-17.7953
ɛ	-17.7953
ɪ	-17.7953
ʉ	-17.7953
ʒ	-17.7953
ˉ	-17.7953
̌	-17.7953
Ε	-17.7953
β	-17.7953
Я	-17.7953
ѓ	-17.7953
ѣ	-17.7953
Ҧ	-17.7953
ԍ	-17.7953
Հ	-17.7953
ա	-17.7953
յ	-17.7953
ն	-17.7953
ր	-17.7953
ט	-17.7953
ס	-17.7953
ۀ	-17.7953
ې	-17.7953
ݦ	-17.7953
ল	-17.7953
ท	-17.7953
ย	-17.7953
ไ	-17.7953
ລ	-17.7953
ວ	-17.7953
າ	-17.7953
་	-17.7953
ག	-17.7953
ད	-17.7953
བ	-17.7953
ཡ	-17.7953
ི	-17.7953
ོ	-17.7953
ა	-17.7953
თ	-17.7953
ი	-17.7953
ლ	-17.7953
რ	-17.7953
უ	-17.7953
ქ	-17.7953
រ	-17.7953
ែ	-17.7953
ế	-17.7953
ệ	-17.7953
ἐ	-17.7953
ὴ	-17.7953
ῆ	-17.7953
䌇	-17.7953
䒦	-17.7953
中	-17.7953
坏	-17.7953
堏	-17.7953
堣	-17.7953
栦	-17.7953
粵	-17.7953
語	-17.7953
국	-17.7953
어	-17.7953
한	-17.7953
	-17.7953
	-17.7953
	-17.7953
	-17.7953
	-17.7953
	-17.7953
	-17.7953
㇤	-17.7953
	-17.7953
š	-17.7953
Ǐ	-17.7953
ύ	-17.7953
є	-17.7953
۱	-17.7953
㠐	-17.7953
堑	-17.7953
栈	-17.7953
	-17.7953
	-17.7953
䠈	-17.7953
ґ	-17.7953
ং	-17.7953
ব	-17.7953
ማ	-17.7953
ት	-17.7953
አ	-17.7953
ግ	-17.7953
ខ	-17.7953
ម	-17.7953
្	-17.7953
	-17.7953
Х	-18.2953
	-18.2953
	-18.2953
	-18.2953
堁	-18.2953
	-18.2953
	-18.2953
	-18.2953
	-18.2953
	-18.2953
Ǔ	-18.2953
ξ	-18.2953
䇤	-18.2953
ě	-18.2953
ĥ	-18.2953
Ĺ	-18.2953
ś	-18.2953
ǒ	-18.2953
Ȉ	-18.2953
ȕ	-18.2953
ɒ	-18.2953
ʁ	-18.2953
ˍ	-18.2953
̥	-18.2953
ή	-18.2953
Е	-18.2953
Л	-18.2953
Т	-18.2953
Ш	-18.2953
Ѥ	-18.2953
ҁ	-18.2953
Ғ	-18.2953
Ҡ	-18.2953
ӣ	-18.2953
ֶ	-18.2953
צ	-18.2953
۳	-18.2953
۷	-18.2953
۸	-18.2953
ܠ	-18.2953
ܩ	-18.2953
ݒ	-18.2953
ᓦ	-18.2953
ὄ	-18.2953
ὰ	-18.2953
∙	-18.2953
►	-18.2953
◀	-18.2953
◄	-18.2953
☿	-18.2953
》	-18.2953
㠥	-18.2953
㠦	-18.2953
㦓	-18.2953
䑇	-18.2953
䠏	-18.2953
䠟	-18.2953
䥦	-18.2953
七	-18.2953
呠	-18.2953
坊	-18.2953
坓	-18.2953
坣	-18.2953
坿	-18.2953
堊	-18.2953
堓	-18.2953
懦	-18.2953
栝	-18.2953
椠	-18.2953
동	-18.2953
이	-18.2953
	-18.2953
	-18.2953
	-18.2953
	-18.2953
	-18.2953
	-18.2953
	-18.2953
	-18.2953
	-18.2953
Š	-18.2953
ٰ	-18.2953
	-18.2953
ʌ	-18.2953
ἔ	-18.2953
揇	-18.2953
栆	-18.2953
栓	-18.2953
Κ	-18.2953
ז	-18.2953
ᾶ	-18.2953
	-18.2953
	-18.2953
㥠	-18.2953
	-18.2953
Ô	-19.2953
ׂ	-19.2953
堍	-19.2953
ڇ	-19.2953
Ῥ	-19.2953
㠑	-19.2953
榏	-19.2953
Ч	-19.2953
¡	-19.2953
­	-19.2953
Ï	-19.2953
Ñ	-19.2953
ë	-19.2953
ă	-19.2953
Ē	-19.2953
ħ	-19.2953
Ō	-19.2953
ŭ	-19.2953
Ű	-19.2953
ż	-19.2953
ȍ	-19.2953
Ȏ	-19.2953
ȟ	-19.2953
Ȥ	-19.2953
ɑ	-19.2953
ɔ	-19.2953
ɽ	-19.2953
ʡ	-19.2953
ʪ	-19.2953
ʿ	-19.2953
ˆ	-19.2953
̐	-19.2953
̛	-19.2953
̧	-19.2953
Α	-19.2953
Μ	-19.2953
Π	-19.2953
ϊ	-19.2953
Ϙ	-19.2953
Щ	-19.2953
Ю	-19.2953
щ	-19.2953
ѝ	-19.2953
Ѫ	-19.2953
Ҙ	-19.2953
Ҥ	-19.2953
ҥ	-19.2953
ӏ	-19.2953
Ә	-19.2953
Ӡ	-19.2953
ӡ	-19.2953
ڨ	-19.2953
ۈ	-19.2953
ۏ	-19.2953
ۖ	-19.2953
ۚ	-19.2953
۩	-19.2953
۹	-19.2953
ܘ	-19.2953
ܢ	-19.2953
݊	-19.2953
ݠ	-19.2953
ޏ	-19.2953
ޠ	-19.2953
ޮ	-19.2953
ߎ	-19.2953
ᇣ	-19.2953
᠈	-19.2953
᠟	-19.2953
ᠥ	-19.2953
ᦌ	-19.2953
Ἑ	-19.2953
ἤ	-19.2953
Ἡ	-19.2953
ἰ	-19.2953
ὅ	-19.2953
ὸ	-19.2953
ῃ	-19.2953
ῴ	-19.2953
ῷ	-19.2953
†	-19.2953
‫	-19.2953
₤	-19.2953
㇎	-19.2953
㇡	-19.2953
㠆	-19.2953
㠍	-19.2953
㣥	-19.2953
䇏	-19.2953
䇑	-19.2953
䏥	-19.2953
䐇	-19.2953
䘠	-19.2953
䝿	-19.2953
䠣	-19.2953
䤠	-19.2953
䮠	-19.2953
䮼	-19.2953
健	-19.2953
再	-19.2953
凊	-19.2953
凝	-19.2953
処	-19.2953
動	-19.2953
勧	-19.2953
化	-19.2953
告	-19.2953
坍	-19.2953
堎	-19.2953
堐	-19.2953
堒	-19.2953
堠	-19.2953
堥	-19.2953
夑	-19.2953
宊	-19.2953
宠	-19.2953
康	-19.2953
建	-19.2953
愛	-19.2953
懑	-19.2953
懣	-19.2953
戥	-19.2953
戦	-19.2953
抑	-19.2953
护	-19.2953
报	-19.2953
摏	-19.2953
摥	-19.2953
摦	-19.2953
撦	-19.2953
攥	-19.2953
教	-19.2953
最	-19.2953
栊	-19.2953
栌	-19.2953
栟	-19.2953
栠	-19.2953
校	-19.2953
椢	-19.2953
椥	-19.2953
楡	-19.2953
楮	-19.2953
榓	-19.2953
榠	-19.2953
殉	-19.2953
源	-19.2953
神	-19.2953
者	-19.2953
行	-19.2953
試	-19.2953
資	-19.2953
転	-19.2953
運	-19.2953
݇	-19.2953
㠞	-19.2953
ǔ	-19.2953
έ	-19.2953
ӟ	-19.2953
ἄ	-19.2953
㇍	-19.2953
㠡	-19.2953
䇣	-19.2953
栏	-19.2953
Ś	-19.2953
堆	-19.2953
栁	-19.2953
