<unk>	0
<s>	0
</s>	0
▁و	-3.15772
ی	-3.6825
▁لە	-3.90692
▁بۆ	-4.42019
▁بە	-4.46348
▁کە	-4.48693
ە	-4.65091
▁ئەو	-4.76948
▁له	-4.94931
▁(	-5.11068
دا	-5.17426
،	-5.18972
▁"	-5.21108
▁)	-5.28619
▁:	-5.29999
▁-	-5.35188
▁/	-5.45085
▁ئەم	-5.47265
▁کوردستان	-5.51114
ن	-5.51281
و	-5.53117
ه	-5.64252
ەوە	-5.66021
ان	-5.73588
یان	-5.76683
م	-5.78907
▁به	-5.82259
▁لەسەر	-5.92262
▁هەر	-5.92814
ش	-5.98499
▁ئەوەی	-6.05933
▁لەگەڵ	-6.08532
▁عێراق	-6.08761
▁خۆی	-6.1231
ەکانی	-6.14627
▁ی	-6.15359
▁سەر	-6.15725
▁لەو	-6.15795
▁وەک	-6.16239
▁بەڵام	-6.19594
ـ	-6.20117
ەکان	-6.20239
▁هەموو	-6.2192
▁که	-6.23017
ێکی	-6.24753
▁زۆر	-6.25776
▁بوو	-6.31324
مان	-6.31433
▁کورد	-6.32182
"	-6.33819
ت	-6.39244
▁هەیە	-6.39422
▁دەبێت	-6.39859
▁دەکات	-6.40274
▁تا	-6.41016
ێ	-6.42876
▁کرد	-6.43646
▁دا	-6.45296
یە	-6.48421
▁یان	-6.50202
ا	-6.51563
ِ	-6.51916
▁بێت	-6.58602
▁ئەگەر	-6.59538
▁دوو	-6.60341
▁هەرێمی	-6.6365
▁بێ	-6.63681
ێک	-6.63847
▁چەند	-6.64964
▁من	-6.6532
▁نییە	-6.6657
▁بکات	-6.6817
▁لەم	-6.68732
▁هیچ	-6.69208
▁سیاسی	-6.70056
[	-6.71012
▁،]	-6.71117
▁سەرۆکی	-6.71957
▁دوای	-6.74527
ەی	-6.74914
▁ئێستا	-6.75519
▁ئەوە	-6.80004
▁خۆیان	-6.80561
ەکەی	-6.82041
انە	-6.82184
:	-6.82365
یش	-6.83375
▁ناو	-6.87193
▁دەکەن	-6.89977
▁هەروەها	-6.90026
▁ئێمە	-6.90095
▁هەولێر	-6.90378
▁دەست	-6.9041
▁زیاتر	-6.90438
▁چونکە	-6.9059
▁تەنیا	-6.90875
▁[	-6.91748
▁]	-6.9195
▁حکومەتی	-6.93683
▁تر	-6.96392
▁نە	-6.98993
▁یەک	-6.99682
▁بکەن	-7.00302
)	-7.00482
▁بەر	-7.02219
▁بوون	-7.02306
▁,	-7.02705
▁ساڵی	-7.03226
▁پێ	-7.04617
▁ئێران	-7.04872
وە	-7.05188
▁سەرۆک	-7.06362
انەی	-7.06706
ەکە	-7.07196
▁هەرێم	-7.08668
▁یەکێتی	-7.09188
▁بەو	-7.0922
▁نێوان	-7.10019
یەکی	-7.10296
▁بووە	-7.10487
▁کردووە	-7.11063
▁سلێمانی	-7.11257
▁کەس	-7.1366
▁گوتی	-7.13959
▁کوردی	-7.14544
▁بۆیە	-7.15247
کردنی	-7.15952
▁دەکرێت	-7.16478
ین	-7.17052
▁لێ	-7.17345
ى	-7.17954
▁ب	-7.18758
▁خەڵکی	-7.20344
▁شاری	-7.22202
▁لەلایەن	-7.22386
▁د	-7.23283
▁پارتی	-7.26515
ک	-7.27127
▁دە	-7.27819
▁بەسەر	-7.28134
▁دەڵێت	-7.28463
▁ئەنجومەنی	-7.28672
▁نا	-7.29222
▁کاری	-7.29329
▁ڕۆژی	-7.29414
▁تورکیا	-7.314
▁کار	-7.31792
▁2	-7.32708
▁ل	-7.35477
▁یەکەم	-7.35698
▁3	-7.36301
ەوه	-7.40036
▁یانەی	-7.40154
▁تایبەت	-7.41342
▁ڕایگەیاند	-7.41368
▁10	-7.42458
▁وەکو	-7.42496
▁پێی	-7.42758
انی	-7.43194
▁سێ	-7.43631
▁گشتی	-7.43975
یەک	-7.4442
▁پێش	-7.45053
▁مرۆڤ	-7.45378
▁1	-7.45627
▁هەندێک	-7.45699
▁	-7.46305
▁دروست	-7.46738
▁ئەمڕۆ	-7.47254
▁م	-7.47523
▁بەڵکو	-7.47955
▁بەرامبەر	-7.48768
▁ئەمە	-7.49007
▁;	-7.4927
▁بکرێت	-7.49653
▁لایەن	-7.51018
▁ئەمەریکا	-7.51223
▁بەهۆی	-7.51659
▁چ	-7.5168
▁کەرکوک	-7.52061
▁&	-7.52712
▁نوێ	-7.53323
▁2010	-7.54086
▁حکومەت	-7.54323
▁بن	-7.55103
▁ناوی	-7.55272
▁کۆتایی	-7.57105
▁نەک	-7.57203
کردن	-7.5747
▁4	-7.582
▁ئەوان	-7.58375
▁ئیسلامی	-7.59321
▁،	-7.59426
▁ئە	-7.60028
▁2011	-7.60139
ەو	-7.60162
▁چەندین	-7.60268
▁ئەمەش	-7.60629
کی	-7.60638
▁5	-7.60761
▁لای	-7.61286
د	-7.61497
▁11	-7.62802
▁ساڵ	-7.62967
▁کردنی	-7.63069
▁وەزارەتی	-7.63556
▁داوای	-7.63578
▁وەزیری	-7.64369
▁سەبارەت	-7.64413
▁بەپێی	-7.64489
▁12	-7.64561
▁ئەحمەد	-7.64762
▁چۆن	-7.65068
▁پێویستە	-7.65084
شی	-7.65134
▁هەزار	-7.65273
▁لەناو	-7.6591
تان	-7.66428
▁بەم	-7.66838
ەکی	-7.67378
▁پەرلەمان	-7.6759
▁عەلی	-7.68168
▁عێراقی	-7.68652
ْ	-7.68662
▁6	-7.68805
▁\	-7.69255
▁بارزانی	-7.69317
▁کوردستانی	-7.69319
▁–	-7.69679
▁ئازادی	-7.69941
یەوە	-7.70108
▁*	-7.70624
▁ڕ	-7.70833
▁هۆی	-7.71013
▁دەستی	-7.71413
▁مافی	-7.71641
▁خۆ	-7.71641
▁تۆ	-7.71788
▁پەرلەمانی	-7.72092
▁باس	-7.72298
▁خەڵک	-7.72481
ێن	-7.72558
▁بکەین	-7.72586
▁بەغدا	-7.72987
▁بەشی	-7.73105
کە	-7.73129
▁گوتیشی	-7.7323
▁نێو	-7.73542
▁بەرەو	-7.73552
▁ن	-7.74758
بوو	-7.74985
▁یەکێک	-7.7517
تر	-7.75975
▁هەبێت	-7.76224
▁لەبەر	-7.76231
▁محەمەد	-7.76471
▁وا	-7.76621
▁بەردەوام	-7.76678
س	-7.7686
▁کاتێک	-7.77049
▁ماوەی	-7.7725
/	-7.7805
▁پ	-7.78211
▁پاش	-7.79798
▁بوونی	-7.79839
▁داعش	-7.8006
کانی	-7.80943
▁دیکە	-7.81462
▁ش	-7.82525
▁ئەوا	-7.83524
▁هەمان	-7.83584
▁باسی	-7.83676
یەکان	-7.83949
▁ڕاگەیاند	-7.83957
کان	-7.84071
▁2012	-7.84104
▁ئەمریکا	-7.84105
▁کەم	-7.84137
▁گەورە	-7.8417
▁با	-7.84451
▁س	-7.84537
▁7	-7.84583
ب	-7.8483
▁ئەنجام	-7.8502
▁9	-7.85339
▁دەرەوەی	-7.85697
▁پەیوەندی	-7.85881
▁دژی	-7.85957
▁ک	-7.86062
▁وە	-7.86348
ەک	-7.86559
▁ژیانی	-7.86811
▁نەبێت	-7.87111
▁هەردوو	-7.87203
ر	-7.87225
ل	-7.87549
▁بەلام	-7.87712
▁هێزەکانی	-7.88729
▁8	-7.88761
▁یا	-7.89295
▁کراوە	-7.89882
ُ	-7.90215
بوون	-7.90563
▁ئەوەیە	-7.90939
▁گۆڕان	-7.90943
ۆ	-7.91173
▁ژیان	-7.91737
▁زۆری	-7.9191
▁واتە	-7.93337
▁2009	-7.93539
▁کاتی	-7.93676
▁جیهانی	-7.93798
▁فیلمی	-7.94261
▁خولی	-7.94333
▁'	-7.95169
▁20	-7.95488
▁چی	-7.95589
▁بەشداری	-7.9578
تی	-7.96373
▁دەسەڵات	-7.96403
▁لیستی	-7.96751
▁ئاستی	-7.96956
▁دەوڵەتی	-7.9711
▁کۆماری	-7.97737
▁17	-7.98021
▁حیزبی	-7.98517
▁دەکەین	-7.98688
▁چوار	-7.98789
▁ئەندامی	-7.9939
▁جیهان	-7.99417
▁ئایا	-7.99845
نە	-8.00075
▁جۆرە	-8.00093
▁ژنان	-8.00284
▁15	-8.00379
▁18	-8.00472
▁پارێزگای	-8.00813
▁ئاماژەی	-8.01047
▁کرا	-8.01154
▁پڕ	-8.01282
▁دووەم	-8.01903
ێت	-8.02828
▁هێزی	-8.02864
▁2014	-8.02898
▁هەمیشە	-8.03007
▁ئەوەش	-8.03515
▁گەلی	-8.03586
▁بی	-8.03855
▁کێشەی	-8.04696
کەی	-8.04842
▁تری	-8.05056
▁2008	-8.05241
▁16	-8.05361
▁ڕۆژ	-8.05633
یەکانی	-8.0576
▁پێشمەرگە	-8.05828
▁باش	-8.05854
▁ژێر	-8.05891
▁بواری	-8.06095
بێت	-8.0614
▁تایبەتی	-8.06298
▁تێدا	-8.06319
َ	-8.06567
▁دواتر	-8.06707
▁زمانی	-8.06753
▁سوریا	-8.06863
▁تەواو	-8.07175
▁کۆمەڵایەتی	-8.07311
▁دەکرد	-8.07445
نا	-8.08
▁ژن	-8.08057
▁یاسای	-8.08172
▁کردن	-8.08391
▁ئەوانەی	-8.08481
▁دەسەڵاتی	-8.08698
▁ئەویش	-8.0906
▁ڕابردوو	-8.09788
▁جار	-8.10153
▁سەرەکی	-8.1027
▁وڵاتانی	-8.10346
▁بەدەست	-8.10468
▁تەنانەت	-8.10736
▁پرۆسەی	-8.10766
ەدا	-8.11044
▁%	-8.11263
▁عەرەبی	-8.11331
▁هەواڵی	-8.11573
▁لەبارەی	-8.11677
▁بو	-8.11723
▁دەدات	-8.1187
ەکانیان	-8.11993
▁ئازاد	-8.12067
▁ئاژانسی	-8.12279
▁هونەری	-8.12329
▁ملیۆن	-8.12689
▁جگە	-8.12895
▁لەنێوان	-8.13087
▁تەواوی	-8.13347
▁دەنگی	-8.13719
▁دیکەی	-8.14148
▁ڕوو	-8.15643
▁مانگی	-8.15672
▁گەر	-8.16066
▁نیشتمانی	-8.16291
▁نەوت	-8.16417
▁سەرۆکایەتی	-8.16484
▁30	-8.16554
▁سەردانی	-8.17178
▁19	-8.17275
▁خاوەن	-8.17428
▁کردەوە	-8.17476
▁سوپای	-8.17603
دان	-8.17803
▁14	-8.17869
▁13	-8.18018
▁نزیک	-8.18129
▁خۆمان	-8.1833
▁بیر	-8.18489
▁کات	-8.18872
دایە	-8.19076
▁نەتەوەیی	-8.1929
▁دەنگ	-8.19365
▁quot	-8.19439
▁یاری	-8.20079
دە	-8.20424
▁یە	-8.20627
▁ع	-8.20896
▁دی	-8.21286
▁وڵاتی	-8.21524
▁سەرجەم	-8.21998
▁ئابووری	-8.22177
▁ت	-8.22591
نی	-8.23034
▁ئەنجامی	-8.23211
▁بەرهەم	-8.23288
▁بدات	-8.23312
▁وڵات	-8.23882
▁یاسا	-8.23916
▁پێویستی	-8.24589
▁دوور	-8.24735
▁ئەی	-8.25302
▁پێویست	-8.26279
▁هاوکات	-8.26413
▁لەوەی	-8.26514
▁ڕێکخراوی	-8.26669
▁هەڵبژاردن	-8.26707
کرد	-8.26761
▁خۆم	-8.26941
▁زۆربەی	-8.27011
▁دوێنێ	-8.27434
▁بڕیاری	-8.27987
ەکه	-8.28344
▁ڕێگەی	-8.28344
▁کەسێک	-8.28612
▁هێزە	-8.28623
▁پاراستنی	-8.28671
s	-8.28788
▁تەندروستی	-8.2988
▁هەست	-8.30156
▁تێیدا	-8.30235
▁نەبوو	-8.30544
ەش	-8.30807
▁ڕۆڵی	-8.31045
ون	-8.31254
▁بەبێ	-8.31622
▁25	-8.31702
انه	-8.31722
▁پێشکەش	-8.31972
▁ە	-8.32255
▁هەڵبژاردنی	-8.32424
▁داوە	-8.32775
▁حەسەن	-8.32971
▁سەربازی	-8.33056
▁جەلال	-8.33291
▁ڕووی	-8.33414
▁بەڕێوەبەری	-8.33638
▁لا	-8.34196
▁نوێی	-8.34198
▁جێی	-8.344
▁هاوکاری	-8.34523
▁وایە	-8.34545
لە	-8.34741
▁ئاشکرا	-8.35204
▁2013	-8.35246
▁دوا	-8.35394
▁حیزب	-8.3561
▁جێگری	-8.36
ترین	-8.36132
▁بەناوی	-8.36401
ز	-8.3691
▁سیاسیی	-8.3708
▁بەرگری	-8.37133
▁ا	-8.37333
▁خوا	-8.3743
▁لەوە	-8.3757
▁هێشتا	-8.37653
▁هەوڵی	-8.37732
▁ڕێگای	-8.37941
▁دەیان	-8.37958
▁هەڵ	-8.38123
▁بەشێکی	-8.38307
تە	-8.38311
▁دژ	-8.38602
▁شەڕی	-8.39123
-	-8.39208
▁21	-8.39407
▁کۆمەڵێک	-8.39748
▁بەرز	-8.40145
▁گرنگی	-8.40156
▁شتێک	-8.40186
▁h	-8.4022
▁نابێت	-8.40236
▁سی	-8.40472
▁بەتایبەتی	-8.40813
▁مەدەنی	-8.41119
▁لایەنە	-8.41374
بوونی	-8.41644
▁لیژنەی	-8.41878
▁کوردستاندا	-8.41906
▁مێژووی	-8.42103
▁دێموکراسی	-8.42214
▁هەبوو	-8.42353
▁چارەسەر	-8.42471
▁بر	-8.42478
▁خۆیدا	-8.42485
▁دەڵێن	-8.42521
▁دەبێتە	-8.42599
▁گەورەی	-8.42688
▁دەوڵەت	-8.42838
▁ژمارەی	-8.42862
یەتی	-8.43519
▁دیاری	-8.43591
▁کو	-8.43694
▁نوێنەرانی	-8.43844
▁دکتۆر	-8.44229
▁هە	-8.44285
▁عەرەب	-8.44332
▁گرنگ	-8.44341
یه	-8.44373
ەکاندا	-8.44629
▁بەشێک	-8.4474
وه	-8.44856
▁باڵای	-8.44907
▁ئاسایشی	-8.45135
▁پێشتر	-8.45185
▁باشترین	-8.45233
▁دێت	-8.45528
ف	-8.46117
▁نێودەوڵەتی	-8.46688
▁ئەندامانی	-8.46744
▁مام	-8.46827
▁زەوی	-8.46866
▁دەکەم	-8.46903
بە	-8.46981
▁کەچی	-8.4712
▁ڕێژەی	-8.47217
▁مەلا	-8.47719
▁ژمارەیەک	-8.47958
▁دیارە	-8.48169
▁دروستکردنی	-8.48221
▁هاتووە	-8.48747
▁شوێنی	-8.48775
▁»	-8.4902
▁نزیکەی	-8.49043
▁داوا	-8.49066
▁ڕۆژهەڵاتی	-8.49267
▁پێنج	-8.49368
▁پۆلیسی	-8.49474
▁دێموکراتی	-8.49499
▁لێی	-8.49648
▁هەم	-8.497
▁قۆناغی	-8.49823
▁ڕەنگە	-8.49832
▁بدەن	-8.49966
▁خاڵ	-8.50079
▁وەزیرانی	-8.50132
▁یاخود	-8.50275
▁هەتا	-8.50294
▁ناوچەی	-8.50298
▁ئەوروپا	-8.50313
▁22	-8.50434
▁24	-8.50617
▁خاوەنی	-8.50966
▁پەیامنێر	-8.51289
▁سیاسەتی	-8.51388
▁گەرمیان	-8.51459
▁بەشێوەیەکی	-8.51599
▁ڕژێمی	-8.51909
▁ال	-8.51993
▁ف	-8.52138
▁یاریزانی	-8.52184
▁ڕاگەیاندنی	-8.52249
,	-8.52336
▁داهاتوو	-8.52357
▁سە	-8.52541
▁23	-8.52816
▁هات	-8.52986
شدا	-8.5317
ح	-8.53235
▁ئێوە	-8.53249
▁ئاشتی	-8.53276
ق	-8.53552
▁کاریگەری	-8.53719
▁ئاو	-8.53722
▁یەکێتیی	-8.53775
ellip	-8.53942
▁لەکاتی	-8.54208
▁خەڵاتی	-8.54277
دی	-8.54447
▁نموونە	-8.54515
▁پاشان	-8.54568
▁ئیتر	-8.54621
ع	-8.54705
▁ڕێ	-8.54748
▁ئا	-8.54796
▁ڕای	-8.55226
▁یاسایی	-8.55445
▁دارایی	-8.55561
▁هۆکاری	-8.55643
تا	-8.55763
▁مالکی	-8.56146
▁دەتوانێت	-8.5621
▁کۆ	-8.56242
▁فیستیڤاڵی	-8.56362
▁وڵاتە	-8.56363
▁ڕابردوودا	-8.56716
▁نین	-8.56882
▁دەبن	-8.56938
▁کاک	-8.57024
▁ناکات	-8.57061
▁ئیسلام	-8.57115
▁قوربانی	-8.57218
▁دەدەن	-8.57231
▁کەسی	-8.57318
▁دەستەی	-8.57588
▁بڵاو	-8.57747
▁تاڵەبانی	-8.57771
▁خۆش	-8.57926
▁ناوەندی	-8.58199
▁جیاوازی	-8.58572
▁ناوبراو	-8.5904
▁=	-8.59148
ەتی	-8.59387
▁شەهید	-8.59417
▁مەبەستی	-8.59432
▁مەکتەبی	-8.59842
▁پۆلیس	-8.59854
▁فی	-8.60107
▁جێ	-8.60159
▁بەڕێز	-8.60363
▁عێراقدا	-8.60602
▁چاو	-8.6066
▁لێرەدا	-8.60781
▁شەڕ	-8.61018
▁کێ	-8.61025
▁هەوڵ	-8.61181
▁توانای	-8.61285
▁خودی	-8.61308
▁یەکەمی	-8.61561
▁کردنەوەی	-8.6163
▁ئەنفال	-8.61764
▁مامۆستا	-8.61767
یت	-8.61974
▁لەژێر	-8.6204
▁بەرژەوەندی	-8.62189
▁پشتیوانی	-8.6219
▁بەریتانیا	-8.62666
▁کردوە	-8.62918
▁لایەنی	-8.62959
انەوە	-8.631
▁گەل	-8.63113
▁قسە	-8.63219
▁زمان	-8.63261
▁بەرپرسی	-8.63372
▁جا	-8.63443
▁ڕۆژنامەی	-8.64327
▁زانیاری	-8.64355
▁ئامادە	-8.64662
▁چین	-8.64957
▁بەرهەمی	-8.64965
▁لەدوای	-8.64967
▁پشت	-8.65032
▁ڕۆشنبیری	-8.65149
▁کۆمەڵگای	-8.65395
ڵ	-8.6544
▁ئێستاش	-8.65628
▁پرسی	-8.65652
▁تاکو	-8.65654
▁وەزیران	-8.65682
▁چارەسەری	-8.65763
▁ژ	-8.65804
بن	-8.6612
▁سەرکردایەتی	-8.66197
را	-8.66308
▁هاوپەیمانی	-8.6648
▁تۆپی	-8.66567
▁منداڵ	-8.66693
▁سنووری	-8.66833
یەی	-8.67011
▁زانستی	-8.67042
▁27	-8.67043
▁ئەمنی	-8.67155
▁جیاواز	-8.67319
▁شێوە	-8.6737
▁ناکرێت	-8.67432
▁ئەرکی	-8.67657
▁مالیکی	-8.67995
▁خوێن	-8.67997
.	-8.68131
▁ڕاست	-8.68137
▁جێبەجێ	-8.68217
▁کاروباری	-8.68357
▁پێکهێنانی	-8.68433
▁ئاسایش	-8.68605
▁ڕا	-8.68608
▁ئاماژە	-8.68611
▁28	-8.68656
کردنەوەی	-8.68798
ّ	-8.68893
▁توانی	-8.69171
▁بەکار	-8.69357
▁ژمارە	-8.69484
▁26	-8.69536
▁ناوچە	-8.69725
▁بەرنامەی	-8.69903
▁لەبەردەم	-8.70002
ای	-8.70173
▁میسر	-8.70174
▁دەکاتەوە	-8.70196
▁بازرگانی	-8.70209
▁أ	-8.70219
▁ناوچەکە	-8.70298
ة	-8.70348
▁پڕۆژەی	-8.70387
▁نەتەوە	-8.70415
▁گوت	-8.70429
▁دهۆک	-8.70554
▁گەڵ	-8.70569
▁جیا	-8.70667
▁شێخ	-8.70812
▁عوسمان	-8.70941
وا	-8.71244
بێ	-8.71404
▁بەتایبەت	-8.71444
▁بەوە	-8.71678
▁باری	-8.71736
▁دۆلار	-8.71774
مە	-8.71896
چ	-8.71946
▁بۆئەوەی	-8.72194
▁پێک	-8.72274
▁هێنا	-8.72292
▁بکەم	-8.7231
▁نیە	-8.72344
▁دنیا	-8.72411
یا	-8.72631
▁مستەفا	-8.72896
ما	-8.73088
پ	-8.73096
▁کۆمەڵگا	-8.73105
▁ساڵح	-8.73118
▁کارێکی	-8.73164
▁کۆمپانیای	-8.73431
▁بەوەی	-8.7344
▁باشتر	-8.7387
▁2007	-8.73916
▁تۆمار	-8.73941
▁بێگومان	-8.73955
▁ح	-8.74057
ەکەیان	-8.74079
▁هەڵبژاردەی	-8.74093
▁ڕۆژانە	-8.74101
▁هەروەک	-8.74121
▁بۆچی	-8.74268
ییەکان	-8.74473
▁پلەی	-8.74896
▁بەردەم	-8.75029
▁جێگەی	-8.75044
"،	-8.75133
▁گیانی	-8.75197
بی	-8.75255
▁بڕیار	-8.75473
▁تازە	-8.75511
▁قادر	-8.75547
▁شار	-8.75638
کاری	-8.75793
▁دان	-8.75916
لی	-8.76056
▁هەن	-8.7639
▁بەمەبەستی	-8.76441
▁تێ	-8.76455
▁کۆبانی	-8.76488
▁بودجەی	-8.76509
▁دەتوانن	-8.77309
▁ڕاستی	-8.7742
▁ئاسایی	-8.77423
▁کارە	-8.77543
_	-8.77581
▁کێشە	-8.77625
▁جارێکی	-8.77807
▁سیاسەت	-8.77915
▁شتێکی	-8.77953
له	-8.7798
▁لەساڵی	-8.78
▁حکوومەتی	-8.7806
▁شەو	-8.78111
▁دەربارەی	-8.78286
▁هونەر	-8.78584
▁بەختیار	-8.78834
▁حوسێن	-8.78993
▁لەنێو	-8.79031
▁گشتیی	-8.7906
▁سەرەتای	-8.79092
▁هەبووە	-8.79099
▁مەحمود	-8.79124
▁شێوەیەک	-8.79267
▁ڕاگەیاندن	-8.79335
▁«	-8.79434
▁سیستەمی	-8.79449
▁سەردەمی	-8.79479
▁com	-8.79517
▁زیاد	-8.79637
▁دەر	-8.79986
▁29	-8.80023
▁جوان	-8.80208
▁پیاو	-8.80223
وو	-8.80286
▁دەی	-8.80334
▁دیار	-8.80346
▁چالاکی	-8.80547
ێکدا	-8.80576
▁کاتژمێر	-8.80881
▁ئیسرائیل	-8.80888
▁دەرەوە	-8.81008
▁مێژوو	-8.81129
▁مافەکانی	-8.81137
▁نوری	-8.81155
▁زانکۆی	-8.81196
▁ساڵە	-8.81314
▁ماڵ	-8.81357
▁نوێنەران	-8.81374
کار	-8.81399
▁عومەر	-8.81577
▁تاران	-8.81717
▁چەک	-8.81793
بەر	-8.81848
▁ئەنجامدانی	-8.8187
▁بابەتی	-8.81928
▁نوێنەری	-8.82022
▁موسڵ	-8.82104
▁نووسەر	-8.82154
▁بەرپرسانی	-8.82216
▁دایک	-8.82379
▁نەوتی	-8.82408
▁هەرچەندە	-8.82457
▁نەبووە	-8.82698
▁ئۆپۆزسیۆن	-8.82734
▁ماڵی	-8.82838
▁تووشی	-8.82841
▁نێت	-8.82873
▁چاودێری	-8.82991
▁بەعس	-8.83137
▁نیشتمانیی	-8.83179
d	-8.83286
▁ببێتە	-8.83444
▁چارەسەرکردنی	-8.83723
▁مەترسی	-8.83873
▁دینار	-8.84142
ری	-8.84172
▁شێوەیەکی	-8.84195
▁لەماوەی	-8.84293
▁ڕوون	-8.84449
▁هی	-8.84592
▁_	-8.84654
▁بدرێت	-8.84709
▁ئابوری	-8.85349
شیان	-8.85374
▁گۆرانی	-8.85666
▁ئەوەشی	-8.85837
ڕ	-8.85868
▁بریندار	-8.85883
▁‬	-8.85905
▁کۆمەڵگەی	-8.8593
▁مەسەلەی	-8.86032
▁پارێزگاری	-8.86159
▁خوارەوە	-8.86176
▁مە	-8.86176
خ	-8.86229
او	-8.86409
▁کۆی	-8.86577
▁سەرکەوتنی	-8.86886
ەکەدا	-8.87115
▁جێبەجێکردنی	-8.87317
▁ئێمه	-8.87395
▁ڕەش	-8.87405
▁خۆت	-8.87478
▁بەهێز	-8.87502
▁نیشان	-8.87672
که	-8.87721
▁پێکەوە	-8.8786
▁مانگ	-8.87895
▁دەچێت	-8.88003
▁دامەزراندنی	-8.88074
▁بنەمای	-8.88083
▁خەبات	-8.88132
▁شوێن	-8.88305
▁دادگای	-8.88562
▁ئەمانە	-8.88597
▁ڕێگە	-8.88635
نەوە	-8.88661
▁نمایش	-8.88987
لا	-8.89068
▁هەیەو	-8.8914
▁دووبارە	-8.89627
▁لەهەموو	-8.89715
▁دەزگای	-8.89752
▁تەمەنی	-8.89827
▁بزووتنەوەی	-8.8983
▁شۆڕش	-8.89889
▁دڵ	-8.89919
▁بەکارهێنانی	-8.89943
▁تاک	-8.89972
▁کەسێکی	-8.90057
▁بڕی	-8.90319
▁تەمەن	-8.90391
▁توندوتیژی	-8.90493
▁ئایینی	-8.9098
▁بەرچاو	-8.91356
▁فەرمی	-8.91445
▁تائێستا	-8.91494
▁هێز	-8.91595
گەی	-8.9161
▁کۆمەڵەی	-8.9192
▁لەکاتێکدا	-8.9193
▁ئەوەندە	-8.91942
▁نەبوونی	-8.92036
▁ئەندام	-8.92216
▁ئەڵمانیا	-8.92225
▁بین	-8.924
▁کردو	-8.92473
▁هەرگیز	-8.92533
▁ئاراستەی	-8.92633
▁بکاتەوە	-8.92642
▁شێوەی	-8.92686
‮	-8.92861
▁پر	-8.92884
▁شەهیدان	-8.92987
ەیە	-8.93014
▁عەبدوڵڵا	-8.93165
یانە	-8.93234
شە	-8.93394
سی	-8.9356
y	-8.93728
▁یەکتر	-8.93743
▁بارودۆخی	-8.93838
دەکات	-8.9391
▁دێ	-8.93922
▁جەماوەری	-8.93966
▁خاڵی	-8.93967
▁شێعر	-8.93972
▁ڕاستەوخۆ	-8.94025
▁پێیان	-8.94092
▁کردبوو	-8.94171
▁هونەرمەند	-8.94356
ج	-8.94439
▁لەلایەکی	-8.94549
▁نووسین	-8.94606
بو	-8.94689
▁قسەی	-8.94727
▁گۆڕینی	-8.94767
▁تاوەکو	-8.94806
کا	-8.94973
▁پەیامنێری	-8.95213
▁کورسی	-8.95463
دانی	-8.95711
▁ڕەوشی	-8.95716
▁خۆشەویستی	-8.95781
چی	-8.95956
ات	-8.96076
▁شاعیر	-8.96141
▁شەش	-8.96291
ێتی	-8.96299
▁هەمو	-8.96309
▁ئەڵڵا	-8.96313
▁ڕازی	-8.96438
▁ئەوانیش	-8.9645
▁گرنگە	-8.96642
▁کەواتە	-8.96674
▁هەڵەبجە	-8.96894
▁خەباتی	-8.96938
▁بیست	-8.96948
▁دو	-8.96951
▁سەرەتا	-8.97119
▁کەسایەتی	-8.972
▁جۆرێک	-8.97237
رێت	-8.97286
▁هەڵوێستی	-8.9742
▁وێنەی	-8.97458
▁ئاوی	-8.97761
▁ئەنجوومەنی	-8.97787
▁ەوە	-8.9793
▁دابین	-8.97963
▁کەریم	-8.98306
▁لەوانە	-8.98361
▁کۆمەڵ	-8.98853
▁سایتی	-8.98861
▁بزوتنەوەی	-8.9904
▁فیدراڵ	-8.99124
▁چاوی	-8.99127
▁وەڵامی	-8.99233
▁وەرگرتنی	-8.99248
▁سیاسییەکان	-8.99499
▁تی	-8.99586
ییە	-8.99662
دەر	-8.99742
▁خوێندن	-8.99837
کردووە	-8.99886
▁دووەمی	-8.99888
▁کەمال	-8.99926
▁مانای	-9
▁گەندەڵی	-9.00011
▁31	-9.00058
▁گشت	-9.00213
▁کۆمار	-9.00352
▁کۆبوونەوەی	-9.00366
▁جەنگی	-9.00367
▁ڕێک	-9.00423
▁تریش	-9.00448
▁ئەل	-9.00515
گ	-9.00578
▁سپی	-9.00615
یەکەی	-9.00763
▁پڕۆژە	-9.00828
▁هاوبەش	-9.00941
یانەی	-9.01037
▁07	-9.01088
▁هەفتەی	-9.011
▁ـ	-9.01188
▁دەم	-9.01214
▁09	-9.0134
▁تە	-9.01505
▁دەدرێت	-9.01585
▁سێیەم	-9.01588
▁کوشتنی	-9.01774
▁یارمەتی	-9.01802
دار	-9.0182
▁وای	-9.01974
▁تیرۆر	-9.02011
▁ئۆباما	-9.02072
▁خۆشی	-9.02095
▁ڕۆژێک	-9.02194
▁سوید	-9.02685
▁ناوخۆی	-9.02761
▁دیکه	-9.03112
▁کەسانی	-9.03116
▁کۆنگرەی	-9.0332
▁ئاگادار	-9.03366
▁شێوازی	-9.03551
▁خراپ	-9.03575
▁پێشمەرگەی	-9.03691
▁شێوەیە	-9.03697
▁دەرهێنانی	-9.03717
▁جۆری	-9.03798
▁لەوێ	-9.03807
▁شەممە	-9.04388
▁ڕزگار	-9.04542
▁بەرانبەر	-9.04728
▁ژمارەیەکی	-9.04815
▁مرۆڤی	-9.04908
▁ئارام	-9.0512
▁زانکۆ	-9.05127
▁هەیه	-9.05159
▁چونکه	-9.05223
▁بڕیارە	-9.05242
ەکانمان	-9.05345
▁نەخۆشی	-9.05388
▁ئاینی	-9.05394
▁دادگا	-9.05427
ووە	-9.05467
▁ئاوێنەنیوز	-9.05561
▁دەستگیر	-9.05682
▁دەستوور	-9.05733
▁چاک	-9.05915
▁گرت	-9.06186
▁ئەدەبی	-9.06233
▁ئیبراهیم	-9.06288
▁01	-9.06354
▁مادەی	-9.065
▁یەکگرتووەکان	-9.06557
▁بەرەی	-9.06599
▁دیکەش	-9.06615
بۆ	-9.06642
ەکانیش	-9.06751
▁50	-9.07129
▁08	-9.0742
▁هاوڵاتیان	-9.07467
▁نیشتیمانی	-9.07485
▁مەسعود	-9.07568
تەوە	-9.07587
▁باشووری	-9.07679
▁بابەتە	-9.07947
▁کارەکانی	-9.0797
▁یەکێکە	-9.08036
▁پۆستی	-9.08182
▁ئامانج	-9.0821
▁خاکی	-9.08228
▁کەمتر	-9.08313
▁ساز	-9.08338
▁ق	-9.08436
سەر	-9.08486
▁ئیدی	-9.08648
▁شۆڕشی	-9.08677
رێ	-9.08723
▁سووریا	-9.08876
▁لەبەرامبەر	-9.08902
▁دەبێتەوە	-9.08983
▁سەربەخۆ	-9.09016
▁ڕۆژئاوا	-9.09104
ێکە	-9.09202
▁04	-9.09279
▁سروشتی	-9.09578
▁02	-9.09616
▁03	-9.09639
▁تاکە	-9.09697
▁گفتوگۆ	-9.09754
▁زیندانی	-9.09838
▁گوێرەی	-9.09909
▁06	-9.09996
با	-9.10221
▁دەس	-9.10353
▁پشتگیری	-9.10372
▁دەکرێن	-9.10515
▁پرسیار	-9.1071
▁ئەمەریکی	-9.10713
▁درێژ	-9.10997
▁ئامانجی	-9.1108
▁نی	-9.11085
▁ئەمساڵ	-9.11246
▁گەورەترین	-9.11352
▁عەزیز	-9.11561
▁ڕێز	-9.11567
▁ناوخۆ	-9.11568
▁داواکاری	-9.11578
▁05	-9.11617
▁کردووەو	-9.11713
▁بەدوای	-9.11815
▁خوای	-9.11864
▁جەنگ	-9.12039
▁چەکی	-9.12055
▁گروپی	-9.12076
▁منیش	-9.12127
▁مایەی	-9.12177
ەکەم	-9.1218
▁کۆمەڵگە	-9.12385
▁ڕۆژئاوای	-9.12548
▁ناوچەکانی	-9.12554
▁یەکەمین	-9.12647
▁کۆمەڵی	-9.12768
▁کارەبا	-9.12791
▁ماف	-9.12812
▁پی	-9.12875
▁سکرتێری	-9.1294
▁قەزای	-9.12967
▁سینەمایی	-9.13019
▁سەری	-9.13165
ژ	-9.1319
▁لەپێناو	-9.1358
▁سەرچاوە	-9.13638
▁هێرش	-9.13735
▁کارکردن	-9.13996
▁هەرچی	-9.14141
ەوەو	-9.14233
▁سەدان	-9.14252
▁ڕێکخراوە	-9.14252
▁پێم	-9.14299
▁پەیوەندییەکانی	-9.14525
e	-9.14539
▁بۆتە	-9.14733
کۆ	-9.14749
اندا	-9.14837
▁ملیار	-9.14845
▁دەتوانین	-9.15019
▁خودا	-9.15194
▁سەرچاوەی	-9.15207
▁خوێندنی	-9.15215
▁بینی	-9.15233
▁لەڕێگەی	-9.1533
▁ئێرانی	-9.15437
▁تێدایە	-9.15537
▁تورک	-9.1561
▁منداڵان	-9.15673
▁لەشاری	-9.15688
▁بارەی	-9.15702
▁هەستی	-9.15778
▁جوانی	-9.15806
▁زوو	-9.15992
▁چوارچێوەی	-9.1616
▁وشەی	-9.16185
▁کاتێکدا	-9.16305
▁ڕە	-9.16329
▁واتا	-9.16383
▁دابەش	-9.1643
▁ئازار	-9.16634
▁ئیدارەی	-9.16699
▁دەستیان	-9.16702
▁ناتوانێت	-9.1677
▁گە	-9.16844
▁هێزێکی	-9.16924
▁حاجی	-9.1694
▁جێگای	-9.16943
▁کۆن	-9.16958
▁ڕۆژنامەنووس	-9.16974
اوی	-9.1698
▁شارە	-9.16982
▁پەنا	-9.17034
ار	-9.1709
▁ئەوانە	-9.17118
▁پەروەردە	-9.1715
▁باشە	-9.17226
▁شت	-9.17231
▁فەرەنسا	-9.17372
▁مەبەست	-9.17416
بون	-9.17431
▁هاووڵاتی	-9.1759
▁بهێنێت	-9.17638
▁سەربەخۆیی	-9.17826
▁لەڕووی	-9.17898
▁پێغەمبەر	-9.18031
▁دڵی	-9.18079
▁چاوەڕوانی	-9.18177
داو	-9.18213
▁هاو	-9.18223
▁سیستمی	-9.18304
▁ماوە	-9.18326
▁ئێمەش	-9.18712
ایە	-9.18832
▁کەسانەی	-9.18865
▁بکەنەوە	-9.19043
▁سەد	-9.19135
▁پێوە	-9.19218
انەدا	-9.19228
ەت	-9.1935
▁پیرۆز	-9.19484
▁کردووه	-9.19603
▁پەکەکە	-9.19631
▁نرخی	-9.19683
کرا	-9.19792
▁دایە	-9.19907
ئە	-9.19927
▁هەریەک	-9.20048
▁سەرکەوتن	-9.20063
▁سەیر	-9.20089
▁بیری	-9.20341
▁دەزانن	-9.20422
▁کام	-9.20581
▁)-	-9.20615
▁یەکگرتوو	-9.2065
▁سەرەڕای	-9.20684
▁ڕەخنە	-9.20821
▁سەربەخۆی	-9.2087
▁دەگرێت	-9.20877
▁قوتابی	-9.2096
▁بگرن	-9.21105
▁شارەوانی	-9.2112
▁بەداخەوە	-9.21224
▁پێشووی	-9.21316
اتی	-9.21342
▁دەنگدان	-9.21426
▁کان	-9.21504
ال	-9.21593
▁دەبینین	-9.2162
▁خواست	-9.2164
▁ئەمرۆ	-9.21648
گە	-9.21788
▁ڕاستە	-9.21992
▁زۆرینەی	-9.2203
▁بکە	-9.22062
▁یارییەکانی	-9.22113
▁مرۆڤایەتی	-9.2212
▁کراون	-9.22131
▁تیرۆریستی	-9.22315
کراوە	-9.2235
▁دەستووری	-9.22538
▁هەینی	-9.22591
▁ڕاپەڕین	-9.22629
▁سەیری	-9.22637
مەوە	-9.22638
▁ئامادەیی	-9.22655
▁گوێ	-9.22689
▁پاک	-9.22754
▁سوپاسی	-9.22784
▁پێناو	-9.22855
▁ڕێگا	-9.22996
▁بەدی	-9.23009
▁ئاسمانی	-9.23026
ست	-9.2311
▁بەگشتی	-9.23238
▁ئەمریکی	-9.23337
▁ئینگلیزی	-9.23353
▁نەتەوەی	-9.23359
▁40	-9.23399
زی	-9.23449
▁خوێندنەوەی	-9.23494
▁باڵا	-9.23525
▁بەشدار	-9.23681
▁لەگەل	-9.23697
▁دەگەڕێتەوە	-9.23856
▁ناچار	-9.23918
▁گومان	-9.24046
▁سەدەی	-9.24088
▁بەجێ	-9.24107
▁ناوەڕاست	-9.24125
▁مێژوویی	-9.24138
▁تو	-9.24211
▁کۆبانێ	-9.24244
▁کوشتن	-9.24282
▁بووم	-9.24341
▁هاتنی	-9.24463
▁لێرە	-9.24483
▁140	-9.24556
▁دنیای	-9.24639
▁هتد	-9.24785
▁ر	-9.24864
▁گیان	-9.24879
▁ڕەوانەی	-9.25022
▁خۆیەوە	-9.25168
▁لی	-9.25173
▁سەدام	-9.25223
▁حەمە	-9.25243
▁دەقی	-9.25275
▁نێونەتەوەیی	-9.25375
▁لەهەر	-9.2546
▁دەستنیشان	-9.25482
گی	-9.25506
(	-9.25522
▁بڵێین	-9.25574
▁ئاوێنە	-9.25584
▁ئافرەت	-9.25683
▁خزمەت	-9.25707
▁شارۆچکەی	-9.25767
▁دەزانێت	-9.25767
▁سەعید	-9.25912
▁ژی	-9.2616
▁بکرێن	-9.26199
▁داهاتوودا	-9.26237
▁گۆڕانکاری	-9.26239
▁ترس	-9.26262
▁برا	-9.2646
▁سنوری	-9.26516
اری	-9.26676
▁www	-9.26681
▁چۆنیەتی	-9.26778
▁ئەدەب	-9.26962
▁ئەوه	-9.27074
▁سزای	-9.27105
▁کتێبی	-9.27107
▁بەردەوامی	-9.27242
▁خێزان	-9.27427
▁پایتەختی	-9.27467
▁چەپ	-9.27475
ایی	-9.27518
▁تەنها	-9.27564
▁ڕی	-9.2761
▁زۆرێک	-9.27721
▁باشی	-9.27778
▁100	-9.27784
▁خزمەتی	-9.27798
▁سەرکەوتوو	-9.27898
▁ج	-9.27939
▁بۆیه	-9.28025
▁کێشەکان	-9.28038
▁بەڕێوەبەرایەتی	-9.28319
▁پێشوو	-9.28418
ەکانەوە	-9.28432
▁کانی	-9.28433
▁باوکی	-9.28484
انەش	-9.28566
بکات	-9.28591
▁پارە	-9.28655
▁لێدوانێکی	-9.28711
یەو	-9.28986
▁توند	-9.29092
▁کەرتی	-9.29096
▁گەیشتن	-9.29157
▁ببێت	-9.29176
شەوە	-9.29195
▁هاوبەشی	-9.29354
▁ڕو	-9.29424
▁هێناوە	-9.29439
▁زانست	-9.29559
▁هەموومان	-9.29688
▁هێڵی	-9.29925
▁هەزاران	-9.30126
▁وەها	-9.30143
▁پێگەی	-9.30188
▁دەزگا	-9.30193
▁وڵاتەکەی	-9.30242
▁لایەک	-9.30261
▁ئی	-9.30449
▁دانانی	-9.30463
▁گۆران	-9.30526
▁چینی	-9.30728
▁58	-9.30821
▁بدەین	-9.30825
▁0	-9.30866
▁باران	-9.30876
▁چییە	-9.30909
▁ئەزموونی	-9.31092
▁ڕووبەڕووی	-9.31093
▁کوڕی	-9.31108
▁هەڵبژاردنەکان	-9.31114
▁ژنانی	-9.31233
▁خاک	-9.31487
▁ئاوا	-9.31489
▁شێعری	-9.31545
▁کێشەکانی	-9.31662
▁کارو	-9.31682
▁سوور	-9.31703
▁لەهەرێمی	-9.3171
▁کەوا	-9.31798
▁هێرشی	-9.31917
▁ماڵپەڕی	-9.32037
▁بوونە	-9.32229
▁لێپرسراوی	-9.32295
ییەوە	-9.32421
▁بگرێت	-9.32497
▁لێک	-9.32584
رۆ	-9.32648
▁لەبەرئەوەی	-9.32736
▁فۆتۆ	-9.32916
ینەوە	-9.32917
▁خەریکی	-9.32918
▁هەردوولا	-9.32959
▁دار	-9.33011
دەکەن	-9.33061
▁دەیهەوێت	-9.33134
ڕا	-9.33171
▁نییەو	-9.33182
▁سینەمای	-9.33212
▁لەئێستادا	-9.33344
▁ئایین	-9.33613
▁ئێستادا	-9.3406
▁لێکۆڵینەوە	-9.34149
▁دەسەلات	-9.34271
▁کی	-9.34276
▁پەروەردەی	-9.34322
▁ئارامی	-9.34323
▁سوود	-9.34353
▁تاوانی	-9.34419
▁شتی	-9.3447
ایەتی	-9.34471
▁یەکگرتووەکانی	-9.34562
▁دەتوانیت	-9.34579
▁درێژەی	-9.34587
▁کردووەتەوە	-9.34641
▁نهێنی	-9.34671
▁ز	-9.34679
▁گوڵ	-9.34736
▁ماوەیەکی	-9.34796
▁بەیانی	-9.35016
▁گرتووە	-9.35043
▁حەز	-9.35044
▁دین	-9.35081
▁کاتێ	-9.35101
▁دەبوو	-9.35258
کراو	-9.35286
▁کەرکووک	-9.35353
▁بوە	-9.35511
▁کەلار	-9.35555
▁داهاتووی	-9.35606
▁ماددەی	-9.35765
▁یش	-9.35778
▁سەید	-9.35882
▁ستراتیژی	-9.35937
اڵ	-9.35948
▁ئەمر	-9.35977
▁پەیوەندیی	-9.3606
▁کوردستانیش	-9.36129
▁هێندە	-9.36268
▁خ	-9.36295
به	-9.36316
▁عە	-9.36341
▁بار	-9.36481
▁وتیشی	-9.36616
▁کاریگەریی	-9.36761
▁تاوان	-9.3677
بووە	-9.36827
▁پاڵ	-9.36913
▁کورتە	-9.36943
▁باشوور	-9.37018
▁هەنگاو	-9.3703
▁نیشتمان	-9.37094
▁ئاگاداری	-9.37118
▁شانۆ	-9.37161
▁سەنتەری	-9.37166
c	-9.37204
▁تشرینی	-9.37226
▁موحەممەد	-9.37315
▁کەسە	-9.37358
▁دەکەوێتە	-9.37493
▁شیعە	-9.37606
▁گوندی	-9.37612
▁نیو	-9.37663
▁فیلم	-9.37722
▁حەوت	-9.37738
▁کتێب	-9.37865
▁نووسینی	-9.3799
▁شا	-9.37996
▁کەناڵی	-9.38078
▁ئێستای	-9.38079
▁یادی	-9.38185
ئەو	-9.38202
ێش	-9.38206
▁خانەقین	-9.38245
▁ما	-9.38315
▁مردن	-9.38321
▁شانۆی	-9.3841
▁ڕاپۆرتی	-9.38523
▁گونجاو	-9.38646
▁لاوان	-9.38661
ەکەمان	-9.38708
▁بڵێم	-9.39064
▁تێک	-9.39102
شت	-9.39187
▁پەسەند	-9.39467
▁پێویسته	-9.39533
▁چاکسازی	-9.39596
▁ڕوسیا	-9.39853
▁بگرە	-9.39921
▁هەموویان	-9.39935
▁میانەی	-9.40023
▁چەکداری	-9.40027
▁ص	-9.4004
▁جیهاندا	-9.40052
▁ئەگەرچی	-9.40134
▁حزبە	-9.40186
▁ڕەسمی	-9.40283
▁گوتەبێژی	-9.40323
▁فەرماندەی	-9.40399
ته	-9.40443
▁کۆمەڵە	-9.40458
▁ئەسەد	-9.40461
یار	-9.40561
▁سەردەشت	-9.40654
▁قەیرانی	-9.40699
▁ڕیزبەندی	-9.40801
▁دیموکراتی	-9.40864
▁بون	-9.40886
▁لەکوردستان	-9.41119
▁تیا	-9.41135
▁خۆپیشاندان	-9.41243
▁نەکردووە	-9.41644
▁بنکەی	-9.41763
▁دۆخی	-9.41972
▁دەدا	-9.42007
▁دەزانین	-9.42026
▁باوەڕ	-9.4204
ێنێت	-9.42093
▁بکرێ	-9.42097
اوە	-9.42126
▁ڕەخنەی	-9.42166
▁خورماتوو	-9.42207
▁خۆیەتی	-9.42232
▁چاپ	-9.42252
▁ئیسپانیا	-9.42276
▁پێشوازی	-9.42406
▁لەبواری	-9.42464
▁کرێکار	-9.42808
▁فراوان	-9.42843
بین	-9.42873
▁سەرچاوەیەک	-9.42961
▁پزیشکی	-9.43002
▁هەواڵ	-9.43094
▁سیاسییەکانی	-9.43294
ینی	-9.43302
b	-9.43324
بر	-9.4339
▁کران	-9.43409
▁هەڵوێست	-9.43433
وان	-9.43489
▁هۆڵی	-9.43504
▁هەڵبژاردنەکانی	-9.43536
▁جارێک	-9.43569
▁کابینەی	-9.4365
▁هێنانی	-9.43663
▁ناکەن	-9.43663
▁دەروونی	-9.43665
یشی	-9.4377
▁نەکراوە	-9.43817
▁تیپی	-9.43828
▁نەوشیروان	-9.43828
غ	-9.43881
▁هەڵە	-9.43931
داری	-9.43951
▁گۆڵ	-9.44041
▁http	-9.4411
▁دابەشکردنی	-9.44139
▁کوردە	-9.44215
▁سەرنج	-9.44229
پێ	-9.44345
کەر	-9.44568
▁فەرهەنگی	-9.44688
▁کۆنگرە	-9.44723
▁خو	-9.44792
▁دەرکەوت	-9.44993
▁پێچەوانەی	-9.45159
▁هەل	-9.45238
▁بووەو	-9.45245
▁پارەی	-9.454
▁سبەی	-9.4544
▁ناوەند	-9.45443
▁لەلای	-9.45471
یەت	-9.45479
▁ئینجا	-9.45509
▁دەکەوێت	-9.45556
▁وڵاته	-9.45788
▁هاووڵاتیان	-9.45871
▁ناوە	-9.45916
▁بەش	-9.45957
▁نەکرد	-9.45969
بکەن	-9.45969
▁نەبوون	-9.45981
▁وەزارەت	-9.45985
فی	-9.46032
▁بەناو	-9.46061
▁ڕۆژە	-9.46122
▁مان	-9.46138
▁ئەنجامدا	-9.46218
▁پێشبینی	-9.46236
▁بەسەردا	-9.46246
▁بەس	-9.46253
▁ئافرەتان	-9.46318
▁دێتە	-9.46467
ستان	-9.46476
▁زۆرترین	-9.46526
▁بەڕێوە	-9.46529
▁بەڕێوەچوو	-9.46594
▁پاڵپشتی	-9.46616
▁تورکی	-9.46659
▁وێڕای	-9.46836
▁2003	-9.46969
▁حیزبە	-9.46978
▁هەنگاوی	-9.47015
▁جەماوەر	-9.47042
لێ	-9.47205
▁علیە	-9.47229
▁تاوانبار	-9.47274
ەکەش	-9.47315
▁ڤی	-9.47322
▁ساڵەی	-9.47414
▁خزمەتگوزاری	-9.47419
▁شەوی	-9.47545
جی	-9.47609
▁ڕاشیگەیاند	-9.47665
▁ناتوانن	-9.47684
▁جەنابی	-9.47686
▁ساڵێک	-9.47687
▁پێمان	-9.47692
▁درا	-9.48139
▁کاروان	-9.48161
▁وێنە	-9.48313
▁دەهێنێت	-9.48322
▁هەشت	-9.48411
▁ناکۆکی	-9.48459
ەر	-9.48467
▁بتوانن	-9.48467
▁ساڵانی	-9.48592
▁ڕەوتی	-9.48618
▁ڕزگاری	-9.48638
▁یاریی	-9.4878
▁نۆ	-9.48844
▁دوایی	-9.48845
▁وەڵام	-9.48848
▁ئەکات	-9.48871
▁حوکمی	-9.48902
▁عەبدوڵا	-9.48911
دو	-9.48929
▁بتوانێت	-9.48946
▁مانەوەی	-9.49063
▁شوبات	-9.49136
▁گەنج	-9.49171
▁پشتی	-9.49203
▁ئاب	-9.49228
▁کوردو	-9.49244
▁بم	-9.49261
▁چاپکردن	-9.49441
▁دواجار	-9.49605
▁لاواز	-9.49644
▁هیوای	-9.49694
▁دەوێت	-9.49712
▁کۆمپانیا	-9.49772
ڤ	-9.49788
▁پارتە	-9.49854
▁بکرێتەوە	-9.49894
پی	-9.50197
▁ڕێکخستنی	-9.502
▁بەردەوامە	-9.50408
▁بیانی	-9.50493
کەم	-9.50569
▁خوێنەر	-9.50592
کێ	-9.50629
▁دڵنیا	-9.50642
▁نابێ	-9.50756
▁منداڵی	-9.5077
ستی	-9.50771
▁ڕۆحی	-9.50831
▁توانا	-9.50845
▁گەیشت	-9.50936
▁کەلە	-9.50956
زە	-9.51004
▁دۆزینەوەی	-9.5104
▁کورت	-9.51061
▁زیان	-9.51112
▁دەوروبەری	-9.51124
▁میوانداری	-9.51247
یەکە	-9.51295
▁تەرخان	-9.51397
▁کاتدا	-9.51414
▁کچە	-9.51466
▁موزیکی	-9.51508
▁ڕاستەقینە	-9.51527
▁ڕەنگ	-9.5162
▁تێبینی	-9.51953
▁کۆمەلایەتی	-9.52033
▁نوێنەرایەتی	-9.52037
▁لەعیراق	-9.52074
▁دەریا	-9.52125
▁سو	-9.52275
▁داهاتی	-9.52304
▁دایکی	-9.52307
▁خەم	-9.52331
▁ماوەیەک	-9.52442
▁نەخۆش	-9.52501
▁ئیسماعیل	-9.52556
▁دانی	-9.52564
▁×	-9.52668
▁باسە	-9.52745
▁لایەنەکانی	-9.52784
▁دەرەکی	-9.52871
▁لایەنەکان	-9.52884
▁مافە	-9.52939
▁دراوە	-9.52939
▁ناڕەزایی	-9.5294
▁ئێراق	-9.5309
▁دابینکردنی	-9.53139
▁سەرچاوەیەکی	-9.5316
▁گەڕانەوەی	-9.532
▁بەڵێ	-9.53286
▁ئاست	-9.53328
▁ئەبێت	-9.5335
▁گەلەکەمان	-9.53411
▁لەوەش	-9.53527
▁چەکدارانی	-9.53539
▁دژایەتی	-9.53552
▁سزا	-9.53555
قە	-9.53569
ها	-9.53572
▁پار	-9.53795
▁نەکات	-9.53876
▁نەخۆشخانەی	-9.53893
▁بەهیچ	-9.53918
رە	-9.53995
▁فیلمه	-9.54063
▁ئاخر	-9.54084
▁دانیشتوانی	-9.54184
▁خواردن	-9.54226
▁زانی	-9.5427
قی	-9.54308
▁مین	-9.54344
▁پەیدا	-9.54428
نێ	-9.54478
▁هاوڕێ	-9.54504
▁باوک	-9.54533
▁بەجۆرێک	-9.54541
بونی	-9.54555
▁بەهەمان	-9.54585
▁لەوانەیە	-9.54613
▁مەجید	-9.54853
ئ	-9.54905
▁یاریزان	-9.54927
سە	-9.55092
▁ئایندەی	-9.55207
▁فوئاد	-9.55384
▁لەندەن	-9.55409
▁نازانم	-9.55429
▁جاران	-9.55699
یل	-9.55729
▁فرە	-9.55753
▁دەکەنەوە	-9.55767
▁پرسیاری	-9.55774
▁شارەکانی	-9.55843
▁هیوا	-9.55866
▁35	-9.55892
▁ئێوارەی	-9.55943
▁بووه	-9.56073
▁پیرۆزبایی	-9.56179
تۆ	-9.56224
ێتەوە	-9.56268
▁کوردەکان	-9.56268
▁مەزن	-9.56321
▁ئیش	-9.56475
▁کوردستانەوە	-9.56533
▁ململانێی	-9.56591
▁چیرۆکی	-9.56641
▁پرسە	-9.56658
▁پیاوان	-9.56679
▁دەخاتە	-9.56682
▁مەدرید	-9.56699
▁بەرهەمهێنانی	-9.56821
▁چیتر	-9.56886
▁قبوڵ	-9.57029
▁ئامادەی	-9.57097
▁گفتوگۆی	-9.57198
▁کاندید	-9.57224
▁نێچیرڤان	-9.57298
▁ئاین	-9.57375
▁ڕۆشنبیر	-9.57403
▁بریتی	-9.57421
▁نیگەرانی	-9.57503
▁دەرهێنەر	-9.57543
▁ڕۆژانی	-9.57557
▁لەسەرەتای	-9.5768
نگ	-9.57732
▁بکەیت	-9.57744
▁گۆڤاری	-9.57902
▁پێدانی	-9.57928
▁لایەنێک	-9.58071
ور	-9.58106
▁بەشە	-9.58117
▁دور	-9.58129
▁گوتم	-9.5814
▁مامەڵە	-9.58196
▁جامی	-9.58246
وون	-9.5827
▁سۆران	-9.58352
▁ئەردۆغان	-9.58463
▁کارگێڕی	-9.5847
▁سامان	-9.58591
▁ئەندامێکی	-9.5871
▁کۆچی	-9.58725
▁پێکرد	-9.58762
@	-9.58824
تەر	-9.58854
▁سەدر	-9.58871
▁پیشەسازی	-9.58902
▁هەروا	-9.58957
▁صلی	-9.59024
▁سەرکەوت	-9.59167
▁ترەوە	-9.59212
▁00	-9.59261
▁مەرگ	-9.59279
▁کراو	-9.59314
▁لەدژی	-9.59329
▁لەبیر	-9.59345
▁بابەت	-9.59354
▁پتر	-9.595
دەکرێت	-9.59516
سا	-9.5979
▁بهێنن	-9.59904
ەکەشی	-9.59909
▁پارچە	-9.5998
▁نوسەر	-9.60134
▁جەمال	-9.6014
▁بەڵێن	-9.6014
لۆ	-9.60152
▁ڕۆژنامەوانی	-9.60219
یشدا	-9.60243
▁ڕێکخراوەکانی	-9.60274
▁وەبەرهێنان	-9.60292
▁وەرزی	-9.60359
▁فەلسەفە	-9.60366
اندنی	-9.60378
▁دانا	-9.60465
▁درێژە	-9.60478
▁ڕەت	-9.60712
▁زیاتری	-9.6078
▁سینەما	-9.60801
▁جە	-9.60828
▁لقی	-9.60902
▁گەورەیە	-9.60907
▁ڕێی	-9.60913
▁میدیا	-9.60932
▁بەگوێرەی	-9.60941
▁مامۆستای	-9.60948
▁ئەفغانستان	-9.60965
▁تێکەڵ	-9.60977
▁خراپی	-9.61004
▁پلانی	-9.6102
▁گەرم	-9.6104
ً	-9.61124
▁بچووک	-9.61142
▁پێکهاتەی	-9.61146
▁بودجە	-9.61226
▁ئاسان	-9.61316
▁إ	-9.61361
t	-9.61421
▁کاتە	-9.61444
▁کچان	-9.61464
▁دیاریکراو	-9.61538
▁ڕووسیا	-9.61615
دوو	-9.61619
▁خوێنی	-9.61669
▁بریتییە	-9.6174
▁پلە	-9.6176
▁گەلانی	-9.61831
▁ئازادیی	-9.61866
▁پەیوەست	-9.61937
کردنەوە	-9.61975
▁پە	-9.62045
ێنێ	-9.62046
▁پایتەخت	-9.62062
▁سەرەوە	-9.62079
▁هاتنە	-9.62134
▁کەسانە	-9.62156
▁کەوت	-9.62212
▁بیت	-9.62217
▁حکوومەت	-9.62259
▁کاوە	-9.62337
▁45	-9.62386
بکرێت	-9.624
گا	-9.62485
▁نەماوە	-9.62527
▁کشتوکاڵ	-9.62594
▁هاتە	-9.62603
▁زۆرجار	-9.62655
▁کرێکاران	-9.62712
▁کردە	-9.62764
▁سیروان	-9.62779
▁ناوخۆیی	-9.62794
▁جۆر	-9.62914
▁لێرەوە	-9.63057
▁دانە	-9.63147
▁شارەکە	-9.63228
▁ناحیەی	-9.63238
▁کردبێت	-9.63255
▁ڕەزامەندی	-9.63585
▁2006	-9.636
▁کەمی	-9.63625
▁فێر	-9.63642
▁وسلم	-9.63649
▁ئێرە	-9.63707
▁کشتوکاڵی	-9.63707
▁بێدەنگ	-9.63926
▁لێژنەی	-9.64013
▁بەشار	-9.64026
▁دژە	-9.64218
▁هەمووان	-9.64225
ول	-9.64293
ند	-9.64335
▁وەرزشی	-9.64344
▁خستە	-9.64363
▁دەیانهەوێت	-9.64408
▁هەژار	-9.64414
▁سەردەم	-9.6444
▁گوایە	-9.64531
▁هێمن	-9.6456
▁شانازی	-9.64564
▁خێزانی	-9.64581
▁لەمەوبەر	-9.64635
▁بونی	-9.64652
▁خۆتان	-9.64714
▁یەکسانی	-9.6473
▁جێگیر	-9.64853
یاندا	-9.64855
▁حزبی	-9.64893
▁گەلێک	-9.649
▁بارەیەوە	-9.64913
▁ئەوەندەی	-9.64943
▁فەرمانی	-9.64957
▁بەهەموو	-9.64976
▁گروپە	-9.65196
▁سوپا	-9.652
▁هونەرمەندی	-9.65219
▁دوژمن	-9.65235
▁تۆمەتبار	-9.65264
▁میدیای	-9.65304
بار	-9.65339
▁جەستەی	-9.65471
▁شوێنێکی	-9.65632
▁زانا	-9.65634
▁ئەوکات	-9.65699
▁کردەوه	-9.65707
▁خەیاڵ	-9.65814
▁ناوداری	-9.65815
▁خۆراک	-9.65844
▁کاتەی	-9.65855
▁دەزگاکانی	-9.65872
گەر	-9.65873
ەکەوە	-9.65921
یشیان	-9.65944
▁شی	-9.65993
▁بانگەشەی	-9.66015
▁بەرپرسیار	-9.66029
▁کۆکردنەوەی	-9.66095
▁خالید	-9.66106
▁گواستنەوەی	-9.66108
▁دیکەوە	-9.66122
▁پێشەوە	-9.6613
▁مو	-9.6613
شم	-9.66201
▁دەگاتە	-9.66201
▁گووتی	-9.66278
▁سەعات	-9.663
▁بەرنامە	-9.66409
▁نەورۆز	-9.66492
▁کۆبوونەوە	-9.66594
▁کەسوکاری	-9.66616
دەست	-9.66649
▁باشوری	-9.66967
▁ناونیشانی	-9.66976
یاری	-9.66991
▁دۆسیەی	-9.67035
▁لایەکی	-9.6704
▁خۆر	-9.67102
▁ڕوونیکردەوە	-9.67106
▁کچ	-9.67165
وت	-9.67197
▁دادوەری	-9.67257
▁هەڤاڵ	-9.67297
▁شوێنە	-9.6732
▁یاریگای	-9.67383
کات	-9.67392
▁ئاسۆ	-9.67417
▁هەڕەشەی	-9.67417
▁لەچوارچێوەی	-9.67418
▁بەمەش	-9.675
ماندا	-9.67507
کردنە	-9.67575
جە	-9.67607
▁ڕۆژهەڵات	-9.67747
▁فیستیڤاڵ	-9.67772
▁دیسان	-9.67773
▁نان	-9.67812
▁ئیتالیا	-9.67816
تێ	-9.67835
▁واز	-9.67966
▁دەبات	-9.68048
▁ئینسان	-9.68116
▁ئێمەی	-9.68203
یس	-9.68293
▁بنەڕەتی	-9.68332
▁هەرە	-9.68347
▁بەشداریی	-9.68404
▁لۆ	-9.68465
▁سەوز	-9.68556
▁دەبینێت	-9.68883
▁خستەڕوو	-9.68908
▁ئەرک	-9.6894
▁ئاگر	-9.68954
▁ئەمین	-9.68963
▁گرفتی	-9.69
دۆ	-9.69244
▁مرۆیی	-9.69265
▁ژینگە	-9.69278
▁ئەکەن	-9.69301
▁دەسەلاتی	-9.69357
▁لەگەڵدا	-9.6943
شمان	-9.69446
▁سەرکردە	-9.69499
r	-9.69734
▁وەکوو	-9.69738
▁هێزه	-9.69862
▁هاوڵاتیانی	-9.70071
▁لەچەند	-9.70091
▁ها	-9.70118
▁کا	-9.70166
▁ئەڵمانی	-9.70203
▁بەدەستهێنانی	-9.70332
▁دانیشتنی	-9.70362
بوونەوەی	-9.7037
▁پیاوە	-9.70449
▁پرسیارە	-9.70462
▁عیراق	-9.70485
▁گەرمیانی	-9.70533
▁باڵیۆزی	-9.70637
▁الم	-9.70675
▁گیانیان	-9.70705
وانی	-9.70786
ەم	-9.70789
▁ڕاستەقینەی	-9.70844
▁برینداربوون	-9.70895
▁مەرج	-9.70908
رێن	-9.70918
▁بۆچوونی	-9.70921
▁واقیعی	-9.70933
▁هاوڵاتی	-9.70956
▁پەیوەندییە	-9.7099
▁سەرقاڵی	-9.71003
▁هێندەی	-9.71028
▁کوردیش	-9.71098
▁وتەی	-9.71128
▁بەراورد	-9.71148
وم	-9.71206
▁ڕاوێژکاری	-9.71219
▁بەلای	-9.71229
کانیان	-9.71392
▁دەوری	-9.71394
▁ڕژێم	-9.71408
ووی	-9.71543
▁جەخت	-9.71578
▁دەکرا	-9.71596
▁ئیسپانی	-9.71689
▁دەردەکەوێت	-9.71702
▁گەنجان	-9.71712
▁دەڵێم	-9.71775
▁ئاڕاستەی	-9.71793
رو	-9.71817
▁هەڵگری	-9.71859
▁وەلی	-9.71892
▁سیاسیەکان	-9.71899
▁باکووری	-9.71923
▁شاندی	-9.7196
▁قورس	-9.71975
▁دەسەڵاتە	-9.71977
▁پێدا	-9.72004
▁تردا	-9.7201
▁چوو	-9.72067
▁بەیەک	-9.72093
▁بیرکردنەوە	-9.72095
▁خۆیاندا	-9.72275
▁ڕێکخراو	-9.72301
▁ڕووداوەکانی	-9.7234
وس	-9.72434
▁ڕاگرتنی	-9.72442
▁سلێمان	-9.72478
▁ڕۆڵ	-9.72561
▁میراودەلی	-9.72567
▁ڕیال	-9.72571
▁ئومێد	-9.7262
▁پلان	-9.72629
ێنن	-9.72661
▁مرۆڤەکان	-9.72699
▁چوارەم	-9.7278
▁دەدەین	-9.72903
▁کەمکردنەوەی	-9.73005
▁ئەوەیان	-9.73094
▁کۆمیتەی	-9.73107
▁بەدەر	-9.7313
▁هەڵدە	-9.73132
▁حوکم	-9.73192
▁دەستور	-9.73253
▁دواتریش	-9.73493
▁خۆپیشاندەران	-9.73496
▁باکوور	-9.73504
▁میللی	-9.73529
▁چاوپێکەوتن	-9.73562
ص	-9.73579
گری	-9.73607
▁بەرپرسیارێتی	-9.73674
▁برد	-9.73693
درا	-9.73697
▁ڕەنگی	-9.73737
ئی	-9.73813
گۆ	-9.73836
▁جۆراوجۆر	-9.73839
▁موسڵمان	-9.73859
انەیە	-9.74031
▁لوبنان	-9.74097
▁کەمێک	-9.74141
ۆن	-9.74191
▁چارەنووسی	-9.74195
کر	-9.74286
▁تیرۆریستان	-9.74338
▁زیندوو	-9.74401
▁شارستانی	-9.74482
:"	-9.74508
▁ئامادەبوونی	-9.74546
▁قەڵەم	-9.74569
▁بڕوا	-9.74614
▁بەڕاستی	-9.74617
▁بچێت	-9.74634
▁مەبەستە	-9.74701
▁کارەبای	-9.7473
▁ئاسیا	-9.7473
ڵە	-9.74746
▁لیبیا	-9.74763
▁هەوڵەکانی	-9.74799
ینە	-9.74839
▁لەمەڕ	-9.74899
▁خاتوو	-9.74987
▁گرفت	-9.74998
▁دەرگای	-9.75038
▁شەقام	-9.75052
▁فراکسیۆنی	-9.75058
▁ڕەشید	-9.75142
ئاژانسی	-9.75144
▁://	-9.75179
▁دەق	-9.75206
▁چالاک	-9.75221
▁متمانە	-9.75256
▁ڕۆژنامە	-9.75544
▁بەها	-9.75601
▁دەژین	-9.7566
ەکەت	-9.75722
▁وشە	-9.75728
▁خێرا	-9.75774
▁ئاماژەیە	-9.75795
▁دەبنە	-9.75842
▁شەر	-9.7589
▁دروستبوونی	-9.75901
▁نووسەری	-9.75915
▁زۆریان	-9.75995
▁بەریتانی	-9.76028
▁خەون	-9.76058
▁خاڵە	-9.76078
▁زیانی	-9.76149
▁بووین	-9.76168
▁ئاسمان	-9.76387
▁حوزەیران	-9.76405
▁سەخت	-9.76482
▁کوژراون	-9.7657
نەوەی	-9.76598
▁ئەزموون	-9.76644
▁کوژران	-9.76657
▁کێشەو	-9.76711
▁فەرەنسی	-9.76769
▁بنەماڵەی	-9.76805
▁داگیر	-9.76869
▁ئەوەشدا	-9.76892
▁زمانێکی	-9.76905
▁موزیک	-9.77088
▁حیزبەکان	-9.77089
▁شوان	-9.77139
▁2004	-9.77219
▁لێیان	-9.77314
▁باکوری	-9.77315
▁دەکەیت	-9.77317
▁ژنی	-9.77334
▁نەتەوه	-9.77407
گرتن	-9.77436
▁60	-9.77476
▁ناسراو	-9.775
▁بڕوای	-9.77547
▁گۆل	-9.77571
▁دیموکراسی	-9.77582
)،	-9.77584
▁لاوانی	-9.77625
▁جەژنی	-9.77627
▁دیاردەی	-9.77689
▁کوێ	-9.77695
▁دەچێتە	-9.77696
▁مەیدانی	-9.77706
▁حکومی	-9.77732
عە	-9.77736
▁توشی	-9.77904
▁نەکەن	-9.7792
▁یەکتری	-9.77945
گای	-9.78066
ڤی	-9.78167
▁مانگە	-9.78168
▁نەوەی	-9.78183
▁کوردستانە	-9.78233
▁بزانن	-9.78238
▁ئەکتەری	-9.7824
زا	-9.78393
▁وڵاتێکی	-9.78411
▁بەتەواوی	-9.78412
▁شوێنێک	-9.78513
▁comment	-9.78515
▁لەدەرەوەی	-9.78552
▁دەشێت	-9.78653
ەکا	-9.78674
▁کر	-9.78689
▁مێ	-9.78857
▁E	-9.78865
▁گەیاند	-9.7891
▁بەرپرس	-9.78926
یەوه	-9.78955
▁ئابووریی	-9.78993
▁لایەنێکی	-9.79027
▁ئۆ	-9.79042
▁کاریان	-9.79067
▁سیاسییە	-9.79099
سێ	-9.79201
▁کرایەوە	-9.79231
▁ڕەگەزی	-9.79233
▁زاخۆ	-9.79255
▁گەیاندنی	-9.79296
▁جەختی	-9.79325
▁بڵێن	-9.79358
▁هاوکاریی	-9.79522
▁ڕۆژنامەنوس	-9.79534
▁هەولێری	-9.79541
▁بەبۆنەی	-9.79579
▁لەمبارەیەوه	-9.7959
▁تەن	-9.796
فا	-9.79617
▁34	-9.79712
▁سەرۆکایەتیی	-9.79718
▁دیوانی	-9.79771
▁دەزانم	-9.7983
▁سەرمایەداری	-9.79904
▁تابلۆی	-9.79922
▁گەڕانەوە	-9.79929
▁پارێزگاکانی	-9.79945
▁ئەکتەر	-9.79998
▁ناوەکی	-9.80012
راو	-9.80025
▁بیان	-9.80053
▁لەیەک	-9.80104
▁بۆیان	-9.80167
▁بازاڕی	-9.80177
▁وەرزش	-9.80301
▁پەرەپێدانی	-9.80306
کردەوە	-9.80345
ەکانم	-9.80375
▁ڕوونی	-9.80418
▁فەرمان	-9.80434
▁سنوور	-9.80458
▁چالاکوانی	-9.80497
▁فیلمەکانی	-9.80508
▁نو	-9.80541
▁دەگرێتەوە	-9.80571
▁درۆ	-9.80661
▁سەرنجی	-9.80679
▁تیایدا	-9.80711
▁ڕۆڵێکی	-9.80726
▁نەکرێت	-9.80774
▁دەستوری	-9.80831
▁بارەیەوه	-9.80851
▁پەیامی	-9.8096
▁پارێزگاکان	-9.80999
▁شاخ	-9.81037
▁پێشکەوتن	-9.81053
▁خۆیشی	-9.81061
دەی	-9.81125
▁حاڵەتی	-9.81169
▁ڕێککەوتن	-9.81184
▁of	-9.81225
▁B	-9.81273
▁+	-9.81321
▁ساڵانە	-9.81365
▁وەر	-9.81445
▁شکست	-9.81458
▁بزانین	-9.81496
زانی	-9.81521
▁ڕۆژنامەنووسان	-9.81641
ۆری	-9.81655
ەکەیدا	-9.81657
یزم	-9.81666
▁دزی	-9.8174
ەیەکی	-9.8176
ط	-9.81773
▁هونەرمەندان	-9.8191
▁ژنە	-9.81914
lick	-9.81963
▁وەزیر	-9.81975
▁fb	-9.82016
▁کانونی	-9.82163
▁خراپتر	-9.82172
▁یەکێکیان	-9.82273
▁سەرباری	-9.82331
▁کرێکارانی	-9.82379
هەر	-9.82508
▁لەهەمان	-9.82542
▁دۆلاری	-9.82573
▁دەبین	-9.82588
▁ئیداری	-9.82664
▁ڕەمزی	-9.8268
▁جەعفەر	-9.82712
▁وەرگرتن	-9.82751
▁بریتین	-9.82838
▁برایەتی	-9.82841
▁لێوە	-9.82865
ییەکانی	-9.82943
▁بەرژەوەندیی	-9.82956
▁هاتوچۆ	-9.83032
▁دەرمان	-9.83128
▁زۆرتر	-9.83128
ترە	-9.83166
▁ئاماژه	-9.83185
▁هەماهەنگی	-9.83192
▁بەهاری	-9.83197
▁بەلا	-9.83205
▁هەوڵدان	-9.83269
▁پەنابەران	-9.83513
▁ێ	-9.83543
▁دوایین	-9.83575
▁بەهێزی	-9.83595
▁ئاشکرای	-9.83613
▁جی	-9.83625
▁سەرپەرشتی	-9.8365
▁بەرچاوی	-9.8366
▁حاکم	-9.83674
اندن	-9.83755
▁2005	-9.8386
▁واقیع	-9.83864
▁گەڕان	-9.83881
▁چەمکی	-9.83933
▁هۆڵەندا	-9.83936
▁سەروەری	-9.83956
▁ئێ	-9.83984
▁ڕووداوە	-9.84026
▁کوردایەتی	-9.84053
▁درووست	-9.84056
اند	-9.84103
▁بڵاوکردنەوەی	-9.84267
▁مامۆستایان	-9.84302
هەڵ	-9.84356
▁ڕیزی	-9.84399
▁سوننە	-9.84439
▁چیرۆک	-9.84511
▁شە	-9.84557
▁لەسلێمانی	-9.84573
▁ناڕەزایەتی	-9.84618
▁کوشت	-9.84685
کردوە	-9.84723
▁هاوکار	-9.84775
▁قورئان	-9.84871
▁توندی	-9.84968
▁A	-9.84976
▁هەربۆیە	-9.84984
▁سەرچاوەکه	-9.85054
پە	-9.85128
▁کاریگەر	-9.85157
▁ئاشکرایە	-9.85163
▁ولات	-9.8522
▁کەوتە	-9.85399
▁ناوچەیەکی	-9.85406
▁سامانی	-9.85505
یر	-9.8557
▁ئیرادەی	-9.85576
▁دێن	-9.85647
ران	-9.85682
▁ئەیلول	-9.85747
▁سەرکردەی	-9.85762
▁بکەینەوە	-9.85828
▁لەبەغدا	-9.85924
▁دەسەڵاتدارانی	-9.85938
▁گرتن	-9.85952
وەو	-9.85979
▁دامەزراوە	-9.86015
▁بارەگای	-9.86042
▁سێبەری	-9.86103
از	-9.8615
▁دادەنرێت	-9.86177
▁جدی	-9.86236
▁ئاراوە	-9.86263
▁لێکۆڵینەوەی	-9.86282
▁ئاکامی	-9.86425
▁کوڕ	-9.86474
▁ویست	-9.86496
▁خواستی	-9.86516
▁مۆر	-9.8652
▁تورکمان	-9.86536
▁لاوی	-9.86566
در	-9.86606
▁بەرجەستە	-9.8663
▁سەرباز	-9.86708
▁نمایشی	-9.86721
▁میللەت	-9.86729
ئەم	-9.86752
▁بەعسی	-9.8679
▁گەشە	-9.86796
▁مەڵبەندی	-9.86804
▁32	-9.86805
▁ململانێ	-9.87008
▁دیاریکردنی	-9.87032
یک	-9.87118
▁قسەکردن	-9.8713
▁مامەڵەی	-9.87138
▁هەڕەشە	-9.87182
▁قە	-9.87204
ناس	-9.87277
گیر	-9.87305
▁پەیڕەو	-9.87321
گر	-9.87359
▁کورته	-9.87362
▁نییه	-9.87453
▁ئەوەتا	-9.8746
روو	-9.87472
رس	-9.87481
▁سور	-9.87603
▁ڤێ	-9.87622
▁چوونە	-9.87702
▁پێشکەوتنی	-9.87707
▁چاوەڕوان	-9.87745
▁ئێوارە	-9.87809
ڤان	-9.87874
▁خەڵکە	-9.87923
کری	-9.87931
▁می	-9.87943
ڕی	-9.87948
▁پێداویستی	-9.8795
▁لەخۆ	-9.87955
▁ئای	-9.87998
▁گرووپی	-9.88024
▁500	-9.88066
▁وەربگرێت	-9.88081
▁تاکی	-9.8809
ماڵ	-9.88097
▁باوەڕی	-9.88154
▁دەگەیەنێت	-9.88248
▁واته	-9.88285
▁36	-9.88291
▁ناوچانە	-9.8839
▁پێویستیان	-9.88423
▁تەمموز	-9.88459
▁توانیان	-9.8846
▁ڕاستیدا	-9.88528
▁هاشمی	-9.88552
▁دینی	-9.88562
ژی	-9.88619
▁برای	-9.88631
▁چەندە	-9.88694
اڵی	-9.88739
▁قەبارەی	-9.88767
▁بنەما	-9.88779
▁پێکهاتەکانی	-9.88787
▁ئینسانی	-9.88795
▁هەمیشەیی	-9.88798
▁ڵ	-9.88808
▁نادات	-9.88821
وار	-9.88842
▁چوون	-9.88854
بوونەوە	-9.88854
▁دیالۆگ	-9.88901
▁ئ	-9.88965
▁پەیوەندییەکی	-9.88981
▁سروشت	-9.89021
▁کۆریای	-9.89087
نووس	-9.89137
▁بچوک	-9.89155
▁خود	-9.89233
▁ئامادەکردنی	-9.89289
▁ئەوانی	-9.89297
▁خولەکە	-9.89312
▁ویستی	-9.89312
▁منداڵانی	-9.89366
▁لەسەردەمی	-9.89434
▁ئەبو	-9.89439
▁کۆمیسیۆنی	-9.89458
▁دووەمین	-9.89464
▁گەیشتە	-9.89476
▁متمانەی	-9.89483
▁لەهەولێر	-9.89525
▁بەکوردستانی	-9.89587
▁بەرێز	-9.89627
▁داکۆکی	-9.89637
▁require	-9.89652
▁تەقینەوەی	-9.89668
▁وەرگرت	-9.8981
▁تاهیر	-9.89893
▁ورد	-9.89992
▁گەشەی	-9.90037
▁تێگەیشتن	-9.90145
▁بەوەدا	-9.90148
▁زۆرە	-9.90237
ێز	-9.90289
▁هزری	-9.9033
▁لەرێگەی	-9.90359
▁دێموکرات	-9.90387
▁ڕاهێنەری	-9.9045
▁مەسیحی	-9.9057
▁بزانێت	-9.90673
ۆس	-9.90688
▁فێری	-9.90764
جار	-9.90766
▁گرێ	-9.90814
▁قوتابخانە	-9.90979
▁بەدوور	-9.90984
▁دەن	-9.90987
▁یوسف	-9.90987
▁هاوشێوەی	-9.91031
▁بووەتە	-9.91166
ام	-9.9121
▁ڕۆ	-9.91211
▁ئاخۆ	-9.91223
▁هاوار	-9.91261
▁توانیویەتی	-9.91266
▁ڕاپۆرت	-9.91279
▁پیرۆزی	-9.91343
▁گ	-9.9135
▁دابوو	-9.914
▁یەکی	-9.91529
دەم	-9.91544
▁هاوپەیمانیی	-9.917
▁هۆکار	-9.9171
ێر	-9.91719
▁زیندان	-9.9178
▁ئاماده	-9.91874
▁هۆ	-9.91889
▁دۆست	-9.91903
▁لەبری	-9.91948
گرتنی	-9.91972
▁بەشێوەیەک	-9.91986
یەکدا	-9.92111
▁دەبنەوە	-9.9212
▁زاڵ	-9.92125
▁ڕووداو	-9.92131
▁مووچەی	-9.92153
▁بەشێوەی	-9.9218
▁ئەگەری	-9.92214
▁فارس	-9.9222
▁سەرەتایی	-9.92235
▁دەگوترێت	-9.92286
▁وێنەیەکی	-9.92287
▁پۆست	-9.92348
▁200	-9.92517
▁لەمبارەیەوە	-9.92518
شا	-9.92575
▁ناوچەیە	-9.92586
________________	-9.92592
جا	-9.92601
▁کێشەیەکی	-9.92609
▁پارت	-9.92677
▁بریار	-9.92685
▁ئاماژەیه	-9.92764
دین	-9.92767
▁ڕووداوی	-9.92815
▁باو	-9.92865
دەبێت	-9.92916
▁جۆ	-9.92917
▁95	-9.92929
▁حوکمڕانی	-9.93055
کاندا	-9.93095
▁هەڵبژاردە	-9.93095
▁کرن	-9.93099
▁بازاڕ	-9.93113
یة	-9.93249
کرن	-9.93254
▁پڕۆژەکە	-9.93255
▁کوردان	-9.93314
▁بخاتە	-9.9333
▁ئەڤ	-9.9333
▁ناشرین	-9.93408
▁توندوتیژیی	-9.93423
▁موراد	-9.9349
▁بەدەستی	-9.93496
▁شایانی	-9.93498
▁دوکان	-9.93507
▁خوێندکار	-9.93514
▁داد	-9.93547
▁کاکە	-9.93582
▁یەکگرتووی	-9.93609
یشەوە	-9.93611
▁پێیوایە	-9.93703
▁هۆشیاری	-9.93837
▁پاکستان	-9.93857
▁پارێزگا	-9.93867
▁دەگات	-9.93892
▁شان	-9.9397
▁عێراقەوە	-9.94056
▁دەکاتە	-9.94104
▁فیدراڵی	-9.94105
▁کەسانێک	-9.94255
▁تکایە	-9.94292
▁33	-9.94372
کو	-9.94419
▁نەهێشتنی	-9.94425
▁ڕادیۆی	-9.94447
▁ڕێکخستن	-9.94459
▁هاتن	-9.94496
▁لەدەست	-9.94507
▁سەندیکای	-9.9455
▁وزەی	-9.94589
▁یاساو	-9.94646
▁سارد	-9.94686
▁خە	-9.94794
▁کێشەیە	-9.94822
▁شیوعی	-9.94852
▁چینایەتی	-9.94973
▁کۆنفرانسی	-9.94979
▁گەشت	-9.95047
▁دەهێنن	-9.95059
▁چووە	-9.95068
▁سا	-9.95101
▁پێدەچێت	-9.95175
▁وەرگرتووە	-9.95194
▁فیلمە	-9.95241
▁ئازاری	-9.95243
▁گەورەتر	-9.95253
▁فە	-9.95322
▁مامۆستایانی	-9.95367
ێکەوە	-9.95399
▁سەرتاسەری	-9.95412
▁ست	-9.95438
▁عێراقییەکان	-9.95554
▁بایەخ	-9.95558
▁مردنی	-9.95568
▁بەڵێنی	-9.95599
▁ئایار	-9.95678
▁پەرلەمانتار	-9.95694
▁دەرببڕیت	-9.95737
▁دراوسێ	-9.95789
▁قوتابیان	-9.95857
▁گۆ	-9.95897
▁نەیتوانی	-9.95921
▁باڵی	-9.96004
ڕە	-9.9609
▁P	-9.96099
ێکیان	-9.96101
بان	-9.9611
▁ترسی	-9.9623
▁فەرمانگەی	-9.96259
▁نەبن	-9.96294
تری	-9.96305
کس	-9.96312
▁ئەر	-9.96428
▁کاتەدا	-9.96581
▁دەبەن	-9.966
▁بێدەنگی	-9.96638
مەن	-9.96762
▁چەکدار	-9.96781
▁هو	-9.96853
▁ڕەزا	-9.96886
کەش	-9.96918
▁خەرج	-9.96933
er	-9.9695
▁ڕەگەز	-9.96956
▁وردە	-9.96958
▁1991	-9.97003
▁ڕق	-9.97009
▁پێشکەشی	-9.97029
رین	-9.97037
▁خانوو	-9.97039
▁ئەخلاقی	-9.97052
▁لێدوانێکدا	-9.97056
▁ناوچه	-9.97077
▁نموونەی	-9.97078
▁تیادا	-9.97087
▁کۆنگرەیەکی	-9.97102
▁داوایان	-9.9719
چە	-9.97217
▁مۆدێرن	-9.97226
▁گەشەپێدانی	-9.97248
▁مانا	-9.97329
ڕو	-9.97337
▁دەکرێتەوە	-9.97389
▁جاری	-9.9742
▁خوێندنەوە	-9.97431
▁لەپێناوی	-9.9749
▁شانۆگەری	-9.97587
▁لەدایک	-9.97589
عی	-9.97621
▁کاندیدی	-9.97658
▁ئاڵای	-9.97688
▁فشار	-9.97775
▁یانەکانی	-9.97789
▁دەگرن	-9.978
محەمەد	-9.97809
ەیان	-9.97834
▁ئەوەبوو	-9.97904
▁لەکار	-9.97937
▁بەرزی	-9.97948
▁لەپێش	-9.98025
ەن	-9.98052
▁ڕێبین	-9.98057
▁بیروبۆچوونی	-9.98077
▁ژیانێکی	-9.9815
▁دەرهێنەری	-9.98166
▁فەلسەفی	-9.98217
▁بەڕێوەبردنی	-9.98325
▁یاسایە	-9.98361
▁بینینی	-9.98402
▁یاد	-9.98437
▁تاوانە	-9.98573
▁لەوبارەیەوە	-9.98626
▁پیس	-9.98648
▁سیاسیەکانی	-9.9877
▁J	-9.98837
وتی	-9.98852
▁ڕاستییە	-9.98859
▁D	-9.98869
▁گەورەو	-9.98912
راوە	-9.98923
▁ئۆپۆزیسیۆن	-9.9897
▁بەوەش	-9.99015
▁ئیسلامییەکان	-9.99023
▁کور	-9.99044
ەکێ	-9.99072
▁نووسینگەی	-9.99089
▁بابەتانەی	-9.99101
▁بەیەکەوە	-9.99134
ar	-9.9915
▁پۆستە	-9.99165
▁داناوە	-9.99175
▁ڕایگەیاندووە	-9.99205
▁بەرد	-9.99306
▁وەفدی	-9.99358
▁S	-9.99424
▁بەرێوەبەری	-9.99434
ۆی	-9.99469
▁بانگ	-9.99543
▁70	-9.99566
پەر	-9.99571
2	-9.99617
▁فرۆشتنی	-9.99671
n	-9.99728
▁کۆر	-9.99796
خان	-9.99805
▁ئەمڕۆی	-9.99822
▁دەبیت	-9.99831
▁دەوڵەتە	-9.99926
▁فەلسەفەی	-10.0001
▁عێراقیش	-10.0009
▁یەکسان	-10.0018
▁بتوانین	-10.002
▁هەنگاوێکی	-10.0023
▁بری	-10.0034
▁نەخشەی	-10.0037
▁38	-10.0039
▁ئێمەدا	-10.0043
▁یێ	-10.0046
ناو	-10.0054
▁ئێن	-10.0059
▁مل	-10.0063
▁بڵاوی	-10.0064
▁زیرەک	-10.0076
▁ئاستێکی	-10.0076
▁خەریکە	-10.0085
▁میوان	-10.0087
کەیان	-10.0088
▁تونس	-10.009
▁ئاسانی	-10.009
▁کشانەوەی	-10.0091
▁ڕادیۆ	-10.0098
▁لایەنگرانی	-10.0101
▁ڕەحمان	-10.0102
تو	-10.0109
▁ڕێنمایی	-10.0109
▁نیشانەی	-10.0114
▁پێناسە	-10.0116
▁لایەنه	-10.0119
▁گەوره	-10.0127
▁داهێنان	-10.0135
▁تێپەڕ	-10.0136
▁سەرکردەکانی	-10.0139
▁تەقەمەنی	-10.014
پر	-10.0144
ۆک	-10.0144
▁ئەبێ	-10.0151
▁دەڕوات	-10.0165
▁جۆره	-10.0169
▁بەڵکوو	-10.0171
▁وایه	-10.0178
▁لەکەرکوک	-10.0181
▁هونەرمەندانی	-10.0188
▁ئۆتۆمبێل	-10.0195
al	-10.0201
خواز	-10.0203
▁نووسراوە	-10.0203
▁جل	-10.0214
▁ئەهلی	-10.0217
▁ئاشنا	-10.0233
خا	-10.0234
▁پاڵەوانێتی	-10.0238
▁خەونی	-10.0252
▁گەڕەکی	-10.0256
▁39	-10.0257
▁دەرکردنی	-10.0257
سان	-10.0257
▁بوارەکانی	-10.026
▁ڕۆژنامەوانیدا	-10.0261
▁}	-10.0266
▁خەو	-10.0267
▁سەرچاوەکانی	-10.0273
▁کوردانی	-10.0273
▁بەند	-10.0279
▁بەکاری	-10.0279
▁بەشەکانی	-10.0282
▁بێتە	-10.0283
▁شێرکۆ	-10.0283
▁نیوەی	-10.0288
▁F	-10.0292
▁هاوولاتیان	-10.0292
▁سوودی	-10.0299
▁{	-10.03
▁داهات	-10.0301
▁کۆیە	-10.0302
▁سێیەمی	-10.0304
▁باشترە	-10.0305
ڵی	-10.0306
▁عەبدول	-10.0306
▁ولاتە	-10.0306
▁37	-10.0309
▁ڕەمەزان	-10.0311
▁بچێتە	-10.0311
▁مەتر	-10.0311
▁کلی	-10.0314
▁کارکردنی	-10.0317
▁ناوچەکەدا	-10.0318
زان	-10.0319
▁ولاتانی	-10.0325
▁چاوەڕێی	-10.0328
▁بیرو	-10.033
▁گا	-10.0333
▁بڕیاره	-10.0333
▁ئیمزا	-10.0334
▁بەڕێ	-10.034
▁ڕۆمان	-10.0345
▁سەربازیی	-10.0346
گەری	-10.0355
▁کارێک	-10.036
▁گۆرانیبێژ	-10.0367
▁بۆنەی	-10.0369
▁80	-10.0371
▁پێدەکات	-10.0371
▁داوه	-10.0372
▁کارەساتی	-10.0375
▁گۆڵی	-10.0375
▁نێر	-10.038
▁یاریزانان	-10.0384
▁گوند	-10.0387
ڵا	-10.0394
▁مەبەستەش	-10.0398
▁بەرهەمەکانی	-10.04
▁باراک	-10.04
▁شکستی	-10.0407
▁یاساکە	-10.041
▁نادیار	-10.041
▁ڕووداوەکان	-10.041
▁حکومەتەکەی	-10.0411
▁مرۆڤە	-10.0412
▁فەرهەنگ	-10.0416
لای	-10.0418
هات	-10.0419
▁هاتوون	-10.042
▁جەستە	-10.043
وری	-10.0434
▁خوشک	-10.0436
▁دەوڵەمەند	-10.0437
▁ناتوانێ	-10.0438
▁بەهای	-10.044
▁بەرمیل	-10.0442
▁پڕۆژەیە	-10.0442
▁شارەزا	-10.0445
▁بانکی	-10.0446
▁کەسیش	-10.0448
▁سیاسەتە	-10.0454
▁تیشک	-10.0454
▁کەوتووە	-10.0459
▁ببنە	-10.0459
▁نیسان	-10.0465
▁ژینگەی	-10.0466
▁ئالان	-10.0467
▁لەمیانەی	-10.0474
▁پابەند	-10.0482
▁مانەوە	-10.0486
▁شاندێکی	-10.0487
▁هاته	-10.0491
▁میر	-10.0494
▁حکوومەتە	-10.0503
▁گلەیی	-10.0505
▁کێشەکە	-10.0506
وەر	-10.0509
▁نەمر	-10.0516
▁چە	-10.0517
▁جۆن	-10.0521
▁دوچاری	-10.0522
▁سەفەر	-10.0522
▁48	-10.0523
▁واتای	-10.0527
▁بەرپرسە	-10.0527
▁سەرهەڵدانی	-10.0528
▁جەلەولا	-10.053
▁وشک	-10.0537
▁دەستە	-10.0546
▁بەڵگەی	-10.0556
دن	-10.056
▁پیر	-10.056
▁پاریس	-10.0572
▁هەندێکیان	-10.0573
▁شکاو	-10.0575
▁بەشداریکردن	-10.0577
▁شەرم	-10.0577
▁کردوون	-10.058
پەڕ	-10.0582
▁وابوو	-10.0588
▁ئەتۆمی	-10.0595
▁هەبوونی	-10.0599
▁ببینێت	-10.0604
▁وتاری	-10.0608
▁ڕێگری	-10.061
▁هەواڵێکی	-10.0617
فە	-10.0627
▁بوارە	-10.063
▁سەلاحەددین	-10.0631
▁هەڵمەتی	-10.0632
▁بێبەش	-10.0633
▁شەممه	-10.0635
▁دووپات	-10.0638
▁بەرپرسێکی	-10.064
▁سویسرا	-10.0641
▁زێڕین	-10.0643
▁ڕەوا	-10.0644
▁ئاشکرایکرد	-10.0647
▁لەدوو	-10.0648
▁خۆشحاڵی	-10.0649
▁دیالە	-10.0655
▁بووبێت	-10.0655
▁عەشق	-10.0658
▁عادل	-10.0662
▁بڕ	-10.0673
▁مارکس	-10.0681
▁بینای	-10.0681
▁موچەی	-10.0681
ادی	-10.0682
▁بەندە	-10.0682
▁مەشق	-10.0682
▁تیشکی	-10.0683
▁خەرجی	-10.0686
خۆ	-10.0691
▁تۆڕی	-10.0695
▁ڕەسوڵ	-10.0697
▁کۆمەک	-10.0699
l	-10.0701
▁ڕۆمانی	-10.0719
▁ڕۆشنبیریی	-10.0723
▁C	-10.0724
▁کۆنە	-10.0729
▁ماددە	-10.0729
▁سوپاس	-10.0733
▁دام	-10.0736
▁بگات	-10.0739
▁ئەمه	-10.0739
▁خۆشەویست	-10.0742
ڕوو	-10.0743
▁قۆناغێکی	-10.0746
▁گرووپ	-10.0752
▁پرس	-10.0754
ەوەیە	-10.0754
▁نایات	-10.0756
▁هیوادارم	-10.076
▁یەکەی	-10.0768
▁پیاوانی	-10.0772
تانی	-10.0774
i	-10.0775
▁هەرچەند	-10.0787
▁خوێندکاران	-10.0789
▁شەڕە	-10.0789
▁بناغەی	-10.0792
▁کوردیدا	-10.0797
▁بوونەتە	-10.0802
▁نارد	-10.0802
▁ناسنامەی	-10.0803
▁هێزو	-10.0808
▁قسەکانی	-10.0812
▁بڵێ	-10.0818
▁بلاو	-10.0819
▁لەڕێی	-10.0822
▁ئیئتیلافی	-10.0827
▁قوربانیانی	-10.0828
▁جینۆساید	-10.0828
ئا	-10.0829
من	-10.0831
▁نەخێر	-10.0848
▁تەماشای	-10.0849
▁خواردنی	-10.0849
▁ڕوانگەی	-10.085
یەدا	-10.0853
▁کەرکوکی	-10.0858
▁ئەنجومەن	-10.086
▁سەردەمە	-10.0862
▁گۆڕی	-10.0874
▁مووچە	-10.0881
▁ئیخوان	-10.0885
▁بڵێت	-10.0891
▁ماڵەوە	-10.0894
▁جیاوازە	-10.0909
▁عەقڵ	-10.0913
▁ئەرکە	-10.0917
▁دەرچوو	-10.092
▁ئاواز	-10.0922
▁ماسی	-10.0923
▁یەکلایی	-10.0934
▁هیچی	-10.0937
▁مەکەن	-10.0938
▁پەیوەندیدارەکان	-10.0941
▁ئیسلامیی	-10.0941
▁مەزهەبی	-10.0943
▁عەباس	-10.0943
▁ماندوو	-10.0944
▁لەبار	-10.0945
▁هەرێمە	-10.095
▁ببن	-10.095
▁حە	-10.0951
▁ئارەزووی	-10.0952
▁فیکری	-10.0955
▁شانۆیی	-10.0961
▁دڵسۆز	-10.0968
▁ڕایدەگەیەنێت	-10.0971
ث	-10.0976
یەکاندا	-10.0977
▁فڕۆکە	-10.0979
▁دەبینن	-10.0979
▁بوش	-10.0987
▁ئەن	-10.0996
▁قۆناغە	-10.0997
▁بڕە	-10.1005
▁گەورەکان	-10.1011
▁داب	-10.1027
▁42	-10.104
▁خەمی	-10.1046
▁پەرە	-10.1055
بکەین	-10.1057
▁یەمەن	-10.1061
▁خزمەتگوزاریی	-10.1069
▁خەیاڵی	-10.107
▁ئەحمەدی	-10.1071
▁بۆتەوە	-10.1072
▁یەکەمیان	-10.108
▁سێکس	-10.108
▁کەوتنە	-10.109
▁هێنان	-10.1097
فر	-10.1098
▁دەستگیرکردنی	-10.1099
▁تەکنیکی	-10.1103
▁ڕیز	-10.1104
▁دەشڵێت	-10.1109
▁ڕابردووی	-10.1115
▁دۆخە	-10.1122
▁دروشمی	-10.1128
▁ئامادەکاری	-10.113
▁نەما	-10.1132
▁ئەستۆی	-10.1135
▁پەلە	-10.1139
▁ئۆجالان	-10.1144
▁دڵشاد	-10.1147
▁گرنگترین	-10.1153
▁شیعەکان	-10.1159
▁دنیادا	-10.1161
▁ڕانیە	-10.1164
▁چەمچەماڵ	-10.1167
▁غ	-10.1168
لو	-10.1169
▁فارسی	-10.1171
▁ماوەتەوە	-10.1174
▁بەهەر	-10.1181
▁ڕێککەوتنی	-10.1183
▁ڕوویدا	-10.1183
▁کورتی	-10.1185
▁دەمێنێتەوە	-10.1185
دێ	-10.1185
▁لەڕێگای	-10.1187
اد	-10.1187
▁بۆنی	-10.1189
▁ڕاو	-10.119
کەن	-10.1193
▁وەردەگرێت	-10.1194
▁پێموایە	-10.1194
ذ	-10.1204
▁دادوەر	-10.1204
▁شەقامی	-10.1209
کرنا	-10.1216
▁بێجگە	-10.1218
درێت	-10.1219
▁لەشکری	-10.122
▁لەکوردستاندا	-10.1229
▁دەزانی	-10.123
▁N	-10.123
▁ئایندە	-10.1238
▁خەلک	-10.1241
▁زمانە	-10.1242
▁دەتوانرێت	-10.1245
▁مەسەلەیە	-10.1245
▁شێوەکاری	-10.1247
▁هەڵبەت	-10.1249
m	-10.125
▁کێش	-10.1252
▁عەبدولڕەحمان	-10.1254
▁جەژن	-10.1256
▁مێشک	-10.1256
نێت	-10.1256
▁پێناوی	-10.1257
▁نەی	-10.1263
▁دەچن	-10.1266
▁زەرد	-10.127
▁کارمەندانی	-10.127
▁شتە	-10.1271
▁چڕ	-10.1272
▁ناویان	-10.1273
خستنی	-10.1275
▁تەلەفزیۆنی	-10.1277
سن	-10.128
▁ناکەم	-10.1281
▁شتەکان	-10.1296
▁جودا	-10.1297
▁بڵاودەکرێنەوە	-10.1297
▁ئاهەنگ	-10.1304
▁تاوتوێ	-10.1308
▁ناتوانین	-10.1309
▁کوژراو	-10.131
▁43	-10.132
▁ڕێکەوت	-10.1322
▁بەتاڵ	-10.1327
نۆ	-10.1332
▁ڕێزی	-10.1337
ض	-10.1346
فەر	-10.135
▁لەبەرچاو	-10.1352
▁کرێکاری	-10.1355
▁ڕەفتار	-10.1356
▁هەژاری	-10.136
▁خولەکی	-10.1362
▁نەتەوایەتی	-10.1363
▁چۆڵ	-10.1365
ڕۆ	-10.1369
▁خەڵات	-10.1372
داوە	-10.1374
▁قوڵ	-10.1381
▁شین	-10.1382
ؤ	-10.1383
▁بگاتە	-10.1383
▁زە	-10.1384
▁بەئامادەبوونی	-10.1387
▁تەرمی	-10.1397
ەتە	-10.1398
▁ژیانیان	-10.1398
▁گۆڕەپانی	-10.1403
پا	-10.1411
▁گۆڕانی	-10.1411
▁شیرین	-10.1412
▁پەلاماری	-10.1413
▁خانەی	-10.1413
▁مار	-10.1429
▁خان	-10.1432
▁دیکتاتۆری	-10.1441
▁داخوازی	-10.1447
▁ڕۆژانەی	-10.1447
مین	-10.1449
▁ناسراوە	-10.1452
▁وەربگرن	-10.1458
▁نیم	-10.1459
▁دادگایی	-10.1467
▁ئاراستە	-10.1467
نامەی	-10.1468
▁دەرفەتی	-10.1472
▁ئار	-10.1485
▁بەفر	-10.1493
▁قەت	-10.1493
توو	-10.1497
▁تیرۆری	-10.1503
▁مەرگی	-10.1504
▁گاز	-10.1511
▁55	-10.1512
▁کوردستانێ	-10.1512
▁جو	-10.1515
▁زێباری	-10.1523
▁زیادکردنی	-10.1527
▁مەیدان	-10.1529
▁قوتابخانەی	-10.1532
▁تاقی	-10.1545
yahoo	-10.1546
▁دامەزراندن	-10.1554
▁واشنتن	-10.1558
▁بەتەنیا	-10.1559
▁41	-10.1563
▁ئاڵۆز	-10.1563
یکی	-10.1564
کەس	-10.1566
▁دەستخۆشی	-10.1567
▁بەرزنجی	-10.1567
▁خولەک	-10.1578
▁دانراوە	-10.1579
ژن	-10.1585
▁دەوڵەتێکی	-10.1588
▁قاسم	-10.1588
▁نازناوی	-10.1592
▁ناتۆ	-10.1593
▁ئەکادیمی	-10.1593
▁نازانێت	-10.1594
▁نەناسراو	-10.1595
▁هەژاند	-10.1598
▁حەق	-10.16
▁دەرکرد	-10.1603
▁هۆشیار	-10.1604
▁پێشنیار	-10.1609
▁کراوەتەوە	-10.161
▁غەریب	-10.1611
▁نەژاد	-10.1612
▁سادە	-10.1614
مدا	-10.1616
▁مەریوان	-10.162
اس	-10.1621
▁ناردنی	-10.1623
▁ئەمریکاو	-10.1626
u	-10.1628
▁بایەخی	-10.1629
▁لاو	-10.1631
▁بەدرێژایی	-10.1633
▁هەژمار	-10.1633
ەیەک	-10.1633
▁سر	-10.1634
▁شارو	-10.1635
▁گەنجانی	-10.1635
▁ڕادە	-10.1637
▁قاعیدە	-10.1642
▁توێژینەوەی	-10.1643
کەدا	-10.1645
▁ئێراندا	-10.1645
▁در	-10.1658
▁بڕیارێکی	-10.167
بینی	-10.1671
▁سەردانەکەی	-10.1678
▁بنەماکانی	-10.1681
▁هەورامی	-10.1686
▁گومانی	-10.1686
▁ئاژەڵ	-10.1687
▁پەرلەمانتاران	-10.1688
▁ڕێکخراوێکی	-10.1689
▁گۆڕ	-10.169
▁بینیوە	-10.17
▁کۆبوونەوەیەکی	-10.1701
▁کامیل	-10.1703
▁کراوه	-10.171
▁بەپێچەوانەوە	-10.1712
▁ڕاگەیاندووە	-10.1721
نج	-10.1728
هێنانی	-10.1729
▁مۆڵەتی	-10.1731
▁سەرەنجام	-10.1731
▁کەمە	-10.1738
▁پشکنین	-10.1738
▁ئینتەرنێت	-10.174
ڤا	-10.1743
▁لەپاش	-10.1748
▁هاتۆتە	-10.1752
▁ئین	-10.1753
▁پیاوی	-10.176
▁تاوانەکانی	-10.176
▁خاڵێکی	-10.1769
▁سەلام	-10.177
▁حاڵی	-10.1771
▁لەئاستی	-10.1787
▁موبارەک	-10.1787
▁بانگەواز	-10.179
▁باشور	-10.179
▁کامەران	-10.18
▁دەنگیان	-10.1806
ٍ	-10.1808
▁نەداوە	-10.1812
▁بۆخۆی	-10.1814
▁44	-10.1817
▁یەکەمجار	-10.1819
▁شێ	-10.182
▁هاووڵاتیانی	-10.1821
▁خۆشیان	-10.1831
▁سەرپەرشتیاری	-10.1833
▁بەرگریی	-10.1836
▁لێکدانەوەی	-10.1844
▁تەماشا	-10.1845
▁ئامێری	-10.1847
▁ئەستۆ	-10.1848
کراون	-10.1855
▁ئامانجە	-10.1858
▁We	-10.1858
▁مەسەلە	-10.1859
▁بەتایبەتیش	-10.1859
▁وێران	-10.1862
▁دووشەممە	-10.1863
▁لەوانەی	-10.1864
▁وێنەگری	-10.1864
▁بەدیهێنانی	-10.1867
▁فەر	-10.1868
▁وەسف	-10.1868
▁بەرازیل	-10.1871
▁بۆسەر	-10.1874
▁گۆر	-10.1877
▁فا	-10.1878
▁وریا	-10.1878
حە	-10.1889
▁خراپە	-10.1897
فت	-10.1903
عەلی	-10.1911
▁بینەر	-10.1913
▁هاتوو	-10.1926
▁ڕایانگەیاند	-10.1926
▁کۆشکی	-10.1927
▁پێشکەوتوو	-10.1932
▁بەهرۆز	-10.194
جێ	-10.1942
باری	-10.1944
▁ئەوسا	-10.1948
▁نووسی	-10.1957
▁ئەمنییەکان	-10.1963
چوو	-10.1964
▁لەپەرلەمانی	-10.1965
▁خەلکی	-10.1966
▁بەنزین	-10.1968
▁ڕاهێنان	-10.1968
▁کیلۆمەتر	-10.1971
▁کۆڕ	-10.1973
▁هاوڕێی	-10.1974
▁لەلایەک	-10.1975
▁بازنەی	-10.1976
▁لەکۆتایی	-10.1978
انەو	-10.1981
▁ئۆپۆزسیۆنی	-10.1982
▁چل	-10.1982
أ	-10.1984
▁قەیران	-10.1985
▁بکەوێت	-10.1986
▁پیشان	-10.1995
▁بەڵگە	-10.2008
▁پیاوێکی	-10.2009
▁کتێبە	-10.201
▁کردنەوە	-10.2011
نس	-10.2014
وین	-10.2015
▁کەریمی	-10.2024
▁قازانج	-10.2024
▁دەکەینەوە	-10.2027
▁وەڵامێک	-10.203
▁هەریەکە	-10.2034
▁46	-10.2039
▁ببێتەوە	-10.2039
▁لەدەستدا	-10.2043
▁هەڵەی	-10.2046
▁نەوەک	-10.2049
▁پان	-10.2053
▁بەشداریکردنی	-10.2058
▁پێشتریش	-10.2065
▁سوکایەتی	-10.207
▁تۆمەتی	-10.207
▁فر	-10.2073
▁ئیتالی	-10.2073
▁پەنابەرانی	-10.2078
▁جگه	-10.208
▁ئۆسکاری	-10.2081
▁لاوازی	-10.2082
▁دادپەروەری	-10.2083
▁سایەی	-10.2084
▁هەفتە	-10.2086
لەم	-10.2091
▁کرابوو	-10.2093
▁کۆبونەوەی	-10.2093
▁نیشتەجێبوون	-10.2098
▁چۆمان	-10.2103
▁هان	-10.2111
▁زاری	-10.2115
▁لەبەرئەوە	-10.2115
بیر	-10.2122
▁چاکە	-10.2124
▁تازەی	-10.2124
▁ڕووخانی	-10.2127
▁47	-10.213
▁ئاوارە	-10.2132
▁چاکی	-10.2132
▁مەرجی	-10.2134
▁ناکەین	-10.2139
▁جیهاد	-10.2142
▁دەربڕین	-10.2143
▁زۆربەیان	-10.2147
▁هەردەم	-10.215
▁دەمهەوێت	-10.2152
▁کەشتی	-10.2152
▁خەلیل	-10.2154
تن	-10.2154
▁ه	-10.216
▁گرتنی	-10.2166
▁گوێی	-10.217
▁هزر	-10.2177
▁شو	-10.2178
▁شەهیدانی	-10.2179
کەوت	-10.2182
▁پێشێل	-10.2186
نەر	-10.219
▁ڕێگر	-10.2197
▁49	-10.22
▁بیرکردنەوەی	-10.2202
▁بەرهەمە	-10.2203
ڕێ	-10.2208
الی	-10.2218
▁خوار	-10.222
▁بهێنە	-10.2221
▁مەگەر	-10.2231
▁وال	-10.2232
▁ئاڵا	-10.2236
▁وردی	-10.2239
▁فەتاح	-10.2241
▁بەکوردی	-10.2241
▁خزمەتکردنی	-10.2243
▁ناوەڕاستی	-10.2244
▁قازانجی	-10.2247
▁دەنووسن	-10.2248
▁باکور	-10.2249
▁بەزۆر	-10.2253
▁ئەوەمان	-10.2255
▁ئازادکردنی	-10.2255
▁بوارەدا	-10.2258
▁تەها	-10.2259
▁پێکهاتە	-10.2259
▁سیستەمە	-10.2262
▁کۆنترۆڵ	-10.2266
▁جارە	-10.2266
▁300	-10.2268
▁دەبینرێت	-10.2274
▁پێکهاتووە	-10.2275
▁ڕێکەوتی	-10.2278
▁ڕیزەکانی	-10.2278
▁پله	-10.2279
▁ذ	-10.2285
▁ڕوونیشیکردەوە	-10.2288
▁عارف	-10.2288
▁بیرۆکەی	-10.2289
▁ستەم	-10.229
▁زوڵم	-10.2291
▁لێدانی	-10.2297
▁پێست	-10.23
▁بەهێزکردنی	-10.2301
▁بەرگی	-10.2304
▁دیکەدا	-10.2306
▁s	-10.2321
▁کاڵ	-10.2321
▁ئەمجارە	-10.2324
دراوە	-10.2331
▁عێراقییە	-10.2334
▁دەرئەنجامی	-10.2337
▁یاسایەک	-10.2341
▁تورکیاو	-10.2341
▁پوور	-10.2342
▁گەرمی	-10.2345
▁بال	-10.2349
▁باڵ	-10.2351
پێش	-10.2352
مار	-10.2355
▁دەرباز	-10.2356
▁شەخسی	-10.2361
▁ڕابردو	-10.2367
▁میسری	-10.2371
▁تۆپ	-10.2373
▁ئو	-10.2376
▁بەوەشدا	-10.2377
▁سەنگەر	-10.2382
▁هەردووکیان	-10.2386
▁الل	-10.239
▁سەرانی	-10.2393
▁gu	-10.2394
▁تایبەتمەندی	-10.2401
▁بابەتێکی	-10.2405
نه	-10.2407
▁لەناوبردنی	-10.241
▁بڕوات	-10.2411
▁پا	-10.2412
کەوتن	-10.2412
▁بەرەنگاربوونەوە	-10.2412
▁پزیشک	-10.2415
سکی	-10.2416
▁ئەنوەر	-10.2417
▁سەقامگیری	-10.2419
▁بەخۆی	-10.2426
▁نایاسایی	-10.2426
▁90	-10.2429
خۆی	-10.2429
▁بەڕێوەدەچێت	-10.2431
▁کچی	-10.2438
▁لەئەنجامی	-10.2439
▁ئەکرد	-10.2443
▁لەبەشێکی	-10.2443
▁نرخ	-10.2443
▁بەکر	-10.2443
خو	-10.2443
▁وڵاتان	-10.2448
رێتەوە	-10.2458
▁پارێزەر	-10.2461
▁نەینەوا	-10.2464
▁نامۆ	-10.2464
▁پەیوەندییەکان	-10.2467
▁هاوسەنگی	-10.2469
▁بێکاری	-10.247
بەری	-10.2472
▁تەندروست	-10.2472
▁سۆز	-10.2474
▁بۆرژوازی	-10.2474
▁حسابی	-10.248
▁ڕێکخراوەکان	-10.2483
▁کارەسات	-10.2484
▁پێشمەرگەو	-10.2495
▁سەرپێچی	-10.2499
▁دەروازەی	-10.25
▁ڕاپرسی	-10.2505
▁خوێناوی	-10.2513
▁کون	-10.2513
▁وادەی	-10.2513
▁دۆزی	-10.2514
▁هەڵسوکەوت	-10.2516
بڕیار	-10.2516
▁پەیمان	-10.2525
لان	-10.2526
▁51	-10.2529
بڕ	-10.253
▁کاردانەوەی	-10.2532
یتەوە	-10.2533
▁باوکم	-10.2533
▁وەردەگرن	-10.2533
▁گوتن	-10.2533
▁پەخش	-10.2536
▁دەش	-10.2538
ناسی	-10.2539
▁have	-10.254
▁کردۆتە	-10.2542
▁سۆسیال	-10.2542
7	-10.2543
▁ڕادەستی	-10.2544
▁جیاتی	-10.2544
▁پەیوەندیدار	-10.2547
آ	-10.255
▁حکومەتێکی	-10.255
▁قەیرانە	-10.2552
▁هاوکارمان	-10.2552
▁htm	-10.2553
▁ڕێزگرتن	-10.2553
▁تیۆری	-10.2555
▁نایابی	-10.2556
▁حەمید	-10.2557
▁کارا	-10.2559
▁52	-10.2559
▁زیاترە	-10.256
گەڕ	-10.2563
▁پێنجەم	-10.2572
▁قووڵ	-10.2579
توانی	-10.2581
▁نوێژ	-10.2583
ەری	-10.2583
▁دایکم	-10.2584
▁قۆناغ	-10.2587
▁دەمی	-10.2589
▁یاساکانی	-10.259
▁بەرزکردنەوەی	-10.2593
▁ئەوکاتە	-10.2597
▁بەدەستهێنا	-10.26
▁هەڵبژاردنە	-10.2604
▁هەواڵگری	-10.2611
▁سود	-10.2611
▁عەدنان	-10.2613
▁سەرو	-10.2613
▁ڕۆشنبیران	-10.2614
▁دەستەبەر	-10.262
▁ئامادەیە	-10.262
▁ئێزدی	-10.2623
▁جەبار	-10.2626
▁هانی	-10.2627
▁وزە	-10.2633
▁بەدواداچوون	-10.2633
▁سێکسی	-10.2633
▁ڕۆژنامەنووسی	-10.2633
▁خەڵکانی	-10.2634
کوژ	-10.2634
وز	-10.2636
▁بەتەنها	-10.2638
▁ئێستە	-10.2638
▁چاکسازیی	-10.264
▁دەنێت	-10.2641
▁کۆچ	-10.2645
▁نەدا	-10.2645
▁لیژنەیەکی	-10.2645
▁فەرمانبەر	-10.2647
▁53	-10.2652
▁شیعر	-10.2654
▁یەکجار	-10.2655
▁دانیشتووی	-10.2662
▁سەرەکیی	-10.2664
▁لەسەرجەم	-10.2665
▁تێر	-10.2665
▁موختار	-10.2672
▁پەراوێز	-10.2672
▁ڕاپۆرتێکی	-10.2676
▁گەندەڵ	-10.2679
▁کیمیایی	-10.2683
▁مۆڵەت	-10.2684
خۆش	-10.2684
دەدات	-10.2684
▁تایبەتدا	-10.2686
▁ڕۆح	-10.2687
▁پەسەندکردنی	-10.2687
▁بریاری	-10.2693
▁online	-10.2705
▁قەدەغە	-10.2707
کران	-10.2709
زەر	-10.271
▁کولتووری	-10.2712
▁بمانەوێت	-10.2716
▁غاز	-10.2717
▁p	-10.2718
▁بەندی	-10.2723
▁نوسین	-10.2725
ۆر	-10.2727
نین	-10.273
▁بێتەوە	-10.2741
▁خۆڵەمێش	-10.2744
▁گەش	-10.2747
ڤە	-10.275
▁فەرهاد	-10.275
▁خاوەنەکانیانە	-10.2751
▁دەوروبەر	-10.2752
▁هێرشەکانی	-10.2759
▁خۆپیشاندانی	-10.2759
▁54	-10.2761
ێکیش	-10.277
▁پەیڕەوی	-10.2775
▁56	-10.2781
ests	-10.2782
▁بمێنێتەوە	-10.2786
j	-10.2787
▁ڕێبوار	-10.279
▁وڵاتێک	-10.2797
▁لەڕاستیدا	-10.2797
▁کچه	-10.2799
▁قەرز	-10.2805
▁بەڕێوەبەرایەتیی	-10.2806
▁ڕووناکی	-10.2807
▁سەختی	-10.281
▁گەردوونی	-10.2811
▁لێکۆڵینەوه	-10.2811
▁ماڵێکی	-10.2813
▁بەشێکە	-10.2815
▁دەرکەوتنی	-10.2818
▁دڵم	-10.2822
▁لێدان	-10.2824
▁بەخشی	-10.2825
▁ڕیاڵ	-10.2835
▁پەر	-10.2836
▁لەمانگی	-10.2836
▁بەری	-10.2845
▁پاڵەوانی	-10.2848
▁ترسناک	-10.2853
▁نەخشە	-10.2853
▁گوزارشت	-10.2855
نەی	-10.2855
زم	-10.2856
h	-10.2856
▁کوردستانیان	-10.2862
▁فکری	-10.2863
▁هەوڵێکی	-10.2863
▁هۆکارەکانی	-10.2863
▁>	-10.2868
▁کەنەدا	-10.2868
▁هەردی	-10.2871
▁قەتەر	-10.2871
▁بوونەوەی	-10.2875
▁کەیسی	-10.2876
▁ئاڵۆزی	-10.2878
▁پرۆژەی	-10.2882
▁دیدار	-10.2882
▁هاوسەری	-10.2883
▁c	-10.2892
▁نەتەوەیەکگرتوو	-10.2897
▁57	-10.2904
▁لەتەک	-10.2905
▁بخرێتە	-10.2905
دوای	-10.2908
ێل	-10.2911
▁دەسەڵاتدار	-10.2914
▁دەبوایە	-10.2914
▁لەعیراقدا	-10.2914
▁چارە	-10.2916
کردۆتەوە	-10.2919
▁دەستبەرداری	-10.2921
▁درێژایی	-10.2921
▁هەولێرو	-10.2923
▁کوردستانییەکان	-10.2923
▁لەوەدایە	-10.2923
ێوه	-10.2928
▁نەجمەددین	-10.2929
چوون	-10.2931
مەر	-10.2931
▁خست	-10.2934
▁کڕینی	-10.2936
ووه	-10.2941
▁هاوسەر	-10.2942
▁وڵاتەدا	-10.2947
▁خۆرهەڵاتی	-10.2948
▁بەرنامەیەکی	-10.2949
▁خانمە	-10.2952
سک	-10.2952
▁تۆمارکرا	-10.2955
▁دروستی	-10.2955
▁بگەڕێتەوە	-10.2967
ونی	-10.2967
ed	-10.2969
▁پرۆسەکە	-10.297
▁گێڕانەوەی	-10.297
▁کەسیان	-10.2971
▁نووسەران	-10.2971
▁دەوڵەتانی	-10.2972
▁براوەی	-10.2972
▁دەستپێکی	-10.2973
▁کارەکانیان	-10.2974
or	-10.2976
▁یێن	-10.2977
▁کوردییەکان	-10.2982
▁دەنا	-10.2983
▁تاریق	-10.2984
▁هۆکارێک	-10.2986
▁150	-10.3003
▁نامێنێت	-10.3006
▁پێکەنین	-10.3009
▁کەسەی	-10.3011
▁کوتلەی	-10.3015
▁دڵسۆزی	-10.302
▁یاسین	-10.3021
▁بنیات	-10.3023
دەکاتەوە	-10.3026
▁هۆکارێکی	-10.3028
▁نامە	-10.3028
▁پاڵەوانیەتی	-10.3029
▁دەستپێکردنی	-10.303
▁قسەکانیدا	-10.3032
▁پشکنینی	-10.3038
re	-10.3038
▁ئەگینا	-10.3038
o	-10.3044
▁نێوانیان	-10.3044
لەو	-10.3047
▁دانوستان	-10.3047
▁شێوازێکی	-10.3048
بوونە	-10.3052
▁کەبە	-10.3055
▁ماچ	-10.3062
▁بوونەوە	-10.3062
▁دەستدرێژی	-10.3063
▁لەعێراق	-10.3065
▁نەتەوەکانی	-10.307
▁هەڵوەشاندنەوەی	-10.3074
چوونی	-10.3081
ەکەو	-10.3082
▁ئان	-10.3085
▁پێشکەشکردنی	-10.3087
▁قوتابیانی	-10.3088
▁ژووری	-10.309
▁داو	-10.3093
▁ئال	-10.3094
▁کۆمۆنیستی	-10.3096
▁کارتی	-10.3097
سۆن	-10.31
▁نزیکی	-10.31
▁سەردار	-10.3104
▁لیستە	-10.3105
▁بەوەشکرد	-10.3107
▁مانگێک	-10.311
▁یەکێ	-10.3111
▁نوێیە	-10.3113
▁کوردس	-10.3115
کم	-10.3118
▁مادی	-10.312
▁پەنجا	-10.3131
▁کوێت	-10.3133
▁پێشانگای	-10.3134
▁تیرۆریست	-10.3139
▁پێغەمبەری	-10.3142
▁یاریگەی	-10.3142
▁ئاغا	-10.3144
▁هاوچەرخ	-10.3144
▁کۆمیسیۆن	-10.3149
▁بالای	-10.3156
▁ناساندنی	-10.3157
▁کوردەکانی	-10.3158
▁دەبێ	-10.3158
▁داواکراو	-10.3163
▁گران	-10.3163
▁درێژی	-10.3166
▁ئەوروپی	-10.3168
▁لەجیاتی	-10.3176
▁بان	-10.3177
▁کردنە	-10.3178
▁نیوز	-10.3182
▁ڕوی	-10.3182
▁بەهێزتر	-10.3183
an	-10.3184
k	-10.3189
▁پیش	-10.319
▁چوارشەممە	-10.3191
▁دانیشتن	-10.3194
▁تێکۆشان	-10.3196
▁هۆشداری	-10.3199
▁باسیان	-10.3199
▁تیژی	-10.3202
▁خێرایی	-10.321
▁پەرلەمانتاری	-10.3211
▁خستۆتە	-10.3213
وڵ	-10.3219
▁تۆمارکرد	-10.3222
▁ڕوویان	-10.3222
▁کۆتای	-10.3224
▁هەندێ	-10.3224
▁هەڵۆ	-10.3225
▁موو	-10.3231
ده	-10.3231
▁ویلایەتی	-10.3236
▁ڕووداوێکی	-10.3239
▁دەتوانم	-10.3241
ەکانە	-10.3242
▁دەنگەکان	-10.3243
▁مزگەوت	-10.3245
▁خۆراکی	-10.325
▁الا	-10.3251
▁بریتیە	-10.3252
▁زۆرینە	-10.3256
▁پرێس	-10.3257
▁هەستیار	-10.3263
▁بخەنە	-10.3263
مانە	-10.3272
▁بەدەم	-10.3276
ویست	-10.3278
▁شەڕو	-10.3284
▁جاڕنامە	-10.3284
▁کۆسپ	-10.3285
اب	-10.3289
▁سعودیە	-10.329
▁لو	-10.3301
▁بۆمب	-10.3302
▁پاراستن	-10.3305
▁بەرهەمهێنان	-10.3307
▁سان	-10.3309
▁مەحموود	-10.3314
▁دەرفەت	-10.3317
ەکانت	-10.3317
▁لیوا	-10.3319
▁کفری	-10.3321
▁لێدوانی	-10.3322
▁بنکە	-10.3323
▁لەوانەش	-10.3323
▁یەکە	-10.3324
▁ڕادەیەک	-10.3325
▁89	-10.3328
▁بەشدارییان	-10.3329
▁هەڵبژارد	-10.333
▁وتار	-10.3331
بێتەوە	-10.3337
هێنان	-10.3339
یانەوە	-10.3339
▁گەیشتووەتە	-10.3342
خانەی	-10.3342
▁تریان	-10.3347
▁ڤە	-10.335
▁خزم	-10.3351
▁ده	-10.3354
▁دەسەڵاتداران	-10.3359
ەسەر	-10.336
▁ناوچەکه	-10.3365
▁ئیسلامیەکان	-10.3365
▁خێر	-10.3365
▁کۆنترۆڵی	-10.3369
▁کۆیلە	-10.337
▁بەرفراوان	-10.3371
▁قایمقامی	-10.3373
▁خۆشە	-10.3374
ئۆ	-10.3379
▁کۆمەڵایەتییەکان	-10.3379
▁جیاجیاکانی	-10.338
▁شەنگال	-10.3386
زو	-10.339
▁پێچەوانەوە	-10.3391
▁پشکی	-10.3393
▁ئەسڵانی	-10.3396
▁شیاو	-10.3406
▁باخ	-10.3406
▁سوری	-10.3407
▁دهۆکێ	-10.3407
▁فەلەستین	-10.3409
▁ببینن	-10.3414
▁ئاماری	-10.3422
▁ئاوارەکان	-10.3433
گەرایی	-10.3435
▁ئەبوبەکر	-10.3439
▁key	-10.3444
▁دەژی	-10.3445
▁مەزهەب	-10.3452
▁بژی	-10.3452
▁ئۆتۆمبێلەکانی	-10.3454
▁تەیب	-10.3458
▁ڕێبەری	-10.3459
▁بەرێوەچوو	-10.3459
▁وەرگیراوە	-10.3459
▁منداڵە	-10.3464
▁نمونەی	-10.3465
▁سەرمایە	-10.347
▁شۆرش	-10.3472
▁دیاردەیە	-10.3473
▁پەیام	-10.3475
▁سالار	-10.3476
▁مەترسیدار	-10.3481
▁ئەمڕۆش	-10.3482
▁نەیتوانیوە	-10.3483
▁گوندەکانی	-10.3485
▁دوورە	-10.3486
▁کەمترین	-10.3489
▁نابن	-10.3491
▁ناخی	-10.3492
▁پێویستمان	-10.3493
▁me	-10.3498
▁ئەیاد	-10.3499
▁ئیران	-10.35
▁بێزار	-10.3504
▁G	-10.3505
▁ژاپۆن	-10.3505
▁بەهار	-10.3507
▁ڕۆژنامەنووسانی	-10.3512
▁پیشەیی	-10.3513
▁ڕووت	-10.3513
▁کوڕە	-10.3522
▁سامانە	-10.3523
▁ڕوودەدات	-10.3526
پێک	-10.3526
in	-10.3528
▁ئازادیخواز	-10.3537
▁ماڵە	-10.3538
▁پۆلی	-10.3547
خست	-10.3549
▁چیە	-10.3552
▁نوسینی	-10.3553
▁فشاری	-10.3553
▁کەنداو	-10.3561
▁دەنگەکانی	-10.3561
▁سەرەکییەکانی	-10.3564
▁پرۆسەیەکی	-10.3565
▁نەدە	-10.3572
▁بەئاسانی	-10.3577
▁دەربڕینی	-10.3585
▁فەرامۆش	-10.3585
▁بەرواری	-10.3587
▁جیاوازەکانی	-10.3588
▁ئەرکێکی	-10.36
▁بۆچوون	-10.3603
▁خۆرئاوا	-10.3604
▁ئاوات	-10.3607
▁خوێندکاری	-10.3608
▁بوار	-10.361
▁دێنە	-10.361
▁ڕووبەرووی	-10.3612
▁یاریزانە	-10.3614
▁ماددی	-10.3616
کەت	-10.3618
▁چەشنە	-10.3618
▁پۆل	-10.3624
▁دەبینی	-10.3625
▁ئۆتۆمبیل	-10.3626
▁دەرچوون	-10.3636
▁یۆرۆ	-10.3647
▁بانگهێشت	-10.3649
▁هەناسە	-10.3653
▁سەپاندنی	-10.3653
▁دیکتاتۆر	-10.3657
▁هەبوون	-10.3662
▁دیمەشق	-10.3666
▁سەرخستنی	-10.3669
▁دەدەم	-10.3676
▁دەبێته	-10.3688
▁پیادە	-10.369
▁حەیدەر	-10.3692
▁چون	-10.37
▁لەرووی	-10.3701
▁لەوەدا	-10.3704
▁فەڕەنسا	-10.3705
اج	-10.3705
▁mail	-10.3714
a	-10.3717
ییەکەی	-10.3717
فرۆش	-10.3718
▁هەلی	-10.372
▁لەپاڵ	-10.3722
▁لایەنگری	-10.3723
▁ڕووبەڕووبوونەوە	-10.3735
▁ئاسیایی	-10.3735
▁مۆبایل	-10.3738
▁ڕاستیە	-10.3738
▁ئاسایییە	-10.3743
▁پیاوێک	-10.3745
▁پاشا	-10.3749
▁پێشێلکاری	-10.3751
▁ڕێژەیەکی	-10.3755
رک	-10.3757
بل	-10.376
▁پەی	-10.3761
▁پەروەردەو	-10.3768
▁کوتلە	-10.377
▁مەهدی	-10.3773
▁نزیکدا	-10.3777
▁بڵێی	-10.378
▁نووسەرانی	-10.3784
▁دەستیپێکرد	-10.3786
▁موحەمەد	-10.3788
▁کەناڵەکانی	-10.379
▁ناوەڕۆکی	-10.379
▁ژنێک	-10.379
ۆل	-10.3793
▁K	-10.3797
▁یەکسەر	-10.3798
▁زی	-10.3803
کدا	-10.3803
A	-10.3807
▁گوتیان	-10.3817
▁بەرگریکردن	-10.3817
▁نەخۆشخانە	-10.3818
en	-10.3819
▁کۆبوونەوەکە	-10.3821
▁نەمان	-10.3823
▁ڤان	-10.3829
انەوەی	-10.3835
▁داگیرکەر	-10.3839
▁باڵەک	-10.3843
▁چالاکییەکانی	-10.3845
▁ئیمەیل	-10.3847
بیت	-10.3849
▁سەرکردایەتیی	-10.3856
▁ڕژێمە	-10.3861
▁مال	-10.3863
▁نوێدا	-10.3863
▁بەهەشت	-10.3864
▁دەیەوێ	-10.3865
باز	-10.3874
▁تیرۆرکردنی	-10.3875
رانی	-10.3877
▁ڕووەوە	-10.3883
▁شەریف	-10.3883
▁ماوەکەی	-10.3885
▁.	-10.3885
▁یەوە	-10.3885
یشە	-10.3887
▁یۆنان	-10.3895
▁خێڵ	-10.3903
ێنین	-10.3905
▁برایم	-10.3907
▁میللەتی	-10.3908
▁تەشهیر	-10.3911
لین	-10.3914
▁لەناوچەی	-10.3917
▁وڵاتەکەیان	-10.3917
▁هونەریی	-10.3927
▁چەندان	-10.3927
▁بەستنی	-10.3928
▁باز	-10.393
نامە	-10.3935
▁کۆمپانیاکانی	-10.3939
▁پێشوازیی	-10.3945
▁ویلایەتە	-10.3948
▁ئەمینداری	-10.395
▁ئێس	-10.3951
▁پێناسەی	-10.3951
▁دارا	-10.3952
▁دەنگە	-10.3955
ەبەر	-10.3959
▁کاربەدەستانی	-10.3963
▁بیروڕا	-10.397
▁سنور	-10.3972
▁دەربەندیخان	-10.3976
▁بێن	-10.3976
بری	-10.3981
▁خاو	-10.3985
▁حەزی	-10.399
ێڵ	-10.3998
▁مەسەلەکە	-10.4012
▁سیناریۆی	-10.4013
▁دیاله	-10.4014
▁سال	-10.4014
▁هاوسەرگیری	-10.4019
▁گو	-10.4023
گەلێکی	-10.4025
▁59	-10.4025
▁نیشتیمان	-10.4028
▁a	-10.403
▁ئەورووپا	-10.4035
▁لەبەرامبەردا	-10.4036
▁بارودۆخەکە	-10.4038
▁گەشەکردنی	-10.404
تنی	-10.404
▁ڕوونکردەوە	-10.4044
▁نەمانی	-10.4046
▁بانگهێشتی	-10.4049
▁ئەمەیش	-10.4053
▁وتی	-10.4056
چون	-10.4059
▁بارودۆخە	-10.406
▁کۆتاییدا	-10.4061
▁تورکیادا	-10.4069
▁بۆشایی	-10.4075
▁لق	-10.4079
▁ڕۆژەی	-10.408
کەو	-10.4085
▁بەدواداچوونی	-10.4089
▁سەگ	-10.4091
▁ڕزگارکردنی	-10.4091
▁ئەنبار	-10.4091
▁کوژرا	-10.4093
▁نەتەوەیەک	-10.4095
▁نەبو	-10.4099
▁موڵکی	-10.4108
▁نوێنەر	-10.4112
▁پرۆ	-10.4112
انەیان	-10.4118
▁سالا	-10.412
▁نووری	-10.4122
f	-10.4123
دەری	-10.4123
▁زۆریش	-10.4125
▁دەرچووە	-10.4127
هەموو	-10.4128
▁ڕۆشن	-10.4129
بەخش	-10.4131
▁چەسپاندنی	-10.4133
▁دێرین	-10.4134
▁باج	-10.4135
▁نوسینگەی	-10.4145
▁M	-10.4146
▁ڕۆژنامەگەری	-10.4147
▁مایەوە	-10.4152
▁کانوونی	-10.4152
▁دەیانەوێ	-10.4153
▁شەشەم	-10.4162
g	-10.4163
▁بنیاتنانی	-10.4163
ستە	-10.4165
▁قا	-10.417
▁سەرژمێری	-10.4173
▁پارێزراو	-10.4173
▁شایەنی	-10.4178
▁پتەو	-10.4182
▁یار	-10.4186
▁ڕێگه	-10.4189
▁دواوە	-10.4193
▁کۆمەڵگادا	-10.4197
▁هاتوە	-10.4199
▁درامای	-10.4203
▁ئەدات	-10.4204
▁ئێواره	-10.4205
▁شێوازە	-10.4208
▁محەممەد	-10.421
▁سودان	-10.4212
▁بەهاوکاری	-10.4213
▁عوسمانی	-10.4214
▁شیر	-10.4216
▁چا	-10.4222
▁بگرین	-10.4222
▁پێیانوایە	-10.4222
▁میلان	-10.4226
▁not	-10.4226
▁ببنەوە	-10.4227
▁نوێترین	-10.4232
گرت	-10.4237
▁درەنگ	-10.424
▁چار	-10.4241
▁بەزمانی	-10.425
▁یەکلا	-10.425
▁بەگ	-10.4252
خوازی	-10.4256
▁ئەنقەرە	-10.4257
▁تاریک	-10.4258
ەکانتان	-10.4259
▁لیست	-10.4264
▁کۆسرەت	-10.4269
▁فەرمانبەران	-10.427
1	-10.4276
▁لەئەنجومەنی	-10.4278
▁گۆلی	-10.4285
▁نامەی	-10.4292
▁سەروەت	-10.4297
▁بنەماڵە	-10.4301
▁بارە	-10.4302
▁گواستنەوە	-10.4305
▁کارەساتە	-10.4311
▁هێزێک	-10.4312
▁موسڵمانان	-10.4313
▁وەستا	-10.4314
▁نێودەوڵەتیی	-10.4317
▁گوتاری	-10.4317
دەکرد	-10.4319
▁جۆرج	-10.432
▁جارێ	-10.432
▁قەندیل	-10.4321
▁ملی	-10.4323
▁سەرلەنوێ	-10.4324
مۆ	-10.4327
▁پەیەدە	-10.4327
▁عەمید	-10.4331
▁یەکشەممە	-10.4332
▁تەلەفۆن	-10.4336
▁هاتووچۆ	-10.4337
▁تێکڕای	-10.4338
▁نیاز	-10.4347
ration	-10.4348
▁نەدەکرد	-10.4348
▁بکردایە	-10.4352
▁بەرێوەبەرایەتی	-10.4354
▁هاتوچۆی	-10.4354
▁ئیجابی	-10.4355
▁جاف	-10.4359
▁نادەن	-10.4362
▁سۆ	-10.437
▁تەنیایی	-10.4371
▁پابەندی	-10.4373
▁دانیشتووانی	-10.4375
▁ناوچەکەو	-10.4376
▁دەرکەوتووە	-10.4377
▁ڕووبەر	-10.4378
▁گرینگ	-10.4383
▁بالا	-10.4385
▁تاکەکان	-10.4386
زای	-10.4391
سو	-10.4394
▁بەرشەلۆنە	-10.4395
▁زانایانی	-10.4396
▁ڕێکخەری	-10.4396
کوردستان	-10.4402
▁چیخۆف	-10.4404
▁دەری	-10.4404
ڕەو	-10.4405
▁باوە	-10.441
ژەن	-10.441
▁لابردنی	-10.441
▁ڕاب	-10.4411
▁ئاش	-10.4417
▁سێشەممە	-10.4417
▁will	-10.4422
▁خۆماڵی	-10.4424
▁پێشنیاز	-10.4426
▁کردار	-10.443
▁94	-10.4433
▁کەئەو	-10.4434
▁گەشتیاری	-10.4435
▁خۆزگە	-10.4438
خوا	-10.444
▁دروشم	-10.444
▁لینکەی	-10.444
▁شەرەف	-10.4447
خە	-10.4447
▁پێشبڕکێی	-10.4448
▁چێژ	-10.4456
▁مارس	-10.4457
▁400	-10.4458
▁بەردی	-10.4458
▁چەکدارەکانی	-10.446
▁تەڕ	-10.446
▁خەریک	-10.4461
▁جیاوازەکان	-10.4463
▁خوارد	-10.4463
▁نەهامەتی	-10.4471
▁نێودەوڵەتییەکان	-10.4472
▁چاویان	-10.4473
▁بەڕێوەبەر	-10.4473
▁نازانن	-10.4475
▁الس	-10.4475
▁ڕاهێنەر	-10.4476
▁شاعیری	-10.4477
رۆژ	-10.4478
▁ڕاستەوخۆی	-10.448
▁دڵنیام	-10.4482
▁نیشاندا	-10.4488
کردنیان	-10.449
▁بت	-10.4492
▁فراوانتر	-10.4501
▁دادە	-10.4503
▁مەلی	-10.4512
گەلی	-10.4513
▁سیستەم	-10.4514
▁گازی	-10.4517
▁بچن	-10.4518
▁بەسە	-10.4519
▁ڕاگەهاند	-10.4525
▁ئەس	-10.4525
مەند	-10.4527
▁مانگانە	-10.4529
▁ڕون	-10.453
▁یانەکەی	-10.4532
▁لێکەوتەوە	-10.4532
▁هاوولاتی	-10.4532
▁نەرم	-10.4534
▁فایله	-10.4535
▁چیای	-10.4536
▁دەنووسێت	-10.4539
▁ناڕازی	-10.4541
▁زانیارییەکانی	-10.455
▁لوتکەی	-10.4551
▁زاگرۆس	-10.4553
▁وڵاتانە	-10.4553
▁ڕووداوەکە	-10.4557
▁بەڕای	-10.4557
▁شەقامەکان	-10.4559
▁زو	-10.4562
▁شارەدێی	-10.4562
▁ناشیرین	-10.4562
▁شارەزایی	-10.4563
مانەوە	-10.4564
گیری	-10.4566
▁ئامانجەکانی	-10.4569
▁دەمانەوێت	-10.4572
▁خوێندکارانی	-10.4575
▁مەی	-10.4576
▁هەوا	-10.4576
▁ناوبژیوانی	-10.4577
▁فراوانی	-10.4577
وەتەوە	-10.4578
▁بۆردومان	-10.4581
▁سەرکوت	-10.4582
▁ئۆکتۆبەر	-10.4584
▁کۆنترۆڵکردن	-10.4584
▁پاڵەوان	-10.459
▁الن	-10.4593
▁زانایان	-10.4594
▁نەچێت	-10.46
▁ڕاپەڕینی	-10.46
▁ئاگا	-10.46
▁کولتوور	-10.4605
▁کەلتوری	-10.4608
▁ترە	-10.4612
▁لەچاو	-10.4619
▁بەرە	-10.4629
▁پێت	-10.4631
بەست	-10.4632
▁فرمێسک	-10.4633
▁خۆڵ	-10.4641
▁دەرچوونی	-10.4644
توورەج	-10.4645
▁خۆیانەوە	-10.4647
▁نائاسایی	-10.4648
▁بەرلین	-10.4649
▁بردنی	-10.4652
▁حساب	-10.4654
▁هەڵمەتێکی	-10.4656
▁Add	-10.4656
▁Share	-10.4656
▁ڕەنگدانەوەی	-10.4661
▁نەرویج	-10.4663
▁سابیر	-10.4664
▁ئۆکرانیا	-10.4665
▁ڕوونکردنەوەی	-10.4668
▁شەرعی	-10.4671
▁بەبڕی	-10.4672
▁ئەوتۆ	-10.4674
▁سبەینێ	-10.4674
▁بووەوە	-10.4675
▁دیناری	-10.4675
▁یارییەکە	-10.4676
▁حەقیقەت	-10.4677
▁بچنە	-10.4679
▁بژێوی	-10.4679
▁بدەم	-10.4682
▁کەمتەرخەمی	-10.4683
▁دەقە	-10.4687
▁دووباره	-10.4688
▁زانیاریی	-10.4689
▁هەنگاوە	-10.4692
▁ڕەجەب	-10.4694
کراوی	-10.4696
▁الع	-10.47
▁سدیق	-10.4704
▁the	-10.4706
▁ئێک	-10.4709
▁دیاردە	-10.4709
▁پاسەوانی	-10.471
▁کەڵک	-10.4711
▁ناوەڕاستە	-10.4714
▁ڕاپ	-10.472
▁تەماوی	-10.4721
زر	-10.4724
▁تەم	-10.4725
▁سەباح	-10.4727
▁هەڵوێستە	-10.4728
▁شاد	-10.4733
▁کارمەند	-10.4742
▁ئەنجامدرا	-10.4742
وایە	-10.4743
▁وایکردووە	-10.4743
▁وەفدێکی	-10.4744
▁هادی	-10.475
▁دەستکاری	-10.4753
▁H	-10.4754
کردبوو	-10.4754
▁ماوەیەدا	-10.4758
▁ڕۆژنامەنوسان	-10.4759
▁کەلتووری	-10.476
رد	-10.4764
▁ویژدان	-10.4768
▁سیاسیدا	-10.4769
▁حاڵەتە	-10.477
▁کەر	-10.4773
▁سکاڵای	-10.4773
▁Name	-10.4774
▁تۆش	-10.4775
▁نای	-10.4781
ەل	-10.4788
▁اڵا	-10.4801
▁سەروەر	-10.4802
▁گەلە	-10.4802
▁دوێت	-10.4804
▁پیت	-10.4804
▁عەقڵی	-10.4805
▁بەخۆیەوە	-10.4805
▁جیاکردنەوەی	-10.4805
▁جاریش	-10.4807
ستا	-10.4809
▁تاریکی	-10.4813
▁دانیشتوان	-10.4814
▁نه	-10.4815
▁and	-10.4818
▁تۆفیق	-10.482
بدات	-10.4822
▁سەرقاڵ	-10.4823
▁سوننەکان	-10.4827
▁لێکرا	-10.4831
▁پاکی	-10.4834
▁زیانێکی	-10.4836
کێش	-10.4837
▁پێشەنگی	-10.4838
▁حیزبێک	-10.484
hotmail	-10.4841
▁گول	-10.4842
▁لێدوان	-10.4847
چو	-10.4849
▁مەن	-10.485
▁کوژرانی	-10.4852
▁ئامۆژگاری	-10.4859
▁زار	-10.4869
▁دەشنی	-10.4872
کردو	-10.4873
▁نیگەران	-10.4875
▁ئاگری	-10.4875
▁پێشنیازی	-10.4876
▁ئاوەدانی	-10.4879
▁داود	-10.4881
▁پێشخستنی	-10.4889
▁فڕێ	-10.4889
▁ڕێوشوێنی	-10.4889
▁کەسەو	-10.4892
▁دەرونی	-10.4895
▁عێڕاق	-10.4896
▁سوورە	-10.4897
▁لێبوردن	-10.4902
▁مێرد	-10.4903
▁لەتیف	-10.4904
▁بژین	-10.4904
▁سکاڵا	-10.4907
▁قورسایی	-10.4909
▁قبووڵ	-10.491
▁هەڵبژێردراوانی	-10.4912
▁بەپەلە	-10.4913
▁#	-10.4916
▁نزم	-10.4916
▁لەخۆی	-10.4921
▁ڕەئوف	-10.4922
▁وێستگەی	-10.4923
▁پێشنیاری	-10.4925
▁ناخۆش	-10.4934
▁جەوهەر	-10.4935
▁گریان	-10.4935
▁مەبەستم	-10.4942
▁فەرەج	-10.4943
هێڵ	-10.4944
▁تایبەتە	-10.4945
▁دوبارە	-10.4947
▁شەیتان	-10.4949
▁دەهات	-10.4954
▁ڕەق	-10.4957
▁کارەکان	-10.4961
تار	-10.4965
▁بوایە	-10.4966
▁دەگۆڕێت	-10.4969
بونەوە	-10.497
▁لانی	-10.4971
▁شنگال	-10.4971
▁ولا	-10.4974
▁قەومی	-10.4975
▁گوشار	-10.4986
▁ڕێککەوتننامەی	-10.4987
هم	-10.4987
کردووه	-10.4987
▁زنجیرە	-10.4987
دایەو	-10.4988
▁ژیاندا	-10.499
▁دەبینم	-10.4991
▁بەدوو	-10.4993
▁دابنرێت	-10.4997
▁چو	-10.5
▁تاکەکانی	-10.5001
▁لەناوچە	-10.5006
▁ڕەوای	-10.5006
▁ئەندازیار	-10.5011
▁W	-10.5016
▁چاودێر	-10.5017
▁بورهان	-10.502
هێنا	-10.5022
▁ڕۆشنایی	-10.5024
▁styl	-10.5027
▁نیشتەجێ	-10.5027
▁گەشەپێدان	-10.5028
▁باسه	-10.5034
▁دەبینێتەوە	-10.5035
▁چاودێریی	-10.5039
▁لەکوێ	-10.5039
▁فۆنت	-10.5042
زار	-10.5044
▁ڕەسەن	-10.5047
▁ئەوقاف	-10.5054
▁سەندیکا	-10.5055
▁class	-10.5056
گار	-10.5057
▁دیسانەوە	-10.5064
▁دەستدا	-10.5065
▁ئەوانەش	-10.5067
▁پەیمانگای	-10.5068
▁text	-10.5069
▁تێکۆشانی	-10.507
▁دەستپێدەکات	-10.5071
▁چەکدارەکان	-10.5071
ێس	-10.5075
نوس	-10.5076
▁دیاردەیەکی	-10.5078
share	-10.5079
▁ستایشی	-10.5081
▁دۆ	-10.5082
وق	-10.5087
▁بڵاوکردەوە	-10.5087
▁نەکرا	-10.5089
بووم	-10.5093
▁بڕوانامەی	-10.5097
▁هێشت	-10.5099
▁کیبۆرد	-10.5099
▁بداتەوە	-10.5105
بات	-10.5108
▁بڕیاریدا	-10.511
▁کل	-10.5115
▁دابێت	-10.512
▁بەرژەوەندییەکان	-10.5123
p	-10.5124
▁جددی	-10.5125
بەند	-10.5129
▁بتوانێ	-10.513
▁return	-10.5132
▁سڵاو	-10.5132
▁نمایشەکەی	-10.5135
▁پاڵتۆکەی	-10.5139
ارە	-10.5141
▁target	-10.5142
▁داخستنی	-10.5143
▁ڕێبازی	-10.5144
▁خدر	-10.5146
▁گیراوە	-10.5156
▁یاسایەکی	-10.5156
دەکەین	-10.5157
▁ئەمساڵدا	-10.5158
▁دڵنیایی	-10.5161
▁بنووسیت	-10.5162
▁deco	-10.5162
▁خانم	-10.5163
▁ڕام	-10.5163
▁کۆلێژی	-10.5165
▁none	-10.5165
▁بینین	-10.5167
▁مەر	-10.5168
وڵات	-10.5169
▁onc	-10.5169
utton	-10.517
▁قەرەبوو	-10.5171
▁لەسنووری	-10.5174
▁لەئاست	-10.5174
▁ئۆر	-10.5177
blank	-10.5178
▁دۆستی	-10.5179
▁سیستمە	-10.518
▁بەردەست	-10.5186
▁کرێ	-10.5187
▁گەنجێکی	-10.5187
▁سالی	-10.5188
ێکم	-10.5192
▁ئوردن	-10.5193
▁ڕەها	-10.5193
▁لەهەمانکاتدا	-10.5195
▁دەسەڵاتێکی	-10.5197
▁برزۆ	-10.5198
▁داوەو	-10.5206
▁تابلۆ	-10.5207
▁کاتێکیش	-10.521
▁کلیپ	-10.5214
▁گەورەکانی	-10.5215
▁نەکەین	-10.5219
دروست	-10.5221
▁خوازیاری	-10.5222
▁لەوێدا	-10.5225
▁چوارەمی	-10.5226
▁جوانە	-10.5229
▁تاڵ	-10.5243
▁بگیرێت	-10.5245
▁دواکەوتنی	-10.5245
▁دەمەوێ	-10.5246
▁پرۆژه	-10.5252
▁هەرێمدا	-10.5257
▁عیشق	-10.5259
▁ساڵانەی	-10.5265
▁بەیاننامەیەکدا	-10.5267
▁تائێستاش	-10.5268
▁ئۆپۆزیسیۆنەی	-10.527
گه	-10.5271
▁بوونیان	-10.5272
▁کردم	-10.5272
▁فیلمەکە	-10.5275
▁قارەمان	-10.5278
▁باژێڕوان	-10.5281
▁دەفەرموێت	-10.5285
وک	-10.5286
▁بەمشێوەیە	-10.5286
▁یاریدەدەری	-10.5287
▁ة	-10.529
▁سووک	-10.5291
▁هاریکاری	-10.5296
▁تیمی	-10.5297
▁بڵاوبوونەوەی	-10.5297
▁لەناوچەکەدا	-10.53
▁ئاڵ	-10.5301
▁دیپلۆماسی	-10.5302
▁خستنە	-10.5306
▁ناکوڵێت	-10.5312
▁فەرمانبەرانی	-10.5314
▁وتەبێژی	-10.5314
▁خانەنشین	-10.5315
▁دروستکردووە	-10.5316
درێ	-10.5316
▁بڵاویکردەوە	-10.532
▁هەرکەسێک	-10.5323
شار	-10.5323
▁ئەرسەلان	-10.5323
▁یارییەکی	-10.5324
▁هەڵسەنگاندنی	-10.5326
▁سەریان	-10.5332
شتی	-10.5334
▁گرینگی	-10.5334
لەی	-10.5336
ێوە	-10.5338
ڕۆژ	-10.5339
▁هاوپەیمانان	-10.5343
ێوەچوو	-10.5347
▁ئاس	-10.5347
▁لەسایەی	-10.535
▁هەروەکو	-10.5351
▁پەیوەندیەکانی	-10.5356
▁واژۆ	-10.5357
▁کەوتۆتە	-10.536
زەی	-10.5364
▁یوتوبو	-10.5364
ترس	-10.5364
▁ئوسترالیا	-10.5365
لۆفێست	-10.5367
▁دەچنە	-10.5367
بەندی	-10.5368
▁زراندن	-10.5374
▁سوڵتان	-10.5375
ێنێتەوە	-10.5376
دەبن	-10.5377
ِّ	-10.5378
▁سویدی	-10.5379
امی	-10.5381
▁لاپەڕە	-10.5382
دنی	-10.5383
▁دانوم	-10.5385
ێنەر	-10.5385
▁گەیشتووە	-10.5386
▁ببات	-10.5386
▁پەیوەستە	-10.5388
▁ڕادەی	-10.5389
▁هەلومەرجی	-10.5395
▁لیژنە	-10.5397
▁سیستەمێکی	-10.5398
▁هەزارو	-10.5398
ود	-10.5399
▁میسی	-10.54
▁هەموان	-10.5403
▁تەلەفزیۆن	-10.5406
▁ویلایەته	-10.5406
▁هەڵب	-10.5407
▁بەدەستەوە	-10.5407
at	-10.5411
هیچ	-10.5414
▁هۆرگێڵنەر	-10.5414
▁پەرلەمانتارانی	-10.542
▁ئومێدی	-10.5421
▁بەڕێوەچوونی	-10.5423
▁غازی	-10.5425
▁لیژنەکە	-10.5425
کەری	-10.5428
▁داواکارییەکانی	-10.5429
▁لەمێژووی	-10.543
▁لەقۆناغی	-10.5431
▁ماستەر	-10.5431
▁دیداری	-10.5431
▁تەئکیدی	-10.5434
▁گووتیشی	-10.5436
دری	-10.5436
▁یارییەکه	-10.5441
▁کوا	-10.5443
▁دوژمنی	-10.5443
خت	-10.5448
▁دادەنێت	-10.5452
▁خۆکوژی	-10.5453
▁سیاسەتەکانی	-10.5454
▁مافەکا	-10.5454
▁نەهات	-10.546
▁عیماد	-10.5462
▁گۆڕانکاریی	-10.5467
▁دەچوو	-10.5471
▁لەبەرژەوەندی	-10.5472
▁شوێنەوار	-10.5474
ٌ	-10.5476
▁شیعری	-10.5476
▁کیمیاوی	-10.5478
▁ڕەفتاری	-10.5478
▁دەستەڵات	-10.5479
▁بڕیارەکانی	-10.5485
خی	-10.5486
▁نیوە	-10.5491
▁کراوەو	-10.5493
▁شێت	-10.5494
▁هۆکارە	-10.5502
▁شارەزای	-10.5503
میر	-10.5504
▁جیاوازیی	-10.5512
تس	-10.5515
▁هێرشیان	-10.552
مای	-10.5524
لک	-10.553
▁شێواز	-10.5533
▁تەقە	-10.5534
▁مرۆڤێک	-10.5536
▁وڵاتدا	-10.5536
ویەتی	-10.5537
▁ئاماژەیدا	-10.554
▁ژماره	-10.5541
▁نیازی	-10.5542
▁کاتێکی	-10.5542
هێن	-10.555
خەم	-10.5551
▁ئەنجامەکانی	-10.5554
▁حەمەغەفور	-10.5555
▁توانیویانە	-10.5557
▁لەوێوە	-10.5557
▁پێکدادان	-10.5558
▁چوونی	-10.5558
▁تێکدانی	-10.556
▁ئیم	-10.5562
ۆنی	-10.5562
▁تێکست	-10.5564
ەشدا	-10.5568
ووت	-10.5569
▁چێ	-10.557
▁up	-10.557
▁یەکیەتی	-10.557
▁بەیاننامەی	-10.5571
▁فیلمێکی	-10.5573
▁گەنجی	-10.5574
▁ڕکابەری	-10.5576
▁سەربە	-10.5579
▁بەرێوە	-10.5579
▁نوی	-10.5581
▁ساغ	-10.5586
▁تاڵیبان	-10.5587
▁أن	-10.5588
▁I	-10.5594
ۆڵ	-10.5598
▁هەیەتی	-10.5598
▁داگیرکردنی	-10.5599
▁دوێنی	-10.5601
▁دەکەونە	-10.5601
▁بردنەوەی	-10.5602
▁لێدەکات	-10.5605
▁ئەمنییەکانی	-10.5606
▁ئەمیر	-10.5607
▁سفر	-10.5608
بوە	-10.5611
▁بێلایەن	-10.5613
▁دەڤەری	-10.5618
▁ئەرکەکانی	-10.5619
▁دراو	-10.562
▁ژمارەیان	-10.5621
▁ڕۆژنامەوان	-10.5624
خۆر	-10.5624
▁وەرگێڕ	-10.5626
شەو	-10.5626
▁دیدی	-10.563
▁زەحمەت	-10.563
تاو	-10.5631
▁کردوەو	-10.5631
▁ئەکەم	-10.5633
لام	-10.5634
▁شانی	-10.5637
▁شارێکی	-10.5641
گێر	-10.5643
▁یەکەمدا	-10.5649
▁ڕابردودا	-10.5652
▁بەرپا	-10.5654
▁پشتگیریی	-10.5654
▁سەعدی	-10.5655
ۆم	-10.5665
گان	-10.5666
▁ڕیفراندۆم	-10.5666
▁نەکردنی	-10.5669
▁دەولەتی	-10.5671
▁بەرین	-10.5676
▁تەوافوق	-10.5676
▁but	-10.5679
قا	-10.5679
ریت	-10.5682
▁مەڕ	-10.5683
تای	-10.5684
کۆڵ	-10.5684
▁دەستبەسەر	-10.5686
کۆن	-10.5687
▁جێبەجێکردن	-10.569
▁دووری	-10.569
▁گەلان	-10.569
▁پەنجە	-10.5691
▁سامی	-10.5693
▁1988	-10.5699
▁دووشەممه	-10.5699
▁بۆمان	-10.5703
▁کارەی	-10.5707
▁پرسیارێک	-10.571
▁مەعنەوی	-10.5712
▁دۆر	-10.5714
▁باهۆز	-10.5715
▁فۆرمی	-10.5717
▁کوردەواری	-10.5718
▁ئەوپەڕی	-10.5719
▁یانه	-10.572
▁هەنووکە	-10.5722
▁ناوەوەی	-10.5722
▁شام	-10.5723
▁بێگانە	-10.573
▁75	-10.5731
▁هەفتەیەک	-10.5734
▁هەموار	-10.5737
▁ئەنجامداوە	-10.5738
▁بکاتە	-10.5742
▁ّ	-10.5743
▁یونس	-10.5745
▁بگرێتەوە	-10.5747
ەکدا	-10.5747
▁تێڕوانینی	-10.5748
▁ڕەهەندی	-10.5752
▁پەیوەندییان	-10.5756
▁گەڕ	-10.5757
▁شۆڕ	-10.5758
▁وایان	-10.5758
▁بکرێتە	-10.5761
▁دروستکراوە	-10.5765
▁خۆیەوه	-10.5766
▁میدیاکانی	-10.5766
▁تەئکید	-10.5767
▁ئاراس	-10.5768
تم	-10.5768
▁بەربەست	-10.5769
▁ئارەزوو	-10.577
▁بەوردی	-10.5776
▁sorani	-10.5779
▁پاس	-10.5781
▁عیراقی	-10.5781
▁ئەمانەش	-10.5786
▁دابنێت	-10.5788
▁بردەوە	-10.5789
▁هاوپەیمانێتی	-10.579
▁خسته	-10.5791
▁دەکردەوە	-10.5801
▁display	-10.5803
تێر	-10.5804
▁فەوجی	-10.5805
▁فێستیڤاڵی	-10.581
اک	-10.5811
▁لەپشت	-10.5813
board	-10.5814
▁Send	-10.5814
▁ڕادەربڕین	-10.5814
▁لێم	-10.5815
حی	-10.5816
▁غە	-10.5816
▁بڵاوکراوەتەوە	-10.5817
▁ط	-10.5819
▁وەرگێڕانی	-10.5821
▁سەما	-10.5823
نەکردنی	-10.5828
▁بەئاشکرا	-10.5829
بدەن	-10.5832
▁کورددا	-10.5835
▁بینووسیت	-10.5835
▁گرتووەتەوە	-10.5838
▁دووپاتی	-10.584
▁درێژخایەن	-10.5841
▁بێکەس	-10.5841
▁بارودۆخ	-10.5843
▁پەیمانی	-10.5843
▁لێکرد	-10.5847
▁follow	-10.5849
▁دەریای	-10.5852
▁لەپارێزگای	-10.5852
▁ڕۆیتەرز	-10.5853
▁ئیماراتیەکان	-10.5853
▁سوودمەند	-10.5856
▁لەدوا	-10.5856
▁کۆنی	-10.5857
logos	-10.586
▁هێزانە	-10.5861
▁فەزای	-10.5862
▁دەرناکەوی	-10.5862
کن	-10.5863
▁ئەدرەسەکە	-10.587
باس	-10.5872
▁Cancel	-10.5874
▁lexi	-10.5874
▁تێبینییەکت	-10.5876
▁زیادبوونی	-10.5877
▁توڕە	-10.5877
▁تێبینیەکەت	-10.5883
▁قەناعەت	-10.5887
▁سەیرە	-10.5888
▁دووپاتکردەوە	-10.5888
▁بەکۆمەڵ	-10.5889
▁هەنگاوەکانی	-10.5889
▁پارێزگار	-10.589
▁سێدارە	-10.5891
▁بەرزبوونەوەی	-10.5892
▁عەبدولکەریم	-10.5893
▁Notif	-10.5896
▁تاقیکردنەوەی	-10.5897
Comment	-10.5897
▁ئەف	-10.5898
▁ئاڵوگۆڕ	-10.5899
زۆر	-10.5899
▁بەرەنگاری	-10.5904
▁بکەوێتە	-10.5904
▁بهێنرێت	-10.5905
▁ئیمارات	-10.5908
▁سات	-10.5909
▁کچێکی	-10.5914
▁دەڵێین	-10.5917
▁بنێت	-10.5918
▁کێبڕکێی	-10.5921
▁فایەق	-10.5921
▁عەللاوی	-10.5921
پارێز	-10.5921
▁نەشتەرگەری	-10.5924
▁چینە	-10.5929
▁بەرهەمه	-10.593
▁تۆمارکردنی	-10.5935
▁قو	-10.5935
▁بریتانیا	-10.5936
▁ئاماژەیان	-10.5937
▁ژیر	-10.5941
هر	-10.5949
اکانی	-10.5949
▁یارییەکان	-10.5953
▁پشتیوان	-10.5955
▁خوێند	-10.5957
▁نامەیەکی	-10.5958
▁بوونه	-10.5961
▁واش	-10.5961
▁لام	-10.5962
▁دەشتی	-10.5962
▁ناوەرۆکی	-10.5963
▁یانە	-10.5966
▁گاڵتە	-10.5968
چاو	-10.5968
▁سەلیم	-10.5973
▁گروپێکی	-10.5974
▁هۆش	-10.5974
مەت	-10.5975
▁سیناریۆ	-10.598
چین	-10.5982
▁کەناڵە	-10.5983
▁ڕەتکردنەوەی	-10.5984
ییەی	-10.5985
▁کێشانە	-10.5987
▁کۆمەڵکوژی	-10.5989
▁پسپۆر	-10.5994
▁تێگەیشتنی	-10.5994
▁ڕێکەوتن	-10.5996
▁ڕاستییەکان	-10.6
چۆ	-10.6006
▁پێچەوانە	-10.6006
▁پتەوکردنی	-10.6006
▁کۆمەڵایەتیی	-10.6008
▁گرتەوە	-10.601
▁دراما	-10.6015
▁پیشەی	-10.6018
▁ئامادەن	-10.602
گرێ	-10.6023
▁دۆستایەتی	-10.6024
▁نووسیوە	-10.6024
▁هەڵەیە	-10.6024
▁خواردنەوە	-10.603
▁دەرگا	-10.6037
▁یەکێتیدا	-10.6038
▁تاوتوێکردنی	-10.604
بایە	-10.6042
▁بازار	-10.6042
ناوە	-10.6043
▁in	-10.6047
▁نەبووایە	-10.6047
▁ولاتی	-10.6048
▁T	-10.6049
▁ڕەوشت	-10.6049
▁لەکۆی	-10.6049
▁کردەی	-10.605
▁سڤیل	-10.6052
▁بردووە	-10.6053
▁بەباشی	-10.6057
▁کۆبوونەوەکانی	-10.6059
▁ئەزموونە	-10.606
یاره	-10.6061
▁پەڕی	-10.6066
▁فۆرم	-10.6066
▁پەرلەماندا	-10.6068
▁تۆمەت	-10.6071
▁نییەکە	-10.6072
▁ڕوخانی	-10.6074
▁لەدەستداوە	-10.6074
▁ڕێژ	-10.6078
▁گفتوگۆکردن	-10.6081
▁هیندستان	-10.6081
▁جۆرەکانی	-10.6083
▁دەستکەوت	-10.6083
▁موسا	-10.6088
▁شەڕێکی	-10.6091
▁پرۆژەیەکی	-10.6092
▁زانیارییەکان	-10.6094
▁لەسەرەتاوە	-10.6095
▁یەکێکی	-10.6098
▁بینا	-10.6098
▁ڕووسی	-10.6099
▁مۆن	-10.6104
پرسی	-10.6108
▁دز	-10.6112
▁خۆپ	-10.6113
▁زریان	-10.6114
ئەنجام	-10.6115
▁ئامادەبوون	-10.6115
▁ئیس	-10.6116
▁پیلان	-10.6116
▁هاتووه	-10.612
▁بازرگان	-10.6123
هێنەر	-10.6126
▁دەنگدەران	-10.6128
▁باوەر	-10.6129
▁گرنگتر	-10.613
▁خۆشگوزەرانی	-10.613
▁لەهیچ	-10.6139
▁چاوەڕێ	-10.6142
▁ئیشی	-10.6142
▁نەخۆشیی	-10.6142
▁پارەیە	-10.6148
▁لاپەڕەی	-10.6151
سەل	-10.6151
ژە	-10.6153
▁ئەندامان	-10.6154
▁ئەژمار	-10.6156
▁هەڵبەتە	-10.6157
کەمان	-10.6159
▁ڕۆیشت	-10.6161
▁هەنگاوێک	-10.6163
سم	-10.6163
▁سەرانسەری	-10.6164
ەدین	-10.6166
▁بەوەکرد	-10.6167
▁ناوکی	-10.6169
▁جاش	-10.6171
▁سوێند	-10.6176
▁حەمەی	-10.6177
▁گوێبیس	-10.6178
▁فڕۆکەخانەی	-10.6181
▁دەستبەجێ	-10.6184
چەند	-10.6186
▁هاتبوو	-10.6194
"ـ	-10.6195
کەوتنی	-10.6197
▁قۆناغەکانی	-10.62
سەد	-10.62
▁بیرەوەری	-10.6202
▁پەشیمان	-10.6207
▁سەردان	-10.621
▁چارەنووس	-10.6212
▁کێشی	-10.6212
▁دەنگۆی	-10.6214
▁دەردەچێت	-10.6216
▁مردوو	-10.6217
▁هیچیان	-10.6218
▁هیوادارین	-10.6219
▁کلتوری	-10.6219
▁پەروەردەیی	-10.6221
▁بابەتەکە	-10.6221
▁شارەکان	-10.6221
▁الت	-10.6224
▁مۆسیقا	-10.6225
▁2000	-10.6228
بردنی	-10.6229
▁مەڵبەند	-10.623
▁مسوەگەر	-10.623
▁نەیانتوانی	-10.6231
▁جەمیل	-10.6231
▁کچانی	-10.6233
▁دەت	-10.6235
▁کۆمەڵگایەکی	-10.6239
▁دەبەخشێت	-10.6241
▁بەچەند	-10.6243
▁وادەکات	-10.6244
▁دوژمنانی	-10.6244
▁کوردیت	-10.6245
▁زەمینەی	-10.6246
ولی	-10.6247
▁ژان	-10.6256
گۆڕ	-10.6257
▁کەسێتی	-10.626
▁دەزگایەکی	-10.6261
▁کاردەکات	-10.6263
▁بایز	-10.6268
▁پسپۆڕی	-10.6269
▁فەرماندەیی	-10.6269
▁ئەرێنی	-10.6269
▁زووتر	-10.627
▁ستراتیجی	-10.6273
شتن	-10.6276
▁الج	-10.6276
یتە	-10.6278
▁هەرچەنده	-10.6281
▁ئاهەنگی	-10.6284
▁بکەمەوە	-10.6287
▁سەرسام	-10.6287
▁لێدە	-10.6288
▁الح	-10.6289
اش	-10.629
جو	-10.6291
▁هۆڵ	-10.6294
▁ئەرێ	-10.6297
▁پارێزەری	-10.6304
▁نەمێنێت	-10.6307
▁پێکردووە	-10.631
▁حەکیم	-10.6312
▁بەرێ	-10.6317
▁برسی	-10.632
▁نەوزاد	-10.6328
▁دەکەمەوە	-10.6337
▁پەنابەری	-10.6337
هێناوە	-10.6342
▁جیاجیا	-10.6343
▁کارگەی	-10.6344
▁فیکر	-10.6345
▁عەسکەری	-10.6346
▁یارییە	-10.6346
▁نارەزایەتی	-10.6349
▁مەنسوور	-10.635
▁پێیەی	-10.635
▁شەری	-10.635
▁یاوەری	-10.6353
ۆف	-10.636
▁سۆفی	-10.6362
▁ناسک	-10.6364
▁سیاسەتێکی	-10.6368
▁کۆمپیوتەر	-10.6368
است	-10.6369
▁بۆچوونە	-10.6372
▁ناچاری	-10.6372
ێنم	-10.6374
پڕ	-10.6376
▁حاڵ	-10.638
▁کرداری	-10.6381
▁سیمای	-10.6384
▁ئەفسەر	-10.6388
نووسی	-10.6388
▁ئەمشەو	-10.6389
راوی	-10.6392
▁دانان	-10.6393
▁ڕاپەرین	-10.6395
▁چوارچێوەیەدا	-10.6396
▁ڕێبەر	-10.6397
دراو	-10.6398
▁هاندانی	-10.6406
▁پێشینەی	-10.6406
▁ماڵپەر	-10.6412
▁هۆیەوە	-10.6416
▁ساڵان	-10.6417
▁پسپۆڕ	-10.6418
▁مافێکی	-10.6418
▁ئەسپ	-10.6418
▁ئیمان	-10.6421
▁بزووتنەوە	-10.6422
▁دەربڕی	-10.6425
▁پێشەکی	-10.6425
دەدەن	-10.6427
وێ	-10.6428
▁ددان	-10.6442
ساز	-10.6442
بم	-10.6444
▁میوانی	-10.6449
▁دەور	-10.6452
▁سینەماکاری	-10.6452
▁ساڵدا	-10.6453
▁شوو	-10.6453
▁ئیسرائیلی	-10.6453
▁لەمەودوا	-10.6455
▁حەرام	-10.6457
▁داڕشتنی	-10.6458
▁ڕۆژنامەکە	-10.6459
▁کەرەستەی	-10.6461
▁وتووێژ	-10.6463
▁هێمای	-10.6464
▁عەلاوی	-10.6468
▁تەواوبوونی	-10.6468
نەوه	-10.6469
تۆن	-10.647
▁هێڵ	-10.6471
▁دیت	-10.6472
▁ناوچەیی	-10.6474
▁پێدە	-10.6476
▁ڕۆژێکی	-10.6478
▁لیژنەیەک	-10.6478
بۆوە	-10.6479
▁ماڵئاوایی	-10.6479
▁هێرشە	-10.6481
بای	-10.6485
▁بڕیاردان	-10.6486
▁کایەوە	-10.6488
▁جەنگە	-10.6488
▁ناوەراست	-10.649
▁مانگرتن	-10.6492
تیک	-10.6493
ستن	-10.6496
▁سەربازییەکانی	-10.6497
▁عەلمانی	-10.6502
▁خاڵەکانی	-10.6506
▁ناتوانم	-10.6508
▁پەلامار	-10.6512
▁هار	-10.6512
پرس	-10.6512
▁عەقید	-10.6516
▁شێر	-10.6518
بازی	-10.6521
مێ	-10.6523
▁دروستکرد	-10.6524
▁گوزەرانی	-10.6528
▁تەندروستیی	-10.653
ol	-10.6535
▁بەست	-10.6538
▁خانە	-10.6541
▁گشتییەکان	-10.6543
▁وەلا	-10.6544
▁دۆخێکی	-10.6552
▁ساڵیادی	-10.6552
▁بنچینەی	-10.6553
▁ولە	-10.6554
▁کێشەیەک	-10.6561
▁ئەدەن	-10.6566
▁@	-10.6566
▁تایبەتیش	-10.6567
▁ئەکرێت	-10.6567
▁ڕەحیم	-10.6568
▁سیتی	-10.6571
▁ببین	-10.6572
▁دیمانە	-10.6573
▁دەیکات	-10.6573
▁چارەی	-10.6575
▁بهێنین	-10.6576
▁بەکورتی	-10.6578
کرایەوە	-10.6581
▁ئیدانەی	-10.6584
▁گەیشتنە	-10.6586
▁سەرۆکوەزیرانی	-10.6588
▁هەوڵێک	-10.6588
▁دەخەنە	-10.6588
▁باجی	-10.6589
▁گەورەیان	-10.659
▁بدە	-10.6591
▁بنێن	-10.6591
تین	-10.6591
▁کۆک	-10.6592
▁نەکردوە	-10.6594
▁لەحکومەتی	-10.6599
▁یاریزانانی	-10.6602
▁بەشداربوو	-10.6612
▁زانین	-10.6614
▁بەپێچەوانەی	-10.6616
▁چوونکە	-10.6617
ستانی	-10.6621
▁ژیانە	-10.6621
اندووە	-10.6622
15	-10.6623
▁تریشەوە	-10.6624
▁دەخات	-10.663
▁تفەنگ	-10.663
▁بەوه	-10.6631
▁ئاژاوە	-10.6632
▁تێپەر	-10.6634
▁موچە	-10.6634
▁ستراتیژیی	-10.6638
گو	-10.6638
▁لەوانه	-10.6638
▁دیکۆمێنتی	-10.6639
▁قەد	-10.6648
▁بیەوێت	-10.6651
▁هەواڵە	-10.6657
▁بەمجۆرە	-10.6659
▁تەسلیم	-10.6659
▁ماڵەکەی	-10.6661
▁نەو	-10.6665
▁نەریت	-10.6666
▁بەسەرۆکایەتی	-10.6666
▁پلانێکی	-10.6668
کانمان	-10.6673
▁ببەن	-10.6676
▁پەروەردگار	-10.6677
▁حسێن	-10.668
▁هونەرمەندە	-10.668
▁گرژی	-10.6686
▁ساتە	-10.6688
▁پرسیارێکی	-10.6689
▁وێنا	-10.6692
▁کردەوەی	-10.6692
بکەنەوە	-10.6693
▁تیپ	-10.6695
▁پرۆسەیە	-10.6697
ریا	-10.6701
▁نووسیویەتی	-10.6704
▁لەزۆر	-10.6705
ئێستا	-10.671
000	-10.6715
▁ڕەتکردەوە	-10.6715
▁پاڵێوراو	-10.6717
ەکانیاندا	-10.6719
▁لەتورکیا	-10.672
یەکانیان	-10.6721
▁ژوور	-10.6721
▁بەرنامەو	-10.6722
▁خوە	-10.6722
▁گرێبەستی	-10.6724
▁یۆلیۆ	-10.6725
▁ئەستێرەی	-10.673
ئەوەی	-10.6733
▁قەدەغەکردنی	-10.6733
▁قەوارە	-10.6736
▁سەدا	-10.6737
▁هێرۆ	-10.6738
▁گل	-10.6739
ئەگەر	-10.6739
▁ڕوودانی	-10.6742
▁گەنم	-10.6742
عا	-10.6742
▁کاره	-10.6743
▁خێزانەکەی	-10.6746
▁مەسعوود	-10.6747
گەلێک	-10.6747
هەروەها	-10.6748
ئەل	-10.6751
▁قەزا	-10.6751
▁کەلوپەل	-10.6752
▁250	-10.6752
▁پێداویستییەکانی	-10.6754
▁بەتوندی	-10.6755
▁میدیاکان	-10.6757
▁بکەی	-10.6763
لیستی	-10.6768
▁شتانە	-10.6769
▁پەنابەر	-10.6769
▁بەرپرسان	-10.677
▁ڕاهێنانی	-10.677
▁پێشەوەی	-10.6775
▁پانتایی	-10.6776
▁مێژوی	-10.6776
▁شوێنەکانی	-10.6777
▁ڕووداوەکه	-10.6778
▁ڕۆژەدا	-10.6779
دەن	-10.6784
کەوە	-10.6786
▁مانایەکی	-10.6786
▁بەلکو	-10.679
▁دیکەوه	-10.6793
▁دوابەدوای	-10.6793
▁گرنگەکانی	-10.6794
▁بوونەتەوە	-10.6795
▁داخەوە	-10.6796
▁ئاستەنگ	-10.6797
▁شک	-10.6799
▁پیرۆزە	-10.6802
▁کوژ	-10.6804
▁مانگه	-10.6804
▁گەیشتنی	-10.6807
▁بەردەوامن	-10.6808
یەکیان	-10.681
▁ئەوەیش	-10.6812
▁نەتەوەو	-10.6812
▁مۆ	-10.6813
▁لەنزیک	-10.6814
▁پاشەکشە	-10.6818
▁کاتیشدا	-10.6819
▁کۆمپانیاکان	-10.6822
▁بەپێ	-10.6829
▁هاشم	-10.683
▁نووس	-10.6831
▁لێدەکرێت	-10.6832
▁خوێندەوە	-10.6833
▁چاودێرانی	-10.6835
▁چوارشەممه	-10.6837
▁پڕۆژەیەکی	-10.6838
▁دووەمیش	-10.6839
▁هەڵسەنگاندن	-10.6849
▁چارەنوسی	-10.6852
▁بەخۆ	-10.6852
▁لیوای	-10.6853
▁ناودار	-10.6854
▁سک	-10.6854
خانە	-10.6856
▁لەقەڵەم	-10.6859
▁تەواوەتی	-10.6859
▁هەڵوێستێکی	-10.6862
ڕەش	-10.6862
▁تۆم	-10.6863
دەدا	-10.6864
▁بگۆڕێت	-10.6865
▁سەلامەتی	-10.6865
▁بەشداریان	-10.6866
▁نیمچە	-10.6866
▁ئۆتۆمبێلی	-10.6866
سۆ	-10.6867
▁لاوە	-10.687
▁گۆشت	-10.687
▁نەوەکانی	-10.6871
تیان	-10.6875
▁ژنێکی	-10.6875
▁خوێنەری	-10.6877
▁مێشکی	-10.6877
▁هێرشێکی	-10.6879
زێ	-10.688
▁باوەشی	-10.6884
▁یاساکان	-10.6887
▁دیاریکراوی	-10.6888
▁دیل	-10.6888
ڤێ	-10.689
▁هەلە	-10.689
▁دەرەوه	-10.6893
▁نەیان	-10.6894
▁مێینە	-10.6894
▁الق	-10.6894
انەوه	-10.6897
▁d	-10.6898
▁نەتوانێت	-10.6899
▁بەمانای	-10.6903
▁زێڕ	-10.6904
▁نەریتی	-10.6904
گەل	-10.6906
▁ئیمام	-10.691
کت	-10.691
▁نەبوە	-10.6916
دەکرێن	-10.6918
▁بەڵکە	-10.6919
▁عاشق	-10.692
نز	-10.692
ئاوا	-10.6921
▁ئەفریقا	-10.6924
▁کاروانی	-10.6925
▁بگەن	-10.6926
▁گۆی	-10.6927
▁گرتبوو	-10.6929
▁نیەو	-10.693
▁نەبین	-10.6931
یز	-10.6933
▁لەژیانی	-10.6933
▁بەشداربوون	-10.6934
▁دەنگدەر	-10.6937
▁پشوو	-10.6939
▁نەدات	-10.6945
▁ساختە	-10.6946
درێن	-10.6948
وات	-10.695
▁گرفتە	-10.6951
▁سن	-10.6951
▁گۆڤار	-10.6955
▁شای	-10.6956
▁کۆمەڵانی	-10.6956
▁دژوار	-10.6957
▁کاندیدەکانی	-10.6961
▁یادەوەری	-10.6961
▁بەرگ	-10.6962
▁دزەیی	-10.6962
▁گەرچی	-10.6968
کارانی	-10.6971
▁ڕێباز	-10.6975
ur	-10.6977
▁کاتەوە	-10.6978
▁پایە	-10.6983
▁هەرەس	-10.6984
▁تیم	-10.6985
▁ئۆسکار	-10.6988
▁مۆسکۆ	-10.6989
نەو	-10.6989
▁بانگەشە	-10.6991
ۆڤ	-10.6995
▁بنەمایەکی	-10.6995
▁توندو	-10.6995
▁بێنێت	-10.7
▁تێکۆشەر	-10.7001
▁ڕوویداوە	-10.7001
▁لەگەڵیدا	-10.7004
▁چرکە	-10.7009
▁نیش	-10.7011
▁کوردوستان	-10.7015
▁بانک	-10.7017
▁عەرەبەکان	-10.702
▁پێکهات	-10.7021
▁نیشانی	-10.7023
▁دەردە	-10.7023
▁ڕابەر	-10.7023
نسی	-10.7025
ێنەوە	-10.7026
تەوه	-10.7037
▁مرۆڤێکی	-10.7039
▁کەموکوڕی	-10.7039
▁بەدەستهێناوە	-10.7039
▁وتارێکی	-10.7045
▁مەسەلەیەکی	-10.7045
ورد	-10.7047
▁قووڵی	-10.7048
▁سەلماند	-10.7049
▁دڵخۆش	-10.705
یەکانیش	-10.705
▁خانەوادەی	-10.7052
▁دامەزراوەی	-10.7056
▁خۆپیشاندانەکان	-10.7056
▁تۆن	-10.7058
▁نەدەن	-10.7058
هەم	-10.706
▁شێوەکار	-10.706
▁جەستەیی	-10.7061
▁ئاسۆی	-10.7061
▁ئافرەتانی	-10.7063
▁خوازراو	-10.7063
▁نییەلە	-10.7063
ومە	-10.7064
▁ئاژانس	-10.7065
▁سەنتەر	-10.7066
▁پاساو	-10.7068
▁دواخستنی	-10.7068
▁گرووپە	-10.7069
▁نام	-10.707
▁پێیە	-10.7072
ریک	-10.708
▁مەرکەزی	-10.7081
چەندین	-10.7087
▁کردنیان	-10.7087
▁بەغداو	-10.7087
▁f	-10.7089
مەی	-10.709
▁داخراو	-10.709
▁to	-10.7091
▁کچێک	-10.7095
▁هاتی	-10.7101
▁میکانیزمی	-10.7102
هەل	-10.7103
▁لەهەوڵی	-10.7103
▁ئاسن	-10.7104
▁لەکاتێکدایە	-10.7113
▁داوامان	-10.7114
دانە	-10.7115
▁هەڵەبجەی	-10.7116
▁پڕۆژەکان	-10.7118
▁لەهەرێم	-10.7119
▁ئاکۆ	-10.7119
▁ئەز	-10.7122
ازی	-10.7124
▁لەسوریا	-10.7125
▁حزبێکی	-10.7127
▁ڕاوێژکار	-10.7127
▁ئۆپ	-10.7128
ولا	-10.7128
▁پێگە	-10.713
▁ڕێکخراوەکە	-10.7135
▁بەردە	-10.7137
▁هاتنه	-10.7143
▁جوانتر	-10.7147
▁تاکێکی	-10.7148
▁ۆ	-10.7149
▁1999	-10.7149
▁زەردەشت	-10.7151
چێ	-10.7154
▁شەماڵ	-10.7156
▁ئاری	-10.7162
▁زانکۆکانی	-10.7163
ووم	-10.7164
▁لەدیدارێکدا	-10.7168
▁منداڵێکی	-10.7168
▁گوو	-10.717
▁دەدرێن	-10.7171
▁بیرم	-10.7175
▁دەستم	-10.7176
▁پێشەنگ	-10.7177
▁جۆراو	-10.7178
▁هەرسێک	-10.7178
▁سەردەمەدا	-10.7179
▁نەجەف	-10.7184
▁قوتابخانەکان	-10.7186
▁گەنجە	-10.7187
▁پەیوەند	-10.719
▁ث	-10.7191
ir	-10.7192
▁لەوەشکرد	-10.7193
▁پرۆگرامی	-10.7194
▁زەق	-10.7195
▁گر	-10.7196
▁دەخوازێت	-10.7196
▁کۆمکاری	-10.7198
▁دانمارک	-10.7208
▁مەس	-10.7211
▁شەق	-10.7216
▁وەرە	-10.7216
▁هەرکەس	-10.7217
▁شەپۆل	-10.7219
▁ئاکامدا	-10.7221
▁ناوەندە	-10.7224
ید	-10.7225
▁نەدەبوو	-10.7227
▁بگەڕێنەوە	-10.7229
▁بەستن	-10.7229
▁ئۆتۆمبێلێکی	-10.723
▁سیاسیە	-10.7232
مر	-10.7232
▁وڵاتانەی	-10.7233
بکاتەوە	-10.7233
▁ئامار	-10.7234
▁تەقینەوە	-10.7235
▁پێشوەخت	-10.7236
▁دلێر	-10.7237
▁ئەستێرە	-10.7238
▁کۆبونەوە	-10.724
▁پێدراوە	-10.7241
▁ڕۆژێ	-10.7245
دانەوەی	-10.7246
زوو	-10.7248
اسی	-10.7249
▁ڕوسی	-10.725
▁دایەوە	-10.7253
▁ئاڕاستە	-10.7258
▁سەرە	-10.726
اق	-10.726
▁جوانترین	-10.7263
▁بەخۆیان	-10.7264
▁دەروون	-10.7266
▁گوتار	-10.7266
▁دیجلە	-10.7266
▁m	-10.7268
▁نووسراو	-10.7269
برا	-10.7271
▁پرۆفیسۆر	-10.7274
▁باڵیۆزخانەی	-10.7276
▁ئەڵێت	-10.7285
گەورە	-10.7288
▁ئۆگۆست	-10.7288
▁گوڵی	-10.7288
دێت	-10.7291
▁لەسەرتاسەری	-10.7294
▁ڕەشی	-10.7295
▁هاوسەرەکەی	-10.7296
نییە	-10.7299
▁خانەنشینی	-10.73
▁فڕۆکەی	-10.73
ێکمان	-10.7303
▁گۆت	-10.7304
▁شۆر	-10.7305
▁دۆزەخ	-10.7308
▁شاراوە	-10.7309
▁کرابێت	-10.7309
▁دەرەوەو	-10.731
▁دەیکەن	-10.731
▁گۆرانیبێژی	-10.7314
▁حزبەکانی	-10.7314
▁ئەمەیە	-10.732
▁کۆمپانیایەکی	-10.732
▁مانگەدا	-10.7321
ەکەیەوە	-10.7323
▁جیابوونەوە	-10.7333
▁قۆناغەدا	-10.7335
▁یەکدی	-10.7338
▁خیانەت	-10.7344
▁دەستکەوتی	-10.735
▁پۆزەتیڤ	-10.736
▁1992	-10.7362
▁خەڵکدا	-10.7363
▁سەرف	-10.7371
باران	-10.7371
▁ناتوانرێت	-10.7371
▁ئەوکاتەی	-10.7375
▁بووەتەوە	-10.7376
▁حەماس	-10.7376
▁گوللە	-10.7379
لیا	-10.7383
▁کۆپی	-10.7387
▁گەلێ	-10.7389
▁پێشوازییکرد	-10.7395
▁گەشەکردن	-10.7396
▁پێدان	-10.7399
▁لەلێدوانێکی	-10.7399
▁کرماشان	-10.7402
▁بریکاری	-10.7403
▁بخات	-10.7405
▁ئامادەبووان	-10.7409
▁کۆمەڵه	-10.7411
سر	-10.7413
▁سازدانی	-10.7419
▁یەکشەممه	-10.742
▁ئەڵماس	-10.7423
شین	-10.7423
▁پیرە	-10.7423
▁مەکتەب	-10.7424
لەسەر	-10.7428
▁وردەکاری	-10.7428
▁سازش	-10.7432
یەکانەوە	-10.7433
▁ڕوکن	-10.7437
▁کوێر	-10.7437
▁ماڵپەری	-10.7439
انیش	-10.7439
▁موڵک	-10.744
▁گوتەی	-10.7441
ڕێژ	-10.7441
▁پێشکەشکرد	-10.7443
▁ڕێکەوتنی	-10.7443
▁جوگرافی	-10.7444
نوری	-10.7445
▁نەبەز	-10.7449
▁پۆ	-10.7451
▁دەردەخات	-10.7457
▁نەتەوەکەمان	-10.7458
▁نزیکە	-10.7459
وشەی	-10.7459
▁مێژووە	-10.746
▁سەرنجڕاکێش	-10.7464
▁نەبونی	-10.7466
▁هێما	-10.7466
▁پەردەی	-10.7466
▁خودای	-10.7467
▁زیادی	-10.7469
▁سزادانی	-10.747
▁فیدرالی	-10.7471
▁ناچێت	-10.7472
▁یەکڕیزی	-10.7473
▁چوارەمین	-10.7473
▁لێدوانەکەیدا	-10.7474
▁باپیر	-10.7479
▁سوریاو	-10.7479
▁هەستم	-10.7483
▁باوەڕیان	-10.7484
▁بگەیەنێت	-10.7489
▁فیدراسیۆنی	-10.749
هەزار	-10.7491
▁ناس	-10.7494
▁ناڕەوا	-10.7494
▁پرۆسە	-10.7497
▁بەرژەوەندییە	-10.7498
E	-10.7499
▁ئەوەیه	-10.7504
▁بەڕووی	-10.7506
▁کارەکەی	-10.7509
▁سۆڤیەت	-10.7511
مام	-10.7513
▁بەدڵنیاییەوە	-10.7515
▁حزبەکەی	-10.7517
اف	-10.7519
▁کەوتن	-10.7519
▁ژێرخانی	-10.752
▁ئیمە	-10.752
▁بەد	-10.7521
▁خرایە	-10.7521
▁جێگە	-10.7524
▁مادام	-10.7528
▁گوندەکان	-10.7529
▁دەنگدانی	-10.7529
ەکانى	-10.7534
▁وەسفکرد	-10.7538
▁هاولا	-10.7538
▁سوریادا	-10.7539
وتن	-10.7539
ing	-10.7545
▁هاوپەیمان	-10.7552
▁ڕۆڵە	-10.7553
▁شەوە	-10.7555
▁عن	-10.7557
▁نەوە	-10.7557
ێنی	-10.7561
▁وایکرد	-10.7564
▁تەبایی	-10.7565
ڕۆی	-10.7566
▁سازکرد	-10.7569
ۆکی	-10.7569
▁سەرشانی	-10.7571
▁وتویەتی	-10.7579
یلی	-10.7581
▁پێداگری	-10.7581
▁ئەدەبیاتی	-10.7582
▁ڕۆژانه	-10.7583
▁گرنگیی	-10.7584
▁بکوژ	-10.7585
▁زیندو	-10.7587
دایه	-10.7588
▁بەتوانا	-10.7589
▁لەوەزارەتی	-10.7589
▁ڕیش	-10.7594
▁گۆرانکاری	-10.7597
▁ئازیز	-10.7597
نگی	-10.7598
▁ئاوەدانکردنەوەی	-10.7601
▁سەقامگیر	-10.7602
▁ڕیفۆرم	-10.7602
▁کادر	-10.7607
▁هەڵبژاردندا	-10.7607
▁ڕاگەیاندنەکان	-10.7609
▁وەبەرهێنانی	-10.7609
▁بەبڕوای	-10.761
▁مەزنی	-10.761
▁ئەمریکادا	-10.7611
▁سندوقی	-10.7613
▁ڕەنگه	-10.7615
▁فریاکەوتنی	-10.7616
▁ڕۆژدا	-10.7617
ێنە	-10.7617
▁ئاوەدان	-10.7618
▁ئەرشیف	-10.7619
▁ئافرەتی	-10.7626
▁خشتەی	-10.7628
▁زۆرن	-10.7629
▁لەدەستدانی	-10.7632
▁65	-10.7632
w	-10.7634
▁b	-10.7636
▁شادی	-10.7638
▁هەی	-10.7641
▁دیمەنی	-10.7643
▁بابەتێک	-10.7643
▁بەختەوەری	-10.7645
ساڵی	-10.7646
▁کارانە	-10.7648
▁ئەند	-10.7649
▁ناوچانەی	-10.765
▁هەبوە	-10.765
▁ڕاکێشانی	-10.7651
▁جوو	-10.7652
▁دیواری	-10.7655
▁ڕایان	-10.7656
کڕ	-10.7656
▁یاخی	-10.7659
▁باب	-10.766
▁کەسانێکی	-10.7665
ۆش	-10.7666
ەها	-10.7667
▁هەڵمەت	-10.7669
▁ئافرەتێک	-10.767
بور	-10.7674
▁گوتوویەتی	-10.7677
▁ڕەوشەنبیری	-10.7683
▁سیستمێکی	-10.7685
▁تیر	-10.7685
▁ناز	-10.7685
مەز	-10.7685
▁هاواری	-10.7687
▁Kurdistan	-10.7689
▁لەیەکتر	-10.7689
▁ببێته	-10.769
خستن	-10.769
▁بپارێزن	-10.7691
▁تورکمانی	-10.7692
▁هەڵی	-10.7694
سازی	-10.7698
▁ڕەگ	-10.7698
▁ویژدانی	-10.77
عێراق	-10.77
▁ئەمن	-10.77
▁تێی	-10.7701
▁کارگێری	-10.7701
▁حزب	-10.7704
P	-10.7707
▁کۆبوونەوەکەدا	-10.7707
▁کیمیاباران	-10.771
▁کۆڵ	-10.771
▁جیهانە	-10.7712
▁جەوهەری	-10.7712
یەش	-10.7716
▁کوری	-10.7719
▁ئەدیب	-10.7721
ێتەوه	-10.7723
هەولێر	-10.7727
▁تەل	-10.7728
▁ئازا	-10.773
▁نەهاتووە	-10.773
▁هاوکاریکردنی	-10.7734
ەندە	-10.7734
▁چارەنووسساز	-10.7738
▁ئەزمونی	-10.7739
▁خول	-10.7741
▁پەردە	-10.7749
▁The	-10.775
غە	-10.775
▁زەمینە	-10.7757
بردن	-10.7757
ri	-10.7759
▁خال	-10.7761
▁الر	-10.7763
▁ئەدا	-10.7764
▁گیر	-10.7771
▁دواییدا	-10.7772
▁کۆتا	-10.7772
il	-10.7773
▁سم	-10.7774
▁قازی	-10.7777
▁سەرکردەیەکی	-10.778
▁قەرە	-10.7782
▁کاغەز	-10.7788
▁بڕێک	-10.779
▁کرانەوەی	-10.7791
▁ئەوتۆی	-10.7791
▁ساڵه	-10.7793
▁بەهۆیەوە	-10.7794
on	-10.7796
▁لەڕۆژی	-10.7796
▁ڕێزلێنان	-10.7797
ئەسوات	-10.7799
▁دەستمان	-10.78
▁بەفەرمی	-10.7801
▁دارستان	-10.7801
▁تارق	-10.7804
یەکەوە	-10.7804
▁تواناکانی	-10.7806
▁نێ	-10.7809
▁دەبم	-10.7814
▁کۆم	-10.7819
▁بەخۆوە	-10.782
▁توو	-10.782
▁بانگەوازی	-10.7821
گل	-10.7822
▁کرانەوە	-10.7823
▁کێشه	-10.7828
▁هەڵەبجەو	-10.7828
▁قەڵا	-10.7829
▁کلاسیکی	-10.7835
▁داتا	-10.7835
گەکانی	-10.7836
▁بڕیارێک	-10.7842
وتار	-10.7846
▁کۆشش	-10.7851
▁قسەو	-10.7854
ئەن	-10.7854
▁تەواوکردنی	-10.7855
▁قوربانیان	-10.7855
▁چەقی	-10.7855
▁دەرهەق	-10.7858
▁گرفتەکانی	-10.786
▁سەڵاح	-10.7861
▁لەوەتەی	-10.7861
▁فکر	-10.7862
▁پارچەکانی	-10.7863
D	-10.7865
▁شەست	-10.7865
▁سێو	-10.7865
▁یارمەتیدانی	-10.7868
▁توێژینەوە	-10.7871
▁نادرێت	-10.7873
▁تەکنیک	-10.7873
▁کاریگەرییەکی	-10.7874
▁سەرلەبەیانی	-10.7874
ەکەتان	-10.7877
▁دەستنیشانکردنی	-10.7879
▁قوڕ	-10.788
▁ڕەنج	-10.7882
▁هەموولایەک	-10.7884
ەڵ	-10.7885
▁سۆسیالیست	-10.7886
▁دوژمنان	-10.7886
ۆژ	-10.7886
کاو	-10.7887
▁مانچستەر	-10.7888
▁زەمەن	-10.789
انەن	-10.789
▁ئەمەریکایی	-10.7894
▁میل	-10.7897
اهی	-10.79
▁لێب	-10.79
ایەوە	-10.7903
▁سەروەریی	-10.7904
▁عیسا	-10.7905
▁هەردو	-10.7905
▁پەخشی	-10.7906
▁شایستەی	-10.7907
▁پێوەر	-10.7908
▁فێڵ	-10.791
ظ	-10.791
▁گۆڵچی	-10.791
▁نوێژی	-10.7914
▁تانک	-10.7915
وشە	-10.7916
ێتە	-10.7919
▁ناسنامە	-10.792
▁شکاندنی	-10.7924
▁کەلتوور	-10.7924
▁قەرزی	-10.7926
▁دەرمانی	-10.793
ندە	-10.7931
▁هەورامان	-10.7931
▁وبە	-10.7931
▁...	-10.7933
▁پڕە	-10.7933
▁وەلامی	-10.7935
▁چەمکە	-10.7936
▁یانەکە	-10.7937
▁ڕەواکانی	-10.7945
کاران	-10.7949
▁سێشەممه	-10.795
▁سنوورەکانی	-10.795
▁بکرێنەوە	-10.7952
▁بەدواوە	-10.7953
▁داری	-10.7958
▁نووسینە	-10.796
▁خۆپێشاندان	-10.7962
▁دەسەڵاتدا	-10.7966
▁مرد	-10.7968
▁بزوتنەوە	-10.7968
ژێن	-10.7973
بەش	-10.7973
▁کەبۆ	-10.7976
▁ئەندازیاری	-10.7976
▁شیکردنەوەی	-10.7977
وود	-10.7982
شن	-10.7982
▁کارمەندی	-10.7983
▁دۆخەکە	-10.7984
▁دڕندە	-10.7984
▁بەرهەمێکی	-10.7985
▁داگیرکەران	-10.7986
▁جۆراوجۆری	-10.7987
▁تورکیاوە	-10.7988
▁چیرۆکە	-10.7991
▁ناوەڕاستدا	-10.7994
▁مامەڵەکردن	-10.7995
▁پاسەوان	-10.7995
▁ئاڵوگۆڕی	-10.7997
▁لێو	-10.7998
▁دیموکراسیەت	-10.8001
▁قال	-10.801
بکرێن	-10.801
▁قوبادی	-10.8012
رام	-10.8014
ژێ	-10.8014
▁هەبو	-10.8019
▁لایان	-10.802
▁پارلەمانی	-10.8022
×	-10.8022
▁گڕ	-10.8023
▁کۆنسێرت	-10.8023
▁ئەندامەکانی	-10.8025
▁پەنجەی	-10.8028
ێوەبەری	-10.8028
▁موحسین	-10.8029
▁پێنجشەممە	-10.8029
▁ڕامیاری	-10.803
وڵا	-10.8031
کوت	-10.8036
▁دێر	-10.8037
▁بۆمبێکی	-10.8037
ژین	-10.8037
▁پەیامێکی	-10.8037
▁ئێوەش	-10.8039
▁پێدەکرێت	-10.8045
▁مامە	-10.8049
▁کوشندە	-10.805
▁داهێنانی	-10.8051
گرتووە	-10.8052
▁بونیاد	-10.8052
▁سەرچاوەکەی	-10.8054
▁e	-10.8056
▁پێشێلکردنی	-10.8057
یات	-10.8059
ەوێت	-10.8059
▁سروود	-10.8059
▁فەرەیدون	-10.8059
▁ناخۆشی	-10.806
▁کۆمەڵگایە	-10.806
سل	-10.8062
▁ئیست	-10.8063
▁هاورێ	-10.8064
▁زل	-10.8065
▁ئاستە	-10.8065
▁سیستم	-10.8066
▁سیاسەتمەدار	-10.8066
▁ڕێگرتن	-10.807
▁جگەرە	-10.807
▁کافر	-10.8071
▁پەیمانگا	-10.8073
تەق	-10.8079
▁کەمینە	-10.808
▁پێشوی	-10.8081
▁بەهرە	-10.8083
ێم	-10.8085
شیدا	-10.8101
▁کتێبخانەی	-10.8103
رن	-10.8105
بونەوەی	-10.8106
▁هەڵەیەکی	-10.8114
▁ئەوێ	-10.8115
el	-10.8121
▁لێپرسینەوە	-10.8121
▁تاو	-10.8122
▁جەولەی	-10.8122
▁سوک	-10.8126
▁گرتە	-10.8131
رای	-10.8132
▁شوانی	-10.8134
▁گەیاندن	-10.8135
▁دەگرت	-10.8135
▁دەداتەوە	-10.8135
▁سووری	-10.8137
▁قەزافی	-10.8141
پەی	-10.8145
واز	-10.8145
▁هێدی	-10.8146
ra	-10.8147
▁ستافی	-10.8148
▁بەرزە	-10.815
▁هەوای	-10.8151
▁باسکردنی	-10.8152
▁لەحکومەت	-10.8152
لاو	-10.8152
▁چەپی	-10.8152
▁پرسیارەکە	-10.8154
▁دیوار	-10.8156
▁هەڵسوکەوتی	-10.8156
▁خا	-10.8156
▁سۆزی	-10.8157
▁نەم	-10.8159
▁بڕینی	-10.816
▁نیوەڕۆی	-10.816
▁مێژوویەکی	-10.8163
▁ئایە	-10.8166
▁دەمان	-10.8166
▁ڕۆمانەکە	-10.8167
▁جێبەجێکردنەوە	-10.8168
▁عەبادی	-10.8168
▁بڵند	-10.8175
▁دیکەیان	-10.8176
▁لەمیانی	-10.8176
▁شوێنەواری	-10.8179
▁هێ	-10.8179
▁ئەیلوول	-10.818
کراوەتەوە	-10.8184
▁ناوخۆو	-10.8186
بەرهەم	-10.8188
▁هوشیار	-10.8189
انا	-10.819
▁وەستان	-10.819
▁شتانەی	-10.8192
▁گەڕەک	-10.82
▁گفتوگۆکان	-10.82
▁شارەزوور	-10.8202
▁شێرزاد	-10.8202
▁بگەنە	-10.8203
▁نوو	-10.8207
▁دانیشت	-10.821
▁نووسیندا	-10.821
▁دەستگیرکران	-10.8212
▁ئازادییە	-10.8213
▁گی	-10.8219
▁مۆندیال	-10.8221
▁سەپتەمبەر	-10.8221
▁تاوانباران	-10.8222
نت	-10.8224
▁سوودێکی	-10.8224
▁تەکنەلۆژیا	-10.8225
▁پێچ	-10.8236
▁کوردەوە	-10.8238
سەری	-10.8241
▁نائارامی	-10.8241
▁پشێوی	-10.8243
▁توێژەر	-10.8245
▁مه	-10.8246
▁لەهەندێک	-10.8247
▁وەری	-10.8247
▁دیدارەدا	-10.8248
▁لەدەستی	-10.8255
▁دواخرا	-10.8258
نرێت	-10.8261
▁بەزەیی	-10.8262
▁n	-10.8265
▁بەتەواوەتی	-10.8265
▁هاوەڵ	-10.8268
▁ئاسا	-10.8271
▁بیانووی	-10.8273
▁گووت	-10.8275
▁کولتوری	-10.828
▁کۆنفرانس	-10.8281
▁تۆکمە	-10.8283
▁حەوتەم	-10.8283
▁ئازادیخوازی	-10.8286
تریش	-10.8288
لەر	-10.8293
▁کلتووری	-10.8293
▁قژ	-10.8295
▁چاپی	-10.8296
میل	-10.8298
کارە	-10.8299
▁مەعریفە	-10.83
▁قاهیرە	-10.8302
▁لەدرێژەی	-10.8303
وڵاتانی	-10.8303
▁سونە	-10.8308
▁دامودەزگا	-10.8309
▁کایەی	-10.8309
▁یەکەکانی	-10.8312
▁زا	-10.8313
▁مزگەوتی	-10.8313
3	-10.8313
▁بۆند	-10.8317
▁پارک	-10.8317
▁چاوە	-10.832
▁بڕگەی	-10.8322
▁ڕێور	-10.8323
▁ئەمنیی	-10.8324
▁ناکۆک	-10.8324
▁بابان	-10.8328
▁نیوەڕۆ	-10.833
لایەن	-10.833
▁منداڵەکانیان	-10.8331
▁دامەزراند	-10.8332
درێتەوە	-10.8332
▁هێلکە	-10.8332
▁جلوبەرگ	-10.8337
▁براوە	-10.8337
▁دەرئەنجام	-10.8337
حر	-10.8339
رەو	-10.834
▁دامەزرا	-10.8341
▁ئەڵێ	-10.8342
▁نەخۆشییە	-10.8344
▁شایستە	-10.8346
▁ئیدارە	-10.8346
▁منداڵەکانی	-10.8346
▁مەهاباد	-10.8348
داین	-10.8349
▁وێرای	-10.835
▁ئامەد	-10.8351
▁ماوەیەکە	-10.8354
ەمی	-10.8354
▁تایبەتمەند	-10.8354
▁داواکاریی	-10.8357
▁لۆژیکی	-10.8357
▁باخچەی	-10.8358
دابوو	-10.8363
▁بەراستی	-10.8363
ەب	-10.8367
▁نکۆڵی	-10.8368
▁بهێت	-10.8372
▁بەغدای	-10.8372
▁گەمەی	-10.8373
▁سێیەمین	-10.8374
▁حکومەتدا	-10.8375
▁توندڕەو	-10.8375
▁پێکان	-10.8376
▁مێژو	-10.8376
▁جێگر	-10.8377
S	-10.8381
▁دەولەت	-10.8382
▁سیاسییەوە	-10.8384
▁ند	-10.8385
▁پرسێکی	-10.8387
▁پێشەوا	-10.8389
▁بڕین	-10.8391
وش	-10.8391
▁ڕووداوانە	-10.8396
▁مەک	-10.8396
▁ڕۆڵەکانی	-10.8399
▁ڕۆژنامەو	-10.8399
▁بپارێزێت	-10.84
▁پشتگوێ	-10.8401
▁نیویۆرک	-10.8403
▁کۆلێژ	-10.8405
وەری	-10.8406
رگ	-10.8408
▁ڕێسا	-10.841
▁de	-10.841
▁دەوام	-10.8416
خر	-10.8417
▁ڕەچاو	-10.8418
is	-10.8418
▁ساکار	-10.8419
▁شەهیدی	-10.8419
▁ڕووبەری	-10.842
▁لەیەکەم	-10.8421
▁کوژراوە	-10.8427
▁نمایشکرا	-10.843
ەڕ	-10.8431
▁بینیمان	-10.8431
▁بڕوانە	-10.8431
▁نانی	-10.8431
▁دادەنێن	-10.8432
▁بڕێکی	-10.8434
سین	-10.8434
بڕی	-10.8435
موو	-10.8435
▁ڕزگاریخوازی	-10.8436
▁یۆ	-10.8445
▁بەشەی	-10.8446
▁ماونەتەوە	-10.8448
اجی	-10.8449
▁خواز	-10.845
▁پاشماوەی	-10.8451
یست	-10.8452
▁ئاژانسا	-10.8456
19	-10.8457
▁تەنگ	-10.8461
▁بەسرە	-10.8463
▁کوردیی	-10.8463
▁نووسەرە	-10.8464
▁کوردیان	-10.8466
هاتنی	-10.8468
▁ڕاوێژ	-10.8469
▁ستی	-10.8472
▁کۆنتڕۆڵ	-10.8474
▁ئەشکەنجە	-10.8475
▁ئێستاکە	-10.8476
▁هەموارکردنی	-10.8478
▁خەڵکێکی	-10.848
▁شۆڕشگێڕ	-10.8484
▁کۆمەکی	-10.8484
▁بارەوە	-10.8485
▁کاکەیی	-10.8485
▁هەستکردن	-10.8486
▁هەوڵە	-10.8486
▁بوارەکاندا	-10.8487
▁دل	-10.8488
▁تەوەری	-10.8492
▁دروستکردن	-10.8492
▁تۆقاندن	-10.8493
▁خەڵ	-10.8493
▁چیا	-10.8494
▁تاکوو	-10.8494
▁بەرشلۆنه	-10.8495
▁جوتیار	-10.8497
▁موفتی	-10.8501
▁مانایە	-10.8503
▁لەپەرلەمان	-10.8503
▁درک	-10.8505
▁یەکان	-10.8505
بینین	-10.8507
▁لەیاد	-10.8508
▁کوڕەکەی	-10.8508
▁سووتەمەنی	-10.8509
▁ئیسلامدا	-10.851
▁لانیکەم	-10.851
▁دەکەون	-10.851
▁دەبا	-10.8513
▁ڕێکخراوەیی	-10.8516
▁هەول	-10.8517
ساڵ	-10.8519
لم	-10.852
▁ئەدی	-10.8521
▁لەدەرەوە	-10.8521
وور	-10.8522
▁حەمەد	-10.8523
ەمین	-10.8525
▁لەشوێنی	-10.8526
▁جان	-10.8527
▁گیرا	-10.8528
▁فەراهەم	-10.8528
▁شەپۆلی	-10.853
▁زەمین	-10.8531
کورد	-10.8536
▁کۆمپانیاکە	-10.8536
▁600	-10.8537
▁هەرێمەوە	-10.8538
▁توێژە	-10.8539
▁ئەمەی	-10.8541
▁2001	-10.8543
▁هەڵەبجه	-10.8546
▁یەپەگە	-10.8546
▁زەرەر	-10.855
ونەتەوە	-10.8554
▁ناسی	-10.8556
▁ئاخ	-10.8559
سار	-10.8559
▁سنە	-10.8562
▁سێبەر	-10.8567
دەنگ	-10.857
▁ڕۆمانە	-10.8571
▁کردوو	-10.8572
▁برایانی	-10.8573
ترا	-10.8577
سام	-10.8581
▁تایفی	-10.8581
هۆ	-10.8581
▁بۆمبی	-10.8587
▁هونەرە	-10.8588
▁خۆشبەختانە	-10.859
▁بڕۆن	-10.859
▁سەربەست	-10.859
▁نەخوازراو	-10.8593
دوا	-10.8598
▁گشتگیر	-10.8601
▁مر	-10.8605
▁دامودەزگاکانی	-10.8607
▁نوسی	-10.8608
▁کودەتا	-10.861
هاو	-10.8613
▁نابێتەوە	-10.8619
▁چاوم	-10.8619
▁ڕاشکاوانە	-10.862
▁بایدن	-10.8622
▁160	-10.8627
▁کۆنگرەکە	-10.863
جۆ	-10.863
▁دەیەی	-10.8631
▁نایابەکانی	-10.8631
▁کاربەدەس	-10.8632
▁لەرێگای	-10.8634
▁قانون	-10.8634
وب	-10.8634
▁ڕەخنەگرتن	-10.8636
▁ئەنفالکراوەکان	-10.8637
▁گورگ	-10.864
▁لەهۆڵی	-10.8642
▁هەشتەم	-10.8646
▁هەوڵەکان	-10.8647
چاک	-10.8648
اح	-10.8651
▁ئاگای	-10.8651
▁ڕەوتە	-10.8652
▁لەهەڵبژاردنی	-10.8654
▁پرۆژەکانی	-10.8657
▁لەگەلا	-10.8657
کردووەو	-10.866
▁گێڕانەوە	-10.8664
▁بەڕێزان	-10.8664
▁هێنایە	-10.867
▁کونسوڵی	-10.8671
▁ئاوەدانکردنەوە	-10.8674
بیا	-10.8676
گۆر	-10.8677
▁شێعرە	-10.8679
ڤەر	-10.8679
▁سووکایەتی	-10.8681
▁بیروڕای	-10.8681
▁کۆڵان	-10.8683
▁هەندرێن	-10.8684
▁کەرەستە	-10.8685
نام	-10.8686
کل	-10.8692
باب	-10.8693
لاند	-10.8697
▁کۆل	-10.8699
پەرست	-10.8701
▁زاراوەی	-10.8703
▁بنکەکانی	-10.8703
▁داوەتە	-10.8706
▁پێدەکەن	-10.8714
▁قاعیده	-10.8715
▁نار	-10.8719
ic	-10.872
▁اب	-10.8722
▁زمانەوانی	-10.8723
▁قۆڵی	-10.8723
I	-10.8723
اندنەوەی	-10.8729
▁سعودی	-10.873
▁گرنگیدان	-10.8732
▁پشک	-10.8732
▁شاره	-10.8733
▁بادینان	-10.8735
▁ئاماژەشی	-10.8735
▁ئەح	-10.8736
▁ڕەچاوی	-10.8739
▁000	-10.874
بکرێتەوە	-10.874
▁ڕووناک	-10.8743
اکان	-10.8743
▁قسانە	-10.8749
▁بابەتەکان	-10.8752
▁بخەینە	-10.8752
▁بریندارەکان	-10.8754
▁بەسەرپەرشتی	-10.8755
▁خەڵکەکە	-10.8756
▁کریم	-10.8756
▁تەک	-10.8757
▁کارنامەی	-10.8758
▁گەشتوگوزار	-10.8759
▁ئاوارەکانی	-10.8759
▁ئاشکراکرد	-10.8761
▁تاڵان	-10.8761
▁گەردوون	-10.8761
▁بەکورد	-10.8761
▁لێبوردنی	-10.8764
▁دوەم	-10.8767
▁دەمێکە	-10.8768
یدی	-10.8773
▁ئەفسانە	-10.8777
▁کایە	-10.8778
گرن	-10.8779
▁ئەت	-10.878
وێن	-10.8782
بز	-10.8783
▁ئایندەیەکی	-10.8783
سکۆ	-10.8784
گوت	-10.8785
▁ئاکام	-10.8788
▁هاوولاتیانی	-10.879
▁فرۆش	-10.879
▁سەرووی	-10.8796
▁ڕامان	-10.8799
▁تەق	-10.8805
▁دواکەوتوو	-10.8807
بێژ	-10.8808
▁ڕەتی	-10.8809
▁سەلەفی	-10.8809
▁شێرپەنجەی	-10.8809
▁بڕیارەی	-10.8812
▁پارچەی	-10.8819
▁ڕۆما	-10.882
▁پێوەندیی	-10.882
▁کوشتار	-10.8823
▁عەرەبە	-10.8824
▁کێن	-10.8825
▁برین	-10.8826
▁قەرەداغی	-10.8831
▁بڕیاردرا	-10.8832
▁پارەو	-10.8835
▁کرێی	-10.8837
▁بەیاننامەیەکی	-10.884
▁سودی	-10.8841
▁خەونە	-10.8844
▁جوتیاران	-10.8853
▁ئاخاوتن	-10.8858
▁فەیسبووک	-10.8858
▁هاوڕێکانی	-10.8862
▁ڕەوان	-10.8863
▁داخ	-10.8863
▁سەرەک	-10.8867
▁بەخشینی	-10.8869
▁تاد	-10.887
▁تەلەفۆنی	-10.8872
▁بەوپەڕی	-10.8874
▁شێوەیەی	-10.8874
et	-10.8875
▁لوبنانی	-10.8879
▁بەرنامەکانی	-10.8879
▁لەخولی	-10.8882
▁عەتا	-10.8888
▁شێعرەکانی	-10.8888
▁ئاوارەی	-10.889
▁جۆرێکی	-10.8892
▁مەع	-10.8893
▁ڕاسپارد	-10.8894
▁درکاند	-10.8901
▁سڕ	-10.8902
4	-10.8902
▁مەمک	-10.8907
جان	-10.8908
وپ	-10.8908
▁نوسراو	-10.8909
اڤ	-10.8912
لێت	-10.8912
▁پڕۆژەکانی	-10.8914
▁جێهێشت	-10.8915
le	-10.8917
▁ناوبانگی	-10.8918
▁ئەڵێن	-10.8919
▁ڕەوانە	-10.8919
C	-10.892
▁فاکتەری	-10.8921
▁بروسک	-10.893
ادە	-10.8931
▁نایەوێت	-10.8931
▁وتوێژ	-10.8935
▁فرۆشتن	-10.8938
▁دەگمەن	-10.8938
دەکەنەوە	-10.8946
▁ژەهراوی	-10.8946
▁یۆنیۆ	-10.8947
▁خۆرئاوای	-10.8949
وتە	-10.8952
▁دەرهێنان	-10.8952
▁قەزاو	-10.8956
▁کەنار	-10.8956
▁شێرپەنجە	-10.8956
وڵاتی	-10.8959
▁داواکارین	-10.8959
▁بردن	-10.896
▁لایەنانە	-10.8963
یمی	-10.8966
▁مەرجەکانی	-10.8966
▁لێکدانەوە	-10.8968
مۆن	-10.897
▁بزانم	-10.897
نەوەو	-10.8971
▁نەیار	-10.8971
▁مەعریفی	-10.8974
▁وێنەگرتنی	-10.8975
▁2002	-10.8975
▁دواییەی	-10.8975
دەکەوێت	-10.8977
▁نەیانتوانیوە	-10.8978
▁حاڵەتێکی	-10.8979
▁دگەل	-10.8982
▁بەهێزە	-10.8983
▁ئێش	-10.8983
▁پارەیەکی	-10.8984
▁ئەنجامدراوە	-10.8985
▁پیشە	-10.8986
▁بزر	-10.8987
▁کم	-10.8991
▁کوردییە	-10.8991
▁فۆتۆگرافی	-10.8992
▁پێداچوونەوە	-10.8992
▁مون	-10.8996
▁چەندەها	-10.8997
▁مێژووییە	-10.8997
▁زەبەلاح	-10.8999
▁تاقە	-10.9
▁تێپەڕبوونی	-10.9
▁هەڵنە	-10.9001
▁ستران	-10.9002
▁کاس	-10.901
اخ	-10.901
▁ناسینی	-10.901
▁ئاوە	-10.9011
▁سەرهەڵ	-10.9016
▁ئاسانکاری	-10.9019
▁زەمەنی	-10.902
▁تاچەند	-10.902
▁کەرت	-10.9021
هێشت	-10.9026
▁داواشی	-10.9027
▁عەشیرەت	-10.9028
▁خوێنەران	-10.9029
▁ناوەوە	-10.903
▁کێیە	-10.9031
▁مافەکانیان	-10.9032
▁دەبەستێت	-10.9033
▁داکۆکیکردن	-10.9033
گن	-10.9037
▁خەڵکەکەی	-10.9038
▁وەرگر	-10.9039
▁پاڵەوانیتی	-10.9039
شێت	-10.904
T	-10.904
▁کەسایەتیی	-10.9042
▁سەرمایەی	-10.9042
▁گرێبەست	-10.9052
▁پەرۆشی	-10.9052
▁پاشەکشەی	-10.9052
▁خاوەنەکەی	-10.9052
▁لەوڵاتانی	-10.9054
▁سادق	-10.9055
▁فلمێ	-10.906
▁خانو	-10.9062
▁پڕۆژه	-10.9064
▁قر	-10.9066
▁ناکەوێت	-10.9067
▁بڕیارەکەی	-10.9068
▁پلاندانان	-10.907
▁بەرن	-10.9071
▁قەدەر	-10.9072
▁چالاکییە	-10.9072
ستەر	-10.9072
▁هێند	-10.9076
▁دەکردو	-10.9077
▁شوێنانە	-10.9077
▁کۆمۆنیزم	-10.9078
▁هن	-10.9079
کۆل	-10.9082
▁گوێم	-10.9083
▁ئێسک	-10.9083
▁چەقۆ	-10.9085
▁ڕاستگۆ	-10.9086
▁وەزارەتەکان	-10.9086
▁دیاریکراوە	-10.9086
▁ئوسامە	-10.9087
▁پێوەری	-10.9089
دوور	-10.909
▁لەکۆبوونەوەکەدا	-10.9092
تێک	-10.9092
▁هانا	-10.9092
▁مسۆگەر	-10.9094
▁هاوتا	-10.9094
▁لل	-10.9096
▁فیدراسیۆن	-10.9097
▁خێزانە	-10.91
▁لێبووردن	-10.9101
▁گەمە	-10.9105
▁خانووبەرە	-10.9106
▁ڕەخنەگر	-10.9106
▁بڕیارەکە	-10.9108
ڤین	-10.9109
▁خۆپیشاندانەکانی	-10.9111
▁تەسک	-10.9114
راون	-10.9115
دڵ	-10.9118
▁کز	-10.9119
▁تواناو	-10.9119
▁سەنگ	-10.912
▁مێژوودا	-10.912
▁منداڵێک	-10.9121
▁هۆڵەندی	-10.9122
▁شارەزایانی	-10.9124
نانی	-10.9126
▁ڕابەری	-10.9126
▁تەرخانکراوە	-10.913
▁وەستاوە	-10.9131
▁بەشیر	-10.9132
▁تەنیشت	-10.9134
▁پارچه	-10.9136
پاش	-10.9137
▁پەیکەری	-10.9141
▁دیوی	-10.9144
▁وەرگێڕان	-10.9144
▁لێدوانەکانی	-10.9149
▁سڵ	-10.915
▁جیهانیدا	-10.9151
▁دەنگێکی	-10.9152
▁گەیاندە	-10.9153
وسی	-10.9158
▁ڕووبەڕوو	-10.9159
am	-10.9161
▁خراوەتە	-10.9162
▁پێشکێش	-10.9164
▁دەکەوێتەوە	-10.9168
▁تۆپباران	-10.917
▁نوجێفی	-10.9171
it	-10.9177
▁لادن	-10.9179
▁بڕۆ	-10.9183
پەیامنێر	-10.9185
▁دەخرێتە	-10.9185
▁مورسی	-10.9193
اغ	-10.9194
▁زانستە	-10.9194
▁غەدر	-10.9194
▁ئیسلامییە	-10.9202
▁بەخت	-10.9203
▁کارەکە	-10.9203
بانی	-10.9206
▁هۆکارەکەی	-10.9207
▁دەستەڵاتی	-10.9209
▁مەزنە	-10.921
وێنە	-10.9211
▁ئەمان	-10.9212
▁سەعد	-10.9216
▁خۆڕاگر	-10.9221
توان	-10.9222
▁تاکه	-10.9224
▁خانمان	-10.9226
▁بپرسین	-10.9231
▁جولەکە	-10.9231
▁دیدە	-10.9232
▁ڕەسەنی	-10.9233
▁سەفەری	-10.9233
▁دەباغ	-10.9239
▁شەم	-10.9242
لەگەڵ	-10.9243
▁خوو	-10.9243
▁گەورەیی	-10.9244
▁بباتەوە	-10.9246
▁لەلا	-10.9249
▁تاقیکردنەوە	-10.9249
▁پێنە	-10.925
▁یەکگرتنەوەی	-10.925
رات	-10.9251
▁هۆتێل	-10.9251
خانی	-10.9253
▁مریشک	-10.9256
▁گەشتیاران	-10.9257
▁سەرچاوەکان	-10.9261
▁هەریەکەیان	-10.9262
▁گفت	-10.9266
▁پێکهێنا	-10.9266
▁شوناسی	-10.9269
▁سواری	-10.9272
▁کەناری	-10.9272
▁پەنای	-10.9272
▁زانینی	-10.9274
▁لەیلا	-10.9274
▁ناسراوی	-10.928
▁گەنجێک	-10.9283
▁کۆشک	-10.9285
▁بێزاری	-10.9288
▁یادە	-10.9288
▁خەت	-10.9289
▁خولەکەکانی	-10.929
▁ڕێبەرانی	-10.929
حا	-10.929
▁وێنەگرتن	-10.9291
▁کوبانێ	-10.9291
50	-10.9291
▁تێڕوانین	-10.9295
▁ڕۆژان	-10.9298
▁نیه	-10.93
▁خەلیفە	-10.9301
▁دەروێش	-10.9302
▁بەهمەن	-10.9303
▁پشتیوانیی	-10.9304
▁بەشدارن	-10.9305
▁ساتێک	-10.9306
مەرج	-10.9307
▁نەدرێت	-10.9307
▁دەڵێیت	-10.9308
▁پێکەوەژیان	-10.9309
▁چەمک	-10.931
▁کۆمسیۆنی	-10.931
▁قوت	-10.9311
کراوەکان	-10.9315
▁جام	-10.9315
خوێن	-10.9317
▁بەئاوێنەنیوزی	-10.9323
١	-10.9324
▁باشیان	-10.9324
▁ئیتاڵیا	-10.9325
▁زانای	-10.9328
▁دابەزینی	-10.9329
بت	-10.9329
گێڕ	-10.933
ائی	-10.9333
▁شارێک	-10.9336
▁تاڕادەیەک	-10.9337
▁سلیمانی	-10.9338
▁تیرۆریستانی	-10.9342
▁تێپەڕی	-10.9343
▁2015	-10.9346
▁گەمارۆ	-10.9348
▁پێشانگایەکی	-10.9353
ترو	-10.9354
▁هێل	-10.9354
▁سەدە	-10.9355
▁باڵادەست	-10.9356
▁فۆڕم	-10.9357
▁حەج	-10.9357
▁نواندن	-10.936
شێو	-10.9361
▁ناتوانیت	-10.9362
▁بنکەیەکی	-10.9362
▁تازەیە	-10.9367
▁جێگا	-10.9369
ڕان	-10.9372
▁جین	-10.9379
▁٣	-10.938
▁کەربەلا	-10.9382
▁هەمە	-10.9382
▁دەیگوت	-10.9383
▁الب	-10.9385
ژم	-10.9388
ئاو	-10.9389
گەیاند	-10.9389
▁یارییەکەی	-10.9392
▁ڕاپۆرتە	-10.9394
22	-10.9395
قل	-10.9395
▁بدەیت	-10.9395
وف	-10.9396
▁ئەندازەی	-10.94
▁کڕین	-10.9401
▁ئەرسناڵ	-10.9402
ۆڕ	-10.9402
▁بدرێن	-10.9405
▁پەل	-10.9405
▁حاڵەت	-10.9408
▁گوڕ	-10.9408
▁ملم	-10.9412
▁ڕێککەوتنە	-10.9413
▁بڵاوکرایەوە	-10.9414
کانەوە	-10.9415
▁یه	-10.9421
▁تاوانەکان	-10.9422
▁دابنێن	-10.9423
▁یەکگرتوەکان	-10.9427
غی	-10.9428
▁فاشیزم	-10.9428
▁یەکیتی	-10.943
ندی	-10.9436
▁بەدیار	-10.9441
▁کوت	-10.9443
▁مەحکوم	-10.9443
▁نها	-10.9443
▁کۆمەڵگەدا	-10.9444
بەی	-10.9444
▁سەختە	-10.9445
▁نەگرت	-10.9446
▁پێهات	-10.9446
▁ترو	-10.9447
▁زین	-10.9447
▁بێگەرد	-10.9448
▁چارەسەرکردن	-10.9448
▁ئەخلاق	-10.945
▁شاعیرە	-10.9452
▁نازانین	-10.9454
وست	-10.9456
▁فەرمووی	-10.9456
سەی	-10.9456
قر	-10.9462
بووین	-10.9464
▁نادر	-10.9464
▁کۆبوونەوەیەدا	-10.9467
▁شمشێر	-10.9468
▁بەرژەوەندیەکانی	-10.9469
▁شوباتی	-10.9469
▁نوسراوە	-10.9471
▁مەترسیی	-10.9472
رەی	-10.9472
▁کارێ	-10.9473
▁سەرکۆماری	-10.9482
▁دیسەمبەر	-10.9484
گیان	-10.9486
▁باوەش	-10.9489
16	-10.9489
▁بۆندی	-10.9489
▁ئۆفیسی	-10.949
ەشەوە	-10.9492
▁جەزائیر	-10.9499
▁نەیارانی	-10.9501
▁ئەوجا	-10.9506
▁پەیڤ	-10.9506
ەکەیەتی	-10.9507
▁خانووی	-10.9507
▁وتارە	-10.9509
▁هەفتەیەدا	-10.9509
▁ئەلقاعیدە	-10.9509
شۆ	-10.9512
▁شیعەو	-10.9513
▁لێدوانێکیدا	-10.9514
▁لەهەردوو	-10.9516
▁بێژەر	-10.9517
ناکات	-10.9519
▁ئێرانیش	-10.952
▁کەمپینی	-10.9523
▁بکەنە	-10.9524
ێژ	-10.9526
▁ئێرانەوە	-10.9526
سال	-10.9533
▁وەرز	-10.9534
ئامێز	-10.9534
▁پەیوەندیان	-10.9535
▁ڕوداو	-10.9535
ۆد	-10.9536
▁ژنانە	-10.9536
راس	-10.9538
▁تەمەنیان	-10.9539
▁ناونیشان	-10.9539
▁لەکۆتاییدا	-10.9541
▁سڕینەوەی	-10.9541
ترن	-10.9544
▁ئەستەمە	-10.9546
▁دەیەوێت	-10.9547
▁دەرس	-10.9549
▁شۆڕشە	-10.955
▁عاشقی	-10.9551
▁ببینین	-10.9554
▁نەمسا	-10.9556
▁خەڵکەوە	-10.9557
▁سەرچاوه	-10.9558
▁بل	-10.9559
وای	-10.9562
▁ڕۆم	-10.9564
▁یو	-10.9565
▁تۆماری	-10.9565
▁تووڕە	-10.9567
▁کەئێستا	-10.9567
▁دەربچێت	-10.9572
▁حزبایەتی	-10.9572
نێر	-10.9572
▁لێدوانەکەی	-10.9576
▁شۆک	-10.9576
▁نالی	-10.9578
▁لاتینی	-10.9581
▁لۆژیک	-10.9582
▁ڕیکلام	-10.9583
▁هێزەکان	-10.9584
▁کیلۆ	-10.9586
▁دابڕان	-10.9589
▁ئامێز	-10.959
▁زام	-10.9594
▁خۆشم	-10.9594
إ	-10.9597
▁گەلێکی	-10.9598
▁هێنانەدی	-10.9599
▁وەزارەتە	-10.9601
▁هەمیش	-10.9602
بیل	-10.9602
▁یاریگا	-10.9602
▁مەحاڵە	-10.9603
ad	-10.9607
▁ئینگلتەرا	-10.9607
▁گرد	-10.9611
▁میانی	-10.9614
▁ڕووبار	-10.9614
▁نەتەوەیەکی	-10.9618
▁بانگی	-10.9619
▁جوانەکانی	-10.962
▁لەسنوری	-10.962
▁پێکدێت	-10.9625
▁خوایە	-10.9626
▁دەگەڕێن	-10.9626
▁ئەلیکترۆنی	-10.9626
▁ڕۆژهەلاتی	-10.9626
▁ئەبن	-10.9627
▁مع	-10.9628
10	-10.9629
▁دابڕاوەکان	-10.9631
▁ناڤ	-10.9633
▁ناڕاستەوخۆ	-10.9634
ژێت	-10.9636
z	-10.9636
▁میوە	-10.9638
▁پێشڕەوی	-10.9638
▁ڕۆیشتن	-10.9638
▁وەربگرین	-10.9638
▁گوزەر	-10.9639
▁نەفرەت	-10.9639
▁قەرەبووی	-10.964
▁پاشای	-10.9644
▁دەگوت	-10.9645
▁ئەزمون	-10.9646
▁بەناوبانگی	-10.9646
▁بەپلەی	-10.9647
▁کۆمەڵگەیەکی	-10.9648
▁دەمێک	-10.9648
▁حیکمەت	-10.9649
▁بیروباوەڕ	-10.9651
▁ئاشکراکردنی	-10.9652
▁دەرچووی	-10.9654
نەکراوە	-10.9654
▁دەستەواژەی	-10.9657
▁ئێراقی	-10.9657
▁120	-10.9657
▁گەشتیار	-10.9658
▁دەسته	-10.9658
دران	-10.9659
پێدانی	-10.966
ۆز	-10.9665
▁گومانلێکراو	-10.9665
▁پێگەیشت	-10.9665
▁ئادەم	-10.9667
ێکى	-10.9669
▁کەئەم	-10.9669
▁چارەسەرێکی	-10.9669
شکێن	-10.967
▁ناڕاست	-10.9671
▁ڕۆژگار	-10.9674
▁هەلومەرجە	-10.9674
▁سەفین	-10.9675
▁دەڤەرە	-10.9679
▁ڕاپۆرتەکە	-10.9679
▁بووبوو	-10.9684
▁ڕادیکاڵ	-10.9685
▁ئەمەریکای	-10.9689
▁ئاوازی	-10.9692
▁پردی	-10.9693
دیار	-10.9693
▁سنوورەکە	-10.9694
▁لایە	-10.97
▁ملکەچی	-10.97
▁دەرد	-10.9702
▁فەلاح	-10.9702
▁کەل	-10.9704
▁ئەجێندای	-10.9705
▁ماون	-10.9705
▁بابە	-10.9706
▁لێپرسراوانی	-10.9707
▁پاشکۆی	-10.9707
▁بەهرەمەند	-10.9708
▁لم	-10.971
▁توندڕەوی	-10.971
▁بەعسییەکان	-10.971
▁پشدەر	-10.9713
▁فریشتە	-10.9714
21	-10.9715
▁لەوەکرد	-10.9719
دەنگی	-10.972
▁ئەقڵ	-10.9726
▁لەبن	-10.9729
▁خۆشحاڵ	-10.9729
▁بەسەرچوو	-10.973
▁بەرزتر	-10.9733
▁هەور	-10.9734
▁برینداری	-10.9735
▁zwn	-10.9737
▁هەژاران	-10.9739
▁کری	-10.9741
▁لەکۆنگرەیەکی	-10.9743
▁ئازایەتی	-10.9746
▁پەرەی	-10.9747
تەنها	-10.9747
▁ابن	-10.9748
▁هه	-10.975
▁لەدایکبوونی	-10.9754
▁ناخ	-10.9755
دەستی	-10.9756
▁ئەنفالکراوان	-10.9758
▁ناسر	-10.9762
▁میت	-10.9764
▁سەربەرزی	-10.9764
▁ڕێوڕەسمی	-10.9765
▁لەزۆربەی	-10.9765
باش	-10.9766
▁ساڵەدا	-10.9767
▁دهوکێ	-10.977
▁پێبدرێت	-10.9776
▁تیڤی	-10.9777
▁جەنگاوەر	-10.9777
▁ئید	-10.9778
30	-10.9783
▁ڕێکخست	-10.9783
▁لەداهاتوودا	-10.9784
▁شەرعییەتی	-10.9785
سڵ	-10.9785
▁گەلەکەی	-10.9788
▁دەدوێت	-10.979
▁85	-10.9791
▁بەجێهێشت	-10.9793
▁بدەنەوە	-10.9795
▁جلی	-10.9795
▁پژاک	-10.9796
▁سەردانە	-10.9796
▁بەئاگا	-10.9799
▁ڕەشە	-10.98
▁کۆمەڵەکانیش	-10.98
▁لەنزیکەوە	-10.9801
▁موقتەدا	-10.9801
▁org	-10.9802
▁ڕووباری	-10.9802
▁ئام	-10.9802
▁هەناردەکردنی	-10.9806
▁ئەنجوومەن	-10.9807
ئێ	-10.9808
▁هەبووەو	-10.9808
دێر	-10.9809
▁ڕێکخراوه	-10.981
دەبێتەوە	-10.981
▁هەرزان	-10.9811
▁گەڕاندنەوەی	-10.9812
▁هێنرا	-10.9816
▁یەحیا	-10.9816
ویانە	-10.9818
▁فراوانکردنی	-10.9818
▁نمایشکردنی	-10.982
▁شارۆچکەکانی	-10.9821
قو	-10.9821
▁ڕوونیشی	-10.9822
▁ماو	-10.9822
▁پەرست	-10.9822
▁ئێمەیە	-10.9825
بابەت	-10.9826
▁پەسند	-10.9827
▁هەستە	-10.9828
▁پێرس	-10.9831
▁سەرئەنجام	-10.9831
▁پڕۆژەیەک	-10.9834
▁جوگرافیای	-10.9836
▁نیسانی	-10.9838
▁پێکەوه	-10.9839
▁دەرئەنجامەکانی	-10.9839
▁بەڕێوەبردن	-10.984
▁ئیرادە	-10.9843
▁دەکرێ	-10.9845
▁چیدی	-10.9845
▁ڕێگایەکی	-10.9845
▁لەبارەوە	-10.9849
▁جنێو	-10.9853
▁قەوارەی	-10.9853
▁دەگەن	-10.9855
▁پاداشت	-10.9859
▁هەرێمیش	-10.9859
▁هێرشبەر	-10.9861
▁ئیز	-10.9862
▁گار	-10.9863
کەرەوە	-10.9865
▁مرۆڤدا	-10.9865
▁هیند	-10.9868
▁ئەفسەری	-10.9868
▁بەرزترین	-10.9872
کردنەوەو	-10.9873
▁کەمئەندام	-10.9875
▁دراون	-10.9875
▁جارێکیتر	-10.9876
▁شیاوی	-10.9878
▁کش	-10.9882
▁جەمسەر	-10.9885
▁بەهەمانشێوە	-10.9887
▁بگەین	-10.9888
▁تووشبوون	-10.9888
▁تایمز	-10.9889
▁خواردنەوەی	-10.9892
▁گەڕایەوە	-10.9893
▁یۆنانی	-10.9894
▁لەناوچەکە	-10.9901
▁مانایەی	-10.9902
▁کەسایەتییەکی	-10.9904
▁سەلاح	-10.9906
دەکەم	-10.9906
▁دەگیرێت	-10.9907
▁جینۆسایدی	-10.9907
کیان	-10.9908
سیاسی	-10.9909
▁ئێستایش	-10.9911
بەن	-10.9914
کۆمەڵ	-10.9914
▁بۆری	-10.9917
▁زاهیر	-10.9918
داد	-10.9918
قەی	-10.9919
▁دراوی	-10.9919
▁دامەزراوەکانی	-10.9919
▁پەرەسەندنی	-10.9919
کۆی	-10.992
زمی	-10.9921
سور	-10.9922
▁لافاو	-10.9923
پاڵ	-10.9929
▁خاڵێک	-10.993
▁گەیاندووە	-10.9941
▁لەجیهاندا	-10.9943
▁k	-10.9943
▁مەم	-10.9944
▁شۆرشی	-10.9945
▁کامیان	-10.9945
▁تەلاری	-10.9949
▁قەززافی	-10.995
▁بیابان	-10.995
▁پاڵەوانەکانی	-10.9951
▁حمە	-10.9953
کای	-10.9953
▁گەڕا	-10.9953
▁کردوه	-10.9954
▁ناسیۆنالیزم	-10.9955
▁مس	-10.9957
▁ئەزموونێکی	-10.9957
▁تایبەتمەندیی	-10.9958
as	-10.9962
▁L	-10.9963
▁پیشەسازیی	-10.9963
▁میهرەبان	-10.9964
▁ئەمجارەیان	-10.9969
رم	-10.997
▁تیژ	-10.997
▁ناگرێت	-10.9972
شک	-10.9976
▁دەهێنرێت	-10.9977
▁پارێزگاکە	-10.9984
تیکی	-10.9985
▁داوی	-10.9986
▁بەرزنجەیی	-10.9987
▁ئەنتەرمیلان	-10.9988
▁جۆش	-10.9988
▁هاتوونەتە	-10.9988
▁لەلێدوانێکدا	-10.9993
▁شۆڤێنی	-10.9995
▁کەسایەتییە	-10.9995
▁دانیش	-10.9996
▁نەرێنی	-10.9997
▁پەرلەمانتارە	-10.9999
▁دێتەوە	-10.9999
▁ڕیشەیی	-11
▁72	-11
ُّ	-11.0003
▁بەرپرسیاریەتی	-11.0003
▁دینارە	-11.0006
▁ڕاستیەکان	-11.0007
خاڵ	-11.0008
▁وازی	-11.001
▁منداڵەکە	-11.0011
▁بڵاوکردۆتەوە	-11.0013
▁میلیشیا	-11.0015
▁ڕەهای	-11.0017
▁لاوەکی	-11.0017
▁سۆرانی	-11.002
▁ئەمنیەکان	-11.0025
▁بەچاوی	-11.0026
ۆتە	-11.0029
▁دەگێڕێتەوە	-11.0029
ناز	-11.003
ئەحمەد	-11.003
▁لەبەرامبەریشدا	-11.003
▁پێشووتر	-11.003
▁ئۆڵۆمپی	-11.0031
▁مۆزەخانەی	-11.0031
▁ئامرازی	-11.0036
▁دەهێنا	-11.0037
▁مەکە	-11.0042
▁لێدەکەن	-11.0043
▁شانۆکار	-11.0043
▁گرتوە	-11.0043
▁خاوێن	-11.0044
▁یارمەتیدەر	-11.0045
▁پابەندبوون	-11.0047
▁ڕستە	-11.0048
▁پەروەر	-11.0051
▁هەتاوی	-11.0054
▁ئەمریکاوە	-11.0054
دێن	-11.0059
▁دانوستاندن	-11.0062
▁قسەیان	-11.0062
▁ئێواران	-11.0063
▁مارک	-11.0063
▁شەشەمی	-11.0065
▁ئەستەم	-11.0066
▁گرفتەکان	-11.0066
▁میترۆ	-11.0067
▁ئەکەین	-11.0068
▁داعشەوە	-11.0071
▁برادەر	-11.0072
▁چێلسی	-11.0074
▁ئەندامەی	-11.0074
▁تەع	-11.0075
لەند	-11.0081
▁خایاند	-11.0082
ریس	-11.0082
▁سەوا	-11.0083
▁قاچ	-11.0085
▁62	-11.0089
▁دراوسێی	-11.0091
▁ئەنجامێکی	-11.0092
▁زەمان	-11.0093
▁کۆت	-11.0095
▁نەش	-11.0095
▁بڵاویکردۆتەوە	-11.0096
▁لینین	-11.0096
▁نالین	-11.0096
نیش	-11.0098
بەت	-11.0101
زل	-11.0102
▁وەلام	-11.0103
ڵاو	-11.0106
▁جەهانگیری	-11.0106
▁خواستەکانی	-11.0106
▁جیاوازن	-11.0108
▁دەبرێت	-11.0116
▁پێب	-11.0117
کۆش	-11.0118
▁نەتەوەکان	-11.0119
▁عبد	-11.012
▁کێشا	-11.0121
٠	-11.0122
▁کۆنترۆڵکردنی	-11.0123
▁بزاڤی	-11.0123
▁لەپرۆسەی	-11.0128
پیاو	-11.0128
گوێ	-11.0128
▁دیدارەکەدا	-11.0128
▁بەڕێوەبچێت	-11.0129
▁ڕۆژنامەکان	-11.0129
▁کارگە	-11.0131
▁داوایکرد	-11.0132
▁دایه	-11.0132
la	-11.0134
▁داوەتەوە	-11.014
▁داهاتو	-11.014
▁ڕانە	-11.014
▁کارزان	-11.0141
▁ئازادانە	-11.0144
▁مەعسوم	-11.0145
▁تاقمە	-11.0146
▁کۆنتڕۆڵی	-11.0147
▁نیشاندانی	-11.0151
▁ئێم	-11.0152
▁سەپاند	-11.0154
▁دنیایە	-11.0154
▁وڵاتەکە	-11.0155
تەی	-11.0156
▁گوڵە	-11.0158
▁پێگەیەکی	-11.0159
12	-11.0162
▁کوتله	-11.0163
▁دەستپێکرد	-11.0164
40	-11.0164
▁داهێنەر	-11.0164
▁ئیئتلافی	-11.0168
ەڵا	-11.0169
▁نائومێدی	-11.0174
▁دەبرد	-11.0174
▁دووەمیان	-11.0176
▁زانکۆکان	-11.0179
▁بدۆزێتەوە	-11.0181
▁بەڵ	-11.0182
▁چاودێران	-11.0182
▁مەراسیمی	-11.0183
▁دوازدە	-11.0183
▁وەڵامدانەوەی	-11.0188
سەت	-11.0189
▁فەلەستینی	-11.0192
▁ڕۆژنامەگەریی	-11.0194
وەتە	-11.0194
▁شەکر	-11.0194
▁لەوێش	-11.0196
▁ئاستێک	-11.0204
▁بخرێت	-11.0209
▁R	-11.0211
شەم	-11.0212
رز	-11.0213
▁خێرای	-11.0213
▁حەزم	-11.0213
▁شیعریی	-11.0213
▁لەشار	-11.0215
▁بڕوایان	-11.0217
▁دیالۆگی	-11.0218
فل	-11.0219
بۆتەوە	-11.0222
▁گوێز	-11.0222
▁دەسەڵاتەکانی	-11.0222
▁توندڕەوەکان	-11.0223
زمان	-11.0223
▁دروستدەکات	-11.0226
▁خۆکوشتن	-11.0228
▁ئاشتەوایی	-11.0229
▁دیوە	-11.0232
▁بەپێویستی	-11.0234
▁ڕوح	-11.0237
▁دەسەڵاتدارێتی	-11.0238
▁کەهەموو	-11.0242
▁بەلجیکا	-11.0244
▁ئەوروپادا	-11.0245
▁چێنراو	-11.0248
▁هیندی	-11.0249
▁دەنگدانەوە	-11.025
ڵەی	-11.0252
▁دابڕێنراوەکان	-11.0255
▁هەڵگرتنی	-11.0256
▁کتێبێکی	-11.0257
▁لەئێستا	-11.0259
▁شەوێک	-11.0269
▁شمەک	-11.0271
20	-11.0274
ێری	-11.0278
▁لەیەکێک	-11.0278
دەو	-11.0281
▁گۆڕاوە	-11.0282
▁وەربگیردرێت	-11.0282
پان	-11.0283
▁ئەنجامە	-11.0284
▁بەرگەی	-11.0285
▁کەمئەندامان	-11.0286
ڕای	-11.0287
▁مەح	-11.0287
▁ڕووناکبیری	-11.0288
▁ئێمەو	-11.029
▁کۆمیتە	-11.0291
▁زور	-11.0295
▁تەکنەلۆژیای	-11.0295
▁سروشتییەکان	-11.0296
ژان	-11.0297
▁بۆیەش	-11.0297
▁کول	-11.0301
▁سەنگی	-11.0301
▁بێکار	-11.0303
گوێز	-11.0304
▁دەستپێک	-11.0306
▁دژایەتیکردنی	-11.0306
▁درێژەدان	-11.0308
▁خوێ	-11.0312
▁نەگەیشت	-11.0312
ەکانیانەوە	-11.0314
▁کوڕان	-11.0315
▁لەمەش	-11.0319
▁مەز	-11.0319
▁نوس	-11.0321
▁کێشانەی	-11.0322
▁فل	-11.0324
▁پێکهاتبوو	-11.0329
رێژ	-11.0329
▁چەم	-11.0329
▁چۆنە	-11.0331
▁دێرسیم	-11.0332
زادە	-11.0334
▁واڵا	-11.0335
▁کەسەکان	-11.0336
▁ض	-11.0339
▁لێپرسراو	-11.0344
▁ئەمەیان	-11.0344
▁هێناو	-11.0346
▁خانی	-11.0348
یۆ	-11.0348
▁پەیوەندیەکی	-11.0348
▁شێعردا	-11.035
▁پێشان	-11.0352
▁لەمەوپێش	-11.0355
▁ڕەخنەو	-11.0359
▁میری	-11.036
▁بەڕەسمی	-11.036
▁پڕکردنەوەی	-11.0362
▁دۆنم	-11.0363
▁دەکاتەوه	-11.0367
▁وەدەست	-11.0371
▁مەکسیک	-11.0372
چن	-11.0372
▁لێکردن	-11.0373
ڕاست	-11.0374
▁باشترکردنی	-11.0376
اون	-11.0378
ێنراو	-11.0379
▁لەناوچەکانی	-11.0379
▁ساختەکاری	-11.038
▁بەرێت	-11.0381
▁سالارکەرکوکی	-11.0383
▁گولە	-11.0383
▁لەبەشی	-11.0386
▁نەدراوە	-11.0388
▁نەیویست	-11.0388
▁هەقیقەت	-11.0388
▁هەڵس	-11.0388
▁بارو	-11.039
▁بۆماوەی	-11.039
▁کادیر	-11.039
▁تورکەکان	-11.0392
▁کەژاڵ	-11.0394
▁سەرکەوتنێکی	-11.0394
▁گرانی	-11.0395
▁مرۆ	-11.0396
▁کەموکورتی	-11.0397
کیش	-11.0397
▁کەمپی	-11.0398
▁کەسوکار	-11.0402
▁ناساند	-11.0404
▁دیم	-11.0406
▁هۆز	-11.0413
گەیشتن	-11.0414
▁بۆمبڕێژکراو	-11.0416
▁ڕوونکردنەوەیەک	-11.0417
▁زستان	-11.0421
▁چەکدارە	-11.0422
▁نەکراو	-11.0426
پێچ	-11.0427
▁سەرچاوەکە	-11.0431
بکەم	-11.0432
خواست	-11.0432
بەسەر	-11.0441
زین	-11.0443
▁میدیایی	-11.0449
بەم	-11.045
▁گۆشەی	-11.0451
▁کۆنفرانسەکە	-11.0451
▁فێرکردن	-11.0452
▁1990	-11.0453
▁لەبەرانبەر	-11.0455
▁پارتێکی	-11.0455
▁ناوێت	-11.0456
▁be	-11.0458
▁کوشتووە	-11.0462
▁وام	-11.0463
خراپ	-11.0466
افی	-11.0466
▁نەزان	-11.0466
اژ	-11.0466
▁پەک	-11.0467
▁شێخان	-11.0467
▁ناوبژیوان	-11.0472
▁تیرۆرستان	-11.0472
▁ئەکا	-11.0472
▁نەگۆڕ	-11.0473
▁لوتکە	-11.0473
▁شارەدا	-11.0474
▁بۆردومانی	-11.0474
▁بەرنامەکە	-11.0475
▁حەبیب	-11.0477
▁الف	-11.0477
▁ئەکرەم	-11.0478
▁سەرا	-11.0478
وازی	-11.0479
▁نادروست	-11.0479
▁نابێتە	-11.0479
▁پێشهات	-11.0483
▁بۆچونی	-11.0489
▁کتێبەکە	-11.049
▁نموونەیەکی	-11.0491
▁ڕۆشنبیرانی	-11.0492
▁شوێنەی	-11.0494
▁تۆڵە	-11.05
▁پێشمەرگه	-11.0501
▁کیمیابارانی	-11.0501
▁یارمەتیی	-11.0503
▁کامێرا	-11.0504
دور	-11.0505
▁هەیانە	-11.0506
▁تاکەکەس	-11.0508
▁پلانە	-11.0508
▁هێمنی	-11.0513
▁عەبدولمەهدی	-11.0518
▁دووچاری	-11.0518
▁ئەکادیمیای	-11.0519
▁جیهانییەکان	-11.0519
▁پرۆگرام	-11.052
▁هەڵدا	-11.0523
▁خۆشمان	-11.0525
▁زۆرمان	-11.0526
هام	-11.0527
▁ئارارات	-11.0529
▁درێژکردنەوەی	-11.053
▁مات	-11.0531
▁چەن	-11.0531
▁زنجیرەیەک	-11.0535
▁خوێندنگە	-11.0537
▁گیراو	-11.0538
▁سام	-11.0541
▁دەسەڵاتداری	-11.0541
▁قسەیە	-11.0545
▁بک	-11.0549
مەندی	-11.0551
▁بەندکراو	-11.0552
▁زەرەرمەند	-11.0555
▁سۆسیالیستی	-11.0555
35	-11.0556
▁میللەتە	-11.0557
▁دەمە	-11.0558
▁بەکاتی	-11.0559
لیک	-11.056
رۆی	-11.056
▁ڕاکێش	-11.0562
▁بەبەراورد	-11.0562
▁شەهرستانی	-11.0563
▁مووسڵ	-11.0564
ۆتەوە	-11.0565
▁نەزانی	-11.0566
▁بای	-11.0567
▁کۆمە	-11.0568
▁بەرلەوەی	-11.0569
▁هەڤال	-11.0572
▁خولێکی	-11.0574
▁لەبەردەست	-11.0576
O	-11.0576
زانین	-11.0578
دید	-11.0579
▁بەردەوامەو	-11.058
▁سەددام	-11.0582
▁ئەک	-11.0582
▁بتوانرێت	-11.0584
▁داوەت	-11.0587
▁دادو	-11.0587
▁پڕۆسەی	-11.0589
▁w	-11.059
▁فێستیڤاڵ	-11.059
▁لەیاریی	-11.0591
▁شەممەی	-11.0592
سوو	-11.0593
ێوەبەرایەتی	-11.0595
▁زاراوە	-11.0598
ەکانیشی	-11.0599
زه	-11.06
▁دەشت	-11.0601
▁گۆڕانکارییە	-11.0603
▁گەمارۆی	-11.0604
▁کۆبوونەوەکەی	-11.0606
▁ساتی	-11.0606
▁حیزبەکەی	-11.0607
▁تازه	-11.0609
▁دەیانەوێت	-11.061
▁یەکانی	-11.061
▁کراوەتە	-11.0615
▁کرده	-11.0616
بەها	-11.0617
▁بەدر	-11.0618
▁ئابی	-11.0618
▁ئیبن	-11.062
ڵێ	-11.0621
▁کوردا	-11.0627
▁نەبی	-11.0631
ئین	-11.0631
▁سەرەوەی	-11.0631
▁مەغریب	-11.0633
▁تکریت	-11.0633
▁گۆشتی	-11.0638
▁فراکسیۆن	-11.064
90	-11.0642
▁دووەمدا	-11.0642
بەڕ	-11.0642
▁لێکراوە	-11.0644
▁سنووردار	-11.0645
▁ڕەز	-11.0647
▁بیرۆکە	-11.0648
▁لەوڵاتی	-11.0648
▁عێراقیەکان	-11.0649
▁گفتوگۆکانی	-11.0654
نان	-11.0654
▁ئێوەی	-11.0656
▁ڕابگرێت	-11.0657
▁دەربر	-11.0657
▁ئەنجامبدرێت	-11.0658
▁پەرلەمانتارێکی	-11.0659
▁دەنێن	-11.0659
▁ڕۆژوو	-11.066
▁ئیقلیمی	-11.0661
▁آ	-11.0662
▁حیزبانە	-11.0664
وخ	-11.0664
▁گفتوگۆیان	-11.0665
▁لێبێت	-11.0666
▁نیوان	-11.0666
18	-11.0668
▁تێنسی	-11.0668
▁کاراکتەری	-11.0669
▁ڕێگەیان	-11.067
▁ساڵێکە	-11.067
▁هەڵوێستەی	-11.0671
▁لەرێی	-11.0673
▁گفتوگۆیەکی	-11.0673
ەمان	-11.0674
▁ڕوژ	-11.0674
یۆن	-11.0677
خۆشی	-11.0678
▁یەکخستنی	-11.0679
▁گەشتی	-11.0679
▁ژوورەوە	-11.0681
▁ڕەوشە	-11.0682
▁باسمان	-11.0684
یستی	-11.0688
▁بەڕێزیان	-11.0689
▁ئەوروپاو	-11.0689
▁نەکەوت	-11.0689
▁میللەتەکەمان	-11.0691
▁بەناوبانگ	-11.0691
ەکانیدا	-11.0692
▁بیروباوەڕی	-11.0692
▁سەردانێکی	-11.0692
▁ڕۆڵەی	-11.0694
هەوڵ	-11.0696
▁گوی	-11.0698
فرین	-11.0698
جن	-11.0699
▁ئەلبوم	-11.0701
▁شێوەیه	-11.0702
▁سل	-11.0703
▁هەندەران	-11.0703
▁بەختەوەر	-11.0704
▁ات	-11.0705
▁شکاند	-11.0706
▁قەڵادزێ	-11.0707
▁پەیکەر	-11.0708
کوشتن	-11.0709
▁ڕەحمەتی	-11.071
▁سەنگاوی	-11.0714
49	-11.0715
▁پەیامە	-11.0717
▁بەسوود	-11.0718
هاتوو	-11.0718
▁یاریزانێکی	-11.0719
▁ئەویتر	-11.072
▁گفتوگۆو	-11.0722
▁ئۆتۆمبێلێک	-11.0722
ئەندام	-11.0723
ماوە	-11.0726
▁قسانەی	-11.0732
▁دەستپێشخەری	-11.0737
▁بڕگە	-11.0738
▁هەمبەر	-11.074
▁ڕاز	-11.0741
▁قوربان	-11.0741
▁ئایەت	-11.0744
▁قورسە	-11.0747
▁مای	-11.075
▁مندالان	-11.0751
قۆناغ	-11.0754
▁کەلوپەلی	-11.0755
▁شەونم	-11.0755
▁تەقەی	-11.0756
▁توانیمان	-11.0757
ماڵی	-11.0758
▁مەرجێک	-11.0759
▁پێشمەرگایەتی	-11.0759
▁تێیاندا	-11.0761
▁ئایندەدا	-11.0762
▁کوردێک	-11.0764
▁برسێتی	-11.0765
▁دوعا	-11.0769
▁هاوکێشە	-11.0775
کراوەو	-11.0775
▁کچەکە	-11.0775
▁الش	-11.0775
▁لێنە	-11.0777
دواتر	-11.0779
▁بەکردەوە	-11.078
کاتە	-11.0783
▁دانووستان	-11.0783
▁بەردەوامبوونی	-11.0783
▁تەوەر	-11.0784
▁بدۆزنەوە	-11.0786
تاڵ	-11.0788
▁کۆنەکان	-11.0789
▁مەست	-11.0791
سیا	-11.0792
▁حکومییەکان	-11.0793
▁ڕاگەیاندنەکانی	-11.0794
▁بەرنامه	-11.0794
▁هێنانە	-11.0794
▁کارئاسانی	-11.0794
▁700	-11.0795
▁کۆمۆنیست	-11.0796
▁کۆتر	-11.0796
▁کردۆتەوە	-11.0799
▁لەناکاو	-11.0801
▁نایاب	-11.0801
▁ڤه	-11.0802
▁نیشت	-11.0803
▁ساڵیدا	-11.0805
▁1975	-11.0808
▁یاوەر	-11.081
▁زلهێز	-11.0811
▁63	-11.0812
کانیش	-11.0812
▁ئەوەکرد	-11.0813
▁عەبدولقادر	-11.0818
▁کەوتنی	-11.082
▁تەقەیان	-11.0823
▁پاساوی	-11.0824
نیا	-11.0825
مەرگ	-11.0825
▁پڕۆژەیاسای	-11.0826
▁فڕ	-11.0832
▁دیکتاتۆرییەت	-11.0832
▁نامەیەک	-11.0835
دۆر	-11.084
کرابوو	-11.084
▁سیروانی	-11.0841
▁وەزارەتەکانی	-11.0841
ستین	-11.0843
▁پراکتیکی	-11.0845
▁بارهەڵگر	-11.0846
▁خستەسەر	-11.0847
▁مێردەکەی	-11.0847
▁دەربڕیوە	-11.0848
▁باقی	-11.0851
▁ڕووبدات	-11.0852
▁بمێننەوە	-11.0855
سای	-11.0859
▁مەخمور	-11.0859
▁ئاگایی	-11.086
▁کێشەکەی	-11.0861
▁لەرۆژی	-11.0861
▁ئاسوودە	-11.0862
▁بەکارهێناوە	-11.0867
▁ڕاس	-11.0868
▁دەستکەوتەکانی	-11.087
▁ڕژێمەکەی	-11.0873
▁ناوەندەکانی	-11.0875
▁سنوورە	-11.0876
▁جۆراوجۆرەکانی	-11.0876
▁شل	-11.0876
▁سەربازانی	-11.0877
▁ئەوەم	-11.088
▁سەعدییە	-11.0881
▁ئافرەتێکی	-11.0883
▁پرسیارانە	-11.0884
اع	-11.0885
▁ژەهر	-11.0887
گرە	-11.0888
بیست	-11.0889
▁لەخۆیدا	-11.0889
یف	-11.0891
▁بخەن	-11.0893
▁هێڵە	-11.0894
▁دووپاتیکردەوە	-11.0895
▁کپ	-11.0896
▁هەوڵدەدات	-11.0898
▁داخوازییەکانی	-11.0898
▁ئەمریکای	-11.09
▁ئاماژەم	-11.09
▁نگ	-11.0901
▁گوێگرتن	-11.0901
▁لادان	-11.0902
رة	-11.0904
▁سەرمایەدار	-11.0904
برد	-11.0905
▁مەند	-11.0906
▁برۆ	-11.0906
بکەینەوە	-11.0907
کردە	-11.0908
▁گیروگرفت	-11.0911
▁لێدەکەوێتەوە	-11.0912
▁پچڕ	-11.0912
▁کردین	-11.0913
▁قایل	-11.0914
▁خوالێخۆشبوو	-11.0918
▁شوێنانەی	-11.0919
▁حیکایەت	-11.092
▁باند	-11.0925
لات	-11.0935
تەو	-11.0935
▁ئاشت	-11.0936
▁بەڕ	-11.0937
▁ئازادیخوازان	-11.0938
▁ڕەوشتی	-11.0938
کاتێک	-11.0939
▁برەو	-11.094
▁حوسنی	-11.0942
▁خولە	-11.0943
▁عبداللە	-11.0944
سەن	-11.0944
▁ئایدۆلۆژی	-11.0945
▁وتەکانی	-11.0946
▁مەراسیم	-11.0947
▁ئەمنیەکانی	-11.0947
▁نەشیاو	-11.0949
پۆ	-11.0949
▁شۆڕشگێڕی	-11.095
▁جوولەکە	-11.0953
▁وەسفی	-11.0953
▁بیناسازی	-11.0954
▁کارت	-11.0954
▁بەدڵ	-11.0956
▁جیاوازدا	-11.0958
کردووەتەوە	-11.0958
▁درز	-11.0959
▁خوی	-11.0963
٢	-11.0965
▁هەڤ	-11.0965
▁جووت	-11.0971
پێکردنی	-11.0973
▁اس	-11.0975
▁وەهم	-11.0977
▁سەلماندنی	-11.0977
یەکەم	-11.0977
▁سایکۆلۆژی	-11.0978
▁هەرێما	-11.098
▁102	-11.0984
الا	-11.0987
گیرس	-11.0987
مەد	-11.0993
▁کینە	-11.0996
▁مناڵ	-11.0996
▁دەگرین	-11.0996
ارد	-11.0996
▁نیزامی	-11.0997
▁نییەبۆ	-11.0998
مال	-11.0998
▁سرووشتی	-11.0999
ۆلۆژی	-11.0999
کردنێکی	-11.1
▁دۆڵ	-11.1
▁بابەتەکانی	-11.1001
▁بەهەند	-11.1006
▁بەرەبەیانی	-11.1006
لێک	-11.1007
▁بەهاو	-11.1007
تاش	-11.1008
▁دڵنیاییەوە	-11.1009
▁دۆڕاو	-11.1011
▁سەرمایەداران	-11.1011
▁ئامادەبوو	-11.1012
▁ژین	-11.1013
▁خانەوادە	-11.1013
▁دانیشتنەکانی	-11.1013
▁هەناسەی	-11.1015
▁دەستگیرکراون	-11.1016
▁ناساندن	-11.1017
پێی	-11.102
رب	-11.1023
▁لەولات	-11.1024
▁هەنار	-11.1024
▁ڕێنماییەکانی	-11.1025
ورە	-11.1026
لة	-11.1028
▁زەحمەتە	-11.1032
▁هاوپەیمانەکانی	-11.1036
▁نارەزایی	-11.1037
▁دەرب	-11.1037
▁ماڵێک	-11.1038
▁فێ	-11.1041
بەرپرس	-11.1041
▁کۆمەڵایەتیەکان	-11.1041
▁بۆچون	-11.1044
تدا	-11.1044
▁لێهات	-11.1046
▁تەقی	-11.1047
▁بەسەرهات	-11.1047
هێل	-11.1048
وج	-11.1049
▁بیانییەکان	-11.1049
▁دەمێننەوە	-11.1052
خەیاڵ	-11.1052
▁توێژەکانی	-11.1052
باد	-11.1053
▁چاودێریکردنی	-11.1054
▁هاوبیر	-11.1055
▁پێکردنی	-11.1056
▁دانرا	-11.1057
پار	-11.1061
لانی	-11.1061
▁68	-11.1066
▁کچەکەی	-11.1068
گواز	-11.1072
▁شەفاف	-11.1073
▁پەرتوک	-11.1073
▁جیاوازییەکی	-11.1077
▁کامل	-11.1078
▁هەرکاتێک	-11.108
▁مەسیحییەکان	-11.1081
▁دابەشکردن	-11.1081
▁شاجوانی	-11.1083
▁لەگەڵیاندا	-11.1083
▁1979	-11.1086
▁قورئانی	-11.1088
گوڵ	-11.1089
▁دەستگیرکرد	-11.1093
▁بۆنە	-11.1093
کردەوه	-11.1093
▁ئامادەکردن	-11.1093
▁کۆبوونەوەکان	-11.1094
▁ئەنجومەنە	-11.1095
▁لیستەکەی	-11.1095
▁مۆم	-11.1097
▁ڕیسوا	-11.1099
▁هەقی	-11.1099
▁ڕەوەندی	-11.1101
▁ڕوخساری	-11.1101
▁چەکدارێکی	-11.1102
▁عەممار	-11.1102
▁ئاک	-11.1102
مەسعود	-11.1103
▁فریاکەوتن	-11.1103
نەتەوە	-11.1103
▁سەرەرای	-11.1106
▁دیاریکراودا	-11.1107
تاک	-11.1108
▁لاوازە	-11.111
▁دەگەڕێت	-11.111
▁لەماڵ	-11.1111
▁بێئەوەی	-11.1112
ژا	-11.1113
▁پای	-11.1113
▁بەخشین	-11.1115
▁شۆ	-11.1119
▁بەقەد	-11.112
▁دڵە	-11.1121
▁درەخت	-11.1121
▁تورکیاش	-11.1125
▁دەرفەتێکی	-11.1126
چوار	-11.113
ێنرێت	-11.1131
یای	-11.1131
▁دەخۆن	-11.1131
▁بۆته	-11.1135
▁ڕوونە	-11.1135
گوڕ	-11.1137
▁ئەوەدا	-11.1139
▁یەنایەر	-11.114
▁پشووی	-11.114
M	-11.1143
ولە	-11.1147
▁بۆچوونەکانی	-11.1149
▁واشنتۆن	-11.1152
بگرن	-11.1155
▁نابین	-11.1156
▁تۆیە	-11.1156
جل	-11.1157
▁کەلێن	-11.1159
▁ناوچەکان	-11.1161
▁مەترسیدارە	-11.1163
▁تاپۆ	-11.1165
▁کتێبێک	-11.1166
نیشان	-11.117
▁گروپێک	-11.117
▁ئیمزای	-11.1172
▁ئێر	-11.1174
▁هەڵبژاردنێکی	-11.1178
▁تێپەڕاندنی	-11.1179
▁فەڕەنسی	-11.118
یانکرد	-11.118
بەرز	-11.1183
یەتە	-11.1183
▁مۆدێلی	-11.1184
کەڵ	-11.1184
▁ڕووداوه	-11.1187
▁61	-11.119
یشمان	-11.1192
ینگ	-11.1193
▁قێزەون	-11.1193
▁ستەمکار	-11.1195
▁کێشاوە	-11.1198
▁بێر	-11.1202
▁تاکەکەسی	-11.1203
▁توانرا	-11.1204
▁ئەفغانی	-11.1205
▁بیکات	-11.1206
▁بینەران	-11.1208
▁مەودای	-11.1208
▁قایم	-11.1209
ch	-11.1209
▁دادی	-11.1211
▁مرۆییەکان	-11.1211
▁سکالا	-11.1212
▁خۆجێی	-11.1213
▁پارتەکەی	-11.1215
▁ڕێگەگرتن	-11.1215
اتە	-11.1216
ەکانیشیان	-11.1219
▁بێتاوان	-11.1219
▁حەم	-11.1221
▁ناوزەد	-11.1221
▁ئێجگار	-11.1223
▁بەتۆمەتی	-11.1223
▁نەتەوەییەکان	-11.1226
▁عا	-11.1227
▁داواش	-11.1229
▁داستان	-11.123
▁هاوین	-11.1231
یەکیش	-11.1232
▁بگە	-11.1234
▁ئەمساڵیش	-11.1239
▁چالاکوان	-11.124
رێک	-11.124
▁دەستکەوتە	-11.1241
99	-11.1241
▁بەخش	-11.1241
تەن	-11.1242
▁نەخش	-11.1247
▁سەرەخۆشی	-11.1249
▁زێر	-11.1249
▁هەشتەمی	-11.1251
▁شێواندنی	-11.1254
▁تەعریب	-11.1254
▁لەمە	-11.126
▁یەکیان	-11.1261
▁ئەسڵی	-11.1262
لیس	-11.1265
▁لەهەمو	-11.1265
▁ڕاگرت	-11.1267
▁زیاتریش	-11.1267
ro	-11.1268
بەردەوام	-11.1269
▁دیبلۆماسی	-11.1272
▁ناوەڕۆک	-11.1273
واری	-11.1275
▁نەجیب	-11.1277
▁بەڕۆژ	-11.1279
▁کڵاو	-11.128
▁67	-11.1282
▁حیزبەکانی	-11.1289
▁دڵەڕاوکێ	-11.129
▁دەڵێ	-11.129
▁زووترین	-11.1291
▁دەسەلاتدار	-11.1292
▁بکەر	-11.1293
▁بەدوا	-11.1293
▁شرۆڤە	-11.1294
زیان	-11.1295
▁ڕیک	-11.1295
▁بەنا	-11.1301
▁خۆپیشاندانەکە	-11.1301
▁سوتەمەنی	-11.1303
17	-11.1308
▁جیابوونەوەی	-11.1311
▁بیانوو	-11.1311
▁V	-11.1312
▁زەوت	-11.1315
▁پێشڕەو	-11.1316
▁بازرگانیی	-11.1319
▁ڕاپۆرتەکەی	-11.1321
▁هاوردە	-11.1322
نار	-11.1327
▁شەڕەکە	-11.1328
▁ڕەو	-11.133
▁بەرفراوانی	-11.133
▁پەرتووک	-11.1332
▁دێته	-11.1333
▁کۆمەڵایەتییە	-11.1333
▁شەوانە	-11.1334
▁چەوساوە	-11.1334
us	-11.1337
▁گواست	-11.1339
▁دەرو	-11.134
▁هەندی	-11.134
▁سەرنووسەری	-11.134
▁ئەگەرنا	-11.1343
▁ئێمەوە	-11.1343
▁گەڵاڵە	-11.1344
▁بابل	-11.1345
▁چەوری	-11.1346
▁فرانس	-11.1347
کەین	-11.1351
▁پێکهێناوە	-11.1355
▁پڕوپاگەندەی	-11.1355
▁شانبەشانی	-11.1358
▁ملیارو	-11.1359
▁پەرت	-11.136
ئامانج	-11.1361
▁مزگەوتەکان	-11.1361
▁فیدرال	-11.1362
زن	-11.1365
▁تۆمارکراوە	-11.1365
id	-11.1367
▁پەڕ	-11.1369
▁لەهەمبەر	-11.1371
یاس	-11.1373
▁باسکردن	-11.1373
).	-11.1374
▁بیستەم	-11.1375
▁77	-11.1377
▁زر	-11.1378
یب	-11.1381
▁کۆد	-11.1385
▁حکومەتەوە	-11.1386
▁شیعی	-11.1387
کوڕ	-11.1388
11	-11.1389
▁شۆفێری	-11.1389
ریف	-11.1391
▁گروپه	-11.1393
▁توخم	-11.1396
14	-11.1399
زاد	-11.1402
▁بەرەوڕووی	-11.1404
دز	-11.1406
▁بتوانم	-11.1408
▁پارێزگەها	-11.1408
▁پلا	-11.1409
▁کوردن	-11.1409
▁پێکدادانی	-11.141
▁وەفا	-11.1412
▁گەرەکی	-11.1412
▁مۆدێرنە	-11.1412
▁زێدە	-11.1414
▁ڕادەگەیەنێت	-11.1414
▁دەستەبەرکردنی	-11.1416
▁دەوڵەتێک	-11.1416
▁سازکردنی	-11.1417
فو	-11.1418
هەوا	-11.1418
▁هەمیشه	-11.142
▁ئەنجومەنەکە	-11.142
▁دەکوژرێن	-11.142
▁ئەوەشکرد	-11.1421
▁تاوانبارانی	-11.1421
▁خزمەتکردن	-11.1422
سوور	-11.1422
وایه	-11.1424
▁موس	-11.1425
▁کوم	-11.1427
▁جەلیل	-11.1428
▁لەسەرەتادا	-11.1428
تون	-11.143
▁چۆتە	-11.1431
▁بکاتەوەو	-11.1432
▁دەگە	-11.1434
تەری	-11.1434
▁حوزەیرانی	-11.1434
▁بەنێو	-11.1435
▁مالی	-11.1436
▁بەدەنگ	-11.1438
▁لەسێدارەدانی	-11.1439
▁بەخێرایی	-11.144
▁ناهێڵێت	-11.1441
▁لەکۆبوونەوەی	-11.1443
▁باڵاکانی	-11.1443
▁چر	-11.1443
دارە	-11.1444
▁هام	-11.1444
▁ڕۆڵیان	-11.1444
▁دەستگیرکرا	-11.1444
▁دۆلارە	-11.1445
▁ئیدریس	-11.1445
▁دەستبەکار	-11.1446
▁بریارە	-11.1451
▁دابەزی	-11.1452
▁توندوتیژ	-11.1453
ویت	-11.1454
▁لێمان	-11.1455
▁ئیداریی	-11.1456
▁دەگێڕێت	-11.1456
▁تۆی	-11.1458
▁کەمبوونەوەی	-11.1458
▁الص	-11.1458
man	-11.1459
ئێمه	-11.1461
▁فۆ	-11.1461
▁هەڵکەوت	-11.1463
▁تێکچوونی	-11.1463
▁لەچەندین	-11.1464
▁ڕامیاریی	-11.1464
▁هەڵمەتە	-11.1465
▁ئیر	-11.1465
▁قەڵای	-11.1467
▁ترین	-11.1469
▁لەمەو	-11.147
▁گەڵا	-11.1471
▁دائە	-11.1473
▁ڕۆژاوا	-11.1476
▁ڕاستگۆیی	-11.1476
▁بوێر	-11.1477
▁بیرە	-11.1478
نەبوونی	-11.1479
▁پەرلەمانەوە	-11.1482
گرین	-11.1482
شێخ	-11.1482
▁دەکرێنەوە	-11.1483
▁مەقام	-11.1483
▁ئینگلیز	-11.1485
▁ترسناکە	-11.1486
▁هەژدە	-11.1488
ناکرێت	-11.1488
▁ڕایگەیاندبوو	-11.1489
چەک	-11.149
▁ڕۆناڵدۆ	-11.149
▁هەڵدەگرێت	-11.1491
▁دەڕۆن	-11.1493
▁جم	-11.1493
▁ڕاستیی	-11.1494
▁فیشەک	-11.1494
▁دەبوون	-11.1496
▁فەریق	-11.1496
▁بەمەرجێک	-11.1497
▁ئوم	-11.1501
بارە	-11.1503
▁مەبەستمان	-11.1503
▁گروپ	-11.1506
▁گڵ	-11.1507
▁مسۆگەرکردنی	-11.1512
لق	-11.1514
▁چونە	-11.1514
▁کۆمەڵگاو	-11.1514
▁فەرموو	-11.1515
▁پیلانی	-11.1516
▁پێڵاو	-11.1522
ڵێت	-11.1527
رێنەوە	-11.1529
▁کوش	-11.153
▁ڤ	-11.1531
R	-11.1531
▁ڕێگەیەکی	-11.1532
کین	-11.1536
▁خەڵکیش	-11.1538
▁بەرتەسک	-11.1541
▁پەند	-11.1542
▁فەرمانڕەوایی	-11.1542
ۆلی	-11.1544
▁ئەفریقیا	-11.1544
دەبێ	-11.1545
▁باڵاو	-11.1546
رۆن	-11.1547
▁گەشبین	-11.1548
▁دەوامی	-11.1548
▁ئەرجەنتین	-11.1552
▁هاندان	-11.1554
▁هاوشێوە	-11.1555
▁خەڵاته	-11.1555
▁گوندە	-11.1556
▁بەرامبەردا	-11.1556
کەوتوو	-11.1556
▁چاوەکانی	-11.156
▁لەماوەیەکی	-11.156
▁ئەمجۆرە	-11.1561
▁لەسێدارەدان	-11.1561
▁بد	-11.1561
▁ئینسانەکان	-11.1563
▁کۆمەل	-11.1568
▁بیمەی	-11.1568
▁کەهەر	-11.1568
▁گور	-11.1569
▁مەلیک	-11.157
▁تائیفی	-11.1571
▁فێربوون	-11.1571
▁کیژ	-11.1572
▁ئەبوو	-11.1574
▁لەتەمەنی	-11.1575
▁مەشقی	-11.1579
▁تاوتوێکرد	-11.1579
▁ئارادایە	-11.1579
▁هەو	-11.1581
▁موسل	-11.1582
▁بەڵگەنامەی	-11.1582
▁دڕندانە	-11.1583
▁1980	-11.1584
▁شێوازێک	-11.1587
▁کراس	-11.1588
▁بوین	-11.159
▁ماک	-11.159
▁بەشێوازی	-11.1591
▁بەبەشداری	-11.1592
زیاتر	-11.1592
▁بەچ	-11.1595
▁بارزان	-11.1595
▁پسپۆری	-11.1596
▁ئازادە	-11.1596
▁سەرەتاوە	-11.1596
▁ناعەدالەتی	-11.1596
▁پارێز	-11.1596
▁کەسێ	-11.1597
▁بایەخدان	-11.16
▁سەروو	-11.16
▁ئەدای	-11.1603
▁فەرماندە	-11.1605
▁چێندراو	-11.1607
▁جیهانیی	-11.161
▁کۆب	-11.1613
▁دەمەی	-11.1614
▁گیرفانی	-11.1617
هۆی	-11.1621
▁جگەلەوەی	-11.1621
▁دەبو	-11.1622
▁بلا	-11.1622
▁سیا	-11.1628
اندان	-11.1629
▁فاشی	-11.163
5	-11.1633
▁جەختیان	-11.1635
یزمی	-11.1636
ناوی	-11.1638
▁ناسیۆنالیزمی	-11.164
دارەکان	-11.164
▁تەرم	-11.1641
80	-11.1641
چان	-11.1642
▁مۆسیقای	-11.1643
▁خەڵکانێک	-11.1643
▁سینەماکار	-11.1643
خور	-11.1644
▁تیرۆرستی	-11.1644
▁سەرکوتکردنی	-11.1647
▁ئایاری	-11.1648
▁مەتری	-11.1649
دەکا	-11.1652
▁شەفافییەت	-11.1655
▁ئاسانتر	-11.1658
▁800	-11.1659
▁سەلمان	-11.1659
مس	-11.1659
▁کاسب	-11.1661
▁جەماوەریی	-11.1661
اوەتەوە	-11.1662
▁گوتویەتی	-11.1662
▁دەستێوەردانی	-11.1663
جر	-11.1664
▁دەرفەتە	-11.1668
▁ناکاتەوە	-11.1669
▁بردنەوە	-11.1669
▁چالاکیی	-11.1671
▁جیاکاری	-11.1673
▁حەیدەری	-11.1676
▁محمد	-11.1676
▁باڵیۆز	-11.1681
▁منەوە	-11.1682
▁نەبووەو	-11.1686
بڕین	-11.1687
مة	-11.1689
داوای	-11.1689
ایەکی	-11.1689
▁نووسەرو	-11.169
▁یۆرانیۆم	-11.1697
مەتی	-11.1701
▁واتایەکی	-11.1703
▁ناوەرۆک	-11.1704
▁بەبیر	-11.1705
▁ڕێژە	-11.1706
گال	-11.1712
▁دەسەڵاتیان	-11.1713
▁ام	-11.1714
▁شاهۆ	-11.1714
▁هەندێکجار	-11.1714
▁بارودۆخێکی	-11.1715
▁دید	-11.1715
▁قادری	-11.1717
▁زنجیره	-11.1717
▁ستار	-11.1718
▁ڕوخسار	-11.1718
▁بەشێوازێکی	-11.1719
حزب	-11.1721
▁ڕووخاندنی	-11.1725
زیر	-11.1725
▁دەخوات	-11.1729
▁العرب	-11.173
▁لەیەکێتی	-11.1731
▁76	-11.1731
▁ئەوروپای	-11.1734
▁وێڵ	-11.1734
▁قسەیەکی	-11.1735
▁لەکاری	-11.1735
▁دونیا	-11.1736
▁میز	-11.1737
▁بەیاسا	-11.1738
▁ڵا	-11.1738
▁لایەنانەی	-11.1739
▁قەرەبووکردنەوەی	-11.174
▁ڕوبەڕوی	-11.1745
▁بەرەکانی	-11.1747
▁ڕادەیەکی	-11.1748
▁لوقمان	-11.1749
وڕ	-11.1749
▁دوژمنایەتی	-11.1753
▁شەبەک	-11.1754
▁کن	-11.1758
بەین	-11.1758
چک	-11.1759
▁هۆنراوە	-11.1759
▁دیارترین	-11.1762
وویەتی	-11.1763
خات	-11.1765
▁جادە	-11.1769
▁کڕیار	-11.177
▁لەسێ	-11.1771
▁شاخەوان	-11.1772
▁یازدە	-11.1777
بگرێت	-11.1779
sh	-11.178
بکە	-11.1781
▁واقیعە	-11.1781
▁جەعفەری	-11.1782
▁دیاربەکر	-11.1782
▁کێوی	-11.1782
▁بەسەریدا	-11.1786
هەست	-11.1787
▁دابڕاو	-11.1787
▁on	-11.1789
تاب	-11.179
▁بیرمەند	-11.1791
پۆش	-11.1792
▁فریو	-11.1793
پەنا	-11.1795
پێویست	-11.1796
▁کوردیەکان	-11.1796
▁پەیمانگەی	-11.1798
دیا	-11.1801
▁تەعبیر	-11.1802
▁فیلمەکەی	-11.1804
▁ئەواندا	-11.1805
ۆت	-11.1806
▁لەشکر	-11.1806
▁فەیسبوک	-11.1807
▁قەبوڵ	-11.1807
▁لەزانکۆی	-11.1809
▁وەرگرتنەوەی	-11.1809
▁ئاماژەشیدا	-11.181
▁v	-11.181
▁ئەدەبیات	-11.1812
▁نازی	-11.1814
▁دەموچاو	-11.1815
▁گەندەڵیی	-11.1816
خەون	-11.1817
▁ئەد	-11.1819
▁کورستان	-11.1819
▁سیمینار	-11.182
قول	-11.182
▁هێور	-11.1822
▁وابێت	-11.1822
▁خاکە	-11.1826
▁لەمیسر	-11.183
▁لەئەنجامدا	-11.1832
▁فاروق	-11.1833
▁ئەڵ	-11.1833
▁حو	-11.1833
▁بەواتای	-11.1834
ییەتی	-11.1836
▁نێردراوە	-11.1836
▁ڤیتۆ	-11.1837
▁لەباری	-11.1838
▁زەنگی	-11.1838
▁نەتوانن	-11.1839
▁پارەیەی	-11.1839
▁گوشاری	-11.1845
▁حازر	-11.1846
▁فرۆکە	-11.1847
▁پلەو	-11.185
▁بگۆڕن	-11.1852
داوا	-11.1852
▁گوێبیستی	-11.1855
ەلە	-11.1856
▁ڕێگەیەوە	-11.1857
▁مێزی	-11.1858
زاری	-11.1859
گور	-11.1859
▁سالم	-11.1859
▁چەق	-11.186
▁کۆتاییهێنان	-11.1861
▁میلەت	-11.1863
es	-11.1864
▁هێنایەوە	-11.1865
▁سەیدسادق	-11.1866
▁گری	-11.1867
▁ئۆتۆمبیلی	-11.187
▁شاعیران	-11.187
▁هەوادارانی	-11.1871
▁ڕۆژا	-11.1872
▁قەیرانێکی	-11.1874
▁هەژموونی	-11.1876
▁ئەشکەوت	-11.188
▁هەفته	-11.1882
یج	-11.1885
▁نیگار	-11.1886
▁1000	-11.1886
▁سیر	-11.1886
عەبدول	-11.1886
▁بەهێزترین	-11.1887
▁مەش	-11.1887
▁مامەند	-11.1888
▁نازناو	-11.1888
▁ئامێر	-11.1888
▁وامان	-11.1888
▁تۆزێک	-11.1889
▁مت	-11.1891
▁ڕکابەر	-11.1893
▁ناوبانگ	-11.19
باو	-11.19
▁عەرەبیدا	-11.1902
▁دەستەو	-11.1905
▁پێکهاتەکان	-11.1906
▁شێروان	-11.1909
▁ئاکار	-11.1909
▁ئەمڕۆدا	-11.191
▁إلی	-11.191
ابی	-11.191
ووس	-11.1911
▁وەفدەکە	-11.1912
▁چەواشە	-11.1917
▁شەریک	-11.1918
▁لەساڵانی	-11.1919
▁کۆنەپەرست	-11.1921
▁1970	-11.1926
▁گوناه	-11.1929
▁پیاوەکانی	-11.1929
▁سەراسەری	-11.193
صر	-11.1931
▁مەسیح	-11.1932
ەندی	-11.1932
رت	-11.1933
▁لەپڕ	-11.1935
▁دەستوورە	-11.1937
▁تۆماربکات	-11.1937
▁خۆماندا	-11.1938
▁دەستکەوتێکی	-11.1938
▁ڕۆلی	-11.1938
▁بازاڕەکانی	-11.194
▁چالاکیەکانی	-11.194
ییەت	-11.1941
وەرگرتن	-11.1942
▁ستەمکاری	-11.1943
▁دێموکراتەکان	-11.1943
یەم	-11.1943
▁هەنگوین	-11.1944
▁مەینەتی	-11.1944
▁ستاندارد	-11.1944
▁لیژنەکانی	-11.1944
پرسیار	-11.1946
▁تاکێک	-11.1946
▁بەراز	-11.1946
▁مایۆ	-11.1948
▁وأ	-11.195
▁ئەندامێتی	-11.195
▁ڕێزو	-11.1952
▁دوورخستنەوەی	-11.1954
▁پەخشان	-11.1954
▁سەیارە	-11.1955
▁چالاکوانانی	-11.1956
▁فیدڕاڵ	-11.1956
▁دەریایی	-11.1956
▁هەناردەی	-11.1956
ادەی	-11.1958
▁سەرکردەکان	-11.1959
▁مێژویی	-11.1963
وەست	-11.1964
▁ساڵێکی	-11.1965
▁هەشتا	-11.1968
لف	-11.1969
راد	-11.1969
▁شیعه	-11.1969
▁سالانە	-11.197
▁تۆڕە	-11.1975
▁ئیحسان	-11.1976
▁66	-11.1977
▁دەگەر	-11.1978
▁ڕفیق	-11.1978
▁بەشێکن	-11.1978
▁بارەگاکانی	-11.1981
▁گرنگییەکی	-11.1984
▁شەرعییەت	-11.1985
▁بش	-11.1987
▁بەردەوامیش	-11.1988
▁عەبد	-11.199
▁فەیلەسوف	-11.199
▁هەلبژاردن	-11.199
▁دەکەنە	-11.1992
ation	-11.1992
ەکەیاندا	-11.1994
▁ئامانجێکی	-11.1996
▁چاپەمەنی	-11.1996
ڤار	-11.1998
▁پاککردنەوەی	-11.1999
▁تێکستی	-11.2
▁مندا	-11.2003
ul	-11.2005
▁خرا	-11.2006
▁لێرەو	-11.2007
▁هێشتنەوەی	-11.201
لێر	-11.201
▁تەوافوقی	-11.2011
رف	-11.2012
▁قەلا	-11.2012
▁ئینت	-11.2014
▁خەڵاتە	-11.2017
▁پێنجەمی	-11.2018
▁زانیاریانەی	-11.2018
▁ڕەوت	-11.2018
▁شارەزایان	-11.2019
▁کۆچکردوو	-11.2019
▁ڕۆژنامەنوسی	-11.202
پەرستی	-11.2022
▁لەخۆیان	-11.2022
▁فازڵ	-11.2022
▁بچووکی	-11.2023
▁کەوتوون	-11.2024
▁حسن	-11.2025
▁شاکر	-11.2025
▁سمکۆ	-11.2028
▁عەبدولعەزیز	-11.2029
▁شەقامەکانی	-11.2032
▁سەرەکیەکانی	-11.2033
▁هەناردە	-11.2034
▁بەحرەین	-11.2035
▁هەمویان	-11.2035
▁تۆر	-11.2039
▁بەئاژانسی	-11.204
▁پێویستیی	-11.2043
▁بەرازیلی	-11.2044
▁باسم	-11.2044
▁بەکاریان	-11.2049
▁باسێکی	-11.2051
▁گفتوگۆیەک	-11.2051
ناک	-11.2051
ووک	-11.2053
ماو	-11.2053
▁بەمە	-11.2055
▁نەزاهە	-11.2055
▁کۆبوونەوه	-11.2058
یڤ	-11.2061
▁پیری	-11.2061
دەکرا	-11.2061
ڕەوی	-11.2062
▁هەستیاری	-11.2063
وونی	-11.2064
▁زەردەشتی	-11.2064
▁هەلومەرج	-11.2065
ولات	-11.2067
چەر	-11.2068
▁نەقشبەندی	-11.2068
کانم	-11.2073
▁گەرما	-11.2078
▁خزمەتێکی	-11.2078
▁باڵە	-11.2082
▁إن	-11.2085
▁پەیامێک	-11.2087
▁ناڤێ	-11.2087
▁بەفیڕۆ	-11.2088
▁ئاشتیانە	-11.2089
ئامادە	-11.209
▁بەرپرسیاری	-11.2092
▁هەڵبژاردنەکە	-11.2093
▁مەرامی	-11.2097
▁دیدارێکی	-11.21
یەکم	-11.21
▁پل	-11.2102
li	-11.2102
▁ڕەسول	-11.2104
▁کاربکەن	-11.2107
▁دەیبینین	-11.2107
▁گیرفان	-11.2108
▁خەر	-11.211
▁تەلار	-11.2112
x	-11.2114
▁قور	-11.2115
لس	-11.2116
▁بزانە	-11.2117
▁ببەخشێت	-11.2117
▁وەرگێر	-11.2117
▁ئایدیا	-11.2119
▁تاکتیک	-11.2119
▁پوچەڵ	-11.212
باڵ	-11.212
08	-11.2122
پیر	-11.2127
▁مناڵان	-11.2127
ێین	-11.2127
▁بزوتنەوەکە	-11.2128
▁توێژ	-11.2128
یەوەو	-11.2128
؟	-11.2129
▁هەبن	-11.2129
▁ئەمریکییەکان	-11.2136
▁بەکارهێنان	-11.2137
▁بەلاوە	-11.214
▁ببەستێت	-11.2142
▁پاوان	-11.2143
▁دەستپێ	-11.2144
▁پەیمانگاکان	-11.2145
▁لەکورد	-11.2146
▁زیادە	-11.2146
▁بەنداوی	-11.2149
▁دێڕ	-11.215
جەلال	-11.2151
▁دیوان	-11.2152
▁ژمارەیە	-11.2153
▁داگیرکەرانی	-11.2154
▁فیستیڤاڵە	-11.2154
▁ڤیتامین	-11.2155
▁ئۆمەران	-11.2155
▁بەزووترین	-11.2155
▁فرسەت	-11.2155
▁لەبە	-11.2157
▁ژیانم	-11.2161
هاتن	-11.2166
تەوەو	-11.2167
▁بنچینە	-11.2168
▁دیکەشەوە	-11.2169
▁زمانێک	-11.2174
▁تاڵە	-11.2174
▁ئیلهام	-11.2175
▁دروستبووە	-11.2175
▁سەرکەوتنیان	-11.2175
گاری	-11.2176
▁دەچ	-11.2177
▁چرا	-11.2178
▁نەقیب	-11.218
▁ئەوانەوە	-11.218
▁پەیامەکەی	-11.218
▁زادە	-11.2182
▁دیزاینی	-11.2186
▁دەرێ	-11.2186
▁سەربەستی	-11.2189
▁شیرینی	-11.2194
▁ئەلعێراقییە	-11.2195
▁هاندەر	-11.2197
▁دڵخۆشی	-11.2198
▁چوارچێوە	-11.2199
▁مارکسی	-11.2202
خەو	-11.2203
▁زەنگ	-11.2205
▁نەمام	-11.2206
مل	-11.2207
▁یەکڕیزیی	-11.221
▁ڕووخاو	-11.2217
▁شاردنەوەی	-11.2221
خاوەن	-11.2224
▁دامەزراو	-11.2225
شەر	-11.2226
▁دیو	-11.2227
▁ڕێکخستنەکانی	-11.2229
▁درۆی	-11.2229
▁بگەیەنن	-11.2231
▁شەرمەزار	-11.2232
▁بەرپ	-11.2232
▁پارکی	-11.2233
▁تەقلیدی	-11.2233
▁پیادەکردنی	-11.2236
▁پەت	-11.2236
▁ئۆتۆنۆمی	-11.2236
▁بەرهەمهێنەر	-11.2238
▁دەگەڕێنەوە	-11.2238
▁هەڵگرتووە	-11.2239
▁هاتبێت	-11.2241
▁ناردووە	-11.2244
اڵح	-11.2245
▁سوار	-11.2246
▁جلوبەرگی	-11.2246
▁سازکرا	-11.2247
▁کڕ	-11.2249
▁تیرۆریستییەکان	-11.2249
▁پەتی	-11.225
▁لەشی	-11.2252
▁گۆڕانکارییەکانی	-11.2252
شان	-11.2252
▁واژوو	-11.2255
▁ڕاپۆڕتی	-11.2256
▁سنورەکانی	-11.2256
▁چواردە	-11.2259
07	-11.226
ۆکە	-11.226
▁دەخایەنێت	-11.2262
▁ماد	-11.2264
ستەم	-11.2265
▁1998	-11.2265
▁کەمترە	-11.2266
الیزم	-11.2266
ووش	-11.227
▁خوداوەند	-11.227
ەسمی	-11.2271
▁پارتەکانی	-11.2271
تەمەن	-11.2273
▁زانیوە	-11.2274
▁خۆکوژ	-11.2275
▁لێکراو	-11.2276
▁کامە	-11.2276
▁منداڵەکان	-11.2276
▁لەزیندان	-11.2276
▁فڕین	-11.2277
▁موزایەدەی	-11.2277
▁دادگایەکی	-11.2277
▁هەنگاوەی	-11.2278
سول	-11.2279
▁ساڵەکانی	-11.2279
▁دیکتاتۆرەکان	-11.228
▁بەشوێن	-11.2281
▁داگیرکاری	-11.2282
▁یاریدەدەر	-11.2283
▁دەستکرد	-11.2283
▁گێل	-11.2285
▁دەرخستنی	-11.2285
سات	-11.2287
▁تەوا	-11.2287
باسی	-11.2288
▁خۆشیەوە	-11.2291
▁ئاژانسەکان	-11.2292
بوار	-11.2292
▁کۆدەنگی	-11.2292
▁سیخوڕی	-11.2293
▁پەتای	-11.2294
گەیەکی	-11.2294
▁قوباد	-11.2295
▁ئابوریی	-11.2295
▁کتێبەکانی	-11.2298
▁جیدی	-11.23
▁زەحمەتکێش	-11.2302
▁تۆز	-11.2303
▁سیم	-11.2303
▁بۆنموونە	-11.2303
حاڵی	-11.2306
▁شانازیی	-11.2307
▁ناش	-11.2309
▁دەخەینە	-11.2309
▁لەوان	-11.2309
ویل	-11.231
▁نۆڤەمبەر	-11.2314
▁سازی	-11.2314
چونی	-11.2314
▁سەرەکییە	-11.2316
کێی	-11.2316
▁سەرجەمی	-11.2319
▁بازنە	-11.2319
▁خوازی	-11.2319
6	-11.232
▁بەخشرا	-11.232
پارێزی	-11.2321
▁هاتبوون	-11.2323
ia	-11.2323
▁نامەیە	-11.2325
▁پۆستەکەی	-11.2325
جه	-11.2327
▁ڕەواندزی	-11.2328
▁هۆشیاریی	-11.2328
▁پێشوودا	-11.2333
لۆن	-11.2334
▁کێڵگەی	-11.2334
ti	-11.2334
درۆ	-11.2334
▁جیاجیاکان	-11.2335
▁سوننەت	-11.2335
▁فلیم	-11.2339
▁وتووە	-11.2341
▁تکا	-11.2341
مایە	-11.2342
▁خوێنەرانی	-11.2343
خوارد	-11.2343
▁پاڵپشت	-11.2343
▁سەنگەری	-11.2343
▁لێدێت	-11.2344
▁مەد	-11.2345
▁بەپ	-11.2345
▁ئاپۆ	-11.2348
▁مور	-11.2348
▁دەیویست	-11.2348
▁بەرکەوت	-11.2351
▁دەخو	-11.2353
یشم	-11.2353
▁سینەماکانی	-11.2356
▁خۆشەویستیی	-11.2356
▁ئێزدییەکان	-11.2356
▁لەئەندامانی	-11.2357
▁بەنرخ	-11.2357
▁کوو	-11.2359
▁لێکۆڵینەوەکان	-11.2359
▁قۆڵ	-11.2359
▁لەمافی	-11.2363
▁دەمێ	-11.2363
v	-11.2364
امە	-11.2365
▁ئاستەی	-11.2367
گونج	-11.2367
▁قەزاکە	-11.2368
▁خێڵەکی	-11.2369
▁دانیشتوانەکەی	-11.2369
کەرکوک	-11.237
▁گرینگە	-11.2371
▁بۆخۆیان	-11.2372
ییەکە	-11.2372
▁بەدەسەڵات	-11.2372
▁بژاردەی	-11.2372
▁یارییەدا	-11.2373
▁لەچوار	-11.2374
▁ناوێکی	-11.2374
▁گوتمان	-11.2377
▁مەترسییەکانی	-11.2378
فێر	-11.238
▁ئەنجامدەدرێت	-11.2381
▁گوندەکە	-11.2383
گەیاندنی	-11.2384
▁لەئە	-11.2386
▁بەناچاری	-11.2386
▁ئەلمانیا	-11.239
▁هاولاتی	-11.2392
▁دەرک	-11.2392
▁ژنەکەی	-11.2392
▁مشت	-11.2393
32	-11.2393
▁سینەماکارانی	-11.2394
ڕاو	-11.2397
▁براو	-11.2397
▁سلێمانیدا	-11.2397
▁سەقەت	-11.2401
▁وەزار	-11.2403
▁کەمتەرخەم	-11.2404
▁توێژەران	-11.2404
دەگرێت	-11.2405
▁کۆنەپەرستی	-11.2405
▁تەزویر	-11.2412
یەن	-11.2413
▁بەکەس	-11.2413
▁هێناوەتە	-11.2417
▁ژێ	-11.2421
▁جگەلە	-11.2421
▁پێتان	-11.2422
▁سپ	-11.2422
▁یەکگرتو	-11.2425
▁دەقێکی	-11.2429
کۆم	-11.2429
لێدان	-11.243
▁کاتێکدایە	-11.2431
▁هالیوود	-11.2433
▁سەڵاحەدین	-11.2434
ەکى	-11.2436
▁بەردەستی	-11.2439
▁ئەسعەد	-11.244
▁هەنگاونان	-11.2441
وزی	-11.2441
▁بەغداد	-11.2446
▁سەرما	-11.2446
▁هاوشانی	-11.2453
▁قۆ	-11.2453
▁ئامارێکی	-11.2454
وڵڵا	-11.2456
ێنیت	-11.2458
▁مح	-11.2459
▁یۆتۆبۆری	-11.246
▁وێنەکان	-11.2463
▁بەرقەرار	-11.2464
▁بەجیا	-11.2465
▁توڕەیی	-11.2467
▁فیلمێک	-11.2468
▁دڵیان	-11.2469
▁دەسەڵاتێک	-11.2469
▁ڕم	-11.2469
▁64	-11.2475
▁دەرامەت	-11.2475
▁عەل	-11.2476
▁سایت	-11.2477
▁t	-11.2481
im	-11.2483
▁ڕۆن	-11.2487
▁هەناوی	-11.2488
▁دەرزی	-11.2488
▁کەرکوکدا	-11.2489
▁بایرن	-11.2489
▁لەکوردستانی	-11.249
گەیشت	-11.2493
مات	-11.2495
▁لەوه	-11.2495
▁پێبکات	-11.2495
▁جیهانیش	-11.2496
▁1987	-11.2497
▁گوێیان	-11.2501
▁هەوال	-11.2501
▁دووجار	-11.2503
▁دیمەنەکانی	-11.2504
سکا	-11.2506
▁پایەی	-11.2506
▁هیج	-11.2508
▁ڕاگەیەنرا	-11.2509
بژێر	-11.2509
▁زادەی	-11.2514
▁سین	-11.2514
▁هەڵواسراو	-11.2516
▁نور	-11.2516
▁سەربازییەکان	-11.2518
▁تەوەرێکی	-11.252
▁فەیلی	-11.2521
▁ئاوڕ	-11.2521
▁لێکۆلینەوە	-11.2523
▁یاریکردن	-11.2523
ورا	-11.2523
▁گەورەکەی	-11.2526
کانە	-11.2527
▁خۆپیشاندەر	-11.2531
▁دواین	-11.2533
▁دەکوژێت	-11.2534
▁تام	-11.2534
شتنی	-11.2534
▁لەراستیدا	-11.2534
▁بەهەشتی	-11.2534
▁مۆندیالی	-11.2535
ۆژەی	-11.2536
بۆر	-11.2537
▁ڕۆک	-11.2539
▁لێدوانەی	-11.2541
دم	-11.2541
▁کۆمەلگا	-11.2543
▁گەشەسەندنی	-11.2543
▁دایکان	-11.2543
▁بایەخێکی	-11.2545
دەبین	-11.2547
نەتە	-11.2548
ێڤ	-11.2549
▁گەشتوگوزاری	-11.2549
▁عەدالەت	-11.255
▁مانچستەریۆنایتد	-11.2551
▁کێبڕکێ	-11.2553
▁سەرکردەو	-11.2553
▁ڕوانگە	-11.2554
▁بەیەکێک	-11.2554
▁بووک	-11.2555
▁پێگەیاندنی	-11.2555
▁تاکڕەوی	-11.2556
ــ	-11.2556
▁فو	-11.2556
▁خوان	-11.2559
▁ڕێگایەک	-11.2561
▁وڵاتەکەمان	-11.2562
▁بەربڵاو	-11.2563
▁لەئارادایە	-11.2566
ئەمەش	-11.2566
▁کەوتەوە	-11.2569
بەغدا	-11.257
ent	-11.2571
▁بەندەکانی	-11.2571
▁دێرینی	-11.2572
▁نیین	-11.2572
▁شیری	-11.2573
▁لاسایی	-11.2574
▁باخچە	-11.2575
▁هەڵبژاردنەکاندا	-11.2577
▁تیرۆریزم	-11.2577
▁دەوەستێت	-11.2578
▁فریای	-11.258
▁لەئێستاشدا	-11.2582
▁پەرەپێدان	-11.2582
▁دکتۆرا	-11.2585
▁یەکجاری	-11.2587
کۆمپانیا	-11.2589
▁توانایەکی	-11.259
▁گوندێکی	-11.2591
دانانی	-11.2595
ەوانی	-11.2597
aw	-11.2597
▁بوەتە	-11.2598
یسی	-11.2598
▁پێکراوە	-11.2599
▁خودایە	-11.2599
N	-11.2599
▁دیمۆکراسی	-11.2599
▁خراپترین	-11.26
75	-11.26
▁ڕەزامەندیی	-11.26
▁قورسی	-11.2602
▁حیزبەکە	-11.2611
▁ڕێژەیە	-11.2611
▁تۆمارکردووە	-11.2612
▁مامەڵەیان	-11.2612
▁پاشگەز	-11.2612
▁مەحاڵ	-11.2613
▁کیمیا	-11.2614
▁ئیراق	-11.2614
▁وڵاتەی	-11.2615
▁تاوانێکی	-11.2616
▁لەژیان	-11.2616
▁دانیشتووان	-11.2617
لەت	-11.262
▁دۆستەکانی	-11.2621
▁ئەمیش	-11.2621
▁بزاڤ	-11.2624
▁بەتوانای	-11.2627
ێنەری	-11.263
▁میرزا	-11.2632
▁گەریلا	-11.2633
▁جیددی	-11.2634
وقی	-11.2634
▁پیشاندا	-11.2635
▁ستایش	-11.2635
▁ڕێکخستنەوەی	-11.2637
▁ئیعدام	-11.2641
عەرەب	-11.2642
▁داخست	-11.2644
▁چەشنی	-11.2645
▁خستنەڕووی	-11.2647
▁دەرکردووە	-11.2648
▁تێدەپەڕێت	-11.2648
▁دوورن	-11.2649
▁ئێرانییەکان	-11.265
▁بەبۆچوونی	-11.2651
▁توندتر	-11.2651
▁کارانەی	-11.2652
▁کلاسیک	-11.2652
60	-11.2654
کێشی	-11.2656
▁ئێکێ	-11.2657
▁بەشه	-11.2657
▁دوورگەی	-11.2661
▁ڕاگیرا	-11.2662
▁بەیاننامەکەی	-11.2664
▁چاکتر	-11.2665
▁مەدەنییەکان	-11.2665
▁مۆرکرد	-11.2666
▁ڤایرۆس	-11.2668
▁لەئێران	-11.2669
▁یۆڤانتۆس	-11.2669
▁دەرخست	-11.2671
▁مارە	-11.2673
▁پەرەسەندن	-11.2674
▁ئامێرە	-11.2679
▁بنێین	-11.2682
نەبێت	-11.2683
▁دەربکات	-11.2683
▁هێنانەوەی	-11.2684
هێز	-11.2685
▁نازم	-11.2687
▁بۆگەن	-11.2688
کوژی	-11.2688
▁حا	-11.269
گەو	-11.269
77	-11.2691
پای	-11.2691
کردۆتەوه	-11.2692
▁دایان	-11.2693
▁بەسەرۆکایەتیی	-11.2695
ردو	-11.2695
▁دەوڵەمەندی	-11.2696
▁ناگەیەنێت	-11.2699
▁پیاوەکە	-11.27
▁هاوڕێیەتی	-11.2702
▁نایەکسانی	-11.2703
سێت	-11.2704
▁جەنگێکی	-11.2705
▁دزێو	-11.2706
▁پەری	-11.2706
دراون	-11.2707
▁ئەندێشە	-11.2707
▁دەرکەوتن	-11.2709
▁سەرم	-11.2711
44	-11.2711
▁بنبڕکردنی	-11.2712
▁ڕێچکەی	-11.2716
▁هەڵوەشانەوەی	-11.2716
▁ئیمامی	-11.2717
▁گۆش	-11.2717
▁تەقینەوەکانی	-11.2717
▁بەدەیان	-11.2719
▁غەیرە	-11.2719
▁پەیوەندیە	-11.2719
▁1994	-11.272
▁دارو	-11.2721
▁بەخێر	-11.2722
نای	-11.2724
▁زەوییە	-11.2725
▁حەل	-11.2726
▁کەڵکی	-11.2726
▁باڵندە	-11.2727
▁بیروبۆچوون	-11.2727
▁هەنوکە	-11.2728
▁ڕایگەیاندووه	-11.2728
▁جانتا	-11.2732
▁ڕوونیکردەوه	-11.2734
▁پیادەی	-11.2734
▁یەکگرتوی	-11.2735
▁مەیل	-11.2736
▁دوبەی	-11.2736
▁کرمانجی	-11.2737
▁ڕوداوە	-11.2738
▁چاوەڕوانکراو	-11.2738
▁تارمایی	-11.2738
▁کڕی	-11.2739
▁گشتییەکانی	-11.274
▁لة	-11.2742
▁نەکردن	-11.2745
▁میرانی	-11.2745
▁بەزۆری	-11.2745
▁بناری	-11.2746
▁نایانەوێت	-11.2747
▁شارستانییەت	-11.2748
70	-11.2752
▁بس	-11.2753
42	-11.2753
te	-11.2753
کاریی	-11.2754
▁چیرۆکەکە	-11.2755
▁بەدیل	-11.2755
▁کارم	-11.2756
▁جەواد	-11.2757
▁تۆڵەی	-11.2757
▁بەیاننامە	-11.2757
یاد	-11.2757
▁بەئەنجام	-11.2758
▁ڕایس	-11.2758
▁نزار	-11.2759
▁بیریان	-11.2759
▁زان	-11.276
▁فرۆشی	-11.2761
▁ئاڵۆزتر	-11.2764
▁سەردانەی	-11.2764
▁چەکە	-11.2766
▁دۆزرایەوە	-11.2766
▁لادێ	-11.2766
▁ڕووناکبیر	-11.2767
وڵاتە	-11.2768
▁کامکار	-11.2768
رایەوە	-11.2769
▁پایز	-11.2771
▁تێدە	-11.2771
▁پێکردن	-11.2772
▁74	-11.2772
▁شوناس	-11.2773
▁هەندێکی	-11.2774
▁نێوانیاندا	-11.2774
▁لەگەڕەکی	-11.2776
K	-11.2777
▁ژاپۆنی	-11.2778
▁بارودۆخەی	-11.2781
▁بنێرێت	-11.2782
▁چەوسێنەر	-11.2783
▁ئیفلیج	-11.2783
▁ئامادەباشی	-11.2784
پەری	-11.2784
ئازار	-11.2785
▁خاتری	-11.2786
▁خۆمم	-11.2788
▁وادە	-11.279
▁بەلێ	-11.279
▁دیکەیش	-11.2791
▁کۆچەر	-11.2791
▁پاشایەتی	-11.2791
▁1996	-11.2792
▁پێشمەرگەدا	-11.2794
ەوی	-11.2797
ەکەیە	-11.2798
▁گرتنەبەری	-11.2798
▁وانییە	-11.2799
▁تیمێکی	-11.2801
▁ڕوداوەکانی	-11.2801
▁سەرەتاکانی	-11.2801
▁دۆخ	-11.2804
▁ئەکتیڤ	-11.2805
▁بەزۆرینەی	-11.2806
53	-11.2807
▁ڕێکوپێک	-11.2808
▁ناوچەیەک	-11.2808
▁بەبەردەوامی	-11.281
گرفت	-11.2812
تینی	-11.2812
▁وەرزە	-11.2814
▁بناغە	-11.2818
▁احمد	-11.2819
نرخ	-11.282
▁سەرای	-11.282
▁دابن	-11.2821
▁ئاوو	-11.2821
▁باڵەخانەی	-11.2822
مون	-11.2822
ڕەنگ	-11.2823
▁زۆرەی	-11.2825
▁گەورەش	-11.2826
▁نەهێنا	-11.2831
48	-11.2832
▁دوورو	-11.2832
▁کوەیت	-11.2835
▁بەشێکیان	-11.2835
▁هێرشکردنە	-11.2837
▁پیک	-11.2837
▁کراونەتەوە	-11.2838
▁گێمی	-11.284
▁ڕونیکردەوە	-11.284
▁ئەڵلا	-11.2842
بەرد	-11.2847
▁توێژینەوەیەکی	-11.2849
گاو	-11.2852
▁بەسەریاندا	-11.2853
▁پاکس	-11.2854
ویستی	-11.2854
▁هەستێکی	-11.2855
▁سەربازێکی	-11.2855
▁شارەکه	-11.2855
▁بازاری	-11.2858
▁کلتور	-11.2858
▁ببەسترێت	-11.2861
بەیاننامەیەکدا	-11.2863
▁جوانکاری	-11.2864
▁بەڕێزتان	-11.2867
▁بەخشیوە	-11.2868
کسی	-11.2869
▁ندی	-11.287
▁ئەنج	-11.287
▁دەداتە	-11.2871
▁کۆمۆنیستەکان	-11.2871
▁وێنەکانی	-11.2873
▁وشیار	-11.2877
▁بەرلە	-11.2877
ناکەن	-11.2877
▁ئازادو	-11.2878
▁1997	-11.2878
▁جاسم	-11.288
خوان	-11.2881
▁جیاوازتر	-11.2883
▁چۆک	-11.2889
▁پۆڵ	-11.289
▁حەشار	-11.289
▁هەفتەیه	-11.2892
▁تێڕامان	-11.2895
▁وەرچەرخان	-11.2898
▁خوێندنەوەیەکی	-11.2901
▁شاعیرانی	-11.2902
▁حوکمڕان	-11.2904
▁شەرمەزاری	-11.2905
▁وەستانی	-11.2906
▁پەیامبەر	-11.2907
▁دۆڵی	-11.2911
▁گۆڕانە	-11.2911
▁شۆفێر	-11.2912
ۆڤا	-11.2912
انێک	-11.2913
▁تیرۆریستەکان	-11.2913
▁ڕەوایە	-11.2913
▁بەرایی	-11.2914
▁ڕێپێوان	-11.2919
▁بزانیت	-11.292
▁خۆپیشاندانە	-11.292
پشک	-11.2921
▁پێدەدرێت	-11.2921
گۆرانی	-11.2921
▁فێربوونی	-11.2922
▁گرفتێکی	-11.2923
▁لێهاتوو	-11.2923
▁مێر	-11.2924
▁ئاماژەمان	-11.2925
▁ڕاوەستان	-11.2925
▁ڕاگەیەندراو	-11.2926
▁مابوو	-11.2929
▁وتارەکەی	-11.293
▁ببینە	-11.2932
▁بەڕێژەی	-11.2932
47	-11.2933
▁ڕوانین	-11.2935
▁گێر	-11.2938
▁تەش	-11.2941
▁سەند	-11.2942
▁پێوەی	-11.2943
▁ڕۆژێکدا	-11.2944
چەی	-11.2946
▁کولتور	-11.2947
▁تاراوگە	-11.2948
▁ڕێبەرایەتی	-11.2951
کەشی	-11.2951
قەت	-11.2951
▁ئایەتی	-11.2951
کاریگەری	-11.2951
▁کەمن	-11.2952
▁73	-11.2953
▁بەکەم	-11.2953
خەی	-11.2954
89	-11.2954
▁لیتر	-11.2959
▁پێکهاتەیەکی	-11.296
▁چڵ	-11.296
نەبوو	-11.2961
▁بودجەو	-11.2962
▁بزانرێت	-11.2963
▁نەخۆشییەکانی	-11.2963
▁بێشکچی	-11.2963
▁کرایەوه	-11.2964
▁کەوتوونەتە	-11.2965
ڕێگە	-11.2965
▁سەرکوتی	-11.2968
▁بەڵا	-11.297
▁لەخۆدەگرێت	-11.297
▁هەڵسوڕاوی	-11.297
▁موزیکژەن	-11.2971
▁قابیلی	-11.2971
▁تیپە	-11.2974
25	-11.2975
▁چالاکیەک	-11.2976
▁شیعەی	-11.2976
▁نیشانە	-11.2978
کانت	-11.2978
▁قوم	-11.2978
▁هەڵپەسێردراو	-11.2979
▁خڕ	-11.2981
▁ڕووەک	-11.2982
▁دروستبونی	-11.2983
▁ماس	-11.2985
▁1993	-11.2986
▁نەخ	-11.2986
کێشان	-11.2989
▁گفتوگۆکه	-11.299
▁هەرێمێکی	-11.299
▁ڕاپۆرتێک	-11.2991
▁تیمەکانی	-11.2991
▁ئەبێتە	-11.2992
کراونەتەوە	-11.2993
▁ڕابەرایەتی	-11.2994
▁سەرکەوتنە	-11.2995
▁دکەت	-11.2997
▁ئادار	-11.2997
▁بارانی	-11.2998
▁86	-11.3
▁وەبیر	-11.3006
▁بخۆن	-11.3006
وێنی	-11.3008
ئەرک	-11.3009
دەکرێتەوە	-11.3011
ڕێت	-11.3012
▁بڕیوە	-11.3012
▁کامیرۆن	-11.3013
▁بوختان	-11.3013
▁ڕابوردوو	-11.3014
▁بەنداو	-11.3014
گرێت	-11.3016
صل	-11.3017
▁دەڵی	-11.3018
▁ڕزگاریان	-11.3019
▁ووڵات	-11.3019
▁مەرجە	-11.302
▁مانچستەرسیتی	-11.3021
▁ڕەخساندنی	-11.3023
24	-11.3023
▁پێویستیمان	-11.3023
▁بز	-11.3025
▁ئامریکا	-11.3028
مێر	-11.303
▁ڕۆژنامەوانان	-11.3031
▁تەرمەکەی	-11.3031
▁خستنی	-11.3033
▁نابینێت	-11.3035
دەق	-11.3036
▁باژێرێ	-11.3037
▁ئیل	-11.3037
▁خۆپاراستن	-11.3038
▁مژ	-11.3038
▁قەتیس	-11.3039
▁قات	-11.3041
▁توێژی	-11.3041
▁Friday	-11.3042
▁پیتی	-11.3043
36	-11.3045
▁ڕۆژنامەیەکی	-11.3047
▁ڕابوون	-11.3048
▁داین	-11.3048
ەکەشیان	-11.3048
▁ئور	-11.3051
▁کەناڵێکی	-11.3052
▁کاتژمێری	-11.3052
▁قانونی	-11.3058
▁ڕوانگەیەوە	-11.3059
▁r	-11.3059
▁مەو	-11.3061
▁هەبووبێت	-11.3062
▁ئامادەکردووە	-11.3062
▁لاساییکردنەوە	-11.3063
▁نێگەتیڤ	-11.3064
▁کانت	-11.3064
کەرە	-11.3065
▁بەدەنگی	-11.3066
سوڕ	-11.3067
▁سەرنجە	-11.3067
▁ڕان	-11.3068
▁دەرفەتێک	-11.307
▁هەڵیان	-11.3072
شتە	-11.3072
▁ڕۆژانەدا	-11.3073
▁الإ	-11.3074
▁عەرەبستانی	-11.3075
هاتووە	-11.3079
▁نەجات	-11.3079
▁پەیوەندییه	-11.308
▁زاخو	-11.3081
▁خاوەندارێتی	-11.3081
▁ڵێ	-11.3082
▁بەلایەنی	-11.3083
▁هەفتەیە	-11.3083
▁کەمەوە	-11.3086
▁کڵ	-11.3087
▁هەبووه	-11.3087
L	-11.3088
▁ڕێککەوتنێک	-11.3089
▁فەزا	-11.309
▁بونیادی	-11.309
F	-11.3092
▁دەسەلمێنێت	-11.3094
گۆڕین	-11.3096
▁جووڵە	-11.3097
▁ساخ	-11.3099
▁ئالی	-11.31
▁دۆستانە	-11.31
▁هەڤپەیڤین	-11.3101
▁سوو	-11.3102
▁گەنجەکان	-11.3103
▁دنیایەکی	-11.3104
37	-11.3105
مەبەست	-11.3106
▁هاندەرانی	-11.3109
▁خۆشناو	-11.311
▁بەغداوە	-11.311
▁کرابوون	-11.3111
▁هەموومانە	-11.3112
▁پێناس	-11.3113
13	-11.3113
▁گۆڕێ	-11.3117
▁گوتە	-11.312
▁شەوکەت	-11.312
▁بێژ	-11.312
28	-11.312
وێل	-11.3121
▁ملکەچ	-11.3124
▁گۆڕەپان	-11.3125
▁کردۆتەوه	-11.3126
رق	-11.3127
▁ناوەر	-11.3127
▁یانیش	-11.3128
▁پێداویستیەکانی	-11.3129
گەڕانەوە	-11.313
▁فیکریی	-11.313
▁حکومڕانی	-11.3131
▁دەردەسەری	-11.3131
▁نیت	-11.3132
▁71	-11.3133
▁88	-11.3137
▁یەو	-11.3137
ناڵ	-11.3138
▁فڕۆکەوان	-11.3138
▁کادری	-11.3139
▁دەگەرێتەوە	-11.3139
▁پۆسته	-11.314
▁دەردەکەوێ	-11.314
▁نزیکەوە	-11.314
▁گۆڕین	-11.3142
▁کۆنگرەیە	-11.3143
▁چاوپۆشی	-11.3146
▁نەکراون	-11.3146
▁سەقامگیریی	-11.3147
▁هەنگ	-11.3147
▁ساردی	-11.3148
▁دەسەڵاتەوە	-11.3149
▁کورسییەکانی	-11.3151
▁بونە	-11.3153
کور	-11.3153
▁ڕونکردنەوەیەک	-11.3153
لێن	-11.3156
▁داخە	-11.3159
▁توێژینەوەکە	-11.3161
▁بوبێت	-11.3161
▁بەیاننامەکەدا	-11.3164
▁قسەیەک	-11.3169
▁هونەرییەکانی	-11.3169
▁نەرمی	-11.3172
▁قوربانیدان	-11.3173
▁هێرشه	-11.3174
▁چێژی	-11.3175
▁لەسەدا	-11.3177
▁باخی	-11.3178
▁دەقەکە	-11.3178
رج	-11.318
▁جۆرێکە	-11.318
▁ئاوێنەی	-11.3181
پاک	-11.3182
▁بابا	-11.3184
▁لایەکەوە	-11.3184
▁بەدرخان	-11.3184
فۆن	-11.3186
▁سووڕ	-11.3186
▁ڕقی	-11.3188
st	-11.3188
ونەتە	-11.3189
▁بەرشلۆنە	-11.3191
▁دەرماڵەی	-11.3193
▁نەسر	-11.3194
▁پەروەرده	-11.3195
▁بچینە	-11.3195
بۆن	-11.3195
▁هەڕەشەکانی	-11.3196
▁ئاگربەست	-11.3198
▁پرنسیپی	-11.3199
سون	-11.3199
▁قام	-11.32
▁ئەب	-11.32
▁تەنێ	-11.3201
▁ماندووبوون	-11.3202
▁تور	-11.3203
▁لێپێچینەوە	-11.3204
▁false	-11.3204
▁هیتلەر	-11.3204
ینه	-11.3207
رسی	-11.3208
▁مەیلی	-11.321
سپێر	-11.3211
▁هەنووکەیی	-11.3212
▁ئەلف	-11.3213
▁چیک	-11.3214
▁دڕ	-11.3215
27	-11.3216
▁سکرتێر	-11.3216
▁چەتری	-11.3217
▁ئەفسەرێکی	-11.3217
▁خستووەتە	-11.3222
قسە	-11.3224
▁میلی	-11.3225
▁تووش	-11.3226
▁شێو	-11.3227
▁ناکاو	-11.3228
▁مشک	-11.3228
▁حەقە	-11.323
▁حەڤدەی	-11.3231
▁خۆڕاگری	-11.3232
▁خەڵاتەکانی	-11.3233
▁وێنای	-11.3234
▁خوازیار	-11.3236
▁ئەکاد	-11.3239
ەرە	-11.3239
▁بارێکی	-11.324
▁کێشەکانیان	-11.3242
▁باوی	-11.3243
▁مشتومڕ	-11.3243
▁جیهادی	-11.3244
یع	-11.3245
▁کۆبکاتەوە	-11.3245
33	-11.3245
بەس	-11.3246
▁جوڵەی	-11.3247
▁فرۆکەخانەی	-11.3248
▁تەر	-11.3248
▁لەوکاتەدا	-11.3249
ۆپ	-11.3251
▁کۆمیدی	-11.3254
▁بەسترا	-11.3258
▁ڕەتدەکاتەوە	-11.3258
▁بونەتە	-11.3259
▁بنێرن	-11.3262
09	-11.3262
8	-11.3263
▁خواستە	-11.3266
▁کەیسە	-11.3268
▁جگەر	-11.3269
▁زەمینی	-11.3269
▁ڕەهەندە	-11.327
▁کارمەندان	-11.3271
ماوەی	-11.3272
▁کۆریا	-11.3272
▁بەبەر	-11.3272
▁حکومەتیش	-11.3273
▁زانیارییانەی	-11.3273
▁وەهمی	-11.3273
▁کەشێکی	-11.3274
ناخ	-11.3275
▁زاناکان	-11.3276
گەرم	-11.3277
▁پارەکە	-11.3277
▁ساڵانێکی	-11.3278
▁گریمان	-11.3278
▁خێرخوازی	-11.3279
▁هونەرمەندێکی	-11.3279
▁دووگیان	-11.3279
▁باڵادەستی	-11.328
اڵە	-11.3284
▁تشرین	-11.3284
شیر	-11.3284
▁قەر	-11.3285
▁ئەلعێراقیه	-11.3286
▁یەکدا	-11.3287
▁ئاوەکە	-11.3293
ئێران	-11.3293
▁خولەکه	-11.3294
داوه	-11.3296
▁کراوی	-11.3297
▁یاسادانان	-11.3298
▁دروستبکات	-11.3298
▁ئەردەن	-11.33
فرۆشی	-11.3302
کوێ	-11.3303
دابین	-11.3303
ندەی	-11.3303
▁دەهێنێتەوە	-11.3304
خەر	-11.3311
▁ڕەوایەتی	-11.3314
92	-11.3315
▁خامۆش	-11.3317
▁فارسیی	-11.3318
▁کاتژمێرێک	-11.3319
سەرەتا	-11.332
31	-11.3321
گومان	-11.3324
▁کارەکتەر	-11.3324
درێژی	-11.3324
▁دیراسە	-11.3325
جەر	-11.3325
▁کاتێکدایه	-11.3329
▁کارەساتێکی	-11.3329
▁ڕێگاوبان	-11.3331
حەسەن	-11.3332
▁های	-11.3334
▁هەستا	-11.3336
▁قڕ	-11.3336
▁ئەنجامەکان	-11.3339
▁قورستر	-11.3339
▁نەوەدەکان	-11.334
▁ستالین	-11.334
▁جەن	-11.334
▁گونجاوە	-11.334
▁فیل	-11.3341
▁نیشتمانە	-11.3343
تێکی	-11.3343
▁ڕووکەش	-11.3343
▁قەرەباڵغی	-11.3343
▁هۆیەوه	-11.3347
وزە	-11.3347
▁حکومەتێک	-11.3348
پارت	-11.3348
▁ولاتەکەی	-11.3349
▁دیزاین	-11.3349
▁یانەکان	-11.3349
پێکردن	-11.335
▁چواری	-11.3353
▁بەستووە	-11.3354
▁کلینتۆن	-11.3354
▁پوخت	-11.3355
دۆست	-11.3355
▁گۆڕستان	-11.3355
▁چەوت	-11.3356
▁لویس	-11.3357
▁بنەڕەتدا	-11.3359
▁ناوچەیەدا	-11.336
23	-11.336
سەرۆکی	-11.336
ێننەوە	-11.3362
▁بەکۆی	-11.3363
▁مامۆستایەکی	-11.3365
▁بەخوا	-11.3368
▁بکەت	-11.3369
▁بگوترێت	-11.3369
▁کوفر	-11.337
▁News	-11.337
B	-11.3371
یزە	-11.3371
▁ئەش	-11.3372
سانی	-11.3372
▁سیستانی	-11.3375
نجی	-11.3375
▁خەتەنەکردنی	-11.3376
▁ژیاوە	-11.3376
▁بەئا	-11.3377
دۆخ	-11.3378
▁هاوسەنگ	-11.338
▁نامەکەی	-11.3381
ab	-11.3382
▁داوایەکی	-11.3382
▁دەسەڵاتەکان	-11.3384
▁خومەینی	-11.3384
دل	-11.3389
▁ئاغای	-11.339
▁کەرامەتی	-11.3391
انێکی	-11.3393
▁ئەمساڵی	-11.3393
▁کاریکاتێر	-11.3395
▁پەرستی	-11.3395
▁ئارادا	-11.3395
▁ئەڤین	-11.3395
▁دەپارێزێت	-11.3396
▁چاندنی	-11.3396
▁لەهەڵبژاردنەکان	-11.3397
▁پازدە	-11.3399
04	-11.3403
الە	-11.3404
▁هەرێمایەتی	-11.3404
▁ئەمیری	-11.3404
▁مەلاکان	-11.3404
▁گوتەیەکی	-11.3405
کرنی	-11.3405
رەنگ	-11.3405
ڵت	-11.3407
بۆچوون	-11.3408
پور	-11.3408
▁لێبکات	-11.341
▁سیفەت	-11.341
▁ڕۆی	-11.3411
▁پرۆگرامێکی	-11.3412
▁ژنانەی	-11.3412
▁هەڵوەستە	-11.3415
▁بەهەڵە	-11.3415
▁ئازادییەکان	-11.3416
سیر	-11.3417
سیۆن	-11.3417
کێشە	-11.3417
▁سنوردار	-11.3417
▁سەمیر	-11.3419
پەل	-11.3421
▁ئاوایی	-11.3422
لاس	-11.3423
راست	-11.3424
▁ئازارەکانی	-11.3424
▁سارا	-11.3426
45	-11.3426
▁ڕزگاربوون	-11.3427
▁83	-11.343
▁دیدارەکە	-11.3432
▁مەبەستیان	-11.3433
▁ڕەگەزپەرست	-11.3434
ڤۆ	-11.3435
▁91	-11.3437
▁عین	-11.3437
▁خەوی	-11.3437
▁زیو	-11.3438
ڕین	-11.3439
بووەو	-11.3442
خن	-11.3442
▁بەتەمەن	-11.3442
▁پاڵێوراوی	-11.3443
▁چاڵ	-11.3443
▁ڕسول	-11.3444
بال	-11.3444
▁عی	-11.3445
▁گەیشتۆت	-11.3445
▁ئەردۆگان	-11.3445
▁نزیکبوونەوەی	-11.3447
▁لێوەر	-11.3448
ەند	-11.3448
▁ئاید	-11.3449
▁پێشکەوتووی	-11.3449
▁دەک	-11.345
▁پەیماننامەی	-11.345
▁چاککردنی	-11.345
دنیا	-11.3452
▁ئەمریکاش	-11.3452
▁هەوێنی	-11.3454
▁نەیارەکانی	-11.3454
▁بوویت	-11.3455
▁ئەشکەنجەدان	-11.3459
▁هەڵبژێردراو	-11.3459
▁ئەوانەن	-11.3461
▁پەرلەمانیش	-11.3461
▁فەرمانگە	-11.3463
▁بەیانیان	-11.3463
▁بەعسیەکان	-11.3464
بدرێت	-11.3467
▁دووان	-11.3468
▁دەربکەوێت	-11.3469
شۆڕش	-11.347
▁ڕژا	-11.3471
▁تەقینەوەکەی	-11.3471
تاندا	-11.3472
▁بەکاربەر	-11.3472
▁پڕوپاگەندە	-11.3472
▁خی	-11.3473
▁بروا	-11.3473
▁لەهەڵ	-11.3474
01	-11.3475
▁دەنێرێت	-11.3475
▁تاوانانە	-11.3477
ئار	-11.3477
▁هێرشبەری	-11.3482
▁لەخەڵکی	-11.3483
26	-11.3483
▁سوێندی	-11.3484
▁69	-11.3485
▁ڕوونتر	-11.3486
▁ڕۆژه	-11.3486
▁پردێ	-11.3488
▁هەموارکردنەوەی	-11.3489
▁لەئەستۆ	-11.3489
▁نەکەیت	-11.3491
▁1989	-11.3494
▁هاتینه	-11.3494
▁ناڵە	-11.3495
▁بەدەپە	-11.3497
▁ڕۆل	-11.3497
▁ئارا	-11.3499
▁وشەکان	-11.35
67	-11.3502
▁هۆنراوەی	-11.3503
▁شایەتی	-11.3503
ەتێکی	-11.3504
▁یەکیەتیی	-11.3505
▁دەف	-11.3505
بەو	-11.3506
گەن	-11.3506
راب	-11.351
کردوون	-11.3512
▁دەنگدەرانی	-11.3512
▁ئەنجامه	-11.3513
▁کازم	-11.3515
▁ئەفسانەی	-11.3516
▁ڕێککەوتنێکی	-11.3519
▁دامەزرێنەری	-11.3519
▁خۆرهەڵات	-11.352
▁78	-11.352
▁حەمەڕەشید	-11.3521
▁بەرۆکی	-11.3525
▁لەشەڕ	-11.3525
▁شەراکەتی	-11.3527
▁ناوخۆییەکان	-11.353
فری	-11.353
▁بزووتنەوەکە	-11.3531
▁حیزبایەتی	-11.3531
عل	-11.3532
▁دیموکرات	-11.3533
▁پۆستەکان	-11.3536
راوەتەوە	-11.3537
▁عەبدولرەحمان	-11.3537
▁دەستگیرکراو	-11.3537
دۆن	-11.3537
▁فرا	-11.3538
▁فەبرایەر	-11.3538
▁ڕەوشەکە	-11.3539
▁نیچە	-11.3541
▁سۆمەری	-11.3545
57	-11.3546
▁بووایە	-11.3549
▁ڕواە	-11.3549
▁بیل	-11.3549
▁فرەیی	-11.355
▁ببرێت	-11.3551
ماف	-11.3551
▁شەمەندەفەر	-11.3552
▁هێواش	-11.3552
دارانی	-11.3552
▁دهوک	-11.3553
se	-11.3558
کام	-11.3558
▁نادەین	-11.3559
▁ئۆپەراسیۆن	-11.3559
▁ڕێکخراوەی	-11.356
جۆر	-11.3561
رەت	-11.3563
▁زۆ	-11.3564
▁کەڵە	-11.3566
▁جموجۆڵ	-11.3566
▁لێکۆڵەر	-11.3567
▁جڤاکی	-11.3569
▁دەسەڵاتەکەی	-11.3569
▁قوربانیی	-11.3569
حال	-11.357
▁ئاسەواری	-11.3571
▁دێموکراسییە	-11.3572
▁دەیتوانی	-11.3573
▁پیرەمێرد	-11.3575
▁دەسەلاتە	-11.3575
▁دەربازبوون	-11.3575
ستم	-11.3577
فەرمان	-11.3578
▁نامەوێت	-11.358
▁ئەمڕۆکە	-11.3582
▁دەمانچە	-11.3583
▁فرەژنی	-11.3583
ێندرێت	-11.3585
▁ناحیەکانی	-11.3585
ێکت	-11.359
▁نابەجێ	-11.359
▁فاتیح	-11.3591
▁خۆشتر	-11.3591
▁دیمەنە	-11.3594
بەشی	-11.3594
▁تەنگژەی	-11.3597
▁بەناونیشانی	-11.3599
▁ڕیشەی	-11.36
ەکیان	-11.3603
▁ماری	-11.3604
گەشە	-11.3604
▁پێنجشەممه	-11.3605
جوڵ	-11.3608
▁بەکارهێنا	-11.3609
▁ئامادەکاریی	-11.361
▁ڵک	-11.361
▁وێنەگر	-11.3612
کێت	-11.3612
▁نەتەوەییە	-11.3612
▁لەبەرژەوەندیی	-11.3612
▁ئەیوب	-11.3615
▁ئۆرگانی	-11.3616
▁لەئەوروپا	-11.3616
▁کاردانەوە	-11.3617
▁دزینی	-11.3618
ۆمی	-11.362
▁چەوساندنەوە	-11.362
▁کوبانی	-11.3621
▁نووسینەوەی	-11.3623
قد	-11.3623
▁ڕەقیب	-11.3624
▁موسلیمین	-11.3625
▁نەتەوەیە	-11.3626
▁تەما	-11.3628
پەڕی	-11.3628
▁هەرەشە	-11.363
▁فەرمانبەری	-11.3631
ڕووداو	-11.3631
▁ئاماژەیەکی	-11.3631
▁وەرن	-11.3632
▁بەئامانجی	-11.3633
کاتی	-11.3634
▁چۆنییەتی	-11.3637
▁بایکۆتی	-11.3638
▁پو	-11.3638
ووری	-11.364
▁نەجم	-11.3641
▁عەلا	-11.3643
▁چێشتخانە	-11.3645
ەکەى	-11.3646
G	-11.3646
55	-11.3647
▁زنجیرەی	-11.3647
ەڵە	-11.3648
▁پڕۆژەکەی	-11.365
▁زیندانیانی	-11.365
▁کاریگەرییان	-11.3652
▁ناوەراستی	-11.3652
▁لیستەکە	-11.3653
دەسەڵات	-11.3653
▁دۆخەی	-11.3655
▁لەنێوانیاندا	-11.3655
▁مەودا	-11.3656
▁الک	-11.3656
▁شارەکەی	-11.3657
▁قوڵایی	-11.3657
▁ڕۆژنامەکانی	-11.3657
ینەی	-11.3658
▁ژنەکە	-11.3658
ئو	-11.3659
▁کرایە	-11.3659
▁بڕیارو	-11.366
▁ئامێرژەنی	-11.366
نەکردن	-11.3661
▁هەمومان	-11.3661
ره	-11.3663
▁79	-11.3664
خس	-11.3667
▁پاداشتی	-11.3669
▁وەرزشکردن	-11.3671
▁سەربەرز	-11.3674
▁پێوەندی	-11.3675
▁نووسینەکانی	-11.3675
های	-11.3676
لایەنە	-11.3676
چڵ	-11.3679
▁میللەتێک	-11.368
▁دانیان	-11.368
▁قوڵتر	-11.3681
▁قوتابخانەو	-11.3682
پشت	-11.3682
▁سەرتاپای	-11.3683
▁پرەنسیپ	-11.3684
▁سالانی	-11.369
▁لەقەزای	-11.369
▁ژینگەو	-11.3691
▁نەمری	-11.3694
▁تەفسیر	-11.3695
▁قۆناغەی	-11.3695
▁بەرەوپێش	-11.3695
▁سوریای	-11.3695
زانن	-11.3697
▁کۆڕی	-11.3698
▁دەخەن	-11.3698
▁گەڕاندەوە	-11.37
ێندرا	-11.3704
03	-11.3704
وچ	-11.3705
سەنگ	-11.3705
▁هۆشبەرەکان	-11.3706
▁پاسەوانەکانی	-11.3706
▁بەخاک	-11.3707
▁کوردسات	-11.3707
▁سوننی	-11.3707
▁ڕوداوەکە	-11.3708
"(	-11.3709
▁وەڵامێکی	-11.371
سەند	-11.3712
98	-11.3712
▁عبدال	-11.3713
gmail	-11.3715
▁ئیسلامیدا	-11.3718
گێ	-11.3719
▁حەفتاکان	-11.372
▁PKK	-11.3723
▁بەگەرمی	-11.3723
▁پیشانی	-11.3723
▁ژوان	-11.3726
▁سەرەتاییەکان	-11.3726
▁وەخت	-11.3727
چار	-11.3728
تورک	-11.3729
▁پرۆژە	-11.3729
▁پیا	-11.373
یاسای	-11.3732
▁هەڵگرت	-11.3733
▁عەقڵییەتی	-11.3734
▁جەرگ	-11.3734
▁بەڵگەیەکی	-11.3736
شاری	-11.3736
گڵ	-11.3736
▁مارکسیزم	-11.3736
▁فێرکاری	-11.3737
درێژ	-11.3738
▁العراق	-11.3739
▁بلیمەت	-11.374
▁1968	-11.3741
▁99	-11.3744
▁بەکرێ	-11.3744
▁بەڕوونی	-11.3745
▁زێدی	-11.3745
▁ئایدۆلۆژیا	-11.3746
▁re	-11.3747
▁هەڵەکانی	-11.3747
▁دیمەن	-11.3747
دیس	-11.3748
زەوی	-11.3749
کەون	-11.3749
▁سه	-11.3749
▁بوم	-11.375
▁ئایدیۆلۆژیا	-11.3751
▁زانستیی	-11.3751
شێ	-11.3752
▁بکەون	-11.3752
64	-11.3752
ەدی	-11.3753
▁بچێتەوە	-11.3756
جیهان	-11.3757
▁دێرینەکان	-11.3758
▁لۆس	-11.3758
▁سیما	-11.3758
▁پێکەوەژیانی	-11.3762
▁ستەمی	-11.3762
▁بەهۆکاری	-11.3762
▁لەدەوری	-11.3762
▁سەلاحەدین	-11.3763
▁ڕەشەبا	-11.3763
▁ڕۆژەوە	-11.3764
▁فیزیکی	-11.3765
▁دەڤەر	-11.3766
▁گەشبینی	-11.3766
▁کەسێکیش	-11.3767
▁ئازادییەکانی	-11.3769
▁شیعرێکی	-11.377
▁زەنگەنە	-11.377
▁ئەنگ	-11.3771
▁بەڕێزانە	-11.3771
▁87	-11.3771
ساو	-11.3772
کۆتا	-11.3772
گرد	-11.3773
▁هەڵداوە	-11.3773
▁لەبوارەکانی	-11.3774
پێدان	-11.3774
▁ئەوەیشی	-11.3777
ەپان	-11.378
دەکەینەوە	-11.3781
سنوور	-11.3781
دەرەوەی	-11.3782
▁ماشێن	-11.3783
▁ڵە	-11.3784
▁نێوەندی	-11.3785
▁ناوەندیی	-11.3785
▁لەدەسەڵات	-11.3785
▁پێکهاتوون	-11.3787
▁حەفتا	-11.3788
▁هەریری	-11.3788
اکی	-11.379
▁ئاکرێ	-11.3791
▁دەکێشێت	-11.3791
▁نەکردووەتەوە	-11.3793
▁ڕەهەند	-11.3794
▁نرخاند	-11.3794
▁مندال	-11.3795
96	-11.3795
▁بارەگا	-11.3795
نەری	-11.3797
▁81	-11.3799
▁ئامادەین	-11.3799
▁مەبەسته	-11.38
نارد	-11.3801
▁لادانی	-11.3801
▁پارێزگاریکردن	-11.3802
▁کراوەیە	-11.3802
▁is	-11.3803
▁دوورکەوتنەوە	-11.3804
▁گوتەبێژ	-11.3805
61	-11.3811
▁نەهێشت	-11.3813
97	-11.3813
▁داون	-11.3815
فرانس	-11.3821
▁وشەیەکی	-11.3822
▁بودجه	-11.3825
▁تەڵاق	-11.3825
▁وشەیە	-11.3827
H	-11.3827
گەشت	-11.3827
دانان	-11.3828
▁کەمایەتی	-11.3828
▁کۆبوونەوەیەک	-11.3828
نابێت	-11.3829
▁سست	-11.3829
ئال	-11.3829
▁ماڵپەڕ	-11.3829
▁عام	-11.383
▁ئامراز	-11.3831
▁کۆیلەی	-11.3832
بایەخ	-11.3832
▁بەیاننامەکە	-11.3832
▁ئامادەیه	-11.3836
هەشت	-11.3838
▁گوزەران	-11.3841
▁بگێڕ	-11.3844
▁کۆکردنەوە	-11.3845
▁ئینتەر	-11.3845
هەمین	-11.3846
56	-11.3848
▁خەسرەو	-11.3849
قال	-11.385
▁ئاسانە	-11.3851
ist	-11.3853
▁جیاوازیان	-11.3854
▁کاول	-11.3854
▁جاک	-11.3854
▁شیوە	-11.3854
▁وەزعی	-11.3857
▁عێراقەوه	-11.3861
▁چوومە	-11.3861
▁no	-11.3862
▁خێراتر	-11.3862
▁لەشارەکانی	-11.3862
▁دۆڕاندن	-11.3866
▁پیاسە	-11.3871
58	-11.3872
▁نەهێناوە	-11.3872
▁گێڕا	-11.3877
گەیەنێت	-11.3879
▁پادشا	-11.3879
▁کۆمەڵگەیە	-11.3879
▁بهێنێتە	-11.388
▁ڕووداوێک	-11.3882
▁ستراتیژ	-11.3882
▁نامەکە	-11.3882
▁لەهەوڵ	-11.3883
▁پێنوسەکان	-11.3883
▁g	-11.3884
▁بەرزنرخاند	-11.3885
▁سینگ	-11.3886
▁دیندار	-11.3888
▁کارەش	-11.3888
▁زەریا	-11.3889
▁ئایەتە	-11.389
▁لەسیاسەت	-11.389
▁مانگدا	-11.3891
▁داهاتێکی	-11.3891
▁جوانەکان	-11.3891
▁بگرێتە	-11.3892
▁کەرکوکیش	-11.3893
▁تەقینەوەیەک	-11.3893
▁سەرەتاییەکانی	-11.3894
▁زاوا	-11.3895
▁بەرێوەدەچێت	-11.3896
▁مۆڵ	-11.3899
▁پێوانە	-11.39
▁کۆنگرێس	-11.39
34	-11.3901
▁هەڵوێستەکانی	-11.3904
▁لەوێشەوە	-11.3905
▁دەزگە	-11.3906
ژمێر	-11.3906
▁شاردا	-11.3907
▁ڤیدیۆ	-11.3907
▁جووتیاران	-11.3908
▁شوێنه	-11.3908
▁سەرەکییەکان	-11.3908
ژاو	-11.3908
▁هێلی	-11.3911
▁هەڵبژێردرا	-11.3912
▁نەدەکرا	-11.3913
▁لێکۆڵینەوەیەکی	-11.3915
▁جەمسەری	-11.3916
▁درۆزن	-11.3917
باخ	-11.3918
▁موشەکی	-11.3919
▁کاندیدەکان	-11.392
▁زەردەخەنە	-11.3923
▁سەرەتادا	-11.3924
▁زۆرەوە	-11.3925
43	-11.3926
▁بەدەستبهێنێت	-11.3926
▁سەن	-11.3928
▁ئەیلولی	-11.3929
▁بداتە	-11.3931
▁نەبرد	-11.3933
▁دەخرێت	-11.3934
▁شارۆچکە	-11.3935
▁کارەباو	-11.3939
نەوت	-11.3939
عود	-11.3939
▁دەرچووانی	-11.3939
پەرلەمان	-11.3941
▁٥	-11.3942
▁کلا	-11.3942
▁گۆرانییە	-11.3944
▁هەڵدەستێت	-11.3945
▁عومر	-11.3945
دەگرن	-11.3945
وانە	-11.3947
▁بۆلای	-11.3948
▁ئەبی	-11.3948
کردوەتەوە	-11.3949
رابوو	-11.3949
▁زایینی	-11.395
▁هاتەوە	-11.3951
▁فەتح	-11.3952
▁بەخەڵکی	-11.3952
▁لەعێراقدا	-11.3953
▁نەبون	-11.3956
▁بخوێن	-11.3958
▁نیشتەجێی	-11.3959
▁وابەستەی	-11.3959
▁هاوڕێیان	-11.396
▁لەرز	-11.396
▁لەجێی	-11.3962
حکومەت	-11.3962
▁جوڵە	-11.3962
کەیدا	-11.3963
▁هاتووچۆی	-11.3967
▁دڵتەزێن	-11.3968
▁بەوپێیەی	-11.3968
▁موسەوی	-11.3969
▁بڵی	-11.3969
▁بەڵگەنامە	-11.397
▁کۆدەبێتەوە	-11.3971
▁خوارێ	-11.3972
▁کاڵا	-11.3972
یەتێکی	-11.3973
▁سەدو	-11.3975
▁فراکسیۆنە	-11.3976
▁مێزگرد	-11.3976
▁خێرو	-11.3977
▁هەولی	-11.3977
▁هەڵچوون	-11.3978
▁پێمانوایە	-11.3978
گەریی	-11.3979
▁هەڵئە	-11.3979
نزیک	-11.398
▁گوتەنی	-11.3981
▁بگەڕێن	-11.3981
▁ڕێڕەوی	-11.3984
▁شەقڵاوە	-11.3984
▁سنوورەکان	-11.3985
▁گال	-11.3987
▁سەوزە	-11.3987
مرۆڤ	-11.3987
راق	-11.3987
91	-11.3987
▁لەخزمەتی	-11.3988
▁کوردییەکاندا	-11.3992
▁جەو	-11.3993
▁داعشدا	-11.3993
05	-11.3993
▁ئیشکردن	-11.3993
بکرێ	-11.3994
▁لات	-11.3997
85	-11.4
▁ئەفغانس	-11.4002
▁هاولاتیان	-11.4002
▁یەکگرتوەکانی	-11.4002
▁ئەلبومی	-11.4003
لیست	-11.4003
▁سندوقەکانی	-11.4004
▁لەبەرنامەی	-11.4007
بێن	-11.4007
▁قەدری	-11.401
▁ناوەکەی	-11.401
▁قول	-11.4011
▁ئەرز	-11.4011
▁دنیابینی	-11.4014
▁کاربکات	-11.4015
▁چڕی	-11.4016
▁سونی	-11.4018
▁جێگرەکەی	-11.4018
▁دوورودرێژ	-11.4019
▁زەین	-11.4021
▁شاشەی	-11.4021
▁شێوه	-11.4022
بوونیان	-11.4022
▁برینداربوو	-11.4022
وێر	-11.4023
▁شەرەفی	-11.4024
▁ئیسلامە	-11.4024
دزی	-11.4027
▁دزەی	-11.4029
▁بابەته	-11.4029
▁ملیون	-11.4029
▁یادگاری	-11.403
▁وێنەیە	-11.4032
نوێنەر	-11.4032
▁110	-11.4032
▁حەڵاڵ	-11.4032
▁دۆسی	-11.4035
▁هەڕەشەو	-11.4036
▁دەستەواژە	-11.4036
کچ	-11.4037
▁Wed	-11.4038
▁شەکرە	-11.404
▁کلیلی	-11.404
▁حیزبێکی	-11.404
▁سالح	-11.404
▁کارای	-11.4041
ببێت	-11.4043
شێتەوە	-11.4046
▁پاراست	-11.4046
▁84	-11.4047
▁هەڵنا	-11.4047
76	-11.4047
▁خوێندەوار	-11.4047
▁نەبووبێت	-11.4047
▁قۆناغێک	-11.4048
▁نێچیر	-11.4048
▁بخوات	-11.4048
▁لەدروستکردنی	-11.4049
▁الخ	-11.4049
▁بلو	-11.4049
▁خەونەکانی	-11.4051
▁قەدەغەکراو	-11.4051
▁بهێنم	-11.4051
▁ڕویدا	-11.4052
▁فەرموودەی	-11.4052
باوک	-11.4053
ئەس	-11.4053
▁بابەتانە	-11.4054
▁گەردون	-11.4054
نامەیەکی	-11.4054
▁هەربۆیەش	-11.4054
▁داهاتوویەکی	-11.4055
▁بمان	-11.4056
▁چاوەر	-11.406
▁بخوێنێت	-11.406
▁خش	-11.4061
▁گۆشە	-11.4062
▁هەرسێ	-11.4063
▁نەناس	-11.4063
یاسی	-11.4063
قان	-11.4064
▁بەگژ	-11.4064
دەچێت	-11.4068
▁زۆرداری	-11.4068
▁بێوار	-11.4068
سێن	-11.407
داران	-11.4071
▁کوژراوەکان	-11.4072
▁بەنیاز	-11.4072
▁نەکردبێت	-11.4073
▁هاوری	-11.4074
▁قائیمقامی	-11.4074
▁چەواشەکاری	-11.4074
▁کەڵەکە	-11.4074
▁باڵەکایەتی	-11.4075
▁بوێرانە	-11.4077
▁وەرگرتوە	-11.4078
65	-11.4078
39	-11.4078
▁بنرێت	-11.4081
پۆلیس	-11.4081
▁زێتر	-11.4081
▁مەنووچێهر	-11.4081
ەتەوە	-11.4081
▁داواکەی	-11.4082
▁بەڕێوه	-11.4082
▁وەلامێک	-11.4084
88	-11.4085
▁مش	-11.4086
▁کوڵ	-11.4089
▁چێڵسی	-11.4089
▁لەپڕۆژە	-11.409
▁ڕاد	-11.4091
ژیان	-11.4091
نادات	-11.4091
▁یەکێتییە	-11.4092
▁یارییه	-11.4092
▁سنگ	-11.4092
▁دانیشتوی	-11.4094
▁تواناسازی	-11.4095
▁ژوورە	-11.4096
▁O	-11.4098
▁خاڵانەی	-11.4098
▁ئاماژەیەک	-11.4099
▁چەوساندنەوەی	-11.41
▁خواوەند	-11.4102
▁مەل	-11.4104
سیم	-11.4104
وەندی	-11.4105
nesda	-11.4105
▁غەمگین	-11.4105
بژاردن	-11.4106
▁جوگرافیا	-11.4107
▁ڕێکەوتننامەی	-11.4108
ڤن	-11.4109
▁مەلای	-11.4111
▁نەتەوەکەی	-11.4111
سوار	-11.4111
▁بة	-11.4112
▁عیرفان	-11.4113
▁هێڕش	-11.4113
▁جێبەجێی	-11.4114
▁خرای	-11.4122
▁یەکێتیش	-11.4123
▁عەلمانییەت	-11.4124
▁گۆرانییەکانی	-11.4128
▁ئەوەن	-11.4128
نتی	-11.413
▁هەوڵدەدەین	-11.4131
▁خەمخۆری	-11.4131
کردوەو	-11.4131
▁سەردەست	-11.4132
فڕ	-11.4133
▁پووچ	-11.4134
▁پزیشکان	-11.4134
▁هێنابوو	-11.4135
ma	-11.4135
▁پێستی	-11.4137
▁ڤەکرن	-11.4137
▁نزا	-11.4137
▁نەوتە	-11.4138
▁ناردنەوەی	-11.4138
▁شاڵاوی	-11.4139
گرتوو	-11.414
▁زەبری	-11.4141
▁گفتوگۆیەکدا	-11.4142
گوند	-11.4145
▁کەمدەرامەت	-11.4146
▁لەشەڕی	-11.4147
▁داگیرکراو	-11.4147
▁قەشە	-11.4148
▁زاتی	-11.4149
تنەوەی	-11.415
▁پۆستەر	-11.4151
▁زیانەکانی	-11.4151
▁ناوخۆییەکانی	-11.4152
▁پور	-11.4153
▁فلم	-11.4153
▁ڕاکێشا	-11.4155
▁تووند	-11.4156
▁دیمانەی	-11.4159
کۆتایی	-11.4159
▁ڕەگەزپەرستی	-11.416
▁بیرمان	-11.416
▁شیکاری	-11.4161
زانست	-11.4163
▁سەردانەکە	-11.4163
▁٤	-11.4164
▁هەواڵگریی	-11.4164
تگیر	-11.4167
▁بچوکی	-11.4167
▁ڕوناکی	-11.4168
▁موسلیم	-11.4168
▁خرۆش	-11.4169
▁بەلیستی	-11.417
▁خواردووە	-11.417
بووەوە	-11.4171
تالی	-11.4172
حیزب	-11.4173
▁کۆمسیۆن	-11.4174
▁ئاڵۆزە	-11.4175
ژێر	-11.4176
دەوڵەتی	-11.4176
▁نەخو	-11.4177
▁نییەبە	-11.4178
▁ئاشکراشیکرد	-11.4178
▁ئەکاتەوە	-11.4181
▁لەیەکتری	-11.4182
▁بەڵی	-11.4182
▁کردوویەتی	-11.4182
▁دادگاییکردنی	-11.4182
▁بگەیەن	-11.4184
▁ئەلفوبێی	-11.4186
▁تایبەتیان	-11.4187
▁تەلەفیزیۆنی	-11.4187
▁لەڕوانگەی	-11.4187
▁دێموکراسیی	-11.4191
▁کوڕێکی	-11.4192
▁هەواڵەکان	-11.4192
این	-11.4194
▁زۆرم	-11.4195
▁پێکبهێنرێت	-11.4197
▁لەبارەگای	-11.4198
گرم	-11.4199
▁بڵاویان	-11.42
▁هەبیت	-11.4201
▁ڕەچاوکردنی	-11.4204
▁دەردەکەون	-11.4205
▁خوێندنگەی	-11.4205
▁1974	-11.4206
▁میتۆد	-11.4206
شێر	-11.4207
▁زیادبوون	-11.4207
▁شیکردنەوە	-11.4209
▁ڤیدیۆیی	-11.4209
دەدرێت	-11.4209
▁گوتارە	-11.421
▁بەشداربووانی	-11.4212
▁فریاد	-11.4212
▁داستانی	-11.4212
▁پێیدا	-11.4212
▁کەپێویستە	-11.4213
▁فەرمانگەکانی	-11.4214
▁قەوم	-11.4216
▁داگیرکەری	-11.4219
▁هۆشبەر	-11.422
▁هەق	-11.4221
▁هەتاو	-11.4222
▁فیلمەدا	-11.4223
▁نۆر	-11.4226
ڕۆژی	-11.4228
مەحمود	-11.423
▁شەهرام	-11.4231
▁کەلتور	-11.4231
▁ببە	-11.4232
▁co	-11.4232
▁خولیای	-11.4234
▁خەرجکردنی	-11.4234
▁پێشمەرگەکانی	-11.4234
▁هەند	-11.4236
ینۆ	-11.4236
ڕن	-11.4239
▁تێبگەین	-11.424
▁هەوڵدەدەن	-11.424
مێنت	-11.424
▁جۆرەکان	-11.4243
▁لیس	-11.4244
▁حکوم	-11.4244
▁لەترسی	-11.4245
▁عێراقیان	-11.4248
▁کەدەبێت	-11.425
▁گوای	-11.4252
▁دهێت	-11.4252
▁مەرجەعی	-11.4253
▁پارتەکان	-11.4253
لۆر	-11.4254
▁بەردەمی	-11.4258
▁گۆڕانیش	-11.4259
اگ	-11.4259
▁تێبینییەک	-11.4263
▁سەودا	-11.4264
▁ڕێسای	-11.4264
▁بەڵگەوە	-11.4265
▁قۆرخ	-11.4266
عد	-11.4268
▁تورکیایە	-11.4268
▁میرات	-11.4269
▁بەرچاویان	-11.4272
ێنرا	-11.4272
▁سویسری	-11.4279
بێر	-11.4279
▁گەشتە	-11.4281
▁بست	-11.4283
▁پاشانیش	-11.4284
▁وەهای	-11.4285
▁میتۆدی	-11.4286
▁دەکران	-11.4286
▁تەقیەوە	-11.4287
منداڵ	-11.4288
▁ڕێزمان	-11.4288
▁شورای	-11.4291
▁فایل	-11.4291
▁باک	-11.4294
دة	-11.4296
▁دەڕ	-11.4297
وریا	-11.4299
▁بخەمە	-11.43
▁پەشێو	-11.43
▁الد	-11.4303
▁داماو	-11.4304
▁پەسەندکرا	-11.4304
▁لڤین	-11.4305
زمە	-11.4306
▁لێکەوت	-11.4306
▁کرۆ	-11.4308
▁بڵاوکراوە	-11.4308
دانەوە	-11.4308
▁موستەفا	-11.4311
▁پێداوە	-11.4312
▁کال	-11.4312
▁سودمەند	-11.4312
▁عەدالەتی	-11.4312
▁مەترسییەکی	-11.4314
▁نوێنەرێکی	-11.4314
▁ئەندامە	-11.4314
▁خەڵکانێکی	-11.4315
▁نایەن	-11.4315
▁تیرۆرو	-11.4316
▁لەسەرووی	-11.4316
▁بەرەیەکی	-11.4316
▁لیژنەکان	-11.4317
ەنە	-11.4318
▁ئەوانەشی	-11.432
▁دەستەمۆ	-11.4322
▁پۆلێن	-11.4322
▁یاسایه	-11.4323
▁ڕێورەسم	-11.4326
▁قەبووڵ	-11.4327
کارو	-11.4327
29	-11.4329
▁هەڵاتن	-11.4331
اللە	-11.4333
ێدا	-11.4333
▁بێئاگا	-11.4334
▁هاریکاریی	-11.4337
هەندێک	-11.4345
▁ترسنۆک	-11.4345
▁بیکەن	-11.4346
▁جۆرەها	-11.4347
▁کانون	-11.435
ter	-11.435
▁وێنەیەک	-11.435
نێکی	-11.4351
یزی	-11.4352
▁تار	-11.4355
▁یەکەوە	-11.4356
▁نشین	-11.4356
▁ژیرانە	-11.4356
▁دابەشبوون	-11.4357
▁پش	-11.436
▁کۆنفڕانس	-11.4361
ڵان	-11.4361
فەی	-11.4361
▁گۆم	-11.4361
رێکی	-11.4362
▁کەزۆر	-11.4362
▁بانکەکان	-11.4363
▁ئامارە	-11.4364
▁ڕۆنی	-11.4366
▁حەقیقەتی	-11.4366
▁لێت	-11.4366
▁گرێبەستە	-11.4367
▁ببینم	-11.4368
▁شاهیدی	-11.4369
نشین	-11.4369
▁ئەخ	-11.437
پێکراو	-11.437
▁سندوق	-11.4371
▁لەچی	-11.4371
سروشت	-11.4372
▁هاورێی	-11.4372
▁ناوچەکەیان	-11.4375
▁کۆتاییان	-11.4376
▁کیشوەری	-11.4379
▁بەنیازی	-11.4382
▁چاوەروانی	-11.4383
بکرێنەوە	-11.4383
▁تین	-11.4383
▁سکی	-11.4383
بیری	-11.4385
▁ڕوناک	-11.4386
▁ڕونیشیکردەوە	-11.4386
▁براوەکانی	-11.4386
▁دادگە	-11.4388
▁کانزا	-11.4388
▁هەڵم	-11.4389
ژەی	-11.439
▁بینیم	-11.4392
▁کۆمەلگای	-11.4398
گەرا	-11.4399
▁کۆش	-11.44
▁خەلات	-11.4401
▁نوێبوونەوە	-11.4401
▁ناوازە	-11.4401
▁بەرگرتن	-11.4405
▁واقیعدا	-11.4406
▁تێکەڵاو	-11.4406
▁10000000	-11.4406
▁تاوانباری	-11.4407
▁زوممار	-11.4411
▁ژەنەڕاڵ	-11.4411
▁دابەزین	-11.4411
▁سووتاند	-11.4412
▁بردە	-11.4413
▁دەمامک	-11.4413
رۆک	-11.4413
▁سار	-11.4413
▁82	-11.4416
▁بەخێرهاتنی	-11.4417
▁جووتیار	-11.4419
▁پێبەخشرا	-11.4419
پەیوەندی	-11.442
▁سالە	-11.442
▁حکوومەتەکەی	-11.442
دەکرێ	-11.442
اوا	-11.4421
▁ورە	-11.4422
مز	-11.4423
▁قووڵتر	-11.4423
یەکەیان	-11.4424
وەتەوه	-11.4425
▁ئاسودە	-11.4425
▁ئێستاوە	-11.4426
▁دانیشتنەکە	-11.4426
▁لەڕوی	-11.4427
گاکانی	-11.4427
▁کوردۆساید	-11.4427
▁مەنسور	-11.4428
▁ڕاڤە	-11.443
▁هۆزان	-11.4432
▁قی	-11.4433
▁پرۆژەکە	-11.4433
▁ئەبەدی	-11.4433
▁سای	-11.4435
▁ئەنفالی	-11.4436
▁میوزیک	-11.4436
▁قیامەت	-11.4436
▁بگەڕێینەوە	-11.4438
لوو	-11.4439
▁زمانەکانی	-11.4441
▁دابەشکرا	-11.4442
▁ڕەفتارە	-11.4442
87	-11.4443
نەکراو	-11.4446
▁چیرۆکێکی	-11.4446
ەته	-11.4446
▁موحەمەدی	-11.4447
▁فەرید	-11.4448
▁دەورو	-11.4449
▁دەکردن	-11.4449
▁هەڵواس	-11.4449
▁یەکلاکردنەوەی	-11.4449
▁Comment	-11.4449
وومە	-11.445
▁برینی	-11.4453
▁شەهاب	-11.4453
▁چەتە	-11.4454
٥	-11.4454
▁دیلان	-11.4457
▁دروشمە	-11.4458
▁یاداشت	-11.4462
▁سەرسامی	-11.4462
خاڵی	-11.4462
خواردن	-11.4466
لۆس	-11.4468
▁غەفور	-11.447
▁هەڵسا	-11.447
▁داواکردنی	-11.447
▁چای	-11.4471
▁پێشکەوتنخواز	-11.4472
▁مینا	-11.4475
▁لەشێوەی	-11.4476
▁کەمیی	-11.4477
▁ئافرەتە	-11.4479
▁هاوینی	-11.4479
▁خوارووی	-11.448
▁ستا	-11.4481
▁هەڵبژاردنەوە	-11.4481
▁دادگاو	-11.4485
▁نوسینە	-11.4485
خەڵکی	-11.4486
▁تێز	-11.4486
ڕۆڵ	-11.4487
▁شاکار	-11.4487
▁ولاتێکی	-11.4487
▁لەئارادا	-11.4488
▁لیستەکانی	-11.4488
▁ار	-11.4488
کۆر	-11.4489
▁ماوه	-11.4489
▁ژیانەوە	-11.4491
▁هەوڵەکانیان	-11.4494
▁گەلاوێژ	-11.4496
▁براکەی	-11.4496
▁سوتاندنی	-11.4496
▁ساڵانه	-11.4496
خاو	-11.4497
▁ڵام	-11.4499
▁بەژن	-11.45
▁هەڵبگرێت	-11.45
کتۆر	-11.4503
▁ناهەموار	-11.4503
▁کۆگا	-11.4506
▁ڕەگی	-11.4507
▁بەڵێنەکانی	-11.4507
▁دەستداوە	-11.4507
▁قوربانییەکان	-11.4507
▁ڕۆژگارە	-11.4512
لاد	-11.4514
لال	-11.4516
▁ڕۆستەم	-11.4517
▁تاڵی	-11.4518
▁لەیاسای	-11.4518
▁تراژیدیا	-11.452
▁Tuesday	-11.452
قام	-11.452
▁دیبەگەیی	-11.4521
▁سەرژمێریی	-11.4522
▁ڕۆیشتنی	-11.4522
▁دەمێنێت	-11.4522
▁غەزە	-11.4524
▁منداڵەکەی	-11.4525
▁سۆسیالیزم	-11.4528
بۆیه	-11.4529
▁لەهەمانکاتیشدا	-11.4529
▁ساڵەو	-11.4529
▁هاتووەو	-11.4529
52	-11.453
▁فۆتۆگرافەر	-11.453
کەسێک	-11.453
▁بدەینەوە	-11.4535
▁هۆیەک	-11.4536
▁فۆڕمی	-11.4539
نیت	-11.454
▁بکرایە	-11.4541
▁خەسڵەتی	-11.4542
▁کردەوەو	-11.4542
▁نەبووم	-11.4545
▁سەردەمیانە	-11.4545
▁گەرەک	-11.4546
▁هاوکێشەی	-11.4546
هۆڵ	-11.4546
▁بەبڕیاری	-11.4547
▁ڕفاندن	-11.4548
کەرانی	-11.455
▁چاومان	-11.4551
▁ئۆتۆ	-11.4552
▁نوێوە	-11.4552
چا	-11.4553
▁گەرەکە	-11.4554
چکە	-11.4557
▁ڕایەڵ	-11.4557
کون	-11.4558
▁زیاتریان	-11.4559
دابێت	-11.4559
▁نەتەوەیەکگرتوەک	-11.456
خۆری	-11.4562
▁گیا	-11.4562
em	-11.4563
▁هۆکارانە	-11.4564
▁بلۆک	-11.4566
▁تەنگە	-11.4566
▁پاشکۆ	-11.4568
▁نواندنی	-11.4568
▁ڤا	-11.4569
▁بایی	-11.4569
▁پاڵنەر	-11.4569
▁گێران	-11.4571
▁مەولود	-11.4571
▁هاوارێک	-11.4571
بهێنن	-11.4571
▁لاشەی	-11.4572
موس	-11.4573
▁بینەری	-11.4573
▁دەعوە	-11.4574
▁وێنەو	-11.4575
▁ناسین	-11.4575
▁ئەوانیتر	-11.4576
خول	-11.4576
▁خەبەر	-11.4577
▁شانە	-11.4577
▁پشکدار	-11.4578
▁بڕیاریان	-11.4578
▁کەرنەڤاڵی	-11.458
▁خۆری	-11.458
▁پشتڕاست	-11.4582
ومانە	-11.4582
▁بەشداربووان	-11.4583
▁سەمای	-11.4583
▁حاشا	-11.4584
▁بادی	-11.4586
پوور	-11.4586
▁شۆڕشگێر	-11.4586
▁ئاوڕێک	-11.4586
▁سیاسیش	-11.4587
▁نێرینە	-11.4587
▁تراژیدیای	-11.4587
هاوکاری	-11.4589
یستەکان	-11.459
▁سوڕ	-11.4593
▁تەقەکردن	-11.4593
▁بەسەدان	-11.4595
▁باوەڕم	-11.4596
▁تەواوکەری	-11.4597
▁ئەرکانی	-11.4597
▁پەرۆش	-11.4599
خاک	-11.4601
جم	-11.4601
پێنج	-11.4601
تۆر	-11.4601
▁بوارێکی	-11.4602
▁ئاواتی	-11.4604
▁ئەمانەن	-11.4604
▁لەهەڵبژاردن	-11.4605
▁حەیران	-11.4606
▁وەزیرەکانی	-11.4608
▁بنەمایە	-11.461
▁گیرانی	-11.4611
حەی	-11.4611
▁سەبار	-11.4611
▁دەخوازن	-11.4614
فارس	-11.4615
▁کۆمەڵگایەک	-11.4615
▁تیاییدا	-11.4615
بوایە	-11.4615
▁لەبەرچاوگرتنی	-11.4616
▁نزیکترین	-11.4616
▁ناحیەکە	-11.4617
▁دەبینیت	-11.4618
▁خۆمدا	-11.4619
▁دووبەرەکی	-11.4622
▁ناسیۆنالیستی	-11.4623
▁وتوویەتی	-11.4624
▁دەستیپێکردووە	-11.4626
▁کۆنفرانسە	-11.4627
▁خولەکانی	-11.463
▁Monday	-11.4631
▁چەپەکان	-11.4632
▁بەگرنگ	-11.4632
▁مەلە	-11.4632
▁باوکە	-11.4632
▁کودەتای	-11.4633
▁سوتاو	-11.4634
پچڕ	-11.4638
▁نووسەرەکەی	-11.4638
▁All	-11.4638
▁هۆیەشەوە	-11.4639
▁سۆلاڤ	-11.464
▁بوێری	-11.4644
پس	-11.4645
رەوە	-11.4645
▁لەبودجەی	-11.4646
لەبەر	-11.4647
▁موتڵەگ	-11.4648
▁یادکردنەوەی	-11.4649
▁فایق	-11.465
▁پێیەتی	-11.4652
▁بونەوەی	-11.4652
▁کەشف	-11.4654
اعی	-11.4654
▁تاوانەکە	-11.4654
▁پرسیارەکانی	-11.4655
▁مشەخۆر	-11.4657
▁تێکەڵی	-11.4658
▁پێداویستییە	-11.466
▁سمینار	-11.4661
▁زەر	-11.4663
▁خۆرهەلاتی	-11.4665
▁ناسراون	-11.4665
بکەوێت	-11.4666
▁دۆڕان	-11.4666
لد	-11.4668
ییه	-11.4669
▁دروستکراو	-11.4669
▁نۆزدە	-11.467
▁بەرگریکار	-11.467
ارەکانی	-11.4671
▁دەلالەت	-11.4673
▁باوەڕە	-11.4673
▁پێکهێنرا	-11.4673
▁نازانیت	-11.4674
▁بەئازادی	-11.4676
▁شەراب	-11.4678
▁نواند	-11.4678
▁موسوڵمان	-11.4678
ئەمڕۆ	-11.4679
▁Saturday	-11.4682
▁تارا	-11.4684
▁مەق	-11.4684
ڵێن	-11.4684
▁بەکاردێت	-11.4686
▁سلبی	-11.4688
▁توانیویان	-11.4688
▁ڕۆژگاری	-11.4689
▁حەس	-11.4689
سپی	-11.469
▁لیستەکان	-11.4691
▁دەکوژرێت	-11.4691
▁نەخۆشخانه	-11.4692
▁ململانێکان	-11.4692
▁لەسەد	-11.4693
▁ئاسای	-11.4695
کەکان	-11.4696
تورکیا	-11.4697
بونە	-11.4697
▁دەردی	-11.4697
▁نوێیەی	-11.4698
ژو	-11.4699
▁داواکارییە	-11.4699
▁خۆئامادەکردن	-11.47
▁تەقاندنەوەی	-11.4701
▁خوارەوەی	-11.4701
▁نووسەرێکی	-11.4702
واس	-11.4703
▁دوەمی	-11.4705
▁ترسناکی	-11.4705
▁دەفتەر	-11.4705
▁هاوسۆزی	-11.4706
▁قارەمانی	-11.4708
▁view	-11.4708
▁هاوڕێیانی	-11.4709
▁کەنیسە	-11.4709
▁پرەنسیپی	-11.4709
▁شەڕکەر	-11.4709
▁شۆفێران	-11.471
▁لێیە	-11.471
▁دوودڵی	-11.4713
▁ماوەیەی	-11.4713
▁پێغەمبەران	-11.4714
▁زنجیر	-11.4714
▁سوپاو	-11.4717
▁فەقێ	-11.4717
بع	-11.4717
دەس	-11.4718
▁داهاتوی	-11.4718
U	-11.472
▁غەم	-11.472
▁پێداچوونەوەی	-11.4721
▁ڕۆماننووس	-11.4722
▁پڕۆ	-11.4723
▁مامەڵ	-11.4723
▁تەڵەی	-11.4724
رێس	-11.4725
▁ناگرێتەوە	-11.4725
▁حەقی	-11.4726
▁دەناڵێنن	-11.4726
▁پەراوێزی	-11.4727
▁بەسره	-11.4727
وەک	-11.4728
▁تورکیە	-11.473
▁تایبەتەکان	-11.4731
▁وەزیرەکان	-11.4731
▁ئەتاتورک	-11.4734
▁کوالیتی	-11.4734
شتووە	-11.4735
▁دیاربوو	-11.4739
▁شیعەکانی	-11.4739
▁سیل	-11.4739
▁هۆن	-11.4741
▁لەولاتانی	-11.4741
توانا	-11.4742
ووەو	-11.4743
▁نراوە	-11.4743
▁حەمرین	-11.4744
▁ئەمریکایە	-11.4744
▁ئێستاو	-11.4745
▁تانە	-11.4746
پۆل	-11.4746
▁سەل	-11.4747
▁زانستیانە	-11.4747
▁پەیرەو	-11.4748
▁چیرۆکنووس	-11.475
▁وەردەگیردرێت	-11.4752
▁ناوچەگەریی	-11.4754
▁دیدارە	-11.4755
▁ماڵوێرانی	-11.4755
▁بنبڕ	-11.4755
▁٦	-11.4756
▁هەرێمەکان	-11.4756
▁داواکارییەکان	-11.4757
62	-11.4758
▁توێژەری	-11.4758
▁لاس	-11.4759
▁گەواهی	-11.476
▁قەرەتەپە	-11.476
▁کردەوەیەکی	-11.476
▁دەگەنە	-11.4761
ێیت	-11.4761
▁شەپۆڵ	-11.4762
▁1983	-11.4763
ڕێگا	-11.4763
▁تەڵ	-11.4763
▁کامپ	-11.4763
▁بەرپرسەکان	-11.4763
▁خەرمان	-11.4765
▁سەوزی	-11.4766
ونەته	-11.4766
▁ئیرادەیە	-11.4768
▁گرەنتی	-11.4769
▁دەبینەوە	-11.4771
▁ئێرانەوه	-11.4771
▁سروشتیەکان	-11.4772
ناسین	-11.4772
▁گوتراوە	-11.4773
▁ئازارو	-11.4774
هێزی	-11.4775
▁تێبگەن	-11.4776
چالاکی	-11.4776
▁لسەر	-11.4776
▁هۆرێن	-11.4777
▁ژیانمان	-11.4778
▁نەت	-11.4779
▁حەوتەمی	-11.4779
چارە	-11.4782
گۆی	-11.4783
▁زانستییەکان	-11.4783
چێتی	-11.4785
▁دەگوزەرێت	-11.4786
▁دۆن	-11.4787
▁دەمرێت	-11.4787
▁قاچی	-11.4791
▁بەستنەوەی	-11.4792
▁شر	-11.4796
▁چاوان	-11.4797
▁جیاوازییە	-11.4797
un	-11.4797
انێ	-11.4799
▁قبوڵی	-11.4799
▁زای	-11.48
▁ڕەحم	-11.4802
بڵ	-11.4802
▁کەسەکە	-11.4804
▁سێپتەمبەر	-11.4804
▁لەدایکبووە	-11.4805
▁نەبینی	-11.4807
▁تەخت	-11.4812
▁جەزا	-11.4812
▁هەشتی	-11.4814
وشک	-11.4815
دەین	-11.4815
▁بۆئەو	-11.4816
84	-11.4818
▁قەیرانەکان	-11.4819
پەنجە	-11.4819
▁کێشمەکێش	-11.482
▁پیاوسالاری	-11.482
▁هەڵبژێر	-11.4823
▁لەکەس	-11.4824
▁پرسیارەکان	-11.4825
▁ئیمتیاز	-11.4827
▁پشتیان	-11.4828
▁هەڵبژاردووە	-11.4828
▁کەسه	-11.4829
▁کامڵ	-11.4829
▁بەرەوپێشبردنی	-11.483
ئیسلام	-11.4834
تور	-11.4834
▁قاوە	-11.4834
▁دۆستانی	-11.4834
▁لەمانە	-11.4835
پارتی	-11.4836
▁ناوچەکەی	-11.4838
بول	-11.4838
▁ناکرێن	-11.4838
وەته	-11.484
▁دانیشتنێکی	-11.484
▁تەب	-11.484
رێگا	-11.484
▁وردەکاریی	-11.484
شێوە	-11.4842
▁بەرێژەی	-11.4845
▁Thursday	-11.4847
ژمار	-11.4848
▁ناوەندێکی	-11.4849
lo	-11.4849
هەرێمی	-11.485
▁دانەر	-11.485
باڵا	-11.485
▁الثانی	-11.4851
▁گرنگیان	-11.4852
ژەنتین	-11.4853
▁وتنی	-11.4854
▁ڤینۆس	-11.4856
▁بوەو	-11.4857
▁سێدارەدان	-11.4858
▁بەرژەوەندیە	-11.486
▁داواکار	-11.486
▁کوردییەوە	-11.4861
▁ڕامیار	-11.4865
▁شکۆ	-11.4865
▁خەندە	-11.4865
▁کۆدەبنەوە	-11.4866
▁هەوڵیان	-11.4868
▁تووڕەیی	-11.4872
▁وەڵات	-11.4873
شەڕ	-11.4873
▁مەترسییە	-11.4874
▁مرۆڤەوە	-11.4875
▁سەم	-11.4875
▁کوێستان	-11.4879
▁سەرخۆش	-11.4879
زۆ	-11.488
▁دەکوژن	-11.4881
جەو	-11.4882
▁بنچینەیی	-11.4883
▁ئەمجارەش	-11.4883
پلان	-11.4883
▁لێبکرێت	-11.4883
▁تاوانێک	-11.4883
▁دەستکەوتەکان	-11.4883
ڕانی	-11.4883
▁گۆن	-11.4884
▁ئاژانسەکانی	-11.4885
▁عەقڵانی	-11.4885
چیرۆک	-11.4887
▁گۆرانییەکی	-11.489
بڕاو	-11.489
▁دەمانەوێ	-11.4892
▁گرنگن	-11.4893
ڕشت	-11.4893
▁پلەکانی	-11.4893
بة	-11.4894
▁گەڕەکە	-11.4895
▁ڕوبەروی	-11.4898
▁ناوچەکەش	-11.4898
▁جیهانبینی	-11.4899
▁پاتری	-11.4902
▁سۆزان	-11.4904
▁بەوجۆرە	-11.4906
▁کۆنسێرتی	-11.4907
▁مەردان	-11.4907
▁هەمانکاتدا	-11.4909
▁بوونەوەر	-11.4909
▁پرسەکانی	-11.491
▁سنه	-11.491
▁نێودەوڵەتیەکان	-11.491
▁داهاتودا	-11.4911
▁دەخاتەڕوو	-11.4913
▁کردۆته	-11.4914
▁دەرنە	-11.4914
▁لەسەدەی	-11.4916
▁مردووە	-11.4917
▁Sunday	-11.4918
▁سورەتی	-11.4918
▁مەعروف	-11.4918
شیعر	-11.4918
▁پرۆلیتاریا	-11.492
▁بڕیاریشە	-11.4921
▁باڵەخانە	-11.4921
خانه	-11.4922
▁مانگانەی	-11.4922
▁ئایدیۆلۆژی	-11.4923
▁خانمه	-11.4924
▁پاڵی	-11.4924
▁l	-11.4925
▁بەرزو	-11.4925
▁عەمر	-11.4926
▁حەدبا	-11.4926
▁پرسەو	-11.4927
▁نەفەر	-11.4927
▁ڕوونکردنەوە	-11.4927
▁لامان	-11.4927
▁تازەترین	-11.4927
حاڵ	-11.4928
▁هەواڵەکانی	-11.4932
▁ئەزانن	-11.4932
▁جەختیشی	-11.4934
خەڵک	-11.4934
▁سوودیان	-11.4935
▁یارییەکەش	-11.4935
▁سەعاتێک	-11.4936
▁هەندێکیشیان	-11.4936
▁نائومێد	-11.4938
▁کۆمەڵناسی	-11.4938
▁سێر	-11.4938
▁کشانەوە	-11.494
▁خەباتە	-11.494
▁پەیج	-11.4941
▁نوێنەرایەتیی	-11.4941
▁دووا	-11.4941
ۆژه	-11.4941
▁نەرویژ	-11.4944
▁هەزارەها	-11.4945
▁قسەم	-11.4947
▁ڕێککەوت	-11.4947
▁نەخوێندەوار	-11.4949
▁لەگوندی	-11.495
▁کۆبوونەوەیە	-11.4951
▁ئاودێری	-11.4951
▁هەواڵەکە	-11.4952
▁بخوێنێتەوە	-11.4954
▁هەڵەبجەیی	-11.4954
ڤال	-11.4954
▁خەمخۆر	-11.4954
▁بەوشێوەیە	-11.4955
▁نرخەکەی	-11.4956
▁نەتەو	-11.4963
▁سوتاند	-11.4965
▁کۆمەلا	-11.4966
▁هێر	-11.4967
▁ناهێنێت	-11.497
▁سەیید	-11.4971
ێندراو	-11.4972
▁لێنا	-11.4972
▁بڵێیت	-11.4972
–	-11.4974
▁هەڤاڵانی	-11.4975
▁سەدەیەک	-11.4977
▁ێک	-11.4977
me	-11.4978
بوەوە	-11.4978
▁تەشەنە	-11.498
▁بدۆزرێتەوە	-11.498
▁ڕائید	-11.4981
▁ڕێکخراوانە	-11.4982
رێز	-11.4982
▁دەرکە	-11.4983
▁ناچێتە	-11.4984
▁نەتوانراوە	-11.4984
▁شیان	-11.4984
▁نەمابوو	-11.4985
▁وازهێنان	-11.4985
▁بوترێت	-11.4987
▁نەریتە	-11.4987
th	-11.4987
▁خوشکی	-11.4987
▁بەئاراستەی	-11.4988
▁مەدریدی	-11.4989
▁دەلێت	-11.499
ەس	-11.499
▁گەشەسەندن	-11.4991
38	-11.4992
▁پارلەمانتار	-11.4993
هەلات	-11.4994
▁ئالا	-11.4995
پێکهات	-11.4998
▁قودس	-11.5
▁بەهادین	-11.5001
▁حەسرەتی	-11.5002
▁ڕدە	-11.5002
▁سادەو	-11.5003
▁ئەلبووم	-11.5003
▁ئاوەز	-11.5006
▁دیارو	-11.5007
▁فەرمانڕەوا	-11.5009
▁دەیوت	-11.501
▁لەئەمریکا	-11.5011
تال	-11.5011
▁زانیارییەکی	-11.5012
▁مێش	-11.5012
▁کێڵگە	-11.5013
قین	-11.5013
▁سەنتەرێ	-11.5014
▁چەوسانەوە	-11.5014
▁ببیت	-11.5015
▁٢	-11.5016
▁چارەنوس	-11.5017
▁سەرنشین	-11.5022
▁تاکسی	-11.5027
▁گیرۆدەی	-11.5027
▁خوڵقاندنی	-11.5028
بهێنێت	-11.503
▁هەڵەو	-11.5031
▁برادەرانی	-11.5032
▁گۆڕە	-11.5032
▁مێز	-11.5033
▁بارگرژی	-11.5033
▁دەگەڵ	-11.5034
▁مەرگەسات	-11.5034
▁ڕەخنەیی	-11.5035
کوژن	-11.5037
▁بەچی	-11.5038
▁دایکە	-11.5039
▁قوناغ	-11.5044
▁ئەمانیش	-11.5044
▁تێڕوانینە	-11.5045
▁سەرەڕۆیی	-11.5046
▁کەتێیدا	-11.5048
▁نانەوەی	-11.5048
دەخات	-11.505
ce	-11.5052
▁لەگشت	-11.5053
▁بەرو	-11.5055
▁لەناوەڕاستی	-11.5055
▁ژینگەیی	-11.5055
تاری	-11.5056
بوور	-11.5057
41	-11.5058
▁سەوزایی	-11.5058
▁تێبگات	-11.506
وال	-11.5062
▁بنێ	-11.5062
▁هەمەلایەنە	-11.5063
▁کەپێشتر	-11.5063
▁هەستیارە	-11.5064
▁شەریعەت	-11.5066
▁ئاژەڵی	-11.5066
▁پێوەرە	-11.5067
▁بەڕوو	-11.5067
▁ڕێگایە	-11.5067
▁بەرۆژ	-11.5068
ێف	-11.5068
ak	-11.5069
▁تەنگژە	-11.5069
▁دۆستانەی	-11.507
▁کاریگەریان	-11.5071
▁کردەیەکی	-11.5071
▁سوپەر	-11.5071
▁دەقەکەیەتی	-11.5072
▁پێشکەوتنە	-11.5073
▁چاوێک	-11.5073
▁سپارد	-11.5077
▁لێکترازان	-11.5078
▁بازیان	-11.5078
▁بەکرێگیراو	-11.5078
▁جێبەجی	-11.5079
▁لێپرسینەوەی	-11.5079
▁دەمار	-11.5079
▁دەبیست	-11.5081
▁ئاسۆس	-11.5082
▁شووشە	-11.5082
جەستە	-11.5082
▁قووت	-11.5083
ێنراوە	-11.5084
▁سروودی	-11.5084
تێل	-11.5085
▁پێزانین	-11.5086
▁هەلەبجە	-11.5086
▁دەپرسم	-11.5087
▁نیۆیۆرک	-11.5087
▁ئاوها	-11.5089
▁بکەوێتەوە	-11.5089
▁ڕۆژنامەنووسیدا	-11.509
▁وڵاتەکه	-11.5091
▁خێزانەکان	-11.5095
▁کۆبونەوەکە	-11.5096
▁ئۆردوگا	-11.5096
▁باوکان	-11.5097
▁بات	-11.5098
▁ئامادەبووانی	-11.5099
▁دابونەریت	-11.51
ۆڵە	-11.51
▁نەبیت	-11.5101
بەپێی	-11.5102
▁مووشەک	-11.5103
▁فەیسەڵ	-11.5105
▁عەر	-11.5106
▁گۆلەکانی	-11.5106
▁ڕێبازە	-11.5107
شارە	-11.5107
▁1982	-11.5107
▁ئاسوودەیی	-11.5109
▁ئاڤا	-11.5109
▁چۆ	-11.5113
▁ئاریتما	-11.5113
▁هەڵبژاردنەدا	-11.5114
▁غەرامە	-11.5118
ادا	-11.5119
▁قانوون	-11.5121
▁عەرەبییەکان	-11.5121
کەوێ	-11.5122
▁پۆستەکانی	-11.5122
▁جەزیرە	-11.5123
▁نێوەند	-11.5123
▁یاریزانەکان	-11.5123
▁وەلید	-11.5128
73	-11.5128
▁کارمان	-11.5134
▁مانگرتنی	-11.5138
▁قەڵەو	-11.514
▁کریستیان	-11.5141
▁92	-11.5142
قەرە	-11.5143
▁ململانێیەکی	-11.5144
ۆست	-11.5145
ومی	-11.5147
▁گونجاوی	-11.5148
ێوەدەچێت	-11.5149
▁دیفاع	-11.5149
▁ئاڵوگۆر	-11.515
▁کوردییەکانی	-11.5151
▁پاسپۆرت	-11.5153
▁بهێنیت	-11.5154
▁گەلەری	-11.5155
▁خۆپیشاندەرانی	-11.5156
بڕوا	-11.5156
▁پاپا	-11.5159
▁Re	-11.516
▁نەبینیوە	-11.5166
ۆلیس	-11.5167
▁ڕک	-11.5167
▁گوزار	-11.5167
نەدان	-11.5168
▁سووتا	-11.5168
▁هەوادار	-11.517
کرێ	-11.5171
کرانەوە	-11.5171
▁گەورەترە	-11.5174
▁یاسادا	-11.5174
▁بەشداربن	-11.5176
▁وۆرکشۆپ	-11.5177
▁کۆیلایەتی	-11.5177
▁دانوستانەکان	-11.5177
▁بنووسم	-11.5177
کەفت	-11.5177
خەن	-11.5178
ئای	-11.5178
▁تۆدا	-11.5178
▁ئیدانە	-11.5179
خۆن	-11.5179
کراوه	-11.5179
46	-11.5181
ۆسی	-11.5181
▁چەپڵە	-11.5182
لاف	-11.5183
▁ڕێوڕەسم	-11.5183
▁نەیات	-11.5184
▁ئامادەکراوە	-11.5186
▁لایێ	-11.5186
▁بەیەکێتی	-11.5188
▁ڕیشە	-11.5189
اوه	-11.5189
ئازادی	-11.519
▁بەواتایەکی	-11.5192
▁کابرا	-11.5193
بدەین	-11.5193
▁توانییان	-11.5195
▁یەزیدی	-11.5195
▁ئوتێل	-11.5195
▁مەککە	-11.5197
▁هاوینە	-11.5198
▁خوه	-11.52
▁تێدایەو	-11.5202
▁کەسانه	-11.5202
▁بپارێزین	-11.5204
▁دابنێین	-11.5204
نگە	-11.5205
▁it	-11.5206
ودی	-11.5206
▁ڕەشنووسی	-11.5208
72	-11.5208
▁تەح	-11.5209
ha	-11.5209
▁دەخاتەوە	-11.521
▁بوێت	-11.521
دۆز	-11.5211
▁ڕۆژنامەنوسانی	-11.5211
▁سەرپەرشتیار	-11.5211
▁نەبێتەوە	-11.5213
▁کلتوور	-11.5213
▁چاوێکی	-11.5214
▁هاتۆت	-11.5214
▁ئاییندە	-11.5216
▁ژیا	-11.5216
▁هێن	-11.5216
▁دەستکە	-11.5216
▁بەهاکانی	-11.5217
▁لەوەڵامی	-11.5217
▁بەسەرۆک	-11.5218
▁شێواو	-11.5219
▁دەکەوت	-11.522
▁هەڵهاتن	-11.522
▁دەرەکییەکان	-11.5221
دیم	-11.5223
انەمان	-11.5223
▁ناحیە	-11.5223
▁بونەوە	-11.5224
▁فەرز	-11.5225
▁کەمپین	-11.5228
▁گشتیدا	-11.5228
▁ببو	-11.5229
▁پسپۆڕانی	-11.5231
یەکێتی	-11.5233
مبەر	-11.5234
ut	-11.5234
om	-11.5235
▁باسکەی	-11.5235
▁تێدابوو	-11.5236
کردنەوه	-11.5238
▁خاکەکەی	-11.5239
▁فەرمانڕەوای	-11.524
▁گەرەنتی	-11.524
▁پارێزەرانی	-11.524
▁زیندەوەر	-11.5241
▁ستۆکهۆڵم	-11.5241
▁دیارکر	-11.5241
▁هەرکات	-11.5242
▁کرم	-11.5244
▁لەزانکۆ	-11.5244
▁کامێرای	-11.5245
▁ڕاگەیاندنە	-11.5245
▁موع	-11.5249
▁پەلەوەر	-11.5249
▁تەیار	-11.5249
▁تراژیدی	-11.5251
▁کاربەدەست	-11.5251
▁کۆمەلێک	-11.5254
مارک	-11.5254
▁لەدایکبوون	-11.5256
▁درێغی	-11.5258
▁نوسەران	-11.5258
51	-11.5259
▁سنورە	-11.5263
▁کەناڵەکە	-11.5266
▁هەرچۆنێک	-11.5271
▁ڕەوش	-11.5273
▁دیدارێکدا	-11.5273
▁گەورەیەی	-11.5275
▁ڕووەو	-11.5277
▁حەلەب	-11.5278
▁پێبکەن	-11.5278
▁خولەی	-11.5278
▁ئیمزاکردنی	-11.5279
▁تەزوو	-11.528
▁گوێمان	-11.5282
68	-11.5284
▁لەبنەڕەتدا	-11.5286
دەکردەوە	-11.5286
▁دزراو	-11.5289
▁کۆنگ	-11.529
ڤیا	-11.5291
لێکۆڵینەوە	-11.5292
▁ڕوداوی	-11.5292
ڕادە	-11.5292
▁داکۆکیکار	-11.5292
▁مەسەلانە	-11.5293
▁چووم	-11.5293
▁لێبوردەیی	-11.5293
▁بەخەڵک	-11.5294
▁گۆڕا	-11.5295
86	-11.5298
▁شعر	-11.5299
81	-11.5299
هەن	-11.5299
▁ئەنجامیان	-11.53
▁دەوڵەتدا	-11.53
▁ڕوویەکەوە	-11.53
▁بەرخودان	-11.5304
خودا	-11.5304
▁ئەستوور	-11.5306
▁1995	-11.5307
▁ترمان	-11.5308
▁بینراو	-11.5308
قوڵ	-11.5309
حزبی	-11.531
▁هێزانەی	-11.531
▁برەودان	-11.531
▁نامیلکە	-11.5313
▁ئامادەیبوون	-11.5314
▁سەرکەوتو	-11.5315
▁نەیەوێت	-11.5315
▁بەردەوامه	-11.5316
▁ئەمەریکادا	-11.5319
سەڵ	-11.5321
▁حەڤد	-11.5322
▁چوونەتە	-11.5322
نوسی	-11.5323
▁خەل	-11.5323
زانم	-11.5324
▁وەرگیرا	-11.5325
▁بەدرۆ	-11.5328
ئەنجومەنی	-11.5328
▁لەناوخۆی	-11.5329
▁وتارێک	-11.5331
تۆپ	-11.5332
▁مۆنتاژ	-11.5332
▁تونێل	-11.5333
مۆند	-11.5334
خوڕ	-11.5334
▁نەبێتە	-11.5338
▁دۆستان	-11.5338
ترۆ	-11.5338
▁Magazine	-11.5341
▁شتەکانی	-11.5341
جیا	-11.5344
انگ	-11.5344
▁نێردەی	-11.5344
▁نیگەرانیی	-11.5346
▁جارانی	-11.5347
▁دێم	-11.5347
▁شوین	-11.5348
▁سوننەو	-11.5348
▁جیاوازییەک	-11.5349
▁نەبووەتە	-11.535
▁موشەک	-11.5351
▁خۆبەخش	-11.5352
▁بکوژانی	-11.5352
▁سەرابی	-11.5352
▁سەرەر	-11.5353
▁کەمپ	-11.5354
ڕک	-11.5354
▁سیناتۆر	-11.5354
▁سەعدون	-11.5355
▁کاریزما	-11.5355
جین	-11.5357
▁دیارەکانی	-11.5358
▁هاتنەوەی	-11.5358
▁دۆسێ	-11.5359
▁چەکدارانە	-11.5359
▁نەکرێن	-11.5359
▁دەنگێک	-11.536
▁داڕشت	-11.5362
ییدا	-11.5366
▁ئەکتەرە	-11.5367
ڕوان	-11.5367
سترا	-11.5369
▁ڕاوچی	-11.5371
▁1984	-11.5371
شیاندا	-11.5372
▁بخو	-11.5373
▁لەدەوڵەت	-11.5374
▁بەغدادی	-11.5374
▁ڤال	-11.5375
▁کتێبەکەی	-11.5376
▁چنگ	-11.5377
▁ئیخوانەکان	-11.5379
▁نیگا	-11.5379
▁کۆدەکرێتەوە	-11.538
▁یەکەیەکی	-11.5381
▁جۆراوجۆرەکان	-11.5381
▁ساڵرۆژی	-11.5382
▁کوێخا	-11.5383
دەرگا	-11.5384
بەرژەوەندی	-11.5384
▁خەز	-11.5386
▁بامەرنی	-11.5387
▁وەزیرە	-11.5388
لار	-11.5389
نەدانی	-11.5389
▁ەو	-11.539
▁بڕوام	-11.539
▁زیندووی	-11.539
▁دژه	-11.5393
▁گشتیەکان	-11.5393
▁96	-11.5393
▁نامرۆڤانە	-11.5395
▁بوومەلەرزە	-11.5396
▁ئەشرەف	-11.5396
▁بارین	-11.5397
▁ڕووناکبیران	-11.5398
▁گەڕاوەتەوە	-11.5399
ماد	-11.54
▁دۆز	-11.54
دەور	-11.5401
▁لەچ	-11.5402
هینانی	-11.5402
اندەران	-11.5402
▁پەروەردەکردنی	-11.5402
▁زوڵملێکراو	-11.5406
مامۆستا	-11.5407
▁چایخانە	-11.5409
▁بەگرنگی	-11.541
▁بکەونە	-11.5411
گیراو	-11.5412
▁سالان	-11.5414
▁protect	-11.5415
▁گەورەدا	-11.5416
وێت	-11.5416
اوەر	-11.5416
توون	-11.5418
▁هەتایە	-11.5419
▁مابێت	-11.5419
▁بڕوانامە	-11.542
▁سەردەمەی	-11.5423
▁سەرەتایەک	-11.5424
▁ڕاشکاوی	-11.5425
▁شتێکە	-11.5427
نامه	-11.5428
چۆن	-11.5429
▁May	-11.543
رانەوە	-11.543
▁بەشەکەی	-11.5431
▁فیزیا	-11.5432
▁ڕادەگە	-11.5432
▁مەسرور	-11.5433
▁پەپوولە	-11.5433
▁دووساڵ	-11.5434
▁الدین	-11.5434
▁پێناوەدا	-11.5435
▁بودجەکە	-11.5437
کوشت	-11.5438
▁مۆد	-11.5438
▁ئێزیدی	-11.5439
▁میانڕەو	-11.5443
سپ	-11.5443
▁بۆنمونە	-11.5444
▁پێوویستە	-11.5445
▁بەعسدا	-11.5446
▁لەڕوو	-11.5447
82	-11.5448
▁نموونەیەک	-11.5451
▁حەویجە	-11.5453
بەدەست	-11.5453
دد	-11.5453
▁بچمە	-11.5454
▁هێناوەو	-11.5455
▁کۆکن	-11.5456
▁اڵاول	-11.5456
▁تەقاند	-11.5457
▁لوت	-11.5457
٠٠	-11.5457
▁نۆژەن	-11.5459
▁ئامادەکراو	-11.5459
▁بەرنامەیەک	-11.546
▁نازانرێت	-11.5461
▁تالەبانی	-11.5461
▁سەرمایەگوزاری	-11.5461
▁بمێنێت	-11.5462
حەت	-11.5462
▁ئێمەیان	-11.5462
▁ڕواڵەت	-11.5463
▁بەڕاست	-11.5464
فان	-11.5466
▁ئیسلامیش	-11.5469
بودجە	-11.5469
جد	-11.547
▁ئۆغلو	-11.547
▁مالیزیا	-11.5471
حوکم	-11.5471
▁لەوپەڕی	-11.5471
▁شۆڕشێکی	-11.5473
▁بڵاوکردنەوە	-11.5474
▁هیدایەت	-11.5474
▁پێناد	-11.5477
▁لەسەرۆک	-11.5477
▁فاکتەرێکی	-11.5477
▁شوکر	-11.5478
▁کوێتی	-11.5478
▁هۆکارەکەشی	-11.5479
▁ئینسایکلۆپیدیای	-11.548
▁کتوپڕ	-11.548
▁دەخوازم	-11.548
▁دەرکرا	-11.5481
▁بڕیارەکان	-11.5481
لاک	-11.5482
59	-11.5482
▁پرۆژەیاسای	-11.5482
▁١	-11.5483
▁هاتو	-11.5484
▁هۆشی	-11.5484
▁ڕۆحانی	-11.5485
▁دیموکراتیەت	-11.5486
▁تیۆر	-11.5487
▁لۆکاڵی	-11.5488
▁خوش	-11.5488
▁بنیاتنانەوەی	-11.549
▁کۆببنەوە	-11.549
دەزگا	-11.5491
▁زەویدا	-11.5491
▁ببڕێت	-11.5491
بس	-11.5495
▁ڕێگەچارەی	-11.5498
▁جیهانگیری	-11.5498
▁پێکهاتبوون	-11.55
▁چەندێ	-11.55
▁جوانیی	-11.55
شۆر	-11.5501
▁زلهێزەکان	-11.5501
▁دێنێت	-11.5505
▁ئامادەکارییەکان	-11.5507
▁ئامۆزا	-11.5508
▁ڕوس	-11.5509
▁تەئکیدیکردەوە	-11.5509
▁گێڕاوە	-11.551
▁دنیاوە	-11.5514
▁پرۆژەیه	-11.5515
بۆل	-11.5515
▁بەهەم	-11.5516
▁پەرلەمانە	-11.5516
▁ناوبرد	-11.5517
▁تۆتنهام	-11.5517
▁بەرباس	-11.5518
▁دواجاریش	-11.5518
▁زووە	-11.5518
▁جیابونەوە	-11.552
▁پەکەکه	-11.5521
▁پرسیارەوە	-11.5521
▁ئەرستۆ	-11.5522
▁گرنگه	-11.5523
▁خوڵق	-11.5524
▁ئاشتیخواز	-11.5525
▁خەتی	-11.5525
▁تامی	-11.5526
▁دەچێتەوە	-11.5527
▁شانشینی	-11.5527
▁دابمەزرێت	-11.5527
▁ڕوانینی	-11.5528
ۆشی	-11.5529
▁گرێدانی	-11.5532
▁پەڵە	-11.5533
▁چارەسەرێک	-11.5534
▁جێناکۆکەکان	-11.5534
54	-11.5535
▁بەبیانووی	-11.5536
▁بینیووە	-11.5536
▁ڕستەی	-11.5536
▁وشەیەک	-11.5539
▁1976	-11.5539
▁ستیڤان	-11.554
ونە	-11.5544
▁مرۆڤانە	-11.5545
▁هەڵکشان	-11.5545
▁درو	-11.5545
▁بەکاردەهێنن	-11.5546
ارت	-11.5547
▁نەخۆشخانەکە	-11.5547
▁باسکرد	-11.5548
▁مەج	-11.5549
▁ئۆس	-11.5549
▁کاراکتەر	-11.5549
دڕ	-11.555
▁دادپەروەریی	-11.5552
▁ئاوەها	-11.5553
کێک	-11.5555
▁داڕشتنەوەی	-11.5555
▁نەتەوەییەکانی	-11.5555
▁نوسیویەتی	-11.5555
▁گەرانەوەی	-11.5555
▁ڕاکردن	-11.5555
▁لەپەیوەندی	-11.5556
ئەمەریکا	-11.5558
▁سەندنەوەی	-11.5558
▁دەستەیەک	-11.5559
[...]
