[PAD]
[UNK]
[CLS]
[SEP]
[MASK]
!
"
#
$
%
&
'
(
)
*
+
,
-
.
/
0
1
2
3
4
5
6
7
8
9
:
;
<
=
>
?
@
A
B
C
D
E
F
G
H
I
J
K
L
M
N
O
P
Q
R
S
T
U
V
W
X
Y
Z
[
\
]
^
_
`
a
b
c
d
e
f
g
h
i
j
k
l
m
n
o
p
q
r
s
t
u
v
w
x
y
z
{
|
}
~
¡
£
§
¨
©
«
¬
®
°
±
²
³
´
µ
·
¸
¹
º
»
¼
½
¾
¿
×
Ø
ß
æ
÷
ø
ħ
ı
ł
œ
Ƈ
ƒ
ƥ
Ʀ
ǁ
ǆ
ǈ
Ǌ
Ǥ
Ȥ
ȥ
ɑ
ɒ
ɔ
ə
ɛ
ɪ
ɽ
ʁ
ʇ
ʉ
ʌ
ʐ
ʒ
ʘ
ʠ
ʡ
ʤ
ʥ
ʦ
ʪ
ʮ
ʷ
ʿ
ˆ
ˈ
ˉ
ˌ
ˍ
˚
Α
Δ
Ε
Η
Κ
Μ
Π
Ρ
Φ
Ω
α
β
γ
δ
ε
ζ
η
θ
ι
κ
λ
μ
ν
ξ
ο
π
ρ
ς
σ
τ
υ
φ
χ
ψ
ω
ϐ
Ϙ
Ϡ
ϡ
Ϥ
ϥ
Ϧ
Ͽ
А
Б
В
Г
Д
Е
Ж
З
И
К
Л
М
Н
О
П
Р
С
Т
У
Ф
Х
Ч
Ш
Щ
Ю
Я
а
б
в
г
д
е
ж
з
и
к
л
м
н
о
п
р
с
т
у
ф
ц
ч
ш
щ
ъ
ы
ь
э
ю
я
є
і
ј
џ
Ѡ
ѣ
Ѥ
ѥ
Ѧ
Ѫ
ҁ
Ґ
ґ
Ғ
Ҙ
Ҡ
Ҥ
ҥ
Ҧ
Ӈ
ӊ
ӏ
Ә
Ӡ
ӡ
Ө
ԇ
Ԋ
ԍ
Ԙ
ԟ
Ԡ
ԥ
Ԧ
Հ
ա
ե
յ
ն
ր
א
ב
ג
ד
ה
ו
ז
ח
ט
י
ך
כ
ל
ם
מ
ן
נ
ס
ע
פ
צ
ק
ר
ש
ת
״
،
؛
؟
ء
ا
ب
ة
ت
ث
ج
ح
خ
د
ذ
ر
ز
س
ش
ص
ض
ط
ظ
ع
غ
ـ
ف
ق
ل
م
ن
ه
و
ى
ي
٠
١
٢
٣
٤
٥
٦
٧
٨
٩
٪
٭
ٱ
ٶ
پ
چ
ڇ
ڎ
ڕ
ژ
ڤ
ڦ
ڨ
ک
گ
ڵ
ھ
ہ
ۆ
ۈ
ۊ
ی
ێ
ۏ
ې
۔
ە
۞
ۥ
ۦ
۩
۰
۱
۲
۳
۷
۸
۹
ܐ
ܒ
ܘ
ܝ
ܠ
ܢ
ܩ
ܪ
ݒ
ݠ
ݥ
ݦ
ޏ
ޠ
ޥ
߇
ߎ
ߑ
ߠ
ߥ
ߦ
ং
ব
ল
া
ท
ย
ไ
ລ
ວ
າ
་
ག
ད
བ
ཡ
ა
თ
ი
ლ
რ
უ
ქ
ᄀ
ᄃ
ᄋ
ᄒ
ᅡ
ᅥ
ᅩ
ᅮ
ᅵ
ᆨ
ᆫ
ᆼ
ᇣ
ᇦ
ማ
ር
ት
ኛ
አ
ግ
ᓦ
ខ
ម
រ
ែ
᠈
᠟
ᠥ
ᥝ
ᥠ
ᦌ
ᦣ
–
—
‘
’
‚
“
”
„
†
•
…
″
‹
›
‼
⁄
₁
₂
₃
₤
€
ℓ
™
←
∆
∙
∷
≈
≡
□
►
▼
◀
◄
◊
●
◦
☿
♣
❊
》
㇍
㇎
㇡
㇤
㈦
㏇
㑦
㠆
㠍
㠐
㠑
㠞
㠡
㠥
㠦
㣥
㥝
㥠
㦓
㦣
䇏
䇑
䇣
䇤
䇦
䌇
䏇
䏥
䐇
䑇
䒦
䘠
䝿
䠈
䠏
䠟
䠡
䠣
䠦
䤠
䥝
䥠
䥦
䦣
䮠
䮼
中
健
再
凊
凝
処
動
勧
化
告
呠
坁
坊
坍
坎
坏
坐
坑
坓
坘
坝
坟
坠
坡
坣
坤
坦
坿
堁
堆
堈
堊
堍
堎
堏
堐
堑
堒
堓
堟
堠
堡
堣
堤
堥
堦
夑
奝
妣
宊
宠
康
建
愛
懑
懓
懠
懣
懤
懦
戥
戦
抑
护
报
抦
揇
摏
摥
摦
撦
攥
教
文
最
栁
栆
栈
栊
栌
栏
栓
栝
栟
栠
校
栦
椠
椢
椥
楝
楠
楡
楮
榏
榓
榠
榣
榦
殉
源
神
粵
者
行
試
語
資
転
運
道
集
﴾
﴿
１
２
３
４
５
６
７
##7
##3
##8
##ە
##پ
##ر
##س
##ی
##ا
##ێ
##ک
##و
##د
##ز
##ي
##ڵ
##ۆ
##ب
##گ
##ت
##ن
##ش
##م
##ه
##ل
##ژ
##ح
##خ
##ف
##ڕ
##ـ
##ج
##ى
##چ
##4
##1
##ع
##ق
##غ
##9
##6
##r
##o
##d
##i
##c
##t
##n
##ڤ
##5
##2
##×
##s
##e
##x
##0
##b
##a
##y
##w
##k
##ذ
##ص
##K
##T
##m
##v
##u
##h
##ض
##A
##U
##D
##l
##ة
##١
##٠
##p
##g
##ط
##R
##E
##P
##O
##S
##z
##˚
##ø
##ʦ
##N
##f
##I
##F
##M
##j
##ء
##G
##C
##ث
##W
##L
##H
##ظ
##X
##V
##Z
##٦
##٨
##堊
##堟
##堦
##堠
##校
##堁
##Ԡ
##ԥ
##q
##ß
##٢
##B
##٩
##٣
##Q
##ᦣ
##Y
##º
##٥
##٧
##报
##ٶ
##ı
##㥠
##ґ
##Ǥ
##Ϥ
##χ
##ј
##Ԙ
##ȥ
##J
##٤
##坝
##䦣
##µ
##ٱ
##₂
##ᅩ
##ᆼ
##ᄋ
##ᅵ
##о
##ф
##ы
##р
##и
##н
##ۊ
##⁄
##υ
##ο
##σ
##τ
##α
##ν
##δ
##ι
##л
##ь
##坦
##Ω
##◦
##д
##а
##←
##坟
##θ
##坑
##æ
##щ
##т
##у
##₃
##ר
##ב
##ו
##е
##ш
##с
##¬
##䒦
##Ϧ
##栆
##抦
##㈦
##Ǌ
##坠
##榣
##ρ
##ݥ
##ʠ
##䇦
##ה
##ש
##ע
##ς
##ת
##ל
##מ
##ד
##®
##ې
##۰
##۱
##м
##п
##з
##в
##Ʀ
##ޠ
##ማ
##ር
##ኛ
##堓
##化
##א
##۷
##䤠
##宊
##ད
##°
##ω
##া
##ং
##ল
##κ
##λ
##ψ
##ߦ
##栟
##¹
##י
##נ
##❊
##к
##´
##宠
##ł
##ч
##Ѧ
##●
##И
##Ш
##К
##Е
##ƒ
##ג
##פ
##ɪ
##ܪ
##ܝ
##ܒ
##ܐ
##ц
##ӊ
##∆
##ε
##ƥ
##ǆ
##㠥
##ן
##䠟
##ݦ
##Δ
##Ƈ
##ᥝ
##懤
##ߥ
##я
##ϡ
##坘
##Φ
##μ
##η
##ა
##რ
##თ
##უ
##ლ
##ი
##戥
##坣
##䥠
##Ϙ
##Ԋ
##ߑ
##Ϡ
##ס
##ט
##ˉ
##۳
##б
##楝
##Ґ
##坊
##π
##ʇ
##ѥ
##Ӈ
##栌
##䠡
##楠
##߇
##堣
##懣
##ə
##۲
##А
##С
##П
##О
##Р
##э
##椥
##奝
##建
##Ԧ
##ܘ
##ܢ
##榠
##妣
##▼
##榏
##Ѡ
##ᥠ
##源
##椠
##坿
##ۦ
##ߎ
##ھ
##ʷ
##г
##œ
##Ø
##ϐ
##γ
##䐇
##ڨ
##Ә
##䥝
##䑇
##ϥ
##۸
##۹
##ʮ
##Ҙ
##ۈ
##Ҡ
##ם
##榦
##㠐
##懓
##ʤ
##۞
##㏇
##堡
##䮼
##ъ
##џ
##䠈
##כ
##◀
##Ѫ
##㠍
##㥝
##ʥ
##摥
##栓
##堑
##Ҧ
##ܠ
##榓
##椢
##φ
##坡
##ա
##յ
##ե
##ր
##ն
##²
##栈
##ח
##ז
##ק
##㠆
##堏
##堤
##道
##懦
##告
##堈
##€
##ю
##β
##ڎ
##䠦
##☿
##集
##В
##ξ
##愛
##坎
##າ
##ວ
##ᠥ
##ម
##ែ
##រ
##ʌ
##ʒ
##ᇣ
##ԟ
##㇎
##™
##摦
##䘠
##坐
##ӡ
##ݒ
##康
##文
##䏇
##栝
##ᦌ
##堆
##㦣
##ߠ
##㇤
##坓
##坏
##動
##ԇ
##ᇦ
##䠏
##ግ
##ท
##ย
##ۥ
##ʡ
##戦
##㠦
##運
##転
##䠣
##攥
##䇤
##ޏ
##懠
##ҁ
##語
##堒
##ག
##楮
##М
##Л
##Я
##¸
##ѣ
##У
##Д
##ہ
##ᅡ
##ᆫ
##ᄀ
##ᅮ
##ᆨ
##ᅥ
##₁
##і
##Ж
##坤
##堐
##ǈ
##摏
##揇
##堍
##ʿ
##³
##䏥
##♣
##ޥ
##䮠
##教
##者
##ان
##ەو
##ەر
##ەک
##ەی
##ار
##وو
لە
##انی
##او
##ەن
##ای
##ەم
##ست
بە
##رد
##ات
##ەت
##ێک
##ێت
##نی
##ام
##ەوە
##دا
##ەڵ
##ری
يەو
بۆ
دە
کە
##یی
##ێن
##اری
سەر
##ین
کو
##ەکانی
##ەب
##ێر
##اڵ
##اس
##ەند
يەم
بەر
کورد
##ێو
##شت
##یان
##ەکان
##اد
هەر
##اک
##ەتی
##از
کۆ
##ێکی
##کرد
له
خۆ
##اب
##ەل
##ێم
پێ
##ۆر
##ەوەی
##یر
##کی
##ەش
##ەز
##ەری
##راو
##ەد
##مان
##ەکی
##سی
دەک
##سەر
##اند
##تی
##ستان
کرد
##وون
یەک
##ون
ڕۆ
##ستی
##گەی
##لی
##ەڕ
##شی
ناو
بک
##ێز
##اق
##رێت
کوردستان
دی
##انە
##ەیە
##ووە
##ەکەی
يە
خو
##اتی
##وم
##ەنگ
##اش
هەم
##انەی
##ایی
هەڵ
20
کۆم
سی
##ەنی
يی
دەب
دو
##ۆک
دەر
##ال
##ەکە
به
##رۆ
##ێراق
ڕۆژ
##رو
##ەخ
##ەوت
گو
##گر
ڕا
##یش
##ۆن
##ەس
دەست
##بەر
##وان
کار
بەڵ
دا
پێش
عێراق
##ەنج
لەو
##ۆی
##ێژ
##دی
##ەه
دوو
##اسی
##ێی
لەسەر
يا
##ور
##اڵی
##ەست
بوو
هاو
پار
هەو
وەک
لەگ
##ییە
خۆی
زۆر
##کردنی
##وک
##ارد
##زی
يام
##را
يەوەی
##امی
نو
##ایە
##گەر
##یل
##ێش
لەگەڵ
##ارە
##ێست
##کردن
##ڕی
هەرێم
##اوی
هەموو
##اوە
لەم
##می
پەی
کەس
##رین
##ەیەکی
##کە
يەنج
بەش
جی
##هێن
لای
##شتی
##وانی
##ایەتی
##مانی
##ێب
حک
پەر
دەبێت
بەڵام
کۆمەڵ
ڕوو
گر
من
201
##ید
نی
که
##نام
بەه
##گای
چەند
##ارەی
##ەف
دەکات
##ەمان
##تر
##ەوه
هی
##ەق
##ێد
##گەیاند
##ۆڕ
##ازی
نێو
تا
يەوە
خەڵ
حکوم
##ڵات
##اف
##یست
##ەندی
نا
##بوو
##ەدا
وەز
بن
##دو
##ۆکی
سو
هەیە
يێست
بو
##ایب
##ەین
یان
بێ
##ۆم
زی
##دار
##گرت
##ڕۆ
##گی
پێو
##ەیەک
ڕێک
##ووی
##کەوت
##نە
بێت
لەن
##بوون
##ژی
دەس
##ۆری
##یە
کات
##راوە
##گە
##ەمی
نەب
يێم
##ڵی
##رسی
##رس
داو
##ەیان
يەگەر
ڕێ
##وت
بکات
##زب
هێز
يیس
بەڕ
مو
##است
##اریی
##اتر
##خو
هەڵب
##وە
##ەلی
ياز
کەم
ساڵ
هیچ
سیاسی
##ادی
##دە
هەرێمی
##ەور
##ێتی
فەر
##لای
وڵات
##ەکرد
هەرو
##هات
##ۆت
##ووری
پێک
##نەوەی
##ۆز
##دان
##ەها
##دەو
درو
هات
##دانی
##ینی
دوای
سەرۆک
لەک
وەر
مان
سەرۆکی
دەو
گوتی
لەب
##ژارد
ياس
##ەج
یاس
يێستا
نییە
کاری
200
##یستی
##ییەکان
خۆیان
سیاس
بوون
با
چون
شێو
يای
پەرل
##یری
##اتە
گەور
يێر
تایب
هەول
مرۆ
شار
##کا
می
کێش
ياو
ناوچ
##ۆش
##ستانی
بار
##ێنی
لایەن
پەیو
##وونی
تور
بڕی
دروست
لەبەر
##ەتە
دەکەن
خوێن
##جی
##ۆڵ
بەد
بەو
هەڵبژارد
##ووس
بەک
دەڵ
کەر
تەنی
##یت
##اژ
بڵ
##ییەکانی
##ەرم
##وار
مرۆڤ
ڕای
دەسەڵ
##ەپ
تر
بکەن
نەت
##زانی
چاو
داب
هەولێر
هەروەها
دەنگ
##ەیی
##گیر
هەب
##ێتەوە
##کو
بد
##گری
زیاتر
##لێم
چونکە
حکومەتی
لەلای
##ۆل
##ێری
##پی
ال
##حم
##چی
سەرب
تەنیا
##وور
جیه
بەسەر
نەک
##کەی
##الی
لێ
##یزب
بەم
پێویست
##داری
##وب
##کاری
لەه
##ود
ڕۆژنام
يێمە
19
هون
##خۆ
ڕێکخ
##نەوە
يەند
ساڵی
هە
سلێم
يیسل
يەنجام
کۆن
تەو
بەپ
پارێز
داد
##کر
ڕاگەیاند
ماف
ڕاب
##اوەی
يێران
##ۆنی
##وس
یاری
بب
ياماد
بەت
ژن
يۆ
##یانی
دەد
تورکی
##ەوێت
سلێمانی
مام
جێ
در
گۆڕ
پاش
حیزب
##ەتەوە
تێ
یەکەم
نە
جۆر
##زم
##ەکانیان
ژم
##اران
ياماژ
بیر
کوردی
دەکرێت
زان
دەگ
کر
دەوڵ
ناک
بووە
پرۆ
بەرپ
##کردنەوەی
بەره
تۆ
شو
##وکر
##دەک
یەکێتی
نێوان
کردووە
پی
##کات
ڕاست
##تو
##ادا
##هێنانی
لەپ
گرن
بۆیە
##ەوەو
باش
##ەبی
پۆ
تاو
بەڕێو
10
دان
فیل
##زان
يەنجوم
لەد
تایبەت
لی
کوردستانی
هەند
يار
خەڵکی
هێن
يەمەری
يەر
نەخ
##ردنی
##ەمم
##اکانی
##ێکدا
شاری
دەت
##گو
##رێن
##راوی
##ێڕ
پێن
لەلایەن
پێی
وە
لەي
##اندنی
##امبەر
بەردەو
تاک
##وی
لەناو
دڵ
لێک
خۆش
##چاو
تی
مە
باس
خوێند
چوار
نیشت
کۆت
پارتی
ڕایگەیاند
يەنجومەنی
ڕەو
دەڵێت
عەر
##ایەت
##گا
##اغ
ڕۆژی
يەن
##دوو
بەب
نزی
بەن
##انەوە
پەرلەمان
مندا
##ڕۆژ
##وری
سن
باب
وەزار
نوێن
بکرێت
ياب
##ێل
شت
نم
کەرک
عەب
دەسەڵات
مێژ
##ەکه
شی
لەس
بەخ
##مەر
##پەڕ
يەمری
##فر
حکومەت
##اندا
##ەوی
قس
بەل
جار
ڕابرد
بری
##ووم
یانەی
خاو
گوت
جیاو
##کراو
هەندێک
##ەمانی
##وەر
بڕ
##ژم
گەی
شەڕ
باو
بەردەوام
تورکیا
هەز
خەڵک
##شن
دۆ
ياش
##ەبەر
لێد
##دەم
يەمڕۆ
وەکو
##چێت
گەر
یا
تیر
##دەی
##ڵاتی
دەرب
##تە
دیک
##داو
یەکێک
پێشمەر
بگ
##ەنگی
پل
##بوونی
##پەر
بەرهەم
##اکی
##هەڵ
کۆتایی
داوای
##ەرانی
چی
دەی
يەوان
##نەی
باڵ
دێم
گشتی
دام
##اع
سەد
بەهۆی
##خی
تری
##ەشی
سێ
وت
##ێشت
##ەمەد
پرسی
##وڵ
ڕی
سەب
بەڵکو
يەک
بی
##پانی
کەرکوک
##ێنێت
تون
##کار
يین
بەرامبەر
11
يەمە
##ەستی
##ترین
هەوڵ
گەل
تێک
ماڵ
قور
يازاد
گۆڕان
##شک
12
تۆم
ناب
مەس
دێموکر
##حمەد
باز
##تان
پەیوەند
پڕۆژ
دانی
ناوی
منداڵ
بەغ
شان
ياژ
تەم
سوپ
##بانی
يەحمەد
يیسلامی
بڵاو
2010
يەندام
يەمەریکا
هەردوو
نەتەوەی
##ەیر
عەبدو
##حەمەد
##ەکەدا
##ەکاندا
نوێ
##زگ
مەب
مەر
پاڵ
داهات
زۆری
##اه
دەستی
عێراقی
##ارەت
##ەع
تەن
##ەران
لەڕ
##شتن
چەندین
کردنی
هۆی
يەڵ
بز
يەل
دەم
##ەگ
يازادی
##ۆست
يەمەش
شێ
شوێن
ملی
بەدەست
تو
ژیان
ڕابردوو
سەرکەوت
بکەین
##تەر
وێن
2011
هەزار
نوو
##نیش
لەوە
هەڵبژاردن
بەرەو
گۆ
بر
##روپ
چۆن
##خان
چەک
ڕو
دای
وەزارەتی
شەه
زانی
بەي
وەزیر
عەلی
بەپێی
وەزیری
هەی
سەبارەت
سین
##ارەسەر
##ێبەج
##بێت
##ەتا
##بوونەوەی
پەرلەمانی
##ەوانی
پەیام
##ووت
پێویستە
لەنێو
گرت
##بار
يەد
چال
نەو
##ۆناغ
بوونی
##ایش
بارزانی
ژمارەی
##قی
##انسی
##شتر
##ورد
یەکگرت
هەڵو
بەکار
فەرمان
سیست
بەغدا
بەشی
هێر
ماوەی
##ەندە
بەشداری
چارەسەر
بەرز
##ینە
##فی
گەڕ
##00
لەش
پەیوەندی
داع
##ێڵ
##ێوە
جێبەج
دژ
##انەوەی
##یەکان
جیهانی
##ەکەیان
مافی
پرۆس
##ول
خزم
ژیانی
فر
##ونی
##انگ
نیشتمانی
محەمەد
کەل
##بەی
درێژ
گون
##کۆ
نووس
پۆلی
گوتیشی
سەرکرد
هۆک
##وانێت
دووەم
##ییەوە
يەی
گۆر
جیاواز
کاتێک
##اوو
نات
گرنگ
پڕ
##راون
##مە
##شتنی
##پەی
داعش
ناس
##گەری
##ییەکی
ڕۆشن
بەتایب
جەم
هەبێت
پشت
##اپ
سوری
ياماژەی
دامەز
##ەفت
##ینەوەی
تەق
کەوت
یاسای
14
تەواو
هەمیش
##ڵا
دیاری
قۆناغ
يەوەش
##وز
دەن
بنەم
##ەکردنی
##اقی
پیاو
ماد
##چوو
##یشاند
##ییان
دار
توان
دیکە
##حی
بەلام
15
ڕاپ
##انیش
وا
##خست
خان
شۆڕ
يەوا
هەمان
##ياو
ست
باسی
پێشک
قوت
لیژ
مامۆست
##کرا
##لم
نزیک
##کردەوە
پیر
بەرنام
چار
##ot
دەرەوەی
##ینەوە
لاو
لێر
##توگ
2012
يەمریکا
بڕیار
##اکان
خست
خۆپ
يەوەیە
##ێنێ
دیم
نەبێت
شەهید
گف
##گیری
ڕەنگ
ڕوون
کاتی
پارێزگ
دژی
##جەم
مەت
##ەلا
مەد
##یانە
##ژەو
##ێکە
بەرپرس
يەب
زین
نەد
يیسلام
##بی
دەکەین
ڕۆژنامەن
بەوە
##ۆشی
کۆمپانی
##گرن
دەیان
##اندن
موس
17
کت
هێزەکانی
هەنگ
گشت
18
##انه
ماو
خاڵ
دوور
##ایەکی
##وانن
##ایەوە
##کت
ول
##ەبەری
16
##گەیەن
کەن
دەکرد
دنی
قوتاب
کچ
خولی
ڕەخ
هاوو
##ێنن
##ایان
نام
کور
##استی
##بک
يۆپ
##رێ
##ێتە
##وود
يیم
توانی
بەرپرسی
##ەخت
ڕۆشنب
يابووری
##ێرد
فیلمی
##چوون
2009
##li
##پێک
سەرچاو
کتێب
##سیۆن
ڕژ
هەن
يەز
##ەوان
یاریی
##خواز
##جار
پەیامن
هونەرم
واتە
کردوو
تاوان
گفتوگ
هەست
ياژانسی
##ۆزی
ژێر
يامان
##گرتنی
جیهان
لیستی
##ێوەی
##ارم
بین
دەوڵەتی
بەشدار
##ێژی
عەرەب
ياستی
دەوڵەت
لەر
##رێتەوە
پارێزگای
##ند
زمان
##ایەی
کۆماری
##دەوڵ
##ێمی
خاوەن
##اتەوە
يەندامی
هاوپەی
##ەکانیش
13
تەند
کراوە
پەن
سینەم
کێشەی
##اخ
يەف
##یانەی
تایبەتی
##انەت
جەل
گەورە
سەربەخ
گەرم
تێدا
گەش
ياڵ
يایا
فیلم
تیرۆری
##چوونی
بخ
نەوت
##افی
داواک
کۆنگر
ڕاد
بڕیاری
##ەیت
ڕێکخراو
فی
حیزبی
##لا
وەڵ
بەهێز
بەرژەو
هێزی
2014
##جە
##ارەکانی
هێرش
پشتی
پێکهات
مەسەل
گەلی
##ردن
چاک
نەخۆش
##نا
برین
##بەری
دەسەڵاتی
زمانی
نەبوو
پێشکەش
ڕێگەی
يەوانەی
نەم
مەک
ژنان
يەس
##ەزی
نوێی
بت
تەندرو
پەروەر
بەس
2008
ياگ
بواری
##عر
يەویش
ناوب
نیی
میل
##ایشی
##ۆس
حەم
دیکەی
خرا
کردن
بەج
##ەکەمان
هەمیشە
کۆمەڵایەتی
ڕووداو
ناز
مێژوو
قوربانی
##سان
بەرگری
##ایەتیی
دواتر
خزمەت
یەکگرتوو
ملیۆن
خەب
دوا
گەنج
شک
جۆرە
ڕێژ
خۆم
خۆپیشاند
کەو
نەه
حەس
کام
لەبارەی
##ابوو
##کاریی
پاراست
نێودەوڵ
دەخ
##دایە
مانگ
فید
وڵاتانی
تەنانەت
##یستیڤ
سەرەت
دەدات
هەل
عەرەبی
پرۆسەی
داهاتوو
بۆی
پیش
##وونە
کۆب
يافر
ڕزگ
##انس
##ەنە
بەع
##پرس
##يەوەی
سەرەکی
يەمنی
تۆمار
مەبەست
##کەر
ڕووی
##انیان
تەواوی
هەواڵی
30
حکووم
خۆمان
##شدا
چالاک
##دوای
هێشت
کرا
دین
جگە
بابەت
##امان
سەردانی
فیستیڤ
دەنگی
هیو
سیاسیی
##لە
ڕە
قەر
##ێتیی
##دەد
##خانەی
ده
##ڤی
وش
يەنف
##ارێکی
بەشێو
هونەر
گەیشت
سوریا
مانگی
هەواڵ
تاز
##نج
مەز
ڕێز
##کەوتن
لەنێوان
پێشمەرگە
##ەختی
25
##گرتن
حزب
پێویستی
ناڕ
هونەری
##ابی
##خۆی
دەز
##an
بود
زیاد
نیش
##شەمم
کی
کوژ
##ینەی
نەتەوەیی
ڕاپۆر
بانگ
##om
##لان
##دەب
هاوب
يەوروپ
##uot
خۆر
##وانین
##رگ
نووسەر
گۆرانی
تێی
وڵاتی
پێنج
سەی
ڕێگای
فەل
سوپای
سیاسەت
##ێـ
بینی
quot
##ar
يەنجامی
بای
نای
لێکۆڵ
سەرۆکایەتی
يۆت
سەرجەم
ڕەش
لەوەی
##ودۆ
##ژێر
تەل
لەت
جەماو
ساز
ڕۆژهەڵ
يەزم
سەع
چاود
دابەش
بدات
یە
گە
مۆ
##ایت
##اڕ
هاوکاری
ياشکر
##گوز
کاک
کرێک
خول
##ەکەم
دەستگیر
نەکرد
تاڵ
هەبوو
بەتایبەتی
##وڕ
دەزان
هونەرمەند
##el
کردەوە
شیع
وای
دەبین
دکت
بچ
ڕێکخراوی
هەرچ
##ادر
هەفت
##سا
بەریت
##مانە
زۆربەی
شۆڕش
شەر
لێدوان
ڕۆژياو
بەگ
##کردووە
خێز
##ێند
ڕاستی
عەبدول
يافرەت
##ێچ
چاوەڕ
##جەی
پێم
لەچ
پاراستنی
بەریتانی
يەنفال
بارودۆ
کەسی
##ێنە
کراو
##هێنان
دانیشت
بریندار
موسڵ
کەسێک
بەڕێز
##یم
هاوکات
##ارانی
باک
توندو
21
ياگاد
##ڕینی
هەڵبژاردنی
##ەکەش
يێو
ڕۆڵی
سەرباز
دوێنێ
مال
حوک
بەبێ
وات
##ەدە
خراپ
تێیدا
##انەدا
تەر
جەلال
باشت
##یەکانی
##ۆیی
##ها
يۆتۆم
جێی
گەورەی
##ەموو
کوردستاندا
بەرێو
فیدر
##ەقام
##ووسی
توێژ
مار
حەسەن
بەڕێوەبەری
بڕو
جو
##تری
##ەکردن
##گرێت
جوان
دۆل
وایە
بازرگ
لەهەر
خوار
لێی
فڕ
چین
شەو
توو
سەرم
##اجی
یاسایی
2013
جێگری
دکتۆر
##اتری
##ەسەند
لێب
##سر
سرو
بەناوی
بەشێکی
دەکەم
شاع
بەشێک
ياست
یاسا
ناوەڕ
##ۆژی
دەبێتە
دیار
##عی
چەکدار
دێت
##دەمی
هێزە
سز
ستر
هەوڵی
تەندروستی
##داوە
گرف
##ومەر
هاوپەیمانی
مێژووی
تە
داوە
کل
ڕەس
ڕۆشنبیری
کان
شەڕی
بارەی
##ڕەو
يەست
خۆیدا
میدی
##en
ناوخۆ
ڕاو
##یەک
هێشتا
جێبەجێک
پاک
سەربازی
##تەری
##ێین
يۆپۆز
قەیر
سێی
هاوڕ
22
##وایە
لیژنەی
تێد
##مەند
##چە
کۆبوون
دایک
بدەن
نابێت
بەدی
سەرچ
##بە
داگیر
گیانی
##یراق
##ەزای
باوەڕ
گرنگی
نێودەوڵەتی
کاریگەر
نووسین
##ەڕەش
نوێنەرانی
##نامەی
هەنگاو
پشتیوانی
##دەر
بەز
##سانی
برد
دەڵێن
##سیۆنی
24
##er
##ێگەی
دامەزر
هەژ
ناوچەی
##ارێز
##ێستی
##گێڕ
##ارەکان
شتێک
##ەقی
کۆمەڵگای
ياک
##واز
##ڤان
شوێنی
پرۆژ
گەڵ
دابین
پەیامنێر
توندوتی
دیموکر
دەسەل
ڕۆژنامەنووس
پێد
يەت
##ەدان
خوارد
دێموکراسی
##ەوێ
يەڵمانی
کۆمەڵێک
ياسایشی
##ەلام
23
##ران
عوس
یەکێتیی
ترس
ورد
##واری
هەڵەب
نەی
لا
##کۆی
##ەخش
باشترین
##ێس
##یدی
##ێرەی
کۆبوونەوەی
مەدەنی
تاي
##ەبانی
##بن
##ەون
##خود
تورک
مەترسی
##on
تیرۆر
يۆتۆمب
يەندامانی
خۆشەو
خاوەنی
دروستکردنی
##ردا
##وەری
پۆلیسی
باڵای
##ەکانمان
کەچی
##ساڵ
##سپ
com
پر
نزیکەی
بەی
مەکت
لایەنە
هەڵس
چیر
##ۆچ
ياشکرا
##بد
##انێکی
##ەرە
ژمارەیەک
تێب
باشتر
پـ
پێشتر
قۆناغی
دیارە
دێموکراتی
سیاسەتی
##خستنی
وەزیرانی
ڕۆژهەڵاتی
یاخود
پاس
##ەکەت
هاتووە
سال
ڕاگەیاندنی
##چەی
##ووک
##ەسەری
##یەوە
مەحم
بەشێوەیەکی
##یاندا
ڕوونی
پرس
یاریزانی
##انەش
ڕێژەی
##راي
زانیاری
##استەی
ڕاگەیاندن
نمایش
پۆلیس
ڕەنگە
##ۆتەوە
ڕژێمی
##دەکات
پڕۆژەی
وەرز
يامانج
ڕۆڵ
جەنگ
##ادەی
حاڵ
##بڕ
##اکە
عێراقدا
حوس
پرسیار
##ەمبەر
##ووه
##کراوە
##هەوێت
لەکاتی
هەتا
پاشان
دەهێن
##ێکیش
کاریگەری
مالی
خەڵاتی
##elli
##یس
##ایەک
سۆ
##ـت
چاودێری
دەگەڕ
دەدەن
هۆکاری
دەچێت
helli
hellip
ياشتی
یارم
##ەڵی
##ەکانەوە
##وباری
دهۆک
خێر
##ەکەیدا
يیتر
بازرگانی
ژمار
نین
شاعیر
##دانەوەی
##کردنەوە
##پەڕی
یەکەمی
##ەژ
خەل
لایەنی
دەبن
باری
چاپ
فیستیڤاڵی
کردو
##ەڕوو
نر
##کێش
میر
پێشنی
بەرژەوەندی
بزووت
گەرمیان
گەند
##ەوتن
سای
مەبەستی
دەتوانێت
##اشی
##بینی
نیو
##اي
خوا
پەرلەمانت
يەمرۆ
ڕابردوودا
27
مالکی
نووسی
لەخ
##کان
کارەب
##ۆژ
##ەمین
##ەیەدا
بکەم
گیر
دەری
بل
دارایی
شێوەی
يەوروپا
##ەکو
##شە
ملم
يامادەب
هۆ
دەستەی
زەر
##بارەی
##که
26
سنووری
تاڵەبانی
یاریزان
ڕێب
##سەف
##اگ
توند
ياین
دۆز
مەکتەبی
##تۆ
##ێستا
لەق
بەیەک
کۆمەڵگەی
##ییەک
کاند
کردنەوەی
ناکات
199
ولات
جیاوازی
ستراتی
خوێندن
مست
بزوت
##نان
وەڵام
28
لێرەدا
هەڕەش
بەعس
لەژێر
يێستاش
بەیان
پارت
ڕێکخست
لەکات
کۆنت
##il
دێ
فەره
##ڵاتیان
زەوی
يیسراي
##زیش
يید
شەش
ناوبراو
لێپرس
شێعر
ڕاپۆرت
خودی
##ێنم
بەرهەمی
کردوە
فەرەن
لەدەست
مامەڵ
ناوەندی
سەن
دیارد
##کەوتنی
ڕووب
##ێنێتەوە
کاتژم
فەلسەف
##دای
##کری
پۆست
ڕەگ
##رە
دڵنی
##جۆر
کێ
سەردەم
بەڕێوەبەر
تەمەن
دەش
کەي
بەوەی
ناچ
مەلا
##بون
مەی
##اڵە
دەزگای
کورت
##راوان
لەع
تاکو
##ەمە
کوڕ
خەری
هەستی
توانای
##تیار
بم
يیر
##چێوەی
ڕۆژنامەی
جارێکی
کەری
دوژم
##گومان
بۆم
##ۆتە
نموونە
گفتوگۆ
تۆپی
کەی
##ەفا
زۆ
سەری
تەلەف
گەورەت
پێچ
##ەنجام
هاوبەش
ناکرێت
يێوە
##سیا
##زە
گروپ
پێکهێنانی
##مەت
لەدوای
چەم
ناد
##اتوو
ڕزگار
کاروباری
##وپ
##وا
##وچ
بریت
شێخ
دەڕ
ڕاستەو
سون
يەرکی
##له
هەڵوێست
جێگەی
ياسایی
چارەسەری
بەست
بەرنامەی
##ەپێد
دەکاتەوە
قەڵ
نوس
پێیان
پەناب
##ێکیان
##ایانی
ياسایش
##ارو
وڵاتە
لەیەک
نوری
دوایی
کۆمپانیای
تەک
خەبات
##ەکات
##لەی
داوا
ژین
##کانی
دیال
##وێن
##خۆش
عوسمان
میلل
بەمەب
سەیر
کۆبانی
ڕێگ
مالیکی
بەتایبەت
دەکەوێت
بۆيەوەی
ڕەت
يۆپۆزسیۆن
بەڕێوە
سەرکردایەتی
گشتیی
##هێنەر
دەچ
##ایینی
پایت
لەبەردەم
بیست
لەپێن
عەق
فڕۆک
قادر
##تەوە
ململان
مامۆستا
پێکەوە
شانۆ
ڕاپەڕ
29
نیە
کۆمەڵگ
##عری
هەروەک
يیت
##ادە
##گەیەنێت
بەناو
کارێکی
زانستی
##ەوتی
2007
##ed
چالاکی
پزیش
نەتەوە
بێگومان
##or
شتێکی
ياوێن
بودجەی
کۆمەل
پێشمەرگەی
بەمەبەستی
##اره
يەمساڵ
##زانین
بەریتانیا
پلەی
##ییەکەی
زانست
هەڵبژاردەی
لەساڵی
چارەن
یارمەتی
##اون
کەب
بۆچی
##ەستە
##ەکاری
مەسەلەی
ساڵح
سەرکەوتنی
##هێنی
مت
##اچ
##انێ
##ـی
زیندانی
يابوری
وەزیران
شەمم
##زیک
##ایک
حکوومەتی
دەتوانن
##بکات
گوند
موو
کارەس
ناوچە
##عود
##ەکەوە
##بارە
بێد
##یروان
کاتژمێر
میسر
ڕاستەق
حوسێن
فری
ڕەز
يێمه
بەردەم
مەحمود
چارەسەرکردنی
دەرەوە
دەربارەی
##برا
##انەیە
چەپ
نازان
##رم
##ارێک
##ۆڤ
##دین
هەبووە
##es
پش
پێغ
##ناک
بزووتنەوەی
زانکۆی
نەوتی
شێر
باڵی
کاب
بدرێت
پەک
سیستەمی
##ایەد
تریش
##غان
دەق
##وژ
##ابوون
##پارێز
شارۆچ
##ەنەوە
##ییەی
لەکورد
ژمارە
هەشت
عەبدوڵ
بان
خۆپیشاندان
##نیشان
يەوەشی
وەرب
##ەڵب
##دۆ
شێوە
##روپی
يینگ
عومەر
کشت
کۆی
وی
نیشتی
##شین
شێوەیەکی
##بو
سام
يەنجامدانی
مافەکانی
سەرەتای
فرۆ
وێنە
ناوچەکە
لیژن
هێم
بەدا
پشتگیری
دادگای
##فەر
لیست
بەرپرسانی
لەی
يیسرايیل
يیسپانی
يێرانی
بەدو
ماڵی
نەتەو
ڕێو
نەبووە
خەر
##ییه
سەرەک
##ینین
خەی
ڕێککەوتن
تاب
پارێزگاری
##اما
سەردەمی
##این
دۆلار
##رانی
پشک
نوێنەری
پەسەند
واقی
شێوەیەک
مستەفا
هەمو
##خوازی
##پێش
بەچ
هەرچەندە
تووشی
هەڤ
گرفت
##et
يەرک
حس
##بووە
لەماوەی
نێت
ساڵە
دەسەڵاتدار
##is
##ینەو
يەنجووم
بەند
يایینی
قسەی
نوێنەر
کشتوک
بون
وەرگرت
بزوتنەوەی
شاند
گروو
زوو
هەیەو
بەختیار
سک
کۆمەڵگا
##در
کەسێکی
يۆب
گوڵ
جێبەجێکردنی
##ەدی
##ۆلی
ببێتە
هێ
هەفتەی
##زەی
##کرت
##ur
زۆرین
نیشتمانیی
پێگەی
ناوەڕاست
دنیا
سەل
بابەتی
حوکم
مەرج
وەف
تاران
دامەزراندنی
ناسی
وه
سووری
ڕەخنە
دراو
سوود
موح
چەو
خێزان
ژی
ڕێگە
گومان
سەو
##وه
##اوه
خەم
پیرۆز
لەبەرامبەر
ياگادار
وەزارەت
تەمەنی
يەمریک
07
تۆمەت
خۆت
هێنا
بزان
فێر
هاووڵاتی
لەوێ
ڕۆژانە
سە
##وازی
##ما
##ەبوو
##ەکەو
تێبینی
دووپ
##نەت
##تن
##ەندیی
جەماوەر
پێشمەرگ
وتی
بەرچاو
##ەمەنی
بەکارهێنانی
نوێنەران
##ۆتۆ
بال
##گیز
گواست
##ابێت
ياماژە
##at
نەبوونی
سەرک
بنەمای
##براه
##ێران
بکاتەوە
##نیان
##اریان
##ەزایی
31
جێبەجێ
پەیمان
##حک
هاوڵاتی
يەدەبی
خزمەتگوز
نیشان
##زمی
خواست
##ەندا
پەیامنێری
کۆبوونەو
حەز
دادەن
##لات
##ەشق
داخ
پێدا
يەوه
##ۆیە
لەلایەکی
چۆنی
سکرت
##ووتی
خوارەوە
گۆڤ
دیکەش
خۆشی
کردبوو
##ایه
زیان
تايێستا
يال
يۆتۆمبێل
يوم
##اندنەوەی
یەکی
لەهەموو
داواکاری
کارە
کێشە
بیان
چاوی
##کەری
##تات
##انبەر
سێیەم
ياینی
یەکتر
هەرگیز
پەنج
##اح
کەسایەتی
دووەمی
نارد
بارودۆخی
کۆمەڵەی
##ووەو
نیگەر
لەکاتێکدا
جا
##ایم
##هێنەری
ڕازی
##نه
چیرۆک
سەرن
یاد
##رینی
##اکەی
تاوەکو
گۆڕینی
خەباتی
##ay
قسە
عەل
يارام
ڕەم
##زار
ڕەوشی
کۆنفر
بگەڕ
##ەتێکی
سیاسییەکان
بیری
بەرپرسیار
خاڵی
گۆڵ
ڕۆشنبیر
##انێک
دیکتات
##خانە
يەمانە
مرۆڤی
بایەخ
پێچەو
دینار
##بین
##دەست
کوت
کاندید
ياخ
سەردان
مۆد
##ەلە
گونج
##پەرشتی
فیدراڵ
جوانی
يەوانیش
يەنجوومەنی
##ەکانە
کوشتنی
ياراستەی
زانیاریی
هەڵوێستی
##براهیم
##شیان
##کێ
کەواتە
هاوسەر
دەستوور
سنوور
عەبدوڵڵا
ەوە
کلی
يەڵڵا
دەورو
لاواز
##ەوەر
جۆراو
وەرگرتنی
پسپ
##ێنەوە
ڕادی
مانای
سایتی
فار
هۆشی
وەبەر
##گرە
کەریم
جەنگی
نەز
ڕۆژنامەوانی
دەکرێن
ڕاستەوخۆ
وێنەی
باوک
فەی
مەسعود
جەست
سەرکەوتن
##یچ
شێواز
کۆنترۆ
وەڵامی
##دەن
بنی
فەرمی
دادگ
لەمەو
ژمارەیەکی
جەماوەری
دەدرێت
ياوێنەنی
ڕۆمان
##ەممەد
##ووڵ
دۆخ
سوور
دەستنیشان
توندوتیژی
198
وس
ياوی
##in
جەن
يەوەندە
##گەڕ
دەرکەوت
دەستووری
##ۆف
نەج
کری
##هێشت
##جا
ڕژێم
شارەوانی
نەخۆشی
چاکس
وان
کۆنگرەی
09
جۆری
##شەممە
##ژین
ياسمانی
جۆرێک
لەز
زیاتری
ناش
خەو
پاب
مس
کول
حەوت
يیدی
يینگلی
ht
بارودۆخ
##ەته
سوید
يەڵمانیا
سەف
##رۆز
##انت
کەسانی
دەرهێنانی
شەهیدان
کەمتر
##ودی
کەمال
فراوان
##ەزیز
گرنگە
##ەکر
وەردە
خۆشەویستی
کیمی
شێوازی
تاری
باشووری
##مەوە
دیکه
##ent
چونکه
##ێزی
دوژمن
هۆڵ
يامادە
دەبێتەوە
50
سپ
کورسی
##ەتیی
##لۆ
جێگای
خانە
شەقام
یەکێکە
هاوس
پاڵەوان
##ەشدا
##وانیت
##خانی
##ارەدا
بۆن
پێداوی
کراون
تەرخان
هەیه
دەسەلات
بەق
خوێندنەوەی
يیبراهیم
لەيێست
الم
لەکوردستان
ببێت
##اج
بهێنێت
تێگەی
تاقی
لەخۆ
دەگرێت
##ویەتی
ڕۆژێک
01
سـ
لەوانە
لێو
گیان
نیشتیمانی
سوو
##ێرن
بکرێن
يایین
شۆڕشی
ناوخۆی
بەیاننام
یەکەمین
##حمان
##اڤ
کارەکانی
دەف
##ەبێژی
بەرانبەر
سەرەڕ
08
تازە
دەرف
مادەی
##راوانی
##حکوم
##ردی
مەل
##ەمەن
سەرنج
گوێ
يەدەب
گەشت
بەداخ
##لو
لەسەرەت
##پە
نیشتەج
لەدەر
##دەستی
پۆستی
##روو
داڕ
ياوێنەنیوز
چەکی
پێشوو
##ەڕووی
بارە
دەقی
خاکی
وب
يەمەریکی
زانکۆ
بووم
##ەیەکدا
ناوەند
دەستیان
فۆتۆ
سەربەخۆ
##گەل
##ەپێدانی
کۆبون
کردووەو
مل
##وای
04
##اکرد
پێکرد
02
##کەن
##بان
سەرچاوەی
03
بەرەی
هەڵەبجە
06
يۆباما
ناي
بێک
##اریش
گوێرەی
فەرم
سینەمایی
سەپ
پێغەمبەر
دووبارە
ببین
پڕۆژە
##ەلاح
دەنگدان
نموون
سروشتی
يەمەریک
##ەڤ
يامانجی
وي
کوشت
منیش
تێپەڕ
##ەیش
پەیوەندییەکانی
##ڕە
گروپی
##ەوەیە
گۆران
کۆمەڵی
05
قەو
گفتوگۆی
گەورەترین
يێستای
##گۆ
لێدوانێکی
خوێندنی
قەز
##گار
بیروب
##بهێن
کارکردن
##دەشت
داک
کەه
نیشتمان
بونی
فراک
مەن
حاجی
بەکورد
سکرتێری
يامادەی
ناوچەکانی
مایەی
چوارچێوەی
##ستە
##ژیی
##نەو
شێوەیە
خوای
سەرپەرشتی
##گۆڕ
##ازان
کارگ
نهێنی
بەدوای
هەرچی
کۆمار
##شەی
گەندەڵی
ڕەگەز
##ێـکی
يەوانە
##امە
##ێڕی
لەمبارەی
کاتێکدا
##ۆلۆژی
باشی
دەزگ
تاکە
##ێنین
وشەی
##ەکار
بریتی
دەتوانین
سەیری
40
بگرێت
سەرەتا
يارەز
##بر
جەژ
ياه
ڕاوێژ
##اکەوت
يۆک
بچوو
لەشاری
##ووەتەوە
لەڕێگەی
ياسان
لەپێناو
تێدایە
بڕیارە
ویل
##بۆ
خاک
لایەنگ
##ەغ
چاوەڕوانی
##ەمەند
فش
يێمەش
##نەتەوەی
ناتوانێت
##ۆمەڵ
##کەس
دڵی
ڕۆژياوای
دابڕ
هەریەک
مەسی
علی
##تد
##حاڵ
مەج
يیدارەی
مین
یەکگرتووەکان
##ەکانم
میو
سەدان
##ترە
فەرمانبەر
يەش
ملیار
تێکۆش
لەج
تێکەڵ
کوردو
هێزێکی
##ەکانیدا
##یرە
##ۆکەی
لەڕووی
##اید
##ەندەی
پێشکەوت
##وات
گەرمی
سەرمایەد
سیستمی
##ەدانی
عەزیز
چوون
ڕون
ماند
بۆتە
پەیوەندیی
سەرس
سەربەخۆیی
بچێت
شەری
باشە
##ەدەر
لەعیراق
دانیشتن
##ێدی
تش
سێک
خۆیەوە
پاڵپ
ون
نەر
ياگر
شەممە
گێڕ
قورس
بخو
گەم
میللەت
197
ياشکرای
##شەممه
زەو
بکەنەوە
ياسی
پارەی
کەسانەی
سەرکەوتوو
دەردەک
بڵاوی
بازاڕ
ان
پێناو
بەردەوامی
##یەتی
بدەین
کردووه
سۆر
##ment
مۆڵ
لەل
بنەماڵ
تاوتو
هاوپەیمان
کەڵ
##ایل
##ڕەوی
شێعری
بەجێ
سۆسی
دەزانن
پەروەرد
سەنگ
##ەول
سپی
کۆڵ
هاوڵاتیان
ڕزگاری
هەینی
نرخی
خوێندکار
##تووری
##بەست
ڕۆژياوا
بۆچوون
داهاتووی
دەستپ
پێشووی
يەزموون
نێونەتەوەی
تەي
نەن
قەزای
بیانی
بگرن
بۆیه
دڵس
بەڵگ
##هاتی
خورم
لەگەل
##ازیی
سروشت
هز
##بوڵ
دایە
##اندووە
دەبوو
بەداخەوە
هۆکار
سەرەڕای
ناچار
قەب
##کس
لایەک
##ڵاو
يیتالی
##ەنجامی
وەس
##ەبوونی
سەرق
##اسایی
چینی
ژنانی
سع
##مەد
دەخو
يەخ
ڕەوانەی
##وڵات
شوب
سوپاسی
##al
لەدایک
يەمین
##ەدەست
سەید
بانگەش
سەدەی
پەڕ
140
سیم
دەبینین
##ـتی
##دەکرێت
سووریا
ياشت
ناحی
دیدار
##ەکەشی
هتد
کۆچ
##اعید
##اکردنی
لەخو
##تەو
##کێی
دادگا
##چاوی
هاند
##اوەو
کانی
سنوری
سەعید
##ۆرت
يێراق
برو
یارییەکانی
منداڵان
دەگەڕێتەوە
لێژ
يەمریکی
##زیکی
هاتنی
کۆل
دەري
ویست
##یەکی
ڕەه
##ڤەر
نان
دز
زۆرینەی
##ایدا
داهاتوودا
دەستکەوت
خزمەتی
سەرهەڵ
دەزانێت
دامەزراو
بڵێین
گۆڕانکاری
پایتەختی
##کەکانی
##وي
کتێبی
##بکەن
##تەرن
شارەز
مۆر
مرۆڤایەتی
واقیع
##ww
ڕۆژنامەنوس
ياڕ
##ەکەین
بەڕێوەب
مێژوویی
مۆن
##ماع
هاوش
وەست
100
58
شای
وڵاتەکەی
##کاران
مەترس
گری
www
ڕێکخراوە
نییەو
##ۆرم
هۆش
بەگشتی
##ەدەغ
سەرچاوە
گەشتی
دابن
کون
بەیانی
##ەتر
##ڕا
يەگەری
##وست
هەولێری
بس
##ێڕای
##خت
بەلای
يێستادا
تەماش
باوکی
متمان
##ەکدا
یش
تیرۆریست
دەروونی
موسڵمان
کۆبانێ
بۆیان
سەربەخۆی
بابەتە
##ینا
کەرتی
خانەق
يەزموونی
ڕاپەڕین
تاوانبار
چۆنیەتی
دۆست
دەنووس
عیراق
##گیرێت
دنیای
پێناس
##بردنی
##ەکەن
ڕاستە
##مەن
هاوکار
هێرشی
هەڵبژ
يەندا
نێچ
پێویسته
لەوەش
زۆرێک
لەهەمان
کارو
قەدەغ
##نگ
##ووەتە
بوونە
##کراون
هێڵی
##شم
##زا
پەیدا
##وسی
هەموومان
##رای
هاوکاریی
شارستانی
کوردستانە
پیشەس
ناتوان
گرێب
##توانی
يۆپۆزی
بەوەش
گووتی
فەرەنسا
##سک
کۆمی
جیاجی
##بکرێت
شارۆچکەی
هەموویان
کەسوک
ماوەیەکی
بنەڕ
دانانی
یەکل
پەنا
کێشەکانی
تیرۆریستی
کوردستانیش
سیاسییەکانی
خودا
##وەو
بەدوادا
##ەخانەی
##گەیەکی
##سەی
##اتن
لەهەرێمی
##کردۆتەوە
ڕەفت
سەدام
##وول
کارەبا
کۆمەڵگە
هەور
ڕێنم
لەبەريەوەی
ڕاشی
بێب
##هر
خەون
بکە
سزای
کارمەند
ماڵپەڕی
تیش
##اسم
گۆل
کوردە
##وق
سەم
نار
##ۆپ
پەلام
پێشوازی
کوشتن
جیا
نیگەرانی
ناوەر
هەزاران
هێناوە
مەع
چییە
35
یەکسانی
##دەخ
بەگو
يامادەیی
گەرد
مەزن
يازار
##رێژ
نێونەتەوەیی
دڕ
##ەشەوە
ماوە
دەستپێک
##انەو
##ەکا
بەهەمان
درێژەی
دەیهەوێت
لێپرسراوی
یەکگرتووەکانی
##کردنە
دۆسی
خۆشەویست
عب
##ێـک
شارە
##دەدات
ڤی
خەریکی
##اکێش
واتا
##لەتی
بەرێوە
ڕووبەڕووی
پاڵەوانی
##لاتی
کوڕی
##ووچ
##ێلی
شتی
کەش
واز
ململانێی
##توری
وەرزش
ڕود
بەڕێوەبەرایەتی
پەل
لاد
لەدی
##گرافی
لەيێستادا
دەتوانیت
##ندا
##ail
##زای
ڕیزب
ماددەی
نرخ
تاوانی
##ێوی
##ir
گرین
فیستیڤاڵ
يینگلیزی
ڕووبەر
##ۆگ
##راوەکان
##نیشانی
درۆ
نووسینی
يێمەی
کردووەتەوە
پێشێل
دەمان
##ڕین
بەتەو
تەنها
##هیر
##لۆم
کاریگەریی
پەروەردەی
موحەممەد
##سێ
هەرە
سەنتەری
تەيکی
يەڤ
سینەمای
داواکاریی
واش
بێدەنگ
هەڵوەش
تشرینی
##ارییە
کەناڵی
يەکتەر
ياڵۆز
##ایەن
##کوکی
پێمان
##ییەتی
##اورد
يیش
پێشان
##شینی
دەتوان
##لام
##ێنرێت
گەیشتن
مەزه
باخ
جین
کارب
##ێکەوە
کارەسات
ڕوان
##ۆرگ
دەزگا
ڕەزام
ڕاپۆرتی
پشکنی
لێکۆڵینەوە
مانەوەی
لەپەر
##am
بەڵێن
بەرش
لەدا
##ریش
##گه
هاوبەشی
وتیشی
تەس
##ییەت
##وش
هاتوچ
یادی
تێڕ
يارامی
##ێگای
بەخۆ
لەکار
##ماعیل
قەت
کێشەکان
پەکەکە
بەجۆر
##دەچێت
##ێننەوە
نێچیر
##چەر
دەکەوێتە
جیهاندا
بەسەردا
گوندی
نەیت
يەوکات
##رێنەوە
بڵێم
کش
مور
ستەم
حکوومەت
لێرە
تەلەفزی
شانۆی
##وێنی
کوردستانەوە
##تا
کەرکووک
ڕێگا
##امەی
##وێ
##رید
##ماندا
يەوانی
##گاکانی
##انەکانی
پارچ
عەقڵ
يیست
سیناری
گونجاو
حوز
خەڵات
مەڵب
##as
گەڕانەوەی
پابەند
کەناڵ
##رۆش
دەرچ
قەیرانی
يەوی
نەبوون
سات
لێکۆڵینەوەی
نەیتوانی
گوتەبێژی
يەگەرچی
##لێک
00
ڕاشیگەیاند
تاق
زە
کەت
دیموکراتی
##گەکانی
دژایەتی
عەم
مرد
##سن
##لیم
مێ
ياگاداری
سەندی
##کراوی
نەوش
هەرب
هەڵبژاردنەکان
تێر
##ion
##یند
ڕەخنەی
ڕێی
##وف
زنج
##دەکەن
شەرم
##مار
کۆمۆنی
نەف
کەپ
بووەو
پێشواز
يەلع
وەه
بەبەر
يەردۆ
سەرت
شەق
کۆنترۆڵ
##ەوا
نوسەر
دەزانین
بوە
هەری
کەسە
خۆیەتی
تابل
##ۆزب
چاوپێک
دور
گرتووە
##ڕانی
##بونی
45
هۆڵی
##نامە
لەبواری
گۆڕانکاریی
گەیاند
ياوێنە
هیواد
##بیر
نوسین
دۆخی
مزگ
##تیل
##اسەری
دابەشکردنی
هەڵبژاردنەکانی
میانەی
هێندە
##اماد
يومێد
ستراتیژی
لوب
نەکردووە
بنکەی
##ییەکاندا
تیپی
زار
کەلار
کۆنە
##انەیان
خانوو
##بێ
##tp
ڕەخن
هەت
##ۆکە
جەختی
فەرماندەی
بگرە
خورماتوو
کشتوکاڵ
نەیان
خەرج
سیستەم
شەوی
##ۆمی
خوێنی
يەسەد
چەوس
پێشبینی
تەندروست
وەها
##ۆڵی
کەوا
کۆمیت
میس
وەل
سەرچاوەیەکی
http
##ەسپ
ڕێکەوت
شاخ
وڵاته
سووت
سەردەشت
##هێناوە
هاش
بچووک
کۆش
##هێنا
ناه
ناکەن
##زاد
دێموکرات
هەڵمەت
يازادیی
يەنجامد
##وویەتی
دیاریکراو
هێنانی
گوم
کاتێ
بوار
بەنی
بووه
سەرچاوەیەک
##ۆنەی
##راوەکانی
##بوونەوە
حەمە
لەچوار
##ویست
سبەی
مەرگ
جەخت
پەیوەندید
کاروان
دیپ
##ۆکانی
شۆر
دەدا
##ردو
نەخۆشخانەی
واب
تۆمەتبار
کران
شکست
بەهاو
مێش
##ستانە
هەڤاڵ
وێڕای
پەروەردە
##ییانە
مامۆستای
جارێک
##ەبوون
2003
مەه
تۆپ
سەوز
##مەتی
پیرۆزب
بیت
هەنگاوی
دروو
دایکی
بکرێ
يەنجامدا
##day
ناتوانن
##ێنت
میواند
يیي
لەکۆ
باشوور
ڕەوتی
نەوشیروان
لەچەند
يێوارەی
نەکراوە
دواکەوت
بکەیت
##مێکی
بەردەوامە
کەمی
هیچی
باران
خوێنەر
جۆراوجۆر
##یب
ساڵەی
ساڵانی
##ut
##ەکەیە
پێچەوانەی
ڕاس
خانەقین
يەمڕ
سەرەتایی
بتوانن
on
نێچیرڤان
##رێتە
بەرژەوەند
دووپات
سور
ڕەسمی
دێتە
زۆرترین
لاب
##کوژ
هاوڕێی
تەقینەوەی
يەه
کاتدا
بتوانێت
پەیوەست
حوکمی
##کیان
زا
شیو
##بێژ
قوري
##ەکاریی
قبوڵ
##انا
مردن
فارس
ڕێکخستنی
داکۆکی
میلی
لەگەڵدا
دۆزینەوەی
##خۆشی
##ەماڵ
لایەنەکانی
دەوێت
##ەکرێت
يینجا
دواجار
##دەه
شەپ
بەرەنگ
##ۆتایی
کۆری
هەمووی
وتوو
علیە
لەبار
نەوەی
##ەڵات
##رالی
خەیاڵ
تار
يۆس
ڕیزبەندی
پێشکەوتن
##دێکی
خستە
##ec
سەقام
##کردوە
قازان
تەش
##فە
##باری
لەناوچ
##دال
وەرگێڕ
ڕۆژنامە
##تۆن
فوي
چاکسازی
موزیکی
هەڵەبج
يیسماعیل
##ازە
نابێ
جامی
هەڵبژێرد
ناکۆکی
سەرل
منداڵی
سعودی
يامێر
##اوەکانی
بکرێتەوە
جەنابی
دەوروبەری
عەبدوڵا
گوز
داهاتی
سەلاح
ماوەیەک
دانیشتوانی
دابینکردنی
ساد
دیکتاتۆری
خالی
##کای
یەکتری
بەپێچ
کردە
موزیک
لاوان
##ەیەی
بەرج
ڕیز
فوياد
بڕیارد
کابینەی
فیلمه
چوو
ڕێنمایی
دەکەنەوە
هەردوولا
ڕوسیا
حەی
بەهیچ
باڵا
##کران
کۆنفرانس
##الیزم
پزیشکی
پرسیاری
کرێکار
بەح
##گاری
##کردنیان
##گەریی
##اود
سێش
حوزەیر
بەشداریی
چەکدارانی
زەحم
ساڵێک
شـ
##کردەوه
يەبێت
سنور
##اندان
##گەیشت
نوسی
چەکداری
يەیل
##ەکێ
تەنگ
يەکات
ژوور
گەندەڵ
چیرۆکی
لەوانەیە
ناکۆک
کورتە
##رەس
کەموک
##ریان
بەهەر
گەلەکەمان
بەرهەمهێنانی
ياڵو
##مەندی
پیل
##با
يایدی
دەهێنێت
ڕووناک
نەتەوەیەک
هیوای
نازانم
##ەدین
جەع
##ێکردنی
شوبات
ناڕەزایی
##ەرێکی
تای
##اڕی
بپارێز
مح
نەهێشت
بەڕێوەچوو
هاوڕێ
سوت
حیزبە
قوتابخان
مەجید
نۆ
پاڵپشتی
نەری
وپ
وتار
##ناس
##راوه
خزمەتگوزاری
سەعات
يەنجومەن
وم
##ینەوه
ڕۆی
يەوەیان
##دانە
##ەکێش
پارە
کەمپ
کۆمەڵە
هێمن
گۆڤاری
قوتابی
ڕۆژانی
پێدانی
##ەقیق
سەلمان
نادی
بەدەر
سەرو
ڕایان
بەڵێ
يیسپانیا
شارەکانی
لاپەڕ
##ێڵن
ترەوە
پێوە
ڕادە
لۆ
##ناو
فەرهەنگی
##غانستان
لەجی
##ەرک
دادپەر
##رن
نەکات
حزبە
باسە
لایەکی
يۆپۆزیسیۆن
يێز
##ەفی
ياهەنگ
چاپکردن
89
ياراست
خەت
گوتم
##ـک
##اهەنگی
دڵسۆز
چیتر
##ۆساید
سم
##حمد
وال
يەندامێکی
##باران
32
پارتە
##تین
سەلام
196
ياژانس
جێگیر
##ێرانی
##ۆرک
چر
صلی
یاریگای
##ۆکان
##le
##گرین
سەرکوت
لەپێش
لەندەن
کۆمەلایەتی
##وزی
بەرد
کۆمپانیا
يەفس
حی
ڕۆژە
##یانەوە
هاووڵاتیان
بلاو
ياوەدان
بەجۆرێک
دەرهێنەر
##ەتدا
ڕیش
قوڵ
##ونج
دەگوت
پۆل
گل
لەبیر
کوردەکان
پلانی
##ەواری
جەمال
يایندەی
بەگوێرەی
لەپەرل
##ەوەش
لقی
هەموار
کاڵ
##اوان
ياخر
فاک
ڕێکخراوەکانی
##ەزایەتی
بهێنن
هونەرمەندی
خواردن
فەرمانی
بودج
زەم
مەدرید
لەسەرەتای
هەرچەند
کۆچی
سۆران
##بیا
##چون
بەعسی
نوێنەرایەتی
کەرکوکی
دراوە
ڕۆحی
وەرزی
یۆن
##ژمار
##گوت
بریاری
يینسان
بۆر
گەلانی
گرووپ
يافرەتان
بۆش
##مەی
##اوەر
سیروان
جاران
لەدژی
بریتییە
میوانداری
##بیری
دەرگای
بەراورد
کیل
##ودا
سەرپ
##نەکانی
سەرۆکایەتیی
##دەکاتەوە
##یدا
ناوە
بریار
34
##دارە
گواستنەوەی
دەخاتە
##لین
##رۆڤ
کوێ
قاعید
##اوەڕ
دەرمان
دانو
کوردیش
دواتری
پێشانگای
##ڕن
يێک
گۆش
##شیکردەوە
باشوری
پرۆژەی
لەسەری
##اته
يەوەندەی
سێشەمم
نەماوە
پیرۆزبایی
بەشار
خێزانی
وسلم
##ەرز
وەسف
سۆز
زیندوو
##ێیت
خەس
دەریا
دینی
بەخۆی
سامان
2006
بەڵێنی
##ییەکە
خۆڵ
شیعە
بەری
##هان
بچوک
##شەوە
بەرێز
هەلومەر
##ووەکان
گەرمیانی
لەبەغ
جن
##ex
خۆیاندا
فەڕ
توێژینەوەی
##راوەو
ژنی
سەرەوە
وەکوو
لایەنەکان
کۆمەڵایەت
فەرهەنگ
دەیانهەوێت
دەسەلاتی
سارد
##ۆنە
ڕەوش
گوایە
يەخل
ناوداری
بەکارد
برا
دیموکراسی
سەخت
بەهەموو
کۆکردنەوەی
دەزگاکانی
هاتوون
موڵ
کۆیل
لێژنەی
کەسوکاری
يەمج
##یانه
کاتەی
هەڵسەنگ
گول
دەستب
دەستور
زۆریان
نەهات
تەمم
سکاڵ
تەکن
بەرێوەبەری
زۆرە
درام
لێکەوت
هەڕەشەی
##قە
کردەوه
زیر
##زین
کچە
بارەیەوە
ناوخۆیی
دل
دەکاتە
زیندان
36
##وودا
شوێنێکی
گەورەیە
##ەکەس
##کردنەو
ڕێکەوتن
زاڵ
پێکهاتەی
هاتە
چاوپێکەوتن
يەکادی
دەگاتە
تردا
يابووریی
قایم
يەفغانستان
بەخو
پیشەسازی
ناونیشانی
##فری
جەستەی
بەپێچەو
عاد
بانگەو
پایتەخت
پێت
##ck
بۆچوونی
زۆرب
دادوەری
بەشداربوو
هێزه
ناحیەی
##گەه
درووست
بەمەش
هیوا
زۆرجار
دەوڵەمەند
##راوەی
خۆراک
يیمار
هەمووان
هاوڵاتیانی
کردبێت
##اوەکان
##ێدار
يامر
باکووری
ڕاکێش
دیکەوە
##روست
##are
گرفتی
##گرتووە
گرتن
تەی
##ۆچوونی
بکەوێت
تەکنی
هێندەی
نووسەری
دانیشتنی
ياید
##ەزان
نیم
بێز
دەبینێت
دەوری
دەگێڕ
سر
##کەکان
پەس
حاک
##هەل
سوک
##ێرت
پرۆگر
##ەتان
##ێیە
بگۆڕ
لێن
تک
ڕۆح
نەورۆز
دەرەکی
باڵیۆزی
##کاتە
درا
دەکەیت
ڕۆژهەڵات
خستەڕوو
دزی
گیانیان
پاری
لەمەوبەر
هەروا
ڕایدە
بەدەستهێنانی
لایەنێک
ڕوونیکردەوە
خراپی
##ێرە
تابلۆی
پەرت
##سە
دیسان
پێشنیاز
لەکۆتایی
دادگایی
مافە
پاشەک
کاتە
پێشەوە
دادوەر
مەو
دیاردەی
##بدات
##اداشت
لەچوارچێوەی
وەلی
لەوبارەی
ياژەڵ
وێست
##os
کرێکاران
خالید
قەیران
##ێستیڤ
قار
پەراو
##سین
##سو
##ڕیت
شاندی
گەلێک
re
60
واد
33
##یەت
دەبات
دووبار
لێرەوە
ياد
ڕاگرتنی
##یشدا
دەڵێم
ڕاستەقینەی
##ەنسی
پای
بدۆز
##ودەز
خود
بکوژ
کەمکردنەوەی
میکانی
##کەم
ياماژەیە
عبدال
يەکەن
يەمه
چەندە
نمون
هاتن
##جۆرە
قان
دواتریش
هەڵد
يامادەبوونی
يێ
##he
##بخ
وتو
##ییانەی
باکوری
##چاری
لەمێژ
سێب
زیانی
میراود
دەردەکەوێت
دەل
کاریان
دەرواز
ڕووداوەکانی
بناغ
دیس
وتەی
سەرقاڵی
هاتنە
بۆمب
يەردۆغان
دەکەو
##فت
ڕاسپ
ياوا
##ەکانت
میراودەلی
بەڵگەی
بووین
دەدەین
##مدا
نیشاند
ڕێگری
بانگەشەی
هەناس
کشتوکاڵی
تیایدا
برینداربوون
ڕەزامەندی
شاه
منی
##ەددین
يازادیخواز
##چن
خۆرياو
مەش
کاوە
یەکێت
##ments
لوت
مێرد
ساخ
لەمان
##ییەکانیان
زێڕ
##ۆته
جاری
##رەو
يەوەشدا
ڕاوێژکاری
ڕیک
##اسانی
فراکسیۆنی
خۆتان
##ێنەر
گۆڕەپ
بتوان
##حاڵی
سلێمان
لێکرد
واشن
زاخۆ
لەمەڕ
چوارەم
تێن
يیخ
دەستوری
##ەتەی
مەیدانی
چارەنووسی
هەڵگری
37
500
میدیای
پیاوان
پێداویستی
لەسن
نەخش
##توور
دروستبوونی
واژ
##ڕێت
خاتوو
دەبنە
لاوانی
لەدو
يێرە
براد
لین
وەرزشی
هاوولات
پارێزگاکانی
وەبەرهێنان
ڕوانگەی
ڕیال
لێیان
دەژین
هەوڵەکانی
هەڵسوک
##راوەتەوە
##ەگەری
بەکاری
پێداویست
##ah
قەڵەم
يەکتەری
کۆنس
سەدر
ياسمان
يێس
چەش
تیرۆریستان
##ەڵبژارد
گەیاندنی
پەیوەندییە
ژینگەی
بەرزن
جم
##ەمبەری
کوژراون
##ووانی
کارگێڕی
##qu
زمانێکی
##ەدەچێت
##سکی
يایند
جگەر
##ژیان
##ێمان
دەچێتە
##ەوەری
##ارین
يیدار
نەتەوه
##oo
ناوبژی
پتر
دەسەڵاتە
خر
بڕوای
##انیە
ڕک
##وین
عەش
بەرێوەبەر
جەژنی
برای
##پەرست
جەب
2004
کوردان
سەرش
دووپاتی
يەمڕۆی
دۆسیەی
وێران
بەرم
پلان
بەڕاستی
لەدەرەوەی
خۆب
دەور
##ووان
هێنان
کێشەو
بێن
وڵاتێکی
غەری
##ەتەوه
##لێمانی
##ەکیان
گور
فێستیڤ
کۆڕ
ياواز
##ەتەوەو
ڕەنگی
چالاکوانی
ڕەشید
بەندی
هەژار
دیوانی
قووڵ
سیاسیەکان
سیاسییە
بزانن
توشی
##اهی
لایەنێکی
خولەک
ماندوو
دوایین
تورکمان
دەشێت
میدیا
##کوژی
توانا
سەرمایەداری
بەبۆنەی
پرسە
کێب
##خس
پەیڕەو
چڕ
قوتابخانەی
ڕێوش
بۆت
##داوی
##ەستەی
چارەنووس
##پەری
کۆبوونەوە
##نەک
چاوەڕوان
لەمبارەیەوه
##بژارد
مامەڵە
##اوەتەوە
مزگەوت
کرایەوە
##وج
زانا
ڕاهێنەری
##کرێت
##hare
کۆنگرە
بارەگای
##پر
سەروەر
یۆر
کۆمیتەی
عاش
فای
پەرەپێدانی
شوێنە
کچان
دەزانم
کوژران
##کەین
داوایان
یوس
کەمێک
مردنی
ناڤ
##دەبێت
شوان
شیعر
عێراقەوە
يەنفالکراو
دید
of
هێڵ
قەرز
بەرف
بەرچاوی
سەرنجی
##ەشت
##اییەوە
بور
درێژە
مرۆڤەکان
حوکمڕانی
کاس
زنجیر
##یه
مرۆیی
گروپە
##رایەوە
نمایشی
پەیامی
بیروڕ
ڕێبەر
يەفسەر
بارەیەوه
خوازی
دەرچوو
##یشە
چۆ
جەعفەر
کۆتای
سوپاس
کرێکارانی
نابین
##امیل
بەهاری
##غی
وەرگیر
بڵێن
حاڵەتی
##نووس
نەکەن
##کاو
##شێو
##دام
دێرین
کارەبای
38
##سـ
پلە
سینەما
##it
فیکری
ڕووبەڕوو
فاشی
##کوو
بزانین
جۆن
##ژاد
کانونی
چوارچ
میللی
##کۆل
##گەین
دژە
سویس
ناسیۆن
دەکرا
يینسانی
##ێکانی
##ەرب
بێتە
کۆر
سەرباری
بیرکردنەوەی
باکوور
يیتالیا
لێهات
بەدەستی
##ic
fb
دامودەز
##lick
ياماژه
ياڕاستەی
شانازی
نەوە
##بکەین
##بونەوەی
مەسیح
لەلێد
نێر
##رۆس
یەکێکیان
دۆلاری
سوپا
ڕۆڵێکی
لەبەغدا
##گیرد
شۆف
فیلمەکانی
##ەدایە
##urd
فەو
ڕاستەقینە
بریتین
خواستی
##ەرو
بڵاوکردنەوەی
ڕف
دروش
يەفری
##بەت
دەگرێتەوە
شم
##ولی
کەسانە
دەخواز
تەواف
حاڵەت
دەبەست
خۆیشی
گوزار
خانەن
نیشتەجێب
چەمکی
مەح
دانوستان
بازاڕی
##ol
دەکوژ
پێشکەوتنی
##الیست
مای
مەم
ڕووسیا
گەنجان
2005
بنیاتن
دابەز
##ێکم
##ووسیت
دانا
تاکی
فەرەنسی
بنەماڵەی
کورته
##يەند
يەندازی
فێری
تیپ
سامانی
##رابوو
##سەل
بەتەواوی
حوزەیران
پیاوە
زەب
گرد
##اسیۆن
هێل
يیيتیل
شۆڕشگێڕ
پسپۆڕ
##کم
##وارد
##انیا
گاز
##ist
بەشە
لەف
سەرچاوەکه
95
##وەی
سەرکردەی
تێگەیشتن
ناح
نەکرێت
ڕیزی
but
پتەو
بکەینەوە
بمان
##یلی
حەق
سێبەری
عی
##av
##ناوی
میوان
فەیل
##وردن
تیا
مەری
##امەتی
ناوچەیەکی
تایبەتمەند
يینتەرن
سەرکردە
سەنتەر
بڵاودەک
##ne
خوشک
ياکام
سینەماک
دەسەڵاتدارانی
##وتی
منداڵانی
بۆنەی
مارک
لوبنان
کەسایەت
شیر
پێشکەشی
بەرێوەچوو
خزمەتگوزاریی
گرووپی
پێکدا
يەکادیمی
پیت
ڕامی
ياشکرایە
نەش
##شار
پێویستیان
##وویی
39
لەبەش
دادەنرێت
##ڵێت
##ادان
لەسلێمانی
لاوی
بڵاوکراو
مەڵبەندی
بەرب
کورس
دیاریکردنی
##ation
پڕۆ
##اسای
ویستی
هەڵە
تەب
##قامی
##جێ
نییه
توندی
يۆپۆزسیۆنی
ڕاستیدا
##نەکان
شارەکە
ياغ
کۆمیسیۆنی
بنچ
بودجە
##اکاندا
يەگ
واته
ڕوب
یەکسان
يامادەکردنی
بڕوان
##رخ
لەکۆن
##ایەو
لەهەول
لەرێگەی
پزیشک
دەبیت
##ێدا
فیدراڵی
فەلسەفە
تەقینەو
توانیان
دیمەن
پێشت
ڕۆمانی
##الان
ياکامی
##ەبێت
ياوات
دووەمین
خەڵکە
يەق
يەیلول
وەربگرێت
##ــ
وشک
##نانی
بۆي
خێڵ
يیرادەی
مامەڵەی
قاسم
جەو
##پێکرد
هەنارد
پێب
##یشیان
هاشمی
دیکتاتۆر
ڕوونکردنەوەی
باراک
پێشوازیی
سەڵ
##ارن
حیزبەکان
يۆتۆمبیل
زوڵ
هەربۆیە
##ڕەس
هاووڵات
یەکلایی
بەرژەوەندیی
سار
نیشانەی
لەلێدوان
##امەت
حەو
لەشک
زەحمەت
هاوپەیمانیی
##ۆکر
##کرن
بەهێزی
هاتوچۆ
لەسەردەمی
لەبری
دێن
مانچ
##ڵانی
##ەستین
تەح
پێکهاتەکانی
واقیعی
يەشک
کۆریای
ڕەگەزی
##ired
پارێزگاکان
##em
بەراز
requ
پارچە
بەکوردستانی
##لایەن
هاری
بەدڵ
##ێوەر
required
داخواز
قەبارەی
##ژەن
تاهیر
##الیستی
هزری
ڕابردووی
مەبەستە
سان
ڕق
##ساز
مانگە
بۆرژ
##mail
يیج
يیداری
دەستەو
##لانی
##ابەر
وشە
##اکردنەوەی
##ەزانی
ياماژەیه
قەرەب
یون
گەیشتە
يێمەدا
زانک
شەرع
##هەڵاتی
مەدەن
تەمموز
ڕایانگەیاند
42
بزانێت
گرێبەست
سەروەری
فەیس
پەخش
ناگ
ویژ
ياماده
بەشێوەی
برایەتی
توانیویەتی
ژنە
##استیدا
ياراوە
کۆبونەوەی
ڕووداوی
##ژیانی
سل
ناسراو
خانەو
سزا
ترسی
دەژی
##ڵق
دۆزی
کەوتە
ماست
خۆپیشاندەران
مون
کارکردنی
دەبنەوە
يیسلامیی
تان
هاوکێش
هۆن
جەوه
یانەکانی
مانچست
ور
پەیوەندییەکی
48
##شاد
##ts
وێنەیەکی
##دەدەن
##ێرێت
نێ
ڕەمزی
پرسیارە
بنەڕەتی
ياخۆ
بەياماد
##وشی
تەکنەل
پەراوێز
شوێنێک
##دەری
هۆڵەندا
##ەسەل
ياسۆ
دەريەنجام
نموونەی
يەحمەدی
##تل
یوسف
43
##ابن
لەپێناوی
پێدەچێت
##اکتی
بەبڕی
نیاز
باوەڕی
ژاپ
يەوەتا
يازاری
لەحکوم
ڕێـ
##قەی
دەستەبەر
یەکگرتووی
جوڵ
سەقامگیری
##ەدات
بووەتە
دەفەرم
بەخێر
70
بێه
تەع
دەربب
چەسپ
سیاسیەکانی
عەد
سێکس
دۆڕ
ژینگە
یاساو
گۆڕانی
شایانی
کێشەیەکی
ياسای
بەوەدا
پێیوایە
##ەیانی
دەگوترێت
وری
يەمان
دەرهێنەری
هەماهەنگی
##گەیەنن
بژ
توندوتیژیی
لایەنه
هۆشیار
کۆنفرانسی
گۆڕی
بەڵگەن
##دەت
##ڵە
لەمبارەیەوە
کاراک
وتووێژ
هاوشێوەی
##سال
##ەرکوک
گەشەی
195
مامۆستایانی
بەرپرسیارێتی
هەرکەس
ڕۆژنامەنووسان
55
کارت
نەهێشتنی
##گان
##دانەوە
##فیق
يوست
41
کاردانەوەی
##ریت
بەخش
لەوانەی
قەد
حکومی
خراپتر
مەخ
تکایە
بەرەنگار
الع
لانی
##اوانی
تیۆری
سالار
مۆدێرن
##ۆجی
دەهات
عار
لەهەڵبژارد
دەرباز
نەخۆشخان
کاندیدی
مووچەی
دیپلۆم
##سۆن
مەعری
يەبو
##پەنج
##لێن
پەنابەران
##امۆش
دەرببڕیت
بەمان
دەگەیەنێت
سب
دەکرێتەوە
هەمیشەیی
##وەتەوە
دیالۆگ
##پۆش
گەڕان
ململانێ
حاکم
توانیو
بەشێوەیەک
موع
ناوچه
نەناس
ژیانێکی
بەڕێوەبردنی
وەرگرتن
فراکسیۆن
##بووی
هونەرمەندان
ولاتانی
سەرد
بەڵکوو
1991
دەزانی
##یرانی
گەشەپێدانی
44
کوردایەتی
ڕام
##ەشە
نێودەوڵەت
تەيکیدی
شارەزای
لێدوانێکدا
گەورەو
##ەڕۆی
لەبەرچاو
##ەکانیاندا
##ۆڕی
بەرزی
موق
بیروبۆچوونی
نەروی
کەڕ
بنووس
ڕێککەوت
بڕیاره
يەلی
کۆنگرەیەکی
فەرمانگەی
وەرگرتووە
##ri
دەبینی
پیس
لەهەولێر
ناوەکی
کاتەدا
##ew
##هەم
##ەڕۆ
يۆج
وزەی
کەند
نەبن
هەڵدە
ساڵانە
يامادەن
نەتەوەیەکگرت
عادل
دروستی
لەچاو
ڕێبین
فرۆشتنی
عەس
##گەو
##ارت
کرن
80
عەشق
ڕایگەیاندووە
دامەزراوە
حەقیق
یێ
##اندی
##سیق
بۆمان
متمانەی
حەر
هیند
هەواڵگری
ڕۆژنامەوانیدا
بخاتە
يێن
بینینی
بێج
سەعد
مەشق
##ues
کردەوەی
عوسمانی
بۆنی
ما
##خستن
ڕادیۆی
مەسیحی
کوردیدا
##تور
بەدرێژ
وز
بەسەرۆک
سێیەمی
کشانەوەی
ساب
عێراقیش
سوودی
##ایەدا
##ەکەیەوە
پەرلەمانتار
##پێشخ
میسری
##ده
ڕۆژنامەنووسی
بەرەوپێش
تیادا
لەوبارەیەوە
##خەڵ
بابەتانەی
کۆنتڕۆ
جوگرافی
ترسناک
##ستانەی
##مه
لیبیا
وەفدی
عێراقییەکان
ياسیا
##ەرەکانی
دەرفەت
هونەرمەندانی
لەوڵات
##ڕەحمان
##nd
کوردانی
##رک
زۆرتر
##پەرستی
لەخۆی
دێموکراس
ڕوویان
لەهەو
داناوە
##ژمێری
تۆڵ
شەنگ
ياسانی
يایار
بتوانین
يەلعێراق
ڕاز
نووسینگەی
ڕست
گەڕانەوە
لەدوو
ڕاگەیەن
کوردستانێ
خاڵە
##اخی
گەوره
##ژن
لەڕۆژ
خواز
ياستێکی
نادات
##عە
بیرکردنەوە
چوونە
چووە
مامۆستایان
لەعێراق
وێ
##ەخشی
خەریکە
مرۆڤە
پێشکەوتوو
موت
هەنگاوێکی
ڕۆژانەی
نەیانتوانی
##ڤین
پاکستان
##گاو
##لەت
##ێکرد
گەڕەکی
بەخشی
نێرد
##انین
يەهلی
نال
گۆڵی
لەسی
جۆره
##انن
##یەی
دەگرن
جل
##وانینی
##ەینە
ڕاسپارد
سەند
هاوولاتی
نییەب
لەبن
نەس
مات
قوب
سەندیکای
##ەپەڕ
##ۆتەوه
کیمیاب
فل
ڕوسی
نەگ
بەرمیل
کولتووری
##شتە
##هاتنی
فەرمانڕەو
ترا
هۆز
وایه
کارەساتی
گاڵ
يەبێ
فرە
بەیەکەوە
تەڵ
##وورد
لێکدانەوەی
ستی
دەگۆڕ
مەزهەب
ناویان
##وێت
یەکەی
کەسانێک
باشترە
نەرم
میت
کوردستانیان
دەستە
##تەرخ
بوارەکانی
##ەنها
##امبەری
بەرنامە
##بوونە
پەیکەر
بناس
##چونی
هۆشیاری
خەونی
دەه
زیاترە
سروو
دەبەن
ڕووداوە
يەوەبوو
شیعری
46
موراد
کردوون
هاته
شکستی
لەمیانەی
مەلی
هەبوونی
وک
وتاری
کاد
##ەمەوە
پارل
ناشی
لەکەرکوک
غەز
يەنق
سەرچاوەکانی
کەلوپ
##ێچی
لەح
کوردیی
جێگر
هەندێکیان
##الیزمی
##ەترین
داهێنان
دەستیپێکرد
هیوادارم
پیرۆزی
بچێتە
کیش
بەشەکانی
##ey
يۆکتۆ
300
ناوچەکەدا
مەبەستەش
سندو
##لۆن
قسەکردن
دەهێنن
يیخوان
قەرەبوو
جێن
سەربازیی
باڵیۆز
يەلب
مارکس
شێرکۆ
يێراندا
##کن
مەراسی
بەدوور
##ڕۆژی
##ber
گران
شاندێکی
دەرکردنی
سەرهەڵدانی
لق
داوه
عەباس
موحەمەد
دەربڕی
پێنجەم
جول
نیوەی
واتای
يەشکەنج
زام
شەم
مێر
ناشرین
ناتوانێ
ياڵای
هەرێمە
زیرەک
##چەند
ناپ
##ەخشێت
##دن
وردە
لایەنگرانی
47
بەياو
بەهر
نەخشەی
گۆرانیبێژ
##نین
شون
ڕۆشنبیریی
تیم
هەڵمەتی
يیع
دوچاری
بەرهەمەکانی
سود
جەز
سەرتاسەری
دەستبەر
قوريان
خێرا
فەلسەفەی
سووک
##ێنتی
بەهای
ببنە
حکومەتەکەی
بانکی
پـێش
دەڕوات
ڕێکخستن
تۆڕی
##کاتدا
##ماڵ
##گەیەند
یەکجار
بەرپرسێکی
شیوعی
ڕێککەوتنی
دەناس
پاڵێو
هەواڵێکی
بژی
یاریدەد
ببن
##ەخس
توندوتیژ
چەمچ
پێدەکات
چاوەڕێی
##بەسەر
##ێکان
##کارانی
ياشکرایکرد
داخوازی
ناخ
یەکەمیان
چۆڵ
پیاوانی
خواردنی
ڕەوت
بۆسەر
##بدرێت
چەق
کەسیش
زر
هەوڵدان
ناڕەزایەتی
قۆناغێکی
تیشکی
بەتەنی
پێناوی
##ێویست
##نک
##ەڵاتی
کەمتەرخ
لەکۆمەڵ
جینۆساید
دواب
هاوچەر
شانۆیی
حکوومەتە
دراوس
وابوو
يیيتیلافی
دەڤەر
کاکە
خۆشحاڵ
دوکان
49
##وانە
##هێ
##شتەر
##مێس
##ەولا
##فەی
52
لەڕێی
خەمی
##يەوە
دەستدر
قوربانیانی
شێرپەنج
ڕووبەرووی
مۆب
يارەزووی
##ورکی
بووبێت
کلاسی
نه
قوتابیان
هەڵبژاردە
چوارچێو
کەميەند
سەرکردەکانی
سەفەر
سوڵ
جدی
##ەسی
بەکر
htm
ڕوی
##ەتەکانی
##خوارد
نایات
يالان
##يی
##ێکمان
ڤێ
کێشەیە
زله
ڕیف
شەف
گومانی
دەوڵەتە
کڵ
دابوو
ناوچانە
فرۆک
##ێڵێت
متمانە
خۆشب
ستراتیژ
کاو
هاتووچ
دەستگیرکردنی
##بدەن
پۆڵ
##ch
##ۆرمی
ڕایدەگەیەنێت
يیسلامییەکان
ڕەسوڵ
51
بەف
دەرکرد
يێوارە
ود
کاف
دەشڵێت
تازەی
تەلەفزیۆنی
##پا
##زانە
شۆڤ
دەبینن
یاسایە
پیاوی
چەواش
کەلە
لەنزیک
یەکگرتو
تەماشای
شەقامی
##ad
##ونە
ناوچەیە
بۆتەوە
حیک
کێبڕ
##کرایەوە
قەن
ڕاش
##وندی
خانەی
حزبی
##کاتی
کەوتووە
گوێب
بەنزین
##ەویت
##نشین
دێر
##لێ
دڵشاد
قوتابخانە
بەرپرسە
##گێر
بڵێ
دنیادا
194
فەرماند
ڕادیۆ
جیهاد
##فرۆش
لەپاش
خولەکی
پەنابەر
گرینگ
قاچ
بوونەتە
##ەپێدان
قسەکانی
53
جۆ
پاڵەوانێتی
لەشکری
سەرژمێری
يەمەی
نەژاد
نزیکی
هەڵک
سەرەکیی
قی
##گراف
عەبدولڕەحمان
لەپەی
هاتوو
نەخێر
##پێد
تەکنەلۆژی
بوش
کۆیە
##مانەی
شانۆگەری
گەمار
دروشمی
90
الح
خوێندکاران
ڕووخ
سەلاحەددین
دەمێنێتەوە
بڵێت
دەتوانرێت
هان
##راوێکی
پراکتی
پێموایە
هێزو
ڕونی
ڕێزی
لەڕێگای
پاریس
فەت
ڕەحمان
##ینه
بەتوان
##کردنەوەو
پڕۆژەکە
نەمان
##گرم
زێب
دەره
کرێکاری
##ێرای
یەکێکی
سیاسەتمەد
بەوه
##ستەکان
ناتوانین
بنەما
بەشداریکردن
مەترسیدار
کارمەندانی
پرد
بەها
عەلمانی
یاخی
کاربەدەست
پێشبڕ
##ani
سەردانەکەی
تاد
هەڵەی
نیسان
گۆڕەپانی
54
##ورتی
یانی
بەرگریی
فارسی
کەریمی
لەزۆر
سەلماند
##ینەوەو
گرێد
پان
کوم
موچەی
ناسنامەی
فۆرم
##کێکی
مەکەن
بێبەش
یاداشت
جیابوون
جیاوازە
مشت
ڕەنج
##مەز
بەيامادەبوونی
مۆسیق
##ەجێ
مەرگی
سوننە
گوێی
موبار
شەپۆل
بڵاودەکرێنەوە
زەمین
نەجمەد
بانگەواز
الن
هەڵبەت
گەنجانی
فەیلەس
##ow
##یداوە
فرمێس
دیموکرات
بنک
بگاتە
دەستپێشخ
شەهیدانی
ناوەڕاستی
دەوروبەر
يەج
نوێژ
واشنتن
تایبەتدا
گرنگترین
دڕند
ماس
##اوەری
لەکوردستاندا
##ەرەوە
زیادکردنی
درەنگ
مۆڵەتی
سڕ
56
##بهێنێت
کەد
بایەخی
شاد
بێي
توندڕەو
ببینێت
بگێڕ
##ەنین
##ەدار
هەف
##ەتاح
ڕووداوەکان
جەه
ڕوویدا
يەمن
پێغەمبەری
پێر
جووڵ
خولەکە
##ەکانیانە
##og
باڵەک
قارەمان
تەرم
يەستۆی
هاوار
دەوڵەتێکی
دەرفەتی
بێتەوە
لەوانەش
جگه
پەنابەرانی
##ڕای
57
پانت
ڕەزا
باپ
لەدیدار
تەيکید
يۆرگ
##ینگ
##ahoo
کورتی
هاوسەرگیری
خۆشحاڵی
##رێس
شۆرش
دۆر
تونس
سۆسیال
پەلاماری
چەمچەماڵ
نازانێت
شیرین
دەڤ
نازناوی
yahoo
بەشداریکردنی
پەت
##بێتەوە
##اسیۆنی
یەکە
##ێنەی
وەردەگرێت
##یەکەی
هەڕەشە
بێجگە
يەمریکاو
##ارەیان
زێباری
جد
لەبەرژەو
جاڕ
هێو
بەتایبەتیش
هاوڵات
نەشتەر
سویسرا
##کەوتی
بەهەڵ
سیاسەتە
ام
يامێری
خاڵێکی
بەکۆمەڵ
ببەست
ژیانیان
ناسراوە
##فتی
بنەماکانی
بەرشەل
کراوه
تەرمی
هاووڵاتیانی
تورکیاو
##ەنجوم
دەنگیان
کێڵ
چاوەر
##شەممەی
##dd
مەڕ
چینایەتی
يەوەمان
بەدرێژایی
گەڕەک
ماوەتەوە
بەجی
بەرزنجی
هاورد
لۆژی
قبوو
چا
دەبێته
کۆشکی
##بەش
ڕاگەه
##بوونەو
کاتێکی
مووچ
هەلی
يیمەی
نەین
##یین
192
##ەفور
بیرۆکەی
##ناڵ
ڕێکخراوێکی
لەوت
وێنەگری
##تاری
##ەبەیانی
خۆڕا
بڕیارێکی
کیلۆم
بۆخۆی
يەح
##اهیر
کامیل
##کدا
تاوانەکانی
بەرازیل
جەلەولا
يامادەکاری
##ەپە
خەلیل
ناردنی
بەکاردەه
ڕەخنەگر
کوردەکانی
دانیشتوان
چل
پۆستە
یانە
شەڕە
هەژاری
خەلکی
##ەوەن
##ەسەڵات
تۆمەتی
لەپەرلەمانی
عەدنان
ياڵوگۆڕ
شەی
بپرس
دیکۆم
پیاوێکی
چاکی
##نسی
هەولێرو
سیناریۆی
بکرد
لەپارێز
پێشو
دروشم
##اکانیان
دیکەدا
دادپەروەری
دیو
لەياستی
بەدیهێنانی
فشار
گەورەتر
بەهرۆز
##ەکردەوە
بێدەنگی
هەندێ
مەرجی
##ەکەتان
بەرێوەبەرایەتی
##ەشیان
يۆسکاری
##شتووە
پارێزگا
يەیاد
##هی
ڕێورەس
میلیشی
پرەنسی
خوێندنەوە
زۆربەیان
ماددە
گلەیی
ویلایەت
بکاتە
زێڕین
قوڕ
##ژە
یی
بینیوە
پە
##ڤە
مەنس
لەپاڵ
سەرپەرشتیاری
پێشتریش
ڕاگەیاندووە
بێژ
##امانی
##گاکان
بەفر
ناکەم
بناغەی
ساو
سیر
##سەری
##اییە
##تنی
ناڵ
##ایدی
ولاتە
هەڵسوڕ
عارف
نەدا
موش
لەقۆناغ
گەیشته
##ارەکەی
یەکڕی
ڕەمەزان
##رۆنی
حساب
تاڵی
توور
##ۆوە
##لوبەر
ناخۆش
سوکایەتی
##ەح
شارەد
هاوکارمان
##فرۆ
تێکست
فەز
باج
گرتنی
هاوولاتیان
##ave
دەستەواژ
مەریوان
st
يوس
هەردەم
کەوتنە
هەژاند
##اتۆری
سەرانی
شانۆک
هانی
کارێک
وەربگرن
##اکه
##بووم
سەڵاح
کۆمەک
##قر
مناڵ
بیروباوەڕ
بێو
کەمە
لەهەڵ
کۆبوونەوەیەکی
قۆناغە
بەپێچەوانەوە
غەریب
##اراست
بەتەنیا
زاری
##ینەکانی
تەقەمەنی
کۆبونەو
##هەلاتی
لێدانی
دەمهەوێت
قایمقامی
ڕووخانی
کەسەی
نووسراوە
کریست
دڵخۆش
##دایه
نادیار
بەزۆر
##کاتەوە
##اییەکان
کەيەم
##زۆ
کەسیان
مادد
کۆمەڵایەتیی
##فیس
چالاکوان
##ادین
##line
##ایەتە
##ێتەوه
نەگەیشت
##رایە
##ردومان
##داد
ببێتەوە
پله
We
ڕووسی
مەتر
ڕەي
زیادی
لەناوبردنی
تاریق
يامراز
ناکەین
مەگەر
حەمید
پێشمەرگەو
لەتی
حکومەتێکی
##انەکەی
##ۆنت
##انەن
وج
##ing
زوڵم
##50
مانەوە
پاسەوان
یەوە
ڕێکەوتی
خزمەتکردنی
فەڕەن
مانا
بەهێزکردنی
خەیاڵی
بەنیاز
کچی
##اندەوە
تاوانە
##us
چۆمان
دانراوە
لەرۆژ
##istan
##گوزاری
بەشێکە
دەچن
بالای
هەڵسوکەوت
ماچ
ڕوونیشیکردەوە
هەورامی
يەوروو
##تەی
سایەی
دەريەنجامی
خۆپیشاندانی
##70
##الا
لێکۆڵینەوه
بووەوە
##ادایە
لەلایەک
ڕێزلێن
کادر
پاشم
باسیان
حەفت
کراوەتەوە
بابەتێکی
بەرگی
بێگ
نەداوە
پێکهاتووە
حاڵی
##گەن
قازانجی
##ەنجومەنی
بوارەدا
##ەداو
ڕەتی
##يە
##ەوەست
تاریک
توڕ
یاریزانان
پەرەسەند
بهێنە
فەرهاد
لەبەشێکی
وڵ
يیمز
##lan
دەکەینەوە
لێوە
يامۆژ
ڕاستییە
بەڕێوەدەچێت
##تم
##ard
##ەرەی
موخت
##وەز
ترە
تەها
##سـتان
##ەکراو
شتە
دامەزراندن
##حیم
خۆپێش
##ومی
یاساکانی
بوونەوەی
سیستم
باژ
##پێچ
یاسین
ڕێوڕەس
ڕەسەن
مۆز
ستاند
بێش
گێڕانەوەی
فەرامۆش
تەکنیکی
##0000
ڕادەستی
يەستۆ
قوتابیانی
##شتەی
##الە
ڕوداو
مۆڵەت
دەنووسن
تریان
بانگهێشت
##هم
##ەید
لێکۆڵینەو
##ەستینی
##کەت
کرم
شاک
گەری
دیالە
ڕەج
یەکەمجار
پرۆژه
لیژنەیەکی
بەرزکردنەوەی
دەبینرێت
فەتاح
نوێت
ناتۆ
وەرنە
مایک
تووش
هاتۆتە
يەرشی
ترسن
##ەرێک
##ەکانتان
هەردی
have
حەش
کامەران
يەتۆمی
لاوازی
##urdistan
فکری
يان
نایابی
خەڵکانی
کێشەکە
##يەو
کورددا
تف
چیە
پەسند
ڕۆژنامەوان
شور
گەردوونی
مارکسی
يەنوەر
بەکوردی
خیان
##فراند
ڕاهێنەر
پێشهات
هۆل
يامادەیە
يازادکردنی
قازانج
##پەروەر
يەنت
جەر
حسابی
محەممەد
خۆڵەم
سەربەر
بیرو
##دەخات
ماسی
##شمان
دەرکەوتنی
مەسەلەیە
يیماراتی
دەمی
کرابوو
تۆر
دەربەندی
وڵاتەدا
هۆکارێکی
in
نزم
جیاتی
شاعیری
بەخت
فیلمە
کەيەو
دەربڕین
59
کردۆتە
سەرەنجام
شارو
کچه
یێن
پڕۆژەیە
کۆنسێرت
ماڵپەری
يەستێر
دەنگد
خانمە
ماون
دراوسێ
شێوەکاری
##ێمە
نایاب
##ەڵەم
زلهێز
##شتیی
يۆر
بمانەوێت
##ێدەکات
لام
يوت
نەوەک
online
##اتا
يۆجالان
##ەزم
##ەخۆ
جلوبەر
بۆردومان
سیاسیدا
##ەکەیەتی
يەمنییەکان
سەریان
باڵاد
بەوەشدا
داگیرکەر
کارتی
کڕینی
عێراقە
پەسەندکردنی
##زێ
زەنگ
##بانگ
##مانەوە
150
##خستنەوەی
پشکنینی
لەڕاستیدا
دەروازەی
ماڵێکی
پوور
يۆگ
تێبینییەک
جەبار
سەرکردایەتیی
پەرست
لەمانگی
ژووری
پەرە
ڕاپۆرتێکی
پەیڕەوی
ماڵەوە
نۆڤ
وەردەگرن
ياماژەشی
مەیدان
کەیسی
يەوتۆ
سەلی
##ادەیەک
خاوەنەکانیانە
بمێنێتەوە
شیعەکان
##ێنراو
گوتیان
دانیشتووی
خەلی
کوشن
چێژ
پەیوەندییەکان
نامۆ
gues
guests
##ژەی
##ۆکه
بەشدارییان
ڤیت
دووشەممە
892
سۆم
لێدوانی
بکەو
فاکتەر
##اندنەوە
##ag
لەسەرجەم
بوارە
لەپشت
مەزهەبی
##تەمبەر
لەيەنجامی
ناودار
هێرشەکانی
فرۆش
دەستپێکرد
ژەه
##ایەوه
ژیر
لەياست
پەرلەمانتاران
پێداچوون
بڵاویکردەوە
##ەختە
دەستپێکردنی
جودا
نەجمەددین
##ێرا
لەداهات
عەبدولم
سزاد
دەستپێکی
يەوروپی
ناساندنی
لەزان
هەرس
تورکیادا
##اندایە
هێناو
دەستبەرداری
جۆرج
شەرەف
بەرجەستە
##ەمەز
هەژمار
قسەکانیدا
پیشان
سەرمایە
##ڤیل
لەوەدایە
دەوڵەتانی
سڵ
هەردووکیان
پسپۆر
نامێنێت
تاڕ
##pl
دەبوایە
هەڵوەشاندنەوەی
ڕانیە
هۆکارەکانی
گوزارشت
بێکاری
يەخلاقی
ڕاپەڕینی
ناسیون
پرۆگرام
ڕاپرسی
شێوازێکی
پێشکەشکردنی
193
##کرنا
بەرنامەیەکی
سەرۆکوەز
تیشک
##امەز
موز
##ۆب
##گەیاندنی
لەبەريەوە
نێودەوڵەتیی
##دیق
##یتە
نێوانیان
کوێت
ياری
گەشتو
دیر
يەوکاتە
گەورەکان
##if
وردی
شکاو
یاریگەی
هەلو
##پرسی
يەگینا
بەدواداچوون
غاز
پێشنیار
دەسـت
مسۆ
##زارەتی
تەز
ياپ
جاش
یارییە
##ill
##لامی
مۆندی
وەلام
ياگری
##بڕین
لەشی
نەتەوەکانی
يەبوب
خۆشیان
دهۆکێ
ڕووداوێکی
ڕیاڵ
##مارک
درێژایی
يۆکرانی
نایاسایی
سەختی
بەتەنها
دۆخە
دەگەر
##ییەو
دەتوانم
هاتی
بەوەشکرد
لەدەستدا
ڕیزەکانی
دەنگدانی
یەمەن
شارەزایی
يەکرد
##ییدا
شتەکان
کۆنترۆڵی
بۆند
##تۆی
وانەی
شەهر
بڕوا
وەڵامێک
بریتیە
##سم
##ایەتییە
نیشتەجێبوون
##ەکرا
سیف
##ext
##پیوت
زمانە
تۆمارکرد
لەکۆنگر
##چووە
بەفەر
درێژخ
دووری
تۆک
خوێندکاری
ویلایەتی
حەیدەر
مانچستەر
يۆکتۆبەر
پاکی
##ەندێک
یۆلی
##ـیەکانی
مەرک
بینای
سەردار
لەسێدار
دەربڕینی
پەرلەمانتاری
دەنگەکانی
کۆتاییدا
نوێدا
ولاتی
##ەکراوە
خۆرهەڵاتی
کوردییەکان
جارە
لەشار
##ریب
لەرووی
بەڕێوەبەرایەتیی
بەرهەڵ
##کەو
ياوار
##لاوی
ڕەفتار
##ازم
گەن
گەشە
شوێنەو
ڕۆژنامەنووسانی
هەوڵێکی
##اکردن
##ەکردنەوەی
نزیکدا
##انم
بڕوات
نیوز
##دوا
جوتی
ڕێبوار
جیاجیاکانی
لەجیاتی
##دەدرێت
کەسەر
سێکسی
##ناسی
##نیا
تاوتوێ
دڵنیا
بەرن
چەندان
يەوسا
##ێستاش
ناوچەیی
الی
کتێبە
##ـیەکان
شین
##ak
ناوچەکه
خەسڵ
بەتاڵ
##یلان
94
شارد
##شێوەیە
لەعیراقدا
بەدواداچوونی
##ەدەن
کارەکانیان
##درێت
کڕی
##بێژی
پێکهاتە
قبووڵ
براوەی
بوونەوە
سەق
سەردەمە
400
باوکم
بەدڵنی
يەرکە
گەیشتووەتە
يایەت
##اردی
کوردستانییەکان
يەسڵانی
نوێیە
بەندە
دوورە
خوڵق
ياماری
کفری
جیاب
##ێنینەوە
میللەتی
نوسینی
يەمڕۆش
پڕوپ
تاقیکردنەوەی
هونەریی
يینتەرنێت
هاوسەری
يوسترالی
##تیک
يیل
پاڵاو
عێراقییە
خەلک
وادەی
فلم
دایکم
يازی
##دێت
هەردو
بۆرژوازی
key
##وڕی
##ۆرتی
يیح
هۆکارێک
نیشتیمان
##ەخۆش
ڕێکخراوەکان
بەچەند
يایدۆلۆژی
##یران
کۆمیسیۆن
##end
بگەڕێتەوە
خۆیانەوە
وەری
پرۆسەیەکی
چالاکییەکانی
دابمەز
پێویستمان
سەپاندنی
باشور
بڕە
##وڵێت
قەرەدا
وەب
هین
کم
بەرواری
##گەکان
مەحموود
تێکشک
کوتلەی
بەردی
نامەی
پێست
ڕوودەدات
جڤ
جیاوازەکانی
کەنەدا
نەیتوانیوە
##ارتی
سەرەکییەکانی
نەریت
##ەلای
بڵێی
##ۆتەوەو
جێهێشت
یاسایەک
پشکی
پەشی
تەیب
##گیردرێت
فشاری
کوژراو
خەرجی
موچ
##وخ
خێرایی
##ter
کردنە
##گەیی
ناچێت
##شەو
ببات
نەتەوایەتی
بگەیەن
فیر
کەمترین
ڕێبەری
نەناسراو
##ێشی
سەرخستنی
نەمانی
##فان
##وودی
ساخت
##ۆد
##الێ
يەرکێکی
##ەتیڤ
هەڵبژاردنە
مەهدی
##لیمی
نووسەرانی
زەرد
##زیی
ڕاستەوخۆی
پشکنین
##سـت
ڕێزگرتن
تاس
##ێرین
##ێکدایە
بەهەشت
هەریەکە
دەنێت
##بەندی
##ەدەس
##بکاتەوە
بەرەنگاربوونەوەی
##رەت
##ەکانیشی
کردنەوە
ڕێژەیەکی
دۆن
##ton
موج
ڕەنگدانەوەی
##رەتی
تایبەتمەندی
ڕوخس
تۆز
##نت
ناوەڕۆکی
##هێشتی
تەف
ناڕاست
بەياسانی
##ەکیم
یانه
ڕۆژەی
ڕەخس
کلیپ
mail
نێوانی
##ass
يەمانەش
##اییدا
قەناع
موختار
##کارە
ڕێن
کۆمۆنیستی
لۆک
##لیا
بنکە
نەتەوەیەکگرتووەکان
##ەنه
مەغ
##ازدە
گەشەکردنی
ووڵات
##کۆم
ياڕاست
لەوەدا
##مێنێت
الق
##کل
##کاند
هاوچەرخ
پال
دەستدا
هەبوون
لایەنگری
حەڤ
##ەیەکیان
نەمر
##سوڵ
بەستنی
يەلق
##ووش
گۆلی
مێشک
هەژم
مانگێک
ڕێگه
زێد
لەلێدوانێکی
یوت
##بلۆم
بەرگ
کۆمپانیاکانی
يیسرايیلی
سەرلەن
##ەروو
ڕاهێنان
لەبەرامبەردا
هیل
##انەکان
##ەکانیانەوە
ڕۆشنبیران
##روژ
خال
لەتەک
خۆڵەمێش
زاگ
گی
لەلی
بەرزب
دەستبەسەر
##ییەدا
ڕووەوە
##فا
##جاری
##داوه
مش
باکور
حەزی
##ەبن
دەرچوونی
کەک
لەتورکی
##ەخسی
بخەنە
##دەبێتەوە
بنیات
کاربەدەستانی
بخرێتە
لەيار
فرانس
یەکسەر
فەری
بکرێتە
##ییەکانەوە
لەهاو
ماوەکەی
##ەکانى
نووری
دەیەوێ
دیاله
هەرێمدا
يەخلاق
گڵ
##ەمینی
ياوڕ
ساغ
تیرۆرکردنی
کۆسر
یۆلیۆ
##لیۆن
##ايی
کەناڵەکانی
ڕابردو
موبارەک
دەرناک
##گرنگ
##بول
##ame
ستراتیژیی
دیوار
##یدان
دڵت
پێچەوانەوە
##بری
##ەکردووە
بانگهێشتی
سفر
يەمجارە
بەرجەست
##یشەوە
مارس
ببینن
تەڕ
پێکدادان
مۆس
ياسایییە
دەستخۆشی
##ێژەی
دروستکرد
ژەن
يەمینداری
مژ
ياشنا
ڕادەیەک
بەسی
##ەچ
ڤیدی
تۆق
##ڤا
سیاسیە
##انسەری
ڕۆیشت
پۆز
خەز
##گرێ
کانوونی
قەیرانە
موڵکی
مسۆگەر
يامانجە
شایست
ماستەر
ڕەچاو
چاکسازیی
چاودێر
کیمیایی
##ێته
هەڵگیر
ساڵان
فەرەنس
چەسپاندنی
سەگ
ياسیایی
نیشانی
سۆڤی
میهر
يو
زۆریش
بشک
دەخات
پت
##anc
##ەڕێو
پاراستن
گوندەکانی
دیناری
قەند
##سازی
##ێنیت
ڕێکخەری
دێنە
ڕاپەر
بەرێوه
سلی
بنیاتنانی
شەفاف
##ووکی
يەوەیه
##گۆڕی
دەرد
##خۆف
خۆشگوز
ياگای
یونس
دەرچوون
يۆتۆمبێلەکانی
ملکە
سەنگەر
خۆشە
بیل
سەرز
دەترس
کۆپ
فراوانی
دەدو
عاشق
فیش
گوش
کردم
ناخی
بوونیان
درێژی
يەبوبەکر
##ورم
##کراوەکان
کۆمپیوت
چوارشەممە
##لاو
ياوارەکان
ماری
بازنەی
وێستگەی
لەژ
دەیانەوێ
کۆمەڵگادا
شایەنی
نەبین
بەزمانی
يیمتی
##urn
##زو
ياشن
يێواره
داگیرک
پڕوپاگ
دەبێ
جەستە
##پۆشی
##اە
##بکر
##ەکاو
یانەکەی
يەوێ
دەروون
##ۆنیۆ
بەرپرسیاری
عیر
جەوهەر
مع
##راب
##الەت
باه
بگرین
##ەڵکی
##اشان
لەماڵ
دەرچووە
سبەین
لەسەرە
پاڵت
مەسەلە
75
بەرهەمە
ژاپۆن
##ەدوای
هەڵۆ
لەيەنجومەنی
بەناوبانگ
کیلۆمەتر
not
شیری
##گوێ
دەستەڵات
يەمەیش
کارەی
پێیانوایە
نوسینگەی
چوارد
نوێترین
وڵاتێک
ڕابەر
ڕەحم
پاسەوانی
يیمان
عەشیر
مه
ياڵۆزی
##ۆلۆجی
##ایتد
ناشیرین
نەزان
##ابوونی
قاي
ڤان
خستۆتە
قەتەر
يەلف
کەنداو
مەف
تیژی
کوژرانی
خۆراکی
کەشتی
هزر
سەباح
نەق
دامەزرێن
تەشهیر
بینەر
ڕێس
لەناوچەی
سامانە
وەرگیراوە
شەڕو
زۆرن
پـێشـ
پێشبڕکێی
هادی
پلاندان
کۆسرەت
زەمەن
بردنی
لێم
ماک
کوێر
دەمانەوێت
زانایانی
هاتوچۆی
##قا
##ەزار
##one
ناوبژیوانی
بەرفراوان
وچ
ڕزگارکردنی
پێکهێن
لابردنی
جێبەجێکرد
جەژن
بەڕێک
تایبەتە
پەروەردەو
فەلەستین
خراو
##ویی
يەوق
لەوێش
الل
##بل
191
پەیوەندیدار
دڵم
##گم
##ەهێن
دەگات
الج
##ۆنیا
يۆپەر
##arg
چاویان
شنگ
فۆڕ
جاف
##ۆسایدی
گوتاری
يیمەیل
دانیشتووانی
فەرەج
شەنگال
محمد
##ەناو
بەدەم
دەنگەکان
چوونی
بەهاوکاری
بگات
کەلتوری
لینکەی
برایم
دادپەروەر
me
تۆش
پاڵەوانیەتی
منداڵە
دووباره
چیخۆف
پاساو
نەهێن
پەنجا
میکانیزم
will
ترو
##ژیدی
هێرشیان
##وڵمان
comments
##کردو
کەلتووری
چاودێریی
بەغدای
##omments
##re
ناوچەکەو
هن
لەپەرلەمان
نازانن
پیشەیی
##نووسی
تۆڕ
عیم
ڕیفراند
نەرویج
##ـکردنی
##ەیه
##اسە
هەفتە
عیش
##ۆخ
باسه
دڵنیام
تەنیایی
یەکێتیدا
##ـیه
دهوک
يیسلامیەکان
وزە
وخ
مەسع
بەسەری
فایله
##ییەکانیش
سەري
شەشەم
خوێندکارانی
دات
ڕووت
یەکەمدا
ڕێـگەی
عوم
کەنی
##ێتم
##اباد
بەڕای
لەقەڵەم
ببنەوە
سامی
مری
##عەت
##ارییەکان
الس
بش
فەلەستینی
میلان
##گرانی
ناوەڕاستە
توورەج
##ەڵە
هەڵسەنگاندنی
وڵاتان
العر
دەپرس
ڕوونکردەوە
هاتوە
ڕێگر
بەدەستهێنا
نەینەوا
شارەدێی
ناوەراست
شەممه
ڕێوشوێنی
خور
گەو
##اردا
ماڵياو
دیموکراس
فڕۆکە
جۆراوج
ياوەدانی
بەدەستەوە
اڵ
دەردەب
بگیرێت
بۆرد
##ێڕاق
تۆمارکرا
دەستکاری
##ورە
مایەوە
جیاکردنەوەی
یاساکە
يەرم
قسەو
دەرکەوتووە
پرێس
ڕۆژنامەگەری
يیمزا
##موکر
Add
Share
قەل
ژیاندا
پەیوەندیدارەکان
عەدا
مێز
##bo
دیداری
##کارییە
لیوا
پیشەی
خانەنشین
##پڕ
ڕێباز
دەربەندیخان
##کترۆنی
یوتوب
ماوەیەدا
پێشخستنی
چەکدارەکانی
##ember
پێشی
خستن
گوزەرانی
لەپرۆ
##بهێنن
وایان
بوونه
تەلەفزیۆن
ڕێککەوتننامەی
and
خۆیی
کوتل
یۆرۆ
سەرلەنوێ
بچنە
##ەجی
يامانجەکانی
جگەل
بکەی
یاسایەکی
شارەزا
سعودیە
سالی
##رێنە
ناوەرۆکی
##ۆرد
پێیە
##کەریم
خەند
##ەوتنی
چارەی
هەڵدەب
##اهەنگ
کەوتوون
ڕەجەب
وایکردووە
نابن
سێشەممە
وەفدێکی
هیچیان
ياماژەیدا
بوەست
عەقڵی
تێگەیشت
کەسەو
لەهەرێم
بید
Name
##کەش
یەکشەممە
جوم
دەرونی
لێبوو
مەڵبەند
hot
يۆگۆست
بیانووی
پاشا
##پێو
##ێڵی
سابیر
ڕەوان
کەسایەتیی
لیبر
توێژینەو
##ایەر
سودان
گەیشتنی
ساڵانەی
ياسۆی
گازی
سیستەمە
ڕووناکی
يەمەریکای
##لێکراو
مادی
پەیوەندییان
لەباز
hotmail
ڕەيوف
گەشەسەند
بژین
cl
پێشەنگی
تۆفیق
دەنا
گۆڤار
##جاریش
نايوم
مۆبایل
##yle
##هاتووە
دەشنی
يەرسەل
پێشنیاری
##گەرایی
وەی
##ەڕی
تێدەپەڕ
شا
##ێکت
##وومە
شەرعی
يەمساڵدا
باژێڕ
قێز
##ندە
##انییە
##سیم
يەوەیش
بکردایە
خراپە
بردنەوەی
دۆزەخ
زانیارییەکانی
the
بورهان
زیانێکی
دەدەم
زەمان
کوردیان
لێدان
پێناسەی
جاریش
##id
##ایانە
##اڵح
ڕاستەقین
##un
هەڵبژێردراوانی
شەخسی
##اتان
##ەبێژ
لەسەرت
ڕەهەند
ناوز
هەندێکی
تەماوی
ڕژێمە
##دەکەی
پەیمانی
يایندە
ڕادەی
جموج
فیستیڤاڵه
دۆستی
بەیاننامەیەکدا
یاریدەدەری
تەلەفۆنی
شۆڤێنی
بهێن
عەمید
تاکەکانی
هەرکات
کۆلێژی
سەرسوڕ
يەسوات
يەرسەلان
بوم
نووسەران
داڕێژ
شێت
تێگەیشتنی
بگو
##ەسەر
پەیمانگای
dec
##چێ
هاور
عیماد
دیاردەیەکی
قەندیل
##مین
ستایشی
دوژمنی
تیمی
بداتەوە
ناياسایی
شەست
##ab
پیاد
##نەب
ڕۆژێکی
داخستنی
عەبادی
##شترین
داوەو
دیسانەوە
وریا
يەنبار
##وەند
پێشنیازی
##ورت
یاریزانە
جیاوازیی
پێناسە
سویدی
مووچە
مۆدێر
بەتەواو
67
سدیق
style
بەجێهێشت
زەحمەتکێش
يامادەکاریی
بەیاننامەی
کوژرا
هەڵمەتێکی
بەخۆیەوە
گڕ
##احی
يارەزوو
##oll
class
##ەرای
ياستەنگ
دابنرێت
دەسەڵاتێکی
ڕێبازی
يێزدی
هاتووچۆ
##سەد
##دەکەوێت
دوێن
دەبینێتەوە
بڕیاریدا
ret
کیبۆ
##ونجێت
تێکۆشانی
##خراوی
هەڵـ
text
گێر
لەنی
وڵاتدا
لاف
يایدیۆلۆژی
شانی
##oration
کێبڕکێی
##ایا
کۆنی
گەنجێکی
سادە
##ارێ
بەڕی
##ایەق
نمایشەکەی
تۆی
##باز
بدەم
##ect
##arget
پیاوێک
ڕەشی
سەرج
مەبەستم
تايێستاش
تراژیدی
بەمەر
پەرلەماندا
share
##ومار
وڵاتەکەیان
تابلۆ
کۆنترۆڵکردن
پاڵتۆکەی
return
نەکردنی
##lank
target
ژنێک
comment
##گن
##کراوەو
یارییەکی
click
دەوەست
##ووین
هوشی
##اوەیەکی
##بکەنەوە
گوتن
فەلسەفی
تەوافوق
بەرلین
ژمارەیان
دەگۆڕێت
دواکەوتنی
none
لەسنووری
##ەتیان
onc
چواری
گەشتیاری
##play
ژێرد
button
blank
##ونەوەی
شێم
پێشانگ
دڵسۆزی
fbs
decoration
onclick
پارێزەر
نیشاندا
هەلومەرجی
برزۆ
لەهەمانکاتدا
دەنگە
بڵاوبوونەوەی
لێکەوتەوە
##بات
برۆ
##ەوەکانی
کراوەو
فاز
نەچێت
سەرقاڵ
تێڕوانین
دەنووسێت
##کردەوەو
##ەکانن
خۆیەوه
بتوانێ
##بکرێتەوە
##نامەیەکی
##isplay
##شـت
دیاردەیە
وق
##کراوەتەوە
##ابرد
##ەکەیاندا
يۆپۆزیسیۆنەی
##ووکە
##ادەیەکی
وتەبێژی
هەزارو
غازی
قوو
ياوارەی
تێکڕای
بوایە
دەفەرموێت
بنووسیت
دیمەشق
##ەنتی
يێستە
دەستدرێژی
جاڕنامە
پەیوەندیەکانی
دەبینم
##دارانی
یارییەکه
##ابەری
گەورەکانی
##پەس
زاگرۆس
يینتی
حەماس
فەرمانبەرانی
##اسان
ڕاهێنانی
شیاو
سەرپێچی
لوتکەی
فۆنت
لەوێدا
جارێ
گووتیشی
وو
ناکوڵێت
##ۆرە
دەچنە
لەتیف
هەیەتی
تۆت
دابێت
باژێڕوانی
نەدەکرد
يەدرەس
##رەز
دووشەممه
بارودۆخە
بەبڕ
نايار
ویلایەته
بەهێزتر
کاتێکیش
تەندروستیی
حم
يیتاڵی
##ۆفێست
هۆرگ
میوانی
بەڕێوەچوونی
سیستەمێکی
چوارەمی
تێکدانی
حەمەی
ڕوک
شەریف
##ۆمپی
فیلۆفێست
لێکرا
شێمحەمەد
لەوه
هاوسەنگی
##ێڵنەر
##گێڕی
پەیوەستە
دانوم
تێپەڕی
دانە
##ومانی
کردوەو
بەرژەوەندییەکانی
کۆنتڕۆڵ
##ێڤ
دەولەتی
دۆس
حەمەغ
پەرلەمانتارانی
##ێنراوە
لەقۆناغی
##ارەیەکی
دوێتم
مافەکاو
هەنگاوە
##وۆری
فیلمێکی
شارێکی
هۆرگێڵنەر
##ەلایەن
ڕاگەیەند
يیماراتیەکانی
یوتوبوۆری
کردەی
##خانەکانی
کاراکتەر
کۆسپ
الا
##اڤی
ژماره
کیمیاباران
دەکێش
دەکردەوە
##اشە
بەرهەمه
شاڵ
بۆچون
دادەنێت
سکاڵای
یەکێ
يەلم
بازرگان
##بڵ
تورکیای
sor
بەرێوەب
تەلەفۆن
بەرل
##گریت
فەرماندەیی
ساڵدا
لەسایەی
يەفغ
نیوی
میسی
بەردەست
##دات
کوردیت
دوێنی
ياماژەیان
هاوسەنگ
ڕۆیت
وەستان
يەدی
دیدی
مەخم
##ێنمەوە
هەرەس
دەڤەری
عەبدولکەریم
کوری
##اردنی
فیدڕ
یۆنان
موڵک
يومێدی
میدیاکانی
نمونەی
##گات
ڕەوای
ڕۆشنایی
شوو
##گەیشتن
##زیۆنی
بەرگریکردن
##اوا
داواکراو
سەروەت
يەنقەرە
##هێنانەوەی
بڕگەی
يەمیر
لەمێژووی
توانیویانە
داگیرکردنی
قاعیدە
ساک
حەمەغەفور
نادەن
جوول
یەکان
کەژ
##ارەوە
خستنە
دەج
ناوەوەی
بیرم
لەسوری
##ێردرێت
قورسایی
up
دواخ
##ییەوه
لەيەنجام
يەمنییەکانی
##ەگەز
گفت
کوڕە
##وند
مووس
بەرهەمهێنان
بریاره
بەياش
ڕاگەهاند
کەڵک
##نداڵ
سێد
دروستکردووە
پشتگیریی
##ێمەوە
دەشتی
##ێنەری
بلی
میتۆ
##امین
دیج
کارگەی
65
##ساڵی
يەدات
##ەنبیری
لەجیه
زیادبوونی
فێستیڤاڵ
قا
نۆی
دەستم
هاولاتی
توون
داوی
يەنجامداوە
1988
بەدر
##ەوای
##ەسمی
گۆی
##بەخش
پرۆژەیەکی
تۆن
خوێنەری
##ەنت
هەرچەنده
خدر
فەوجی
هەروەکو
يەوپەڕی
بەربەست
##ro
هەلبژارد
گواستنەوە
Not
غەم
##پار
##12
بکەنە
شێوازە
يەنجامەکانی
##اشدا
کیبۆردی
یەکشەممه
فۆرمی
##ەکیش
کارەکان
بەرزبوونەوەی
خسته
##ەڵک
کاره
دەسەڵاتداران
برسی
کارگێری
کوردەوە
ڕابردودا
مۆدێل
چەشنە
يوردن
سەعدی
هەڵکەوت
فێستیڤاڵی
فەراه
زیند
هەلومەرج
گەورەیان
خوێناوی
کچێکی
بردەوە
نەما
لەکۆبوونەوەی
يیق
يیشی
ماڵە
دابنێت
وشی
کولتوور
sorani
دەنگدەر
ڕاوەست
وەرگێڕانی
سڵاو
ڕەوا
يینس
قۆر
بەرە
بەوەکرد
زراندن
ڕەتکردنەوەی
هۆشداری
بنچینەی
display
##لایەک
##ستن
بەڵگەنام
##اتیک
پێیەی
کچانی
کۆبوونەوەکە
ڕەفتاری
Send
##ەبات
##کێشی
پابەندی
##سول
ياراس
بێزار
لەپارێزگای
##ollow
هاریکاری
##ify
شرۆڤ
داود
##ەمدا
نەوزاد
ڕۆژنامەنوسان
لەناوچەکەدا
فایەق
##تیکی
##یلە
##بینین
Canc
JC
follow
##47
پارێزراو
بینووسیت
کێشی
سیاسەتەکانی
ویلایەتە
##ogos
##board
تێڕوانینی
فەیلەسوف
تین
پێکەنین
کەوتۆتە
يافرەتی
lex
##ul
##ەرەکان
جێبەجێب
پێشەوەی
هیوادارین
هاشم
مشتوم
Cancel
##مای
تاوتوێکردنی
بڕوانامەی
بڕیارەکانی
تێبینییەکت
لەشکر
تێبینیەکەت
دەستپێشخەر
يەدرەسەکەت
##وەندی
keyboard
دەرناکەویت
مر
##ilogos
lexilogos
داواشی
قەومی
Notify
يەوەند
يۆکرانیا
JComments
نەخۆشخانە
شام
ڕەق
کاروانی
جیهانیی
پرۆسەکە
دڵنیایی
شارۆچک
فەڕەنسا
##دێری
ڕەسم
یەکیەتی
يەلقاعید
حەمەد
شەڕێکی
کلتوری
خەریک
پتەوکردنی
بەوات
فیکر
##ڕێژ
گرتووەتەوە
تۆمارکردنی
کەلوپەل
ياوارە
دەستپێدەکات
تاریکی
دەریای
بۆشایی
دەشک
لەوێوە
##يەم
لەدانی
يەرکەکانی
پو
جۆرەکانی
چیای
بەردەوامن
##وەتە
يینگلیز
ڕاستیی
چەت
بروسک
خۆشگوزەرانی
یه
قۆن
ڕابورد
سەیرە
يیمارات
##کەوێت
دەمەوێ
گروپێکی
الش
يەوانەش
##داران
هەڵبەتە
دەڵێین
بسەپ
موسڵمانان
ـی
بگرێتەوە
##وکی
##gh
دەکەونە
##ارێتی
پەیەدە
هاتووه
بەدوو
گووت
داهێن
مەرجەع
##ۆسی
داین
فڕۆکەخانەی
خانم
تال
تەج
لەگۆڕ
حیزبێک
مێژوی
##ریس
لێدەکات
گەیشتووە
يۆڵ
پارێزەری
عێڕاق
جیاوازەکان
لەدەستداوە
دیاردە
گەنجی
هێزێک
هەڵبژێر
لەهیچ
ڕوخانی
وەرچەر
ڕوبەر
لەبەرژەوەندی
قەی
مەول
نامەیەکی
نەبووایە
##ـگی
##کردبوو
خۆز
##ەڕاو
جاد
وێرای
ناوبژیوان
باپیر
دەکەمەوە
جێبەجێکردن
پێشەنگ
##ێوەردانی
##لەندا
ياهەنگی
##تانی
جیاک
##اکەیان
خۆکو
بیرد
هەڵم
بەشداریان
##ەقیب
ڕانە
نەتوان
##وەگەر
دەپارێز
وەح
بکەمەوە
بەرو
لەبەیان
پێچەوان
لاسایی
##ابە
یاریزانانی
2000
زانایان
جوو
فەرەید
گرنگیی
ڕوبەڕ
یۆنیۆ
##بردن
بەباشی
زەردەشت
ڕاشکاو
بڵاوکردەوە
عەللاوی
تارق
جۆراوجۆری
برس
کۆمەڵگایەکی
دەزگایەکی
وڵاتانە
شاناز
بکەوێتە
##ەکانیشیان
سێشەممه
هەرز
تورکمانی
میان
کاپ
##ەوخۆ
لەوانه
لەسەرەتاوە
عەی
دەردەچێت
زۆرینە
دوژمنانی
##ڤید
وەبەرهێنانی
##ڕاست
بوژ
سیاسەتێکی
هەنگاوەکانی
پەروەردەیی
باوە
مسوەگەر
سەرسام
وادەکات
بێلایەن
قۆناغەکانی
ڕیفراندۆم
مەسعوود
سەرانسەری
کوردەواری
سڤیل
يەزمون
شەوە
خانووی
قام
کرمان
یارییەکە
##ەکتەر
چەمک
خوازیاری
سێدار
بەڵگە
گرێ
پرسیارێکی
هۆلی
فەرموو
##ومە
بیرۆک
دەرو
سینەماکاری
##نم
گاڵت
تاکەکان
بۆنم
ڕووبەڕووبوونەوەی
##وەکان
لەحکومەتی
ڕوناک
دوورو
##گەلێکی
کای
##ارا
درامای
لەگەڕ
##یسـتی
##اکەوتنی
هەواد
دەنـگی
##پێکردنی
تووڕ
##مانیا
باهۆز
##عا
يەرێنی
قاد
نەکەوت
داڕشتنی
##ووڕ
##امەوە
گەیشتنە
شەقامەکان
##گرێتەوە
ڕادەر
دانان
لەساڵ
کۆلی
کردنیان
جەمیل
فیدرالی
پێکردووە
بهێنرێت
ناتوانم
##سوڵی
چن
##برد
##اوێژ
مرۆڤێکی
##ـکـکردنی
چوارشەممه
##aw
##دەکەم
بڵاوکراوەتەوە
ژان
##ەتێک
تەواوبوونی
لەبەردەست
پوچ
يەمریکای
##پـ
نییەکە
لەکۆبوونەو
وسەر
##ۆلۆژ
گەشەپێدان
سەح
بکێش
لێبوردن
کەچ
ڕەهەندی
سەرۆکوەزیرانی
بەرهەڵست
نیه
مەسەلەکە
##بهێنرێت
##ub
ڕیفۆرم
##شید
ڕاپرس
خوش
نیز
شەهیدی
سروود
يافرەتانی
الت
##کۆڵی
سەقامگیر
ڕکابەر
دێڕ
هەس
يۆتۆمبێلی
واڵ
وەخت
سوڵتان
خۆرياوا
پێکدەه
دۆخێکی
بگەر
ستران
قەس
دەستکرد
لێکۆل
نف
##قەر
بەوردی
ماددی
مێشکی
شنگال
بچن
بژێوی
تریشەوە
##ەهات
يیدانەی
ڤای
ڕۆش
ڕووبار
ژنێکی
##دەگرێت
ساڵیادی
ياراستە
##ونەتە
خاڵەکانی
سالا
خەڵکدا
مانگه
هەڵەبجەی
سوودمەند
فەرمانبەران
هەموان
يەمەیە
سیتی
دواوە
ڕۆژگ
شمش
بڕۆ
ڕەف
##ەوم
فەراهەم
چینە
##وەش
هیندستان
##ماس
بەسە
يیمتیاز
وڕ
يەنی
##ۆگی
ڕوودانی
گەورەیی
بەيار
باجی
##داوەو
##اشەی
250
##ێکردن
يیمپر
پشتگوێ
کارەساتە
ووت
پاد
ڕۆژان
عام
بەدەنگ
پرنسی
زنجیرە
چوارچێوەیەدا
پێدان
ڕۆژەدا
وەدەست
نوی
نەچ
نەخۆشیی
يامادەبوون
لەیاری
بیەوێت
چوونکە
دەستبەجێ
سەرکۆم
##ارکی
ياڤ
ڕووداوەکه
تام
نڤی
سەربەست
قەدەغەکردنی
يامۆژگاری
##ێنیتەوە
فراوانتر
باخچ
بێم
سەرەرای
بەبەش
بایز
عەقید
هاندانی
نۆژ
##ندی
بیاب
مەنسوور
يیف
ڕوخ
بەپێچەوانەی
مانگرتن
ڕێگەچ
نیەو
شە
پـێـ
بزانی
##بوونیان
سوورە
گرنگەکانی
نایان
هۆیەوە
يەتۆم
بهێنین
داوامان
ویژدانی
دوابەدوای
هەڵگرت
دەرمانی
بردووە
کەیس
يەمشەو
##هێنەرانی
پشتیوان
دووپاتکردەوە
سەرف
##اندوە
سوێند
مافێکی
گفتوگۆکردن
ناع
##اتۆر
گرتەوە
يەنجامدرا
##لس
بەهار
برینداری
پڕۆژەیەکی
سەربازییەکانی
بەرشلۆن
وەبیر
دەردە
قال
وایکرد
سەلیم
کا
کرانەوەی
##ێلا
##نیای
##بیلی
##وانەی
کاتیشدا
ین
##اوەند
دەرەوه
يۆغ
ڕەحیم
پرۆفیس
دۆستان
سیناریۆ
دیکەوه
جوانە
کەرت
ژیانە
بدو
بج
نەکەین
هەرەش
دیاریکراوی
نۆر
##کین
لیژنەیەک
ياژاوە
پرۆگرامی
بەرت
##دەشتی
مانایەکی
جان
گوڵی
بنێت
تایبەتیش
يەمریکادا
بارودۆخەکە
نیازی
پڕە
لەوکات
لەيەست
نزیکە
کەمتەرخەمی
نەزانی
##بێر
نەتەوەو
کلیـکـکردنی
##نەوی
دایەوە
يەکەم
سیخو
ياکامدا
کەسانێکی
مول
سیمای
بەسەرۆکایەتی
##ەکاتەوە
پلانێکی
بونیاد
وام
##وێژ
##هێنێت
##خۆیان
لێدەکرێت
دەیکات
بێکەس
يەژمار
هاوین
ڕێکبخ
##امبەریشدا
داي
سوریادا
گۆرانیبێژی
چەکدارەکان
پەڕی
چاڵ
لەژیانی
##اکەدا
دەع
خۆیانی
دزەیی
ياغا
یۆ
کەرەستەی
وێت
##ستر
بنبڕ
داهێنانی
##ترن
نەتوانێت
مرۆڤێک
مەسەلەیەکی
کایەوە
##ێینەوە
دارستان
ڕۆژدا
##ەختانە
لەخزم
ڕەنگه
دەناڵ
گوێبیسـتی
##ەرەب
##ەمانە
کۆمەڵانی
بیخ
ياڵا
داخەوە
ویژدان
پەلە
يەرێ
نەپ
ساڵه
سۆشی
##شەم
دەکەنە
پرۆسەیە
سەپتەمبەر
نارەزایەتی
##دەخەن
##15
عەلاوی
دۆکی
لەدرێژ
دواخستنی
کەموکوڕ
يوسترالیا
##دەنگ
لەشـ
خۆماڵی
ڕێچ
کوردن
کاروب
##گوزار
##اکەوتن
يەندێش
گەرچی
بەڵکە
نووسیویەتی
يینگل
ماه
ڕۆژانه
وتارێکی
ياشکراکرد
هاواری
##گایەکی
بەغداو
##سل
دێری
نمای
هەڵپەس
زەمینەی
تاکێکی
بنەماڵە
هێور
هاتنه
منداڵێکی
تەسلیم
لەوان
بەمشێوەیە
بەهۆیەوە
بەرنامەو
سۆفی
گرێبەستی
بەلجی
##راونەتەوە
ڕێککەوتننام
پێگەیشت
ڕادیک
يەوقاف
بێنێت
خۆکوژ
لەولات
دروستکراوە
لەکاتێکدایە
ياق
میکانیزمی
##تەرناتی
يەوکاتەی
لەسیاس
ڕەوشت
تێکۆشان
دەین
خۆڕ
پەشیمان
ددان
##پری
##ۆدی
کەز
شیکردنەوەی
ياکۆ
باڵیۆزخانەی
میز
تاڵان
لەهەوڵی
ڕۆیتەرز
تەقی
وع
پەنابەری
کۆبوونەوەکانی
چێشت
##ێسی
##خۆر
##ووردا
دەستت
يیمام
شەب
ڕوویداوە
تەپ
داری
الب
گەلە
يەتلەتی
62
دانمارک
##رەی
کاردەکات
يەوەدا
يەلح
بنەمایەکی
کۆمپانیایەکی
مانگەدا
ڕوونیشی
##داین
نەبینی
دەرەوەو
کۆمەڵه
بەمانای
##13
##ێنرا
کرداری
دەستمان
نەدەن
مەزنی
1999
##زه
دەستکەوتی
##000
##پێی
يۆتۆمبێلێکی
خانەنشینی
بەدەستهێناوە
خای
دیکەیان
شانۆن
دووەمیش
شـاری
ڕاستگۆ
ڕێڤ
قود
##گل
بەخێو
ياوەدانکردنەوەی
##ڕان
##روز
کۆمکاری
لەکۆی
لەدیدارێکدا
بەرشەلۆنە
درەخت
جام
بەرکەوت
فیدراسیۆنی
شوانی
بڕیارەی
لەناوچە
هەڵبژاردندا
گیرو
سەرنجڕ
##وقی
##ارانە
لێوەر
يۆسکار
دەخوازێت
##بانێ
##ڕوو
سەردەمەدا
بەلکو
بگۆڕێت
ڕادەربڕین
زەوت
کۆنف
زانکۆکانی
##تس
##اوەن
پێنجشەممە
هاوەڵ
منە
لیوای
زەق
##ارییەکانی
نووسراو
کوتلە
باوەشی
پیشاند
##زن
##ێنەنی
هێرشێکی
جوانترین
نانی
##اترین
سبەینێ
نەبونی
لێبو
##فانی
هەرێمەوە
حەرام
حکومەتدا
گوتەی
دارا
ولە
##کەوە
لێدوانەکەیدا
هەڵوێستێکی
##ێکى
بەناوبان
##op
مانگانە
چاودێرانی
نووسیوە
عم
##ەڵەی
گوتوویەتی
داخراو
دوان
پیاوسال
##ێندراو
وڵاتانەی
دیواری
گەلان
بینین
یاوەری
وەزی
يیران
سونن
دەستبەکار
ناتوانرێت
دیت
بەتوندی
لەسەرتاسەری
##بەرە
وتویەتی
سنوورد
پاڵپشت
دەرەک
باوەر
تەواوەتی
زیندو
بوونەتەوە
شوێنەکانی
##ەخان
##ۆنا
لەگەڵیدا
1992
کەهەر
##فەری
کێشەیەک
دیمەنی
تاڵیبان
يەورووپا
سایت
##ۆرین
دڵەڕاو
##وێز
##ێژن
بگەڕێنەوە
پەرتووک
سازدانی
باوەڕیان
##ونەری
حزبێکی
ڕێکەوتنی
##سوم
##ێویستی
بەکورتی
جۆرێکی
بریکاری
براو
##ایەخ
خاوەند
کەناڵە
سۆسیالیست
ماڵياوایی
سیستمە
گرفتەکانی
##دنی
##کراوەکانی
نەخواز
يەندامان
یار
يەڕ
ناوکی
ناچاری
فرۆشی
پووچ
##لیس
واژۆ
موحسین
تاپ
ژێرخانی
فەخ
وانە
##ali
##تاو
##ژەنی
لیستە
هەرکەسێک
يەدەبیاتی
جەستەیی
##شان
يەڵێت
هام
##ەوڵ
گرینگی
گرنگتر
لەمەودوا
ببێته
دواییدا
گیراوە
##ریکا
چوارەمین
جددی
چاپی
یەکەکانی
دەوڵەم
##کەرەوەی
##ارکردنی
قۆناغەدا
سۆن
شل
##راوو
يەزمونی
دەبەخش
کۆمەڵکوژی
هۆت
چای
ناوچانەی
بردن
خوێندەو
سندوقی
##eb
دیمان
لێت
کاندیدەکانی
بنێن
بەڕووی
چاکە
بەياوێنەنی
يەسپ
يەمنیی
زای
ڕاپـ
بوێر
مادام
کیمیاوی
هەڵدەست
چارەنووسساز
یەن
لەتورکیا
قووڵی
گەلێ
بژارد
##اغی
##اردن
تواناکانی
مەرکەزی
بەدڵنیاییەوە
##اییەکانی
هاوپ
لەوەزارەتی
مەکتەب
هەرسێک
کاغ
##ڕێ
##انیی
دەردەخات
سوریاو
پێداگری
یارمەتیدانی
کۆبوونەوەکەدا
or
حەبی
حەقیقەت
مەفرەز
##pt
کرده
لەسەد
هەڵوێستە
بەرژەوەندییە
##دەکەین
##ەبان
ڕەوشەنبیری
پەخشی
هەڵەیە
جیهانە
يەرسن
دابەزی
برەو
##اپای
یارییەکان
يیيتل
##اکانەوە
هەستم
گەیشتوون
##دایەو
يەدا
##زیاد
72
##اسا
شارەکان
نەکردوە
لەدەستدانی
فریاکەوتنی
چەپی
تفەنگ
هۆشبەر
نەریتی
درێژخایەن
گەنم
کۆپی
ڕووداوەکە
بەڕێ
الر
دیمۆکر
کەوتن
يیجابی
شەماڵ
دەبەخشێت
عن
##گەیەنین
بگەیەنێت
##گەیشتنی
دووی
##ary
##ەوش
بووەتەوە
هێرۆ
##ازادی
دامەزراوەی
##خۆری
##رۆی
يەستێرەی
يۆم
بێسەر
##دەکەنەوە
هونەرمەندە
حسن
بەبڕوای
کارا
کارەکەی
##اردانی
کێشه
ماڵەکەی
سیستمێکی
پێداویستییەکانی
##ێزە
برایانی
يێوەی
دیل
لەدوا
##قادر
##ووب
##ریک
لەکو
دەسەڵاتدا
کۆمەڵایەتییەکان
زور
بڵند
##ەکەیت
گۆشت
لەڕۆژی
زانیارییەکان
بەياشکرا
بێر
##ادزێ
بپارێزن
سێو
غەر
##sh
هاتبوو
داڕشت
##ەخۆشی
پارتیی
وەرە
هێند
سەرکردەیەکی
نێودەوڵەتییەکان
نکۆڵی
يۆردو
خۆپێشاند
سیاسییەوە
لەهەم
چارەنوسی
کابین
بانگەوازی
لێبوردنی
تایم
حەکیم
وگ
پژ
يەکرێت
شکاندنی
زۆرد
سزادانی
نەمێنێت
ڕووناکبیری
Th
زریان
کتێبخانەی
تورکیاوە
دژوار
بسەل
Kurdistan
to
لاوە
هۆکارە
حاڵەتە
ڕاکێشانی
##ەمەر
بەشەی
تۆماری
هەربۆی
وبەر
##هەڵو
نیگەران
کارمەندی
نوێژی
بەرێوەدەچێت
دەستنیشانکردنی
بۆشای
پێشوازییکرد
##ەنا
يەوتۆی
##ەماندا
قەرزی
لەکاری
تەواوکردنی
##یشـ
لەوەتەی
کەلەپ
##لاتیان
کونسوڵ
لەدەستی
##گرفت
ڕاڤ
شانۆگەر
عەسکەری
##بوە
##لاند
##ەوەرێکی
پارلەمانی
کەرەست
دەسته
دەقە
سەرلەبەیانی
فەزای
ڕاگیر
هێمای
يەنگ
##اوێکی
جێب
يەدەن
لەخوێند
گشتییەکان
موست
پێدراوە
بەرەنگاری
ڕووناکبیر
هەڵن
نەوەکانی
ناڕازی
63
بەدە
ماوەیەکە
دەنوس
زووتر
بانک
يەمەریکایی
زەی
ڕۆژنامەو
The
نەخوێن
لەمیانی
تاکوو
مزگەوتی
یو
پێشینەی
فراو
يێزد
يەڵماس
نێگ
مق
تێپەر
لەيەم
دەبم
نەگرت
موسلیم
نووسیندا
##ەکەوێتەوە
الص
ڕێگاو
تێو
##خراو
##اسازی
وەلامی
ناوەڕاستدا
##ڤەرپ
نەرێنی
پور
##ەواو
لک
لووت
##انەوه
کاریگەرییەکی
شێرزاد
پارچەکانی
سەلامەتی
ماش
##وع
##az
بەهی
باسکردنی
خانەوادەی
نۆژەن
##ەکەوت
هەوڵێک
##ەرزی
##ووەکانی
بەرهەمێکی
##ەکەشدا
##بیت
##لاوە
پادش
پارچەی
دوورکەوت
68
حەل
خی
کارل
##هاتن
يەرشیف
##ترو
##جێک
کوردسـتان
کوا
بەرقەر
لەرێگای
نیشتەجێ
کال
چۆنە
بەرشل
سلیمانی
##وژی
کولتوری
بڕینی
پلەو
کردار
##گەرمی
ڕووبەری
نەگەڕ
گرتبوو
پێشێلکردنی
وتوێژ
بەڕۆژ
کلتووری
##پت
هەڵەیەکی
فەرەیدون
دیز
خەڵکێکی
پسپۆڕی
کەمپین
پێدەکرێت
پارەیە
نیمچە
ستافی
ڕێوشوێن
گوتو
سازکرد
پەردەی
باسمان
تیرۆریستانی
##جگار
چیدی
دەخەنە
85
نەجەف
نەشتەرگەری
لەيای
خوێندەوە
یەکێکه
فران
پاشەکش
یەکڕیزی
##ەوایی
بووی
نیوەڕۆی
##دەوری
يیراد
سندوق
کرماشان
سۆزی
بەشداربوون
سێر
##اندزی
ڕاستیە
چەقی
لەوەشکرد
اس
##تەدا
ناسک
نەدات
حزبەکانی
تەبایی
مێژوویەکی
لوبنانی
يۆل
يیسلامدا
لیژنە
پێشێلکاری
سەرە
خودای
##زەکانی
دیبلۆم
فێڵ
##ترینیان
يەفسانەی
دیکۆمێنتی
سەدا
هاونی
سەرچاوەکەی
##رەحمان
بریتانیا
نەتەوەکەمان
ياڵوگۆڕی
##ەخانە
يالی
يێمەو
ساڵیدا
يێرانەوە
هەڵسەنگاندن
بگر
جیهانیدا
بۆمبێکی
##ارات
بخات
هاوکاریکردنی
قوبادی
قەدەغە
بەرین
160
##گەز
يەوەن
بەفەرمی
کرابێت
بایک
کاسب
قازی
لاتی
##تریش
لەکەس
لێپێچ
ماڵپەڕ
نالەب
لەشـکری
##96
##تەرا
هەڵی
يەودا
وەسفکرد
##گەلی
کامێر
هێدی
سنوورەکانی
لایان
دیدارەدا
دەپ
هەفتەیەک
دەرهەق
ڕان
مرۆڤدا
نەکرا
هاوسەرەکەی
##بۆتەوە
##انگی
تەوەری
شوف
##خستووە
يێوەش
لەدرێژەی
##نەکردنی
دەداتەوە
##جێفی
##ایەتیان
بگەنە
مۆسکۆ
سەرجەمی
لل
##ێف
##شتان
لەکێش
پەپ
##درا
بەراستی
شەپۆلی
خانەواد
##رابێت
##ۆڵە
پێشوەخت
خز
هند
##یەکە
تەقینەوە
نەهامەتی
ڕەتکردەوە
##ره
##ێرم
بڕێکی
دۆستایەتی
باڵادەست
وردەکاریی
سێم
هاوپەیمانێتی
ڕاپەرین
##بەتی
پوخت
en
حەد
فەلاح
هەوا
هەندی
لەگەلا
داواش
حەج
موک
واق
دادەمەز
##اونەتەوە
تەماشا
فرمێسک
لم
چە
هەرێمیش
دەستگیرکران
شوباتی
هەڵسوکەوتی
خە
پچ
لەشوێنی
بزووتنەوە
حسێن
بکرێنەوە
پێشڕەو
هێزانە
پاشکۆی
سێیەمین
##گەینە
ياسن
پەیامێکی
عەو
##یدە
جووتی
يایە
هەڤال
هەموارکردنی
هەندێکیش
نابێتەوە
گرتوو
کۆمپیوتەر
بەرشلۆنه
##شیدا
ناوەندە
دلێر
عیشق
نمایشک
خۆکوژی
تاکه
##بۆوە
يێش
##لەو
بەهەم
دراوسێی
ڕیت
##تیڤ
پێشکەشکرد
بۆمبی
ڤال
دامودەزگاکانی
دوبارە
دەوام
بڕێک
خۆپـ
سوودێکی
بەتەواوەتی
کەرب
ڕوژ
بەستن
چارە
کرێی
##خانەکان
هەنگاوێک
سەرشانی
##بز
##ینار
دەرگ
بڵاویان
بینیمان
گرووپە
ياژانسا
بادین
فێم
##ومب
گوناه
بخرێت
هەڵەبجەو
بپارێزێت
##ۆخی
##ەرێت
##ورا
شاره
ڕاستییەکان
جەناب
تاقیکردنەو
تۆپباران
دەنگدەران
يەوەم
دەگرت
##هام
شتانەی
يافرەتێک
ابن
بەلاڤ
کۆمپانیاکان
پشتیوانیی
هەڵەبجه
##ەکت
##وتن
دەدرێن
يەندامەکانی
داواکارییەکانی
نێوەند
##ژمارەی
دەشت
##اکەر
پرسێکی
خۆزگە
ڕانی
##ازاد
##ازێکی
بوت
کۆمەکی
##ەهدی
گەیاندن
##فیسی
عەرەبە
خیانەت
یەکدی
دەدۆز
باسم
پەنای
##ess
زستان
مێژووە
##بازی
ڕۆم
گوێم
بەژ
پێوانەی
لەبەیاننام
یۆتۆ
کاکەیی
لەیەکەم
کاري
عێراقیان
پشی
##اوم
##ادق
نەڕ
##چەک
2001
خێزانەکەی
پێوەر
نەبوە
بەرپرسان
تاوانباران
شێوەیەی
سوننەکان
لەیەکتر
هاوولاتیانی
##ورو
گرژی
پڕۆژەکان
ڕەچاوی
سەندیکا
قاعیده
هەڕ
لەمی
شۆرشی
خات
لاپەڕە
600
نەبەز
دەربری
##ەشێو
ڕاستگ
مستەف
داڵ
کەلتوور
چارەنوس
اب
نەهاتووە
عەرەبەکان
##ەسەڵاتی
جێبەجێکردنەوە
##iv
##گەیاندن
درک
ياخاو
##یة
هاتیه
##کردووەو
کەشوه
باشیان
هەندرێن
پشوو
پێشوی
زۆرمان
ڕاي
بوخ
بارەوە
بەشدارن
نادرێت
##روستکردنی
خوازراو
کرۆ
لەهەردوو
##واند
هەوڵدەد
وردەکاری
##اردان
پاڵەوانێتیی
غەد
پرۆژەکانی
##ەکرن
لەهەڵبژاردنی
##کاوی
##ێکن
داواکارین
##ایەنێت
قەرەباڵ
يێرانیش
سۆل
ها
دوپ
##پیشاند
داهێنەر
##ێژکراو
کریم
فڕۆکەی
بەردەر
يێمەیە
سەفەری
قژ
لەهۆڵی
گەرەکی
نایابەکانی
پەنجەی
يەفریقی
پاشماوەی
نیویۆرک
##76
ياوارەکانی
لەهەندێک
##ەکانیشدا
عیز
خنک
ڕێکخراوەیی
ستراتیجی
کونسوڵی
نەبو
هەنووکە
##نییە
بۆری
باند
##72
##اتێکی
جب
وێنەگرتنی
سەرووی
مانایە
هێرشە
خواردنەوەی
يامادەبووان
هەتاو
بەخشینی
ياوازی
دادەنێن
##گۆش
##ـیانەی
کامیر
کاربەدەس
ناوەوە
ڕامیاری
جلی
##شێوە
##بێتە
زمانەوانی
##چو
نیوە
لەيەند
66
حزبەکەی
لێژن
000
بووک
لەباش
##ێدانی
##اداشتی
گرفتە
هاوپەیمانان
جەولەی
دراون
دانوست
کچێک
##کورد
شایستەی
فەق
##pr
شێعرەکانی
یادەوەری
کوو
کۆلێژ
##ابێ
ڕوکن
کایەی
##ەنەکردنی
پیادە
يایندەیەکی
مەند
مەراسیم
##پێ
منداڵەکانیان
فۆل
##امن
دواییەی
شەیتان
فین
گۆت
زاراوەی
هەبوە
##وورو
تاکەکەس
تايی
##سۆ
گریان
##ەدەب
مێژوودا
دەفرۆش
سەک
##بووەوە
پێوەند
لات
##ێنرێتەوە
نالی
بەپەلە
دەمێکە
be
ند
لەخولی
فەیسبوو
دگەل
##جانی
دەچوو
ڕۆست
موفتی
نەگۆڕ
پێوەری
نایەوێت
مەهاباد
فاکتەری
خوی
نەزاه
لەوڵاتانی
بێشک
ژنانە
بڕیاردان
کۆک
دەنگێکی
هەستیار
بیروڕا
بەرچ
پڕۆژه
بەمجۆرە
بەختەو
##وڵا
گەلێکی
گۆشە
کارەکتەر
ناسراوی
بخەن
يەستەم
قەزاو
##ews
شەک
نوق
کاتەوە
بەوپەڕی
سەت
شادی
##ویان
##ڤن
لێپرسراو
لەیاد
بوارەکاندا
زانین
جور
بنوس
براک
شۆفێر
زێر
پۆش
کڕ
##ەرمەند
61
##سیتی
داوەتە
120
گەنجە
##یانەدا
لەشوێن
دەرگا
لەمەر
لەبەری
خەڵکەوە
دەکردو
ناسینی
بزانم
گۆری
##جارە
بازن
##پۆرت
شوێنەواری
ڕاگو
سادق
##ەکانیەوە
لەوەکرد
##ۆیەکی
بیرەوەر
##ایەتییەکان
کۆمۆنیست
تەخت
##ینن
##ێندرێت
قەرەداغی
##تینی
##اتیکی
خرایە
سەه
##رەم
پێهات
سێبەر
شەراک
پاڵەوانیتی
خۆپـیشـ
یانەکە
ڕێگرتن
2002
کردەو
##وانینە
چاوم
بۆیەش
##ایەوەو
##ارییەکی
تەلەفی
تێپەڕبوونی
بەختەوەر
مەین
##کام
بەکەم
حاڵەتێکی
کێیە
پڕۆژەکانی
ڕەسەنی
پارچه
گەیاندە
##گیرکردنی
هێنایە
بڕوانە
##ەلەی
کۆمسیۆنی
يامار
توێژینەوە
##کردە
کێشانە
هەڵواس
کیلۆ
پارەیەکی
##کرابوو
دەستەڵاتی
يەڵێن
org
يامەد
##حیا
ڕونکردنەوەی
خۆشبەختانە
پرەنسیپ
##حە
##داریی
لێدوانێکیدا
مەترسیی
کەسێتی
هەواڵە
کانت
احمد
یاساکان
##ێردا
خۆس
يەنجامدراوە
يەندازیاری
يێستایش
لانیکەم
کەیەک
ڕۆژهەلاتی
##فتوگ
پارلەمان
##نیی
دەیەوێت
دەیکەن
دەرچووی
نەیانتوانیوە
فکر
##ڕووی
##کردنێکی
دابەزینی
##ەباتی
##ەنینی
پەیکەری
پێناد
جەزاي
هەڵـبژارد
لایە
وازی
يەمەیان
پارێزگار
نەدەبوو
خۆشم
لەتوان
قۆڵ
ناودەب
##ۆمێنت
زانینی
##نەوەو
##امدا
بەيامان
بڕیارەکەی
##ەکەشیان
هەنوک
خۆپیشاندانەکانی
شەرمەز
قو
##شێوەی
##48
ياوەدانکردنەوە
لەکۆبوونەوەکەدا
قون
تێدە
موقتەدا
بەلی
یەکگرتنەوەی
محەمەدی
پانتایی
يەرژەن
يەدیب
نەیویست
مامە
يەجێند
وروژ
قەزافی
بگواز
##ایلی
##اگا
ڕابەری
منداڵەکانی
فیلمەکە
وۆرک
##32
##ug
لاپەڕەی
##im
بەگرنگ
پەیوەندیان
سەلەف
وەفد
ڕکابەری
عیس
بێگەر
مافەکانیان
شارەزایانی
پارەو
میژ
يازادیخوازی
مانی
بەکرێ
قوربانیان
دەبەستێت
ترۆ
##ەراڵ
##ترس
پشووی
دەکەوێتەوە
فەڵ
##دێر
دوەم
يەقڵ
##یرەی
دروستکردن
ياستە
خواردنەوە
پێچەوانە
سیروانی
ناوخۆو
میری
##دەکرد
کوردییە
هاوت
هونەرە
يەلبوو
چەندەها
سەربە
کریستیان
لەلا
بنکەکانی
بەرتەس
##ووداو
يەمجار
سەروەریی
لەحکومەت
76
کودەت
##انداو
حەوتەم
هەریەکەیان
قەرەبووی
کەخ
سودی
##ەڤانی
بۆچوونە
##نەوه
بباتەوە
بڕین
شێع
جوانتر
کوردوستان
دابمەزرێن
لەسوریا
قەوارەی
خولەکەکانی
کۆیلە
سۆڤیەت
بڕیارێک
هار
##ەرێ
گەشەکردن
قادری
##ەینەوە
يێستاکە
موسل
نیوەڕۆ
خۆرياوای
پرۆفیسۆر
دێنێت
لەفەر
زۆرەوە
بەتۆم
کەمپینی
خاوەنەکەی
پێشانگایەکی
ڕێبەرانی
يەنتەرم
##روف
نیسانی
77
نوخ
ڕۆڵە
خشتەی
خۆیانە
##هێنین
##ەڵێن
##اوەدا
مەحکوم
ڕەواکانی
##گیریی
##اوەیە
دەکەون
بەڕێزان
##16
##wn
منەوە
دەڵێیت
میدیاکان
ياشکراشی
بدە
بەختی
ەو
##ارییان
دەگوز
لەوەڵ
بەکارهێن
عەبدولرەحمان
لەماف
ناتوانیت
مامەڵەکردن
گوندنشین
ڕاوێژکار
يەندازیار
بنکەیەکی
کوردا
ساڵەدا
پیرە
عاشقی
ڕەها
##کێک
کارم
وەڵامدانەوەی
ماونەتەوە
##الاک
2015
سەرچاوه
يەرمەن
##ویانە
نوجێفی
قاڵ
پاشەکشەی
شوناسی
وح
نابێتە
يەڵێ
نازانین
##ct
دواین
##وبی
دەیگوت
کۆبوونەوەیەدا
##ندەی
##قام
بپرسین
##کوت
ڕۆناڵ
دەرنە
هاوخ
##هێنن
يۆفیسی
خۆپیشاندانەکان
##ەتییە
يیسلامییە
تەمەنیان
کەموکوڕی
نۆز
##ەهۆی
##ێکیدا
خەڵکەکەی
سەفین
بەفی
##ێتەوەو
لەناک
دادو
هەبووەو
چەر
چێل
دەباغ
سڕینەوەی
بەياوێنەنیوزی
نەتەوەیەکی
بەرزنج
بۆمبڕ
بۆندی
کۆدەب
سلێمانیدا
توش
گۆڵچی
گۆرانکاری
بڕیاردرا
نەوەد
کاول
سعود
دەگاته
ڕێکخراوه
هەفتەیەدا
هۆکارەکەی
##هەڵات
کۆمەڵگەدا
جینۆسایدی
خۆڕاگری
يەیان
##ەخۆر
لەمە
پێویستیی
مووش
سـاڵی
کۆشش
يیمپراتۆری
##ەشتی
سواری
کردوه
فڵ
##چێتی
بەچاو
ياشکراکردنی
##ستمی
يەوکەس
##گەیە
ناوبانگی
بەیاننامەیەکی
کارگێڕ
بالی
يەنجامە
ناڕەز
قر
نەشی
##دراوە
هەوڵەکان
زەمەنی
قسەیان
يەواندا
لیبی
یاسادان
پرۆت
چالاکیی
يەلبوم
يوسامە
لەبارە
جلوبەرگ
سەرەوەی
##نامەن
یەکیتی
سازی
جەنگە
قاو
ڕۆب
بانگی
بابان
کۆمەڵگایە
فاتی
نور
مەعنەوی
لەکۆتاییدا
ساتەوە
نیگار
کۆمەڵگەیەکی
##خۆشبوو
##ته
کردی
باژێر
يەوین
یەکیان
خوداو
گوشار
کارنامەی
جەمسەر
يەفسەری
##مۆن
پێکەوه
چارەسەرێکی
جوانەکانی
سەرپەر
هەرزان
دیالۆگی
وبە
بایدن
يۆبام
ڕێوڕەسمی
##ذا
##ia
##امه
میانی
نامە
ڕووباری
##ـیەی
مەرجەکانی
لوی
مۆری
مێژو
کرانەوە
بەرامبەردا
دووەمیان
گشتگیر
عبداللە
جەهان
يەول
لەسنوری
##وابوو
دیوی
##ورک
دەربچێت
فریاد
مرو
##خورم
کەبۆ
##ایتی
خوالێ
مۆندیال
دێتەوە
##مێنن
يەمیش
کۆشک
##اژانسی
پردی
##ەفەر
کرێ
یارییەکەی
فەرمووی
لەدایکبوونی
بەناوبانگی
کوڕەکەی
چێلسی
يەوجا
بەيەنجام
سۆرانی
##وارە
پێشەکی
##کراوه
داوایکرد
##ەکەماندا
وەربگرین
کۆنترۆڵکردنی
##دەنگی
پێکدێت
نازناو
برادەر
##ویر
بزوتنەو
هەشتەم
سەردانەی
##اشەوە
يەستەمە
خوایە
لەکوردستانی
هەورامان
کێن
یەز
کۆمەڵەکانیش
بول
هەوڵە
باخچەی
تاچەند
##ەگەڕ
بەخۆوە
##يام
##ەکەوێت
پێگە
هەڵیان
بەبیان
سەرمای
جارێکیتر
دابنێن
مورسی
کوبانێ
فیدراسیۆن
سەرمایەی
دهوکێ
شاج
پەردە
دیاریکراوە
دونی
بڕۆن
داعشەوە
##نەم
##ێزان
نوێب
بەشیر
لێپرسراوانی
يەلیکترۆنی
##ۆج
##ەکەکانی
##ییش
پایی
##ۆمب
##ێبەجێکردنی
گەڕاندنەوەی
بابەتەکە
چەمکە
ياگا
يابی
بیروڕای
باق
میح
دووەمدا
##ەواوی
##ەبڕ
##ابو
لەگەڵی
شتانە
يەوروپادا
##ەکردنە
نووسەرە
گەمەی
عیراقی
##الەتی
نەخشە
##بولی
فاشیزم
پژاک
نەخوێندەو
يەنجامێکی
لەکۆنگرەیەکی
شەع
پەند
##نەڤ
شیاوی
##بارانی
##wnj
يەمجارەیان
بۆته
##شتمانی
کوژراوە
پێنجشەممه
يەمریکاوە
هەناردەکردنی
موجاه
zwnj
##ەقامی
بیرمەند
Net
ات
نادر
##زافی
جەوهەری
يەزموونە
نەیارانی
ڕۆڵەکانی
کاتژمێری
##ێدەه
خوێنەران
زانای
تەلاری
قەوارە
کەسایەتییەکی
ای
##دەدا
##ێکەی
جیاوازن
تەقلی
بەهێزە
جنێو
دەدوێت
سری
##ەگەر
##سەنگ
ناگرێت
لیۆن
بەنرخ
پەرەسەندنی
٢٠
پەرەی
##کریت
مەراسیمی
بێگانە
##نەد
هەموولایەک
یەکانی
##اتێ
پێبدرێت
موخ
ڕوم
دیمانە
کەمین
بنچین
##حان
زانستە
شوناس
پلاندانان
کەيێستا
##نیە
ڕێگایەکی
فراوانکردنی
ڕامان
ساتێک
لەزۆربەی
پاداشت
لەنزیکەوە
يەندامەی
توخ
موسا
نمایشکردنی
مۆزەخانەی
بۆچونی
##کیش
لەدەرەوە
یەکدا
دیف
هەرێما
##دەکرێتەوە
يەنارکی
يیيتلافی
توێژە
قانون
لەلێدوانێکدا
کاغەز
نها
##ووترین
پێوەندیی
پێکردنی
##رانەوە
##شۆپ
##ڕو
دەکاتەوه
بەگژ
پشدەر
تێرۆری
مەحاڵە
##بکرێن
شێعردا
یاوەر
بەپارێز
بەرپەر
دیسەمبەر
موزایەد
بزاڤی
لان
ناخۆشی
يازادییە
بەحر
نشین
لەپێک
دوژمنان
ياسانکاری
جیاجیا
تاقە
لەداهاتوودا
دەبوون
زۆرم
بزوتنەوە
شارۆچکەکانی
##من
##اییان
شەشەمی
پاشەکشە
کەمتەرخەم
شکۆ
تیژ
يەنفالکراوەکان
کارانە
##ێیەکی
102
جوام
دیدارەکەدا
جوتیاران
يەمڕۆدا
هاوڕێکانی
گوندەکان
مسوڵمان
شەرعییەتی
##قول
##99
خێزانە
هێمنی
يەزموونێکی
##مال
##ou
هەوڵیان
64
بەرگەی
کۆتا
##کردۆتەوه
##خوا
بڵاوکرایەوە
دامەزراند
سەرنجڕاکێش
73
##هەر
تێدەگ
بەهمەن
بەرزترین
گەنجێک
بدەنەوە
نیشاندانی
مەست
##لیب
لەکۆم
##دید
لەبەرامبەریشدا
تاڕادەیەک
کارزان
يەفریقا
##ەکەسی
ببەن
سنورد
مەکسی
بەرزنجەیی
جە
بەربەر
لەنەخۆش
##ونەوە
لێدوانەکەی
پاڵەوانەکانی
دەرهێنان
نییەلە
عەتا
لەری
138
سازش
دەريەنجامەکانی
دیپلۆماسی
کەتی
##رابوون
##اویی
يامرازی
کڕین
##حید
نەکراو
کۆنتڕۆڵی
تارم
##ێتییە
کاریکات
دەسەڵاتەکانی
قەززافی
##دوتی
هەڵبەست
کوردستانن
بخەینە
ناوبانگ
دامەزراوەکانی
قڕ
بەرهەمهێن
مایۆ
کەلوپەلی
##تێب
بەرامبەری
ناکەوێت
داکۆکیکردن
##سار
فیدرال
بڕوایان
بازرگانیی
يەندازەی
یەنایەر
نمایشکرا
هەڵگرتنی
کەرکوکدا
بەخۆیان
لۆژیکی
##ۆچوون
##تاش
گرژ
بدەیت
ڕاهێن
هەتاوی
چیت
يەوانەوە
##کراوەی
يەنداز
هوشیار
##کەند
##بژ
هەڵخەڵ
بەپلەی
جێگ
پسپۆری
هاوشێو
نالین
##ـکی
##عەی
لەبوار
لەناوەڕ
گوتار
داعشی
کەژاڵ
هەڵات
##ەپانی
عێراقیەکان
کوتله
کن
##ەکەکان
نەخۆشییە
قەدەر
##يەس
پیلان
جەهانگیری
##نوس
شیعەو
لەکوێ
بەپێش
بزاڤ
بەڕێوەبچێت
نیوەر
یەحیا
بۆردومانی
يیمە
وەرگ
الف
بەسەرپەرشتی
ولی
يەوروپای
یۆنانی
##زەت
##نێکی
پێدەکەن
تەکنیک
کەج
خواستەکانی
بەرژەوەندیەکانی
خانی
هەقیق
دەیانەوێت
ڤین
##بەند
##se
منداڵێک
بەرنامەکانی
پەروەردگار
شێرپەنجەی
##دیو
##زیا
دەنگۆی
دەگێڕێتەوە
پاشگەز
##کردوو
کێشانەی
ناسیۆنالیزم
##وودە
ماڵو
لەخۆر
ڕزگاریخوازی
##ەپەگە
دەستەواژەی
دیجلە
بەپێ
پرسیارێک
شەهرستانی
لەوڵاتی
موچە
ch
##ەسازی
زۆرەی
پیک
زاهیر
##الح
چالاکییە
فۆتۆگراف
پوچەڵ
عیل
قەش
هۆر
##oc
##بووین
##ارییەوە
قوتابخانەکان
بەختەوەری
##ۆکاری
ساڵێکە
بیرەوەری
دەگواز
شوێنەی
خێرای
بالا
##بایە
لەپرۆسەی
##بوک
نموونەیەکی
خایاند
نوک
##شێت
دەرهێن
پیرۆزە
بڵاویکردۆتەوە
دەرماڵ
نەدرێت
هەستکردن
##کەرکوکی
بەچاوی
##تەق
ببینین
پەرلەمانتارێکی
نەفرەت
زل
بۆچ
##پەروەری
سەرچاوەکان
##حکومەتی
کارێ
دادەنی
دەگمەن
وەکی
لەڕی
دەبا
دروستدەکات
پرۆسە
گەمارۆ
يۆڵۆمپی
يەوەوە
چارەسەرکردن
شاعیرە
سید
کتێبێکی
ناوەڕۆک
يازیز
##تردا
جید
شێوەکار
تواناو
چەن
دینارە
تەلەڤ
پێگەیەکی
مانچستەری
جۆش
##رب
خۆمانی
ناوێت
بەشـ
لەبەشی
بەهۆیەوه
باشترکردنی
دژایەتیکردنی
ڕیکلام
نوسراو
##st
بەردەوامەو
دەیخ
پڕکردنەوەی
ڕێگەیان
کیمیابارانی
جاک
يەوەکرد
ڕابکێش
لێدوانەکانی
بەدواوە
ڕۆشنبیرانی
خراوەتە
##کة
##ێدان
حوسنی
گفتوگۆیەکی
گەردوون
##ـیان
##ەوس
گفتوگۆکان
يەنفالی
سەرکەوتنێکی
##زیۆن
ڕەوتە
##سیر
وەبەرهێن
حەڵ
حکومەتەوە
##کێشانەوەی
فیشەک
بگەن
هێرشبەر
سنە
##ۆپی
هەره
ڕاگرت
حیزبەکانی
پێشکێش
##ڤیچ
قوم
عەبدولع
بپ
باڵند
يەنجامبدرێت
جۆرەی
شێوەیه
##وێنێت
ناونیشان
يایاری
يەوس
وڵاتەی
شێخان
پارتێکی
گفتوگۆیان
سالارکەرکوکی
بەکەس
پیری
کێشەکەی
میرات
پێشمەرگه
کەهەموو
دادی
1990
حەزم
پێشین
وەستاوە
سەنگی
پایە
##بنەوە
شارەزوور
لەمەش
کەمپی
سوریای
کەناری
پێکهاتبوو
##سادق
هەماهەنگ
ڕادەیەکی
تازه
قۆرخ
##ياماد
##نێ
بارهەڵ
لەياک
ناعەدا
##جان
##اکت
کێشم
بەکاتی
دانوو
گەڕایەوە
بزووتنەو
لوق
##کۆڵ
##ۆکردنی
##کردووه
##ێوەردان
دەبرد
جوتیار
نۆڤەمبەر
حەقی
##زێکی
دیزای
##ووسەری
تەقەی
لێبووردن
بەرەکانی
یارمەتیدەر
##نس
کود
درێژکردنەوەی
بەرلەوەی
ساتی
غەی
##سەند
##ەلەر
لایەنانە
وەش
لەجیهاندا
##ەکیی
کردین
##یشم
##اشا
دەسەڵاتداری
هۆڵەندی
بادینان
کەوتنی
سەوا
فۆتۆگرافی
ناوەراستی
لەداد
بام
##يیس
##ڕم
لەکەن
کامیان
##ێـکدا
هاتوونەتە
74
هو
کلین
شایەت
قۆڵی
ڕوانین
##لەمان
دەگیرێت
##ازیلی
جیابوونەوەی
دەروێش
نیوان
الث
يەیلوول
##انەیەکی
بەنم
پەرلەمانەوە
لەرێی
پاوان
پێدە
توانیمان
گەشتوگوزار
##بم
بەرێک
کۆمیدی
گۆشتی
تەقەیان
کاراکتەری
باوەش
خەلاف
##یتەوە
يەوروپاو
لاتینی
شەکر
##دەوامی
پین
داوەتەوە
ڕۆژنامەکە
حوزەیرانی
وڵام
##گیان
یەکخستنی
بابەتەکان
عەبدولقادر
زەرەر
تێنسی
78
يیبن
هاورێ
ساڵێکی
نایەک
بتوانرێت
داخوازییەکانی
ملکەچی
##خوێند
ڕۆژنامەگەریی
کوردێک
##یستە
مانایەی
بەپەر
تورکیاش
يازادە
خولێکی
وەزارەتەکان
ڕۆژگار
جیاوازدا
وێنەگرتن
یەکگرتوەکان
گۆن
دایه
يیمزای
تاوانەکان
ياماژەم
بەبەراورد
ڕاشکاوانە
##وەکانی
دوک
ڕابگرێت
بایی
دراوی
خەڵکیش
گەلەکەی
لاس
پاپ
چەور
##ەبە
تۆیە
لەبەڕێو
کەرنەڤ
تەنیشت
يەرج
گیرۆ
فرۆشتن
پێکدادانی
دێرسیم
ڕۆژێ
##وترێت
دەمار
تایفی
##عم
##گرنەوە
##ەسـت
ڕووخس
يافرەتێکی
لێدەکەن
بەرنامه
لەمەوپێش
ياشتەوایی
بەپێویستی
عەبدولمەهدی
زەری
عەمم
لەرۆژی
##بدەین
چاکساز
کۆنەپەر
خۆبەخش
يەنفالکراوان
##کردنەوه
بەردەوامبوونی
گەرانەوەی
بازاری
حزبایەتی
یارمەتیی
مردوو
يایندەدا
ژور
ناوچەکەی
هەیانە
یاریزانێکی
تێز
يارارات
##خوازیی
لەناوچەکانی
قايیم
سیڤی
کەسەکان
دراما
##عەد
هەنووک
کراوەتە
کاز
دەمو
1975
دەستپێب
عەمەلی
پیشەسازیی
##لک
##لق
##شتیوانی
دامودەزگا
##uary
190
ترین
##لاد
##ەرتی
لەباری
قسانەی
پڕۆژەیەک
هێزەکان
لێبێت
کەسایەتییە
دەخرێتە
ڕاپۆرتە
بەگەڕ
ڕاگەیاندنەکان
##ییانی
##وایه
هەوڵدەدات
700
##ەوێڵ
شوێنانەی
لەیەکێک
لیژنەکە
ناوەندەکانی
یەو
##ـتا
ڕەحمەتی
هه
ڕاک
بۆس
##اعی
پەیوەندیەکی
دابڕێن
ڕیشەیی
خۆڕاگر
فریشت
زەمینە
ڤه
بەرەبەیانی
يەرد
##ەکمان
##اتەکانی
دەیەی
بابەتێک
سکۆت
چو
##ەبێ
بووبوو
دەسەڵاتیان
يەمنیەکانی
ياستێک
ڕۆڵیان
کۆچبەر
سووکایەتی
خەڵکەکە
بەدیار
لێپرسینەوە
گریمان
قوريانی
لەبارەوە
69
ڕەخنەگرتن
86
بەهەند
ياوێت
دێته
بەرزنرخ
يەرسناڵ
شارەدا
ڤاڵ
ڕاچ
بەساڵ
هیر
##اکەش
##ەخشن
بەکۆم
ڕێورەسمی
##اهیرە
عەرەبیدا
##بەستن
مەعسوم
##راف
کۆرپ
پۆزەتیڤ
سەريەنجام
##لێکی
يەپ
پێکەوەژیان
ياوە
سەربازانی
دووپاتیکردەوە
شەمەند
پاڕ
گرتە
پێنەد
داگیرکەران
جێبەجێن
ڕێنماییەکانی
لەخۆیدا
نەقش
خوە
دوود
دڵڕ
ڕۆڵەی
83
باد
کەمان
یەپەگە
##گۆر
شۆفێری
هەمیشه
لەهەوڵ
سەرکۆماری
لێبورد
##ort
نەجیب
مووسڵ
تق
زیات
هەڵوێستەی
سۆسیالیستی
سووتەمەنی
خستەسەر
##ەمەی
دابونەری
##عای
زۆرو
ڕەنگاو
دەستگیرکراون
تەرخانکراوە
يەجێندای
##یدایە
چاوەڕێ
پاساوی
وەزارەتەکانی
قەناعەت
يەلفوب
##ra
دەکرێ
لەنێوانی
دەگرین
لەيەنجامدا
##جەر
بێيەوەی
تاقمە
بەخوێند
یۆڤان
دووچاری
ژاپۆنی
بیروباوەڕی
##ریا
##ازدەی
حیزبەکەی
حیکمەت
لەحاڵ
##کردندا
پاڵن
مەتری
ڕووداوه
جۆراوجۆرەکانی
کلاسیکی
88
گوڕ
يێمەوە
گەیاندووە
گەمژ
جەعفەری
as
##ماڵی
لەدەسەڵات
##ياوای
کامل
دڵنیاییەوە
##ڤێ
پـۆلی
تێوەگ
##یەکاندا
ناوێکی
داستان
تم
هەڵبژاردنێکی
گرتوە
فەب
نازی
داپ
##ـتانی
قەزا
فت
ڕۆمانە
بکاتەوەو
ڕادەکێش
##ەدەم
هەمەلایەن
دەداتە
ڕەوەندی
شۆڕشە
چاودێریکردنی
##درێژ
ڕۆیشتن
کلاسیک
کرو
هەمبەر
جڵ
زەین
تێیاندا
شۆ
نواندن
ستۆکه
يۆتۆمبیلی
##اراستنی
کەربەلا
بڵاوکردۆتەوە
ناسر
کۆڵان
شۆک
گوو
##ov
##کردنه
ڕەخنەو
میدیایی
دەنـگیـیانەی
##هاتوون
پاشای
سایک
خۆشناو
چیرۆکە
جێبەجێی
توێژەر
لەیلا
دەستدرێژ
سێدارە
بەرێت
ڕووبدات
بەڕێوەبردن
وەستا
##20
هیج
##وویەکی
يەکرەم
خۆماندا
1979
کەپێویست
##زخورم
دۆخەکە
سەلماندنی
بەلجیکا
شاجوانی
عەبد
يۆتۆن
چەکدارێکی
ڕاپـۆرت
دەریان
يەگەرنا
لەڕابرد
بەزەیی
دەکەوێته
##ڵێن
##باس
سیح
چیا
شانبەش
گەمارۆی
فرس
پا
بەسەرچوو
جیابوونەوە
دواخرا
##اندنە
شێواندنی
ڕوح
بەرێوەدە
##فرۆشی
حەشار
عەن
پێوەی
لەکەم
دادەب
لەڕا
گروپه
مۆدێلی
هەوای
لەباک
گفتوگۆکانی
کۆبوونەوەکەی
بەقەد
دیاریکراودا
نارەزایی
مەکە
کالی
##هین
بزر
بدۆزێتەوە
بەرپا
ڕووداوانە
لەچەندین
يەهل
گێژ
بەرای
يامێز
دەخۆن
گرانی
چیمەن
نەتەوەییەکان
هەشتەمی
کۆبونەوە
دابڕاوەکان
حمە
سه
##ەوەکان
##ine
تێپەڕاندنی
دەستکەوتەکانی
بەتۆمەتی
پێشەوا
دیارب
مەعریف
خوالێخۆشبوو
ملیارو
پێید
کەميەندامان
ناف
##گرتنە
ڕوونە
سەرنووسەری
بەرفراوانی
فارو
هالی
بەرێ
##ەجۆر
دەمێنێت
ڕژێمەکەی
##رایەر
##ڵاوە
بەسەرهات
لێدەکەوێتەوە
زەحمەتە
گورگ
وەزارەتە
##وێنن
سەدی
يەلج
##14
دیوە
کەمەوە
ڕێکخراوەکە
زیادەڕ
##arch
پڕۆسەی
نايارامی
لەيایند
##وانگەی
حکومەتیش
بەياژانسی
بەرزە
هەناسە
##عد
##لیپ
يیز
يێستاو
دەگەڕێت
کۆنەپەرست
ڕاپۆڕ
سازکردنی
ڕوخساری
فۆک
چەوری
بوک
لو
##یندا
ڕایگەیاندبوو
خوارەوەی
گرفتەکان
جەختیان
لێق
هەستە
دەرک
پابەندبوون
ڕم
کەف
بەڕەسمی
لیستەکەی
فرۆکەخانەی
قیر
##دەوڵەتی
کۆمەڵگاو
pr
چڵ
ناکاتەوە
وەربگیردرێت
زووترین
دانیشتنەکانی
کەزۆر
بەکۆی
اح
لێکردن
خانو
نەبووەو
نەمسا
حەیدەری
فەه
کایە
کەشت
##لوو
##قوب
يەمساڵی
نەبی
تێکستی
گوتویەتی
##رێکی
جیاوازییەکی
پشتڕاست
دانیشتووان
دەمەی
ڕێگەیەوە
عەممار
شانبەشانی
دەکرێتە
دانەن
میدیاک
مج
ڕسول
بمێننەوە
دەرفەتێکی
درۆز
گفتوگۆک
کپ
ڕاگەیاندنەکانی
ڕادەگەیەنێت
هەرکاتێک
يینگلتەرا
قایل
##اسەی
##زانم
تێکچوونی
هەناسەی
خەتی
نز
##کوتی
ڕۆژنامەنوسی
مێژووییە
##کەرە
##ەرد
کەمن
گۆڕانە
بەشێکن
دیموکراسیەت
کارياسانی
کەمبوونەوەی
لەبەرانبەر
زەبەلاح
ڕاگەیەنراو
##ەکم
هەمی
لەگەڵیاندا
پێتان
دیکۆمێنت
خاوێن
سەددام
کۆنسێر
دیزاین
يەمنیەکان
سەنگاوی
دۆنم
پەیوەندیە
وەسفی
بدۆزنەوە
هێنانەدی
قەرەبووکردنەوەی
ناوەندیی
##ەهای
توانرا
بڕیارەکە
بابەتەکانی
بنەڕەت
خۆکوشتن
ەم
##ودە
نووسەرو
لادن
جووت
##خا
##18
##اڵەکانی
کردۆتەوە
شاراوە
ڕادەست
ڕاپۆرتەکە
تاوانبارانی
يێجگار
تایمز
##خال
##ـتان
توێژەکانی
تەکنەلۆژیای
##ارانەی
بەرازیلی
گوێز
##ایەتییەکانی
دەکوژرێن
يەکادیمیای
دەستەبەرکردنی
##ڕەوە
چەکدارە
بتوانم
هەڵکش
In
هەق
لەماوەیەکی
لەهەمبەر
هێنانە
شەممەی
بارەگاکانی
او
پۆت
دەستێوەردانی
ساڵەکانی
##ايیل
گفتوگۆو
باڵاکانی
موم
##تراز
ڕیس
##لولی
تێنە
لێمان
کەبەر
##اریا
سەرەخۆشی
لایەنانەی
خەڵاته
سەندیک
پیلانی
ياوازدان
پاو
دیاریی
سەرۆککۆم
بەعسییەکان
فۆلکل
سانس
##گادا
داگیرکەرانی
بەردەمی
يازادانە
جێبەجێد
دەهێنرێت
شێعرە
ناسیۆنالیزمی
لەزانکۆی
یەد
سەرچاوەکە
خۆشەویستیی
موتڵ
هۆتێل
دەبرێت
پارێزگەها
لەتەمەنی
چاودێران
جون
##وڵی
کەسان
يەستێرە
تەکنەلۆژیا
##ۆرینەی
دەسکەوت
ياسا
باڵەخانەی
بەکارهێناوە
ڕێگەیەکی
زنجیره
کەميەندام
دێو
##نۆ
بەخێرایی
##خات
يەبین
مسۆگەرکردنی
فازڵ
باقی
##ەزا
##کەدا
گرتو
کوردیەکان
یادەوەر
وامان
قسەیەکی
دەرببڕ
##ێگەیشت
1980
فەیسبووک
مەقام
بارانی
یۆرانی
79
پەرۆشی
##بووەو
قوربانیی
يێراقی
##زەکردنی
سەرا
بارزان
دەمێک
شیعه
خەف
سەرەتاوە
بمێنێت
سەرکوتکردنی
خوێنەرانی
يیسلامیدا
قەڵادزێ
مەدا
نوێکرد
##لایەنی
##گرنگی
بانگەشە
خشت
##ریدی
دەستەوە
کوشتار
بەلێ
##خوازان
800
دووک
بیکات
##ێندەر
يەکەین
##گەدا
##ژێت
##ەلەرز
هاوي
دەسەپ
بەبیر
جەماوەریی
زاو
بەناچ
هەڵبژاردنەکاندا
شەوێک
دەڕوانێت
سەما
وەرنا
خۆشمان
نازم
تاوتوێکرد
شڵ
لاری
##بۆری
بەکارب
جگەلەوەی
99
بۆوە
نامەیەک
84
##سێن
لەسەرەوە
تەوەر
بەسرە
بەڕێزیان
دەکرێنەوە
کەمترە
گاڵتەج
بەمەرجێک
مێزی
##گەلە
مەلای
سکاڵا
##ەکەری
دادەخ
##لایەنە
بەشێوازی
بەشێوازێکی
فەبرایەر
##ـان
##ێتر
##ەبا
يیدان
پەرۆش
##ێدە
##گوڕ
ناساندن
قورسە
محم
یەکپار
##بەرایەتی
چۆتە
ياسوود
دەمێننەوە
بچووکی
بۆمبڕێژکراو
##ەکەى
لەوی
خەونە
دێرینی
تەری
گێل
##ەکەوه
گۆڕانکارییە
هەردوول
سروشتییەکان
مەشقی
هەلوێست
##ابینی
ساتە
##شـتی
هەرێمێکی
سەرەکیەکانی
سست
##17
ناون
##وڵڵا
ڕووخاندنی
گوشاری
يیتاڵیا
فۆر
##خەی
مێژوون
يۆتۆمبێلێک
عەبدولعەزیز
ڕواڵ
قەیرانێکی
سەرکەوتنیان
هەژموونی
حاز
##بوی
##ەسەی
دەستل
لەگەڵیان
یانەکان
دوورخستنەوەی
نییەل
واتایەکی
بارودۆخێکی
شێرپەنجە
بۆکان
پێنوس
##یشمان
##ەییەکان
سایکۆلۆژی
1970
ناڕاستەوخۆ
##ڵاوی
يیله
باسێکی
هەڵدەس
مەشه
##پێدان
پانتای
##ەترسی
وەرگرتنەوەی
عیسا
يەفغانی
##ubli
de
يۆز
يەمجۆرە
تایبەتیان
شەقامەکانی
82
یانیش
##عەتی
##net
نەورۆ
بریندارەکان
فریاکەوتن
فیلمەکەی
گیرفانی
##بینن
##عل
##دەکرێن
کۆتاییهێنان
شکاند
##ۆچکەی
سەریهەڵ
ياوێنەی
زیاتریش
گۆشەی
قوباد
بەهرەمەند
لەسێدارەدانی
دەژم
ناگەڕ
بنەر
##چوونە
دەستپێشخەری
وابێت
##ەدەکات
پەرچ
##ترێ
لەبڕی
شارێک
پێیدا
هەندێکجار
يەبوو
پێنجەمی
بەشێکیان
بەپەی
##atur
نايومێد
##ەڕو
هەرچۆن
سەردانێکی
دەربڕیوە
پێشمەرگەدا
زیاتریان
جگەرە
هەناردەی
ڕێژی
نەتوانن
يەمرۆی
نییەبۆ
مانچستەریۆن
دیزاینی
سەپاند
دوێنێی
دەبیست
##ۆلا
##ودجەی
1000
فێرکردن
لەلیستی
يەنتەرمیلان
يامانجێکی
حەت
##ەنگە
##گران
هەفته
پاککردنەوەی
دیکەشەوە
گوزەر
هید
ڕەوشتی
بەرەوڕووی
گیرا
ڕێگەگرتن
پەنجەر
يادەم
دێموکراسیی
##موکراسی
Al
جاسم
بنیاد
زنجیرەیەک
هەڵدەبژێر
لەسەرەتادا
پارەیەی
خوان
سوێن
هەستان
کەلتور
زەل
قەتی
هەنگاوەی
##کردووەتەوە
خۆپێشاندان
هاورێی
##رەف
##سات
هاولاتیان
لێکدان
لەساڵانی
حەوی
غەیر
لەژیان
ڕێزو
دۆڵ
يورد
پەری
##گرد
پارکی
دەڵێ
مایکل
تۆتالی
بادی
##وێنە
کۆمونی
يەنجامیان
کوڕان
بەسەریدا
##10
##ووف
بەيەزم
قەڵای
کوشتووە
##پیدی
قورسی
بەنداوی
لەمبار
گوتمان
بەزۆری
خۆشیەوە
کۆمۆنیزم
مشتومڕ
##36
جیم
نێوخۆ
کچەکەی
ڕەزامەندیی
يەفسانە
گوێبیستی
##لەند
##iz
سەدە
گشتییەکانی
فاروق
عێراقێکی
گرنگییەکی
چاوەروانی
##ەوانە
##ێنەوه
##اپۆرت
جلوبەرگی
چۆل
ژەنی
##ێشتر
خزمەتێکی
تۆماربکات
کۆبوونەوه
##بونەوە
شیرینی
##باو
##ێنج
سەروو
##سیری
بیمەی
##بوڵی
جەواد
بەرخو
هێشتنەوەی
بۆخ
بۆنە
داخست
يەسڵ
لێوەرب
##سیل
يەکا
پەیمانگا
شاهۆ
ڕامیاریی
##رام
ڕۆن
##رور
گۆڕاوە
لەيەو
بەغداد
دەستکەوتێکی
سەعدییە
چالاکوانانی
بگەین
یەکەوە
دەڕۆن
بازاڕەکانی
يەقڵی
##ارک
##ارەکە
لەسەریان
دۆلارە
میترۆ
هەرد
لێـ
سـاڵ
ڕێزلێنان
يیحسان
ڕوبەڕوی
هاید
يەری
##تدا
خۆپیشاندەرانی
پارتەکەی
بایکۆت
##ەڵێت
##لینی
يامادەکردن
ناساند
لێیە
96
##اکرێت
گوی
يەمساڵیش
پورتوگ
##انەوەیە
##بکەم
ياستەی
سەنگەری
شاردنەوەی
تۆقاندن
##ییەکانمان
وتەکانی
سەیدسادق
دەگەرێتەوە
لەڕێک
يەنجوومەن
لەمافی
بداتە
باڵاو
مۆندیالی
پڕوپاگەندەی
##امۆست
##گرام
دەنێن
شاکر
نیزامی
وەن
يازایەتی
دەمام
بیریان
##ڕێتەوە
##ستۆ
##اڵێکی
بیرە
لەسێ
پەیمانگەی
گەندەڵیی
##وەت
بهێته
دەوامی
يازادو
فیدڕاڵ
kurdistan
##ڕۆک
هەبن
بەردەوامیش
يەوەشکرد
نەدراوە
تازەپ
لێکۆڵەر
هەژاران
مۆسیقا
يەچ
بیب
ڕاستیەکان
زانیاریانەی
هەڤپەی
هاوکێشە
ستاندارد
##ێخ
##22
بزانە
خۆپیشاندەر
پێشوودا
پاڵەوانیتیه
##شتێک
##وکاری
##وتاب
يیدریس
ناوەرۆک
##بکەینەوە
##ەسەلەی
ياماژەشیدا
کاربکەن
بەزووترین
ڕەمەز
سـاز
##سکۆ
##گین
##روت
دەگەن
هێنایەوە
دەستکەوتە
فەرمانڕەوایی
ڕێکخراوەی
ڕەچ
لاوازە
##وڵاتە
کادیر
87
##iew
مێردەکەی
سەربەرزی
بەرپرسیاریەتی
فیت
وار
وکاری
##اوازی
کۆس
خۆمم
بێزاری
##کاتیشدا
خەلیفە
##ەرکی
بەرۆژ
چاوەکانی
لەشێو
##ers
برسێتی
لۆس
يەگەڕ
بەهەمانشێوە
گۆڕانکارییەکانی
نەوەست
دەنگدەرانی
پاڵی
##وولی
پەرستی
نەتەوەکان
##رەوی
##ەوری
لەیەکێتی
تاراو
ڕوونکردنەوەیەک
قول
##دەزانی
##روپا
دادگایەکی
##اسیی
##ەدەری
##لیتاری
يیستی
##ایەتییەکی
لێپرسینەوەی
سەلم
هەقی
##ووشی
کاتێکدایە
##انیت
##اوەنی
دەرخستنی
##ێژێت
يەنجامدەدرێت
##ابیلی
تەسک
يۆپەراسیۆن
پیادەکردنی
مامەند
سالانی
0770
یەکێتییە
ڕاپۆڕتی
مص
##دز
##um
لەتر
يەوەیشی
بەهێزترین
مەرجێک
ستەمکار
مەسیحییەکان
سینەماکارانی
سەرکە
لێکراوە
گوێگرتن
دانوستاندن
98
##ac
1998
بەکاریان
کەڵکی
سوون
##اشترین
##ەتێ
گوێیان
بەسەرۆکایەتیی
گیروگرفت
##19
##رۆژ
هەبو
دەخایەنێت
سوتەمەنی
سینەماکانی
لاپەر
یارییەدا
##ەبردنی
##دەوام
بەوپێی
قسانە
هەوادارانی
##رۆسی
مامەڵەیان
کافر
فرانک
##رج
دیوان
بهێڵ
سول
جۆرێکە
دەگەڕێنەوە
پێشمەرگایەتی
دیکتاتۆرییەت
##چک
کەسه
بەڕاست
بایرن
##ەیەکەوە
خەڵکانێک
دەیبینین
ڕفیق
لەسەرۆک
لەکۆت
نەي
کەڵەک
یەخ
##یەوه
##ریە
##حمن
خەلات
کێو
##ووسەر
##یانەو
دووبەر
##ەیەکیش
بەشه
دەیویست
##گەلێک
لەوانەیه
فیست
هەڵاو
ڕەواندزی
دەسەڵاتەوە
دەستگیرکرد
پێرس
##وربانی
ڕایگەیاندووه
نوسراوە
ڕۆمانەکە
##ەربای
وەرچەرخان
##igh
يیمامی
سەختە
##هانی
ڕۆلی
پڕۆژەیاسای
##هەلات
ڕۆژێکدا
يێمەیان
دۆڵی
یاخ
##ەگرێت
عەزی
هەڵدەگرێت
پێداچوونەوە
شەهرام
شمشێر
لة
##ێهر
کارانەی
نوسر
يەنجامه
دەقێکی
کیشوەر
تۆکمە
لەيەندامانی
چاوە
##تۆس
وەرن
الکرد
دەموچاو
جێم
قاهیر
پیادەی
قسەیە
لێدوانەی
##گەیەنرێت
لەراستیدا
مەترسییەکانی
اع
##نەهێن
ڕۆژانەدا
##ینیت
ڕەوانە
گشتیدا
يیمپری
يەسڵی
کیژ
جێناک
بۆنموونە
بفرۆش
##ۆو
##گەیەک
##ەورە
##دانێکی
گەردی
##ودۆخی
ڕەسول
ڕێکخستنەکانی
لیژنەکانی
لەناوچەکە
گەشەسەندنی
جەزايیر
يەولەوی
چەکە
بۆخۆیان
##لیای
سالم
پرسیارەکە
بەواتای
ڕاستگۆیی
چێنراو
##گڵ
دروستبووە
بدرێن
يامادەکرد
بروس
تەوافوقی
فەیسبوک
هۆنراو
گاڵتە
هەڵسوڕاوی
هانا
لەزیاد
پێشووت
پارک
هیتل
##زەر
لەفر
##اندو
سوار
سەربەستی
تیرۆرستی
مەودای
##کارێکی
نزیکەوە
يەسکەند
شەونم
1996
ناجێ
پێکهێناوە
هۆشیاریی
بۆچوونەکانی
یۆتۆبۆری
زادەی
لەڕۆ
##ەوەز
ياوو
هەبووه
##دم
##گەکەی
##شا
بووژ
يامارێکی
مەرامی
واشنتۆن
دیمەنەکانی
لۆژیک
عین
نەکراون
نەبێتە
1987
هاوپەیمانەکانی
سەراسەری
##اکەم
درێژەدان
نووسینە
پەنجە
بارودۆخەی
جانت
ناداد
جێگە
پەرلەمانتارە
هاوشانی
ياخاوتن
باوی
پیتی
تیڤی
##کۆتی
نزیکبوونەوەی
ڕێکخستنەوەی
زاخو
کۆمەڵایەتییە
ڕزگاریان
ڕوونیکردەوه
بست
##هاو
بکش
لەسەرکرد
##ەیران
گۆرانیی
حوکووم
پردێ
سانت
عە
فات
##گۆی
##تار
بۆل
##زیاتر
تەوەرێکی
چرکە
ناسنامە
مەزنە
قانونی
سیل
بوونەو
میللەتەکەمان
هالیوود
میش
##گەوە
دەستڕ
ملیارد
Fri
بناری
##کردنەوەیەکی
دنیایە
بینەران
##اوەیس
بیک
نیین
هەفتەیه
هیندی
قاهیرە
گوێڕای
کارەکە
بەهەشتی
ياسەو
ژنەکەی
وتووە
يەدای
سەرکردەو
تەعریب
مەغریب
يیفلی
نەتەوەییە
خانمان
چەشنی
زانکۆکان
يایەتی
بەردەستی
هاوکاتی
باخی
يەیوب
قەرەتە
بق
##مۆ
##ەخۆی
جەنگێکی
ناڤێ
گێمی
لەپی
##ۆکەکان
جیاد
##ییەکانە
کیس
توندڕەوی
سنورەکانی
پراکتیکی
تێدەپەڕێت
##خە
خستەروو
يەبێتە
تورکەکان
لەزین
خستنەڕووی
##اوانە
يەمیری
بەبۆچوونی
يەمەریکادا
تەقە
دیارترین
گومانلێکراو
قێزەون
ڕەبی
دووان
نەقیب
##ەیدا
##مینی
##یەکانەوە
يەیلولی
بەجێب
پێویستیمان
گوندێکی
بیانوی
وەستانی
##جه
##شتیمانی
دەولەت
گرنگیدان
توانایی
میرانی
is
خاتری
##rt
بارو
هەستێکی
يەسعەد
##وڵاتانی
ملکەچ
هەموومانە
دیکەیە
يیرادە
مانچستەرسیتی
عێراقەوه
پارتیدا
پەیوەندییه
بکەینە
کاتێکدایه
هونەرمەندێکی
پێشووتر
شـار
St
جود
کوردێکی
##ەسـتی
ياژانسەکان
دن
مێینە
نزار
ڕۆژه
پیاوەکانی
بایەخێکی
وف
##ەریی
دەگری
دوبەی
مەحاڵ
تەگەر
لەبەیاننامەیەکدا
##ڵەی
بەراو
ڕۆژا
يارادایە
دامەزرا
لەيێستاشدا
ژەهراوی
نێوانیاندا
هەڵپەسێرد
قەسی
دەربکات
بچوکی
بگۆڕن
نایانەوێت
شارەکەی
##وبەندی
چالاکیەکانی
فێربوونی
ناوزەد
##ۆگرافی
لەهەند
هێڵە
پێداچوونەوەی
زوم
##ووق
سەرکوتی
پشێوی
هەڵوەشانەوەی
خەڵکیان
زانیوە
نەدی
شاعیرانی
گرتنەبەری
هۆم
##35
##چووی
##شتاین
ياماژەمان
دڵیان
ڕاپۆرتەکەی
نایەکسانی
پێگەیاندنی
بەکێش
1994
میهرەبان
کەرەستە
دەخرێت
##and
هاندەرانی
مۆدێرنی
##وەڕۆی
بەرخۆ
##ێیدا
بەتوانا
عبد
##ۆیشت
ڕێـک
نەهێڵ
ناردووە
مریشک
##حق
کێشاوە
خراپترین
هێلی
قارەمانی
قەف
پیرەم
دیاربەکر
##لة
##ەشمان
##ەقە
يەلس
دنیایەکی
سەرەتاکانی
فێربوون
لەبنەڕ
خۆپـیشـاند
داعشدا
هەناوی
حەمەڕەش
قایمقام
بنبڕکردنی
دری
چێندراو
ياشتیخواز
هێما
لەگەڕەکی
قابیلی
پارتەکانی
گەشتیاران
##وونەوە
ناگەیەنێت
نق
شارەکه
بەدەیان
بازار
زێ
زەیت
##باڵ
##اوەکەی
دەکەوت
دارو
هێرشه
هێرشکردنە
بەندەکانی
کۆتاییان
زەمینی
وەت
##به
##ەنەی
نەبرد
شیعەی
مەترسیدارە
تێکۆشەر
يەفریق
موزایەدەی
خەست
لێش
##ایێ
##ووسین
تیمێکی
گەرەک
بەغداوە
بەلایەنی
کادری
لەيارادایە
خودایە
##گیرێ
نابەر
دایان
عەرەبستانی
خوێندنەوەیەکی
ڕوداوەکانی
میلیشیا
فلمێ
نەقشبەندی
ڕقی
کز
کەنار
فەڕەنسی
مەعریفی
کێڵگەی
يازەربای
سەلەفی
نايومێدی
تکریت
ڕێپێو
بەدب
شوێنانە
##نێک
##ik
##eed
ببینە
ژنانەی
1997
##رایەوه
هەڵگیرس
##ارێت
سەرگەر
##گیراوە
حسین
شانۆکار
بێگەرد
خویند
ياگایی
بەیەکێک
فریا
بزانیت
##فۆر
پێکد
پێکهاتەیەکی
##ێنا
بوەتە
مەخمور
قەبوو
چێژی
يەپر
حیزبانە
نەوتە
ناڕاز
یارمەت
گفتوگۆیەک
تێکەڵاو
وەهای
ڕەخساندنی
##ابووە
هاوتا
نێوی
##چوونەوەی
##کارییەکانی
تانک
قۆناخ
سـی
کتێبەکانی
لەناکاو
##nes
کۆڕی
##ۆڵم
##ودەی
دێی
##وەوە
لەکتێب
يەوانەن
شاعیران
چاڤ
ڕاسی
يۆد
بخۆن
داگیرکاری
يەتوان
پیشەساز
مۆسیقای
پێبکات
##وندوتی
لەرا
تۆزێک
وانییە
سەرای
##ادات
##روستی
##گیانی
بەدەستهێن
فەرمانبەری
سەرەکییە
شێوازێک
يوتومب
بوین
کرایەوه
بەرزتر
بزانرێت
پیلانگ
دەگێڕێت
ژەنەڕ
مەق
پیشانی
بەزۆرینەی
1993
پۆسته
ڕێگەچارەی
براوە
پایەی
##ەبونی
الخ
110
ناسنام
گفتوگۆکه
ڕێککەوتنە
نێردراوە
##بێرگ
بەرتەسک
##خەری
کوردست
پێدەدرێت
هەندەران
تاوانێکی
مانگدا
مارسی
##49
دروستبونی
يامادەبوو
تەقینەوەکانی
ڕونیکردەوە
بەکردەوە
کەسێ
لایەکەوە
کەمیی
نەچوو
لەخۆدەگرێت
عەقڵانی
وەهم
وەرگێڕان
##اندز
پەتی
کەسێکیش
بەسەریاندا
نەمری
یەکڕیزیی
خواو
کەوتەوە
سایکۆل
گروپێک
##جم
##ۆرا
بنێین
دوورن
هەبووبێت
هەمویان
يۆپۆزیسیۆنی
کەناڵێکی
اخ
حور
دوم
ماج
##ومان
پەرلەمانە
دەیب
وێڵ
##اندنێ
Friday
##اوەیی
زانستیی
توڕەیی
##اواز
درێ
پڕۆژەکەی
ستایش
سەرنجە
Mon
##یانەیە
ساڵانێکی
يێرانە
ڕۆژنامەیەکی
گونجاوە
سانتی
##راد
##ەرینی
fal
سەرفر
هەشتی
کرابوون
بەیاننامەکەدا
هێناوەتە
زەه
##لەک
مامۆستایەکی
لەیاریی
پشکداری
گێڕانەوە
##پرسانی
تیرۆرستان
لەخەڵکی
دەریایی
71
کازم
##نای
نامان
هاریکاریی
خولەکه
مەعریفە
جوگرافیای
##اتیا
پێکراوە
ژمارەیە
پێبەخش
بەفیڕۆ
فور
##ەڵا
ناوەک
نادا
هۆیەوه
پەرلەمانیش
کاریگەرییان
بیروبۆچوون
چەتری
داس
##40
کۆیی
يەچێت
پەیامە
يەڤین
قاچاخ
کەع
فرەژ
تەقاند
خاڵێک
پەروەرده
عبدالر
لەسێدارەدان
هەڵگەڕ
فیزی
دهۆکی
پەیمانگاکان
يێکێ
چاندنی
هێرشبەری
تۆمارکردووە
فەیلی
بهێنێتە
یەکێتیش
یەع
کوالی
سیستانی
##ەستن
پاکستانی
لێقەوم
بانی
بەدەنگی
##ژمێر
دەهێنێتەوە
پاڵێوراوی
##ublish
حیس
ڕۆما
چونە
شانازیی
نەخۆشییەکانی
فریای
يەفسەرێکی
خزمەتکردن
بەرشەلۆن
##رت
##ەما
##رینە
حیزبێکی
بەخشین
دەخەن
ڕووبەروو
شەرعییەت
بەحرەین
حاشا
گوتە
مومار
##اکەمان
دەرس
کێشەکانیان
100000
کامە
قەبوڵ
##زادە
##فیش
##ێنرێن
گرفتێکی
حەڤدەی
عومەری
خیت
دکەت
##اوین
##ەڕۆژ
خۆیانن
جوري
پێڵاو
بەپشت
جیاوازیان
##بینم
فەتح
دانیشتوانەکەی
ساکار
پرنسیپی
يۆمەران
بیانوو
کەشێکی
تۆڵەی
false
##اداری
لەپڕ
هونەرییەکانی
موکری
جیان
گەمە
##رنا
##عەلی
##ەرن
يەمانەی
بارێکی
بەلاوە
سوم
##ەتەوەی
##زینی
يامێدی
ڕەوشە
بۆيەو
حیکایەت
فرو
##شکی
##بووه
بێتاوان
دانیان
بڕیارو
##ساڵدا
کارەساتێکی
لەمانە
ناحکوم
تۆدا
لێدێت
مەبەستمان
سەربازێکی
سنوورە
مەنووچ
دەردەکەوێ
خەبەر
عل
خۆری
##سیاسی
شۆڕشگێڕی
جولەکە
دەستلەکار
##دراو
##ادار
شوێنه
##خانەو
پێشکەوتووی
توێژینەوەیەکی
يەلعێراقیه
یادە
##ەرا
##وتین
وەڵامێکی
لایەنگر
است
خومەی
کرایە
یاسایه
بەبەشداری
هێڕ
وێر
##KK
##کەیت
توێژەران
مەیلی
خانووبەرە
بێشکچی
حکومڕانی
##ەگەڵ
دیکەیش
شارەزایان
خەتەنەکردنی
ڕیشەی
يەشکەنجە
91
بف
چووم
##ەتری
ناوەکەی
ناگۆڕ
سیاسیش
زانیارییانەی
پری
##شه
يەور
کۆمە
چەندی
کامکار
دەسەلمێنێت
سونە
چەوساندنەوەی
يامێرژەنی
بارم
توانایەکی
چاککردنی
بچینە
يامادەیه
بنەڕەتدا
##سـتانی
بات
ڕایی
هەوێنی
مرۆڤەوە
وتارەکەی
##وشت
میوە
لەرز
ناشار
ڕاگەیەنرا
بگەیەنن
##ەونە
تیۆر
يەمریکاش
دڵەڕاوکێ
باژێرێ
وادی
کردۆتەوه
گوتەیەکی
لەیەکتری
لەوکاتەدا
News
سوب
##ۆمێنتی
يامادەین
بیرکردنەو
ستار
يیقلیمی
کردەوەو
دەرکردووە
کەمینە
اللە
جیهانیش
نامرۆڤ
تێبپەڕ
سیمین
العرب
92
زادە
بۆلای
##ایەتییەوە
کۆنگرەکە
##پارێزی
تەقینەوەکەی
پرۆگرامێکی
دەپارێزێت
بەنگ
پەژ
##37
بابە
پرسیارانە
یەکیەتیی
لەخۆیان
##ازانجی
رۆژ
##30
گەورەکەی
پیشانگ
یەکسانیی
شاخەوان
##ust
چێڵ
##ارەو
دووجار
ياماژەیەکی
يەنجومەنە
قۆناغەی
کوران
بینەری
دۆستەکانی
کەسوکار
بەرێوەچوونی
چرک
گولل
وەبیرهێنانەوەی
جەی
پێستی
ناوچەیەدا
ستەمی
بچکۆل
يێواران
يەمریکییەکان
بونیادی
##کراونەتەوە
دەکوژێت
زامن
فتو
لەگەرم
بەڕێژەی
نەخو
چیک
ياشتیانە
تەنگژ
ياڕاستە
عەدالەت
کاربەدەسـتانی
##خوێن
هاتەوە
يەلمانیا
180
تاقیکردنەوە
دامەزرێنەری
دانووستان
سرووشت
ڤێت
##قان
##اییەکی
##رافی
مانگرتنی
ولا
تاوانباری
سـاڵح
پرۆژەیه
حەقە
ڕادیکاڵ
سوێندی
خەوی
مۆل
##رة
##ەنتین
ملیۆنی
بریتانی
تازەپێگەیشت
پیرەمێرد
یەکلا
دەستەب
نیت
داواد
دەستوەر
شاردا
جەلاد
##ییەکیان
پێکەوەژیانی
سمکۆ
جۆز
لاش
##گەش
##ەبووە
سالانە
دەخوات
##ەکانییەوە
##ازەی
بەشەر
حکومەتێک
##ەبەرایەتی
1989
##ەبوونەوەی
لەبازاڕ
مەنووچێهر
بەکرد
##انداوە
بکەون
هەڵنە
##دینی
##گوای
میللەتە
دۆخەی
بة
ودا
يێستاوە
هاتینه
بیناسازی
##حکومەت
بەيامانجی
حەمەڕەشید
يەپرێل
##port
پێکان
##گیرا
ڕۆژنامەکان
بگاته
مەبەسته
دڵتەز
سۆنگەی
يێزدییەکان
شەراکەتی
هەڤپەیڤین
شەل
##الیکی
بەنێو
وتارە
کلتور
کەموکورتی
دەوت
بەڵی
هاوری
هەڵبوەش
نامەوێت
زیندانیانی
دزینی
عەز
دیبە
دروستبکات
کۆمەڵایەتیەکان
تشرین
هەموارکردنەوەی
گورج
ڕێوڕەسم
اذ
##خرێت
بڕیاریان
دادگاییکردنی
لێهاتوو
خزمەتگوزارییەکان
لوقمان
##جەو
هەڵگرتووە
لایێ
نیۆی
دەسەڵاتدارێتی
تووشبوون
قبوڵی
هەوە
ڕوس
##خراوە
بەرژ
وێنەکانی
ڕواە
گرینگە
جەڵ
##ۆتی
بکەت
ڕۆژوو
هاوبیر
يەلبومی
کودەتا
##الین
بنە
بگوترێت
قوربان
دەمێ
نووسینەوەی
خۆمدا
##ڤیا
داخە
##دەیەکی
برینی
دەیتوانی
سێپت
يەندامێتی
گرنگیان
بونەتە
فەرموود
Se
##ەشم
##ەخواز
##ۆیەک
بریارە
دەوڵەتێک
کڵێس
بەرپـ
ڕێژەیە
بەناونیشانی
ڕێککەوتنێکی
ڕەخنەیی
تن
قل
##گراد
ياف
دواڕۆژ
دوژمنایەتی
کراونەتەوە
خەڵاتەکانی
تايیفی
لویس
کراوی
سەره
##ەکەینەوە
يیسلامە
لادانی
بەبەردەوامی
##ublished
لاه
ویەک
##اشین
پەیڤ
ڕایس
کۆنەکان
يەوانەشی
##لۆپیدی
حەقیقەتی
دەرکەوتن
##ۆشن
شتێکە
بارزانیی
دەکردن
کورستان
تایل
خراون
کوبانی
##ابێتەوە
الاس
گۆڕانیش
##ـیەکەی
خون
مود
کەرامەتی
لاوەکی
خەمخۆری
ڕێورەسم
پتەوت
هوت
داوایەکی
سەرەتادا
##ەویست
هەمە
داستانی
ناهێڵێت
نەگونج
بێژەر
نەخوازراو
چەل
##چەیی
کوێی
درکاند
گەیەن
دیدارێکی
سەڵاحەدین
##ەتیڤی
دەرێ
دەول
تورکیایە
ڕەح
کولتور
عەقڵییەتی
لینین
##اکو
##لملان
جوانکاری
داگیرکەری
ژوورەوە
بـ
##اکانە
سوڕ
مامناو
کەلێن
پەیوەندیدارەکانی
دۆک
##ۆدا
##اکسیۆنی
##دارەکان
کامپ
هەڕەشەکانی
##ڕۆسەی
يەنجامەکان
لەشەڕ
##دەوڵەت
بایکۆتی
بروان
گۆڕەپان
##واد
بۆتان
پەرتەو
يارادا
منداڵەکە
خستنی
مەدریدی
یارییه
بیانییەکان
سرووشتی
هاتووچۆی
##منداڵ
بەهۆکاری
الذ
دەربکەوێت
جیهانییەکان
سۆڤ
چۆنیەتیی
1968
سەرشەقام
کورسییەکانی
ناعەدالەتی
gmail
يەبی
ڕەب
پەرەپێدان
ياسەواری
يەبن
زەردەشتی
خوێندنگە
ژێردەست
##ێێ
##وپێک
یەکگرتوی
گەشبینی
ڕۆیشتنی
ڕۆناڵدۆ
هەریری
##اییەی
هاوینی
##یلا
هێنانەوەی
لێکدانەوە
تازەیە
PKK
مۆڕ
پاداشتی
##ەکرێن
بووایە
تیرۆرست
پەرتوک
عەشیرەت
زێدی
کیان
##ڵو
##رۆژی
بەڵگەیەکی
بەشوێن
بەڕوونی
کەمدەر
بەردەوامه
گەلەک
دەستگیرکرا
##احیەی
##مەنی
تاکێک
جەلیل
بخش
بەرژەوەندیە
فۆڕم
زیاترو
زەنگی
وکار
ڕاوە
##ۆڤیچ
##چین
کێشا
تاکەکەسی
بابەته
لەقەزای
پۆستەکەی
گفتوگۆیەکدا
بەناچاری
خومەینی
مخ
##نتن
کوردمان
نواندنی
بێته
ژیانم
حەمەس
دەوڵەمەندی
یوون
##ترد
##ەرگرتن
##ەڵەک
خۆياماد
هێزەی
پێنچ
بەبی
بابل
کۆبکاتەوە
نیشتەجێی
تایف
بودجه
يەلعێراقییە
لال
يیراق
##اینەوە
پێزانی
يازادییەکانی
بینا
بەڕێزتان
يەدەبیات
سووتان
چەندێ
دادەڕ
تەواویان
بەرچاویان
يۆرگانی
لەبوارەکانی
نەبووم
يیسلامیە
تۆڕە
کۆنفڕ
دابڕێنراوەکان
ببەخشێت
دانرا
تیمەکانی
##خالق
بەپێویست
خەڵکانێکی
##ەتای
گوێد
ساڵانه
نەکردووەتەوە
بەستووە
هاب
##وویانە
خۆج
بێخ
نوسەری
يەلقاعیدە
##ەستێت
لەپڕۆژ
دڵخۆشی
قسەیەک
تەنێ
دایکان
گوللە
بارهەڵگر
##یەو
پێکهاتەکان
يەتات
ولاتەکەی
بخوێنێت
هۆزان
هەوڵدەدەین
مەرجە
پێکهاتوون
خۆرهەڵات
داهاتوویەکی
کلینتۆن
##لیسی
ڕێڕەوی
بەخەڵکی
بڕگە
وێنا
خستۆت
مەبەستیان
يێرانییەکان
ياغای
بەرێوەبردنی
زایینی
ڕستە
گۆم
هەرل
خولە
بچێتەوە
کلیلی
هاوڕێیان
یەکگرتوەکانی
##اکاری
وشەیەکی
##باب
کوردییەکاندا
وڵاتەکە
هاتووەو
ڕەشە
ڕێنمای
عوب
##ارەیە
##وردا
سکال
لەخول
مۆرکرد
کەوتوونەتە
هەرسێ
ڕاوبۆ
ولاتێکی
لێکۆڵینەوەیەکی
پڕی
گات
##ەوێتەوە
##دابوو
ياسۆس
خاڵانەی
ترسناکە
لێڤەرپ
بەمە
ماڵپەر
خواستە
لەوێشەوە
وەدی
##راندنی
بوێری
ياواتی
ڕۆژنامەکانی
شەرەفی
ناوخۆییەکانی
فرۆشت
داق
داون
لەشارەکانی
لێرەو
ناڕەزای
شەوانە
دۆزرایەوە
سەوزی
سەقامگیریی
بەلیستی
81
تۆنی
دەستێکی
بەيەند
##ولا
گیانل
جیاجیاکان
پێمانوایە
##گەکە
لەسەدا
توێژی
لەدەوری
هەڵەکانی
پاشانیش
تریشی
عەبدولح
هەستیاری
دەرچووانی
دیمانەی
ترمان
بەخاک
وەزعی
شێوه
لێسەند
شەوکەت
يابوریی
بونە
ناهەم
کەرکوکیش
##42
##وسڵ
سلێمانیش
بەڕێوه
داهاتێکی
فیلمەدا
لیبراڵ
سندوقەکانی
تەلەفیزیۆنی
خۆیانیان
ياسانە
گوتەنی
##کەرەوە
کراوەیە
بەرێوبەری
گەیشتنه
لەعێراقدا
نێگەتیڤ
بەرۆکی
نەبێتەوە
##هاتەکانی
##کتۆر
کۆنگرەیە
کامڵ
##ەکەمدا
سالح
ماندو
##ەسەلات
##دەتوانی
يەرژەنتین
قايیمقامی
تەور
##سانە
##قل
##ابان
گوایه
لەند
##شنگ
لەشەڕی
هەلەب
تۆمارکراوە
هەفتەیە
ڕێککەوتنێک
يەمانەن
بێوار
مەکسیک
بەوپێیەی
کیم
تیرۆرو
ناحیەکانی
فارسیی
لەخزمەتی
اڵاو
دەستەم
##ۆیا
ڕۆژياوایی
نەیار
فریو
نەجات
کوشندە
عەبدولموت
شەفافییەت
شێل
##ابر
کارگە
کۆمەڵکوژ
يەکاتەوە
##اکانمان
Wed
##اکۆ
داهاتوی
گیراو
خانەخو
بگرێتە
کەدەب
##اڵەی
کوردییەکانی
يازارەکانی
##کۆف
کۆنگرێس
دەخەینە
سەیرو
ژیاوە
مانچستەریۆنایتد
يیب
الک
ڕەوایە
دنیابینی
يەشکەوت
يیداریی
زەبری
لێکۆڵینەوەکان
خوشکی
سکی
وەدەر
يەمەو
باسکردن
جارانی
ساردی
شەخس
های
پرو
##وتە
تەراز
گەورەیەی
مەترسییەکی
ڕۆک
##ایبەت
هەبیت
لەدروستکردنی
نادەین
شایستە
شیوع
شاڵاوی
##ێیان
بەڕۆ
##ێتییەکی
ڕووید
يەکتیڤ
بۆماوەی
بێکار
قوتابخانەو
موحەمەدی
دیبلۆماسی
##سـتی
##rom
##ەوەیان
دەگەڕێن
توندتر
شێروان
سەرتاپای
دوازدە
مرۆڤەکانی
گرنگن
لێبکات
##برالی
ناردنەوەی
شەرمەزار
غەیرە
یەکجاری
لەبەرنامەی
بیرمان
پڕۆژەیاس
لەنێوانیاندا
##nesday
Wednesday
##ڵای
##گەیان
##وبونەوەی
گوتەبێژ
قەدری
ستیڤان
em
it
کاکی
##امەکانی
لەوبار
تایبەته
ڕەگی
گۆرانییەکانی
گونجاوی
تاوتوێک
فەریق
##ڤانی
کارمان
##وتەی
وڵاتەکەمان
##وورە
هەوڵدەدەن
کۆمپانیاکە
نەکردن
توێژەری
چۆنییەتی
پێداویستیەکانی
دیمۆکراسی
بەرقەرار
##ek
پێدەب
##ۆرانی
##دول
ساڵەو
##خوازەکان
دەهێنا
##urs
1974
خن
دەسپ
ماڵێک
ڕاپۆرتێک
نوێنەرایەتیی
نەکەیت
ڕه
##گیرێن
داهاتو
بەدەستبهێنێت
نابینێت
ببەسترێت
خرۆش
بوبێت
سەدری
ماوەیەی
نوێیەی
خوارێ
پاڵێوراو
##الاکی
##وکمی
یاسادا
دەستوورە
نەرمی
يادەمی
کتو
##دایی
##زیر
خۆشتر
ڕۆنی
پێکردن
پێکبهێنرێت
شەڕڤان
يەوەشیان
يیيتیلاف
##ولات
بەڵگەوە
يینسانەکان
ڕەچاوکردنی
قەتیس
غی
کەبە
##ەبکات
نوێوە
گەورەدا
##ایەتییان
وتەبێژ
زمانێک
پێشبر
نێوەندی
##کرێ
لەيام
يەمریکایە
شیعرێکی
ساختەکاری
##پێن
دۆستانی
ياشکرایان
سوتاندنی
هاونیشتمانی
وەڕ
##ud
يەندامە
تێبگەین
واقیعدا
خەسرەو
ببەستێت
بەجیا
##تەرناتیڤ
##نار
دەردی
يێرانەوه
هەردووک
فیدا
ياکرێ
کۆنەپەرستی
فراکسیۆنە
تۆڵە
هیلاری
کرمانج
لێکت
خێراتر
ڕەتدەکاتەوە
عەسکەر
لەترسی
چێڵسی
##پشتی
بەرهەمهێنەر
وتنی
نەتەوەیە
داواکردنی
ڕەزامەند
عەدالەتی
هۆلیوود
لەبارەگای
براوەکانی
يارە
لیتر
بڕەخس
پلانە
هاوکێشەی
##کەنەوە
نەدەب
کوڕێکی
خەرجکردنی
پاتری
هاتبوون
زەرەرمەند
جێگرەکەی
درێژخای
يەفغانس
فاتیح
پێوو
مندال
وێنای
خێرخوازی
##ۆڤا
چیرۆکێکی
مۆنت
ڕێبەرایەتی
لەحزب
##ەجەم
يامادەکردووە
دەسەڵاتەکان
ملیون
سکرتێر
تەرمەکەی
Com
بگەی
شاز
مۆت
پرۆلیتاری
وێنەیی
لەجێی
بەشداربووانی
##انەمان
تێکەڵی
##کۆپ
زمانەکانی
##دەبن
هاوڕێیەتی
بەگەرمی
##یلەی
ناوچەکەیان
کانون
کاریگەریان
سویسری
بەربڵاو
جەرگ
کەپێویستە
قووت
یانەیە
##الیا
گوندە
ڕوانگەیەوە
موشەکی
دەنی
##ەناس
لەسەرووی
دەسەڵاتەکەی
ملوان
سەرەتاییەکانی
یۆڤانتۆس
ناسراون
ستۆدی
دەنگدانەوە
يەمەریکاو
بدەینەوە
يێسک
دەرهاوی
ڕابەرایەتی
بەرشلۆنە
تەمی
##انەشی
##گیرس
پێیەتی
بەکارهێنان
جەمسەری
موسەوی
ماوه
ڤینۆس
جێر
##ریف
کوردییەوە
پێشڕەوی
میک
بەياگ
188
دانیشتوی
خوارووی
لەیاسای
کۆیلەی
جمه
بەبڕیاری
th
بەرەیەکی
کۆتر
لەبیری
منداڵەکان
پەیامەکەی
هەڕەشەو
ڤیدیۆ
کۆنسێرتی
منیان
##ضی
##ێکا
##ۆیت
هەرێمەکان
بگونج
هەوڵەکانیان
گۆرانییەکی
سەیران
یەکلاکردنەوەی
ماندووبوون
خێڵەکی
بەتوانای
دەردەسەری
##جیری
سیاسیەوە
قسەم
بەردەوامیی
سەمیر
کیشوەری
ڕونیشیکردەوە
باڵەکایەتی
مید
##ۆستی
##ردە
هەڵق
الد
هەستیان
دەوڵەتدا
دەردەکەون
گەشتوگوزاری
ڕێگاوبان
يۆتۆنۆمی
مابوو
##يار
يەکاد
نووسەرێکی
سەلاحەدین
فۆڕمی
کادی
##ستەکانی
##ێکه
سەروک
بێڕ
يازارو
دڵە
زیادبوون
وەرزشکردن
Sun
رادی
شوک
گار
يیتی
بوویت
نەکەوێت
هەڵبژاردنەکە
شیعریی
لەبەرژەوەندیی
خاوەندارێتی
##اوس
بەچی
بوارێکی
ناوچەیەک
نوێنەرێکی
ياژانسەکانی
10000000
حامی
##کیل
ژناندا
يەرکانی
دژه
دێموکراسیدا
گوڵە
تیرۆریستییەکان
يامێرە
خەسڵەتی
ژیری
##عب
##ەپەر
لەياس
##تانه
شەرمەزاری
##ووخ
کوردۆساید
بەهان
بنرێت
گەورەش
لەڕوی
کەرنەڤاڵی
کۆمسیۆن
دەسەڵاتێک
فرەیی
باوەڕم
دواکەوتوو
زیندووی
لەولاتانی
ته
##ەکەنەوە
بەرایی
##ەپێش
زەنگەنە
فێمینی
کوەیت
پەیرەو
نیچە
ناوچەکان
وێنەو
##اندنا
سازکرا
چاوەروان
پرەنسیپی
شەشی
##جێکی
تووڕە
بگەڕێینەوە
سپارد
هاوڕێیانی
ڕستەی
مەرکەز
قامیش
نەبون
دوورگەی
ياڵت
سەربازییەکان
سوودیان
ڕەهەندە
##دری
يیتیل
##کرنی
پشتیان
ڕوونتر
دادەمەزرێن
ڕاگواست
ياشکراشیکرد
تات
##ینێ
لەشێوەی
باشترو
خێرو
گیرانی
زەویدا
کۆبوونەوەکان
ڕاسپێرد
Tues
##وح
##گایە
تیاییدا
شەهاب
فەرمانگەکانی
بینیم
بونەوەی
Tuesday
قە
مۆم
##ۆردا
##بۆرگ
دوزخورم
نیشتمانە
سەمای
سودمەند
##60
لەژمارەی
دەرون
##الانی
بەپێک
ببەخش
جۆرەها
توڕە
شکۆم
سوننی
لەهەمانکاتیشدا
توانیویانه
شوێنەوار
نەورۆزی
دیبەگەیی
لسەر
##خەن
ڕەهای
پێنجی
بەسره
پێشمەرگەکانی
بەیاننامەکەی
قەوم
يەویتر
يازادیخوازان
لەخزمەت
ڕێچکەی
دەرماڵەی
خا
شایەتی
کردوویەتی
ژینگەو
فایق
حەبیب
وکو
##وولە
نزیکن
میرزا
تەزویر
لەدانیشتن
##يەی
##غانی
لەرێک
ڕێگەو
پەراوێزی
ماڵوێرانی
نیۆیۆرک
بارگر
چاومان
بەخۆش
توانییان
دەخوازن
لەبەرچاوگرتنی
##fo
دەستخۆش
دروستە
شتەکانی
بخەین
بەیانیان
دەفرۆ
بەڵگەنامەی
مۆدێرنە
وەفدەکە
##ەڵان
سواڵ
موه
هەڵبگرێت
هاتنەوەی
پاسەوانەکانی
يەفریقیا
جوامێر
يۆن
گەیی
ناوەکانی
گرنگه
کچەکە
یادکردنەوەی
شەبەک
مێدی
##اوەکە
##ەزاران
##ەدای
##ەدەستی
بوود
##جیم
سروودی
Monday
زووە
سنه
ستاف
##چه
##ەکانەوه
کاربکات
##گرتوو
یاریکردن
ياماژەیەک
گەڕاندەوە
شیعەکانی
##وشوێن
##دەکەینەوە
هەندێکیشیان
لڤین
##هێڵ
##si
لەمڕۆ
پاشایەتی
تەقاندنەوەی
تەواوکەری
نەبووبێت
مانگانەی
لیستەکانی
يارەزووم
يەردۆگان
##نەکەوت
نەخۆشخانه
کردەوەیەکی
بژاردەی
ڕۆستەم
فاش
لەچی
##ییەتە
دیلان
نازانیت
هەفتەن
گەردەل
يەورووپ
موستەفا
##وفی
دەبینەوە
جیدی
دادە
گەرما
دابەشکردن
دیارو
خۆپیشاندانەکە
غەفور
ڤە
##ەکەر
ڕۆژگاری
لەمیدی
ياودێری
هەمیشەی
پەسەندی
Satur
بەمی
##تێ
##عة
##داخ
ڕاف
يەنتی
دایکە
هەشتا
دەناڵێنن
Saturday
نامی
یەکشەممەی
##ومێنت
لەيەزم
تێبگەن
خام
##ەکەدایە
پێنوسەکان
لەبودجەی
دەگەنە
بەرزو
شارەوانیی
حەوتەمی
بەرەوپێشبردنی
هیتلەر
پتەوتر
kurd
حام
وێژ
چونی
##لێت
کێشەیان
بیکەن
مەسرور
##ارەسەرکردنی
خۆرهەلاتی
شانۆگەریی
نموونەیی
مارکسیزم
view
##تما
دوکانی
ژیانیدا
بەستنەوەی
1983
ڕۆژنامەنوسانی
پـێـنج
نامیل
##یانەش
دەرخست
سەرکەوتووی
لەوەف
ڕێگایەک
هەمومان
ياسانتر
شاهیدی
مەلیک
93
##یرا
##ێزەکانی
##یدانی
خانمه
نزیکترین
بەخێرهاتنی
فێن
ولای
هەمووشیان
بەوەوە
##ودەست
يینج
زیانەکانی
بەکاردێت
جوڵەی
لەهەڵبژاردن
هەڵدەستێت
بشار
##اکات
##الم
وەرگر
جاره
دەکوژرێت
ڕێڤەبەری
کامیرۆن
کاریزم
میون
دەمرێت
نووسەرەکەی
پـێـک
سورەتی
بودجەو
دەڤەرە
نەهێناوە
##هنی
هەڵبژاردنەوە
يابڵ
##ێلە
فرەن
تەڤ
ناوەندێکی
##لۆپیدیای
هێش
هۆیەشەوە
##ولە
189
حیج
يێسـتا
خرایه
دەگوزەرێت
لەيێستا
سەرکەوتنە
تێدایەو
بەعسدا
تێناگ
وشیار
مینی
##ەپەست
لەدڵ
پرسیارەکانی
130
گەیشتۆته
پرسەکانی
زەوییە
یۆرانیۆم
کەین
يەوت
##راپ
موسوڵمان
برینداربوو
##نەکراوە
فرمێسکی
##75
##هەمی
نیس
جەماع
برینداربوونی
شارستانییەت
زنجیرەی
تاه
هاتبێت
کەرکووکی
بیستەم
##اراستن
فۆت
ڕەوایەتی
مەسي
هەمانکاتدا
##ursday
دزەی
##رخی
خوه
ياراد
ڕێژە
هاندان
يەگەریش
هەڤاڵانی
يیعدام
Thursday
تامی
کردەیەکی
هەڵپەڕ
گەرەکە
براکەی
بەسەدان
بدرێتە
وێنەگر
هاندەر
لەهەمو
هەڵەو
وڵاتەوە
##نیشاند
نەهامەت
گەورەترە
برادەرانی
يەنیم
جیددی
کین
##ایەتەوە
يازادییەکان
##ەکانیشەوە
کەموکورت
دەلێت
Mag
نۆک
خودان
جیهانبینی
بڕیاریشە
ڕزگاربوون
دابڕان
بەسیاس
کردۆته
بهێنم
دەبێتەوەو
بوەو
##گرتنەوەی
درەوش
چوارگۆش
فیستیڤاڵە
بەدیاری
دەکوژن
کوشند
نڤیسەر
بەرپەرچ
##هاب
کوردانەی
چاوێکی
وەلید
پێداویستییە
لەپەیوەند
کوردسات
##ەسات
لەگوندی
##کارو
ناوبرد
نەکردبێت
خوێندنگەی
نادروست
عەشقی
دێموکراسییە
میتۆدی
بەدەپە
توم
زبڵ
يەمانیش
ساڵرۆژی
پارێزەرانی
لەياو
يەزانن
حەسرەتی
گەریل
لەمیسر
الثانی
Sunday
##ەیک
##ێدایە
##ینیا
هەڵبژاردنەدا
هەواڵەکانی
پەروەردەکردنی
ڕۆژنامەنووسیدا
##گێری
##ووز
بێتو
##ژمارە
##کۆزی
يامادەبووانی
پۆستەکانی
کەبڕی
دیپۆرت
دەخاتەڕوو
تارمایی
no
##اوت
دەکران
##ۆزسیۆن
وەزیرەکانی
ناراست
ڕوداوی
وەیە
##ەتیش
دەسوت
سەرۆکج
داهاتودا
##ێگەیشتن
کابر
بەخشیوە
يەحز
هەرەشەی
جووتیاران
All
عەلا
ڕەقیب
##مانێکی
##رۆسەی
##خواست
وڵاتەکه
زیندەو
نەدە
وشەیە
##بینێت
گۆلەکانی
دەمانەوێ
ڕەخنەیان
يەمڕۆکە
ناگرێتەوە
توندڕەوەکان
عف
##کەیەکی
نیشانە
ناهەق
گردبوونەوەی
خامۆش
بنێرێت
##دانانی
پرسیارەکان
خانمی
درۆی
هەڵەبجەیی
ڕفاندنی
##خەڵکی
ڕوبەروی
ph
کۆبوو
##ێزانی
لەگشت
ماوەیە
##لاح
حاکمی
ساختە
دنا
کۆست
کەسانه
سپۆرت
فەرمیی
تەعبیر
نەتوانراوە
فەن
فەنت
کەتا
##وة
##دة
کەچەند
دیارەکانی
کۆمەڵێکی
نەبووه
ڕێژەیی
تێبگات
##ڕاگەیاند
قەرەباڵغ
##گز
##ەکورد
