<unk>	0
<s>	0
</s>	0
▁و	-3.02878
▁لە	-3.89692
▁بۆ	-4.28369
▁کە	-4.41566
▁بە	-4.52303
▁ئەو	-4.63266
▁"	-4.72939
▁له	-4.73151
▁(	-4.89287
▁:	-4.90299
▁،	-4.90701
▁)	-4.92578
▁-	-5.09791
▁/	-5.15409
▁ئەم	-5.32149
▁کوردستان	-5.3768
▁به	-5.61934
▁هەر	-5.81915
▁لەسەر	-5.82956
▁ئەوەی	-5.86465
▁[	-5.91124
▁لەگەڵ	-5.9138
▁ی	-5.93137
▁خۆی	-5.96036
▁عێراق	-5.96126
▁وەک	-5.96328
▁بەڵام	-5.98988
▁لەو	-6.00325
▁که	-6.02368
▁هەموو	-6.086
▁زۆر	-6.17323
▁هەیە	-6.19764
▁بوو	-6.20039
▁دەبێت	-6.20909
▁دەکات	-6.21881
▁سەر	-6.22368
▁کورد	-6.25901
▁ِ	-6.32101
▁کرد	-6.32714
▁یان	-6.36243
▁تا	-6.38811
▁بێت	-6.41647
▁هەرێمی	-6.4259
▁ئەگەر	-6.44914
▁دا	-6.47458
▁سەرۆکی	-6.49564
▁بکات	-6.4967
▁چەند	-6.50308
▁لەم	-6.51054
▁،]	-6.51143
▁دوو	-6.52637
▁هیچ	-6.53459
▁نییە	-6.54153
▁من	-6.56508
▁دوای	-6.59729
▁ئێستا	-6.60465
▁سیاسی	-6.62087
▁,	-6.62253
▁ئەوە	-6.63756
▁خۆیان	-6.65686
▁بێ	-6.65913
▁هەروەها	-6.68719
▁چونکە	-6.70617
▁]	-6.71453
▁دەکەن	-6.719
▁تەنیا	-6.71951
▁حکومەتی	-6.72409
▁ئێمە	-6.76281
▁هەولێر	-6.7659
▁زیاتر	-6.77929
▁بکەن	-6.82326
▁ساڵی	-6.84904
▁بووە	-6.90481
▁بوون	-6.91319
▁کردووە	-6.91488
▁ناو	-6.91554
▁ئێران	-6.92904
▁نێوان	-6.93265
▁بەو	-6.9348
▁بۆیە	-6.93683
▁گوتی	-6.93824
▁سەرۆک	-6.94596
▁سلێمانی	-6.94712
▁تر	-6.94791
▁یەکێتی	-6.9725
▁دەکرێت	-6.97869
▁هەرێم	-6.99025
▁کوردی	-7.00024
▁یەک	-7.00549
▁دەست	-7.00814
▁خەڵکی	-7.01826
▁شاری	-7.02537
▁لەلایەن	-7.04291
▁ئەنجومەنی	-7.07729
▁دەڵێت	-7.0807
▁کەس	-7.09696
▁ڕۆژی	-7.1025
▁کاری	-7.11713
▁پارتی	-7.1473
▁وە	-7.17988
▁تورکیا	-7.19168
▁بەر	-7.2083
▁یانەی	-7.21065
▁ڕایگەیاند	-7.21316
▁وەکو	-7.21501
▁یەکەم	-7.24457
▁10	-7.24623
▁1	-7.25106
▁بەسەر	-7.2551
▁2	-7.25901
▁بەڵکو	-7.28338
▁3	-7.28597
▁هەندێک	-7.28629
▁;	-7.28796
▁ئەمە	-7.29709
▁پێی	-7.29722
▁پێ	-7.2981
▁بکرێت	-7.31954
▁&	-7.32276
▁ناوی	-7.32958
▁گشتی	-7.33256
▁تایبەت	-7.33348
▁بەهۆی	-7.33437
▁ئەمڕۆ	-7.33652
▁2010	-7.33674
▁کوردستانی	-7.35269
▁ل	-7.35388
▁ئەمەریکا	-7.36927
▁د	-7.3747
▁کەرکوک	-7.38518
▁بەرامبەر	-7.38709
▁چەندین	-7.39116
▁2011	-7.3974
▁مرۆڤ	-7.39821
▁سێ	-7.39825
▁لێ	-7.40052
▁م	-7.40874
▁نەک	-7.41294
▁ئەوان	-7.41327
▁دروست	-7.41667
▁وەزارەتی	-7.42647
▁کردنی	-7.42738
▁کۆتایی	-7.43142
▁لایەن	-7.43166
▁ئەمەش	-7.43229
▁بەپێی	-7.43379
▁سەبارەت	-7.43652
▁وەزیری	-7.43982
▁11	-7.44697
▁پێویستە	-7.45777
▁عێراقی	-7.46001
▁12	-7.46509
▁عەلی	-7.46667
▁ئەحمەد	-7.46992
▁داوای	-7.47233
▁–	-7.47406
▁حکومەت	-7.48036
▁ْ	-7.48334
▁\	-7.48813
▁5	-7.49111
▁لای	-7.49343
▁نوێ	-7.49816
▁4	-7.49948
▁*	-7.50255
▁بەم	-7.5062
▁ئیسلامی	-7.50896
▁دەستی	-7.51551
▁هەزار	-7.51738
▁کار	-7.51919
▁چۆن	-7.52525
▁گوتیشی	-7.52546
▁پێش	-7.52654
▁پەرلەمانی	-7.53786
▁بکەین	-7.54383
▁مافی	-7.54419
▁بەشی	-7.54425
▁هەبێت	-7.5584
▁بن	-7.55918
▁بوونی	-7.55943
▁ساڵ	-7.575
▁هۆی	-7.57696
▁بەغدا	-7.58263
▁6	-7.58319
▁بارزانی	-7.58515
▁بەرەو	-7.58567
▁ماوەی	-7.58663
▁لەناو	-7.59163
▁محەمەد	-7.59579
▁چ	-7.60177
▁کاتێک	-7.60533
▁ئەوا	-7.61129
▁پەرلەمان	-7.61528
▁ئازادی	-7.63302
▁2012	-7.63711
▁وا	-7.63982
▁ئەوەیە	-7.6414
▁زۆری	-7.64191
▁باسی	-7.64421
▁یەکێک	-7.65507
▁دژی	-7.66054
▁خەڵک	-7.66185
▁نێو	-7.66305
▁نە	-7.66585
▁دەرەوەی	-7.66753
▁هەمان	-7.67041
▁ن	-7.67243
▁ژیانی	-7.67433
▁هەردوو	-7.68129
▁هێزەکانی	-7.68278
▁نەبێت	-7.68496
▁بەردەوام	-7.69251
▁بەلام	-7.69343
▁دیکە	-7.70028
▁ڕاگەیاند	-7.70055
▁ئەمریکا	-7.70146
▁ُ	-7.70677
▁داعش	-7.70785
▁پاش	-7.72331
▁9	-7.72566
▁2009	-7.73123
▁تۆ	-7.73213
▁فیلمی	-7.73279
▁7	-7.73774
▁'	-7.74394
▁ئاژانسی	-7.74895
▁واتە	-7.74913
▁باس	-7.75054
▁لیستی	-7.75963
▁لەبەر	-7.75997
▁8	-7.76319
▁خولی	-7.76532
▁ئاستی	-7.7789
▁کاتی	-7.78056
▁کراوە	-7.78876
▁ئەندامی	-7.79757
▁دەوڵەتی	-7.80034
▁دەکەین	-7.80164
▁گەورە	-7.8061
▁ئایا	-7.80627
▁20	-7.8101
▁یا	-7.81501
▁تری	-7.81945
▁جیهانی	-7.81964
▁کۆماری	-7.82044
▁پەیوەندی	-7.8248
▁2014	-7.82485
▁گۆڕان	-7.82884
▁گەلی	-7.83474
▁17	-7.83485
▁ئاماژەی	-7.83496
▁هێزی	-7.83952
▁15	-7.84213
▁ئەنجام	-7.84391
▁حیزبی	-7.84729
▁2008	-7.84924
▁پارێزگای	-7.84953
▁بواری	-7.86396
▁هەمیشە	-7.86759
▁ئەوانەی	-7.86762
▁کێشەی	-7.86814
▁بەشداری	-7.87175
▁َ	-7.87329
▁دەسەڵاتی	-7.87523
▁ئەویش	-7.87541
▁ژیان	-7.87587
▁دواتر	-7.88013
▁ب	-7.88045
▁جۆرە	-7.882
▁ژنان	-7.88355
▁16	-7.88537
▁کەم	-7.88636
▁زمانی	-7.89055
▁تەنانەت	-7.89771
▁ک	-7.8986
▁ئەوەش	-7.89911
▁وڵاتانی	-7.89917
▁دووەم	-7.90373
▁%	-7.90814
▁چی	-7.92047
▁جیهان	-7.92318
▁دەسەڵات	-7.92562
▁لەبارەی	-7.92911
▁جگە	-7.92991
▁تەواوی	-7.93077
▁دیکەی	-7.93394
▁چوار	-7.93579
▁هەواڵی	-7.93622
▁تێدا	-7.93733
▁تایبەتی	-7.9408
▁کرا	-7.94111
▁پرۆسەی	-7.94828
▁دەدات	-7.94859
▁دەکرد	-7.95053
▁سوریا	-7.95138
▁پێشمەرگە	-7.95499
▁مانگی	-7.957
▁دەنگی	-7.95978
▁18	-7.96409
▁یاسای	-7.96622
▁لەنێوان	-7.96664
▁ە	-7.97149
▁ژێر	-7.97704
▁quot	-7.991
▁ملیۆن	-7.99598
▁سەردانی	-7.9989
▁خۆ	-8.00397
▁سوپای	-8.00725
▁14	-8.01384
▁وڵاتی	-8.01772
▁30	-8.02077
▁عەرەبی	-8.02145
▁ڕابردوو	-8.02809
▁کردەوە	-8.03329
▁کردن	-8.03642
▁سەرجەم	-8.04345
▁کۆمەڵایەتی	-8.04383
▁سەرۆکایەتی	-8.04593
▁ئەنجامی	-8.04838
▁13	-8.05167
▁لەوەی	-8.05396
▁با	-8.05594
▁جار	-8.05789
▁هونەری	-8.05862
▁ڕۆژ	-8.06114
▁ڕێکخراوی	-8.0645
▁بدات	-8.06479
▁زۆربەی	-8.07035
▁خاوەن	-8.07644
▁یە	-8.07826
▁باش	-8.07837
▁19	-8.08666
▁ڕ	-8.08795
▁نیشتمانی	-8.09047
▁پاراستنی	-8.09322
▁خۆمان	-8.09785
▁هاوکات	-8.10112
▁نەتەوەیی	-8.10496
▁سەرەکی	-8.11156
▁تێیدا	-8.11447
▁بڕیاری	-8.11455
▁ژن	-8.11728
▁ڕۆڵی	-8.1178
▁دوێنێ	-8.11821
▁سیاسیی	-8.12423
▁ڕێگەی	-8.12568
▁هەڵبژاردنی	-8.12591
▁تەواو	-8.13269
▁بەڕێوەبەری	-8.13555
▁وایە	-8.13585
▁بەبێ	-8.13645
▁کوردستاندا	-8.13725
▁گەر	-8.138
▁جەلال	-8.14746
▁نەوت	-8.14765
▁2013	-8.14853
▁جێگری	-8.15193
▁حەسەن	-8.15258
▁پێویستی	-8.1527
▁25	-8.15758
▁بەناوی	-8.1577
▁ڕووی	-8.15924
▁دەبێتە	-8.16009
▁بەدەست	-8.16245
▁داوە	-8.1689
▁ئازاد	-8.16901
▁یاری	-8.17194
▁هێزە	-8.17288
▁یاسا	-8.17476
▁کەسێک	-8.18196
▁خۆم	-8.18208
▁نوێی	-8.18216
▁نا	-8.1854
▁ئابووری	-8.18576
▁شەڕی	-8.18632
▁هێشتا	-8.18695
▁جێی	-8.18715
▁نەبوو	-8.1934
▁خۆیدا	-8.19724
▁بەشێکی	-8.20453
▁بەتایبەتی	-8.20558
▁هەوڵی	-8.20594
▁لەوە	-8.21484
▁ئەی	-8.2159
▁نابێت	-8.21631
▁کات	-8.2166
▁پڕ	-8.22811
▁پێویست	-8.22968
▁نوێنەرانی	-8.23039
▁نزیک	-8.23167
▁دەڵێن	-8.23379
▁21	-8.23692
▁پێشکەش	-8.23733
▁کۆمەڵێک	-8.24408
▁ڕێگای	-8.24555
▁دە	-8.24589
▁دەنگ	-8.24875
▁هەڵبژاردن	-8.24989
▁لیژنەی	-8.25201
▁ژمارەی	-8.25421
▁تەندروستی	-8.25659
▁وڵات	-8.25736
▁هەبوو	-8.26141
▁ئاسایشی	-8.26257
▁باشترین	-8.26313
▁گەورەی	-8.26475
▁ئەندامانی	-8.26746
▁نزیکەی	-8.27419
▁خاوەنی	-8.27654
▁هاوکاری	-8.27693
▁دروستکردنی	-8.2794
▁کەچی	-8.28102
▁گرنگی	-8.28219
▁باڵای	-8.28281
▁»	-8.28447
▁لایەنە	-8.28854
▁دێت	-8.29105
▁دەکەم	-8.29229
▁قۆناغی	-8.29432
▁دیارە	-8.29622
▁وەزیرانی	-8.29688
▁شوێنی	-8.29706
▁هاتووە	-8.29777
▁دێموکراسی	-8.29928
▁بەرهەم	-8.30217
▁یاخود	-8.30235
▁پۆلیسی	-8.30279
▁حیزب	-8.30484
▁بەشێوەیەکی	-8.30614
▁.	-8.30923
▁پێشتر	-8.31156
▁سەربازی	-8.31255
▁سیاسەتی	-8.31269
▁یاریزانی	-8.31436
▁ژمارەیەک	-8.31544
▁ڕەنگە	-8.31584
▁ڕژێمی	-8.31589
▁بەرگری	-8.3177
▁دژ	-8.31869
▁ڕۆژهەڵاتی	-8.32464
▁بدەن	-8.32491
▁دکتۆر	-8.3251
▁ڕاگەیاندنی	-8.32605
▁یەکێتیی	-8.33095
▁پاشان	-8.33205
▁لێی	-8.33264
▁hellip	-8.33513
▁هەتا	-8.33573
▁پەیامنێر	-8.33739
▁خەڵاتی	-8.33826
▁ئە	-8.33969
▁مێژووی	-8.34067
▁لەکاتی	-8.34136
▁بەشێک	-8.34321
▁24	-8.34684
▁عێراقدا	-8.34712
▁فیستیڤاڵی	-8.34866
▁ئیتر	-8.35048
▁22	-8.35085
▁دەتوانێت	-8.35423
▁هۆکاری	-8.35516
▁دێموکراتی	-8.35945
▁ناوچەی	-8.35992
▁شتێک	-8.36318
▁یەکەمی	-8.36512
▁پێنج	-8.36517
▁ڕابردوودا	-8.36916
▁لایەنی	-8.37035
▁23	-8.37159
▁نێودەوڵەتی	-8.37561
▁=	-8.38061
▁کەسی	-8.38128
▁ئەوروپا	-8.38196
▁ئاشکرا	-8.38903
▁گەرمیان	-8.39131
▁مەکتەبی	-8.3918
▁ڕێژەی	-8.39761
▁ّ	-8.40051
▁گرنگ	-8.401
▁بو	-8.40115
▁ع	-8.40257
▁مالکی	-8.40415
▁مەدەنی	-8.40474
▁دەدەن	-8.40494
▁لێرەدا	-8.41048
▁مەبەستی	-8.41212
▁ڕوو	-8.41406
▁ناکات	-8.41421
▁دەستەی	-8.41891
▁دوور	-8.42211
▁کردوە	-8.42302
▁نین	-8.42362
▁یاسایی	-8.42533
▁هەست	-8.42579
▁خودی	-8.43084
▁دەبن	-8.4314
▁بەرهەمی	-8.43403
▁تاڵەبانی	-8.43454
▁خوا	-8.43551
▁مام	-8.43882
▁بەرپرسی	-8.44066
▁دیاری	-8.44107
▁کردنەوەی	-8.44384
▁ش	-8.44404
▁بیر	-8.44476
▁هەم	-8.44584
▁ناوەندی	-8.44996
▁دەیان	-8.45027
▁کاریگەری	-8.45224
▁تاکو	-8.45711
▁نموونە	-8.46154
▁"،	-8.46452
▁مەلا	-8.46851
▁داهاتوو	-8.46883
▁تۆپی	-8.4692
▁ا	-8.47189
▁ئێوە	-8.47321
▁لەژێر	-8.47437
▁ناکرێت	-8.4759
▁ناوبراو	-8.47665
▁دەوڵەت	-8.4776
▁ئێستاش	-8.47861
▁کاک	-8.48015
▁پێکهێنانی	-8.48111
▁عەرەب	-8.48164
▁کاروباری	-8.4817
▁ئاشتی	-8.48613
▁ڕۆژنامەی	-8.48618
▁دەکاتەوە	-8.488
▁دی	-8.49021
▁وڵاتە	-8.49031
▁چارەسەر	-8.49096
▁ئەرکی	-8.49484
▁ت	-8.49852
▁داوا	-8.51018
▁نوری	-8.51018
▁28	-8.51795
▁کۆمەڵگای	-8.5206
▁سنووری	-8.52338
▁بەوەی	-8.52727
▁بۆئەوەی	-8.53079
▁نیە	-8.53147
▁لەدوای	-8.53219
▁چارەسەری	-8.53433
▁26	-8.53483
▁2007	-8.53534
▁مامۆستا	-8.53539
▁27	-8.53652
▁کارێکی	-8.53748
▁پرسی	-8.54035
▁خاڵ	-8.54064
▁ئیسلام	-8.54262
▁دارایی	-8.54341
▁هەروەک	-8.54767
▁بکەم	-8.54818
▁بەمەبەستی	-8.5483
▁پشتیوانی	-8.54932
▁توانای	-8.54972
▁بەتایبەت	-8.55069
▁پڕۆژەی	-8.55172
▁بێگومان	-8.55487
▁بۆچی	-8.55734
▁دوا	-8.55918
▁شتێکی	-8.5601
▁هەڵبژاردەی	-8.56149
▁دەتوانن	-8.56409
▁بەرنامەی	-8.56478
▁جارێکی	-8.56496
▁پلەی	-8.566
▁دهۆک	-8.56646
▁گیانی	-8.56919
▁هاوپەیمانی	-8.57053
▁ڕۆشنبیری	-8.57152
▁عوسمان	-8.57158
▁لەساڵی	-8.5717
▁بەریتانیا	-8.57199
▁مالیکی	-8.57251
▁ئێمه	-8.5759
▁بر	-8.5776
▁بەوە	-8.57807
▁ساڵح	-8.57872
▁هەبووە	-8.57954
▁هات	-8.58207
▁حکوومەتی	-8.58461
▁دەربارەی	-8.58615
▁جیاوازی	-8.5862
▁بەرژەوەندی	-8.58709
▁وەزیران	-8.58798
▁کۆبانی	-8.58923
▁«	-8.58976
▁باری	-8.59035
▁سیستەمی	-8.59035
▁گشتیی	-8.59113
▁زەوی	-8.59375
▁سەرکردایەتی	-8.59458
▁چین	-8.5959
▁مەحمود	-8.59601
▁بودجەی	-8.59715
▁قادر	-8.59811
▁جێگەی	-8.60153
▁کۆمپانیای	-8.60441
▁حوسێن	-8.60466
▁قوربانی	-8.6058
▁پۆلیس	-8.60804
▁ناوچەکە	-8.6084
▁ژمارە	-8.60949
▁com	-8.61349
▁لەبەردەم	-8.61368
▁ئەنجامدانی	-8.61502
▁بەرپرسانی	-8.61611
▁ئەوەشی	-8.6169
▁نەبووە	-8.61733
▁مافەکانی	-8.61758
▁ئەنفال	-8.61978
▁زانستی	-8.62167
▁سەری	-8.62413
▁شێخ	-8.62561
▁شێوەیەکی	-8.62561
▁میسر	-8.62671
▁سەردەمی	-8.62758
▁تووشی	-8.62819
▁هەرچەندە	-8.6285
▁شێوە	-8.62912
▁نوێنەری	-8.62986
▁بەردەم	-8.63017
▁29	-8.63091
▁لەماوەی	-8.63358
▁مستەفا	-8.63426
▁بەڕێز	-8.63787
▁ماڵی	-8.63893
▁چارەسەرکردنی	-8.63974
▁عومەر	-8.64217
▁نێت	-8.64374
▁گەڵ	-8.64399
▁هەیەو	-8.64537
▁شێوەیەک	-8.6465
▁ببێتە	-8.64763
▁کۆمەڵگا	-8.65242
▁‬	-8.65603
▁شەهید	-8.65775
▁دنیا	-8.658
▁کەسێکی	-8.65851
▁نەتەوە	-8.65889
▁بازرگانی	-8.66049
▁ئاسایش	-8.66176
▁بەختیار	-8.66624
▁بۆی	-8.66752
▁ساڵە	-8.66778
▁هێنا	-8.67048
▁توانی	-8.67151
▁سەرکەوتنی	-8.67164
▁ناوچە	-8.67564
▁زانیاری	-8.67609
▁بی	-8.67629
▁ڕۆژانە	-8.67706
▁لەنێو	-8.68109
▁بابەتی	-8.68148
▁کو	-8.68213
▁کێ	-8.68663
▁دەرەوە	-8.68814
▁نیشتمانیی	-8.69096
▁ئاماژە	-8.69234
▁ڕای	-8.69267
▁هە	-8.69293
▁کۆمەڵگەی	-8.69432
▁بکاتەوە	-8.69452
▁سەرەتای	-8.69478
▁مەسەلەی	-8.69735
▁ئەمنی	-8.69782
▁نەوتی	-8.69888
▁جێبەجێکردنی	-8.70519
▁تاران	-8.70886
▁بدرێت	-8.71295
▁پەیامنێری	-8.71315
▁موسڵ	-8.71436
▁هەن	-8.71483
▁نەبوونی	-8.71604
▁دۆلار	-8.71752
▁نوێنەران	-8.71752
▁تائێستا	-8.71874
▁بزووتنەوەی	-8.72029
▁زانکۆی	-8.72287
▁جیاواز	-8.72708
▁تەمەنی	-8.72729
▁بەکارهێنانی	-8.72797
▁کارە	-8.72892
▁دامەزراندنی	-8.72906
▁‮	-8.72967
▁پشت	-8.72981
▁کاتژمێر	-8.73118
▁کێشە	-8.73303
▁بارودۆخی	-8.73598
▁گەل	-8.73673
▁چاودێری	-8.73873
▁تاوەکو	-8.74197
▁لەکاتێکدا	-8.74287
▁پارێزگاری	-8.74322
▁قسە	-8.74912
▁گۆڕینی	-8.74968
▁قسەی	-8.75058
▁دووەمی	-8.75142
▁ئیسرائیل	-8.75184
▁کۆی	-8.75212
▁ئاسایی	-8.7524
▁ڕەوشی	-8.75268
▁هەرگیز	-8.75492
▁ئەمانە	-8.75527
▁دەزگای	-8.75737
▁بەرز	-8.75758
▁خەباتی	-8.7585
▁هەوڵ	-8.75857
▁کۆمەڵەی	-8.76025
▁ئەنجوومەنی	-8.76209
▁ەوە	-8.76258
▁شەڕ	-8.76307
▁لەلایەکی	-8.76343
▁مرۆڤی	-8.76527
▁بەعس	-8.7664
▁دەچێت	-8.76654
▁کەواتە	-8.76697
▁ئەڵڵا	-8.76846
▁سی	-8.7703
▁عەبدوڵڵا	-8.77158
▁سایتی	-8.77844
▁شێوەی	-8.77981
▁منداڵ	-8.78261
▁هەڵوێستی	-8.78268
▁ئەوه	-8.78333
▁جێبەجێ	-8.78376
▁بنەمای	-8.78398
▁خوارەوە	-8.78456
▁باشتر	-8.78535
▁چاوی	-8.78694
▁ئاو	-8.78795
▁زمان	-8.79114
▁تۆمار	-8.79282
▁وەرگرتنی	-8.79515
▁وەڵامی	-8.79931
▁کردو	-8.80026
▁مەسعود	-8.80041
▁ئۆپۆزسیۆن	-8.80048
▁ئەوانیش	-8.80107
▁لەهەموو	-8.80144
▁ئاراستەی	-8.80239
▁ئەوەندە	-8.80291
▁پێکەوە	-8.80497
▁خاڵی	-8.80504
▁ف	-8.80888
▁کەریم	-8.8091
▁کوشتنی	-8.80961
▁پێشمەرگەی	-8.80969
▁ڕاستی	-8.81035
▁بڕی	-8.81095
▁وای	-8.81132
▁جا	-8.81184
▁09	-8.8128
▁بزوتنەوەی	-8.81674
▁ڕاگەیاندن	-8.81764
▁ژمارەیەکی	-8.81808
▁ئەڵمانیا	-8.82279
▁کردبوو	-8.82693
▁گرنگە	-8.82693
▁دیکه	-8.82723
▁جۆرێک	-8.82926
▁گوت	-8.82926
▁دادگای	-8.82941
▁چونکه	-8.83304
▁31	-8.83448
▁شێوازی	-8.83509
▁نووسەر	-8.83691
▁دەرهێنانی	-8.83706
▁ئاوی	-8.83828
▁دەبێتەوە	-8.83889
▁ئامادە	-8.83973
▁یەکێکە	-8.84271
▁شەهیدان	-8.84401
▁دینار	-8.84615
▁کەسانی	-8.84669
▁سیاسەت	-8.84784
▁شەش	-8.84861
▁هەیه	-8.85054
▁کەمال	-8.85177
▁فەرمی	-8.85478
▁ژ	-8.85532
▁ڕاستەوخۆ	-8.85664
▁هەفتەی	-8.85812
▁لەوانە	-8.85944
▁وێنەی	-8.86349
▁پێیان	-8.86568
▁مانای	-8.86599
▁کۆبوونەوەی	-8.86709
▁باشووری	-8.87235
▁خۆت	-8.8733
▁08	-8.87345
▁01	-8.87369
▁خوێن	-8.87408
▁هونەر	-8.87424
▁مانگ	-8.87543
▁زیاد	-8.87551
▁کۆنگرەی	-8.87685
▁پۆستی	-8.88026
▁جۆری	-8.88153
▁شۆڕشی	-8.88169
▁07	-8.88416
▁ئاوێنەنیوز	-8.88663
▁کردووەو	-8.88663
▁تریش	-8.88855
▁خاکی	-8.88855
▁شەو	-8.89087
▁50	-8.89103
▁گۆرانی	-8.89135
▁ئۆباما	-8.8928
▁ڕاست	-8.89304
▁بڵاو	-8.89538
▁چەکی	-8.89578
▁03	-8.89586
▁گوێرەی	-8.89723
▁02	-8.8978
▁جەنگی	-8.8978
▁ڕۆژێک	-8.89804
▁لەوێ	-8.89901
▁چالاکی	-8.8995
▁تەمەن	-8.89998
▁04	-8.90039
▁پڕۆژە	-8.90047
▁ئایینی	-8.90063
▁هەڵەبجە	-8.90128
▁مێژوو	-8.90363
▁دان	-8.90388
▁دووبارە	-8.90404
▁فیدراڵ	-8.90493
▁دایک	-8.90689
▁ئیبراهیم	-8.90738
▁مەترسی	-8.90827
▁هەمو	-8.90852
▁س	-8.91089
▁گروپی	-8.91195
▁سیاسییەکان	-8.91466
▁گەورەترین	-8.91475
▁تازە	-8.91532
▁06	-8.91614
▁دەدرێت	-8.91614
▁05	-8.91639
▁بەرەی	-8.9168
▁خەبات	-8.91796
▁ئامانجی	-8.91812
▁چەک	-8.91903
▁شەممە	-8.92167
▁توندوتیژی	-8.92233
▁یەکەمین	-8.92242
▁مایەی	-8.92258
▁خوێندنی	-8.92325
▁سوید	-8.92383
▁سکرتێری	-8.92474
▁بڕیار	-8.92565
▁شێوەیە	-8.9264
▁کۆمەڵی	-8.92648
▁کارەکانی	-8.92773
▁جەماوەری	-8.92831
▁ناوچەکانی	-8.93015
▁مادەی	-8.93098
▁منیش	-8.93132
▁ئێرانی	-8.93224
▁سێیەم	-8.93282
▁ناوخۆی	-8.93374
▁ئێستای	-8.9371
▁خۆش	-8.93802
▁خوای	-8.93988
▁ئابوری	-8.93996
▁تاکە	-8.94131
▁ئەوانە	-8.94325
▁دیار	-8.94342
▁دەتوانین	-8.94368
▁سە	-8.94494
▁کاتێکدا	-8.94672
▁ئیدی	-8.94783
▁بەکار	-8.94825
▁لەبەرامبەر	-8.94851
▁لەشاری	-8.9491
▁تێدایە	-8.95081
▁بڕیارە	-8.95106
▁هەستی	-8.95208
▁جوان	-8.95507
▁سەرەتا	-8.95782
▁ناتوانێت	-8.95799
▁گشت	-8.96082
▁شێعر	-8.96548
▁پیاو	-8.96574
▁تاک	-8.9679
▁سەدان	-8.9686
▁دەکرێن	-8.96929
▁ر	-8.97146
▁لا	-8.97164
▁خۆشەویستی	-8.97268
▁هێزێکی	-8.97268
▁لەڕێگەی	-8.97364
▁پەیوەندییەکانی	-8.97635
▁چاو	-8.97705
▁سەرچاوەی	-8.9781
▁سیستمی	-8.97932
▁بۆتە	-8.97967
▁هونەرمەند	-8.97976
▁گەندەڵی	-8.98055
▁لەپێناو	-8.98073
▁لەڕووی	-8.98073
▁باشە	-8.9809
▁خوێندن	-8.98143
▁ئێمەش	-8.98169
▁دەستیان	-8.98257
▁)-	-8.9831
▁دابین	-8.98415
▁وشەی	-8.98424
▁ڕۆژئاوای	-8.98504
▁ئەمساڵ	-8.98557
▁یەکتر	-8.98574
▁یەکگرتووەکان	-8.98574
▁بکەنەوە	-8.98777
▁خۆیەوە	-8.98963
▁کردووه	-8.98981
▁ئەندام	-8.99061
▁بارەی	-8.99069
▁نیشان	-8.99265
▁هەرچی	-8.99398
▁ڕوون	-8.99969
▁دەزانن	-8.99978
▁ـ	-9.00157
▁بهێنێت	-9.00238
▁شاعیر	-9.00453
▁نرخی	-9.00453
▁دیکەش	-9.00471
▁ملیار	-9.00552
▁بەدوای	-9.00768
▁دڵی	-9.01003
▁بۆیه	-9.0113
▁ڕۆژئاوا	-9.01211
▁بیری	-9.01266
▁ڕازی	-9.01556
▁کەسانەی	-9.01574
▁پێشووی	-9.01656
▁چوارچێوەی	-9.01793
▁سەرەڕای	-9.01902
▁عەزیز	-9.01966
▁شار	-9.02149
▁شۆڕش	-9.02149
▁نمایش	-9.02149
▁کەسایەتی	-9.02167
▁سەیری	-9.02304
▁کراون	-9.02414
▁بەرانبەر	-9.02442
▁خۆشی	-9.02552
▁سینەمایی	-9.02846
▁ئیدارەی	-9.02855
▁_	-9.02947
▁ناوخۆ	-9.02947
▁بەداخەوە	-9.03002
▁کەمتر	-9.0303
▁حاجی	-9.03187
▁دایە	-9.03242
▁سووریا	-9.03391
▁ڕەوانەی	-9.03511
▁دەبینین	-9.0352
▁ژنانی	-9.03631
▁کۆمار	-9.03817
▁ئەمەریکی	-9.04283
▁دەگرێت	-9.04358
▁یارییەکانی	-9.04377
▁أ	-9.04545
▁سوپاسی	-9.04592
▁قەزای	-9.04658
▁هتد	-9.04704
▁دەگەڕێتەوە	-9.04714
▁نیشتیمانی	-9.04733
▁دادگا	-9.0478
▁140	-9.04789
▁سەربەخۆیی	-9.04808
▁زانکۆ	-9.05043
▁هاتنی	-9.05165
▁بووم	-9.05184
▁داهاتوودا	-9.05193
▁دەزانێت	-9.05278
▁بڵێین	-9.05363
▁هاوڵاتیان	-9.05543
▁پێک	-9.05818
▁زۆرینەی	-9.06036
▁www	-9.06283
▁ماڵ	-9.06341
▁خزمەتی	-9.06723
▁بین	-9.06732
▁کتێبی	-9.06761
▁نووسین	-9.06818
▁ڕێگە	-9.06876
▁دەقی	-9.06914
▁ئاینی	-9.06924
▁40	-9.06943
▁ڕێکخراوە	-9.06943
▁بەگشتی	-9.06962
▁پایتەختی	-9.07039
▁ئێستادا	-9.07299
▁بەردەوامی	-9.07491
▁باشی	-9.07568
▁سەدەی	-9.07588
▁بابەتە	-9.07733
▁منداڵان	-9.0781
▁کورسی	-9.07849
▁×	-9.07878
▁ئەدەبی	-9.08033
▁کەرتی	-9.08062
▁ح	-9.0811
▁100	-9.08237
▁چۆنیەتی	-9.08305
▁جێ	-9.0846
▁پێویسته	-9.08509
▁ڕاستە	-9.08538
▁دوایی	-9.08607
▁یارمەتی	-9.08763
▁جێگای	-9.08929
▁بوونە	-9.09027
▁بگرن	-9.09027
▁پشتگیری	-9.09076
▁کۆبانێ	-9.09105
▁هەریەک	-9.09115
▁ئا	-9.09125
▁بەرچاو	-9.09194
▁بۆیان	-9.09223
▁خوێندنەوەی	-9.09233
▁هێڵی	-9.0941
▁کوردستانە	-9.0941
▁تیرۆر	-9.09459
▁بریندار	-9.09508
▁@	-9.09597
▁پ	-9.09744
▁پێم	-9.09813
▁سەرچاوە	-9.09863
▁بەهێز	-9.09902
▁سەعید	-9.09912
▁زۆرێک	-9.10061
▁لێدوانێکی	-9.10071
▁پێناو	-9.101
▁گفتوگۆ	-9.10318
▁هی	-9.10388
▁هێرشی	-9.10408
▁نییەو	-9.10467
▁لەهەرێمی	-9.10656
▁هەینی	-9.10706
▁فەرەنسا	-9.11195
▁کۆمەڵگە	-9.11215
▁سروشتی	-9.11255
▁دانانی	-9.11265
▁کوردە	-9.11275
▁ال	-9.11315
▁بیست	-9.11416
▁کارەبا	-9.11456
▁ماڵپەڕی	-9.11466
▁سەربەخۆی	-9.11536
▁دنیای	-9.11576
▁ئەمرۆ	-9.11767
▁هێناوە	-9.11788
▁کێشەکانی	-9.11828
▁ببێت	-9.11908
▁زیاتری	-9.11989
▁دەستوور	-9.12029
▁بکە	-9.1208
▁شوێن	-9.1211
▁58	-9.12231
▁چییە	-9.12373
▁شێعری	-9.12434
▁دێ	-9.12485
▁هەزاران	-9.12485
▁زیندانی	-9.12637
▁دەیهەوێت	-9.12647
▁هێز	-9.12718
▁ئەزموونی	-9.12901
▁دەستووری	-9.12983
▁ڕووبەڕووی	-9.13319
▁درێژەی	-9.1334
▁یەکگرتووەکانی	-9.1336
▁چینی	-9.13432
▁لێپرسراوی	-9.13545
▁خەریکی	-9.13596
▁جیا	-9.13668
▁0	-9.1376
▁بکرێن	-9.1376
▁شارۆچکەی	-9.13853
▁هەموومان	-9.13894
▁شارە	-9.13914
▁لەبەرئەوەی	-9.13925
▁دەتوانیت	-9.1411
▁دەستگیر	-9.1413
▁لەئێستادا	-9.14182
▁ماوەیەکی	-9.14244
▁ڕۆژنامەنووس	-9.14244
▁یش	-9.14523
▁واتا	-9.14564
▁داهاتووی	-9.14606
▁نەتەوەی	-9.14709
▁ناوەڕاست	-9.14792
▁هاوبەش	-9.14979
▁کردووەتەوە	-9.15156
▁نەخۆشی	-9.15198
▁وڵاتەکەی	-9.15563
▁تاوانی	-9.15804
▁تشرینی	-9.15804
▁تەنها	-9.15867
▁ئارام	-9.16087
▁سەنتەری	-9.1614
▁ئامانج	-9.16192
▁نێونەتەوەیی	-9.16435
▁سەد	-9.16445
▁ڕزگار	-9.16709
▁کارکردن	-9.16762
▁نووسینی	-9.16783
▁کەناڵی	-9.17006
▁سپی	-9.17091
▁تی	-9.17165
▁وتیشی	-9.17261
▁سزای	-9.17463
▁پەیوەندیی	-9.17719
▁جوانی	-9.17858
▁کوڕی	-9.17987
▁هاووڵاتی	-9.18115
▁یادی	-9.18126
▁پەکەکە	-9.18158
▁کاریگەریی	-9.18308
▁سەربەخۆ	-9.18534
▁ئێمەی	-9.18588
▁مێژوویی	-9.18588
▁هەموویان	-9.18599
▁باوکی	-9.18621
▁شارەوانی	-9.18696
▁ئەمریکی	-9.18739
▁ڕاپۆرتی	-9.18783
▁کوردستانیش	-9.18869
▁ئامادەیی	-9.18945
▁ئەگەری	-9.18945
▁کوردستانەوە	-9.19042
▁لێرە	-9.19107
▁سینەمای	-9.19183
▁دەکەوێتە	-9.19194
▁گوندی	-9.19194
▁کارو	-9.19215
▁دەزگا	-9.19313
▁لەگەل	-9.19324
▁بڵێم	-9.19378
▁ماوە	-9.19411
▁گوتەبێژی	-9.19465
▁بگرێت	-9.19563
▁کانی	-9.19585
▁بدەین	-9.19672
▁جیهاندا	-9.19672
▁ئەگەرچی	-9.19737
▁سنوری	-9.19934
▁قەیرانی	-9.20119
▁ماددەی	-9.20295
▁ئەمر	-9.20481
▁کۆمەڵ	-9.20988
▁بووەو	-9.21043
▁کێشەکان	-9.21098
▁سیاسییەکانی	-9.21319
▁دەزانین	-9.21486
▁گرتووە	-9.21497
▁خۆیەتی	-9.21541
▁سەدام	-9.21752
▁هەڵبژاردنەکان	-9.21752
▁لەبواری	-9.21853
▁ئینگلیزی	-9.21864
▁ئاوێنە	-9.21942
▁کەسە	-9.21975
▁بوە	-9.22109
▁ئاسمانی	-9.22277
▁نەکردووە	-9.22411
▁موحەممەد	-9.22444
▁ۆ	-9.225
▁بەڕێوەبەرایەتی	-9.22568
▁چاک	-9.22568
▁هێندە	-9.22702
▁دۆخی	-9.22725
▁هاوبەشی	-9.22736
▁ڕەش	-9.22736
▁دەستنیشان	-9.22882
▁هەڵبژاردنەکانی	-9.22893
▁پرسیار	-9.22905
▁کوردو	-9.22938
▁دەبوو	-9.22995
▁بگرە	-9.23164
▁زوو	-9.23186
▁پێگەی	-9.23232
▁شتی	-9.2348
▁فۆتۆ	-9.2365
▁خراپ	-9.23684
▁هێنانی	-9.23832
▁شەوی	-9.23911
▁تیپی	-9.23991
▁سەید	-9.24105
▁میانەی	-9.24127
▁وڵاته	-9.24162
▁پەروەردەی	-9.24173
▁کەوا	-9.24184
▁)،	-9.24287
▁ئارامی	-9.2439
▁دابەشکردنی	-9.24561
▁مرۆڤایەتی	-9.24664
▁مەبەست	-9.24802
▁خورماتوو	-9.251
▁هەولێری	-9.25239
▁بووه	-9.25388
▁هۆڵی	-9.25446
▁ناکەن	-9.25469
▁خواست	-9.25481
▁کاتێ	-9.25481
▁دڵ	-9.25527
▁یەکگرتوو	-9.25851
▁فەرماندەی	-9.25932
▁لەهەر	-9.25955
▁لایەک	-9.26222
▁چاوەڕوانی	-9.26222
▁وێڕای	-9.2635
▁2003	-9.2642
▁http	-9.26607
▁گۆران	-9.26607
▁دابەش	-9.26619
▁دەدا	-9.26817
▁بنکەی	-9.26841
▁داواکاری	-9.26852
▁تورک	-9.26899
▁ناتوانن	-9.26958
▁نەکراوە	-9.2697
▁ژی	-9.26981
▁پەنا	-9.2704
▁پەروەردە	-9.27134
▁جەنگ	-9.27169
▁کەرکووک	-9.27216
▁ڕەوتی	-9.27369
▁بەردەوامە	-9.27451
▁پێشوو	-9.27475
▁ق	-9.2751
▁هێرش	-9.27758
▁سەرکەوتن	-9.27781
▁پارەی	-9.27841
▁گرت	-9.279
▁هەرە	-9.28042
▁ڕەخنەی	-9.28137
▁نێچیرڤان	-9.2816
▁سەرچاوەیەک	-9.28196
▁بتوانن	-9.28208
▁ڕاشیگەیاند	-9.28255
▁ساڵانی	-9.28374
▁کوشتن	-9.28386
▁بتوانێت	-9.28481
▁حەوت	-9.28624
▁زۆرترین	-9.28672
▁وەها	-9.28731
▁جارێک	-9.28803
▁نەوشیروان	-9.28982
▁بینی	-9.29138
▁کەلار	-9.29138
▁حوکمی	-9.29173
▁هەنگاوی	-9.29317
▁ماف	-9.29413
▁بکرێ	-9.29485
▁سەرچاوەیەکی	-9.29545
▁ئینجا	-9.29618
▁سبەی	-9.29678
▁کاتدا	-9.29726
▁دەوێت	-9.29847
▁ئەدەب	-9.29943
▁پشتی	-9.30052
▁ڕێکخستنی	-9.301
▁ئەنجامدا	-9.30245
▁ساڵەی	-9.30258
▁کام	-9.30427
▁علیە	-9.30512
▁ئاگاداری	-9.30536
▁پێچەوانەی	-9.30622
▁خانەقین	-9.30755
▁مانەوەی	-9.30816
▁دەنگدان	-9.3095
▁لەلای	-9.31109
▁هەمووی	-9.3117
▁سەردەشت	-9.31219
▁لەکوردستان	-9.31219
▁نابێ	-9.31243
▁بکرێتەوە	-9.31292
▁لایەنەکانی	-9.31488
▁کران	-9.31513
▁دێتە	-9.31525
▁کۆ	-9.31697
▁حەمە	-9.31795
▁داهاتی	-9.31845
▁فی	-9.32005
▁ڕێز	-9.32128
▁ڕیزبەندی	-9.32239
▁دابینکردنی	-9.32251
▁فیلمه	-9.32462
▁دەکەنەوە	-9.32598
▁جەنابی	-9.32722
▁ڕوسیا	-9.32734
▁خودا	-9.32759
▁هەردوولا	-9.32784
▁عەبدوڵا	-9.33083
▁چەکدارانی	-9.3312
▁موزیکی	-9.33257
▁فوئاد	-9.33495
▁ئیسماعیل	-9.33507
▁بەهیچ	-9.33607
▁دۆزینەوەی	-9.33795
▁ڕەخنە	-9.3382
▁لەوانەیە	-9.33833
▁:"	-9.33871
▁شانۆی	-9.34009
▁لاوان	-9.34261
▁ئەبێت	-9.34286
▁ئەکات	-9.34349
▁کابینەی	-9.34387
▁باڵا	-9.34513
▁لێکۆڵینەوە	-9.34526
▁دواجار	-9.34538
▁ئەسەد	-9.34551
▁ڕزگاری	-9.34639
▁ڕێک	-9.34715
▁نازانم	-9.34817
▁لەگەڵدا	-9.34906
▁ڕاپەڕین	-9.35045
▁تیرۆریستی	-9.35096
▁پێغەمبەر	-9.35096
▁بەهەمان	-9.35236
▁چیرۆکی	-9.35312
▁کردە	-9.35325
▁دانیشتوانی	-9.3544
▁گەیشتن	-9.35453
▁ئافرەت	-9.35478
▁حیزبە	-9.35606
▁دەهێنێت	-9.35618
▁کورتە	-9.35631
▁باشوور	-9.35964
▁ئیسپانیا	-9.35977
▁ئاگادار	-9.36388
▁پرسیاری	-9.36427
▁گومان	-9.36427
▁ئەوەیان	-9.36465
▁کەی	-9.36465
▁ئێوارەی	-9.36478
▁ئازادیی	-9.36504
▁ترەوە	-9.3653
▁بەڕێوەچوو	-9.36556
▁بەڵێ	-9.36659
▁گۆڤاری	-9.36672
▁ڕۆژانی	-9.36736
▁هیچی	-9.3684
▁هەشت	-9.37008
▁یاریی	-9.37125
▁باسە	-9.37255
▁بەرهەمهێنانی	-9.37281
▁حزبە	-9.37372
▁شارەکانی	-9.37463
▁گوتم	-9.37489
▁پێدانی	-9.37541
▁گوێ	-9.37567
▁چاپکردن	-9.37684
▁بەیانی	-9.37893
▁بەسەردا	-9.37932
▁جامی	-9.38011
▁ئەندامێکی	-9.38063
▁مەجید	-9.38286
▁پارە	-9.38365
▁دایکی	-9.38404
▁ئازار	-9.38562
▁خوێنی	-9.38601
▁کۆمەڵە	-9.38601
▁ڕێگا	-9.38773
▁وان	-9.38826
▁سەیر	-9.38865
▁بەشدار	-9.38931
▁نەبوون	-9.38958
▁کۆمپانیا	-9.38997
▁یەکی	-9.39063
▁چیتر	-9.39116
▁ڕەسمی	-9.39129
▁نەکات	-9.39169
▁بەجۆرێک	-9.39315
▁خزمەت	-9.39368
▁پێوە	-9.39421
▁پارتە	-9.39474
▁بەگوێرەی	-9.39527
▁ساڵێک	-9.39713
▁پر	-9.3974
▁پێشوازی	-9.40007
▁دراوە	-9.40047
▁دەوروبەری	-9.40194
▁لقی	-9.40288
▁گۆڕانکاری	-9.40328
▁بەشداریی	-9.40475
▁لەسەرەتای	-9.40636
▁لەوەش	-9.40798
▁کەمی	-9.40919
▁فەرهەنگی	-9.40973
▁ڕێکخراوەکانی	-9.40973
▁پلانی	-9.41081
▁بکەیت	-9.41121
▁ئەوی	-9.41189
▁گەڕانەوەی	-9.41297
▁هونەرمەندی	-9.41324
▁ئەوانی	-9.41419
▁ترس	-9.41446
▁هیوای	-9.41459
▁سۆران	-9.41608
▁35	-9.41636
▁کان	-9.41676
▁بریتییە	-9.41744
▁ناوە	-9.41771
▁کوردەکان	-9.41839
▁لەدژی	-9.41853
▁ڕۆژە	-9.41853
▁خاک	-9.4188
▁ئایندەی	-9.41975
▁گەلانی	-9.42084
▁خۆپیشاندان	-9.42098
▁وەرزی	-9.4218
▁شوبات	-9.42262
▁کۆچی	-9.42453
▁بهێنن	-9.42658
▁ئاخر	-9.42809
▁ستراتیژی	-9.42809
▁نەماوە	-9.42878
▁نەخۆشخانەی	-9.42933
▁وسلم	-9.42947
▁2006	-9.43098
▁لەندەن	-9.43153
▁ساز	-9.43222
▁جەمال	-9.43291
▁چاکسازی	-9.43332
▁کردەوه	-9.43471
▁صلی	-9.43664
▁بەناو	-9.43858
▁سیروان	-9.43872
▁دەیانهەوێت	-9.43969
▁پزیشکی	-9.43983
▁ماوەیەک	-9.43997
▁توند	-9.44122
▁ئافرەتان	-9.44248
▁ئەوەندەی	-9.44415
▁گوایە	-9.44625
▁وەکوو	-9.44736
▁پەسەند	-9.44778
▁گیان	-9.44792
▁لەعیراق	-9.4489
▁خۆیاندا	-9.44989
▁گووتی	-9.45087
▁ناوداری	-9.45101
▁دانی	-9.45185
▁مەدرید	-9.45199
▁پێمان	-9.45228
▁زۆرە	-9.45242
▁مە	-9.45382
▁زۆریان	-9.45396
▁نیشتمان	-9.45523
▁سوود	-9.45537
▁تردا	-9.45552
▁بون	-9.45594
▁کچە	-9.45735
▁لایەنەکان	-9.45848
▁گەورەیە	-9.45863
▁ناچار	-9.45877
▁گەلەکەمان	-9.46047
▁باشوری	-9.46146
▁سەرکەوت	-9.46174
▁بارەیەوە	-9.46189
▁کاتەی	-9.46373
▁بونی	-9.46416
▁دەگاتە	-9.46459
▁ناونیشانی	-9.46487
▁دەکاتە	-9.46544
▁چەکداری	-9.46601
▁ئامادەی	-9.46858
▁ً	-9.46987
▁ڕێی	-9.46987
▁شانۆ	-9.47059
▁ململانێی	-9.47059
▁دەروونی	-9.47102
▁دەزگاکانی	-9.47188
▁هاووڵاتیان	-9.47217
▁شیعە	-9.47317
▁45	-9.47331
▁هێزه	-9.47346
▁مامۆستای	-9.47374
▁جاران	-9.47432
▁شوێنێکی	-9.47461
▁بەمەش	-9.47518
▁دیکەوە	-9.4759
▁دەخاتە	-9.47619
▁ناحیەی	-9.47633
▁کۆکردنەوەی	-9.47662
▁لایەکی	-9.47879
▁گونجاو	-9.48023
▁گفتوگۆی	-9.48052
▁هەمووان	-9.48067
▁قوتابی	-9.48096
▁کەسوکاری	-9.48444
▁هاوڵاتیانی	-9.48502
▁دەکەوێت	-9.48618
▁ژنی	-9.48633
▁میوانداری	-9.48691
▁منداڵی	-9.48705
▁زۆرجار	-9.48778
▁کاروان	-9.48837
▁باران	-9.49114
▁باڵیۆزی	-9.49173
▁فەرمانی	-9.49187
▁پێکهاتەی	-9.49261
▁گرفتی	-9.49319
▁هەڕەشەی	-9.49334
▁هەروا	-9.49422
▁خستەڕوو	-9.4951
▁نوێنەرایەتی	-9.49642
▁لێژنەی	-9.49686
▁ڕوونیکردەوە	-9.49701
▁کی	-9.49716
▁دەبینێت	-9.4973
▁گیانیان	-9.4976
▁هێندەی	-9.49907
▁سەرکەوتوو	-9.50069
▁هاتە	-9.50084
▁گەرمیانی	-9.50335
▁کاتە	-9.5038
▁بەدەستهێنانی	-9.50439
▁خێزان	-9.50513
▁لەچوارچێوەی	-9.50602
▁دانیشتنی	-9.50766
▁بەجێ	-9.5087
▁مردن	-9.50885
▁لەچەند	-9.50914
▁شت	-9.50929
▁شاندی	-9.50989
▁مافە	-9.51048
▁تورکی	-9.51108
▁ئاماژەیە	-9.51183
▁نووسەری	-9.51362
▁لەسەری	-9.51437
▁لێرەوە	-9.51467
▁باکووری	-9.51512
▁دەسەلات	-9.51557
▁ڕۆحی	-9.51557
▁چەندە	-9.51587
▁دواتریش	-9.51617
▁دەرکەوت	-9.51632
▁تاوان	-9.51677
▁یاریزان	-9.51977
▁هەنگاو	-9.52022
▁دەبات	-9.52083
▁ئەمه	-9.52173
▁دەسەلاتی	-9.52309
▁سەرەوە	-9.52324
▁گواستنەوەی	-9.52369
▁دەردەکەوێت	-9.5246
▁وەلی	-9.52611
▁خالید	-9.52642
▁00	-9.52687
▁کردبێت	-9.52687
▁ئەردۆغان	-9.52824
▁ڕووداوەکانی	-9.52839
▁ئێراق	-9.52869
▁پاڵپشتی	-9.52899
▁لایەنێک	-9.52915
▁بۆچوونی	-9.5293
▁میراودەلی	-9.52945
▁ئاوا	-9.52991
▁ئەکەن	-9.53021
▁ناوخۆیی	-9.53067
▁نهێنی	-9.53082
▁دەڵێم	-9.53112
▁ڕاگرتنی	-9.53127
▁ئەمین	-9.53371
▁درێژ	-9.53402
▁دیسان	-9.53463
▁تیایدا	-9.53616
▁ئەوەشدا	-9.53723
▁خراپی	-9.53738
▁سەرقاڵی	-9.53738
▁کەمکردنەوەی	-9.5383
▁ڕاستەقینەی	-9.53876
▁یاریگای	-9.53953
▁بانگەشەی	-9.5406
▁کرێکار	-9.5406
▁بیانی	-9.54076
▁فراکسیۆنی	-9.54137
▁دژایەتی	-9.54168
▁درا	-9.5426
▁یەکسانی	-9.54414
▁تەرخان	-9.54476
▁://	-9.54631
▁فیلم	-9.54646
▁باکوری	-9.54692
▁پیشەسازی	-9.54708
▁پێکرد	-9.54754
▁خستە	-9.54816
▁دادوەری	-9.54816
▁لەمەوبەر	-9.54832
▁لاوانی	-9.54909
▁دەبنە	-9.54925
▁بەلای	-9.54971
▁ئێرە	-9.55111
▁جەماوەر	-9.55157
▁خاتوو	-9.55157
▁دەژین	-9.55157
▁سەرۆکایەتیی	-9.55173
▁زیانی	-9.55188
▁ئەفغانستان	-9.55235
▁وتەی	-9.55251
▁چارەنووسی	-9.55297
▁لەمەڕ	-9.5536
▁ئامادەبوونی	-9.55391
▁کوردیش	-9.55453
▁ص	-9.5564
▁ڕاوێژکاری	-9.5564
▁بەهەموو	-9.55781
▁ئایین	-9.55796
▁کوژراون	-9.55859
▁بەشار	-9.55875
▁گەلێک	-9.56047
▁پیرۆزبایی	-9.56125
▁ڕیال	-9.56172
▁کاریان	-9.56219
▁زمانێکی	-9.56361
▁نەتەوه	-9.56361
▁خێزانی	-9.56676
▁2004	-9.56692
▁نەکرد	-9.56692
▁دەریا	-9.56707
▁خوێنەر	-9.56755
▁کاوە	-9.56786
▁جەژنی	-9.56834
▁دەسەڵاتە	-9.56976
▁هێمن	-9.56992
▁ڕەزامەندی	-9.56992
▁هەوڵەکانی	-9.57182
▁بیت	-9.57309
▁دەچێتە	-9.5734
▁سلێمان	-9.5734
▁کارگێڕی	-9.57595
▁وه	-9.57754
▁بزانن	-9.57818
▁ئەکتەری	-9.57834
▁+	-9.57978
▁وڵاتێکی	-9.5809
▁دەشێت	-9.58121
▁خۆتان	-9.58138
▁دین	-9.58154
▁هەڵگری	-9.58154
▁توشی	-9.58346
▁گەیاندنی	-9.58346
▁بەبۆنەی	-9.58362
▁کشتوکاڵ	-9.58394
▁میدیا	-9.58426
▁لەدەرەوەی	-9.58474
▁پیاوان	-9.58474
▁هەواڵ	-9.5849
▁پرسە	-9.58522
▁کرێکاران	-9.58587
▁لەمبارەیەوه	-9.58619
▁جەستەی	-9.5878
▁کرایەوە	-9.5886
▁ئاب	-9.58925
▁پاک	-9.59038
▁لایەنێکی	-9.59086
▁مامەڵە	-9.59151
▁کۆنگرە	-9.59313
▁دەزانم	-9.59345
▁کۆن	-9.59345
▁برینداربوون	-9.59361
▁وەبەرهێنان	-9.59378
▁سیاسییە	-9.5941
▁دەکەیت	-9.59475
▁ئاسان	-9.59491
▁زانست	-9.59507
▁پەرەپێدانی	-9.5954
▁60	-9.59605
▁دوایین	-9.59605
▁شوێنە	-9.59605
▁ناڕەزایی	-9.59605
▁سەدر	-9.59621
▁چەپ	-9.59653
▁چالاکوانی	-9.59735
▁ڕەنگی	-9.59751
▁کێشەو	-9.59751
▁زانا	-9.59816
▁بووین	-9.59849
▁عێراقەوە	-9.59898
▁کەمێک	-9.60077
▁بەڕاستی	-9.60158
▁گروپە	-9.60158
▁بارەیەوه	-9.60224
▁درێژە	-9.60224
▁منی	-9.6024
▁پێشەوە	-9.60273
▁دروستبوونی	-9.60306
▁بریتی	-9.60338
▁دۆسیەی	-9.60387
▁سیاسیەکان	-9.60387
▁نی	-9.60551
▁پارێزگاکانی	-9.60568
▁بەدی	-9.60584
▁کوژران	-9.60584
▁کرێکارانی	-9.60617
▁کۆمیتەی	-9.60699
▁نەوەی	-9.60732
▁خزمەتگوزاری	-9.6083
▁وێنە	-9.60946
▁توانا	-9.61094
▁کچان	-9.61193
▁سەرنجی	-9.61226
▁بزانین	-9.61242
▁هیوا	-9.61242
▁ئیتالیا	-9.61259
▁بڵێن	-9.61325
▁سینەما	-9.61358
▁کانونی	-9.61424
▁بەرچاوی	-9.61457
▁ئاماژه	-9.61623
▁بەس	-9.61706
▁پەیامی	-9.61872
▁چاپ	-9.61888
▁سەرباری	-9.61971
▁پیرۆز	-9.62005
▁لێیان	-9.62021
▁of	-9.62054
▁ئەمڕۆی	-9.62054
▁دو	-9.62071
▁وەزارەت	-9.62071
▁دەکرا	-9.62171
▁ئیسپانی	-9.62338
▁جەختی	-9.62388
▁مرۆڤەکان	-9.62405
▁ڕەشید	-9.62405
▁ڕۆڵێکی	-9.62421
▁بریتین	-9.62488
▁ڕۆژنامەوانی	-9.62538
▁دەگرێتەوە	-9.62639
▁نەکەن	-9.62672
▁پتر	-9.62722
▁بەڕێوە	-9.62773
▁فیلمەکانی	-9.6279
▁کۆمەلایەتی	-9.62806
▁هاوڕێ	-9.62823
▁جەعفەر	-9.62873
▁یەکێکیان	-9.62941
▁پێشبینی	-9.62957
▁ڕاستەقینە	-9.63058
▁کەسانە	-9.63092
▁برا	-9.6321
▁ناکۆکی	-9.63243
▁پەیوەندییە	-9.63311
▁2005	-9.63328
▁ئابووریی	-9.63361
▁خواستی	-9.63361
▁بێتە	-9.63412
▁ڕووسیا	-9.63412
▁چەمکی	-9.63429
▁کشتوکاڵی	-9.63598
▁بەتەواوی	-9.63767
▁پاڵ	-9.63818
▁دۆلاری	-9.63885
▁بازاڕی	-9.6397
▁دەرگای	-9.6397
▁نمایشی	-9.63987
▁هاوکاریی	-9.63987
▁کورته	-9.64123
▁حوزەیران	-9.6431
▁سەرچاوەکه	-9.64327
▁میدیای	-9.64344
▁سەعات	-9.64515
▁کۆبوونەوە	-9.64583
▁ئاڕاستەی	-9.646
▁دژە	-9.64634
▁بکەینەوە	-9.64702
▁بەهاری	-9.64702
▁زاخۆ	-9.64719
▁بەشە	-9.64737
▁لەهەمان	-9.64925
▁حاڵەتی	-9.64993
▁دەوری	-9.65165
▁تاکی	-9.65216
▁دەدەین	-9.65234
▁ئەحمەدی	-9.65251
▁دانا	-9.65251
▁دیاردەی	-9.65268
▁ڕیزی	-9.65388
▁وەرزشی	-9.65457
▁پلە	-9.65457
▁دەسەڵاتدارانی	-9.65492
▁گرووپی	-9.6563
▁منداڵانی	-9.65664
▁هاتنە	-9.65664
▁ئاشکرایە	-9.65681
▁سەرکردە	-9.6575
▁پیاوە	-9.65768
▁سەرنج	-9.65785
▁کتێب	-9.65785
▁کارەبای	-9.65854
▁پەیوەست	-9.65889
▁دەم	-9.65906
▁دادەنرێت	-9.65958
▁ون	-9.65958
▁کەرکوکی	-9.65958
▁بڵاوکردنەوەی	-9.6601
▁سامانی	-9.66096
▁نەکرێت	-9.66131
▁پێویستیان	-9.66183
▁ناوچەیەکی	-9.66201
▁مەڵبەندی	-9.66218
▁پێشکەوتنی	-9.66305
▁شارەکە	-9.66392
▁34	-9.66444
▁دیاریکردنی	-9.66531
▁سێبەری	-9.66566
▁نیو	-9.66635
▁لەیەک	-9.66653
▁بودجە	-9.6674
▁ڕاستیدا	-9.66914
▁نییه	-9.66932
▁واته	-9.67002
▁توانیان	-9.67264
▁بنەماڵەی	-9.67317
▁لوبنان	-9.67317
▁جاری	-9.6751
▁تیا	-9.67616
▁تە	-9.67739
▁گەنجان	-9.67809
▁ئاکامی	-9.67933
▁سوپا	-9.67968
▁خۆیشی	-9.67986
▁500	-9.68074
▁توندی	-9.68233
▁باراک	-9.6834
▁هەڵە	-9.68358
▁دووەمین	-9.68375
▁ویستی	-9.68393
▁ئەوکات	-9.68517
▁هەربۆیە	-9.68695
▁وەربگرێت	-9.68695
▁فەلسەفە	-9.68731
▁مەیدانی	-9.68748
▁چوارەم	-9.68766
▁مانگە	-9.68802
▁هەڵوێست	-9.68802
▁لێکۆڵینەوەی	-9.6882
▁کۆریای	-9.6882
▁لەسەردەمی	-9.68837
▁سەرکردەی	-9.68962
▁کۆمیسیۆنی	-9.68998
▁required	-9.6923
▁فراوان	-9.6923
▁قبوڵ	-9.69248
▁خەڵکە	-9.69337
▁دەرەکی	-9.69373
▁مامەڵەی	-9.69445
▁باوک	-9.6957
▁مرۆیی	-9.69768
▁ئاماژەیه	-9.69822
▁مەبەستە	-9.6984
▁پارچە	-9.70038
▁ڕوونی	-9.70092
▁حکوومەت	-9.70146
▁نەورۆز	-9.70164
▁وی	-9.70164
▁یەکتری	-9.70164
▁ڕۆژهەڵات	-9.702
▁دیوانی	-9.70218
▁بزانێت	-9.70255
▁هاشمی	-9.70273
▁گەیشتە	-9.70291
▁ڕەگەزی	-9.70309
▁دیموکراتی	-9.70363
▁توانیویەتی	-9.70399
▁ئاراوە	-9.70417
▁ئامادەکردنی	-9.70453
▁ئێمەدا	-9.70617
▁پارێزگاکان	-9.70635
▁ئاماده	-9.70707
▁زیان	-9.70744
▁ئیرادەی	-9.70762
▁بچێت	-9.70762
▁ئاست	-9.7078
▁دەبنەوە	-9.70871
▁لاوی	-9.70907
▁ئاشکرای	-9.70998
▁سامان	-9.70998
▁بەهێزی	-9.71016
▁یانەکانی	-9.71034
▁حەز	-9.71053
▁نیگەرانی	-9.71089
▁گە	-9.71107
▁باکوور	-9.71126
▁حیزبەکان	-9.71144
▁بەکوردستانی	-9.7118
▁سوور	-9.7118
▁ژنە	-9.71198
▁پێشکەشی	-9.7129
▁لەرێگەی	-9.71344
▁واز	-9.71601
▁ئەڵمانی	-9.7171
▁پەیوەندییەکی	-9.71784
▁ڕاهێنەری	-9.71784
▁بڕوای	-9.71857
▁ڕووداوی	-9.71894
▁گەنج	-9.71894
▁ئاخۆ	-9.71912
▁تاهیر	-9.71967
▁مەزن	-9.71967
▁جەخت	-9.71986
▁پرسیارە	-9.72023
▁کراو	-9.72041
▁سزا	-9.72059
▁قەبارەی	-9.72059
▁ئەوەتا	-9.72115
▁مین	-9.72243
▁32	-9.7228
▁ڕێ	-9.72336
▁بەرژەوەندیی	-9.72354
▁دیاریکراو	-9.72373
▁هاوپەیمانیی	-9.72465
▁تێبینی	-9.72483
▁زانی	-9.72483
▁خ	-9.72502
▁پێدەچێت	-9.7252
▁بووەتە	-9.72557
▁مان	-9.72872
▁ڕە	-9.72872
▁وێنەیەکی	-9.72965
▁200	-9.73039
▁خۆپیشاندەران	-9.73076
▁گۆڵ	-9.73113
▁کەوتە	-9.73206
▁دەگوترێت	-9.73262
▁پێیوایە	-9.73262
▁بەیەک	-9.73337
▁لایەنه	-9.73355
▁تیرۆریستان	-9.73374
▁میللی	-9.73449
▁یەکگرتووی	-9.73505
▁فێری	-9.73561
▁لەبەغدا	-9.73561
▁شایانی	-9.7371
▁لەسلێمانی	-9.73841
▁بارەگای	-9.73879
▁ترسی	-9.73954
▁ڕەمزی	-9.73954
▁پەیدا	-9.73972
▁ئازاری	-9.73991
▁لەمبارەیەوە	-9.74179
▁فەرەنسی	-9.74273
▁مامۆستایانی	-9.74292
▁سەرپەرشتی	-9.74329
▁مەرگ	-9.74348
▁سیاسیەکانی	-9.74405
▁نەهێشتنی	-9.74423
▁کوردان	-9.74423
▁پایتەخت	-9.74461
▁کورت	-9.74461
▁بێدەنگ	-9.74593
▁وشە	-9.74593
▁کۆنفرانسی	-9.74706
▁تکایە	-9.74782
▁برایەتی	-9.74895
▁بەرپرسیار	-9.75028
▁هاوشێوەی	-9.75028
▁بەدەستی	-9.75142
▁تەمموز	-9.75237
▁باوەڕی	-9.75275
▁36	-9.75294
▁دەرببڕیت	-9.75294
▁کێشەیەکی	-9.75351
▁مردنی	-9.7537
▁بەوەدا	-9.75484
▁سەرمایەداری	-9.75484
▁نوسەر	-9.75484
▁هۆڵەندا	-9.75503
▁فارس	-9.75617
▁واقیعی	-9.75617
▁تابلۆی	-9.75636
▁کاندیدی	-9.75808
▁گۆڕانی	-9.75884
▁لەبری	-9.75903
▁دەکرێتەوە	-9.75923
▁ڕۆژنامەنووسان	-9.75942
▁شوان	-9.76095
▁ڕەنگ	-9.76114
▁ناوچه	-9.76133
▁ژیانێکی	-9.76191
▁إ	-9.76383
▁ئەیلول	-9.76421
▁1991	-9.7644
▁دەرهێنەری	-9.76613
▁لێدوانێکدا	-9.76748
▁وەرگرتووە	-9.76845
▁بڕیاره	-9.76922
▁کۆنگرەیەکی	-9.77057
▁دەگەیەنێت	-9.77076
▁گەشەپێدانی	-9.77115
▁یاساو	-9.77154
▁ڕۆژنامە	-9.77231
▁کاتەدا	-9.77231
▁بەریتانی	-9.77445
▁بەڵکوو	-9.77445
▁هەڤاڵ	-9.77542
▁شوێنێک	-9.77697
▁بەشێوەی	-9.77736
▁ساڵانە	-9.77775
▁ڕێبین	-9.77814
▁ڕایگەیاندووە	-9.77834
▁دامەزراوە	-9.77853
▁بەراورد	-9.77931
▁بەشێوەیەک	-9.77951
▁پێکهاتەکانی	-9.78009
▁هونەرمەندان	-9.78029
▁ئیسلامیی	-9.78166
▁تێکەڵ	-9.78166
▁گەورەو	-9.78283
▁یێ	-9.78283
▁مووچەی	-9.78479
▁گەشەی	-9.78498
▁بیروبۆچوونی	-9.78636
▁ڕۆشنبیر	-9.78734
▁لیبیا	-9.78754
▁کوردیدا	-9.78773
▁یوسف	-9.78793
▁بەری	-9.78813
▁وتی	-9.78872
▁ج	-9.78951
▁بەرێوەبەری	-9.7897
▁نەبن	-9.7899
▁بابەتانەی	-9.7901
▁ز	-9.7901
▁داوایان	-9.79049
▁خراپتر	-9.79069
▁ئاسیا	-9.79128
▁لەوبارەیەوە	-9.79326
▁وایه	-9.79385
▁ڕابردووی	-9.79464
▁داناوە	-9.79504
▁بینینی	-9.79524
▁کوردستانێ	-9.79544
▁هونەرمەندانی	-9.79564
▁بابەت	-9.79643
▁وەفدی	-9.79643
▁کوردانی	-9.79663
▁لەپێناوی	-9.79722
▁بەڕێوەبردنی	-9.79762
▁سوودی	-9.79762
▁ناوەند	-9.79802
▁بتوانین	-9.79822
▁حکومی	-9.79881
▁گەوره	-9.8016
▁ئاستێکی	-9.802
▁لی	-9.8022
▁نموونەی	-9.8022
▁وزەی	-9.8036
▁سێیەمی	-9.8044
▁33	-9.8046
▁خاڵە	-9.8046
▁هەماهەنگی	-9.8048
▁خەریکە	-9.805
▁چووە	-9.806
▁مرۆڤە	-9.807
▁جۆره	-9.8074
▁عادل	-9.80961
▁لاواز	-9.80961
▁ئاسۆ	-9.81143
▁هەنگاوێکی	-9.81143
▁پەنابەران	-9.81143
▁70	-9.81344
▁توندوتیژیی	-9.81385
▁شانازی	-9.81607
▁گەڕەکی	-9.81627
▁ئەبێ	-9.81708
▁باڵی	-9.81708
▁عێراقیش	-9.81789
▁فرۆشتنی	-9.8187
▁ڕۆژنامەوانیدا	-9.8187
▁متمانەی	-9.81931
▁}	-9.81972
▁باشترە	-9.81972
▁ژینگە	-9.82012
▁تەقینەوەی	-9.82053
▁داوه	-9.82155
▁کوردستانیان	-9.82297
▁زیاترە	-9.82359
▁هاته	-9.82379
▁ڕێکخراو	-9.82399
▁بۆمان	-9.8244
▁گۆل	-9.8244
▁{	-9.82542
▁تێ	-9.82624
▁سەروەری	-9.82624
▁کارەساتی	-9.82993
▁بەرزی	-9.83034
▁شەقام	-9.83034
▁هیوادارم	-9.83034
▁پی	-9.83034
▁بەڵێنی	-9.83054
▁نادات	-9.8328
▁بەرنامە	-9.83342
▁جۆر	-9.83383
▁ولاتانی	-9.83466
▁مامۆستایان	-9.83548
▁چوونە	-9.83569
▁بۆنی	-9.8359
▁خەونی	-9.83714
▁سەرچاوەکانی	-9.83714
▁شاندێکی	-9.83755
▁ناوچەکەدا	-9.83755
▁دەهێنن	-9.83858
▁مەبەستەش	-9.83858
▁هەندێکیان	-9.84024
▁ان	-9.84045
▁بەرپرسیارێتی	-9.84045
▁بوارەکانی	-9.84086
▁بەش	-9.8419
▁لەهەولێر	-9.84419
▁ناتوانێ	-9.8446
▁خواردن	-9.84523
▁هەرێمە	-9.84544
▁حاکم	-9.84648
▁بچێتە	-9.84815
▁تیادا	-9.8492
▁کەوت	-9.84941
▁هەبوونی	-9.84962
▁دوچاری	-9.85024
▁دەرکردنی	-9.85045
▁لەمیانەی	-9.85045
▁نیوەی	-9.85066
▁ئەوەبوو	-9.85213
▁وەرزش	-9.85255
▁کشانەوەی	-9.85297
▁نووسینگەی	-9.85339
▁پێدا	-9.8536
▁ین	-9.85381
▁شەممه	-9.85423
▁وردە	-9.85486
▁ئایار	-9.85507
▁خێرا	-9.85528
▁کرن	-9.85528
▁کارکردنی	-9.85591
▁گۆڵی	-9.85591
▁بچووک	-9.85655
▁دەستوری	-9.85697
▁عێراقییەکان	-9.85697
▁وەرگرتن	-9.85697
▁بخاتە	-9.85718
▁80	-9.85739
▁لێک	-9.85739
▁دەبین	-9.85865
▁ببنە	-9.85887
▁ئێراندا	-9.85929
▁دەبەن	-9.85929
▁باوەڕ	-9.86013
▁بەرپرسێکی	-9.86035
▁وەڵام	-9.86204
▁تۆڕی	-9.8631
▁هەڵمەتی	-9.8631
▁ئاڵای	-9.86374
▁ناویان	-9.86459
▁بەعسی	-9.86586
▁دەڕوات	-9.8665
▁وتاری	-9.8665
▁ململانێ	-9.86927
▁یەکەمیان	-9.86927
▁حکومەتەکەی	-9.87012
▁هەواڵێکی	-9.87055
▁39	-9.87141
▁سەندیکای	-9.87141
▁بەیەکەوە	-9.87162
▁یەکەی	-9.87162
▁حکوومەتە	-9.87205
▁شێرکۆ	-9.87269
▁لایەنگرانی	-9.87269
▁بەرپرس	-9.87312
▁دەستور	-9.87333
▁سەرهەڵدانی	-9.87333
▁ئیئتیلافی	-9.87462
▁جۆن	-9.87484
▁پیاوانی	-9.87548
▁گرتن	-9.87548
▁بەشەکانی	-9.87612
▁چاوەڕێی	-9.87763
▁موراد	-9.87849
▁هەمیشەیی	-9.87849
▁هەڵبژاردە	-9.87849
▁خواردنی	-9.87914
▁فەلسەفەی	-9.87978
▁قوربانیانی	-9.88
▁38	-9.88043
▁سەرتاسەری	-9.88151
▁پێدەکات	-9.88173
▁قۆناغێکی	-9.88238
▁بەرهەمەکانی	-9.88281
▁پاکستان	-9.88346
▁نایات	-9.88433
▁کێشەیە	-9.88433
▁کوێ	-9.88498
▁دەوڵەتە	-9.88606
▁ناسراو	-9.88671
▁وێ	-9.88693
▁متمانە	-9.88715
▁کەسیش	-9.88758
▁ناوچانە	-9.8878
▁گەڕانەوە	-9.8878
▁بیرکردنەوە	-9.88802
▁بەکاری	-9.88823
▁دەشڵێت	-9.88823
▁قورس	-9.8891
▁فیدراڵی	-9.89085
▁یاسایە	-9.89106
▁کچ	-9.89128
▁ئاین	-9.89194
▁ڕایدەگەیەنێت	-9.89216
▁ئیداری	-9.89237
▁ئێوارە	-9.89237
▁دەرهێنەر	-9.89237
▁سەرکردەکانی	-9.89303
▁ئالان	-9.89325
▁ئەبو	-9.89347
▁دەبیت	-9.89347
▁لەڕێی	-9.89369
▁نیشانەی	-9.89412
▁بانکی	-9.89434
▁37	-9.89456
▁بەوەش	-9.89456
▁دوژمن	-9.89522
▁داکۆکی	-9.89544
▁ئاسانی	-9.89566
▁کاکە	-9.8961
▁دەبینن	-9.89631
▁هۆشیاری	-9.89719
▁بۆتەوە	-9.89741
▁هاتوون	-9.89763
▁ناوچەیە	-9.89807
▁کەوتووە	-9.89895
▁واتای	-9.89917
▁شکستی	-9.89939
▁تاوانبار	-9.90005
▁بنەڕەتی	-9.90027
▁فەرمانگەی	-9.90071
▁ڕادیۆی	-9.90115
▁ڕێککەوتنی	-9.90203
▁سەرەتایی	-9.9038
▁گوڵ	-9.90424
▁شەقامی	-9.90446
▁دەگرن	-9.90535
▁نەخشەی	-9.90601
▁بەرپرسە	-9.9069
▁48	-9.90712
▁جۆراوجۆر	-9.90712
▁بوونەتە	-9.90734
▁دنیادا	-9.90734
▁سەوز	-9.90734
▁کۆیە	-9.90756
▁دێموکرات	-9.90823
▁ڕژێم	-9.90867
▁قوتابخانە	-9.90911
▁وابوو	-9.90934
▁ڕۆشنبیریی	-9.90978
▁شارستانی	-9.91312
▁دەتوانرێت	-9.91491
▁زۆرتر	-9.91558
▁عەبدولڕەحمان	-9.9158
▁هزری	-9.91625
▁تەماشای	-9.9167
▁بڵێت	-9.91782
▁دروشمی	-9.91782
▁سەلاحەددین	-9.91782
▁خەمی	-9.91849
▁عیراق	-9.91938
▁پڕۆژەکە	-9.91938
▁پێموایە	-9.91961
▁دەمێنێتەوە	-9.92006
▁عەباس	-9.92051
▁لەکەرکوک	-9.92051
▁ئاشکرایکرد	-9.92073
▁دینی	-9.92073
▁دەستە	-9.92073
▁ناتوانین	-9.92208
▁قوتابیان	-9.92253
▁تیشکی	-9.92276
▁کردوون	-9.92366
▁ڕۆمانی	-9.92388
▁ئینسان	-9.92411
▁پیاوی	-9.92479
▁فرە	-9.92682
▁کارمەندانی	-9.92682
▁ئۆپۆزسیۆنی	-9.9275
▁وەرگرت	-9.9275
▁ڕەسوڵ	-9.92772
▁گومانی	-9.92772
▁گۆڕەپانی	-9.92818
▁کەسانێک	-9.92863
▁ڕووداوە	-9.92908
▁ڕۆژنامەنوس	-9.92908
▁کەریمی	-9.92931
▁دابوو	-9.93022
▁مەرج	-9.93067
▁دەستگیرکردنی	-9.93112
▁کوردایەتی	-9.93135
▁بڵاودەکرێنەوە	-9.93158
▁جیاوازە	-9.93158
▁گەرم	-9.93203
▁بەئامادەبوونی	-9.93317
▁ئەڤ	-9.93385
▁برای	-9.93385
▁هێزو	-9.93385
▁خۆراک	-9.93568
▁نەخێر	-9.9359
▁مەکەن	-9.93636
▁کاندید	-9.93636
▁بگاتە	-9.9375
▁بڵاوی	-9.9375
▁هەڵبەت	-9.93796
▁سەربازیی	-9.93865
▁ڕەحمان	-9.93887
▁ڕێزی	-9.9391
▁بم	-9.93933
▁لەکوردستاندا	-9.93933
▁هەژار	-9.94094
▁بەڵگەی	-9.94162
▁چاوەڕوان	-9.94162
▁موزیک	-9.94208
▁گەنجانی	-9.94208
▁ببن	-9.94231
▁ئاسمان	-9.943
▁زیادکردنی	-9.94369
▁گرنگترین	-9.94369
▁شەهیدانی	-9.94438
▁بایەخی	-9.94484
▁قورئان	-9.94622
▁جگه	-9.94645
▁خولەکە	-9.94668
▁ببینێت	-9.94692
▁دڵشاد	-9.94692
▁گەڕان	-9.94738
▁بەڵێن	-9.94784
▁خولەکی	-9.94784
▁ئێن	-9.9483
▁42	-9.94922
▁دەوڵەتێکی	-9.94922
▁پێناوی	-9.95131
▁yahoo	-9.95177
▁دادگایی	-9.9527
▁نیسان	-9.95363
▁بڵێ	-9.95386
▁بێجگە	-9.95386
▁بێتەوە	-9.95409
▁تورکمان	-9.95409
▁ئارەزووی	-9.95456
▁نازانێت	-9.95456
▁سوننە	-9.95525
▁نەیتوانی	-9.95525
▁کراوه	-9.95525
▁بەها	-9.95572
▁ناسنامەی	-9.95572
▁پارت	-9.95642
▁قسەکانی	-9.95665
▁نازناوی	-9.95688
▁بەتایبەتیش	-9.95782
▁مەرگی	-9.95782
▁ڕۆژانەی	-9.95875
▁ناسراوە	-9.95922
▁مۆڵەتی	-9.95945
▁تیرۆری	-9.95992
▁یەوە	-9.95992
▁هاتوچۆ	-9.96039
▁زێباری	-9.96109
▁ژیانیان	-9.96109
▁واشنتن	-9.96132
▁یانی	-9.96202
▁ئەستۆی	-9.96226
▁سیاسەتە	-9.96226
▁وەردەگرێت	-9.96273
▁لەڕێگای	-9.96343
▁بەدرێژایی	-9.9639
▁تەرمی	-9.96437
▁دەبێته	-9.9646
▁موچەی	-9.96484
▁بنەما	-9.96554
▁شیوعی	-9.96625
▁دەزانی	-9.96672
▁پەلاماری	-9.96719
▁بەهای	-9.96766
▁کۆشکی	-9.96766
▁حوکمڕانی	-9.96813
▁ماوەتەوە	-9.96813
▁ئەمریکاو	-9.96955
▁بەرزنجی	-9.96955
▁ڕەزا	-9.96955
▁دێن	-9.97002
▁بنەماکانی	-9.97143
▁ذ	-9.97191
▁هاووڵاتیانی	-9.97214
▁سەردانەکەی	-9.97309
▁جەلەولا	-9.97333
▁ڤێ	-9.97333
▁ڕێکخراوێکی	-9.97357
▁دەرفەتی	-9.97404
▁چوو	-9.97475
▁بڕیارێکی	-9.97546
▁ناوەکی	-9.97546
▁هاتن	-9.97641
▁تایبەتدا	-9.9776
▁هەڕەشە	-9.9776
▁ڕووداوەکان	-9.9776
▁گرفت	-9.97879
▁43	-9.97903
▁پاریس	-9.97927
▁هەولێرو	-9.97951
▁تاوانەکانی	-9.97998
▁ناردنی	-9.97998
▁کوردەکانی	-9.97998
▁ئەوەمان	-9.98046
▁تورکیاو	-9.98046
▁دروستی	-9.98117
▁عەدنان	-9.98117
▁وەزیر	-9.98117
▁بەدوور	-9.98189
▁پێشکەوتن	-9.98213
▁ڕێککەوتن	-9.98237
▁ئامێری	-9.98261
▁خاڵێکی	-9.98261
▁بەهرۆز	-9.98309
▁حزبی	-9.98333
▁کامیل	-9.98333
▁سویسرا	-9.9838
▁هاوڵاتی	-9.9838
▁ولات	-9.98428
▁پیاوێکی	-9.98452
▁دیکەدا	-9.98524
▁لەئاستی	-9.98716
▁خەم	-9.98764
▁قسەکردن	-9.98764
▁یانە	-9.98764
▁ئەیاد	-9.98812
▁بینیوە	-9.98812
▁واقیع	-9.9886
▁یەکلایی	-9.98932
▁55	-9.99053
▁لەپەرلەمانی	-9.99077
▁ڕاگەیاندووە	-9.99101
▁تێگەیشتن	-9.99197
▁پەنابەرانی	-9.99222
▁نان	-9.99294
▁خانەی	-9.99318
▁خوێندکار	-9.99318
▁ئیسلامییەکان	-9.99367
▁دەنگیان	-9.99391
▁یەکە	-9.99391
▁بەشداریکردنی	-9.99415
▁پۆستە	-9.99415
▁مەرجی	-9.99439
▁ئەمەی	-9.99463
▁ماددە	-9.99487
▁دەق	-9.99536
▁بۆخۆی	-9.9956
▁چاکی	-9.9956
▁پێشتریش	-9.99609
▁ناکەم	-9.99754
▁گەیشته	-9.99754
▁ئۆسکاری	-9.99803
▁خەون	-9.99827
▁زۆربەیان	-9.99924
▁سەرەکیی	-10.0009
▁وێنەگری	-10.0009
▁ولاتە	-10.0012
▁ڕوانگەی	-10.0022
▁بەرگریی	-10.0024
▁بەدیهێنانی	-10.0027
▁سەرپەرشتیاری	-10.0027
▁ناوەڕاستی	-10.0031
▁قوتابخانەی	-10.0036
▁بکاتە	-10.0048
▁ئەرک	-10.0063
▁هەرچەند	-10.007
▁ئەهلی	-10.0075
▁ژینگەی	-10.0075
▁پیرۆزی	-10.008
▁گرتنی	-10.008
▁41	-10.0083
▁قۆناغە	-10.0083
▁یی	-10.0083
▁گوێی	-10.0085
▁تۆمەتی	-10.0088
▁پارێزگا	-10.0088
▁چیرۆک	-10.0097
▁نووسراوە	-10.01
▁دەمهەوێت	-10.0105
▁کاتێکی	-10.0107
▁هاوکارمان	-10.011
▁بەتەنیا	-10.0112
▁وەربگرن	-10.0112
▁کەوتنە	-10.012
▁ڕوویدا	-10.0122
▁ڕووخانی	-10.0125
▁پۆست	-10.0129
▁سەرانی	-10.0134
▁دار	-10.0171
▁کەمە	-10.0171
▁پله	-10.0176
▁ببێتەوە	-10.0179
▁بووبێت	-10.0179
▁نەخۆش	-10.0179
▁خوێندکاران	-10.0181
▁سەردەم	-10.0184
▁لەدایک	-10.0186
▁ڕاپۆرت	-10.0186
▁بوش	-10.0191
▁کەسیان	-10.0191
▁لێدانی	-10.0194
▁زیرەک	-10.0211
▁حکومەتێکی	-10.0219
▁یەکێکی	-10.0226
▁تاریق	-10.0229
▁بەشێکە	-10.0234
▁دانراوە	-10.0241
▁بەهێزکردنی	-10.0243
▁تو	-10.0246
▁خەلکی	-10.0263
▁تونس	-10.0266
▁بناغەی	-10.0273
▁بەپێچەوانەوە	-10.0273
▁تاوانە	-10.0273
▁بەدەر	-10.0276
▁300	-10.0291
▁دەرئەنجامی	-10.0293
▁ڕی	-10.0296
▁ڕوونیشیکردەوە	-10.0301
▁لێکۆڵینەوه	-10.0306
▁بووەوە	-10.0308
▁برد	-10.0314
▁نەداوە	-10.0316
▁کراوەتەوە	-10.0321
▁پێکهاتووە	-10.0324
▁ترە	-10.0329
▁مارکس	-10.0336
▁پێشمەرگەو	-10.0336
▁44	-10.0339
▁بوارەدا	-10.0344
▁مەگەر	-10.0354
▁بهێنە	-10.0359
▁خزمەتکردنی	-10.0359
▁ڕێکەوتی	-10.0364
▁خو	-10.0369
▁زاری	-10.0376
▁سەلام	-10.0376
▁هەڵەی	-10.0376
▁کۆبوونەوەیەکی	-10.0376
▁دەکەینەوە	-10.0384
▁نزیکی	-10.0384
▁بەڕێوەدەچێت	-10.0387
▁مەسیحی	-10.0392
▁بۆسەر	-10.0397
▁شکست	-10.0397
▁شتە	-10.0402
▁چۆمان	-10.0402
▁ئاگر	-10.0409
▁تازەی	-10.0425
▁هەوڵدان	-10.0432
▁قازانجی	-10.0437
▁بابەتێکی	-10.044
▁هەردەم	-10.0442
▁مەریوان	-10.0445
▁ڕەمەزان	-10.0445
▁دەنووسن	-10.0455
▁لێوە	-10.0455
▁دادپەروەری	-10.046
▁دیالە	-10.046
▁لەشکری	-10.046
▁خۆپیشاندانی	-10.047
▁میللەت	-10.0473
▁چوون	-10.0473
▁تریان	-10.0475
▁چەمچەماڵ	-10.0478
▁ڕادەستی	-10.0478
▁46	-10.0486
▁ڕادیۆ	-10.0486
▁لەلایەک	-10.0488
▁دەبینرێت	-10.0496
▁have	-10.0498
▁htm	-10.0506
▁باسیان	-10.0511
▁یاریزانان	-10.0514
▁پێغەمبەری	-10.0516
▁درووست	-10.0524
▁کرێکاری	-10.0529
▁تەها	-10.0532
▁فیکری	-10.0534
▁کچی	-10.0534
▁نایابی	-10.0542
▁بەرگی	-10.0545
▁49	-10.0547
▁خۆشحاڵی	-10.0547
▁چاوپێکەوتن	-10.0547
▁بەرازیل	-10.055
▁چیە	-10.0552
▁47	-10.0565
▁We	-10.0568
▁ئامادەیە	-10.0575
▁کەسەی	-10.0575
▁کورددا	-10.0578
▁نیم	-10.0586
▁هەورامی	-10.0586
▁جدی	-10.0593
▁فیلمە	-10.0596
▁یار	-10.0601
▁ناشرین	-10.0604
▁کێشەکە	-10.0606
▁هەژاند	-10.0609
▁خەلیل	-10.0614
▁مەسەلەیە	-10.0614
▁شەڕە	-10.0617
▁عارف	-10.0622
▁کچه	-10.0622
▁حسابی	-10.0627
▁بەشداریکردن	-10.063
▁یێن	-10.0637
▁90	-10.064
▁زیندوو	-10.064
▁جیاتی	-10.0645
▁بەرزکردنەوەی	-10.0648
▁پڕۆژەیە	-10.0656
▁بەکوردی	-10.0658
▁قاسم	-10.0658
▁online	-10.0661
▁بمانەوێت	-10.0661
▁بەرێز	-10.0661
▁ئۆجالان	-10.0674
▁عێراقە	-10.0682
▁گۆڕی	-10.0684
▁مانا	-10.0692
▁لەکۆتایی	-10.0697
▁بۆنەی	-10.0705
▁هاوولاتیان	-10.0718
▁ڕەت	-10.0718
▁بەوەشدا	-10.0726
▁وڵاتەدا	-10.0726
▁کامەران	-10.0729
▁تێک	-10.0731
▁لەڕاستیدا	-10.0734
▁موسڵمان	-10.0734
▁فارسی	-10.0736
▁خەڵکانی	-10.0739
▁فەرهاد	-10.0739
▁دیالۆگ	-10.0747
▁خاوەنەکانیانە	-10.0752
▁لێکدانەوەی	-10.0752
▁لەمانگی	-10.0755
▁وەردەگرن	-10.0763
▁ماڵێکی	-10.0768
▁guests	-10.0776
▁بمێنێتەوە	-10.0778
▁ئەنوەر	-10.0784
▁کەیسی	-10.0784
▁>	-10.0789
▁هەردی	-10.0789
▁زێڕین	-10.0792
▁سیاسیدا	-10.0792
▁ئازادکردنی	-10.0794
▁گوتیان	-10.0794
▁لەبەشێکی	-10.0797
▁لەناوبردنی	-10.0797
▁قەڵەم	-10.0807
▁درۆ	-10.0813
▁نەوەک	-10.0813
▁کوشت	-10.0815
▁حەمید	-10.0821
▁قوتابیانی	-10.0821
▁هەژاری	-10.0821
▁بیرکردنەوەی	-10.0823
▁محەممەد	-10.0829
▁مانەوە	-10.0836
▁نەژاد	-10.0839
▁پشکنینی	-10.0842
▁کوردیی	-10.0842
▁ڤی	-10.085
▁لیژنەیەکی	-10.0855
▁کردۆتە	-10.0855
▁ورد	-10.086
▁لەئەنجامی	-10.0863
▁هاتۆتە	-10.0863
▁پێداویستی	-10.0866
▁پەسەندکردنی	-10.0866
▁ڕاستییە	-10.0866
▁کارتی	-10.0874
▁هێرشەکانی	-10.0876
▁یاساکانی	-10.0876
▁51	-10.0879
▁نەجمەددین	-10.0882
▁بوارە	-10.0884
▁خوێندنەوە	-10.0884
▁ڕێنمایی	-10.089
▁دووشەممە	-10.0895
▁ئەزموون	-10.0898
▁توێژینەوەی	-10.0898
▁سایەی	-10.0898
▁لەسەرجەم	-10.09
▁لەوەدایە	-10.09
▁بەرمیل	-10.0911
▁شارو	-10.0911
▁خۆر	-10.0913
▁گەورەتر	-10.0913
▁بایەخ	-10.0919
▁فەتاح	-10.0919
▁لەدوو	-10.0919
▁تۆمەتبار	-10.0924
▁بەرجەستە	-10.0929
▁یاسین	-10.0929
▁دەستپێکی	-10.0935
▁دەوڵەتانی	-10.0937
▁سروشت	-10.0937
▁ماڵەوە	-10.0948
▁ڕانیە	-10.0951
▁کڕینی	-10.0956
▁دەرکرد	-10.0962
▁ژووری	-10.0972
▁هێنان	-10.0978
▁دەبوایە	-10.0986
▁ئیتالی	-10.0988
▁52	-10.0996
▁ناکەین	-10.0999
▁قسەکانیدا	-10.1002
▁ئەگینا	-10.1005
▁ئەوکاتە	-10.101
▁پێشکەشکردنی	-10.1013
▁حاڵی	-10.1015
▁پەیڕەوی	-10.1015
▁شێوازێکی	-10.1018
▁ئومێد	-10.1021
▁وردی	-10.1026
▁ٍ	-10.1029
▁دەچن	-10.1031
▁نامێنێت	-10.1031
▁دەستپێکردنی	-10.1034
▁تورکیادا	-10.104
▁ڕایانگەیاند	-10.1048
▁دهۆکێ	-10.105
▁نێوانیان	-10.1053
▁دەستبەرداری	-10.1058
▁سۆسیال	-10.1058
▁پلان	-10.1061
▁دەر	-10.1069
▁ڕێکخستن	-10.1077
▁بیرۆکەی	-10.108
▁دەتوانم	-10.1083
▁هۆکارەکانی	-10.1083
▁دانیشتووی	-10.1091
▁150	-10.1094
▁بەتەنها	-10.1094
▁بەشدارییان	-10.1096
▁ڕاپۆرتێکی	-10.1102
▁53	-10.1113
▁کارێک	-10.1113
▁دۆخە	-10.1115
▁خەیاڵی	-10.1118
▁بریتیە	-10.1124
▁درێژایی	-10.1124
▁ڕووداوێکی	-10.1129
▁بەرنامەیەکی	-10.1134
▁شیعەکان	-10.1134
▁جەبار	-10.114
▁ناساندنی	-10.114
▁یەکسان	-10.114
▁ئای	-10.1143
▁جۆرج	-10.1148
▁ئینسانی	-10.1151
▁زمانە	-10.1154
▁بیرو	-10.1156
▁هەردووکیان	-10.1159
▁54	-10.1164
▁56	-10.1167
▁دەرکەوتنی	-10.1167
▁ڕیاڵ	-10.1184
▁ویلایەتی	-10.1189
▁جارە	-10.1197
▁نۆ	-10.12
▁کرابوو	-10.1203
▁یاریگەی	-10.1208
▁بکەوێت	-10.1217
▁سەخت	-10.1219
▁کورتی	-10.1233
▁هەڵوەشاندنەوەی	-10.1239
▁شتەکان	-10.1258
▁هۆکارێکی	-10.1258
▁لەجیاتی	-10.1263
▁بێدەنگی	-10.1274
▁بەوەشکرد	-10.1274
▁سەقامگیری	-10.1274
▁ناتۆ	-10.128
▁دەروازەی	-10.1283
▁دەنگەکانی	-10.1283
▁جینۆساید	-10.1285
▁کۆنترۆڵی	-10.1285
▁ناوچەکه	-10.1288
▁ئەوسا	-10.1294
▁وەڵامێک	-10.1294
▁کۆتاییدا	-10.1297
▁گەورەکان	-10.1299
▁دزی	-10.1302
▁کاریگەر	-10.1302
▁لەعیراقدا	-10.1308
▁نوێدا	-10.1308
▁نزیکدا	-10.131
▁پەرلەمانتار	-10.1313
▁57	-10.1316
▁کتێبە	-10.1316
▁دۆست	-10.1321
▁دوورە	-10.1327
▁سەردەمە	-10.1327
▁تاوتوێ	-10.133
▁گەیشتووەتە	-10.133
▁ڕۆڵ	-10.1333
▁براوەی	-10.1338
▁بوونەوەی	-10.1346
▁لاوازی	-10.1349
▁نوێیە	-10.1349
▁هەوڵێکی	-10.1352
▁شانۆگەری	-10.1358
▁یەکجار	-10.1358
▁چەندان	-10.1369
▁ڕۆژنامەنووسانی	-10.1372
▁ئەسڵانی	-10.1377
▁بەندە	-10.1383
▁لەبەرئەوە	-10.1388
▁داگیر	-10.1394
▁لەوانەش	-10.1397
▁گرووپ	-10.1397
▁پاڵەوانی	-10.1411
▁پێکهاتە	-10.1411
▁نەتەوەکانی	-10.1419
▁ڕووداو	-10.1422
▁ئەمڕۆش	-10.1428
▁گەشە	-10.1428
▁بڕوا	-10.1433
▁دڵنیا	-10.1436
▁ڕوویان	-10.1439
▁تەکنیکی	-10.1444
▁بەلا	-10.1447
▁تەلەفزیۆنی	-10.1453
▁ئاماری	-10.1456
▁ێ	-10.1458
▁بالای	-10.1464
▁ئەمن	-10.1473
▁بگەڕێتەوە	-10.1473
▁دەرمان	-10.1475
▁حوکم	-10.1481
▁هاوار	-10.1487
▁قایمقامی	-10.1492
▁پرۆسەیەکی	-10.1492
▁ڕۆژنامەنووسی	-10.1495
▁دەربڕینی	-10.1501
▁خۆیانەوە	-10.1504
▁یەمەن	-10.1504
▁یەکەمجار	-10.1506
▁بازاڕ	-10.1515
▁نەیتوانیوە	-10.1515
▁تەقەمەنی	-10.1518
▁عێراقییە	-10.1518
▁خۆرهەڵاتی	-10.1521
▁ڕوودەدات	-10.1521
▁دەمی	-10.1529
▁ڕیزەکانی	-10.1538
▁کاردانەوەی	-10.1538
▁سەختی	-10.154
▁بڕە	-10.1557
▁بەرواری	-10.156
▁خۆشیان	-10.156
▁پەرلەمانتاری	-10.156
▁سەپاندنی	-10.1569
▁ڕێکخراوەکان	-10.1572
▁جیاجیاکانی	-10.1575
▁یانه	-10.1575
▁پێویستمان	-10.158
▁نوسینی	-10.1586
▁هەڵبژاردنە	-10.1586
▁شانۆیی	-10.1597
▁تەیب	-10.1606
▁هاوڕێی	-10.1614
▁کەمترین	-10.1617
▁میسری	-10.162
▁جێگیر	-10.1626
▁خەیاڵ	-10.1626
▁هەریەکە	-10.1629
▁کارەکانیان	-10.1632
▁ئۆپۆزیسیۆن	-10.1634
▁غەریب	-10.164
▁گەرمی	-10.164
▁فشاری	-10.1646
▁ئەرکێکی	-10.1649
▁گەردوونی	-10.1652
▁بێکاری	-10.166
▁نووسەرانی	-10.1666
▁ئەرکە	-10.1675
▁ئۆکتۆبەر	-10.168
▁بڕوات	-10.168
▁mail	-10.1701
▁لەپاش	-10.1701
▁سەرخستنی	-10.1709
▁چینایەتی	-10.1709
▁باوکم	-10.1715
▁سەریان	-10.1718
▁لەدەستدا	-10.1721
▁دەنێت	-10.1724
▁لەرووی	-10.1724
▁کردنە	-10.1747
▁ڕووبەرووی	-10.175
▁لەعێراق	-10.1753
▁هانی	-10.1753
▁دام	-10.1756
▁ڕا	-10.1758
▁ڕێژەیەکی	-10.1758
▁گلەیی	-10.1764
▁سەرەکییەکانی	-10.1767
▁مەهدی	-10.1773
▁بڵێی	-10.1776
▁ڕێبەری	-10.1782
▁بەستنی	-10.1785
▁پاڵەوانێتی	-10.1785
▁پرۆژەی	-10.1785
▁پێشانگای	-10.1793
▁پشکی	-10.1796
▁حەیدەر	-10.1799
▁کوردستانییەکان	-10.1805
▁کولتووری	-10.1808
▁لەبەرامبەردا	-10.1817
▁موختار	-10.182
▁دیاله	-10.184
▁بەئاسانی	-10.1843
▁دایکم	-10.1858
▁گێڕانەوەی	-10.1858
▁بوونەوە	-10.186
▁لەوەدا	-10.186
▁ڕووەوە	-10.186
▁شێوەکاری	-10.1866
▁نەمانی	-10.1866
▁ڕێگه	-10.1866
▁سوپاس	-10.1869
▁ماوەکەی	-10.1869
▁دەیەوێ	-10.1875
▁ڕێگری	-10.1875
▁کر	-10.1881
▁ئیخوان	-10.1884
▁یۆلیۆ	-10.1887
▁ڕۆژەی	-10.189
▁جیاوازەکانی	-10.1893
▁خانمە	-10.1893
▁گۆلی	-10.1893
▁نەتەوەیەکگرتووەکان	-10.1896
▁بەهەر	-10.1902
▁کوتلەی	-10.1902
▁ناوەڕۆکی	-10.1904
▁بەکر	-10.1907
▁کاربەدەستانی	-10.191
▁مۆدێرن	-10.1913
▁ئەمجارە	-10.1928
▁بانگهێشتی	-10.1928
▁سەرکردایەتیی	-10.1943
▁کەنەدا	-10.1943
▁مەتر	-10.1946
▁سیاسیە	-10.1952
▁ئاسایییە	-10.1958
▁شکاو	-10.1958
▁فەرهەنگ	-10.1964
▁کانوونی	-10.1964
▁ببینن	-10.1966
▁بکرێتە	-10.1969
▁کوێت	-10.1972
▁میللەتی	-10.1975
▁کەناڵەکانی	-10.1978
▁ئامانجە	-10.1981
▁لەوانەی	-10.1984
▁ئیش	-10.199
▁موحەمەد	-10.1993
▁ناڕەزایەتی	-10.1996
▁داهێنان	-10.2002
▁هەرێمدا	-10.2002
▁دراوسێ	-10.2008
▁ئاشنا	-10.2014
▁نێودەوڵەتیی	-10.2017
▁بەرێوەچوو	-10.202
▁قەیرانە	-10.2023
▁سنوور	-10.2035
▁شاعیری	-10.2035
▁ڕۆشنبیران	-10.2035
▁بەندی	-10.2041
▁کفری	-10.2044
▁یاسایەک	-10.2053
▁ئەوەیه	-10.2056
▁خۆشە	-10.2056
▁تیرۆرکردنی	-10.2059
▁ڕادەیەک	-10.2074
▁عەشق	-10.2077
▁موبارەک	-10.2077
▁هەلی	-10.208
▁ئۆتۆمبێلەکانی	-10.2086
▁بوونیان	-10.2086
▁بنیاتنانی	-10.2089
▁چەسپاندنی	-10.2089
▁بینای	-10.2095
▁بەدواداچوونی	-10.2095
▁سالار	-10.2098
▁کۆبونەوەی	-10.211
▁زۆریش	-10.2113
▁الل	-10.2119
▁ئێواره	-10.2122
▁بەرەنگاربوونەوەی	-10.2122
▁دەیانەوێ	-10.2122
▁گوندەکانی	-10.2122
▁دیکتاتۆری	-10.2128
▁خوێندکاری	-10.2131
▁دەستدا	-10.2131
▁نووری	-10.214
▁ئاسیایی	-10.2146
▁#	-10.2152
▁مەحموود	-10.2152
▁پێچەوانەوە	-10.2152
▁ئەمینداری	-10.2167
▁سەردار	-10.2167
▁لەئەنجومەنی	-10.2167
▁کۆمپانیاکانی	-10.2167
▁وادەی	-10.2173
▁کۆمەڵگادا	-10.2173
▁دێنە	-10.2176
▁دەرچووە	-10.2179
▁نیشتەجێبوون	-10.2179
▁بەزمانی	-10.2182
▁شایەنی	-10.2182
▁پێیانوایە	-10.2182
▁پێنجەم	-10.2188
▁نوێترین	-10.2191
▁لەسەرە	-10.2194
▁کوردییەکان	-10.22
▁جەستە	-10.2203
▁ڕێکەوت	-10.2203
▁بەرهەمە	-10.2209
▁E	-10.2212
▁حەزی	-10.2212
▁خەرج	-10.2218
▁هۆکار	-10.2218
▁گەشەکردنی	-10.2218
▁هونەریی	-10.2227
▁ئەبوبەکر	-10.2231
▁ئامادەکاری	-10.224
▁یەکسەر	-10.224
▁وەرگیراوە	-10.2243
▁چالاکییەکانی	-10.2246
▁کۆنە	-10.2249
▁پەرلەمانتاران	-10.2252
▁لەناوچەی	-10.2258
▁زانایانی	-10.2261
▁ڕاپەڕینی	-10.227
▁ئەمەیش	-10.2288
▁کردنەوە	-10.2288
▁چوارشەممە	-10.2292
▁بخرێتە	-10.2295
▁دەمانەوێت	-10.2298
▁موڵکی	-10.2301
▁کوژرانی	-10.2301
▁تایبەتە	-10.2304
▁سالا	-10.2307
▁چالاک	-10.231
▁سەرەنجام	-10.2313
▁بخەنە	-10.2316
▁مەزهەبی	-10.2325
▁مەسەلە	-10.2325
▁کوڕ	-10.2325
▁59	-10.2331
▁نیوز	-10.2331
▁پە	-10.2334
▁کۆسرەت	-10.2338
▁ئەوێ	-10.2341
▁نادیار	-10.2344
▁دەبێ	-10.2347
▁not	-10.235
▁بەزۆر	-10.235
▁لینکەی	-10.2356
▁کردم	-10.2362
▁بری	-10.2371
▁ڕزگارکردنی	-10.2374
▁خولەک	-10.2378
▁will	-10.2384
▁بریاری	-10.2384
▁دووباره	-10.2384
▁بەوه	-10.2387
▁منداڵە	-10.2387
▁نەدا	-10.2387
▁comments	-10.239
▁مانگێک	-10.239
▁پەیڕەو	-10.2402
▁کۆمۆنیستی	-10.2402
▁پەنجا	-10.2408
▁دانیشتووانی	-10.2415
▁سامانە	-10.2418
▁خانوو	-10.2421
▁هەواڵگری	-10.2424
▁نازانن	-10.243
▁باسه	-10.2433
▁یانەکەی	-10.2436
▁ڕاستەوخۆی	-10.2446
▁خۆڵەمێش	-10.2449
▁دیناری	-10.2455
▁درێژی	-10.2461
▁400	-10.2464
▁چیخۆف	-10.2464
▁هەفتە	-10.2467
▁ئەخلاقی	-10.2471
▁جیهاد	-10.2471
▁فایله	-10.2471
▁هۆشیار	-10.2471
▁دڵنیام	-10.2477
▁پەروەردەو	-10.2477
▁گەیاند	-10.2477
▁دەنگەکان	-10.2489
▁یەکێتیدا	-10.2489
▁هاتوو	-10.2499
▁چاویان	-10.2499
▁ببنەوە	-10.2502
▁ناوچەکەو	-10.2502
▁توورەج	-10.2505
▁عەقڵ	-10.2505
▁ئەکتەر	-10.2508
▁ناوەڕاستە	-10.2508
▁نەینەوا	-10.2514
▁گوتاری	-10.2517
▁ئەتۆمی	-10.2527
▁ده	-10.2527
▁لابردنی	-10.2527
▁خوێندکارانی	-10.253
▁هەڵۆ	-10.253
▁هاتوچۆی	-10.2533
▁بەڕای	-10.2536
▁هاتوە	-10.2536
▁یەکەمدا	-10.2539
▁ڕوونکردەوە	-10.2546
▁بچوک	-10.2549
▁ئەمنییەکان	-10.2552
▁ة	-10.2561
▁لێدوانی	-10.2561
▁تۆمارکرد	-10.2564
▁فڕۆکە	-10.2568
▁ڕێکخەری	-10.2574
▁بەدەستهێنا	-10.2577
▁خود	-10.2577
▁خۆراکی	-10.258
▁هادی	-10.258
▁ئاوارەکان	-10.259
▁یاساکە	-10.2596
▁سێکس	-10.2599
▁پابەند	-10.2609
▁دەرکەوتووە	-10.2612
▁ئیمزا	-10.2615
▁ژاپۆن	-10.2618
▁Share	-10.2624
▁زۆرن	-10.2624
▁خستۆتە	-10.2627
▁باشور	-10.2631
▁تۆمارکرا	-10.2631
▁بوونه	-10.2637
▁بگات	-10.2637
▁دەگات	-10.265
▁لەخۆ	-10.2662
▁بەبڕی	-10.2666
▁تەشهیر	-10.2666
▁سعودیە	-10.2666
▁مایەوە	-10.2669
▁ڕەگەز	-10.2669
▁چەکدارەکانی	-10.2678
▁سەرباز	-10.2688
▁سەرلەنوێ	-10.2704
▁لیوا	-10.2704
▁بەهاوکاری	-10.2707
▁هاوسەری	-10.271
▁وایکردووە	-10.271
▁برایم	-10.2713
▁ماوەیەدا	-10.2713
▁نوسینگەی	-10.2713
▁قەتەر	-10.2716
▁مەلی	-10.2716
▁سێکسی	-10.2729
▁هەندێ	-10.2729
▁Name	-10.2732
▁Add	-10.2736
▁وەفدێکی	-10.2736
▁بازنەی	-10.2739
▁چاودێریی	-10.2742
▁دەربەندیخان	-10.2752
▁ژیاندا	-10.2755
▁چل	-10.2758
▁ئەستۆ	-10.2764
▁ئینتەرنێت	-10.2768
▁شاخ	-10.2768
▁لەتەک	-10.2768
▁کارەی	-10.2768
▁هەبوون	-10.278
▁پێیە	-10.278
▁ڕێـگەی	-10.278
▁ڕێوشوێنی	-10.278
▁ولا	-10.2784
▁ئامانجەکانی	-10.2787
▁شارەزا	-10.2787
▁چەکدار	-10.2787
▁دامەزراندن	-10.2797
▁دەبینی	-10.2797
▁وڵاتێک	-10.28
▁پرێس	-10.2803
▁ئاماژەیدا	-10.2809
▁کەسەو	-10.2809
▁ڕق	-10.2813
▁hotmail	-10.2819
▁هۆکارێک	-10.2819
▁دەشنی	-10.2822
▁ئیسلامیەکان	-10.2826
▁پوور	-10.2829
▁ناخی	-10.2832
▁کردەوەی	-10.2832
▁بچنە	-10.2835
▁بکردایە	-10.2835
▁هیچیان	-10.2835
▁شەر	-10.2842
▁نابن	-10.2845
▁لەپاڵ	-10.2848
▁بەنزین	-10.2851
▁بژین	-10.2858
▁سیستەمە	-10.2864
▁هەڵبژێردراوانی	-10.2871
▁پێشخستنی	-10.2871
▁and	-10.2877
▁ڕێزگرتن	-10.2877
▁ئۆگۆست	-10.2884
▁زانیارییەکانی	-10.2884
▁me	-10.2887
▁زیانێکی	-10.2887
▁ڕژێمە	-10.2887
▁فشار	-10.289
▁ڕەجەب	-10.289
▁دەنا	-10.2897
▁ئەوەیش	-10.29
▁خراپە	-10.29
▁بۆرژوازی	-10.2903
▁داوەو	-10.2903
▁وو	-10.2903
▁پێشەنگی	-10.2903
▁بردنی	-10.2916
▁لەش	-10.2916
▁کۆمەک	-10.2929
▁باڵەک	-10.2936
▁ئایندە	-10.2942
▁ئیمەیل	-10.2942
▁شەڕو	-10.2946
▁فراوانی	-10.2946
▁فیستیڤاڵه	-10.2946
▁ئەسوات	-10.2952
▁کۆلێژی	-10.2959
▁خۆیی	-10.2962
▁بەخۆی	-10.2965
▁جاریش	-10.2965
▁دیاردەیەکی	-10.2972
▁بداتەوە	-10.2975
▁ئەرسەلان	-10.2982
▁دڵم	-10.2985
▁پاراستن	-10.2985
▁style	-10.2992
▁سەباح	-10.2992
▁یاریزانە	-10.2995
▁تەماوی	-10.2998
▁مووچە	-10.2998
▁تۆش	-10.3001
▁لانی	-10.3018
▁ئاگری	-10.3024
▁تۆفیق	-10.3024
▁ستایشی	-10.3024
▁نه	-10.3024
▁ئەمساڵدا	-10.3028
▁داد	-10.3028
▁دەبینێتەوە	-10.3034
▁ڕەئوف	-10.3038
▁زیندان	-10.3041
▁بورهان	-10.3054
▁ئۆتۆمبێل	-10.3057
▁یاسایەکی	-10.3057
▁دابنرێت	-10.3061
▁ڕەنگدانەوەی	-10.3061
▁تاکەکانی	-10.3064
▁دەسەڵاتێکی	-10.3064
▁لایەنگری	-10.3064
▁چاکسازیی	-10.3064
▁class	-10.3067
▁بژی	-10.3067
▁نمایشەکەی	-10.3067
▁گەنجێکی	-10.3071
▁ئەنجومەن	-10.3077
▁کوردیان	-10.3077
▁text	-10.308
▁یاریدەدەری	-10.308
▁ئەکرد	-10.3084
▁سابیر	-10.3084
▁return	-10.309
▁ڕێبازی	-10.309
▁وریا	-10.3094
▁تائێستاش	-10.31
▁تیژی	-10.31
▁هەڵمەتێکی	-10.31
▁قەت	-10.311
▁ناوبژیوانی	-10.3114
▁comment	-10.312
▁none	-10.312
▁target	-10.3127
▁بەڕێوەبەرایەتیی	-10.313
▁فەلەستین	-10.313
▁مەبەستم	-10.313
▁عەمید	-10.3134
▁نامەی	-10.3134
▁ژمارەیان	-10.3134
▁_blank	-10.3137
▁decoration	-10.3137
▁fb_share_button	-10.3137
▁fbs_click	-10.3137
▁onclick	-10.3137
▁عیماد	-10.3137
▁پاڵتۆکەی	-10.314
▁خێرایی	-10.3144
▁پرۆژه	-10.3144
▁پەیوەندییەکان	-10.3144
▁دیسانەوە	-10.3147
▁سادە	-10.3147
▁سودان	-10.3147
▁لەسنووری	-10.3147
▁برزۆ	-10.315
▁سدیق	-10.3154
▁لەهەمانکاتدا	-10.3164
▁بەغدای	-10.3167
▁داهات	-10.317
▁دەگۆڕێت	-10.317
▁خۆیەوه	-10.3184
▁بتوانێ	-10.3187
▁عوسمانی	-10.319
▁کۆنترۆڵکردن	-10.3194
▁باکور	-10.32
▁ساڵانەی	-10.32
▁لێکەوتەوە	-10.32
▁دیاردەیە	-10.3204
▁ئۆپۆزیسیۆنەی	-10.3207
▁دەنووسێت	-10.3207
▁هاوکار	-10.3207
▁دەژی	-10.321
▁دەنگە	-10.3217
▁ژنێک	-10.3217
▁کراوەو	-10.322
▁سوکایەتی	-10.3224
▁گازی	-10.3224
▁بنووسیت	-10.3227
▁دواکەوتنی	-10.3227
▁بوایە	-10.3231
▁دەفەرموێت	-10.3234
▁وڵاتەکەیان	-10.3234
▁ڕۆژێکی	-10.3234
▁وتەبێژی	-10.3237
▁ِّ	-10.3241
▁پێشنیاری	-10.3244
▁یۆرۆ	-10.3244
▁بەخۆیەوە	-10.3247
▁دەرچوونی	-10.3247
▁پەرلەماندا	-10.3247
▁ئێستە	-10.3251
▁تێکۆشانی	-10.3251
▁شەنگال	-10.3251
▁بەدواداچوون	-10.3257
▁هەڵسەنگاندنی	-10.3264
▁گووتیشی	-10.3264
▁بەیاننامەیەکدا	-10.3268
▁تێکڕای	-10.3268
▁سیناریۆی	-10.3268
▁ناکوڵێت	-10.3268
▁دوژمنی	-10.3271
▁ما	-10.3271
▁یه	-10.3271
▁جاڕنامە	-10.3274
▁بڕیاریدا	-10.3278
▁سامی	-10.3278
▁وڵاتدا	-10.3281
▁باژێڕوانی	-10.3284
▁داخستنی	-10.3284
▁پێناسە	-10.3284
▁فەرەج	-10.3295
▁هەزارو	-10.3295
▁ویلایەته	-10.3301
▁حەق	-10.3305
▁پێناسەی	-10.3305
▁یارییەکی	-10.3305
▁بارودۆخە	-10.3308
▁نووسەران	-10.3308
▁هەیەتی	-10.3315
▁فەرمانبەرانی	-10.3318
▁میلان	-10.3322
▁پەیوەندیەکانی	-10.3322
▁بڵاویکردەوە	-10.3325
▁فیلۆفێست	-10.3325
▁جارێ	-10.3328
▁زاڵ	-10.3328
▁شێمحەمەد	-10.3328
▁دەچنە	-10.3332
▁سیستەمێکی	-10.3332
▁دەبینم	-10.3335
▁یارییەکه	-10.3335
▁حەمەی	-10.3339
▁دانوم	-10.3339
▁پەیوەستە	-10.3359
▁دوێتم	-10.3362
▁مافەکاو	-10.3362
▁نیشاندا	-10.3362
▁وڵاتان	-10.3369
▁کاتێکیش	-10.3369
▁یەکشەممە	-10.3369
▁سێشەممە	-10.3373
▁دابێت	-10.3376
▁هۆرگێڵنەر	-10.3376
▁ئیماراتیەکانی	-10.338
▁بنکە	-10.338
▁دەستیپێکرد	-10.338
▁هەلومەرجی	-10.338
▁گەورەکانی	-10.338
▁یوتوبوۆری	-10.338
▁لەقۆناغی	-10.3383
▁بەردی	-10.34
▁مەشق	-10.3403
▁ژماره	-10.341
▁ماندوو	-10.3414
▁خەلک	-10.3417
▁زانیاریی	-10.3417
▁پەرلەمانتارانی	-10.3424
▁فیلمێکی	-10.3427
▁پێشکەوتوو	-10.3427
▁بەڕێوەچوونی	-10.3431
▁کردوەو	-10.3438
▁تێکدانی	-10.3441
▁پاسەوانی	-10.3441
▁فۆنت	-10.3445
▁پیاوێک	-10.3445
▁ڤان	-10.3445
▁دادەنێت	-10.3448
▁لەوێدا	-10.3451
▁چوارەمی	-10.3458
▁دەکردەوە	-10.3472
▁جیاکردنەوەی	-10.3479
▁ئەنقەرە	-10.3493
▁شارێکی	-10.3496
▁نەرویج	-10.3496
▁کیمیایی	-10.35
▁توانیویانە	-10.3503
▁پشکنین	-10.3503
▁قاعیدە	-10.3507
▁بگرین	-10.351
▁حەمەغەفور	-10.351
▁خوشک	-10.351
▁دەڤەری	-10.3517
▁شارەدێی	-10.3517
▁دور	-10.3524
▁لێکرا	-10.3527
▁دوکان	-10.3538
▁پەیوەندیدارەکان	-10.3538
▁بڵاوبوونەوەی	-10.3545
▁غازی	-10.3545
▁کیلۆمەتر	-10.3545
▁هەژمار	-10.3552
▁کوردیت	-10.3552
▁لێدان	-10.3558
▁عەبدولکەریم	-10.3565
▁ماسی	-10.3565
▁دۆستی	-10.3572
▁دەدەم	-10.3572
▁دووشەممه	-10.3579
▁زاگرۆس	-10.3586
▁ئەوروپی	-10.359
▁بەرلین	-10.3593
▁دروستکردووە	-10.3593
▁دۆزی	-10.3593
▁پێشوازیی	-10.3593
▁شیرین	-10.3607
▁چوونی	-10.3607
▁ساڵدا	-10.3611
▁هێرشیان	-10.3614
▁ئەمنییەکانی	-10.3625
▁...	-10.3628
▁لەتیف	-10.3628
▁لوتکەی	-10.3632
▁گوند	-10.3635
▁ڕادەی	-10.3646
▁مارس	-10.3653
▁گۆرانیبێژ	-10.3653
▁هەرچەنده	-10.3656
▁کوڕە	-10.3656
▁but	-10.366
▁کۆمەڵایەتیی	-10.366
▁داگیرکردنی	-10.3663
▁فەوجی	-10.3663
▁1988	-10.3667
▁وزە	-10.367
▁پەرە	-10.367
▁شی	-10.3677
▁لەخۆی	-10.3677
▁لەمێژووی	-10.3677
▁کیبۆردی	-10.3677
▁دیداری	-10.3688
▁شێوازە	-10.3688
▁ئەنجامداوە	-10.3698
▁زیادبوونی	-10.3698
▁فەلسەفی	-10.3698
▁پاڵەوانیەتی	-10.3698
▁ئەوپەڕی	-10.3705
▁بکەنە	-10.3705
▁خسته	-10.3705
▁ئەنبار	-10.3709
▁پاکی	-10.3712
▁تەندروستیی	-10.3723
▁بەرژەوەندییەکانی	-10.3727
▁sorani	-10.3734
▁up	-10.3734
▁ناوچەیی	-10.3734
▁هەنگاوە	-10.3734
▁تیمی	-10.3748
▁دەشتی	-10.3748
▁چەشنە	-10.3748
▁ڕابردودا	-10.3748
▁بردەوە	-10.3751
▁فێستیڤاڵی	-10.3751
▁داخوازی	-10.3755
▁بدەم	-10.3758
▁زراندن	-10.3762
▁نایاسایی	-10.3762
▁هەروەکو	-10.3762
▁کوردەوە	-10.3769
▁دەستخۆشی	-10.3776
▁کۆبوونەوەکە	-10.3776
▁ماڵە	-10.3783
▁پێیەی	-10.3783
▁ئەنجامەکانی	-10.379
▁فکری	-10.379
▁لەوه	-10.3794
▁Send	-10.3797
▁ستەم	-10.3797
▁ویلایەتە	-10.3801
▁کاره	-10.3805
▁کەلە	-10.3805
▁بینووسیت	-10.3808
▁دابنێت	-10.3808
▁گەورەیان	-10.3808
▁پێشبڕکێی	-10.3812
▁ڕوی	-10.3822
▁ڕۆژنامەگەری	-10.3826
▁کچێکی	-10.3826
▁Cancel	-10.3829
▁display	-10.3829
▁لەناوچەکەدا	-10.3829
▁کچانی	-10.3829
▁نەکردنی	-10.3833
▁هیوادارین	-10.3833
▁یۆنان	-10.3833
▁تێبینییەکت	-10.384
▁ڕێبوار	-10.384
▁ئەدرەسەکەت	-10.3844
▁تێبینیەکەت	-10.3844
▁دەرچوو	-10.3844
▁فۆرمی	-10.3844
▁پیشەیی	-10.3844
▁follow	-10.3847
▁keyboard	-10.3847
▁دەرناکەویت	-10.3847
▁lexilogos	-10.3851
▁Notify	-10.3854
▁JComments	-10.3858
▁لەبیر	-10.3858
▁ویست	-10.3858
▁وەرگێڕانی	-10.3858
▁پەیوەندییان	-10.3858
▁گۆڕانکاریی	-10.3862
▁یەکێ	-10.3862
▁نادەن	-10.3865
▁ڕەوا	-10.3869
▁ڕۆمان	-10.3872
▁جیاوازیی	-10.3876
▁نەما	-10.3876
▁ئۆکرانیا	-10.388
▁دادوەر	-10.388
▁دەسەڵاتداران	-10.3883
▁سویدی	-10.3887
▁پێشنیازی	-10.3887
▁ئاماژەیان	-10.389
▁فەڕەنسا	-10.3897
▁نەخۆشخانە	-10.3897
▁پرۆسەکە	-10.3897
▁دیدی	-10.3901
▁ئوردن	-10.3905
▁سکاڵای	-10.3905
▁فایەق	-10.3905
▁فەرماندەیی	-10.3908
▁گرتووەتەوە	-10.3908
▁بەدەم	-10.3912
▁بەرهەمه	-10.3912
▁شەشەم	-10.3912
▁فەرمان	-10.3912
▁تەنیایی	-10.3915
▁سیاسەتەکانی	-10.3919
▁ڕۆژنامەنوسان	-10.3923
▁پتەوکردنی	-10.3933
▁نەتەوایەتی	-10.3937
▁ئاڵۆزی	-10.3944
▁بڕیارەکانی	-10.3944
▁لەپارێزگای	-10.3944
▁پەیوەندیدار	-10.3944
▁کەوتۆتە	-10.3944
▁شەڕێکی	-10.3952
▁مێشک	-10.3955
▁پابەندی	-10.3962
▁ئەمان	-10.397
▁لەوێوە	-10.397
▁دەولەتی	-10.3973
▁ناوەرۆکی	-10.3973
▁پار	-10.3988
▁پشتگیریی	-10.3988
▁کەلتوری	-10.3988
▁ئاوارە	-10.3991
▁تێگەیشتنی	-10.3995
▁تۆمارکردنی	-10.3999
▁شانی	-10.3999
▁ببات	-10.4002
▁دەڵێین	-10.4002
▁کەنداو	-10.4002
▁بگرێتەوە	-10.4006
▁پەیەدە	-10.4009
▁تاوتوێکردنی	-10.4013
▁سەیرە	-10.4013
▁تێڕوانینی	-10.4017
▁کوژرا	-10.4017
▁جاف	-10.402
▁هاتووه	-10.402
▁گروپێکی	-10.402
▁گەیشتووە	-10.402
▁دوێنی	-10.4024
▁دەمەوێ	-10.4024
▁ئەدات	-10.4031
▁بڕوانامەی	-10.4035
▁بەردەوامن	-10.4035
▁لەدەستداوە	-10.4042
▁دڵسۆزی	-10.4046
▁خەرجی	-10.4053
▁هەندێکی	-10.4057
▁هەڵبەتە	-10.4057
▁یونس	-10.4057
▁کۆنی	-10.406
▁نەبووایە	-10.4064
▁ڕوونکردنەوەی	-10.4064
▁پەیمانی	-10.4068
▁دەکەونە	-10.4071
▁موسڵمانان	-10.4071
▁میسی	-10.4071
▁دەستپێدەکات	-10.4075
▁لەسایەی	-10.4075
▁نەوزاد	-10.4086
▁وایان	-10.4086
▁ئەرکەکانی	-10.409
▁دەوڵەمەند	-10.409
▁ٌ	-10.409
▁سەروەت	-10.4093
▁ڕووناکی	-10.4097
▁دووپات	-10.4108
▁مادی	-10.4112
▁نەمر	-10.4115
▁ئیشی	-10.4119
▁داو	-10.4123
▁دەکەمەوە	-10.4123
▁ڕوخانی	-10.4123
▁کاروانی	-10.4126
▁یۆنیۆ	-10.4126
▁لێدەکات	-10.413
▁ڕەوای	-10.413
▁75	-10.4134
▁ڕەفتاری	-10.4134
▁کارەکان	-10.4137
▁ئەمانەش	-10.4141
▁ئەمەریکای	-10.4145
▁بۆم	-10.4145
▁بەرگریکردن	-10.4152
▁بکەمەوە	-10.4156
▁ڕێککەوتننامەی	-10.4156
▁تەندروست	-10.416
▁تارق	-10.4163
▁بڵاوکردەوە	-10.4167
▁دەزگایەکی	-10.4167
▁حیزبێک	-10.4171
▁عەقڵی	-10.4171
▁وادەکات	-10.4171
▁ڕۆشنایی	-10.4171
▁بکەوێتە	-10.4174
▁تورکیای	-10.4178
▁لەوانه	-10.4178
▁ئاهەنگی	-10.4185
▁سارد	-10.4185
▁دەرچوون	-10.4189
▁لەسەرەتاوە	-10.4189
▁مسوەگەر	-10.4189
▁وڵاتانە	-10.4193
▁ئەوانەش	-10.4196
▁یاریزانانی	-10.4196
▁زۆرینە	-10.42
▁ناوەوەی	-10.42
▁بگیرێت	-10.4204
▁سیاسەتێکی	-10.4204
▁کۆمەڵگایەکی	-10.4204
▁قەندیل	-10.4211
▁دەردەچێت	-10.4219
▁کردەی	-10.4222
▁یارییەکە	-10.4222
▁2000	-10.423
▁ئاراس	-10.4234
▁تایبەتمەندی	-10.4237
▁کەئەو	-10.4241
▁سینەماکاری	-10.426
▁ڕاهێنان	-10.4263
▁هەنگاوەکانی	-10.4267
▁شە	-10.4271
▁پارێزەری	-10.4271
▁دووری	-10.4274
▁قۆناغەکانی	-10.4274
▁جیاوازەکان	-10.4278
▁ـی	-10.4278
▁دیموکراسی	-10.4282
▁مەسعوود	-10.4286
▁شا	-10.4289
▁میدیاکانی	-10.4289
▁پرس	-10.4289
▁بەرد	-10.4293
▁کردنیان	-10.4293
▁هاوسەنگی	-10.4304
▁ولاتی	-10.4308
▁عەللاوی	-10.4316
▁پەیمانگای	-10.4316
▁the	-10.4319
▁نمونەی	-10.4319
▁بێن	-10.4323
▁پێکردووە	-10.4323
▁بەرزبوونەوەی	-10.4327
▁دوژمنانی	-10.4327
▁لەحکومەتی	-10.4342
▁پەخش	-10.4342
▁گەیشتنی	-10.4342
▁گەیشتنە	-10.4346
▁یەکان	-10.4346
▁کۆنترۆڵ	-10.4349
▁بەباشی	-10.4357
▁بکەی	-10.4361
▁سەرانسەری	-10.4361
▁گەنجی	-10.4361
▁بڵاوکراوەتەوە	-10.4364
▁نەدەکرد	-10.4372
▁ناتوانم	-10.4376
▁شەری	-10.4383
▁دیمەشق	-10.4395
▁زانایان	-10.4395
▁بەڵگە	-10.4398
▁تاکەکان	-10.4398
▁گرنگیی	-10.4402
▁پێت	-10.4406
▁غاز	-10.441
▁قەیران	-10.4413
▁کێبڕکێی	-10.4421
▁دەربڕین	-10.4425
▁ئومێدی	-10.4429
▁لەهیچ	-10.4432
▁پۆلی	-10.4432
▁کێشی	-10.4436
▁مەسەلەکە	-10.4444
▁شارەزایی	-10.4459
▁مرۆڤێکی	-10.4467
▁ڕەتکردنەوەی	-10.4467
▁زیادی	-10.4482
▁ئافرەتانی	-10.4486
▁بەوردی	-10.4489
▁داڕشتنی	-10.4489
▁میوانی	-10.4489
▁سوری	-10.4497
▁سەرۆکوەزیرانی	-10.4497
▁لەبەرژەوەندی	-10.4497
▁تریشەوە	-10.4501
▁ئەکادیمی	-10.4505
▁مانگه	-10.4505
▁بەرهەمهێنان	-10.4508
▁نامۆ	-10.4512
▁وێستگەی	-10.4512
▁خدر	-10.4516
▁پرۆژەیەکی	-10.4516
▁خۆرئاوا	-10.4531
▁دۆخێکی	-10.4531
▁نەناسراو	-10.4531
▁ئەمەیە	-10.4535
▁خاڵەکانی	-10.4547
▁شەقامەکان	-10.4547
▁پێشەوەی	-10.4547
▁کۆتای	-10.4547
▁ڕەشی	-10.4551
▁ساڵیادی	-10.4554
▁تەئکیدی	-10.4558
▁چینە	-10.4562
▁خوازیاری	-10.4566
▁تابلۆ	-10.4574
▁دیاردە	-10.4574
▁نەتەوەیەک	-10.4574
▁چوارچێوەیەدا	-10.4574
▁کارەساتە	-10.4574
▁گەشەپێدان	-10.4581
▁بەوەکرد	-10.4589
▁جەمیل	-10.4589
▁دواوە	-10.4589
▁بینەر	-10.4593
▁کۆمیسیۆن	-10.4593
▁بیەوێت	-10.4597
▁ڕاگەهاند	-10.4604
▁پیشان	-10.4616
▁خوێنەری	-10.462
▁پاشا	-10.4628
▁ڕەهەندی	-10.4628
▁ئیمارات	-10.4631
▁بردووە	-10.4631
▁بژێوی	-10.4631
▁نامەیەکی	-10.4631
▁چوونکە	-10.4643
▁لەبەرچاو	-10.4647
▁ژنێکی	-10.4647
▁بەشداریان	-10.4651
▁ڕۆژەدا	-10.4651
▁ئیدانەی	-10.4655
▁لۆ	-10.4655
▁هۆیەوە	-10.4655
▁خەڵکدا	-10.4658
▁سوورە	-10.4662
▁دوابەدوای	-10.4666
▁شەریف	-10.4666
▁نیشانی	-10.4666
▁شەهیدی	-10.467
▁بەسە	-10.4674
▁مافێکی	-10.4674
▁بەدەستەوە	-10.4678
▁دەستبەجێ	-10.4678
▁گوزارشت	-10.4678
▁دەریای	-10.4682
▁گوزەرانی	-10.4686
▁گرنگەکانی	-10.469
▁دووپاتکردەوە	-10.4693
▁چوارشەممه	-10.4693
▁قەدەغەکردنی	-10.4701
▁ڕووداوەکه	-10.4701
▁دیکەوه	-10.4705
▁مەنسوور	-10.4705
▁هاندانی	-10.4713
▁گرتەوە	-10.4728
▁فەرمانبەران	-10.4732
▁کارەسات	-10.4732
▁کاتیشدا	-10.4736
▁تەواوبوونی	-10.474
▁ژیانە	-10.474
▁بەیاننامەی	-10.4748
▁دەرەوه	-10.4752
▁ئاراستە	-10.476
▁سیتی	-10.476
▁باجی	-10.4764
▁بەرێوەبەرایەتی	-10.4764
▁گوتن	-10.4764
▁بەپێچەوانەی	-10.4772
▁شان	-10.4772
▁ڕابردو	-10.4772
▁نیەو	-10.4775
▁بارودۆخەکە	-10.4779
▁کلیـکـکردنی	-10.4779
▁ئەنجامدرا	-10.4783
▁هێزێک	-10.4783
▁جوانە	-10.4795
▁ئەمریکادا	-10.4799
▁بنێت	-10.4799
▁تیشک	-10.4799
▁شەرم	-10.4799
▁تایبەتیش	-10.4803
▁250	-10.4811
▁دایەوە	-10.4811
▁دەستەبەر	-10.4819
▁نییەکە	-10.4819
▁چیای	-10.4827
▁دەنگدانی	-10.483
▁ئێزدی	-10.4834
▁گەشتیاری	-10.4834
▁پڕە	-10.4838
▁زنجیرە	-10.4846
▁فڕۆکەخانەی	-10.485
▁نەتوانێت	-10.4854
▁کایەوە	-10.4858
▁نەکەین	-10.4862
▁کەلتووری	-10.4862
▁گۆرانیبێژی	-10.4862
▁یەکیەتی	-10.4866
▁زوڵم	-10.487
▁گوێبیسـتی	-10.487
▁سەرو	-10.4874
▁بەسەرۆکایەتی	-10.4882
▁کۆمەڵانی	-10.4886
▁دیاریکراوی	-10.4894
▁پڕۆژەیەکی	-10.4898
▁ڕوودانی	-10.4898
▁خان	-10.4902
▁بهێنین	-10.4906
▁وانەی	-10.4906
▁ئاوەدانی	-10.491
▁ئاغا	-10.4914
▁خەڵات	-10.4922
▁سوریادا	-10.4922
▁سەلیم	-10.4926
▁وێت	-10.4926
▁ڕۆژدا	-10.4926
▁ڕەنگه	-10.4926
▁دەکەنە	-10.493
▁پەلە	-10.493
▁ئەکەم	-10.4934
▁باهۆز	-10.4934
▁دڵسۆز	-10.4934
▁بەڵکە	-10.4938
▁پرۆسەیە	-10.4938
▁گەرچی	-10.4938
▁سەرژمێری	-10.4942
▁داخەوە	-10.4945
▁مەسەلەیەکی	-10.4945
▁پلانێکی	-10.4949
▁ئەوتۆ	-10.4953
▁پرسیارێکی	-10.4953
▁بەرشەلۆنە	-10.4957
▁نووسیویەتی	-10.4965
▁دەیکات	-10.4969
▁هاتنه	-10.4969
▁ئیسرائیلی	-10.4973
▁سەپتەمبەر	-10.4973
▁لەکاتێکدایە	-10.4973
▁دروستکراوە	-10.4977
▁هاشم	-10.4977
▁مانایەکی	-10.4981
▁خۆشەویست	-10.4985
▁درامای	-10.4985
▁لێدەکرێت	-10.4985
▁ئۆتۆمبێلی	-10.5001
▁ساڵه	-10.5001
▁شەخسی	-10.5001
▁بایز	-10.5006
▁کەرەستەی	-10.501
▁سەربازییەکانی	-10.5014
▁نەتەوەو	-10.5014
▁گوڵی	-10.5014
▁تاکێکی	-10.5022
▁دەی	-10.5026
▁ڕوویداوە	-10.5026
▁بەمشێوەیە	-10.503
▁لەهەوڵی	-10.5034
▁پرۆگرامی	-10.5034
▁بەرە	-10.5042
▁تیۆری	-10.5042
▁خۆیانی	-10.5042
▁ڕۆژانه	-10.5042
▁تیرۆریست	-10.5046
▁میکانیزمی	-10.505
▁نزیکە	-10.5054
▁نیازی	-10.5054
▁بەهۆیەوە	-10.5058
▁کۆبوونەوەکانی	-10.5066
▁دواخستنی	-10.5074
▁شـاری	-10.5074
▁بەرنامەو	-10.5078
▁ئۆتۆمبێلێکی	-10.5082
▁بەدەستهێناوە	-10.5082
▁دزەیی	-10.5082
▁سیمای	-10.5082
▁ئافرەتی	-10.5086
▁ماڵپەری	-10.5086
▁وەسف	-10.5086
▁پزیشک	-10.5086
▁کۆمەڵه	-10.5086
▁بەچەند	-10.509
▁منداڵێکی	-10.509
▁ڕاهێنانی	-10.509
▁بەغداو	-10.5094
▁وەبەرهێنانی	-10.5094
▁لێم	-10.5102
▁1999	-10.5106
▁ئەوکاتەی	-10.5114
▁لەدیدارێکدا	-10.5114
▁چارەی	-10.5114
▁بنیات	-10.5119
▁هاوسەرگیری	-10.5119
▁دەهات	-10.5123
▁بنەمایەکی	-10.5127
▁کۆمکاری	-10.5127
▁دەخوازێت	-10.5139
▁بەمانای	-10.5147
▁دەستم	-10.5147
▁کاردەکات	-10.5147
▁ئاکامدا	-10.5151
▁گفتوگۆکردن	-10.5155
▁دەرەوەو	-10.5159
▁بگۆڕێت	-10.5163
▁نەچێت	-10.5163
▁بێبەش	-10.518
▁هێرشێکی	-10.518
▁مرۆڤێک	-10.5184
▁سەردەمەدا	-10.5188
▁ئەرێ	-10.5196
▁سەرمایە	-10.5196
▁هەرێمەوە	-10.5196
▁کۆمپانیایەکی	-10.5212
▁لەناوچە	-10.5216
▁مانگانە	-10.5216
▁گوتوویەتی	-10.5216
▁زانکۆکانی	-10.522
▁لەژیانی	-10.522
▁نووسیوە	-10.522
▁چەکدارەکان	-10.522
▁باڵیۆزخانەی	-10.5233
▁هەڵبژاردندا	-10.5233
▁هەڵوێستێکی	-10.5241
▁گرێبەستی	-10.5241
▁یەکشەممه	-10.5241
▁ئاژەڵ	-10.5245
▁لاو	-10.5245
▁وێران	-10.5245
▁چاودێرانی	-10.5245
▁تێپەڕ	-10.5249
▁مانگەدا	-10.5253
▁بەلکو	-10.5257
▁ناتوانرێت	-10.5257
▁دیکەیان	-10.5262
▁هیندستان	-10.5262
▁بوونەتەوە	-10.5274
▁لەپێش	-10.5274
▁لەسەرتاسەری	-10.5278
▁جودا	-10.5282
▁ئوسترالیا	-10.5286
▁جوانترین	-10.529
▁عەلاوی	-10.529
▁بەتوندی	-10.5295
▁ێوەچوو	-10.5295
▁هەڵەبجەی	-10.5299
▁فیدراسیۆنی	-10.5303
▁1992	-10.5307
▁وتویەتی	-10.5319
▁ڕۆیتەرز	-10.5319
▁ئەورووپا	-10.5324
▁دەستکەوتی	-10.5324
▁قورسایی	-10.5324
▁بردنەوەی	-10.5328
▁بگەڕێنەوە	-10.5332
▁بنەماڵە	-10.534
▁سبەینێ	-10.534
▁فەرمانبەر	-10.534
▁لەئاست	-10.534
▁حکومەتدا	-10.5344
▁سازدانی	-10.5344
▁لیستە	-10.5361
▁کەناڵە	-10.5361
▁ێوه	-10.5365
▁بەیان	-10.5369
▁ڕێکەوتنی	-10.5369
▁ئەڵێت	-10.5373
▁لیوای	-10.5378
▁ببێته	-10.5382
▁بریکاری	-10.5382
▁سیستمە	-10.5382
▁سڤیل	-10.5386
▁گواستنەوە	-10.5386
▁باوەڕیان	-10.539
▁تۆی	-10.539
▁لەمەودوا	-10.539
▁هەموان	-10.539
▁زەمینەی	-10.5398
▁گەلە	-10.5398
▁ئاڵا	-10.5411
▁گەورەیی	-10.5411
▁لێدوانەکەیدا	-10.5415
▁حزبێکی	-10.5419
▁دیمەنی	-10.5423
▁شوێنەکانی	-10.5423
▁پەروەردەیی	-10.5423
▁گرفتەکانی	-10.5428
▁قۆناغەدا	-10.5436
▁نیشتیمان	-10.5436
▁گرێ	-10.5436
▁ئاکۆ	-10.544
▁سندوقی	-10.544
▁چوارەمین	-10.544
▁یاره	-10.544
▁موحسین	-10.5444
▁دارا	-10.5449
▁لەگەڵیدا	-10.5457
▁کوتلە	-10.5461
▁یەکەکانی	-10.5461
▁تەواوەتی	-10.5465
▁هەرکەسێک	-10.5465
▁ڕووسی	-10.5465
▁لەتورکیا	-10.547
▁نائاسایی	-10.547
▁ڕووبەڕووبوونەوەی	-10.5474
▁جۆراو	-10.5478
▁قازانج	-10.5486
▁هاولا	-10.5486
▁ژێرخانی	-10.5486
▁ئەدەبیاتی	-10.5491
▁دووپاتی	-10.5491
▁سوڵتان	-10.5495
▁یاوەری	-10.5495
▁ئاوات	-10.5503
▁نەبونی	-10.5507
▁ئاوەدانکردنەوەی	-10.5512
▁دووەمیش	-10.5512
▁دەستدرێژی	-10.5512
▁مێشکی	-10.5512
▁شنگال	-10.5516
▁لەوەزارەتی	-10.5516
▁بریار	-10.552
▁بەدڵنیاییەوە	-10.552
▁جیهانە	-10.552
▁داود	-10.552
▁دەردەخات	-10.5529
▁قووڵی	-10.5529
▁هەڵوێستە	-10.5529
▁کاندیدەکانی	-10.5529
▁دواییدا	-10.5533
▁ئامادەن	-10.5537
▁گەلان	-10.5537
▁هەڵەیە	-10.5546
▁باو	-10.555
▁باوەشی	-10.555
▁بەرژەوەندییە	-10.5554
▁وڵاتانەی	-10.5554
▁ڕووداوەکە	-10.5554
▁کرده	-10.5562
▁فریاکەوتنی	-10.5571
▁نەکردوە	-10.5571
▁کۆبوونەوەکەدا	-10.5571
▁کەڵک	-10.5571
▁ئاواز	-10.5575
▁گوتەی	-10.5575
▁دانمارک	-10.5579
▁هەرسێک	-10.5579
▁بڕیارەی	-10.5584
▁کۆچ	-10.5584
▁دیواری	-10.5588
▁مەیدان	-10.5588
▁ترسناک	-10.5592
▁بنێن	-10.5596
▁پێشێل	-10.5596
▁بووەتەوە	-10.5601
▁شوانی	-10.5601
▁ڕەفتار	-10.5605
▁بەبڕوای	-10.5609
▁کێشه	-10.5609
▁جۆرەکانی	-10.5614
▁سیستمێکی	-10.5614
▁هاتووچۆ	-10.5614
▁یەکانی	-10.5614
▁نانی	-10.5626
▁چاپی	-10.5626
▁ئەمریکای	-10.5635
▁ئەمشەو	-10.5635
▁چاکە	-10.5639
▁برایانی	-10.5643
▁بەئاشکرا	-10.5648
▁بپارێزن	-10.5656
▁زەرد	-10.5661
▁لەڕۆژی	-10.5661
▁هونەرمەندە	-10.5661
▁پەخشی	-10.5661
▁ڕاپرسی	-10.5661
▁قۆناغ	-10.5665
▁کوردن	-10.5665
▁کەسانێکی	-10.5669
▁هاواری	-10.5673
▁بانگەواز	-10.5678
▁سوریاو	-10.5678
▁شارەکان	-10.5682
▁ڕادەربڕین	-10.5686
▁سالی	-10.5691
▁تەوافوق	-10.5695
▁زانیارییەکان	-10.5695
▁لەلێدوانێکی	-10.5695
▁ئەندامان	-10.5699
▁بەکورتی	-10.5699
▁دێرین	-10.5699
▁میوان	-10.5699
▁تورکیاوە	-10.5703
▁سیاسییەوە	-10.5703
▁ئیران	-10.5708
▁بچن	-10.5708
▁سەرکوت	-10.5708
▁ناوچانەی	-10.5708
▁حاڵەتە	-10.5712
▁سەرکردەیەکی	-10.5712
▁فرانس	-10.5712
▁تۆم	-10.5716
▁مزگەوت	-10.5716
▁یارییەکان	-10.5716
▁هۆکارە	-10.5721
▁پێشوازییکرد	-10.5721
▁مەزنی	-10.5729
▁بەفر	-10.5734
▁تێکۆشان	-10.5738
▁نوێژی	-10.5742
▁ڕاکێشانی	-10.5755
▁قەرزی	-10.5764
▁دڵنیایی	-10.5768
▁چەپی	-10.5768
▁لەوەتەی	-10.5773
▁نەمێنێت	-10.5777
▁ئەوتۆی	-10.5781
▁بیرم	-10.5781
▁دەرمانی	-10.5781
▁سێشەممه	-10.579
▁قەومی	-10.579
▁سزادانی	-10.5794
▁پێدراوە	-10.5794
▁لاوە	-10.5799
▁درەنگ	-10.5803
▁دەبەخشێت	-10.5803
▁دەسەڵاتدا	-10.5807
▁دەقە	-10.5807
▁کارا	-10.5807
▁کەش	-10.5807
▁لەدەستدانی	-10.5812
▁ماوەیەکە	-10.5816
▁تەواوکردنی	-10.5825
▁دەستنیشانکردنی	-10.5825
▁ئەکرێت	-10.5829
▁فیستیڤاڵ	-10.5833
▁چارەنوسی	-10.5833
▁ئەوقاف	-10.5838
▁نووسیندا	-10.5846
▁وەرە	-10.5851
▁کارمەندی	-10.5868
▁Kurdistan	-10.5877
▁کلتوری	-10.5877
▁گەلێ	-10.5877
▁جۆرێکی	-10.5881
▁داهێنانی	-10.5881
▁لەکۆی	-10.5903
▁تاکوو	-10.5908
▁نەوەکانی	-10.5908
▁کور	-10.5912
▁خە	-10.5925
▁ماددی	-10.5925
▁ئازادیخواز	-10.5939
▁تاقیکردنەوەی	-10.5943
▁کاریگەرییەکی	-10.5943
▁تواناکانی	-10.5956
▁چۆنە	-10.5956
▁بەڕووی	-10.5965
▁شکاندنی	-10.5965
▁لیژنە	-10.5965
▁ئەزمونی	-10.5983
▁دەبم	-10.5983
▁پارێزراو	-10.5983
▁بڕینی	-10.5987
▁خەڵکێکی	-10.6
▁هاوچەرخ	-10.6
▁ئۆسکار	-10.6009
▁بەرهەمێکی	-10.6009
▁قسەو	-10.6009
▁ناوەڕاستدا	-10.6009
▁پێداویستییەکانی	-10.6009
▁گرنگتر	-10.6009
▁دەربڕی	-10.6018
▁پێدەکرێت	-10.6018
▁دەسەڵاتدار	-10.6023
▁مۆڵەت	-10.6023
▁ستافی	-10.6027
▁عێڕاق	-10.6027
▁بهێنرێت	-10.6032
▁جەوهەر	-10.6032
▁پارەیە	-10.6032
▁یەکێکه	-10.6036
▁ڕووبەری	-10.604
▁گۆر	-10.604
▁گاز	-10.6045
▁خوێندەوە	-10.6054
▁نەریتی	-10.6054
▁پێشێلکردنی	-10.6054
▁کرداری	-10.6054
▁بالا	-10.6058
▁بەشەی	-10.6058
▁ساڵان	-10.6058
▁لەمیانی	-10.6058
▁لەدەست	-10.6063
▁لەوەشکرد	-10.6067
▁شێرزاد	-10.6072
▁بریتانیا	-10.6076
▁کرماشان	-10.6076
▁ڕاو	-10.6085
▁ئەدەن	-10.6089
▁بۆمبێکی	-10.6089
▁ولە	-10.6089
▁ئیسلامدا	-10.6094
▁تاڵیبان	-10.6103
▁نرخ	-10.6103
▁فەرەیدون	-10.6107
▁ملی	-10.6107
▁منە	-10.6107
▁کارەکەی	-10.6107
▁to	-10.6112
▁مێژوویەکی	-10.6112
▁ڕاستیە	-10.6112
▁قەدەغە	-10.6116
▁ماڵەکەی	-10.6116
▁کوژراو	-10.6116
▁یارییە	-10.6116
▁ئێرانەوە	-10.6121
▁بێنێت	-10.6121
▁جل	-10.6121
▁لیست	-10.6134
▁لایە	-10.6139
▁لەشی	-10.6139
▁سەرچاوەکەی	-10.6143
▁کوا	-10.6143
▁جیهانیدا	-10.6152
▁گرینگی	-10.6152
▁گیراوە	-10.6152
▁بارە	-10.6157
▁جۆراوجۆری	-10.6157
▁پێنجشەممە	-10.6157
▁چە	-10.6157
▁لەپشت	-10.6161
▁فەرامۆش	-10.617
▁پێست	-10.617
▁شەماڵ	-10.6175
▁مندا	-10.6175
▁پیس	-10.6175
▁باسکردنی	-10.6179
▁حساب	-10.6179
▁سەفەر	-10.6179
▁لەدرێژەی	-10.6179
▁مزگەوتی	-10.6179
▁بانگەوازی	-10.6184
▁زووتر	-10.6184
▁فێر	-10.6184
▁65	-10.6188
▁دەداتەوە	-10.6193
▁لەدەستی	-10.6202
▁بەفەرمی	-10.6206
▁دیدارەدا	-10.6206
▁وانە	-10.6206
▁بگەنە	-10.6211
▁خوار	-10.6211
▁دامەزراوەی	-10.6211
▁ساڵیدا	-10.6211
▁قوبادی	-10.6211
▁سەلامەتی	-10.6215
▁ئیمام	-10.6225
▁فراوانتر	-10.6238
▁دەستگیرکران	-10.6243
▁هاوکاریکردنی	-10.6247
▁هەڵەیەکی	-10.6247
▁ئەڵماس	-10.6252
▁سۆزی	-10.6252
▁پارچەکانی	-10.6256
▁بکرێنەوە	-10.6261
▁هێدی	-10.6261
▁کیمیاوی	-10.6261
▁ئاڵوگۆڕی	-10.627
▁ای	-10.627
▁دەخەنە	-10.627
▁ئەمیر	-10.6275
▁دروستکرد	-10.6275
▁بۆچوون	-10.6279
▁مرۆڤدا	-10.6279
▁ڕۆح	-10.6279
▁یارمەتیدانی	-10.6279
▁بڕێکی	-10.6284
▁بەرشلۆنه	-10.6288
▁دیکۆمێنتی	-10.6288
▁دەستمان	-10.6288
▁نەکرا	-10.6293
▁ڕەتکردەوە	-10.6293
▁سنوورەکانی	-10.6297
▁سەرجەمی	-10.6297
▁ناچێت	-10.6297
▁ئایە	-10.6302
▁ماڵئاوایی	-10.6302
▁پەردەی	-10.6302
▁توندو	-10.6306
▁گشتییەکان	-10.6306
▁حزبەکانی	-10.6311
▁جەستەیی	-10.6316
▁نێودەوڵەتییەکان	-10.6316
▁هێزانە	-10.6316
▁کوردسـتان	-10.6316
▁خانەوادەی	-10.632
▁نابێتەوە	-10.632
▁نیمچە	-10.632
▁ئاژانسا	-10.6329
▁وتارێکی	-10.6329
▁شەپۆلی	-10.6334
▁تاکه	-10.6339
▁بێکەس	-10.6343
▁شین	-10.6343
▁پێشینەی	-10.6343
▁گرووپە	-10.6348
▁ئێک	-10.6352
▁تەوەری	-10.6352
▁نەیانتوانی	-10.6357
▁پارتیی	-10.6357
▁دوبارە	-10.6361
▁نیشتەجێ	-10.6361
▁بپارێزێت	-10.6366
▁سێیەمین	-10.6366
▁سود	-10.6371
▁نەدات	-10.6371
▁ئێوەش	-10.6375
▁بان	-10.6375
▁سوودێکی	-10.6375
▁ئەوەدا	-10.6389
▁سان	-10.6389
▁شاره	-10.6389
▁ڕەحیم	-10.6389
▁تاریکی	-10.6394
▁هەموارکردنی	-10.6394
▁ناوەندە	-10.6398
▁چۆڵ	-10.6398
▁دانیشتن	-10.6412
▁سەعدی	-10.6412
▁هەرێمیش	-10.6412
▁پیر	-10.6412
▁بڕێک	-10.6417
▁لیژنەیەک	-10.6417
▁مانچستەر	-10.6417
▁هەڵەبجه	-10.6417
▁سەنگەر	-10.6421
▁پرسێکی	-10.6426
▁کارگەی	-10.6431
▁ئێوەی	-10.6435
▁دەسته	-10.6435
▁عەسکەری	-10.6435
▁لەکار	-10.6435
▁زریان	-10.6445
▁بەتەواوەتی	-10.6449
▁خۆزگە	-10.6449
▁حەکیم	-10.6454
▁عەرەبە	-10.6454
▁لەوان	-10.6454
▁نەبوە	-10.6454
▁قاعیده	-10.6458
▁جیهانیی	-10.6463
▁کرابێت	-10.6468
▁نەهاتووە	-10.6477
▁بینیمان	-10.6482
▁هەڵەبجەو	-10.6482
▁ئەستێرەی	-10.6486
▁بەهێزتر	-10.6491
▁پەنابەری	-10.6491
▁شارەزای	-10.65
▁فەلاح	-10.65
▁لێبوردن	-10.6505
▁هاتیه	-10.651
▁پڕۆژەکان	-10.651
▁لاپەڕە	-10.6514
▁600	-10.6519
▁بگەیەنێت	-10.6519
▁ڕەچاوی	-10.6519
▁چواری	-10.6524
▁بۆمبی	-10.6528
▁ئافرەتێک	-10.6542
▁هاوسەرەکەی	-10.6542
▁هەڵسوکەوتی	-10.6542
▁پسپۆڕی	-10.6542
▁ڕێور	-10.6547
▁بیانووی	-10.6552
▁هێرشە	-10.6552
▁وایکرد	-10.6552
▁بەهار	-10.6556
▁نیوەڕۆی	-10.6556
▁ه	-10.6556
▁هەندرێن	-10.6556
▁جێبەجێکردنەوە	-10.6561
▁داواکارین	-10.6561
▁وێرای	-10.6561
▁وەسفکرد	-10.6561
▁یەکڕیزی	-10.6561
▁2001	-10.6566
▁دەرهەق	-10.6566
▁شتانەی	-10.6566
▁ناوەراست	-10.6566
▁پەڕی	-10.6566
▁کۆمەڵایەتییەکان	-10.6566
▁بارەوە	-10.657
▁شێوەیەی	-10.657
▁عێراقیان	-10.6575
▁تاقی	-10.658
▁نەدەن	-10.658
▁هزر	-10.658
▁باشیان	-10.6585
▁جددی	-10.6589
▁برینداری	-10.6599
▁جی	-10.6599
▁لەهەڵبژاردنی	-10.6599
▁لەهۆڵی	-10.6603
▁مادام	-10.6608
▁خانەنشینی	-10.6613
▁شوباتی	-10.6613
▁لەبار	-10.6613
▁ئێمەیە	-10.6617
▁گەشت	-10.6617
▁جەژن	-10.6622
▁خزمەتگوزاریی	-10.6622
▁دووی	-10.6622
▁دەرباز	-10.6622
▁نایابەکانی	-10.6622
▁پەیامێکی	-10.6622
▁گرینگ	-10.6627
▁بەرپرسان	-10.6636
▁حسێن	-10.6636
▁داواکارییەکانی	-10.6641
▁عەرەبەکان	-10.6641
▁تەبایی	-10.6646
▁مانایە	-10.6646
▁ئاوارەکانی	-10.6651
▁داواشی	-10.6651
▁هاتبوو	-10.6651
▁پەنای	-10.6651
▁داوامان	-10.6655
▁نەخۆشیی	-10.666
▁کۆمەکی	-10.666
▁خۆشگوزەرانی	-10.6665
▁سازکرد	-10.6665
▁هەوا	-10.6669
▁قازی	-10.6679
▁بەرفراوان	-10.6684
▁160	-10.6688
▁ئەودا	-10.6688
▁کونسوڵی	-10.6688
▁لەگەلا	-10.6693
▁دادەنێن	-10.6698
▁نەرم	-10.6703
▁پاشماوەی	-10.6703
▁ئی	-10.6707
▁بەشداربوون	-10.6707
▁سەرووی	-10.6707
▁لەچاو	-10.6707
▁ستراتیژیی	-10.6712
▁سوننەکان	-10.6712
▁سەرە	-10.6712
▁کۆمپانیاکان	-10.6712
▁بەرەنگاری	-10.6727
▁بەستن	-10.6727
▁شێعرەکانی	-10.6727
▁عەبادی	-10.6727
▁لەشوێنی	-10.6736
▁The	-10.6741
▁نەجەف	-10.6741
▁پشتیوانیی	-10.6741
▁پێشوی	-10.6741
▁ئایندەیەکی	-10.6746
▁قووڵ	-10.6746
▁هەڵسوکەوت	-10.6746
▁گرفتە	-10.6746
▁ئەندامەکانی	-10.675
▁بەخشینی	-10.675
▁هێمای	-10.6755
▁کرانەوەی	-10.6755
▁تورکمانی	-10.676
▁ناچاری	-10.676
▁دەستکاری	-10.6774
▁دەنگدەران	-10.6774
▁منداڵەکانیان	-10.6779
▁پەنجەی	-10.6779
▁ئێمەو	-10.6784
▁شیاو	-10.6784
▁نیگەران	-10.6789
▁دەمێکە	-10.6793
▁هەبوە	-10.6793
▁بەپەلە	-10.6798
▁بەراستی	-10.6803
▁هێرۆ	-10.6803
▁دەدرێن	-10.6808
▁شەوە	-10.6808
▁پیادە	-10.6808
▁دیکتاتۆر	-10.6813
▁سەدا	-10.6817
▁نایەوێت	-10.6817
▁ژنانە	-10.6817
▁شەرعی	-10.6827
▁مێژوودا	-10.6827
▁پڕۆژه	-10.6827
▁تیرۆریستانی	-10.6832
▁تەماشا	-10.6832
▁ماچ	-10.6832
▁نیویۆرک	-10.6837
▁بەمجۆرە	-10.6842
▁لەهەندێک	-10.6846
▁بیروڕا	-10.6851
▁لەرێگای	-10.6851
▁فڕۆکەی	-10.6856
▁خێزانەکەی	-10.6861
▁لەوڵاتانی	-10.6861
▁لەیەکەم	-10.6861
▁هەفتەیەک	-10.6861
▁ئەوەم	-10.6866
▁بەوپەڕی	-10.6866
▁ناسراوی	-10.6866
▁هەستم	-10.6866
▁نوسین	-10.6871
▁گەنجە	-10.6871
▁خەو	-10.6875
▁کچێک	-10.6875
▁مێژوی	-10.688
▁کاتەوە	-10.688
▁خەریک	-10.6885
▁ئیجابی	-10.689
▁دەکردو	-10.6895
▁سەرشانی	-10.6895
▁تۆماری	-10.69
▁تۆن	-10.69
▁سۆز	-10.69
▁بۆشایی	-10.6904
▁داوەتە	-10.6904
▁شایستەی	-10.6904
▁بوارەکاندا	-10.6914
▁دواییەی	-10.6914
▁زۆرمان	-10.6924
▁خەڵکەوە	-10.6929
▁مۆسکۆ	-10.6929
▁هاوپەیمانان	-10.6929
▁یانەکە	-10.6929
▁بزانم	-10.6934
▁دەنگێکی	-10.6934
▁پیشەی	-10.6934
▁پێشکەشکرد	-10.6934
▁ڕوکن	-10.6934
▁بزووتنەوە	-10.6943
▁لەخولی	-10.6943
▁مێژووە	-10.6943
▁گەلێکی	-10.6943
▁2002	-10.6953
▁تێر	-10.6958
▁پێشنیار	-10.6958
▁هەوڵێک	-10.6963
▁گەیاندە	-10.6963
▁لایان	-10.6968
▁پارچه	-10.6968
▁بنچینەی	-10.6973
▁تێپەڕبوونی	-10.6973
▁کێشانە	-10.6973
▁کێیە	-10.6973
▁ئەڵێن	-10.6978
▁دامودەزگاکانی	-10.6978
▁هاوولاتیانی	-10.6982
▁هەواڵە	-10.6982
▁وێنەگرتنی	-10.6982
▁نادرێت	-10.6992
▁وشک	-10.6992
▁وەلامی	-10.6992
▁لێبوردنی	-10.7007
▁خۆشبەختانە	-10.7012
▁سووری	-10.7012
▁گران	-10.7012
▁ناسینی	-10.7017
▁نەیانتوانیوە	-10.7017
▁بڕوانە	-10.7022
▁تەئکید	-10.7022
▁ڕۆژنامەوان	-10.7022
▁ئاماژەشی	-10.7027
▁مەترسیدار	-10.7031
▁پڕۆژەکانی	-10.7031
▁شەممەی	-10.7036
▁قەرەداغی	-10.7036
▁in	-10.7041
▁ئەنجامدراوە	-10.7041
▁دانوستان	-10.7041
▁خێر	-10.7046
▁دۆر	-10.7046
▁بڕیاردان	-10.7051
▁بینین	-10.7051
▁دەیەوێت	-10.7051
▁فاکتەری	-10.7051
▁مێ	-10.7056
▁پێوەری	-10.7056
▁لەکۆبوونەوەکەدا	-10.7066
▁کایەی	-10.7066
▁ئامادەبووان	-10.7071
▁دانە	-10.7071
▁سیناریۆ	-10.7071
▁پەراوێز	-10.7076
▁هەنووکە	-10.7081
▁هەنگاوێک	-10.7081
▁ڕێگر	-10.7081
▁بەهەشت	-10.7086
▁دگەل	-10.7086
▁دانیشتوان	-10.7091
▁پارەیەکی	-10.7091
▁خۆپیشاندانەکانی	-10.7095
▁محەمەدی	-10.7095
▁ئاستە	-10.7105
▁جەولەی	-10.7105
▁خستنە	-10.7105
▁ئاوازی	-10.7115
▁فیلمەکە	-10.7115
▁موفتی	-10.7115
▁ڕەوشەنبیری	-10.712
▁ئەمەیان	-10.713
▁شارەزایانی	-10.713
▁لەکاری	-10.713
▁ڕەسەنی	-10.713
▁دەیکەن	-10.7135
▁کارگێری	-10.714
▁ئامادەبوون	-10.715
▁نووسی	-10.715
▁تاد	-10.7155
▁دەکەوێتەوە	-10.7155
▁زانینی	-10.7155
▁ێوەبەری	-10.7155
▁بەگ	-10.716
▁تەقینەوە	-10.716
▁حاڵەتێکی	-10.716
▁پارلەمانی	-10.7165
▁کۆمسیۆنی	-10.7165
▁بڕیارەکەی	-10.717
▁پەیکەری	-10.717
▁بڕگەی	-10.7175
▁سێی	-10.7175
▁مافەکانیان	-10.7175
▁کرێی	-10.7175
▁گرتبوو	-10.7175
▁حزبەکەی	-10.718
▁لەسوریا	-10.718
▁بار	-10.7185
▁بۆچوونە	-10.7185
▁خولەکەکانی	-10.7185
▁موقتەدا	-10.7185
▁هاریکاری	-10.7185
▁مل	-10.719
▁نوی	-10.719
▁چەندەها	-10.719
▁کوردییە	-10.719
▁بنکەکانی	-10.7195
▁ناوخۆو	-10.7205
▁هەریەکەیان	-10.7205
▁بباتەوە	-10.7215
▁لێدوانێکیدا	-10.7215
▁هونەرە	-10.7225
▁ڕووت	-10.7225
▁لەنزیک	-10.723
▁ڕێگرتن	-10.723
▁خۆماڵی	-10.7235
▁عن	-10.7235
▁پێشانگایەکی	-10.7235
▁یاد	-10.7235
▁خۆیانە	-10.725
▁بووی	-10.7255
▁مامە	-10.7255
▁بۆیەش	-10.726
▁ئێستاکە	-10.727
▁سیروانی	-10.727
▁هێنایە	-10.727
▁نیسانی	-10.728
▁دابەزینی	-10.7285
▁ڕاستییەکان	-10.7285
▁چارە	-10.7295
▁ساڵەدا	-10.7305
▁سەرچاوه	-10.7305
▁ناتوانیت	-10.7305
▁زۆرەوە	-10.731
▁پرۆژەکانی	-10.731
▁2015	-10.7316
▁باوە	-10.7316
▁خانم	-10.7316
▁دەبەستێت	-10.7316
▁ماونەتەوە	-10.7316
▁ویژدانی	-10.7316
▁چەقی	-10.7316
▁ڕێبەرانی	-10.7316
▁ڕۆژنامەو	-10.7321
▁دەڵێیت	-10.7326
▁لەزۆر	-10.7331
▁کێشەیەک	-10.7331
▁بپرسین	-10.7336
▁نێر	-10.7336
▁ڕۆڵە	-10.7336
▁شوێنەواری	-10.7341
▁شیکردنەوەی	-10.7341
▁نازانین	-10.7341
▁گۆی	-10.7341
▁گەیاندن	-10.7341
▁ئیسلامییە	-10.7346
▁ئەڵێ	-10.7346
▁خوازراو	-10.7346
▁پیرە	-10.7346
▁بەئاوێنەنیوزی	-10.7356
▁عاشقی	-10.7356
▁ئۆفیسی	-10.7361
▁قوربانیان	-10.7361
▁نابێتە	-10.7361
▁نەتەوەکەمان	-10.7366
▁بەشدارن	-10.7376
▁نوجێفی	-10.7376
▁بڕیاردرا	-10.7381
▁سەفەری	-10.7381
▁کا	-10.7387
▁گوێم	-10.7387
▁بنکەیەکی	-10.7397
▁دەگاته	-10.7397
▁هەبووەو	-10.7397
▁کوردا	-10.7397
▁ئاڵۆز	-10.7402
▁خشتەی	-10.7402
▁چاوم	-10.7402
▁کۆبوونەوەیەدا	-10.7402
▁شوناسی	-10.7407
▁کۆمەڵگەدا	-10.7407
▁أن	-10.7412
▁تەمەنیان	-10.7412
▁سەندیکا	-10.7412
▁لانیکەم	-10.7412
▁منەوە	-10.7417
▁ووی	-10.7417
▁خانووی	-10.7422
▁پێکەنین	-10.7422
▁D	-10.7427
▁ئەنجامە	-10.7432
▁خودای	-10.7432
▁سادق	-10.7432
▁خاوەنەکەی	-10.7438
▁کردوه	-10.7443
▁بڕیارێک	-10.7448
▁بۆندی	-10.7448
▁سەفین	-10.7448
▁ئوسامە	-10.7453
▁مه	-10.7453
▁دەرگا	-10.7458
▁قادری	-10.7458
▁هەفتەیەدا	-10.7458
▁تەن	-10.7463
▁دەیگوت	-10.7463
▁کۆیلە	-10.7463
▁سەڵاح	-10.7468
▁کۆمەڵگایە	-10.7468
▁ئەدا	-10.7473
▁دەرفەت	-10.7473
▁دەستەڵاتی	-10.7479
▁سودی	-10.7484
▁سەروەریی	-10.7484
▁یاساکان	-10.7484
▁A	-10.7489
▁جینۆسایدی	-10.7489
▁کۆمەڵکوژی	-10.7489
▁جەنگە	-10.7504
▁دۆستایەتی	-10.7504
▁پێچەوانە	-10.7504
▁بەڕێزان	-10.7509
▁ڕێکخراوه	-10.7509
▁کەمپینی	-10.7509
▁لەکۆتاییدا	-10.7515
▁هەوڵەکان	-10.7515
▁دیدار	-10.752
▁دەباغ	-10.752
▁کۆڕ	-10.752
▁ئاشکراکردنی	-10.7525
▁ئاسۆی	-10.753
▁بدە	-10.753
▁نەتەوەیەکی	-10.753
▁چارەسەرێکی	-10.753
▁دووەمیان	-10.7535
▁ناوبانگی	-10.7535
▁سلێمانیدا	-10.754
▁پێکەوه	-10.754
▁کۆمەڵگەیەکی	-10.754
▁لەسنوری	-10.7546
▁ئەندازیاری	-10.7551
▁بایدن	-10.7551
▁بەرامبەردا	-10.7551
▁منداڵەکانی	-10.7551
▁دەربچێت	-10.7561
▁وازی	-10.7561
▁فەزای	-10.7566
▁حەماس	-10.7572
▁دیالۆگی	-10.7572
▁نکۆڵی	-10.7572
▁ڕووباری	-10.7572
▁کوردەواری	-10.7572
▁گریان	-10.7572
▁بانگهێشت	-10.7577
▁جوانەکانی	-10.7577
▁ئەوجا	-10.7587
▁لاپەڕەی	-10.7587
▁بەخشی	-10.7592
▁مەرجەکانی	-10.7592
▁پێویستیی	-10.7592
▁ڕابەری	-10.7592
▁حەقیقەت	-10.7598
▁دەرونی	-10.7598
▁زەردەشت	-10.7598
▁سفر	-10.7598
▁بەرن	-10.7608
▁پێکدێت	-10.7608
▁ڕێوڕەسمی	-10.7608
▁زاراوەی	-10.7618
▁می	-10.7618
▁دهوکێ	-10.7624
▁ئاوارەی	-10.7629
▁هەوڵە	-10.7629
▁خوێناوی	-10.7639
▁ئەستەمە	-10.7644
▁پاشەکشەی	-10.7644
▁پارێزەر	-10.765
▁میانی	-10.7655
▁ناوەوە	-10.7655
▁داعشەوە	-10.766
▁سواری	-10.766
▁ڕیز	-10.766
▁کۆمەڵەکانیش	-10.766
▁دواین	-10.7665
▁دیاریکراوە	-10.7665
▁قەزافی	-10.7665
▁لەهەرێم	-10.7665
▁پردی	-10.7665
▁دابنێن	-10.7671
▁دەرچووی	-10.7671
▁دەوروبەر	-10.7671
▁لێدوان	-10.7676
▁ڕاهێنەر	-10.7676
▁داواکاریی	-10.7681
▁سەرلەبەیانی	-10.7681
▁لێپرسراوانی	-10.7681
▁ئەمیش	-10.7686
▁بەناوبانگی	-10.7686
▁دایه	-10.7686
▁میدیاکان	-10.7686
▁هەرەس	-10.7686
▁شۆرشی	-10.7692
▁کم	-10.7692
▁ئازادیخوازی	-10.7697
▁لەکۆنگرەیەکی	-10.7697
▁هەمیش	-10.7697
▁zwnj	-10.7702
▁ئەمریکاوە	-10.7702
▁نووسەرە	-10.7702
▁وتار	-10.7702
▁پەیوەندیان	-10.7702
▁خۆپیشاندانەکان	-10.7707
▁دووەمدا	-10.7707
▁ئامۆژگاری	-10.7713
▁بۆته	-10.7713
▁پەشیمان	-10.7713
▁ئەواندا	-10.7718
▁ئەوروپادا	-10.7718
▁بابەتەکە	-10.7718
▁خەڵکەکەی	-10.7718
▁دەکاتەوه	-10.7718
▁شای	-10.7718
▁قسەیان	-10.7718
▁قەرەبووی	-10.7723
▁مەهاباد	-10.7723
▁کلتووری	-10.7723
▁چێلسی	-10.7728
▁000	-10.7734
▁ئەمجارەیان	-10.7734
▁ئەنجامێکی	-10.7734
▁بوار	-10.7734
▁بەهێزە	-10.7734
▁فەرمووی	-10.7734
▁یەکگرتنەوەی	-10.7734
▁خواردنەوە	-10.7739
▁خوایە	-10.7739
▁سڵاو	-10.7744
▁تاریک	-10.7749
▁حەمەد	-10.7749
▁دیوی	-10.7749
▁کەسێتی	-10.7749
▁ئەزموونە	-10.7755
▁تاوانباران	-10.7755
▁تەلاری	-10.7755
▁دەدوێت	-10.7755
▁قەرەبوو	-10.7755
▁پارێزگار	-10.7755
▁ڕەواکانی	-10.7755
▁ئێرانیش	-10.776
▁یارییەکەی	-10.776
▁دیمانە	-10.7765
▁دێتەوە	-10.7771
▁توێژینەوە	-10.7776
▁دەستکەوت	-10.7776
▁کەسایەتییەکی	-10.7776
▁کۆنترۆڵکردنی	-10.7781
▁ئەفسەری	-10.7786
▁سڕینەوەی	-10.7786
▁هۆکارەکەی	-10.7786
▁کەئێستا	-10.7786
▁لەلێدوانێکدا	-10.7792
▁ئاوەدانکردنەوە	-10.7797
▁ئەندامەی	-10.7797
▁جیاوازن	-10.7797
▁زانستە	-10.7797
▁کوبانێ	-10.7797
▁لەهەردوو	-10.7802
▁120	-10.7808
▁ئەمەریکایی	-10.7808
▁شۆرش	-10.7808
▁بەخۆوە	-10.7813
▁توێژە	-10.7813
▁دراو	-10.7813
▁گۆڵچی	-10.7813
▁موسا	-10.7818
▁هەناردەکردنی	-10.7818
▁هەڵبژارد	-10.7829
▁کتێبخانەی	-10.7829
▁شتانە	-10.784
▁نیوە	-10.784
▁مەحاڵە	-10.7845
▁نها	-10.7845
▁پەرەسەندنی	-10.7845
▁ئێستایش	-10.785
▁لەنزیکەوە	-10.785
▁ئیئتلافی	-10.7856
▁شیاوی	-10.7856
▁شێعردا	-10.7856
▁جیاجیا	-10.7861
▁ڕێکەوتن	-10.7861
▁کوژراوە	-10.7861
▁لێدوانەکەی	-10.7866
▁لەداهاتوودا	-10.7866
▁مەرکەزی	-10.7866
▁تەسلیم	-10.7872
▁سەرمایەی	-10.7877
▁پێبدرێت	-10.7877
▁لەزۆربەی	-10.7888
▁بزاڤی	-10.7893
▁تاقە	-10.7893
▁خرایە	-10.7893
▁شەرەف	-10.7893
▁فراوانکردنی	-10.7893
▁لوبنانی	-10.7893
▁لەپەرلەمان	-10.7893
▁بانگی	-10.7898
▁شادی	-10.7898
▁پاشەکشە	-10.7898
▁کرانەوە	-10.7898
▁کوری	-10.7898
▁کوڕەکەی	-10.7904
▁بەتاڵ	-10.7909
▁خێزانە	-10.7909
▁ئەزموونێکی	-10.7914
▁مۆر	-10.792
▁ُّ	-10.792
▁کارانە	-10.792
▁بدەنەوە	-10.7925
▁دراون	-10.7925
▁هەورامان	-10.7925
▁یەکدی	-10.7925
▁تاچەند	-10.7931
▁داواکراو	-10.7931
▁ڕۆڵەکانی	-10.7931
▁بڕین	-10.7936
▁بڵاوکرایەوە	-10.7936
▁جارێکیتر	-10.7936
▁کردی	-10.7936
▁ئاشکراکرد	-10.7941
▁ئەمڕۆدا	-10.7941
▁بەرزنجەیی	-10.7941
▁تاڕادەیەک	-10.7941
▁سۆڤیەت	-10.7941
▁حەوتەم	-10.7947
▁شەرعییەتی	-10.7947
▁نەمان	-10.7947
▁ئەفریقا	-10.7952
▁شارۆچکەکانی	-10.7952
▁مورسی	-10.7952
▁چون	-10.7952
▁هەردو	-10.7958
▁پەیام	-10.7958
▁ڵ	-10.7958
▁سلیمانی	-10.7963
▁لەبەرامبەریشدا	-10.7963
▁نەخشە	-10.7963
▁بەرزترین	-10.7968
▁ابن	-10.7974
▁مەراسیمی	-10.7974
▁پلاندانان	-10.7979
▁کارنامەی	-10.7979
▁پارچەی	-10.7985
▁دیدارەکەدا	-10.799
▁نامە	-10.799
▁بیروڕای	-10.7995
▁بێگانە	-10.7995
▁لەمە	-10.7995
▁گەڕ	-10.7995
▁بەدوو	-10.8001
▁ساتێک	-10.8001
▁نیشاندانی	-10.8001
▁ئەرێنی	-10.8006
▁نیه	-10.8006
▁ڕۆژهەلاتی	-10.8006
▁کۆسپ	-10.8006
▁؟	-10.8012
▁شەشەمی	-10.8012
▁نمایشکرا	-10.8012
▁نوێژ	-10.8012
▁هەرێما	-10.8017
▁پاڵەوانەکانی	-10.8017
▁چەمکە	-10.8017
▁ڕێگایەکی	-10.8017
▁ئازادییە	-10.8022
▁دەرئەنجامەکانی	-10.8022
▁ئەنفالکراوەکان	-10.8033
▁گوندەکان	-10.8033
▁بەهمەن	-10.8039
▁جلی	-10.8039
▁وەربگرین	-10.8039
▁کۆنتڕۆڵی	-10.8039
▁گەنجێک	-10.8039
▁ڕێکخراوەیی	-10.8044
▁ترو	-10.805
▁مایۆ	-10.805
▁نالی	-10.805
▁خۆرئاوای	-10.8055
▁کوتله	-10.8055
▁بەپلەی	-10.806
▁شەست	-10.806
▁ڕەها	-10.806
▁ئابی	-10.8071
▁سەرەک	-10.8071
▁ماون	-10.8071
▁مۆبایل	-10.8071
▁شام	-10.8077
▁چێژ	-10.8077
▁یەحیا	-10.8082
▁بۆردومانی	-10.8088
▁بەڕێوەبچێت	-10.8088
▁دیسەمبەر	-10.8088
▁نەیارانی	-10.8088
▁پێشی	-10.8088
▁گرژی	-10.8093
▁نالین	-10.8099
▁نەخۆشییە	-10.811
▁جەهانگیری	-10.8115
▁85	-10.8132
▁ناشیرین	-10.8132
▁هۆشداری	-10.8137
▁کەشتی	-10.8137
▁دیجلە	-10.8143
▁عەتا	-10.8143
▁موچە	-10.8143
▁ئەوانەوە	-10.8148
▁دەگێڕێتەوە	-10.8148
▁ناخۆش	-10.8148
▁بەرگەی	-10.8153
▁زانین	-10.8153
▁تۆپ	-10.8159
▁دلێر	-10.8159
▁لەیەکتر	-10.8159
▁org	-10.8165
▁ببەن	-10.817
▁هەشتەم	-10.817
▁دەیانەوێت	-10.8176
▁چالاکییە	-10.8176
▁ساڵێکە	-10.8187
▁نەشتەرگەری	-10.8187
▁پیرۆزە	-10.8187
▁کێن	-10.8187
▁باخچەی	-10.8192
▁بەیاننامەیەکی	-10.8192
▁بەرژەوەندیەکانی	-10.8198
▁دەسەڵاتەکانی	-10.8198
▁لەپرۆسەی	-10.8203
▁ئیمە	-10.8209
▁دامەزراوەکانی	-10.8209
▁سەرەوەی	-10.8209
▁نمایشکردنی	-10.8209
▁ێکی	-10.8209
▁پتەو	-10.8214
▁خواستەکانی	-10.822
▁دروستدەکات	-10.8225
▁ئەندازیار	-10.8231
▁بەشیر	-10.8231
▁سۆرانی	-10.8231
▁سەرچاوەکان	-10.8231
▁لەشـکری	-10.8231
▁کوردستانن	-10.8236
▁بڕوایان	-10.8242
▁یەنایەر	-10.8242
▁یەکدا	-10.8242
▁بۆت	-10.8247
▁سەرم	-10.8247
▁قەوارە	-10.8247
▁بەهۆیەوه	-10.8253
▁دینارە	-10.8253
▁مەترسیی	-10.8253
▁ها	-10.8253
▁ئامرازی	-10.8259
▁بابان	-10.8264
▁باشترکردنی	-10.8264
▁بڵاویکردۆتەوە	-10.8264
▁شوێنەی	-10.8264
▁لەقەڵەم	-10.8264
▁جێبەجێکردن	-10.827
▁کاکەیی	-10.827
▁پێگەیەکی	-10.8275
▁ببینین	-10.8281
▁زۆرم	-10.8281
▁زۆرەی	-10.8281
▁لەوڵاتی	-10.8281
▁ناوێت	-10.8286
▁هەتاوی	-10.8292
▁بەرنامەکانی	-10.8297
▁سەرکەوتنێکی	-10.8297
▁پارەو	-10.8297
▁داکۆکیکردن	-10.8303
▁شیعەو	-10.8303
▁کەژاڵ	-10.8303
▁فیکر	-10.8309
▁ڕەوتە	-10.8309
▁کارزان	-10.8309
▁بەردەوامەو	-10.8314
▁سەرپێچی	-10.8314
▁گەنم	-10.8314
▁حوسنی	-10.832
▁سەربە	-10.832
▁داب	-10.8325
▁شێوەیه	-10.8325
▁حکومەتەوە	-10.8331
▁کیمیابارانی	-10.8331
▁سالارکەرکوکی	-10.8337
▁ڕێگەیان	-10.8337
▁سۆسیالیست	-10.8342
▁ڕزگاریخوازی	-10.8342
▁لێدوانەکانی	-10.8359
▁منداڵێک	-10.8359
▁پێشمەرگه	-10.8359
▁1990	-10.8365
▁شاعیرە	-10.8365
▁عێراقیەکان	-10.8365
▁قوتابخانەکان	-10.8365
▁پرۆفیسۆر	-10.8365
▁بەرێوە	-10.837
▁فرمێسک	-10.837
▁باسمان	-10.8376
▁هەڵگرتنی	-10.8376
▁پێهات	-10.8376
▁گەڕاندنەوەی	-10.8376
▁تواناو	-10.8387
▁سیستەم	-10.8387
▁پرۆسە	-10.8387
▁نەبو	-10.8393
▁وەستاوە	-10.8393
▁پارتێکی	-10.8393
▁بەچاوی	-10.8398
▁قەززافی	-10.8398
▁نموونەیەکی	-10.8398
▁هەل	-10.8398
▁ڕۆشنبیرانی	-10.8404
▁تازه	-10.841
▁دژایەتیکردنی	-10.841
▁قەزاو	-10.841
▁کەن	-10.841
▁خواردنەوەی	-10.8415
▁ئەوەوە	-10.8421
▁بزوتنەوە	-10.8421
▁بەدواوە	-10.8421
▁بەکاتی	-10.8421
▁لەدەرەوە	-10.8421
▁مەزهەب	-10.8421
▁لەبەشی	-10.8427
▁لەدایکبوونی	-10.8427
▁بەرەکانی	-10.8432
▁بەسەرپەرشتی	-10.8432
▁کێشانەی	-10.8432
▁کەلوپەلی	-10.8438
▁لێکرد	-10.8444
▁سەوا	-10.8449
▁کۆر	-10.8449
▁یەو	-10.8455
▁گەمەی	-10.8461
▁کەرکوکدا	-10.8466
▁شێرپەنجەی	-10.8472
▁لەجیهاندا	-10.8472
▁پرسیارێک	-10.8472
▁پڕکردنەوەی	-10.8472
▁پێکهاتبوو	-10.8478
▁کتێبێکی	-10.8478
▁گەڕایەوە	-10.8478
▁بەرلەوەی	-10.8483
▁کێش	-10.8483
▁لایەنانە	-10.8495
▁شێخان	-10.85
▁حوزەیرانی	-10.8512
▁پۆل	-10.8512
▁72	-10.8517
▁بخەینە	-10.8517
▁بێلایەن	-10.8517
▁مامەڵەکردن	-10.8517
▁گفتوگۆیەکی	-10.8517
▁داوەتەوە	-10.8523
▁ڕۆژنامەکە	-10.8523
▁بتوانرێت	-10.8529
▁داری	-10.8529
▁فەراهەم	-10.8529
▁پژاک	-10.8529
▁خۆشم	-10.8534
▁دەستەڵات	-10.8534
▁گۆشتی	-10.8534
▁بگەن	-10.854
▁تێنسی	-10.854
▁سنە	-10.8546
▁کاراکتەری	-10.8546
▁کردین	-10.8546
▁توانیمان	-10.8552
▁کەمپی	-10.8552
▁ئامەد	-10.8563
▁جوانتر	-10.8563
▁حیزبەکانی	-10.8563
▁هاتوونەتە	-10.8563
▁ئازادە	-10.8569
▁جۆرەی	-10.8569
▁نەبەز	-10.8569
▁پەرلەمانەوە	-10.8569
▁زەمەنی	-10.8575
▁پێگە	-10.8575
▁ڕاشکاوانە	-10.858
▁لەوەکرد	-10.8586
▁ناوکی	-10.8586
▁ئۆتۆمبیل	-10.8598
▁ئەوروپاو	-10.8598
▁زاهیر	-10.8598
▁کەوتنی	-10.8598
▁بابەتەکان	-10.8603
▁تۆیە	-10.8603
▁خولێکی	-10.8603
▁شەهرستانی	-10.8603
▁ڕابگرێت	-10.8609
▁ئەرشیف	-10.8615
▁جیاوازدا	-10.8615
▁سەنگی	-10.8615
▁لام	-10.8615
▁ئافرەتێکی	-10.8621
▁جە	-10.8621
▁سوریای	-10.8621
▁تەقەیان	-10.8626
▁خوارد	-10.8626
▁بەرنامه	-10.8638
▁ڕاپۆرتە	-10.8638
▁هاوولاتی	-10.8644
▁کڕین	-10.8644
▁کێشەکەی	-10.8644
▁دێرسیم	-10.8649
▁نیوەڕۆ	-10.8649
▁چیدی	-10.8649
▁یەکیان	-10.8649
▁نەدرێت	-10.8655
▁هەیانە	-10.8655
▁خەڵکیش	-10.8661
▁دراما	-10.8661
▁ماستەر	-10.8661
▁ئەنجامبدرێت	-10.8667
▁تاوانەکان	-10.8667
▁یەکخستنی	-10.8667
▁ئایندەدا	-10.8673
▁هێمنی	-10.8673
▁وەستان	-10.8673
▁تورکیاش	-10.8678
▁ڕۆژێ	-10.8678
▁کارێ	-10.8678
▁یاریزانێکی	-10.8678
▁بەشداربوو	-10.8684
▁لەناوچەکانی	-10.8684
▁پانتایی	-10.8684
▁ڤه	-10.8684
▁1975	-10.869
▁ئەدی	-10.869
▁لەدوا	-10.869
▁ماڵپەر	-10.869
▁تەقەی	-10.8702
▁میر	-10.8702
▁نەدەبوو	-10.8702
▁پێوەندیی	-10.8702
▁ئارارات	-10.8707
▁هەڵ	-10.8719
▁کوردێک	-10.8719
▁یەکگرتوەکان	-10.8719
▁بەخۆیان	-10.8725
▁ساڵێکی	-10.8725
▁گەیاندووە	-10.8725
▁بۆچونی	-10.8736
▁عەبدولمەهدی	-10.8736
▁لەرۆژی	-10.8736
▁ناوەندەکانی	-10.8736
▁گەشتی	-10.8736
▁لیژنەکە	-10.8742
▁عەبدولقادر	-10.8748
▁کەسایەتییە	-10.8748
▁کەسەکان	-10.8748
▁خوە	-10.8754
▁دادی	-10.8754
▁دێته	-10.8754
▁ڕووبەر	-10.8754
▁ڕۆژان	-10.8754
▁ستراتیجی	-10.876
▁لێبێت	-10.876
▁لێدەکەن	-10.876
▁ئەوروپای	-10.8766
▁لۆژیکی	-10.8766
▁هەوڵدەدات	-10.8766
▁ئاماژەم	-10.8771
▁ئەمنیەکانی	-10.8771
▁وەزارەتەکان	-10.8771
▁ترین	-10.8777
▁مانایەی	-10.8777
▁بادینان	-10.8789
▁ملکەچی	-10.8789
▁هۆ	-10.8789
▁کردۆتەوە	-10.8801
▁یەکیتی	-10.8801
▁62	-10.8807
▁700	-10.8807
▁خانی	-10.8807
▁دەستەواژەی	-10.8812
▁کیمیاباران	-10.8812
▁باج	-10.8818
▁لەرێی	-10.8818
▁وڵاتەی	-10.8818
▁جەوهەری	-10.8824
▁خۆکوژی	-10.8824
▁هاو	-10.8824
▁داوایکرد	-10.8836
▁شاد	-10.8836
▁پەیوەندیەکی	-10.8836
▁گەشتوگوزار	-10.8836
▁یەپەگە	-10.8836
▁دەنگدەر	-10.8842
▁شوێنانەی	-10.8842
▁لەیەکێک	-10.8842
▁سەربازانی	-10.8848
▁لەخۆیدا	-10.8854
▁هەمیشه	-10.8854
▁بەبەراورد	-10.886
▁بەند	-10.886
▁تەرخانکراوە	-10.886
▁خەڵکەکە	-10.886
▁زەمینە	-10.886
▁شارەدا	-10.886
▁لەمەوپێش	-10.886
▁هاوپەیمانێتی	-10.8865
▁پشدەر	-10.8865
▁سـاڵی	-10.8871
▁ض	-10.8877
▁بەردەست	-10.8883
▁خوێنەران	-10.8883
▁ڕۆڵەی	-10.8883
▁قسانەی	-10.8889
▁وەزارەتەکانی	-10.8895
▁چڕ	-10.8895
▁خانەنشین	-10.8901
▁خایاند	-10.8901
▁دەسەڵاتیان	-10.8901
▁عەرەبیدا	-10.8901
▁پێکدادانی	-10.8907
▁جوگرافی	-10.8913
▁سەعد	-10.8913
▁تاقمە	-10.8919
▁دەبا	-10.8919
▁ڕامیاری	-10.8919
▁کامیان	-10.8919
▁دروستکردن	-10.8925
▁شارەزوور	-10.8925
▁پشتیوان	-10.8925
▁ڕکابەری	-10.8925
▁بابەتێک	-10.8931
▁دووپاتیکردەوە	-10.8931
▁لەئەنجامدا	-10.8931
▁گرتوە	-10.8931
▁ئاگای	-10.8937
▁کاتژمێری	-10.8937
▁درێژکردنەوەی	-10.8942
▁دڵنیاییەوە	-10.8942
▁شۆڕشە	-10.8942
▁پەرەی	-10.8942
▁گەلەکەی	-10.8942
▁ئەنفالکراوان	-10.8948
▁بازرگانیی	-10.8948
▁دەستگیرکراون	-10.8948
▁لادن	-10.8948
▁نۆڤەمبەر	-10.8948
▁ڕۆمانە	-10.8948
▁وردەکاری	-10.8954
▁بیروباوەڕی	-10.896
▁دەیەی	-10.896
▁سور	-10.896
▁ڕو	-10.896
▁ئێمەوە	-10.8966
▁دامودەزگا	-10.8966
▁سێدارە	-10.8966
▁سەرکۆماری	-10.8966
▁کۆتا	-10.8966
▁دەنـگیـیانەی	-10.8972
▁تێیاندا	-10.8978
▁ساغ	-10.8978
▁بکاتەوەو	-10.8984
▁بەردەوامبوونی	-10.8984
▁هەڵبژاردنێکی	-10.8984
▁ڕووداوه	-10.899
▁ڕۆژنامەگەریی	-10.899
▁جوتیاران	-10.8996
▁دەداتە	-10.8996
▁هەڵوێستەی	-10.8996
▁کوردوستان	-10.8996
▁ئەجێندای	-10.9002
▁بڵاوکردۆتەوە	-10.9002
▁لەبارەوە	-10.9002
▁پێشەکی	-10.9002
▁نەوە	-10.9008
▁پاساوی	-10.9008
▁چیرۆکە	-10.9008
▁بروسک	-10.9014
▁هەستکردن	-10.9014
▁ڕێنماییەکانی	-10.9014
▁پێشوەخت	-10.902
▁دەگرت	-10.9026
▁خستەسەر	-10.9032
▁دووچاری	-10.9032
▁قەزا	-10.9032
▁هێزەکان	-10.9032
▁یاخی	-10.9032
▁دەخرێتە	-10.9038
▁سەلماندنی	-10.9038
▁نارەزایەتی	-10.9038
▁ئەگەرنا	-10.9044
▁بووبوو	-10.9044
▁خراوەتە	-10.9044
▁دۆخەکە	-10.9044
▁دەکەوێته	-10.9044
▁پایە	-10.9044
▁ڕووبدات	-10.9044
▁ئاهەنگ	-10.905
▁جۆراوجۆرەکانی	-10.905
▁پەرلەمانتارێکی	-10.905
▁چەکدارێکی	-10.905
▁ڕۆڵیان	-10.905
▁1979	-10.9056
▁کولتوری	-10.9056
▁گروپه	-10.9056
▁بێئەوەی	-10.9062
▁ڕەحمەتی	-10.9062
▁ڕەوەندی	-10.9068
▁دواخرا	-10.9074
▁ڕاگەیاندنەکان	-10.9074
▁ئەمنیی	-10.908
▁دیاریکراودا	-10.908
▁ناوێکی	-10.908
▁فیدرالی	-10.9086
▁قەوارەی	-10.9092
▁لەیلا	-10.9098
▁چالاکیی	-10.9098
▁بدۆزێتەوە	-10.9104
▁بەتۆمەتی	-10.9104
▁بەرپا	-10.9104
▁خۆماندا	-10.9104
▁ناگرێت	-10.9104
▁ڕووداوانە	-10.9104
▁عەقید	-10.911
▁مەکە	-10.911
▁داخوازییەکانی	-10.9116
▁لەچەندین	-10.9116
▁ملیارو	-10.9116
▁ئاستێک	-10.9123
▁ئاشتەوایی	-10.9123
▁جۆ	-10.9123
▁وەستا	-10.9123
▁ڕووناکبیری	-10.9123
▁ڕوونە	-10.9129
▁کەسایەتیی	-10.9129
▁102	-10.9135
▁دراوی	-10.9135
▁لەمەش	-10.9135
▁موو	-10.9135
▁پێشەوا	-10.9135
▁ئەوەکرد	-10.9141
▁گەندەڵ	-10.9141
▁ئیمزای	-10.9147
▁قبووڵ	-10.9147
▁شاجوانی	-10.9153
▁پشووی	-10.9153
▁هەشتەمی	-10.9159
▁چاودێریکردنی	-10.9159
▁بانگ	-10.9165
▁بەرەبەیانی	-10.9165
▁داگیرکەر	-10.9165
▁زەحمەتە	-10.9165
▁هۆڵەندی	-10.9165
▁ڕەخنەو	-10.9165
▁خێڵ	-10.9171
▁مەعسوم	-10.9171
▁کریم	-10.9171
▁بەئاژانسی	-10.9177
▁ڕێکخراوەکە	-10.9177
▁کەمەوە	-10.9177
▁سەلاح	-10.9183
▁ئەکرەم	-10.9196
▁شێواندنی	-10.9196
▁لێدەکەوێتەوە	-10.9196
▁گرتە	-10.9196
▁تەلەفزیۆن	-10.9202
▁دەرهێنان	-10.9202
▁بڕۆن	-10.9208
▁درێژخایەن	-10.9208
▁دیوە	-10.9214
▁دەستکەوتەکانی	-10.9214
▁زۆرو	-10.9214
▁وەربگیردرێت	-10.922
▁وەزارەتە	-10.922
▁پێکردنی	-10.922
▁ڕژێمەکەی	-10.922
▁بۆردومان	-10.9226
▁مۆدێلی	-10.9226
▁دابڕاوەکان	-10.9232
▁دەچوو	-10.9232
▁سازکردنی	-10.9232
▁سەروەر	-10.9232
▁اب	-10.9238
▁شێواز	-10.9238
▁نەمسا	-10.9238
▁وام	-10.9238
▁دوژمنان	-10.9244
▁زووترین	-10.9244
▁لەباری	-10.9244
▁مەعنەوی	-10.9244
▁کۆبوونەوەکەی	-10.9244
▁ناڕازی	-10.9251
▁بەرزە	-10.9257
▁تەلەفۆن	-10.9257
▁حکومەتیش	-10.9257
▁کراوەتە	-10.9257
▁بەرێت	-10.9263
▁نارد	-10.9263
▁نەبووەو	-10.9263
▁جەعفەری	-10.9269
▁دەکرێتە	-10.9269
▁ناکاتەوە	-10.9269
▁هەموار	-10.9269
▁ژیر	-10.9269
▁بمێننەوە	-10.9275
▁دانیشتنەکانی	-10.9275
▁هەستە	-10.9275
▁پێکدادان	-10.9275
▁کەربەلا	-10.9275
▁داگیرکەران	-10.9281
▁حیزبەکەی	-10.9287
▁سەرنووسەری	-10.9287
▁63	-10.9294
▁ئینگلتەرا	-10.9294
▁ڕایگەیاندبوو	-10.9294
▁ڕێگەیەوە	-10.9294
▁حەزم	-10.93
▁قورئانی	-10.93
▁ئایاری	-10.9306
▁مێژووییە	-10.9306
▁کۆمەڵگاو	-10.9306
▁گفتوگۆکان	-10.9306
▁گوتویەتی	-10.9306
▁دەگەڕێت	-10.9312
▁فۆتۆگرافی	-10.9312
▁بەشێکن	-10.9331
▁هەرکاتێک	-10.9331
▁گفتوگۆیان	-10.9331
▁شاراوە	-10.9337
▁عەممار	-10.9337
▁کەناری	-10.9337
▁هێنانەدی	-10.9343
▁ڕیشەیی	-10.9343
▁کامل	-10.9343
▁گرفتەکان	-10.9343
▁توانرا	-10.9349
▁جاش	-10.9349
▁شانبەشانی	-10.9349
▁هەندی	-10.9349
▁ڕاپەرین	-10.9349
▁بدۆزنەوە	-10.9355
▁هەناسە	-10.9355
▁بڕیارەکە	-10.9362
▁نەیان	-10.9362
▁باسم	-10.9368
▁تایفی	-10.9368
▁نیوان	-10.9368
▁بتوانم	-10.9374
▁ڕاپۆرتەکە	-10.9374
▁گۆڕانە	-10.9374
▁ڕادەگەیەنێت	-10.9386
▁تێپەڕاندنی	-10.9393
▁دادو	-10.9393
▁دەرفەتێکی	-10.9393
▁دەستەبەرکردنی	-10.9393
▁دەکوژرێن	-10.9393
▁ملم	-10.9393
▁ڕاگەیاندنەکانی	-10.9393
▁ساڵەکانی	-10.9399
▁لەماوەیەکی	-10.9399
▁وبە	-10.9399
▁بەرفراوانی	-10.9405
▁تێکچوونی	-10.9405
▁عبداللە	-10.9405
▁گفتوگۆو	-10.9405
▁تاوانبارانی	-10.9411
▁خەڵاته	-10.9411
▁ناسک	-10.9418
▁پەیوەندیە	-10.9418
▁گفتوگۆکانی	-10.9418
▁شێعرە	-10.9424
▁کردار	-10.9424
▁بەڕەسمی	-10.943
▁پێکەوەژیان	-10.943
▁چەکدارە	-10.943
▁ئێجگار	-10.9436
▁زەحمەت	-10.9436
▁بەکارهێناوە	-10.9443
▁لەحکومەت	-10.9443
▁ئەیلوول	-10.9455
▁تەکنەلۆژیا	-10.9455
▁زەمەن	-10.9455
▁نووسەرو	-10.9455
▁نیاز	-10.9455
▁ئەکادیمیای	-10.9461
▁لەگەڵیاندا	-10.9461
▁ث	-10.9468
▁حەرام	-10.9468
▁مسۆگەرکردنی	-10.9468
▁بەقەد	-10.9474
▁فیدراسیۆن	-10.9474
▁پارێزگەها	-10.9474
▁کایە	-10.9474
▁ئازادانە	-10.948
▁ئەنفالی	-10.948
▁تێکستی	-10.948
▁ناسیۆنالیزمی	-10.948
▁ئاسا	-10.9486
▁ئەرسناڵ	-10.9493
▁حزبایەتی	-10.9493
▁لێپرسینەوە	-10.9493
▁1980	-10.9499
▁بەرین	-10.9499
▁شیعه	-10.9499
▁جان	-10.9505
▁سەرچاوەکە	-10.9505
▁هەوای	-10.9505
▁پاشای	-10.9505
▁ێک	-10.9505
▁تەکنەلۆژیای	-10.9512
▁دەمەی	-10.9512
▁وەی	-10.9512
▁چیا	-10.9512
▁ڕایان	-10.9512
▁سەرەتاوە	-10.9518
▁ئەمساڵی	-10.9524
▁بابەتەکانی	-10.9524
▁کەئەم	-10.9524
▁بەلجیکا	-10.9531
▁جیاوازییەکی	-10.9531
▁عیشق	-10.9531
▁ویژدان	-10.9531
▁لەتەمەنی	-10.9537
▁لەهەمبەر	-10.9537
▁هەموولایەک	-10.9537
▁حەیدەری	-10.9543
▁زنجیره	-10.9549
▁نێوانی	-10.9549
▁ئێستاو	-10.9556
▁فازڵ	-10.9556
▁نەبی	-10.9562
▁دەری	-10.9568
▁بانگەشە	-10.9575
▁دەنگۆی	-10.9575
▁سەرەرای	-10.9575
▁لایەنانەی	-10.9575
▁بۆوە	-10.9581
▁بێزار	-10.9587
▁بەمەرجێک	-10.9587
▁دەکرێنەوە	-10.9587
▁پیشەسازیی	-10.9594
▁کەمترە	-10.9594
▁چاودێران	-10.96
▁کەمئەندامان	-10.96
▁ئەکەین	-10.9607
▁بەسرە	-10.9607
▁سروود	-10.9607
▁جەختیان	-10.9613
▁سۆسیالیستی	-10.9613
▁سەرکوتکردنی	-10.9613
▁ئیسلامیدا	-10.9619
▁شەیتان	-10.9626
▁قورسە	-10.9626
▁ئیبن	-10.9632
▁دروشم	-10.9638
▁فەبرایەر	-10.9638
▁گەمارۆی	-10.9638
▁دانان	-10.9645
▁دەمێننەوە	-10.9645
▁800	-10.9651
▁قەڵادزێ	-10.9651
▁کوردیەکان	-10.9651
▁جیابوونەوە	-10.9658
▁دەستێوەردانی	-10.9658
▁ڕەخنەگرتن	-10.9658
▁سکاڵا	-10.9664
▁سەرکەوتنیان	-10.967
▁فەلەستینی	-10.967
▁گۆڕانکارییە	-10.967
▁ئەستێرە	-10.9677
▁بەشێوازێکی	-10.9677
▁هاوڕێکانی	-10.9677
▁پیلانی	-10.9677
▁باڵاکانی	-10.9683
▁دەکەون	-10.9683
▁سەرا	-10.9683
▁پێشکێش	-10.9683
▁بازار	-10.969
▁تایمز	-10.969
▁جگەلەوەی	-10.969
▁سووتەمەنی	-10.969
▁شێرپەنجە	-10.969
▁لێبووردن	-10.969
▁لەگەڵی	-10.969
▁ڕوونیشی	-10.969
▁دەربر	-10.9696
▁دەهێنرێت	-10.9702
▁ڕێگەیەکی	-10.9702
▁ئیتاڵیا	-10.9709
▁نییەلە	-10.9709
▁هەرێمێکی	-10.9709
▁وەڵامدانەوەی	-10.9709
▁یانیش	-10.9709
▁1970	-10.9715
▁نازم	-10.9715
▁پڕۆژەیەک	-10.9715
▁ساتی	-10.9722
▁قەرز	-10.9722
▁کەبۆ	-10.9722
▁بارودۆخێکی	-10.9728
▁پێوەی	-10.9728
▁گوشاری	-10.9728
▁سەنگاوی	-10.9734
▁شەوێک	-10.9734
▁بۆن	-10.9741
▁توێژەکانی	-10.9741
▁دەبرێت	-10.9741
▁مێزی	-10.9741
▁ڕوسی	-10.9741
▁ئەمجۆرە	-10.9747
▁ئۆتۆمبیلی	-10.9754
▁سەرەکیەکانی	-10.9754
▁چارەسەرکردن	-10.9754
▁ئارەزوو	-10.976
▁خەونە	-10.9767
▁وابێت	-10.9767
▁گ	-10.9767
▁ئەمنیەکان	-10.9773
▁زیاتریان	-10.9773
▁61	-10.978
▁سەما	-10.978
▁ئەز	-10.9786
▁زیاتریش	-10.9786
▁سەردانێکی	-10.9786
▁باسێکی	-10.9793
▁جگەرە	-10.9793
▁قەیرانێکی	-10.9793
▁لیستەکەی	-10.9793
▁لەزانکۆی	-10.9793
▁لەلیستی	-10.9793
▁بارانی	-10.9799
▁ئەنتەرمیلان	-10.9806
▁عەبدولعەزیز	-10.9806
▁کولتوور	-10.9806
▁کۆمپیوتەر	-10.9806
▁ئۆتۆمبێلێک	-10.9812
▁دێموکراسیی	-10.9812
▁دەربڕیوە	-10.9812
▁نەتوانن	-10.9812
▁هەفته	-10.9812
▁هەناردەی	-10.9812
▁بەڕێزیان	-10.9819
▁ساتە	-10.9819
▁عیسا	-10.9819
▁ئێراقی	-10.9825
▁دیزاینی	-10.9832
▁دیکەشەوە	-10.9832
▁شەقامەکانی	-10.9832
▁هەندێکجار	-10.9832
▁خوالێخۆشبوو	-10.9838
▁لێکردن	-10.9838
▁لەکوردستانی	-10.9838
▁گیرا	-10.9838
▁ڕادەیەکی	-10.9845
▁بەرەوڕووی	-10.9851
▁بەشێکیان	-10.9851
▁لەساڵانی	-10.9851
▁کەل	-10.9851
▁بیکات	-10.9858
▁حمە	-10.9858
▁دەگیرێت	-10.9858
▁سووک	-10.9858
▁لێمان	-10.9858
▁چۆتە	-10.9858
▁بۆکان	-10.9864
▁تایبەتیان	-10.9864
▁خۆشمان	-10.9871
▁ئامانجێکی	-10.9877
▁لەسێدارەدانی	-10.9877
▁پێنجەمی	-10.9877
▁چارەنووس	-10.9877
▁کەمبوونەوەی	-10.9877
▁لەکۆبوونەوەی	-10.9884
▁کۆبونەوە	-10.9884
▁هەناسەی	-10.989
▁پارەیەی	-10.989
▁کوشتووە	-10.989
▁یارمەتیی	-10.989
▁بخات	-10.9897
▁بەعسییەکان	-10.9897
▁نەیویست	-10.9897
▁ڕەسەن	-10.9897
▁نەهامەتی	-10.9903
▁پێشمەرگەدا	-10.9903
▁ڕووخاندنی	-10.9903
▁بەنداوی	-10.991
▁قال	-10.991
▁قوڵ	-10.991
▁بەشێوازی	-10.9916
▁لەسەرەتادا	-10.9916
▁عێراقێکی	-10.9923
▁گەش	-10.9923
▁یانەکان	-10.9923
▁ئەدیب	-10.993
▁دەوام	-10.993
▁1000	-10.9936
▁77	-10.9936
▁مایکل	-10.9936
▁پسپۆر	-10.9936
▁گرنگییەکی	-10.9936
▁پشتگوێ	-10.9943
▁تۆماربکات	-10.9949
▁سەعدییە	-10.9949
▁وێنەگرتن	-10.9949
▁خزمەتێکی	-10.9956
▁ناوەندیی	-10.9956
▁پلەو	-10.9956
▁ئەکا	-10.9962
▁زنجیرەیەک	-10.9962
▁وەرگرتنەوەی	-10.9962
▁چالاکوانانی	-10.9962
▁کۆبوونەوه	-10.9962
▁گوتمان	-10.9962
▁بریندارەکان	-10.9969
▁خۆشیەوە	-10.9969
▁واتایەکی	-10.9969
▁گۆڕاوە	-10.9969
▁دۆلارە	-10.9976
▁ڕۆشن	-10.9976
▁غ	-10.9982
▁فرۆشتن	-10.9982
▁گوێبیستی	-10.9982
▁کەوتن	-10.9989
▁پارکی	-10.9995
▁پێدان	-10.9995
▁ڕێگەگرتن	-10.9995
▁دەستکەوتێکی	-11.0002
▁مەشقی	-11.0002
▁ڕوبەڕوی	-11.0002
▁ناوچەکەی	-11.0009
▁بەکۆمەڵ	-11.0015
▁دیموکراسیەت	-11.0015
▁کەمن	-11.0015
▁ڕوخساری	-11.0022
▁بازاڕەکانی	-11.0029
▁بەسەریدا	-11.0029
▁چاوەڕێ	-11.0029
▁بیمەی	-11.0035
▁لەوێش	-11.0035
▁هەژموونی	-11.0035
▁کوڕان	-11.0035
▁میدیایی	-11.0042
▁بهێته	-11.0048
▁نەدراوە	-11.0048
▁ئەمساڵیش	-11.0055
▁پەیمانگا	-11.0055
▁یەکەوە	-11.0062
▁بیرە	-11.0068
▁نەریت	-11.0075
▁ئاکام	-11.0082
▁ئەوەشکرد	-11.0082
▁دەنێن	-11.0082
▁ناسر	-11.0082
▁نەجیب	-11.0082
▁هەبن	-11.0082
▁تفەنگ	-11.0088
▁خۆڵ	-11.0088
▁شارێک	-11.0088
▁قۆڵی	-11.0088
▁لەسەریان	-11.0088
▁میری	-11.0088
▁ئاماژەشیدا	-11.0095
▁تاڵ	-11.0095
▁دۆنم	-11.0095
▁دەستکەوتە	-11.0095
▁کاربکەن	-11.0095
▁ئاوەدان	-11.0102
▁لاوازە	-11.0102
▁هەمبەر	-11.0102
▁پاشکۆی	-11.0102
▁یادەوەری	-11.0102
▁بداتە	-11.0108
▁بەختەوەری	-11.0108
▁لەمافی	-11.0108
▁هێنایەوە	-11.0108
▁پاڵەوانیتیه	-11.0108
▁پێشوودا	-11.0115
▁بەهەمانشێوە	-11.0122
▁ئیحسان	-11.0128
▁بچووکی	-11.0128
▁جەماوەریی	-11.0128
▁مۆسیقا	-11.0128
▁ئازادو	-11.0135
▁بزانە	-11.0135
▁بەزووترین	-11.0135
▁فێرکردن	-11.0135
▁قسەیەکی	-11.0142
▁ڕەزامەندیی	-11.0142
▁زانیاریانەی	-11.0149
▁وتەکانی	-11.0149
▁دادگایەکی	-11.0155
▁شێت	-11.0155
▁لێیە	-11.0155
▁هەرکەس	-11.0155
▁دەوامی	-11.0162
▁فەیسبووک	-11.0162
▁عەبدول	-11.0169
▁کاتێکدایە	-11.0169
▁دوەم	-11.0175
▁مەی	-11.0175
▁نادر	-11.0175
▁ڕاپۆڕتی	-11.0175
▁سروشتییەکان	-11.0182
▁ط	-11.0182
▁لەسەرەوە	-11.0182
▁هەنگاوەی	-11.0182
▁گشتییەکانی	-11.0182
▁ئاسانکاری	-11.0189
▁ئەوەیشی	-11.0189
▁بایرن	-11.0189
▁جلوبەرگی	-11.0189
▁لەکوێ	-11.0189
▁گۆڕانکارییەکانی	-11.0189
▁ئاستەی	-11.0196
▁ئەژمار	-11.0196
▁سینەماکارانی	-11.0196
▁پاککردنەوەی	-11.0196
▁بدەیت	-11.0202
▁هەڵسەنگاندن	-11.0202
▁ڕێزو	-11.0202
▁بەسەرۆکایەتیی	-11.0216
▁جەواد	-11.0216
▁دەخایەنێت	-11.0216
▁لێکراوە	-11.0216
▁ئەندازەی	-11.0223
▁گەیشت	-11.0223
▁دراوسێی	-11.0229
▁1998	-11.0236
▁داگیرکەرانی	-11.0236
▁دەکرێ	-11.0236
▁ڕاستیەکان	-11.0236
▁ڕوونکردنەوەیەک	-11.0236
▁یارییەدا	-11.0236
▁جێبەجێی	-11.0243
▁سینەماکانی	-11.0243
▁ڕەوشت	-11.0243
▁جۆرێکە	-11.025
▁جیابوونەوەی	-11.025
▁مووسڵ	-11.025
▁کچەکەی	-11.025
▁کەسه	-11.025
▁یەکێتییە	-11.025
▁فریاکەوتن	-11.0257
▁خوارەوەی	-11.0263
▁قەڵای	-11.0263
▁بەردەمی	-11.027
▁قسانە	-11.027
▁هاوکێشە	-11.027
▁کەمتەرخەمی	-11.027
▁ئاوێنەی	-11.0284
▁ئیدریس	-11.0284
▁دەگەڕێنەوە	-11.0284
▁دەڵێ	-11.0284
▁بارزان	-11.0291
▁بیریان	-11.0291
▁فیلمەکەی	-11.0291
▁on	-11.0297
▁ڕۆمانەکە	-11.0297
▁دەیبینین	-11.0304
▁سەنگەری	-11.0304
▁خۆمم	-11.0311
▁خەلیفە	-11.0311
▁شیعری	-11.0311
▁قوباد	-11.0311
▁باڵاو	-11.0318
▁بۆنە	-11.0318
▁دێرینی	-11.0318
▁سەرەخۆشی	-11.0318
▁مامەڵەیان	-11.0318
▁هەڵبژاردنەکاندا	-11.0318
▁ڕەواندزی	-11.0318
▁بەشه	-11.0325
▁تەلەفۆنی	-11.0325
▁دەرخستنی	-11.0325
▁پێیدا	-11.0325
▁تۆکمە	-11.0331
▁زانای	-11.0331
▁گوێیان	-11.0331
▁ئەنجامه	-11.0338
▁خول	-11.0338
▁دەیویست	-11.0338
▁ئەنجامدەدرێت	-11.0345
▁دەسەڵاتەوە	-11.0345
▁لەوانەیه	-11.0345
▁ناڕاستەوخۆ	-11.0345
▁کەموکوڕی	-11.0345
▁لەئەندامانی	-11.0352
▁گۆڤار	-11.0352
▁نەتەوەکان	-11.0359
▁سەلمان	-11.0366
▁ئیمامی	-11.0373
▁خۆشەویستیی	-11.0373
▁دروستبووە	-11.0373
▁دوێنێی	-11.0373
▁نوسراوە	-11.0373
▁پڕوپاگەندەی	-11.0373
▁پیادەکردنی	-11.0373
▁بۆنموونە	-11.0379
▁دۆڵی	-11.0379
▁شەهرام	-11.0379
▁پارتەکەی	-11.0379
▁کەڵکی	-11.0379
▁گەندەڵیی	-11.0379
▁سەرسام	-11.0386
▁لەناوچەکە	-11.0386
▁مامەند	-11.0386
▁مەرجێک	-11.0386
▁چەکە	-11.0386
▁ڕایگەیاندووه	-11.0386
▁هەڵدەگرێت	-11.0393
▁باقی	-11.04
▁بۆخۆیان	-11.04
▁بەهێزترین	-11.04
▁قسەیە	-11.04
▁باپیر	-11.0407
▁ڕەوشتی	-11.0414
▁گەشەسەندنی	-11.0414
▁دەبوون	-11.0421
▁دەقێکی	-11.0421
▁لیژنەکانی	-11.0421
▁مێردەکەی	-11.0421
▁هەبووه	-11.0421
▁67	-11.0428
▁ئەوەن	-11.0428
▁فاروق	-11.0428
▁مەڕ	-11.0428
▁پێکهێناوە	-11.0428
▁پەرلەمانتارە	-11.0428
▁ڕۆژانەدا	-11.0428
▁شک	-11.0435
▁نەبێتە	-11.0435
▁ڕیفراندۆم	-11.0435
▁ات	-11.0441
▁سەختە	-11.0441
▁ەو	-11.0441
▁سوودمەند	-11.0448
▁واژۆ	-11.0448
▁ڕۆژێکدا	-11.0448
▁1987	-11.0455
▁ئەفسانە	-11.0455
▁لەراستیدا	-11.0455
▁مۆندیالی	-11.0455
▁هێشتنەوەی	-11.0455
▁پێداگری	-11.0455
▁ڕەوانە	-11.0455
▁کۆمەڵایەتییە	-11.0455
▁دیمەنەکانی	-11.0462
▁95	-11.0469
▁ئێمەیان	-11.0469
▁سەددام	-11.0469
▁گیرفانی	-11.0469
▁زادەی	-11.0476
▁لاتینی	-11.0476
▁نزیکەوە	-11.0476
▁"(	-11.0483
▁دیکتاتۆرییەت	-11.0483
▁سەربەست	-11.0483
▁عەلمانی	-11.0483
▁کاڵ	-11.0483
▁).	-11.049
▁68	-11.049
▁بەواتای	-11.049
▁دەڕۆن	-11.049
▁دەگەن	-11.049
▁فاشیزم	-11.049
▁نیین	-11.049
▁هالیوود	-11.049
▁هەفتەیه	-11.049
▁وتووە	-11.049
▁ڕابەر	-11.049
▁نەتەوەییە	-11.0497
▁یۆتۆبۆری	-11.0497
▁پرسیارەکە	-11.0504
▁قاهیرە	-11.0511
▁مەرامی	-11.0511
▁مەزنە	-11.0511
▁بارودۆخەی	-11.0518
▁تەوەرێکی	-11.0518
▁لەگەڵیان	-11.0518
▁ناڤێ	-11.0518
▁بناری	-11.0525
▁سال	-11.0525
▁سەرف	-11.0525
▁نائارامی	-11.0532
▁هاوشانی	-11.0532
▁ڕێکخستنەکانی	-11.0532
▁ئەبێتە	-11.0539
▁تێی	-11.0539
▁کارەکە	-11.0539
▁بۆچوونەکانی	-11.0546
▁تەقە	-11.0546
▁دنیایە	-11.0546
▁نییەبۆ	-11.0546
▁بەبۆچوونی	-11.0553
▁جاسم	-11.0553
▁سنورەکانی	-11.0553
▁بڕۆ	-11.056
▁جەنگێکی	-11.056
▁سنور	-11.056
▁مەترسییەکانی	-11.056
▁مەسیحییەکان	-11.056
▁شاردنەوەی	-11.0567
▁هەبو	-11.0567
▁هەستیار	-11.0567
▁پێویستیمان	-11.0567
▁پەیوەندییه	-11.0567
▁درێژەدان	-11.0574
▁ناوەراستی	-11.0574
▁هەموومانە	-11.0574
▁ڕۆلی	-11.0574
▁گشتیدا	-11.0574
▁بەجێهێشت	-11.0581
▁ناسنامە	-11.0581
▁چاوەکانی	-11.0581
▁ئاسن	-11.0588
▁دیکەیە	-11.0588
▁پەنجە	-11.0588
▁دیپلۆماسی	-11.0595
▁نیزامی	-11.0595
▁ڕوونیکردەوه	-11.0595
▁66	-11.0602
▁ئیمان	-11.0602
▁تێدەپەڕێت	-11.0609
▁خۆکوشتن	-11.0609
▁شاکر	-11.0609
▁هەستێکی	-11.0609
▁پیادەی	-11.0609
▁76	-11.0616
▁ئاژانسەکان	-11.0616
▁تورکەکان	-11.0616
▁مانچستەرسیتی	-11.0616
▁نووسینە	-11.0616
▁هەوادارانی	-11.0616
▁پەیمان	-11.0616
▁گوندێکی	-11.0616
▁ئەدای	-11.0623
▁سەرئەنجام	-11.0623
▁مانگرتن	-11.0623
▁هان	-11.0623
▁کارانەی	-11.0623
▁ئارادایە	-11.063
▁بەخێرایی	-11.063
▁تەوافوقی	-11.063
▁لەئێستاشدا	-11.063
▁ناودار	-11.063
▁a	-11.0637
▁بردن	-11.0637
▁بکەینە	-11.0637
▁بەرازیلی	-11.0637
▁تۆقاندن	-11.0637
▁خستنەڕووی	-11.0637
▁مێینە	-11.0637
▁پارتیدا	-11.0637
▁پێداچوونەوە	-11.0637
▁ئ	-11.0644
▁شاهۆ	-11.0644
▁قەرەبووکردنەوەی	-11.0644
▁نایانەوێت	-11.0644
▁هونەرمەندێکی	-11.0644
▁وامان	-11.0644
▁وەسفی	-11.0644
▁بگۆڕن	-11.0651
▁خوێنەرانی	-11.0651
▁هانا	-11.0651
▁پەیمانگەی	-11.0651
▁زانیوە	-11.0658
▁عێراقەوه	-11.0658
▁میرانی	-11.0658
▁چاوە	-11.0658
▁گۆشەی	-11.0658
▁گێمی	-11.0658
▁بایەخێکی	-11.0665
▁جێهێشت	-11.0665
▁دەربکات	-11.0665
▁سەرکردەو	-11.0665
▁مۆزەخانەی	-11.0665
▁هەقی	-11.0665
▁چەشنی	-11.0665
▁گرتنەبەری	-11.0665
▁1994	-11.0672
▁دیارترین	-11.0679
▁شاعیرانی	-11.0679
▁پێگەیاندنی	-11.0679
▁ژنەکەی	-11.0679
▁کوردێکی	-11.0679
▁گرانی	-11.0679
▁ئامارێکی	-11.0686
▁ئایەتی	-11.0693
▁بەتوانا	-11.0693
▁ناردووە	-11.0693
▁گوشار	-11.0693
▁سات	-11.07
▁سیستم	-11.07
▁مەڵبەند	-11.07
▁ناساندن	-11.07
▁ناکەوێت	-11.07
▁وەستانی	-11.07
▁ڕێزلێنان	-11.07
▁شۆفێری	-11.0708
▁پەرۆشی	-11.0708
▁ناخۆشی	-11.0715
▁هێڵە	-11.0715
▁کێشاوە	-11.0715
▁داوی	-11.0722
▁داخراو	-11.0729
▁ددان	-11.0729
▁سوێند	-11.0729
▁لەگەڕەکی	-11.0729
▁نێوانیاندا	-11.0729
▁پێرس	-11.0729
▁کرێ	-11.0729
▁دەخات	-11.0736
▁ڕیفۆرم	-11.0736
▁گەشەکردن	-11.0736
▁باخی	-11.0743
▁خاتری	-11.0743
▁سەیدسادق	-11.0743
▁مەودای	-11.0743
▁باوی	-11.075
▁پیاوەکانی	-11.075
▁ڕاپۆرتەکەی	-11.075
▁ڕفیق	-11.075
▁کەوتوون	-11.075
▁گوێگرتن	-11.075
▁1996	-11.0757
▁ئەمەریکادا	-11.0757
▁سعودی	-11.0757
▁مەترسیدارە	-11.0757
▁ناگەیەنێت	-11.0757
▁گفتوگۆیەک	-11.0757
▁بنبڕکردنی	-11.0765
▁تیمێکی	-11.0765
▁جەزائیر	-11.0765
▁خەڵکیان	-11.0765
▁داعشدا	-11.0765
▁سەدە	-11.0765
▁گرنگیدان	-11.0765
▁شارەکه	-11.0772
▁فلمێ	-11.0772
▁فێربوونی	-11.0772
▁کۆمە	-11.0772
▁بازاری	-11.0779
▁سەرکوتی	-11.0779
▁لەئارادایە	-11.0779
▁مۆندیال	-11.0779
▁هێرشه	-11.0779
▁بەغداوە	-11.0786
▁دنیایەکی	-11.0786
▁ئاماژەمان	-11.0793
▁موزایەدەی	-11.0793
▁نزم	-11.0793
▁کردوو	-11.0793
▁خزم	-11.08
▁ئەسعەد	-11.0807
▁چالاکیەکانی	-11.0807
▁ڕزگاریان	-11.0807
▁ئاری	-11.0815
▁بەپێویستی	-11.0815
▁بەیەکێک	-11.0815
▁1997	-11.0829
▁ڕوداوەکانی	-11.0829
▁پیتی	-11.0836
▁بوەتە	-11.0851
▁سۆفی	-11.0851
▁عە	-11.0851
▁نەوتە	-11.0851
▁ڕەچاو	-11.0851
▁حیزبانە	-11.0858
▁لەبەیاننامەیەکدا	-11.0858
▁چرکە	-11.0858
▁دامەزرا	-11.0865
▁پردێ	-11.0865
▁سەراسەری	-11.0872
▁وانییە	-11.0872
▁کادری	-11.0872
▁کرایەوه	-11.0872
▁P	-11.0879
▁بزانیت	-11.0879
▁بەردەستی	-11.0879
▁بەندەکانی	-11.0879
▁تێکست	-11.0879
▁خانمان	-11.0879
▁سەرەتاکانی	-11.0879
▁هن	-11.0879
▁هەڵسوڕاوی	-11.0879
▁دامەزراند	-11.0887
▁ببینە	-11.0894
▁بەدەیان	-11.0894
▁بەهەشتی	-11.0894
▁کەرەستە	-11.0894
▁ئاژانس	-11.0901
▁ئەیلولی	-11.0901
▁دوورخستنەوەی	-11.0901
▁گۆشت	-11.0901
▁براوە	-11.0908
▁بزانرێت	-11.0908
▁دەگوت	-11.0908
▁پێکهاتەیەکی	-11.0908
▁خراپترین	-11.0916
▁دوبەی	-11.0916
▁سەرەکییە	-11.0916
▁میللەتەکەمان	-11.0916
▁نێردراوە	-11.0916
▁هەمی	-11.0916
▁پارتەکانی	-11.0916
▁گفتوگۆکه	-11.0916
▁ئەوانەن	-11.0923
▁تۆزێک	-11.0923
▁شوێنانە	-11.0923
▁نەتەوەییەکان	-11.0923
▁١	-11.0923
▁ڕونیکردەوە	-11.0923
▁ڕێککەوتنە	-11.0923
▁1993	-11.093
▁ئاوو	-11.093
▁برسی	-11.093
▁بەرگ	-11.093
▁ست	-11.093
▁سەربەرزی	-11.093
▁پۆسته	-11.093
▁خوێندنەوەیەکی	-11.0937
▁خیانەت	-11.0937
▁لەسێ	-11.0937
▁لەیەکێتی	-11.0937
▁ئێرانە	-11.0945
▁بەزۆرینەی	-11.0945
▁تەقینەوەکانی	-11.0945
▁لەخۆدەگرێت	-11.0945
▁هاوتا	-11.0945
▁کارم	-11.0945
▁شەونم	-11.0952
▁وتنی	-11.0952
▁پڕۆسەی	-11.0952
▁کەوتەوە	-11.0952
▁هەڵوەشانەوەی	-11.0966
▁ڕەخساندنی	-11.0966
▁بەدیار	-11.0974
▁دەسەڵاتداری	-11.0974
▁توندڕەوی	-11.0981
▁حسن	-11.0981
▁شێوازێک	-11.0981
▁قارەمان	-11.0981
▁پابەندبوون	-11.0981
▁ژنانەی	-11.0981
▁بەردەوامیش	-11.0988
▁میلیشیا	-11.0988
▁Friday	-11.0996
▁شیری	-11.0996
▁گونجاوە	-11.0996
▁لایەکەوە	-11.1003
▁٢	-11.1003
▁ڕەتی	-11.1003
▁کەناڵێکی	-11.1003
▁بنێین	-11.101
▁خودایە	-11.101
▁تەنیشت	-11.1018
▁ول	-11.1018
▁پێدەدرێت	-11.1018
▁کردۆتەوه	-11.1018
▁دڵیان	-11.1025
▁سالم	-11.1025
▁سەرقاڵ	-11.1025
▁قانون	-11.1025
▁پەرلەمانە	-11.1025
▁مۆسیقای	-11.1032
▁هاوپەیمانەکانی	-11.1032
▁خولەکه	-11.1039
▁تاوانێکی	-11.1047
▁خۆڕاگر	-11.1047
▁سەرنجە	-11.1047
▁چێژی	-11.1047
▁تاوتوێکرد	-11.1062
▁جێگە	-11.1062
▁دوورو	-11.1062
▁فرۆشی	-11.1062
▁ڕەسول	-11.1062
▁ئێکێ	-11.1069
▁بەلایەنی	-11.1069
▁بەڕێ	-11.1069
▁نەقشبەندی	-11.1069
▁هۆیەوه	-11.1069
▁ڕۆما	-11.1069
▁بەکردەوە	-11.1076
▁مەعریفە	-11.1076
▁هەبووبێت	-11.1076
▁واش	-11.1076
▁پێکراوە	-11.1076
▁ژمارەیە	-11.1076
▁خەڵکانێک	-11.1084
▁ڕۆژنامەیەکی	-11.1084
▁باڵ	-11.1091
▁تۆمارکردووە	-11.1091
▁دەگێڕێت	-11.1091
▁عەرەبستانی	-11.1091
▁لۆس	-11.1091
▁مرد	-11.1091
▁هێما	-11.1091
▁پەسند	-11.1091
▁بەرامبەری	-11.1106
▁قابیلی	-11.1106
▁قورسی	-11.1106
▁نەکراون	-11.1106
▁پڕۆژەیاسای	-11.1106
▁پەروەرده	-11.1106
▁کتێبەکانی	-11.1106
▁ئازایەتی	-11.1113
▁بەزەیی	-11.1113
▁بەیاننامەکەدا	-11.1113
▁حیکمەت	-11.1113
▁دەهێنێتەوە	-11.1113
▁تکریت	-11.1121
▁دۆزەخ	-11.1121
▁هۆش	-11.1121
▁بەڕێوەبردن	-11.1128
▁دەستپێکرد	-11.1128
▁دەمێک	-11.1128
▁پەیامە	-11.1128
▁کۆنتڕۆڵ	-11.1128
▁ئەمیری	-11.1135
▁بەسەریاندا	-11.1135
▁پێبکات	-11.1135
▁کۆتاییان	-11.1135
▁کۆڕی	-11.1135
▁کەمیی	-11.1135
▁دیاربەکر	-11.1143
▁ساڵانێکی	-11.1143
▁چونە	-11.1143
▁کەسێ	-11.1143
▁گروپێک	-11.1143
▁یەکڕیزیی	-11.1143
▁ئەفسەرێکی	-11.115
▁ڕاستیی	-11.115
▁بهێنێتە	-11.1158
▁بەزۆری	-11.1158
▁پاڵێوراوی	-11.1158
▁پڕۆژەکەی	-11.1158
▁false	-11.1165
▁ئاگا	-11.1165
▁سه	-11.1165
▁مەخمور	-11.1165
▁کۆپی	-11.1165
▁ئیرادە	-11.1172
▁شیعەی	-11.1172
▁نەخۆشییەکانی	-11.1172
▁پسپۆڕ	-11.1172
▁ڕەوشە	-11.1172
▁کاریگەرییان	-11.1172
▁سنوورە	-11.118
▁لەبەرانبەر	-11.118
▁نەرێنی	-11.118
▁کەشێکی	-11.118
▁زادە	-11.1187
▁کامە	-11.1187
▁کێشەکانیان	-11.1187
▁دەردەکەوێ	-11.1195
▁پرنسیپی	-11.1195
▁پەرلەمانیش	-11.1195
▁کۆتاییهێنان	-11.1195
▁خۆیانن	-11.1202
▁ڕێکخستنەوەی	-11.121
▁گوتە	-11.121
▁یەکێتیش	-11.121
▁ئەلعێراقیه	-11.1217
▁بدرێن	-11.1217
▁عەبدولرەحمان	-11.1217
▁لێدوانەی	-11.1217
▁احمد	-11.1225
▁جولەکە	-11.1225
▁برسێتی	-11.1232
▁دەخۆن	-11.1232
▁پشێوی	-11.1232
▁چەتری	-11.1232
▁کارەساتێکی	-11.124
▁خانووبەرە	-11.1247
▁خاڵێک	-11.1247
▁زانکۆکان	-11.1247
▁زەرەر	-11.1247
▁شیرینی	-11.1247
▁هێناوەتە	-11.1247
▁کاتێکدایه	-11.1247
▁یاسایه	-11.1247
▁سازی	-11.1255
▁فریای	-11.1255
▁فەرمانڕەوایی	-11.1255
▁هەشتی	-11.1262
▁حیزبێکی	-11.127
▁شوێنه	-11.127
▁لەخەڵکی	-11.127
▁وەڵامێکی	-11.127
▁چاودێر	-11.127
▁ڕاستگۆیی	-11.127
▁73	-11.1277
▁بەحرەین	-11.1277
▁دەگەرێتەوە	-11.1277
▁زانیارییانەی	-11.1277
▁مانگدا	-11.1277
▁ژان	-11.1277
▁گرفتێکی	-11.1277
▁تۆڵەی	-11.1285
▁دەسەلمێنێت	-11.1285
▁شەپۆل	-11.1285
▁لێدێت	-11.1292
▁هەمویان	-11.1292
▁64	-11.13
▁F	-11.13
▁ئامادەیه	-11.13
▁بەلاوە	-11.13
▁مرۆڤەوە	-11.13
▁وتارەکەی	-11.13
▁باژێرێ	-11.1307
▁تۆمەت	-11.1307
▁شێوەکار	-11.1307
▁ڕەنج	-11.1307
▁دەرکردووە	-11.1315
▁هێرشبەری	-11.1315
▁چاندنی	-11.1315
▁ڕۆیشتن	-11.1315
▁کۆنگرەکە	-11.1315
▁ئادەم	-11.1322
▁ئەشکەنجە	-11.1322
▁بنەڕەتدا	-11.1322
▁بڕیارو	-11.1322
▁سونە	-11.1322
▁نەقیب	-11.1322
▁سەرای	-11.133
▁پێتان	-11.133
▁چاککردنی	-11.133
▁ئەخلاق	-11.1337
▁خەتەنەکردنی	-11.1337
▁دیکەیش	-11.1337
▁فریاد	-11.1337
▁قوربانیی	-11.1337
▁مەیلی	-11.1337
▁پێشکەوتووی	-11.1337
▁بەدەنگی	-11.1345
▁لەوکاتەدا	-11.1345
▁گەمە	-11.1345
▁ئەنجومەنە	-11.1352
▁بێشکچی	-11.1352
▁دکەت	-11.136
▁پرسیارانە	-11.136
▁کەلتوور	-11.136
▁بەکورد	-11.1368
▁سەربازێکی	-11.1368
▁هەوێنی	-11.1368
▁ڕاگەیەنرا	-11.1368
▁دەپارێزێت	-11.1375
▁ڕقی	-11.1375
▁کاربەدەسـتانی	-11.1375
▁ئاشتیانە	-11.1383
▁توێژینەوەیەکی	-11.1383
▁جوگرافیای	-11.1383
▁دانیشتوانەکەی	-11.1383
▁دەستگیرکرد	-11.1383
▁چارەنووسساز	-11.1383
▁ێوەبەرایەتی	-11.1383
▁حەقە	-11.139
▁ستەمی	-11.139
▁مامۆستایەکی	-11.139
▁ئامادەین	-11.1398
▁بەڕێژەی	-11.1398
▁دەکوژێت	-11.1398
▁عاشق	-11.1398
▁ئێ	-11.1406
▁بەڵی	-11.1406
▁تۆدا	-11.1406
▁دانیان	-11.1406
▁لەمانە	-11.1406
▁پایەی	-11.1406
▁تیڤی	-11.1413
▁تێپەڕی	-11.1413
▁دۆستەکانی	-11.1413
▁میترۆ	-11.1413
▁وەهای	-11.1413
▁بارێکی	-11.1421
▁بچینە	-11.1421
▁ناوچەیەدا	-11.1421
▁پرۆگرامێکی	-11.1421
▁جیهانیش	-11.1428
▁مەنووچێهر	-11.1428
▁هاتینه	-11.1428
▁یادە	-11.1428
▁بگەیەنن	-11.1436
▁یەکلا	-11.1436
▁1989	-11.1444
▁بارەگاکانی	-11.1444
▁توێژەران	-11.1444
▁بگاته	-11.1451
▁بەئامانجی	-11.1451
▁سوتەمەنی	-11.1451
▁نزار	-11.1451
▁پسپۆری	-11.1451
▁پێکەوەژیانی	-11.1451
▁یۆنانی	-11.1451
▁ئێستاوە	-11.1459
▁بەکۆی	-11.1459
▁نامەوێت	-11.1459
▁هەندەران	-11.1459
▁کەمینە	-11.1459
▁میللەتە	-11.1467
▁وتارە	-11.1467
▁پێنجشەممه	-11.1467
▁ئەسڵی	-11.1474
▁بڕیاریان	-11.1474
▁بڵند	-11.1474
▁بینەران	-11.1474
▁مەبەسته	-11.1474
▁ڕێکخست	-11.1474
▁داخە	-11.1482
▁دامەزرێنەری	-11.1482
▁زیندانیانی	-11.1482
▁هەژاران	-11.1482
▁پان	-11.1482
▁ئەمریکییەکان	-11.149
▁سـاڵح	-11.149
▁شارەکەی	-11.149
▁قۆناغەی	-11.149
▁هوشیار	-11.149
▁پەیمانگاکان	-11.149
▁جلوبەرگ	-11.1497
▁جیاوازیان	-11.1497
▁سوێندی	-11.1497
▁لایێ	-11.1497
▁ڕۆژنامەنوسی	-11.1497
▁خستنی	-11.1505
▁دووجار	-11.1505
▁فرۆکەخانەی	-11.1505
▁ناوەر	-11.1505
▁گوی	-11.1505
▁ئەمریکاش	-11.1513
▁ئەپرێل	-11.1513
▁بونەتە	-11.1513
▁حەج	-11.1513
▁سەردانەی	-11.1513
▁چەمک	-11.1513
▁گرینگە	-11.1513
▁86	-11.152
▁بەربەست	-11.152
▁دروستبکات	-11.152
▁سیستانی	-11.152
▁شەراکەتی	-11.152
▁دزینی	-11.1528
▁حەمەڕەشید	-11.1536
▁خاو	-11.1536
▁شاردا	-11.1536
▁شانۆکار	-11.1536
▁هێناو	-11.1536
▁ڕواە	-11.1536
▁کراوی	-11.1536
▁74	-11.1544
▁بونیادی	-11.1544
▁دەخوات	-11.1544
▁کردەوەو	-11.1544
▁ئیسلامە	-11.1551
▁ئەلبومی	-11.1551
▁ئەوانەشی	-11.1551
▁تەقینەوەکەی	-11.1551
▁دەیتوانی	-11.1551
▁ڕێژەیە	-11.1551
▁کۆک	-11.1551
▁کۆیی	-11.1551
▁ئۆمەران	-11.1559
▁بەناونیشانی	-11.1559
▁خەڵاتەکانی	-11.1559
▁دەکردن	-11.1559
▁شارەزایان	-11.1559
▁شاعیران	-11.1559
▁شتێکە	-11.1559
▁نو	-11.1559
▁هێنانە	-11.1559
▁ئامادەکردن	-11.1567
▁هەڵگرتووە	-11.1567
▁ڕێککەوتنێکی	-11.1567
▁گوتەیەکی	-11.1567
▁بگوترێت	-11.1574
▁دۆخەی	-11.1574
▁مەبەستمان	-11.1574
▁کراونەتەوە	-11.1574
▁گەورەکەی	-11.1574
▁پێشووتر	-11.1582
▁ڕۆژنامەکان	-11.1582
▁ئەر	-11.159
▁خزمەتگوزارییەکان	-11.159
▁دەریایی	-11.159
▁ڕۆژا	-11.159
▁گاڵتە	-11.159
▁ئێزدییەکان	-11.1598
▁بەهەند	-11.1598
▁سەربەستی	-11.1598
▁نواندن	-11.1598
▁نەبین	-11.1598
▁سالانی	-11.1605
▁کارمەند	-11.1605
▁سیاسیش	-11.1613
▁گرنگیان	-11.1613
▁بەبەردەوامی	-11.1621
▁توانایی	-11.1621
▁خۆمدا	-11.1621
▁فەرمانبەری	-11.1621
▁هۆشیاریی	-11.1621
▁سەرەتادا	-11.1629
▁عەقڵییەتی	-11.1629
▁لویس	-11.1629
▁گەڕەک	-11.1629
▁یەکیەتیی	-11.1629
▁ئاگایی	-11.1637
▁حکومەتێک	-11.1637
▁لادانی	-11.1637
▁کەسێکیش	-11.1637
▁تورکیایە	-11.1644
▁داوایەکی	-11.1644
▁لەخۆیان	-11.1644
▁هەڕەشەکانی	-11.1644
▁هەناوی	-11.1652
▁بەکاریان	-11.166
▁دروستبونی	-11.166
▁دەربکەوێت	-11.166
▁سالانە	-11.166
▁لوقمان	-11.166
▁کاسب	-11.166
▁کیلۆ	-11.166
▁بووایە	-11.1668
▁88	-11.1676
▁gmail	-11.1676
▁ئەلمانیا	-11.1676
▁بەهۆکاری	-11.1676
▁منداڵەکە	-11.1676
▁موڵک	-11.1676
▁ڕووناک	-11.1676
▁1968	-11.1683
▁کۆنەکان	-11.1683
▁یارییه	-11.1683
▁ئەنجامەکان	-11.1691
▁تازەیە	-11.1691
▁خوێندنگە	-11.1691
▁دەمێ	-11.1691
▁کۆمەڵایەتیەکان	-11.1691
▁ئۆڵۆمپی	-11.1699
▁بەردەوامه	-11.1699
▁ناهێڵێت	-11.1699
▁چۆنیەتیی	-11.1699
▁بێزاری	-11.1707
▁زێدی	-11.1707
▁هاتەوە	-11.1707
▁ئامێرژەنی	-11.1715
▁توانایەکی	-11.1715
▁دەروێش	-11.1715
▁زانستیی	-11.1715
▁ئەلعێراقییە	-11.1723
▁بودجه	-11.1723
▁دووان	-11.1723
▁وێنەکانی	-11.1723
▁بابەته	-11.173
▁بکەت	-11.173
▁بەرژەوەندیە	-11.173
▁دەوڵەتێک	-11.173
▁قەد	-11.1738
▁چەندی	-11.1738
▁کۆبکاتەوە	-11.1738
▁ئیسلامیە	-11.1746
▁سەقامگیر	-11.1746
▁ناکۆک	-11.1746
▁کرابوون	-11.1746
▁کۆنفرانس	-11.1746
▁بەناچاری	-11.1754
▁نەفرەت	-11.1754
▁ئەلقاعیدە	-11.1762
▁ئەندامێتی	-11.1762
▁تەواویان	-11.177
▁حاڵ	-11.177
▁لەقەزای	-11.177
▁بایکۆتی	-11.1778
▁بەستووە	-11.1778
▁دیدارێکی	-11.1778
▁ساڵانه	-11.1778
▁هاتووەو	-11.1778
▁چەندێ	-11.1778
▁کەرامەتی	-11.1778
▁گۆڕ	-11.1778
▁تیمەکانی	-11.1786
▁لەبوارەکانی	-11.1786
▁بەست	-11.1794
▁دەبرد	-11.1794
▁نەکردووەتەوە	-11.1794
▁ژوورەوە	-11.1794
▁کێشا	-11.1794
▁تۆڕە	-11.1801
▁خەوی	-11.1801
▁یەکگرتوی	-11.1801
▁ئاماژەیەکی	-11.1809
▁بۆمب	-11.1809
▁بینا	-11.1809
▁مەدریدی	-11.1809
▁ڕایس	-11.1809
▁کادر	-11.1809
▁تەنێ	-11.1817
▁مەکتەب	-11.1817
▁کلاسیکی	-11.1817
▁گرێبەست	-11.1817
▁بۆلای	-11.1825
▁پاداشتی	-11.1825
▁پەتی	-11.1825
▁بەرێوەدەچێت	-11.1833
▁هەوڵدەدەین	-11.1833
▁داهاتوویەکی	-11.1841
▁دەرێ	-11.1841
▁دەنگدەرانی	-11.1841
▁بەرچاویان	-11.1849
▁سەگ	-11.1849
▁هاتووچۆی	-11.1849
▁هاندەرانی	-11.1849
▁وڵاتەکە	-11.1849
▁پۆستەکەی	-11.1849
▁کۆت	-11.1849
▁یەکگرتوەکانی	-11.1849
▁خزمەتکردن	-11.1857
▁دارستان	-11.1857
▁عومەری	-11.1857
▁71	-11.1865
▁هونەرییەکانی	-11.1865
▁هێزەی	-11.1865
▁بارزانیی	-11.1873
▁بچێتەوە	-11.1873
▁دەستگیرکرا	-11.1873
▁زەنگی	-11.1873
▁هەفتەیە	-11.1873
▁کوردییەکاندا	-11.1873
▁گوللە	-11.1873
▁بابە	-11.1881
▁قایل	-11.1881
▁مەبەستیان	-11.1881
▁نوێنەر	-11.1881
▁چیک	-11.1881
▁ئاژاوە	-11.1889
▁خولە	-11.1889
▁میوە	-11.1889
▁چێندراو	-11.1889
▁ڕێڕەوی	-11.1889
▁ڕەشە	-11.1889
▁بەلیستی	-11.1897
▁ترسناکە	-11.1897
▁خواستە	-11.1897
▁دهوک	-11.1897
▁فیدرال	-11.1897
▁مەرجە	-11.1897
▁ئاسەواری	-11.1905
▁دانرا	-11.1905
▁وتووێژ	-11.1905
▁ڕسول	-11.1905
▁کلیلی	-11.1905
▁تووشبوون	-11.1913
▁دەگمەن	-11.1913
▁کرایە	-11.1913
▁کورسییەکانی	-11.1913
▁دەرچووانی	-11.1921
▁91	-11.1929
▁لەشارەکانی	-11.1929
▁ڕێکخراوەی	-11.1929
▁کراوەیە	-11.1929
▁کەوتوونەتە	-11.1929
▁گەشتیاران	-11.1929
▁دابڕێنراوەکان	-11.1937
▁فیلمەدا	-11.1937
▁لەوێشەوە	-11.1937
▁هەریری	-11.1937
▁پیشانی	-11.1937
▁پێمانوایە	-11.1937
▁گوتەنی	-11.1937
▁گەیشتنه	-11.1937
▁ئاسانە	-11.1945
▁ترمان	-11.1945
▁نەی	-11.1945
▁ببەخشێت	-11.1953
▁پێکهاتەکان	-11.1953
▁گوایه	-11.1953
▁بەوپێیەی	-11.1961
▁بەڕوونی	-11.1961
▁تریشی	-11.1961
▁تۆمارکراوە	-11.1961
▁داهاتێکی	-11.1961
▁سەقامگیریی	-11.1961
▁بۆش	-11.1969
▁تیرۆرو	-11.1969
▁دۆزرایەوە	-11.1969
▁سەڵاحەدین	-11.1969
▁لەعێراقدا	-11.1969
▁کوشندە	-11.1969
▁بریارە	-11.1977
▁بونە	-11.1977
▁شێوه	-11.1977
▁هەرسێ	-11.1977
▁کوردمان	-11.1977
▁ینی	-11.1977
▁ئەبن	-11.1985
▁بێوار	-11.1985
▁خۆیانیان	-11.1985
▁دوورن	-11.1985
▁سازش	-11.1985
▁سلێمانیش	-11.1985
▁نەبێتەوە	-11.1985
▁کۆنگرەیە	-11.1985
▁ئەمانەن	-11.1993
▁ئەکاتەوە	-11.1993
▁شەرەفی	-11.1993
▁ناوەکەی	-11.1993
▁هەڵەکانی	-11.1993
▁ڕۆژنامەکانی	-11.1993
▁داستانی	-11.2001
▁زیاترو	-11.2001
▁سندوقەکانی	-11.2001
▁شەوانە	-11.2001
▁واشنتۆن	-11.2001
▁وەرگێڕان	-11.2001
▁ژیانم	-11.2001
▁ژیاوە	-11.2001
▁مانچستەریۆنایتد	-11.2009
▁کێڵگەی	-11.2009
▁گەرەکی	-11.2009
▁تاکێک	-11.2018
▁زاخو	-11.2018
▁سمکۆ	-11.2018
▁لەشەڕی	-11.2026
▁مەغریب	-11.2026
▁پێستی	-11.2026
▁ڕەوایە	-11.2026
▁خاڵانەی	-11.2034
▁فێربوون	-11.2034
▁قبوڵی	-11.2034
▁پەیوەندیدارەکانی	-11.2034
▁گفتوگۆیەکدا	-11.2034
▁بەرۆکی	-11.2042
▁شاڵاوی	-11.2042
▁لێکۆڵینەوەیەکی	-11.2042
▁83	-11.205
▁بڕگە	-11.205
▁پاشانیش	-11.205
▁ئاسۆس	-11.2058
▁بەخەڵکی	-11.2058
▁بەڕێوه	-11.2058
▁قەدەر	-11.2058
▁لێکۆڵینەوەکان	-11.2058
▁ناحیەکانی	-11.2058
▁نامەیەک	-11.2058
▁هەموارکردنەوەی	-11.2058
▁کلینتۆن	-11.2058
▁Wednesday	-11.2066
▁دەستێکی	-11.2066
▁زەبری	-11.2066
▁موحەمەدی	-11.2066
▁نووسینەوەی	-11.2066
▁پێکهاتوون	-11.2066
▁پیری	-11.2074
▁پەی	-11.2074
▁گەورەیەی	-11.2074
▁تایبەته	-11.2083
▁حەقیقەتی	-11.2083
▁نارەزایی	-11.2083
▁69	-11.2091
▁ئەیوب	-11.2091
▁سەرتاپای	-11.2091
▁قوتابخانەو	-11.2091
▁کامکار	-11.2091
▁کۆمپانیاکە	-11.2091
▁دڵخۆش	-11.2099
▁دەسەڵاتدارێتی	-11.2099
▁دەگرین	-11.2099
▁مێرد	-11.2099
▁بۆتان	-11.2107
▁لەدەوری	-11.2107
▁1974	-11.2115
▁داگیرکەری	-11.2115
▁سووکایەتی	-11.2115
▁دوازدە	-11.2123
▁بیانییەکان	-11.2131
▁حەڤدەی	-11.2131
▁سەوزی	-11.2131
▁لەنێوانیاندا	-11.2131
▁پراکتیکی	-11.2131
▁گفت	-11.2131
▁ئاواتی	-11.214
▁بەرزتر	-11.214
▁تیرۆرستان	-11.214
▁دایکان	-11.214
▁دەستوورە	-11.214
▁نابینێت	-11.214
▁وشەیەکی	-11.214
▁پێشەنگ	-11.214
▁چۆنییەتی	-11.214
▁ڕێککەوتنێک	-11.214
▁شۆک	-11.2148
▁لەوی	-11.2148
▁هەوڵدەدەن	-11.2148
▁ئاغای	-11.2156
▁برینی	-11.2156
▁بینەری	-11.2156
▁بەڵگەوە	-11.2156
▁شەوکەت	-11.2156
▁ئەمریکایە	-11.2164
▁دەهێنا	-11.2164
▁لەناکاو	-11.2164
▁خوارێ	-11.2172
▁میهرەبان	-11.2172
▁وکاری	-11.2172
▁گرنگن	-11.2172
▁بیناسازی	-11.2181
▁ساڵەو	-11.2181
▁غەیرە	-11.2181
▁قەدری	-11.2181
▁وێنا	-11.2181
▁پێشێلکاری	-11.2181
▁ئازادییەکانی	-11.2189
▁بخوێنێت	-11.2189
▁بێته	-11.2189
▁إلی	-11.2197
▁داواش	-11.2197
▁فراکسیۆنە	-11.2197
▁لاسایی	-11.2197
▁هیندی	-11.2197
▁ئەندامە	-11.2205
▁بەدەستبهێنێت	-11.2205
▁شەفافییەت	-11.2205
▁مرۆڤەکانی	-11.2205
▁٣	-11.2205
▁کەر	-11.2205
▁News	-11.2214
▁ئێرانەوه	-11.2214
▁جیهانییەکان	-11.2214
▁لەسەدا	-11.2214
▁مەحکوم	-11.2214
▁هێرشکردنە	-11.2214
▁پێداویستیەکانی	-11.2214
▁کەهەموو	-11.2214
▁ئاکرێ	-11.2222
▁ببەستێت	-11.2222
▁بەجیا	-11.2222
▁زەق	-11.2222
▁فیدڕاڵ	-11.2222
▁لەبارەگای	-11.2222
▁واقیعدا	-11.2222
▁پلانە	-11.2222
▁ڕامان	-11.2222
▁ئاستەنگ	-11.223
▁فەریق	-11.223
▁مەترسییەکی	-11.223
▁ڕۆناڵدۆ	-11.223
▁ڕەتدەکاتەوە	-11.223
▁کازم	-11.223
▁کەرکوکیش	-11.223
▁نوێوە	-11.2238
▁پەرەپێدان	-11.2238
▁ڕەچاوکردنی	-11.2238
▁ئەفغانی	-11.2247
▁بەڕێزتان	-11.2247
▁جەلیل	-11.2247
▁خانە	-11.2247
▁دڵەڕاوکێ	-11.2247
▁لەخزمەتی	-11.2247
▁نوێیەی	-11.2247
▁پشوو	-11.2247
▁پێکبهێنرێت	-11.2247
▁چێنراو	-11.2247
▁تاوانباری	-11.2255
▁مەکسیک	-11.2255
▁هەبیت	-11.2255
▁ۆی	-11.2255
▁ئامادەکردووە	-11.2263
▁جارانی	-11.2263
▁خۆمانی	-11.2263
▁نەکەیت	-11.2263
▁پاساو	-11.2263
▁78	-11.2272
▁نوسەری	-11.2272
▁هەوڵیان	-11.2272
▁یانەیە	-11.2272
▁لەترسی	-11.228
▁ماوه	-11.228
▁هەڤال	-11.228
▁کۆمۆنیزم	-11.228
▁87	-11.2288
▁ئینسانەکان	-11.2288
▁تێبگەین	-11.2288
▁خۆری	-11.2288
▁زمانەوانی	-11.2288
▁لێبکات	-11.2288
▁هیلاری	-11.2288
▁وەر	-11.2288
▁کارگە	-11.2288
▁توێژی	-11.2296
▁خوشکی	-11.2296
▁مەلای	-11.2296
▁ڕەگی	-11.2296
▁کەپێویستە	-11.2296
▁زمانێک	-11.2305
▁لێرەو	-11.2305
▁نادەین	-11.2305
▁هەولی	-11.2305
▁ڕاپۆرتێک	-11.2305
▁ببەسترێت	-11.2313
▁براوەکانی	-11.2313
▁بگرێتە	-11.2313
▁بەرشلۆنە	-11.2313
▁خوازی	-11.2313
▁خۆڕاگری	-11.2313
▁فە	-11.2313
▁ماوەیەی	-11.2313
▁پێشان	-11.2313
▁چیرۆکێکی	-11.2313
▁79	-11.2321
▁لەسەرووی	-11.2321
▁پێیەتی	-11.2321
▁پەیوەند	-11.2321
▁یاسادا	-11.2321
▁بەشداربووانی	-11.233
▁خۆشناو	-11.233
▁99	-11.2338
▁بدەینەوە	-11.2338
▁بۆمبڕێژکراو	-11.2338
▁لەیاسای	-11.2338
▁مۆرکرد	-11.2338
▁ڕوانگەیەوە	-11.2338
▁دژوار	-11.2347
▁دەخەینە	-11.2347
▁ڕونیشیکردەوە	-11.2347
▁110	-11.2355
▁بچوکی	-11.2355
▁خوارووی	-11.2355
▁لق	-11.2355
▁سەرەتاییەکانی	-11.2363
▁شیعرێکی	-11.2363
▁منیان	-11.2363
▁نووسەرێکی	-11.2363
▁کاکی	-11.2363
▁گونجاوی	-11.2363
▁گەورەدا	-11.2363
▁بوین	-11.2372
▁بەمە	-11.2372
▁دەردەکەون	-11.2372
▁هەوڵەکانیان	-11.2372
▁هەڵبژاردنەکە	-11.2372
▁پەروەردگار	-11.2372
▁کاریگەریان	-11.2372
▁کوردییەوە	-11.2372
▁یەکجاری	-11.2372
▁10000000	-11.238
▁دەنگدانەوە	-11.238
▁زەوت	-11.238
▁لەدروستکردنی	-11.238
▁توێژەری	-11.2388
▁جێگرەکەی	-11.2388
▁داواکردنی	-11.2388
▁دێموکراسیدا	-11.2388
▁زەمان	-11.2388
▁ئازارەکانی	-11.2397
▁ئەوەشیان	-11.2397
▁بەسەرچوو	-11.2397
▁شایستە	-11.2405
▁فارسیی	-11.2405
▁ند	-11.2405
▁نوێنەرێکی	-11.2405
▁یاوەر	-11.2405
▁بەبڕیاری	-11.2414
▁ناوچەکەیان	-11.2414
▁ڤینۆس	-11.2414
▁ئامێرە	-11.2422
▁ئەرکانی	-11.2422
▁زمانەکانی	-11.2422
▁زەمین	-11.2422
▁ستیڤان	-11.2422
▁هەرێمەکان	-11.2422
▁بەرەیەکی	-11.2431
▁خۆپیشاندەرانی	-11.2431
▁دژه	-11.2431
▁دڵە	-11.2431
▁ئیداریی	-11.2439
▁ئێرانییەکان	-11.2439
▁فۆڕمی	-11.2439
▁ماڵێک	-11.2439
▁موسەوی	-11.2439
▁ژناندا	-11.2439
▁یۆڤانتۆس	-11.2439
▁تۆڵە	-11.2447
▁خەرجکردنی	-11.2447
▁سازکرا	-11.2447
▁سیاسیەوە	-11.2447
▁ناسراون	-11.2447
▁نێوەندی	-11.2447
▁ئاژانسەکانی	-11.2456
▁جیاجیاکان	-11.2456
▁سوودیان	-11.2456
▁مەعریفی	-11.2456
▁نیچە	-11.2456
▁کیشوەری	-11.2456
▁ناوخۆییەکانی	-11.2464
▁وەرزشکردن	-11.2464
▁پاڵەوان	-11.2464
▁پێوەر	-11.2464
▁Tuesday	-11.2473
▁ئاشکراشیکرد	-11.2473
▁بنرێت	-11.2473
▁لەسێدارەدان	-11.2473
▁پەنابەر	-11.2473
▁ڕەهەندە	-11.2473
▁کوڕێکی	-11.2473
▁بیرمان	-11.2481
▁بەبەشداری	-11.2481
▁بەڵگەیەکی	-11.2481
▁دەوڵەمەندی	-11.2481
▁لێکدانەوە	-11.2481
▁کەرنەڤاڵی	-11.2481
▁ئاوە	-11.249
▁ئەمەریکاو	-11.249
▁بژاردەی	-11.249
▁بەپێ	-11.249
▁لەجێی	-11.249
▁ڕۆیشت	-11.249
▁توانیویانه	-11.2498
▁جۆرەها	-11.2498
▁خومەینی	-11.2498
▁خەسرەو	-11.2498
▁دەسەڵاتەکان	-11.2498
▁نەتەوەیە	-11.2498
▁وڵاتەکەمان	-11.2498
▁وێنەو	-11.2498
▁پرەنسیپی	-11.2498
▁بگەڕێینەوە	-11.2507
▁تووڕە	-11.2507
▁دەوڵەتدا	-11.2507
▁فکر	-11.2507
▁نەزانی	-11.2507
▁کۆبوونەوەکان	-11.2507
▁لەهەمانکاتیشدا	-11.2515
▁پەیامەکەی	-11.2515
▁بەسره	-11.2524
▁خەسڵەتی	-11.2524
▁خەڵکانێکی	-11.2524
▁لەڕوی	-11.2524
▁کۆنسێرتی	-11.2524
▁بەتوانای	-11.2532
▁زستان	-11.2532
▁سەروو	-11.2532
▁مەتری	-11.2532
▁نیشتمانە	-11.2532
▁چێڵسی	-11.2532
▁گوڵە	-11.2532
▁کوردییەکانی	-11.2541
▁تانک	-11.2549
▁تیاییدا	-11.2549
▁عەدالەتی	-11.2549
▁مۆدێرنە	-11.2549
▁وەفدەکە	-11.2549
▁گیرانی	-11.2549
▁بەگەرمی	-11.2558
▁دروستە	-11.2558
▁دیبەگەیی	-11.2558
▁پێشمەرگەکانی	-11.2558
▁ڕون	-11.2558
▁سوتاندنی	-11.2566
▁دەسەڵاتێک	-11.2575
▁سالح	-11.2575
▁فایق	-11.2575
▁لەبەرچاوگرتنی	-11.2575
▁لەبەرژەوەندیی	-11.2575
▁لەشێوەی	-11.2575
▁ولاتێکی	-11.2575
▁Monday	-11.2583
▁ئەفریقیا	-11.2583
▁تەرمەکەی	-11.2583
▁زەنگەنە	-11.2583
▁فیستیڤاڵە	-11.2583
▁گوندە	-11.2583
▁ستار	-11.2592
▁ناوبژیوان	-11.2592
▁بینیم	-11.2601
▁توانییان	-11.2601
▁نزیکن	-11.2601
▁کچەکە	-11.2601
▁زەویدا	-11.2609
▁81	-11.2618
▁خۆپیشاندانەکە	-11.2618
▁دەخوازن	-11.2618
▁شۆڕشگێڕی	-11.2618
▁نواندنی	-11.2618
▁هەڵبگرێت	-11.2618
▁گەڕاندەوە	-11.2618
▁ئازادیخوازان	-11.2626
▁توڕە	-11.2626
▁نازانیت	-11.2626
▁ناوچەکان	-11.2626
▁Saturday	-11.2635
▁ئازارو	-11.2635
▁دز	-11.2635
▁سنه	-11.2635
▁قوربان	-11.2635
▁لەولاتانی	-11.2635
▁هاوڕێیانی	-11.2635
▁یەکلاکردنەوەی	-11.2635
▁84	-11.2644
▁دەسەڵاتەکەی	-11.2644
▁نەخۆشخانه	-11.2644
▁گرنگه	-11.2644
▁فەرمانگەکانی	-11.2652
▁PKK	-11.2661
▁ببین	-11.2661
▁هەڕەشەو	-11.2661
▁پاسەوانەکانی	-11.2661
▁بەردەوامیی	-11.2669
▁پێکان	-11.2669
▁پەردە	-11.2669
▁کردەوەیەکی	-11.2669
▁العرب	-11.2678
▁دادگاییکردنی	-11.2678
▁دەبینەوە	-11.2678
▁شاخەوان	-11.2678
▁لەبودجەی	-11.2678
▁موستەفا	-11.2678
▁نابین	-11.2678
▁هاوینی	-11.2678
▁ڕۆیشتنی	-11.2678
▁تۆنی	-11.2687
▁تەواوکەری	-11.2687
▁دیمانەی	-11.2687
▁سەربازییەکان	-11.2687
▁لینین	-11.2687
▁نەورۆزی	-11.2687
▁هەندێکیشیان	-11.2687
▁پێشمەرگایەتی	-11.2687
▁ژینگەو	-11.2687
▁1983	-11.2695
▁دەناڵێنن	-11.2695
▁دەگەڕێن	-11.2695
▁زووە	-11.2695
▁پێشنیاز	-11.2695
▁پێنوسەکان	-11.2695
▁وەیە	-11.2704
▁پەراوێزی	-11.2704
▁کاربکات	-11.2704
▁بێژەر	-11.2713
▁تێکەڵی	-11.2713
▁دەرئەنجام	-11.2713
▁بکەون	-11.2721
▁بیرەوەری	-11.2721
▁تێبگەن	-11.2721
▁خانمه	-11.2721
▁دانیشتوی	-11.2721
▁دەگەنە	-11.2721
▁شیعەکانی	-11.2721
▁عیراقی	-11.2721
▁کێشەیان	-11.2721
▁گۆرانییەکانی	-11.2721
▁گەشتوگوزاری	-11.2721
▁باسکردن	-11.273
▁بێگەرد	-11.273
▁دایکە	-11.273
▁دەرماڵەی	-11.273
▁ژیانیدا	-11.273
▁ەکی	-11.273
▁ئێسـتا	-11.2739
▁ئەمانەی	-11.2739
▁بەخێرهاتنی	-11.2739
▁خرایه	-11.2739
▁دیارو	-11.2739
▁دەڤەرە	-11.2739
▁دەگوزەرێت	-11.2739
▁فەڕەنسی	-11.2739
▁ناوەندێکی	-11.2739
▁نەهێناوە	-11.2739
▁ولاتەکەی	-11.2739
▁بوارێکی	-11.2747
▁تاڵان	-11.2747
▁داگیرکاری	-11.2747
▁مەسرور	-11.2747
▁هەڵدەستێت	-11.2747
▁ڕامیاریی	-11.2747
▁دەمرێت	-11.2756
▁زیندووی	-11.2756
▁لەئێستا	-11.2756
▁هۆیەشەوە	-11.2756
▁پێنجی	-11.2756
▁بەکاردێت	-11.2765
▁زیانەکانی	-11.2765
▁سروودی	-11.2765
▁ئابوریی	-11.2774
▁خوی	-11.2774
▁ساکار	-11.2774
▁عەدالەت	-11.2774
▁هەشتا	-11.2774
▁ژەهراوی	-11.2774
▁کارمان	-11.2774
▁گەیشتۆته	-11.2774
▁ئەردۆگان	-11.2782
▁تائیفی	-11.2782
▁دۆستانی	-11.2782
▁ساردی	-11.2782
▁گەرما	-11.2782
▁B	-11.2791
▁ئەلیکترۆنی	-11.2791
▁بارودۆخ	-11.2791
▁توڕەیی	-11.2791
▁حەوتەمی	-11.2791
▁سەرکەوتنە	-11.2791
▁قسەم	-11.2791
▁هەڵبژاردنەوە	-11.2791
▁وێنای	-11.2791
▁ئەگەریش	-11.28
▁بەرپرسیاریەتی	-11.28
▁تەڕ	-11.28
▁سورەتی	-11.28
▁نیۆیۆرک	-11.28
▁Thursday	-11.2809
▁بودجەو	-11.2809
▁دەردی	-11.2809
▁دەکوژرێت	-11.2809
▁نزیکترین	-11.2809
▁هەستیان	-11.2809
▁ڕۆژنامەنوسانی	-11.2809
▁خوه	-11.2817
▁سەنتەر	-11.2817
▁هه	-11.2817
▁وڵاتەوە	-11.2817
▁بەرزو	-11.2826
▁بەناوبانگ	-11.2826
▁تێدایەو	-11.2826
▁پرسەکانی	-11.2826
▁پێدەکەن	-11.2826
▁کردوویەتی	-11.2826
▁باڵەخانەی	-11.2835
▁بدرێتە	-11.2835
▁بڕیاریشە	-11.2835
▁نووسەرەکەی	-11.2835
▁گۆرانییەکی	-11.2835
▁ئاڵوگۆڕ	-11.2844
▁بەعسدا	-11.2844
▁بەوەوە	-11.2844
▁خاوەندارێتی	-11.2844
▁شاهیدی	-11.2844
▁شتەکانی	-11.2844
▁لیستەکانی	-11.2844
▁هەمومان	-11.2844
▁ڕووبەڕوو	-11.2844
▁کۆمۆنیست	-11.2844
▁بای	-11.2852
▁ڕۆژگاری	-11.2852
▁شەشی	-11.2861
▁هەستیاری	-11.2861
▁پێداویستییە	-11.2861
▁کورستان	-11.2861
▁Sunday	-11.287
▁بەدەپە	-11.287
▁خێرای	-11.287
▁شکاند	-11.287
▁هەمە	-11.287
▁گۆڕانیش	-11.287
▁گەردوون	-11.287
▁گەورەترە	-11.287
▁حەقی	-11.2879
▁لم	-11.2879
▁هەمانکاتدا	-11.2879
▁کامیرۆن	-11.2879
▁کردۆته	-11.2879
▁ئەزانن	-11.2888
▁دێموکراسییە	-11.2888
▁دەردەسەری	-11.2888
▁هەڵبژاردنەدا	-11.2888
▁وەدەست	-11.2888
▁چەوساندنەوەی	-11.2888
▁کردەیەکی	-11.2888
▁برینداربوونی	-11.2897
▁بگەین	-11.2897
▁بەسەدان	-11.2897
▁دوکانی	-11.2897
▁زێر	-11.2897
▁منداڵەکان	-11.2897
▁ناوەکانی	-11.2897
▁نەکردن	-11.2897
▁گەرەکە	-11.2897
▁view	-11.2905
▁باڵەکایەتی	-11.2905
▁تیرۆریستییەکان	-11.2905
▁جاره	-11.2905
▁سەمای	-11.2905
▁لەگوندی	-11.2905
▁ماوەیە	-11.2905
▁چاوەر	-11.2905
▁چۆنی	-11.2905
▁دەخاتەڕوو	-11.2914
▁قە	-11.2914
▁ڕۆژنامەنووسیدا	-11.2914
▁ئەمڕۆکە	-11.2923
▁بەغداد	-11.2923
▁دەکوژن	-11.2923
▁زەوییە	-11.2923
▁موشەکی	-11.2923
▁نەبووم	-11.2923
▁وڵاتەکه	-11.2923
▁بەخشیوە	-11.2932
▁تاقیکردنەوە	-11.2932
▁دەلێت	-11.2932
▁دەمانەوێ	-11.2932
▁بۆماوەی	-11.2941
▁داعشی	-11.2941
▁ناگرێتەوە	-11.2941
▁ڕێباز	-11.2941
▁ژاپۆنی	-11.2941
▁کوبانی	-11.2941
▁گۆلەکانی	-11.2941
▁بەیاننامەکەی	-11.295
▁جەمسەری	-11.295
▁داهاتودا	-11.295
▁سەرکەوتووی	-11.295
▁کەسانه	-11.295
▁سرووشتی	-11.2959
▁شەبەک	-11.2959
▁نەتوانراوە	-11.2959
▁هەواڵەکانی	-11.2959
▁وشەیە	-11.2959
▁گێڕانەوە	-11.2959
▁بەرەوپێشبردنی	-11.2967
▁ته	-11.2967
▁ڕوونتر	-11.2967
▁ڕەخنەیان	-11.2967
▁کوردۆساید	-11.2967
▁حەسرەتی	-11.2976
▁دەبێتەوەو	-11.2976
▁نائومێدی	-11.2976
▁نەبووه	-11.2976
▁دەکران	-11.2985
▁غەفور	-11.2985
▁نوێنەرایەتیی	-11.2985
▁ڕۆژه	-11.2985
▁بوەو	-11.2994
▁کوردانەی	-11.2994
▁ئاڕاستە	-11.3012
▁خۆرهەلاتی	-11.3012
▁نیشتەجێی	-11.3012
▁نەکردبێت	-11.3012
▁هێلی	-11.3012
▁پۆستەکانی	-11.3012
▁de	-11.3021
▁خولەکانی	-11.3021
▁دەقەکەیەتی	-11.3021
▁بەچ	-11.303
▁تێبگات	-11.303
▁تەقاندنەوەی	-11.303
▁پشتیان	-11.303
▁چاومان	-11.303
▁ئاوێنەنیوزی	-11.3039
▁وێنەیی	-11.3039
▁ڕاگەیاندنە	-11.3039
▁ڕوبەروی	-11.3039
▁کتێبەکە	-11.3039
▁کێشەیه	-11.3039
▁ئینگلیز	-11.3048
▁باسکەی	-11.3048
▁جوڵەی	-11.3048
▁زەمینی	-11.3048
▁ناسیۆنالیزم	-11.3048
▁گوتراوە	-11.3048
▁1982	-11.3057
▁82	-11.3057
▁بردە	-11.3057
▁بەوەیە	-11.3057
▁تازەترین	-11.3057
▁خانمی	-11.3057
▁دێموکراتەکان	-11.3057
▁لیژنەیە	-11.3057
▁ڕوداوی	-11.3057
▁سەردانە	-11.3066
▁هاوکێشەی	-11.3066
▁کوردستانەوه	-11.3066
▁ئاریتما	-11.3075
▁باخ	-11.3075
▁تورکیە	-11.3075
▁جیهانەوە	-11.3075
▁ململانێیەکی	-11.3075
▁ناسی	-11.3075
▁نەرمی	-11.3075
▁هەڤاڵانی	-11.3075
▁بڵێیت	-11.3084
▁مردوو	-11.3084
▁ئامادەبووانی	-11.3093
▁باوەڕم	-11.3093
▁لەناوەڕاستی	-11.3093
▁نەتەوەییەکانی	-11.3093
▁هێناوەو	-11.3093
▁W	-11.3102
▁is	-11.3102
▁خوڵقاندنی	-11.3102
▁شەهاب	-11.3102
▁لەیەکتری	-11.3102
▁وەزیرەکانی	-11.3102
▁ڕەهای	-11.3102
▁گەورەش	-11.3102
▁ببینم	-11.3111
▁بەرگرتن	-11.3111
▁تێڕوانین	-11.3111
▁جۆش	-11.3111
▁دیارەکانی	-11.3111
▁لەڕوانگەی	-11.3111
▁بونەوەی	-11.312
▁بەشداربن	-11.312
▁توندڕەوەکان	-11.312
▁قەناعەت	-11.312
▁وەلید	-11.312
▁پسپۆڕانی	-11.312
▁پێداوە	-11.312
▁ڕێگایەک	-11.312
▁بوویت	-11.3129
▁دەڵی	-11.3129
▁ناردنەوەی	-11.3129
▁پارک	-11.3129
▁کۆمەڵگەیە	-11.3129
▁کۆنەپەرستی	-11.3129
▁برادەرانی	-11.3138
▁بوێت	-11.3138
▁دەچێتەوە	-11.3138
▁لسەر	-11.3138
▁نزیکبوونەوەی	-11.3138
▁هێنانەوەی	-11.3138
▁ڕێبەر	-11.3138
▁کۆڵان	-11.3138
▁بخوێنێتەوە	-11.3147
▁جوانکاری	-11.3147
▁شۆڕشێکی	-11.3147
▁عەشقی	-11.3147
▁ناساند	-11.3147
▁ەسمی	-11.3147
▁دەسەلاتە	-11.3156
▁سەردەمەی	-11.3156
▁مەسیح	-11.3156
▁پرسیارەوە	-11.3156
▁ڕەشنووسی	-11.3156
▁ئیسلامیش	-11.3165
▁بپارێزین	-11.3165
▁بکەوێتەوە	-11.3165
▁دەیوت	-11.3165
▁نایاب	-11.3165
▁وتوویەتی	-11.3165
▁بوبێت	-11.3174
▁بوترێت	-11.3174
▁بیکەن	-11.3174
▁قانونی	-11.3174
▁ئازادییەکان	-11.3183
▁دزەی	-11.3183
▁شانازیی	-11.3183
▁پۆستەکان	-11.3183
▁میتۆدی	-11.3192
▁مەلیک	-11.3192
▁هەڵبژاردووە	-11.3192
▁ڕۆنی	-11.3192
▁کەتێیدا	-11.3192
▁بایی	-11.3201
▁بەڕێوەبەر	-11.3201
▁خاوێن	-11.3201
▁دەپرسم	-11.3201
▁فەیسبوک	-11.3201
▁میرزا	-11.3201
▁نەدەکرا	-11.3201
▁ئێواران	-11.3211
▁تێپەر	-11.3211
▁حەبیب	-11.3211
▁نانەوەی	-11.3211
▁نەبووبێت	-11.3211
▁چاوێکی	-11.3211
▁بڕیوە	-11.322
▁بەخشین	-11.322
▁تریشیان	-11.322
▁دابنێین	-11.322
▁دیدارێکدا	-11.322
▁دیلان	-11.322
▁زۆربوونی	-11.322
▁ئامادەیبوون	-11.3229
▁بهێنم	-11.3229
▁توندڕەو	-11.3229
▁زێڕ	-11.3229
▁سەرجەمیان	-11.3229
▁فرمێسکی	-11.3229
▁وەرگرتوە	-11.3229
▁پیلان	-11.3229
▁ڕۆژگار	-11.3229
▁کۆمەڵێکی	-11.3229
▁ئیقلیمی	-11.3238
▁ئیمزاکردنی	-11.3238
▁بارو	-11.3238
▁دەخاته	-11.3238
▁مانگرتنی	-11.3238
▁پێگەیشت	-11.3238
▁1995	-11.3247
▁ئیرادەیە	-11.3247
▁خواردووە	-11.3247
▁خۆمەوە	-11.3247
▁فەرموو	-11.3247
▁ڕدە	-11.3247
▁تاکەکەسی	-11.3256
▁هاوبیر	-11.3256
▁بەهادین	-11.3265
▁بەیانیان	-11.3265
▁لاوەکی	-11.3265
▁لڤین	-11.3265
▁نەیەوێت	-11.3265
▁هێزانەی	-11.3265
▁پارێزەرانی	-11.3265
▁کۆریا	-11.3265
▁بەخشرا	-11.3275
▁دانیشتنێکی	-11.3275
▁سەعدون	-11.3275
▁فیلمێک	-11.3275
▁هاریکاریی	-11.3275
▁ڕیشەی	-11.3275
▁تایبەتمەند	-11.3284
▁دراوه	-11.3284
▁لەبنەڕەتدا	-11.3284
▁نازانرێت	-11.3284
▁پرسیارەکانی	-11.3284
▁1984	-11.3293
▁Magazine	-11.3293
▁بابل	-11.3293
▁بەنیازه	-11.3293
▁لەهەمو	-11.3293
▁ناچێتە	-11.3293
▁هەڵی	-11.3293
▁وەرگێڕ	-11.3293
▁یەکەیان	-11.3293
▁بوونێکی	-11.3302
▁شاشەی	-11.3302
▁هۆکارەکەشی	-11.3302
▁چوومە	-11.3302
▁بخەن	-11.3311
▁هەربۆیەش	-11.3311
▁ڕۆژێکە	-11.3311
▁ئاسانتر	-11.3321
▁نەهات	-11.3321
▁ڕاوێژ	-11.3321
▁خولەی	-11.333
▁دەستیپێکردووە	-11.333
▁ساڵرۆژی	-11.333
▁ناوخۆییەکان	-11.333
▁پەرتووکی	-11.333
▁چەوری	-11.333
▁بامەرنی	-11.3339
▁بنێرن	-11.3339
▁شەڕەکە	-11.3339
▁لیسته	-11.3339
▁مانگانەی	-11.3339
▁پرۆژەیه	-11.3339
▁یەکگرتوویی	-11.3339
▁تایبەتەکان	-11.3348
▁تیپ	-11.3348
▁تەمموزی	-11.3348
▁دابڕان	-11.3348
▁هەڵوێستەکانی	-11.3348
▁یارییەکەش	-11.3348
▁شارەوانیی	-11.3358
▁پارێزگایە	-11.3358
▁ڕووەو	-11.3358
▁کەپێشتر	-11.3358
▁ستی	-11.3367
▁شانۆکاری	-11.3367
▁لەمیسر	-11.3367
▁هیتلەر	-11.3367
▁ئەسەدی	-11.3376
▁ماریا	-11.3376
▁نەجات	-11.3376
▁هەڵکەوت	-11.3376
▁پرسەو	-11.3376
▁ڕێبەرایەتی	-11.3376
▁یاریگا	-11.3376
▁ێوەدەچێت	-11.3376
▁فەرمیی	-11.3385
▁موسلیم	-11.3385
▁نەبینیوە	-11.3385
▁پێکهاتبوون	-11.3385
▁ئارادا	-11.3395
▁سۆزان	-11.3395
▁شەفاف	-11.3395
▁لەدایکبووە	-11.3395
▁ناوچەیەک	-11.3395
▁پەکەکه	-11.3395
▁ئەمەو	-11.3404
▁بووک	-11.3404
▁سەمیر	-11.3404
▁کرمانجی	-11.3404
▁کۆکن	-11.3404
▁یەکەیەکی	-11.3404
▁برینداربوو	-11.3413
▁تەعریب	-11.3413
▁خەتی	-11.3413
▁سیاسییەی	-11.3413
▁سەلاحەدین	-11.3413
▁عەلمانییەت	-11.3413
▁ڕوداوە	-11.3413
▁کەسەکە	-11.3413
▁ئەڵلا	-11.3422
▁تیان	-11.3422
▁فۆرم	-11.3422
▁پێوویستە	-11.3422
▁کۆبوونەوەیەک	-11.3422
▁کۆمەلانی	-11.3422
▁ئوسامه	-11.3432
▁بخۆن	-11.3432
▁دەخوازم	-11.3432
▁دەروون	-11.3432
▁دەستپێشخەری	-11.3432
▁نەبووەتە	-11.3432
▁پەسەندی	-11.3432
▁کەلوپەل	-11.3432
▁یەکشەممەی	-11.3432
▁ئامادەکاریی	-11.3441
▁ئەویتر	-11.3441
▁بەهاکانی	-11.3441
▁تەحسین	-11.3441
▁لەمەو	-11.3441
▁مردووە	-11.3441
▁مناڵان	-11.3441
▁کارئاسانی	-11.3441
▁باوکە	-11.345
▁جارێکیش	-11.345
▁خێرخوازی	-11.345
▁دیکەشیان	-11.345
▁سەدەکانی	-11.345
▁لەوەڵامی	-11.345
▁هەزارەها	-11.345
▁چەن	-11.345
▁ئینسایکلۆپیدیای	-11.346
▁بادی	-11.346
▁دنیاوە	-11.346
▁لەگشت	-11.346
▁ناوچەگەریی	-11.346
▁هەی	-11.346
▁All	-11.3469
▁ئیدارە	-11.3469
▁حکوومەتەکەی	-11.3469
▁هاوری	-11.3469
▁هەتایە	-11.3469
▁بەنیازی	-11.3478
▁تەئکیدیکردەوە	-11.3478
▁درۆی	-11.3478
▁دێرینەکان	-11.3478
▁ڕونکردنەوەیەک	-11.3478
▁ڕێچکەی	-11.3478
▁زنجیرەی	-11.3488
▁فیشەک	-11.3488
▁هەڵەو	-11.3488
▁ڕوویەکەوە	-11.3488
▁89	-11.3497
▁protected	-11.3497
▁الثانی	-11.3497
▁تەنگ	-11.3497
▁سعودیه	-11.3497
▁فرەیی	-11.3497
▁وەردەگیردرێت	-11.3497
▁ڕستە	-11.3497
▁ڕۆستەم	-11.3497
▁ڕۆژئاوایی	-11.3497
▁کانت	-11.3497
▁1976	-11.3507
▁ئاشکراو	-11.3507
▁تاکەکەس	-11.3507
▁نەگەیشتنی	-11.3507
▁هونەره	-11.3507
▁هۆلیوود	-11.3507
▁هێشت	-11.3507
▁ڕەق	-11.3507
▁ئەمانیش	-11.3516
▁بەخت	-11.3516
▁بەرێ	-11.3516
▁بەهاوکاریی	-11.3516
▁دوورگەی	-11.3516
▁نەتەوەکەی	-11.3516
▁ڕۆژەوە	-11.3516
▁گشتگیر	-11.3516
▁VOA	-11.3525
▁براو	-11.3525
▁حەزرەتی	-11.3525
▁سنوورەکە	-11.3525
▁لەچوار	-11.3525
▁موتڵەگ	-11.3525
▁مەعروف	-11.3525
▁واقیعە	-11.3525
▁ڕەگ	-11.3525
▁کوشتار	-11.3525
▁بازرگان	-11.3535
▁بنی	-11.3535
▁بەهێزو	-11.3535
▁دەخاتەوە	-11.3535
▁لەسەدەی	-11.3535
▁بلا	-11.3544
▁بکەیتەوە	-11.3544
▁بەهاو	-11.3544
▁ترسناکی	-11.3544
▁دەستەو	-11.3544
▁پێداچوونەوەی	-11.3544
▁کتێبەکەی	-11.3544
▁اس	-11.3554
▁بەرنامەیە	-11.3554
▁بەکاردەهێنن	-11.3554
▁خۆپیشاندانێکی	-11.3554
▁زانیارییەکی	-11.3554
▁سارا	-11.3554
▁شەریعەتی	-11.3554
▁قاچی	-11.3554
▁نموونەیی	-11.3554
▁نەجم	-11.3554
▁پارێزگاکە	-11.3554
▁ڕایانگەیاندووە	-11.3554
▁کارەش	-11.3554
▁کورتدا	-11.3554
▁ڵە	-11.3554
▁ئەرجەنتین	-11.3563
▁بۆنمونە	-11.3563
▁خۆپیشاندانە	-11.3563
▁داهاتوی	-11.3563
▁نەکراو	-11.3563
▁پرسه	-11.3563
▁کاوه	-11.3563
▁کلیپ	-11.3563
▁گرێدانی	-11.3563
▁گوتار	-11.3563
▁ئال	-11.3573
▁باڵادەستی	-11.3573
▁بەندەری	-11.3573
▁خەونەکانی	-11.3573
▁هەڵوێستیان	-11.3573
▁پێشانگایه	-11.3573
▁بەعسیەکان	-11.3582
▁سەرۆکجاشی	-11.3582
▁سەلەفی	-11.3582
▁فاکتەرێکی	-11.3582
▁قژ	-11.3582
▁ڕزگاربوون	-11.3582
▁سویسری	-11.3591
▁سەردانەکەیدا	-11.3591
▁پەیوەندیمان	-11.3591
▁پەیڕەوکردنی	-11.3591
▁کەمدا	-11.3591
▁تیپە	-11.3601
▁سۆنیا	-11.3601
▁هەواڵه	-11.3601
▁هەواڵەکان	-11.3601
▁هەڵمەت	-11.3601
▁ڕابەرایەتی	-11.3601
▁زاڵە	-11.361
▁فیستیڤاڵەدا	-11.361
▁نوسیویەتی	-11.361
▁زیانیان	-11.362
▁میسردا	-11.362
▁May	-11.3629
▁gt	-11.3629
▁ئافرەتدا	-11.3629
▁ئیسلامییەکانی	-11.3629
▁بدۆزرێتەوە	-11.3629
▁دیل	-11.3629
▁یادکردنەوەی	-11.3629
▁بنیاتنانەوەی	-11.3639
▁دێرینەکانی	-11.3639
▁پەرستی	-11.3639
▁پەلاماردانی	-11.3639
▁کودەتا	-11.3639
▁بەدرخان	-11.3648
▁بەعسەوە	-11.3648
▁سەرەڕۆیی	-11.3648
▁مامۆستاو	-11.3648
▁هەرزان	-11.3648
▁هەرچۆنێک	-11.3648
▁بێتاوان	-11.3658
▁بەڕۆژ	-11.3658
▁تاڵە	-11.3658
▁دانیشتووان	-11.3658
▁سوریاوە	-11.3658
▁کوردسات	-11.3658
▁کۆنفرانسێکی	-11.3658
▁یاساکه	-11.3658
▁ئەقڵ	-11.3668
▁بڕوام	-11.3668
▁دەستبەسەر	-11.3668
▁لێبکرێت	-11.3668
▁لەیادی	-11.3668
▁نووسراوی	-11.3668
▁پەروەردەکردنی	-11.3668
▁پەنایان	-11.3668
▁ئەنجامیان	-11.3677
▁بەرایی	-11.3677
▁حکومییەکان	-11.3677
▁دەبینیت	-11.3677
▁دەرکەوتن	-11.3677
▁دەچێته	-11.3677
▁لەبن	-11.3677
▁نێردەی	-11.3677
▁پزیشکانی	-11.3677
▁زە	-11.3687
▁لەزمانی	-11.3687
▁کۆبوونەوەکه	-11.3687
▁گوێمان	-11.3687
▁حاڵەت	-11.3696
▁دابەشبوونی	-11.3696
▁عەبدولخالق	-11.3696
▁لەوپەڕی	-11.3696
▁کۆدەکرێتەوە	-11.3696
▁جەختیشی	-11.3706
▁سەرابی	-11.3706
▁فر	-11.3706
▁چوونەتە	-11.3706
▁ئاخاوتن	-11.3715
▁ئەمری	-11.3715
▁بەڵگەنامەی	-11.3715
▁خێزانێکی	-11.3715
▁دەخوازین	-11.3715
▁پابەندبوونی	-11.3715
▁یاریکردن	-11.3715
▁یەکینەکانی	-11.3715
▁ئەوین	-11.3725
▁بیستەم	-11.3725
▁بەئاوێنەی	-11.3725
▁دوژمنایەتی	-11.3725
▁زێتر	-11.3725
▁ساختەکاری	-11.3725
▁محمد	-11.3725
▁نەکە	-11.3725
▁ژینگەیەکی	-11.3725
▁کوردانە	-11.3725
▁ئۆپەراسیۆنی	-11.3735
▁ئەمەشدا	-11.3735
▁تۆماس	-11.3735
▁خست	-11.3735
▁دابمەزرێت	-11.3735
▁قوتابخانەکانی	-11.3735
▁منداڵەکەی	-11.3735
▁پێناوەدا	-11.3735
▁it	-11.3744
▁بەستنەوەی	-11.3744
▁سەرەکییەکان	-11.3744
▁لامان	-11.3744
▁نەتەوەیەکگرتوەکان	-11.3744
▁بسەلمێنێت	-11.3754
▁بنێرێت	-11.3754
▁بگێڕێت	-11.3754
▁تارمایی	-11.3754
▁زوممار	-11.3754
▁سەرنوسەری	-11.3754
▁شەرعییەت	-11.3754
▁مەرجەی	-11.3754
▁مەشهەدانی	-11.3754
▁نەوەیەکی	-11.3754
▁هاتبوون	-11.3754
▁وەزعی	-11.3754
▁کۆنگره	-11.3754
▁انی	-11.3763
▁بەخوا	-11.3763
▁بەراز	-11.3763
▁ڕووداوانەی	-11.3763
▁کۆلیژی	-11.3763
▁ئۆتۆنۆمی	-11.3773
▁دەستەیەکی	-11.3773
▁پێکردن	-11.3773
▁چینێکی	-11.3773
▁ڵام	-11.3773
▁بکەونە	-11.3783
▁تایبەتن	-11.3783
▁قسەیەک	-11.3783
▁مرۆییەکان	-11.3783
▁هاوڕێیەتی	-11.3783
▁ئێستاشدا	-11.3792
▁بکرایە	-11.3792
▁تامی	-11.3792
▁تەسک	-11.3792
▁جوانەکان	-11.3792
▁نایەکسانی	-11.3792
▁نراوە	-11.3792
▁وەڵامیان	-11.3792
▁کردووەتە	-11.3792
▁کۆمەلێک	-11.3792
▁گۆ	-11.3792
▁گەڕاوەتەوە	-11.3792
▁زایینی	-11.3802
▁شیعر	-11.3802
▁لەتەواوی	-11.3802
▁مەترسییەوە	-11.3802
▁ناعەدالەتی	-11.3802
▁کەئەمەش	-11.3802
▁ئاژەڵی	-11.3812
▁پێکهێنا	-11.3812
▁کاتژمێرێک	-11.3812
▁گشتییە	-11.3812
▁ئەلعێراقییه	-11.3821
▁بۆند	-11.3821
▁توندتر	-11.3821
▁جوولەکە	-11.3821
▁دەفەرموێ	-11.3821
▁قوڵایی	-11.3821
▁پلەکانی	-11.3821
▁کەنداوی	-11.3821
▁ئاساییشی	-11.3831
▁ئاواش	-11.3831
▁بکوژانی	-11.3831
▁دیمۆکراسی	-11.3831
▁ناگونجێت	-11.3831
▁کاتیش	-11.3831
▁ئەنجامبدەن	-11.3841
▁تاوتوێی	-11.3841
▁چالاکیەک	-11.3841
▁کتێبه	-11.3841
▁بەنیازە	-11.385
▁سەرنجڕاکێش	-11.385
▁سەرەتاییەکان	-11.385
▁لەوبارەیەوه	-11.385
▁هەلومەرجە	-11.385
▁گۆرانکاری	-11.385
▁هاندان	-11.386
▁هاوارێک	-11.386
▁هەبوایە	-11.386
▁چووه	-11.386
▁کوەیت	-11.386
▁یەکەمە	-11.386
▁جیدی	-11.387
▁حەمه	-11.387
▁دانراون	-11.387
▁نەمابوو	-11.387
▁کورده	-11.387
▁کۆتاییهاتنی	-11.387
▁s	-11.388
▁ئافرەتە	-11.388
▁دوورکەوتنەوە	-11.388
▁صاڵح	-11.388
▁لەهەندێ	-11.388
▁نرخەکەی	-11.388
▁وتووێژی	-11.388
▁ڕوانینی	-11.388
▁ئاداری	-11.3889
▁ئەلفوبێی	-11.3889
▁بەراوردی	-11.3889
▁ستران	-11.3889
▁فڕۆکەیەکی	-11.3889
▁لەوەوە	-11.3889
▁نامەکەی	-11.3889
▁هەولێردا	-11.3889
▁پزیشکان	-11.3889
▁ڕفاندنی	-11.3889
▁کارەباو	-11.3889
▁کاندیدەکان	-11.3889
▁یاساییمان	-11.3889
▁بوونەوەرێکی	-11.3899
▁جڤاکی	-11.3899
▁خوێندنگەی	-11.3899
▁زەحمەتکێشانی	-11.3899
▁لەروی	-11.3899
▁نەمری	-11.3899
▁ڕاگرت	-11.3899
▁e	-11.3909
▁بەبیانووی	-11.3909
▁سیاسییەکاندا	-11.3909
▁لەبەرنامەی	-11.3909
▁مرۆ	-11.3909
▁ولێر	-11.3909
▁پێویستییەکی	-11.3909
▁کوێتی	-11.3909
▁بیرۆکە	-11.3919
▁دەمێنیتەوە	-11.3919
▁دەکێشێت	-11.3919
▁سادەو	-11.3919
▁لێت	-11.3919
▁هێزەکانیان	-11.3919
▁پارتیش	-11.3919
▁ڕاوێژکار	-11.3919
▁گەیشتوون	-11.3919
▁ئادار	-11.3929
▁ئاماژەیەک	-11.3929
▁زاتی	-11.3929
▁شەهیدە	-11.3929
▁ناڕەوا	-11.3929
▁ڕەوشەکە	-11.3929
▁یاساییەوە	-11.3929
▁ئۆغلو	-11.3938
▁ئەندامەکەی	-11.3938
▁ئەکاد	-11.3938
▁بینیووە	-11.3938
▁بەشەکەی	-11.3938
▁دەستکە	-11.3938
▁سەندنەوەی	-11.3938
▁هاتبێت	-11.3938
▁یاریدا	-11.3938
▁ئامانجیان	-11.3948
▁بودجەیەکی	-11.3948
▁خێڵەکی	-11.3948
▁داون	-11.3948
▁زامنی	-11.3948
▁سەلماند	-11.3948
▁هاتنەوەی	-11.3948
▁هەڵەبجەیی	-11.3948
▁ژیانمان	-11.3948
▁گۆڕاندا	-11.3948
▁دوعا	-11.3958
▁سیاسەتەی	-11.3958
▁قسەمان	-11.3958
▁مەرگەیی	-11.3958
▁کانون	-11.3958
▁کێی	-11.3958
▁ئێمەیش	-11.3968
▁شیر	-11.3968
▁مالی	-11.3968
▁ناهێنێت	-11.3968
▁ڕووە	-11.3968
▁کردنه	-11.3968
▁کۆشش	-11.3968
▁کەهەر	-11.3968
▁گیرۆدەی	-11.3968
▁بڵاویان	-11.3978
▁بەردەکەوێت	-11.3978
▁عین	-11.3978
▁نوێیان	-11.3978
▁هاوردە	-11.3978
▁هەڵبژێردراوی	-11.3978
▁ئەنجامبدات	-11.3987
▁بخەمە	-11.3987
▁جێنۆسایدی	-11.3987
▁حیزبەکە	-11.3987
▁خێرو	-11.3987
▁داخ	-11.3987
▁دیمەنێکی	-11.3987
▁مەولود	-11.3987
▁نەبیت	-11.3987
▁هاوبەشیان	-11.3987
▁هونەرو	-11.3987
▁بیرکردنەوەو	-11.3997
▁خوارەوه	-11.3997
▁ڕەمەزانی	-11.3997
▁کوالیتی	-11.3997
▁کۆدەبنەوە	-11.3997
▁گشتیەکان	-11.3997
▁بەچی	-11.4007
▁تەقینەوه	-11.4007
▁جووتیاران	-11.4007
▁لەمساڵدا	-11.4007
▁مەسەلەیه	-11.4007
▁ناپۆلی	-11.4007
▁چوارشەممەی	-11.4007
▁بڕ	-11.4017
▁بەڕێوەبەرانی	-11.4017
▁سوپاو	-11.4017
▁فەیلی	-11.4017
▁کۆمۆنیستەکان	-11.4017
▁ئیسلامەوە	-11.4027
▁تاکڕەوی	-11.4027
▁تەقینەوەیەک	-11.4027
▁دەگەینە	-11.4027
▁چەوساندنەوە	-11.4027
▁کافر	-11.4027
▁no	-11.4037
▁باشکردنی	-11.4037
▁کون	-11.4037
▁ئەنجومەنەکە	-11.4047
▁دادگاو	-11.4047
▁عەبدولموتەللیب	-11.4047
▁لەئێران	-11.4047
▁پەیماننامەی	-11.4047
▁ڕۆژەکانی	-11.4047
▁ڤایرۆسی	-11.4047
▁ڤەکرن	-11.4047
▁کۆمەڵگایەک	-11.4047
▁گفتوگۆکردنی	-11.4047
▁الدین	-11.4057
▁بنەمایە	-11.4057
▁عبد	-11.4057
▁فاتیح	-11.4057
▁لەماڵی	-11.4057
▁موسلیمین	-11.4057
▁کۆنفرانسەکە	-11.4057
▁92	-11.4067
▁Sport	-11.4067
▁بدەنە	-11.4067
▁دادپەروەریی	-11.4067
▁دواییە	-11.4067
▁دەگەڵ	-11.4067
▁سنوورەکان	-11.4067
▁ڕوودەدەن	-11.4067
▁کوردستانییەکانی	-11.4067
▁گۆڕانێکی	-11.4067
▁یەکپارچەیی	-11.4067
▁براکەی	-11.4077
▁دەگێڕنەوە	-11.4077
▁لەسەرۆک	-11.4077
▁هاوسەر	-11.4077
▁وەزیرە	-11.4077
▁پێشڕەوی	-11.4077
▁ڕێژە	-11.4077
▁بیانەوێت	-11.4086
▁بەهەرحاڵ	-11.4086
▁خێراتر	-11.4086
▁داواکارییەکانیان	-11.4086
▁دواجاریش	-11.4086
▁سەرەر	-11.4086
▁فڕۆکه	-11.4086
▁نووسینەکانی	-11.4086
▁ڕەخنەیی	-11.4086
▁کێوی	-11.4086
▁کەسێکە	-11.4086
▁کەین	-11.4086
▁بەواتایەکی	-11.4096
▁بەڵێنەکانی	-11.4096
▁تام	-11.4096
▁سێو	-11.4096
▁مارکسی	-11.4096
▁هاوچەرخی	-11.4096
▁هەلویستی	-11.4096
▁پازدە	-11.4096
▁کاوسی	-11.4096
▁باوەر	-11.4106
▁بەرزنرخاند	-11.4106
▁تاوانانە	-11.4106
▁داخست	-11.4106
▁داواکانی	-11.4106
▁زەمانی	-11.4106
▁سوننەو	-11.4106
▁سەرکردەکان	-11.4106
▁ناوچانەدا	-11.4106
▁ویستیان	-11.4106
▁ژنەکە	-11.4106
▁p	-11.4116
▁ئۆکتۆبەری	-11.4116
▁ئەردەن	-11.4116
▁بەسەرۆک	-11.4116
▁تەسکی	-11.4116
▁تەلەفیزیۆنی	-11.4116
▁هاوسەرۆکی	-11.4116
▁بارەت	-11.4126
▁باڵادەست	-11.4126
▁بەهەڵە	-11.4126
▁بەیاننامەکە	-11.4126
▁تالەبانی	-11.4126
▁خۆمانەوە	-11.4126
▁قبووڵکردنی	-11.4126
▁ندە	-11.4126
▁هیند	-11.4126
▁کریستیانۆ	-11.4126
▁96	-11.4136
▁بەبی	-11.4136
▁حکومڕانی	-11.4136
▁نۆژەنکردنەوەی	-11.4136
▁بزوتنەوەیەکی	-11.4146
▁دابەشی	-11.4146
▁فێڵ	-11.4146
▁لەلێدوانێکیدا	-11.4146
▁هەریەکه	-11.4146
▁کۆنەکانی	-11.4146
▁باشمان	-11.4156
▁بچمە	-11.4156
▁مارتن	-11.4156
▁مانی	-11.4156
▁چەقۆ	-11.4156
▁ڕاسپارد	-11.4156
▁کۆنگرێسی	-11.4156
▁ئێسک	-11.4166
▁بزانیین	-11.4166
▁جیاوازییە	-11.4166
▁خولیای	-11.4166
▁مەترسییە	-11.4166
▁نەکردووەو	-11.4166
▁هەتاو	-11.4166
▁وتارەکەیدا	-11.4166
▁وەزیرەکان	-11.4166
▁پەند	-11.4166
▁ماوەتی	-11.4176
▁نەکا	-11.4176
▁پلاندانانی	-11.4176
▁پیاوەکە	-11.4176
▁ڕستەی	-11.4176
▁کتێبێک	-11.4176
▁کوشتاری	-11.4176
▁یەکگرتو	-11.4176
▁بگونجێت	-11.4186
▁بەلێ	-11.4186
▁جیاوازەوە	-11.4186
▁خەریکن	-11.4186
▁سلێمانییەوە	-11.4186
▁شاخی	-11.4186
▁قا	-11.4186
▁ملیۆنان	-11.4186
▁هۆشبەرەکان	-11.4186
▁پاشایەتی	-11.4186
▁کۆمەلا	-11.4186
▁بیان	-11.4197
▁تشرین	-11.4197
▁کەسایەتیەکی	-11.4197
▁ئەوەندەش	-11.4207
▁ئەکرێ	-11.4207
▁تێدابوو	-11.4207
▁درکاند	-11.4207
▁لەلا	-11.4207
▁میللەتێک	-11.4207
▁نەکاتەوە	-11.4207
▁هاورێ	-11.4207
▁هیج	-11.4207
▁چاوەروانی	-11.4207
▁کۆششی	-11.4207
▁گەڕی	-11.4207
▁ئۆپۆزیسیۆنی	-11.4217
▁ئەمەریکاش	-11.4217
▁بەرێوه	-11.4217
▁دەسکەوتی	-11.4217
▁فەجر	-11.4217
▁کادیری	-11.4217
▁داواکارم	-11.4227
▁شێوازەکانی	-11.4227
▁هاوکاریان	-11.4227
▁کارای	-11.4227
▁گوتووە	-11.4227
▁ئۆتۆمبیلێکی	-11.4237
▁سەنتەرێ	-11.4237
▁فیکریی	-11.4237
▁لیستێکی	-11.4237
▁لەسیاسەتی	-11.4237
▁مارک	-11.4237
▁ماچی	-11.4237
▁مەرجەعی	-11.4237
▁هەڵگیرسانی	-11.4237
▁وەلا	-11.4237
▁ڕووداوەکەی	-11.4237
▁ئێش	-11.4247
▁بابەتانە	-11.4247
▁بلۆکی	-11.4247
▁خوێنرایەوە	-11.4247
▁خەمخۆری	-11.4247
▁شیعریی	-11.4247
▁180	-11.4257
▁1986	-11.4257
▁جیددی	-11.4257
▁دەنێرێت	-11.4257
▁لەپلەی	-11.4257
▁لەڕابردوودا	-11.4257
▁چیت	-11.4257
▁ڕووبار	-11.4257
▁تەقینەوەیەکی	-11.4267
▁وەرگرن	-11.4267
▁ئەنجامەکەی	-11.4277
▁جبوری	-11.4277
▁جۆرەکان	-11.4277
▁درک	-11.4277
▁سڵاوی	-11.4277
▁شۆڕشەکانی	-11.4277
▁لێکەوتووەتەوە	-11.4277
▁ناکەنەوە	-11.4277
▁نوێکردنەوەی	-11.4277
▁کۆدەبێتەوە	-11.4277
▁یەتی	-11.4277
▁130	-11.4288
▁ئازا	-11.4288
▁ئامێدی	-11.4288
▁تاکتیکی	-11.4288
▁زاناکان	-11.4288
▁فراکسیۆنەکانی	-11.4288
▁لادان	-11.4288
▁لێپرسینەوەی	-11.4288
▁نیگەرانیی	-11.4288
▁ڕاستگۆ	-11.4288
▁کوردستانیەکان	-11.4288
▁ئازیز	-11.4298
▁بەرپرسیاری	-11.4298
▁دکتۆرا	-11.4298
▁ماهر	-11.4298
▁ناوچەکەش	-11.4298
▁نەریتە	-11.4298
▁ڕائید	-11.4298
▁ڕێژەیی	-11.4298
▁ڤە	-11.4298
▁کارەیان	-11.4298
▁بوژاندنەوەی	-11.4308
▁بەشوێن	-11.4308
▁خۆمانە	-11.4308
▁دانیشتنەکەی	-11.4308
▁نیشانەکانی	-11.4308
▁چارەسەریان	-11.4308
▁be	-11.4318
▁بەکاربهێنرێت	-11.4318
▁دەنـگیـیەی	-11.4318
▁ستۆکهۆڵم	-11.4318
▁سوک	-11.4318
▁ژوری	-11.4318
▁گرنگەو	-11.4318
▁بەخێوکردنی	-11.4328
▁بەهایەکی	-11.4328
▁سیفەتی	-11.4328
▁موسل	-11.4328
▁هێورکردنەوەی	-11.4328
▁هەلێکی	-11.4328
▁وێنەکان	-11.4328
▁چالاکییەکی	-11.4328
▁بدرێتەوە	-11.4338
▁بدۆزینەوە	-11.4338
▁بێتو	-11.4338
▁بەرشلۆنەی	-11.4338
▁هاوپەیمان	-11.4338
▁هۆیەک	-11.4338
▁پاڵپشت	-11.4338
▁کاریگەرییەکانی	-11.4338
▁بخوات	-11.4349
▁شەقڵاوە	-11.4349
▁لاشەی	-11.4349
▁لەکاروباری	-11.4349
▁پاداشت	-11.4349
▁پرسیارەی	-11.4349
▁حەدبا	-11.4359
▁دڕندە	-11.4359
▁دیمەنە	-11.4359
▁سووتا	-11.4359
▁سەرمایەداران	-11.4359
▁شوێنێکدا	-11.4359
▁هەڵدا	-11.4359
▁ئامادەبوو	-11.4369
▁خەباتە	-11.4369
▁خەڵـکی	-11.4369
▁فرین	-11.4369
▁قائیمقامی	-11.4369
▁هەڵداوە	-11.4369
▁پارتەکان	-11.4369
▁بڵاوکەرەوەی	-11.4379
▁حەفتا	-11.4379
▁خیانەتی	-11.4379
▁عەبدولڵا	-11.4379
▁وەزیرو	-11.4379
▁پێشڕەو	-11.4379
▁پەیتا	-11.4379
▁کاراکتەرە	-11.4379
▁کلی	-11.4379
▁900	-11.439
▁98	-11.439
▁kurdistannet	-11.439
▁الکردیة	-11.439
▁دەدەنەوە	-11.439
▁ناڵێم	-11.439
▁چاوپێکەوتنی	-11.439
▁111	-11.44
▁ئۆرگانەکانی	-11.44
▁ئەفغانسـتان	-11.44
▁بەرزکردەوە	-11.44
▁تێبینییەک	-11.44
▁دیلی	-11.44
▁ملیۆنێک	-11.44
▁هەمین	-11.44
▁پاڵی	-11.44
▁پۆزەتیڤ	-11.44
▁پەیوەستن	-11.44
▁ئەلمالیکی	-11.441
▁ئەکتەرە	-11.441
▁ببرێت	-11.441
▁بەرەوپێشچوونی	-11.441
▁بەشداربووان	-11.441
▁سەرەتایەکی	-11.441
▁پیت	-11.441
▁کوێر	-11.441
▁بەقسەی	-11.442
▁دەنگێک	-11.442
▁سێدارەدانی	-11.442
▁هەڵدەگرین	-11.442
▁چوارچێوەیەکی	-11.442
▁بەکارەکانی	-11.4431
▁جڵەوی	-11.4431
▁سەدو	-11.4431
▁سەرهەڵدانە	-11.4431
▁لەوەرزی	-11.4431
▁لەیاریی	-11.4431
▁چارەسەرێک	-11.4431
▁ئەفسانەی	-11.4441
▁دڵخۆشی	-11.4441
▁سەردەمێکی	-11.4441
▁شارچێتی	-11.4441
▁قوربانییەکان	-11.4441
▁پێوەرە	-11.4441
▁ڕفاندن	-11.4441
▁93	-11.4451
▁سەرچاوەیە	-11.4451
▁لەزاری	-11.4451
▁وەهمی	-11.4451
▁ڕاپەڕاندنی	-11.4451
▁emrro	-11.4462
▁اڵاول	-11.4462
▁دەردەچن	-11.4462
▁دەنوێنێت	-11.4462
▁زیادە	-11.4462
▁کۆببنەوە	-11.4462
▁کینە	-11.4462
▁ام	-11.4472
▁بردەوەو	-11.4472
▁سەرۆککۆماری	-11.4472
▁لەسەرۆکی	-11.4472
▁هەلەیان	-11.4472
▁چەندینجار	-11.4472
▁ڕووبەروی	-11.4472
▁ژیانەوە	-11.4472
▁کارکردنیان	-11.4472
▁کەسایەتیە	-11.4472
▁کەوته	-11.4472
▁یەکسانیی	-11.4482
▁قەیرانەی	-11.4493
▁وزەو	-11.4493
▁ێوەدەچێ	-11.4493
▁دەزگایە	-11.4503
▁هەژدە	-11.4503
▁وەلامێک	-11.4503
▁ڕەقیب	-11.4503
▁کەوەک	-11.4503
▁گول	-11.4503
▁ئەدەبیات	-11.4513
▁الن	-11.4513
▁بانکەکان	-11.4513
▁حکومەتا	-11.4513
▁دەبەخشێتەوە	-11.4513
▁شارەکەیان	-11.4513
▁مانگەی	-11.4513
▁ملیون	-11.4513
▁هەنگاونان	-11.4513
▁ڕێسا	-11.4513
▁کەدەبێت	-11.4513
▁گەمارۆ	-11.4513
▁بەغدادی	-11.4524
▁بەگرنگ	-11.4524
▁دارستانی	-11.4524
▁ناوچەیه	-11.4524
▁گۆڕێ	-11.4524
▁بنکه	-11.4534
▁لایەنەی	-11.4534
▁حەوتی	-11.4545
▁دەرفەتە	-11.4545
▁سارکۆزی	-11.4545
▁لێبوردەیی	-11.4545
▁لەلایەکەوە	-11.4545
▁مارکسیزم	-11.4545
▁هەڕەشەیەکی	-11.4545
▁کۆیلەی	-11.4545
▁ئامادەکراوە	-11.4555
▁تایبەتیی	-11.4555
▁عەباسی	-11.4555
▁لەناحیەی	-11.4555
▁متمانەیان	-11.4555
▁ناونیشان	-11.4555
▁نمونەیەکی	-11.4555
▁هێنابوو	-11.4555
▁وەرن	-11.4555
▁ڕۆژئاوادا	-11.4555
▁إن	-11.4565
▁حیزبدا	-11.4565
▁قەدەغەیە	-11.4565
▁ناگاتە	-11.4565
▁نەیارەکانی	-11.4565
▁هاوین	-11.4565
▁ورە	-11.4565
▁پارێزگارێکی	-11.4565
▁ۆژه	-11.4565
▁بانک	-11.4576
▁جێبەجێبکرێت	-11.4576
▁دەستداوە	-11.4576
▁وشەکان	-11.4576
▁پیسبوونی	-11.4576
▁ڕابگرن	-11.4576
▁کامێرای	-11.4576
▁ئان	-11.4586
▁موقەدەم	-11.4586
▁هۆنراوەی	-11.4586
▁ڕێگایە	-11.4586
▁ئەوتۆیان	-11.4597
▁بەسەرۆکی	-11.4597
▁دەستەوە	-11.4597
▁دەکاته	-11.4597
▁هەوڵانەی	-11.4597
▁بزوتنەوەیە	-11.4607
▁بەردەرکی	-11.4607
▁دیدێکی	-11.4607
▁سەوزایی	-11.4607
▁مەحاڵ	-11.4607
▁نەبون	-11.4607
▁پێبدات	-11.4607
▁کەرکوکەوە	-11.4607
▁Published	-11.4618
▁بڕگەکانی	-11.4618
▁جیهانێکی	-11.4618
▁خۆرهەڵات	-11.4618
▁داهاتو	-11.4618
▁شیکاری	-11.4618
▁فەرمانگە	-11.4618
▁لایکی	-11.4618
▁لێهاتووە	-11.4618
▁نوێیەکەی	-11.4618
▁نەخوازراو	-11.4618
▁from	-11.4628
▁مینا	-11.4628
▁مەدەنییەکان	-11.4628
▁ناوزەد	-11.4628
▁نەوتدا	-11.4628
▁هەواڵەی	-11.4628
▁پێیەش	-11.4628
▁ڕابردووشدا	-11.4628
▁ئەمجارەش	-11.4639
▁تایبەتەوە	-11.4639
▁داهاتەکانی	-11.4639
▁عەشیرەتی	-11.4639
▁هاوبەشەکانی	-11.4639
▁گەمژەکان	-11.4639
▁ئەبوو	-11.4649
▁تاڕادەیەکی	-11.4649
▁مانایەک	-11.4649
▁پاکسـتان	-11.4649
▁ڕێڤەبەریا	-11.4649
▁ڕێگەچارەی	-11.4649
▁کۆچکردوو	-11.4649
▁ئاڵۆزتر	-11.466
▁بردنەوە	-11.466
▁دیمەنێک	-11.466
▁دەزگاو	-11.466
▁سیاسیانەی	-11.466
▁سیاسەتدا	-11.466
▁ورەی	-11.466
▁پیتەر	-11.466
▁ئاشتیانەی	-11.467
▁ئەگەرێکی	-11.467
▁بایەخدان	-11.467
▁شارستانییەت	-11.467
▁لەدانیشتنی	-11.467
▁یۆرانیۆم	-11.467
▁ئاسوودەیی	-11.4681
▁بواره	-11.4681
▁تۆتنهام	-11.4681
▁دنیایەک	-11.4681
▁دەناڵێنێت	-11.4681
▁ڕەوایەتی	-11.4681
▁کۆنگرێس	-11.4681
▁یاسادانان	-11.4681
▁Net	-11.4691
▁بەنیازن	-11.4691
▁بەهێزبوونی	-11.4691
▁بەهێزەکانی	-11.4691
▁جوانیی	-11.4691
▁حوسێنی	-11.4691
▁خەندەڕەش	-11.4691
▁دوایەمین	-11.4691
▁دەستەیەک	-11.4691
▁سەرمان	-11.4691
▁شایەتی	-11.4691
▁عەبادیدا	-11.4691
▁هاتووەتە	-11.4691
▁هەڵبژاردەکانی	-11.4691
▁ڕوخاندنی	-11.4691
▁کوردیە	-11.4691
▁بکاتەوه	-11.4702
▁داڕشتنەوەی	-11.4702
▁شاعیرێکی	-11.4702
▁پێگەو	-11.4702
▁پەسەندکرا	-11.4702
▁1978	-11.4713
▁لاپەڕەکانی	-11.4713
▁مەرجێکی	-11.4713
▁هۆتێل	-11.4713
▁هۆرێن	-11.4713
▁چاوێک	-11.4713
▁جەماوەرێکی	-11.4723
▁قو	-11.4723
▁هەڤپەیڤین	-11.4723
▁هەڵبژێرێت	-11.4723
▁وەرزە	-11.4723
▁کۆبانییە	-11.4723
▁باب	-11.4734
▁بۆنەیەوە	-11.4734
▁بیانوی	-11.4734
▁خەڵاتە	-11.4734
▁داخۆ	-11.4734
▁درێژه	-11.4734
▁کۆبوونەوەیە	-11.4734
▁ئەفسەر	-11.4744
▁ببینەوە	-11.4744
▁بێتامی	-11.4744
▁بەداخەوه	-11.4744
▁تێکشکاندنی	-11.4744
▁داواکەی	-11.4744
▁دەیانگوت	-11.4744
▁سەربازەکانی	-11.4744
▁لەژیان	-11.4744
▁پۆستێکی	-11.4744
▁ئەمرۆی	-11.4755
▁فەیسەڵ	-11.4755
▁لێهاتوویی	-11.4755
▁هەناردە	-11.4755
▁وەری	-11.4755
▁پاکستانی	-11.4755
▁پێنجەمین	-11.4755
▁ڕابردووش	-11.4755
▁ڕابردووەوە	-11.4755
▁ڕابگەیەنێت	-11.4755
▁ڕاچەنینی	-11.4755
▁بەئاراستەی	-11.4766
▁بەرێوەبردنی	-11.4766
▁تاوانانەی	-11.4766
▁سەدی	-11.4766
▁لەلایەنی	-11.4766
▁مرۆڤیش	-11.4766
▁هەژارو	-11.4766
▁کردیان	-11.4766
▁January	-11.4776
▁دووبەرەکی	-11.4776
▁قۆناغێک	-11.4776
▁لەسیستمی	-11.4776
▁وەڵامدا	-11.4776
▁چووم	-11.4776
▁ڕیکلام	-11.4776
▁ئایینە	-11.4787
▁ئیتیلافی	-11.4787
▁ئەستەم	-11.4787
▁زانیارییە	-11.4787
▁لوتکە	-11.4787
▁مەنسور	-11.4787
▁پێشهاتەکانی	-11.4787
▁پێشوازییان	-11.4787
▁چانسی	-11.4787
▁کۆمەڵایەتیدا	-11.4787
▁یەکتریان	-11.4787
▁ئەتوانێت	-11.4798
▁داوام	-11.4798
▁دیاربوو	-11.4798
▁دەگێڕن	-11.4798
▁لەدەستگیرکردنی	-11.4798
▁منداڵانە	-11.4798
▁هەنوکە	-11.4798
▁کاڵا	-11.4798
▁یانەیەکی	-11.4798
▁شانشینی	-11.4808
▁قەیرانەکانی	-11.4808
▁نوسەران	-11.4808
▁پێویستدا	-11.4808
▁دەردەکات	-11.4819
▁زوڵملێکراو	-11.4819
▁بنووسم	-11.483
▁دەوەستێت	-11.483
▁ستاندارد	-11.483
▁سکی	-11.483
▁ورمێ	-11.483
▁پێنجوێن	-11.483
▁پەله	-11.483
▁کۆمپانیایە	-11.483
▁گۆڵێکی	-11.483
▁گەشتیار	-11.483
▁بەبوونی	-11.4841
▁حکوومەتەکانی	-11.4841
▁زێڕینی	-11.4841
▁ساتەکانی	-11.4841
▁قوڵتر	-11.4841
▁نیگەرانن	-11.4841
▁هەندێکیش	-11.4841
▁پێبدەن	-11.4841
▁ڕێزیان	-11.4841
▁ڕەخنەگر	-11.4841
▁گەرانەوەی	-11.4841
▁إلا	-11.4851
▁ئەوەى	-11.4851
▁بەرباس	-11.4851
▁خانەخوێی	-11.4851
▁دیاریی	-11.4851
▁لاوازکردنی	-11.4851
▁ئاواتەکەی	-11.4862
▁ئۆبامای	-11.4862
▁ئەیسی	-11.4862
▁بلاو	-11.4862
▁زار	-11.4862
▁ندی	-11.4862
▁چەواشە	-11.4862
▁ژینگەیی	-11.4862
▁یاساییان	-11.4862
▁1963	-11.4873
▁بگەینە	-11.4873
▁تەسلیمی	-11.4873
▁دابەزاندنی	-11.4873
▁ناسیونالیزمی	-11.4873
▁نێودەوڵەتیەکان	-11.4873
▁پارته	-11.4873
▁ڕوناکی	-11.4873
▁کاروبارەکانی	-11.4873
▁rights	-11.4884
▁ئەمەریکیەکان	-11.4884
▁پێشوازییەکی	-11.4884
▁چیمان	-11.4884
▁1981	-11.4894
▁ئارامیی	-11.4894
▁ئیستاش	-11.4894
▁بەچەندین	-11.4894
▁دانوستانکاری	-11.4894
▁قۆناخی	-11.4894
▁مانەوەیان	-11.4894
▁پشتیوانیکردنی	-11.4894
▁کۆکردنەوە	-11.4894
▁گەڕەکە	-11.4894
▁ئەڵێم	-11.4905
▁الی	-11.4905
▁توێژەرانی	-11.4905
▁خزمەتگوزارییەکانی	-11.4905
▁دۆستانەی	-11.4905
▁شورای	-11.4905
▁فەهمی	-11.4905
▁لۆڤ	-11.4905
▁لەمن	-11.4905
▁نامەوێ	-11.4905
▁نێوی	-11.4905
▁هاوکارییان	-11.4905
▁هەمانە	-11.4905
▁پارێزراوە	-11.4905
▁یم	-11.4905
▁بیەوێ	-11.4916
▁دروشمە	-11.4916
▁سەردان	-11.4916
▁مابوو	-11.4916
▁ژوورە	-11.4916
▁یاساییە	-11.4916
▁یەخەی	-11.4916
▁Aziz	-11.4927
▁ئەرشیفی	-11.4927
▁تیرۆریستەکان	-11.4927
▁دەستووریی	-11.4927
▁فەرید	-11.4927
▁نیت	-11.4927
▁نەگرت	-11.4927
▁پارێزگاریکردن	-11.4927
▁ئەنجامدەرانی	-11.4938
▁بەحوکمی	-11.4938
▁حنا	-11.4938
▁دەبەستێتەوە	-11.4938
▁زەردەشتی	-11.4938
▁سۆلاڤ	-11.4938
▁سەرەتایەک	-11.4938
▁پێشمەرگەیەکی	-11.4938
▁پەیامێک	-11.4938
▁پەیداکردنی	-11.4938
▁چیرۆکەکانی	-11.4938
▁گۆرانییە	-11.4938
▁ئەکبەر	-11.4948
▁زور	-11.4948
▁سەوزە	-11.4948
▁لێهاتوو	-11.4948
▁هاوڕێیان	-11.4948
▁هێلکە	-11.4948
▁چووەتە	-11.4948
▁خۆپاراستن	-11.4959
▁دروستکردوە	-11.4959
▁شیعرو	-11.4959
▁قەرەتەپە	-11.4959
▁قەیرانەکان	-11.4959
▁نێودەوڵەتیدا	-11.4959
▁هەڵبژێرن	-11.4959
▁ڕادەگەیەنین	-11.4959
▁1985	-11.497
▁باڵندە	-11.497
▁تاراوگە	-11.497
▁دەستپێکردووە	-11.497
▁زۆرجاریش	-11.497
▁عیرفان	-11.497
▁قارەمانی	-11.497
▁لێبکەن	-11.497
▁ناکرێن	-11.497
▁وێنەیەک	-11.497
▁پرسیارو	-11.497
▁گوتارە	-11.497
▁need	-11.4981
▁ئامریکا	-11.4981
▁ئاکۆیی	-11.4981
▁ئەقڵی	-11.4981
▁دران	-11.4981
▁دروستدەکرێت	-11.4981
▁دەبێتەوه	-11.4981
▁لەپێکهێنانی	-11.4981
▁لەیانەی	-11.4981
▁چیان	-11.4981
▁کۆنفرانسە	-11.4981
▁کەخۆی	-11.4981
▁گریاوە	-11.4981
▁ئەڤین	-11.4992
▁بڵاوبۆتەوە	-11.4992
▁بیرەوەرییەکانی	-11.4992
▁دڕندانە	-11.4992
▁وەکی	-11.4992
▁پیشە	-11.4992
▁ڕووداوێک	-11.4992
▁ڕوویانداوە	-11.4992
▁ڕەخنەگرانی	-11.4992
▁ئابوورییەوە	-11.5003
▁بگەیەنێتە	-11.5003
▁لیژنەکان	-11.5003
▁هایدگێر	-11.5003
▁هەولێریش	-11.5003
▁هەڵبژێردرا	-11.5003
▁ئامرازەکانی	-11.5014
▁بەژیانی	-11.5014
▁تاکەی	-11.5014
▁فڕۆکەکانی	-11.5014
▁قەڵا	-11.5014
▁لێکراو	-11.5014
▁هەریمی	-11.5014
▁هەرێمەدا	-11.5014
▁کراوەی	-11.5014
▁گومانلێکراو	-11.5014
▁350	-11.5025
▁بخاتەوە	-11.5025
▁بچوکترین	-11.5025
▁جەزا	-11.5025
▁خاکە	-11.5025
▁داخراوی	-11.5025
▁دامەزراوەو	-11.5025
▁فۆرمێکی	-11.5025
▁قوتابخانەیەکی	-11.5025
▁لێرەشدا	-11.5025
▁نەهێشتنەوەی	-11.5025
▁ڕێگایەوە	-11.5025
▁ڕەگەزنامەی	-11.5025
▁گرنگەکان	-11.5025
▁یەی	-11.5025
▁ەوه	-11.5025
▁دەمە	-11.5036
▁سەربەخۆیە	-11.5036
▁شارۆچکە	-11.5036
▁مێژویی	-11.5036
▁نەخۆشخانەکانی	-11.5036
▁کەموکورتی	-11.5036
▁ئۆپۆزسیۆنیش	-11.5047
▁ئەزانی	-11.5047
▁بنەماڵەکەی	-11.5047
▁دانوستاندن	-11.5047
▁دەمێنێت	-11.5047
▁دەیانویست	-11.5047
▁شێوەش	-11.5047
▁فشارێکی	-11.5047
▁نەماوەو	-11.5047
▁پەری	-11.5047
▁ڕێکخراوانە	-11.5047
▁گۆڕانەوە	-11.5047
▁ئاخ	-11.5058
▁بەرهەمهێنەری	-11.5058
▁بەرپرسه	-11.5058
▁دۆستانە	-11.5058
▁دیاره	-11.5058
▁زل	-11.5058
▁لیستەکان	-11.5058
▁گۆڕانکارییەکی	-11.5058
▁بکوژن	-11.5068
▁بەسەرهاتی	-11.5068
▁تاڵی	-11.5068
▁دەردەبڕێت	-11.5068
▁سەرکەوتنەکانی	-11.5068
▁عەرەبدا	-11.5068
▁لەفراکسیۆنی	-11.5068
▁ڕزگاریی	-11.5068
▁تریلیۆن	-11.5079
▁دیدە	-11.5079
▁لاساییکردنەوەیەکی	-11.5079
▁مارف	-11.5079
▁هاوڕێیەکی	-11.5079
▁هەرێمایەتی	-11.5079
▁ئەلبوومی	-11.509
▁مرۆڤانە	-11.509
▁نەژادی	-11.509
▁پێنچ	-11.509
▁پەتای	-11.509
▁ڕوانگە	-11.509
▁ڕووەشەوە	-11.509
▁گوندو	-11.509
▁ئامێزی	-11.5101
▁بزووتنەوەیەکی	-11.5101
▁بوم	-11.5101
▁بچنەوە	-11.5101
▁بڕیارەکان	-11.5101
▁حەمرین	-11.5101
▁سەعیدی	-11.5101
▁قەتیس	-11.5101
▁مەبەستێکی	-11.5101
▁نەیاری	-11.5101
▁پێشووتری	-11.5101
▁چالاکوان	-11.5101
▁چەوسانەوە	-11.5101
▁ئەتاتورک	-11.5112
▁ئەشرەف	-11.5112
▁بکوژی	-11.5112
▁بەکاردەهێنرێت	-11.5112
▁خواو	-11.5112
▁فەیلەسوف	-11.5112
▁وڵامێک	-11.5112
▁چەتەکانی	-11.5112
▁چەمکێکی	-11.5112
▁گۆرانیی	-11.5112
▁ئاهەنگێکی	-11.5124
▁بۆئەو	-11.5124
▁خەتای	-11.5124
▁ستەمکاری	-11.5124
▁سەرکرده	-11.5124
▁شۆڕشگێڕ	-11.5124
▁نیشتەجێن	-11.5124
▁نەهێڵن	-11.5124
▁هیواشی	-11.5124
▁وێنەیە	-11.5124
▁ڕەسمیی	-11.5124
▁گرێبەستە	-11.5124
▁تاوانبارە	-11.5135
▁تەفسیری	-11.5135
▁دامەزراوەیەکی	-11.5135
▁نیازه	-11.5135
▁نەیدەتوانی	-11.5135
▁وڵامی	-11.5135
▁کارمەندان	-11.5135
▁بخرێته	-11.5146
▁جێگا	-11.5146
▁دای	-11.5146
▁شەڕیان	-11.5146
▁صقر	-11.5146
▁فریشتە	-11.5146
▁معرکة	-11.5146
▁هێند	-11.5146
▁ئاسمانیی	-11.5157
▁بەرکەوتووە	-11.5157
▁سروشتییەکانی	-11.5157
▁مریشک	-11.5157
▁نەکرێن	-11.5157
▁هەموی	-11.5157
▁ووتی	-11.5157
▁ڕێیانی	-11.5157
▁ئێوه	-11.5168
▁بهێنیت	-11.5168
▁بچین	-11.5168
▁ساختە	-11.5168
▁پێیوابوو	-11.5168
▁کۆتاییەکانی	-11.5168
▁گرنگترە	-11.5168
▁جیاجیای	-11.5179
▁دەناسرێت	-11.5179
▁فەرموویەتی	-11.5179
▁مەلاکان	-11.5179
▁ڕووناکبیر	-11.5179
▁ئاسۆکمال	-11.519
▁برەودان	-11.519
▁بەئەنجام	-11.519
▁بەشداربووی	-11.519
▁بەهەماهەنگی	-11.519
▁دانابوو	-11.519
▁دەمرن	-11.519
▁عیززەت	-11.519
▁فراکسیۆنه	-11.519
▁فەقێ	-11.519
▁ناکاو	-11.519
▁هاوبەشە	-11.519
▁کابرا	-11.519
▁Omar	-11.5201
▁ئەبێتەوە	-11.5201
▁ئەڵمانیای	-11.5201
▁دەستپێک	-11.5201
▁لۆژیک	-11.5201
▁لەپڕ	-11.5201
▁نێردراوی	-11.5201
▁وێنه	-11.5201
▁پاره	-11.5201
▁یەکەمجارە	-11.5201
▁،‮	-11.5212
▁بونەوە	-11.5212
▁تێپەڕیوە	-11.5212
▁جندیانی	-11.5212
▁جەنگییەکانی	-11.5212
▁قەدەغه	-11.5212
▁هۆبەی	-11.5212
▁ویستم	-11.5212
▁کێشانی	-11.5212
▁جارێکیان	-11.5223
▁جاوەروانی	-11.5223
▁دانوستانی	-11.5223
▁ساردبوونی	-11.5223
▁متمانه	-11.5223
▁کلیپەکەم	-11.5223
▁گوندنشینانەی	-11.5223
▁ۆرکشۆپ	-11.5223
▁1960	-11.5235
▁ئامارەکانی	-11.5235
▁سەبار	-11.5235
▁فڕێ	-11.5235
▁قسەیەی	-11.5235
▁مالیزیا	-11.5235
▁هۆشی	-11.5235
▁هەڵخەڵەتان	-11.5235
▁وڵاتانەدا	-11.5235
▁ڕواندز	-11.5235
▁ڕێزلێنانەکەی	-11.5235
▁إیلی	-11.5246
▁حامید	-11.5246
▁خۆشحاڵ	-11.5246
▁زۆیا	-11.5246
▁ساڵیش	-11.5246
▁نرخێکی	-11.5246
▁هاوڵاتیەکی	-11.5246
▁هۆزی	-11.5246
▁بکێشێت	-11.5257
▁تقهر	-11.5257
▁جیاجیاکاندا	-11.5257
▁پلەیەکی	-11.5257
▁ڕاگەیاندنەوە	-11.5257
▁گۆڕانکارییەکان	-11.5257
▁ئامار	-11.5268
▁بابەکر	-11.5268
▁زەمینەیەکی	-11.5268
▁فرەژنی	-11.5268
▁لەمافەکانی	-11.5268
▁مۆرکی	-11.5268
▁هەلە	-11.5268
▁members	-11.5279
▁ئابوورییە	-11.5279
▁ئێس	-11.5279
▁بەرنامەکە	-11.5279
▁بەرپرسەکان	-11.5279
▁بەرەمزی	-11.5279
▁جێبەجێدەکرێت	-11.5279
▁دابینکراوە	-11.5279
▁مەولەوی	-11.5279
▁ناشێت	-11.5279
▁ڕەهەندێکی	-11.5279
▁بێکار	-11.529
▁بەرپرسەکانی	-11.529
▁بەریتانیاو	-11.529
▁جەماوەرو	-11.529
▁عەرەبیش	-11.529
▁ملیۆنەها	-11.529
▁میللەتانی	-11.529
▁مەحوی	-11.529
▁هۆزان	-11.529
▁واژۆی	-11.529
▁کوردانگراد	-11.529
▁خەڵکیدا	-11.5302
▁دەدرێتە	-11.5302
▁دەنگدانیان	-11.5302
▁دەڕوانن	-11.5302
▁ماندووبوونی	-11.5302
▁ڕێنماییەکان	-11.5302
▁کەمتەرخەمیمان	-11.5302
▁بەرنامەکه	-11.5313
▁بەهەزاران	-11.5313
▁تۆپبارانی	-11.5313
▁جوتیار	-11.5313
▁دەرفەتێک	-11.5313
▁دەهاتە	-11.5313
▁سەییدعەلی	-11.5313
▁منداڵانەی	-11.5313
▁هەولێرەوە	-11.5313
▁کایەکانی	-11.5313
▁گۆڕە	-11.5313
▁گێڕاوە	-11.5313
▁تایبەتمەندیی	-11.5324
▁دادوەریی	-11.5324
▁میراتی	-11.5324
▁ناوین	-11.5324
▁ڕەگەزپەرستی	-11.5324
▁یاسایانەی	-11.5324
▁ئاسوودە	-11.5335
▁ئەنفلۆنزای	-11.5335
▁ببڕێت	-11.5335
▁بینەرانی	-11.5335
▁جیهادی	-11.5335
▁درووستکردنی	-11.5335
▁دۆزیوەتەوە	-11.5335
▁دەربازبوون	-11.5335
▁دەستکەوتەکان	-11.5335
▁فڵان	-11.5335
▁نیشانە	-11.5335
▁ڕادەکێشێت	-11.5335
▁ئەزانم	-11.5347
▁ئەویان	-11.5347
▁بەیاسا	-11.5347
▁جێگر	-11.5347
▁خۆشحاڵم	-11.5347
▁لەحاڵەتی	-11.5347
▁کیانی	-11.5347
▁ئێستاشی	-11.5358
▁باشتری	-11.5358
▁بووبوون	-11.5358
▁تیرۆریزم	-11.5358
▁دەگەر	-11.5358
▁ساڵێکدا	-11.5358
▁شارەکەدا	-11.5358
▁هاوشێوە	-11.5358
▁پرسەی	-11.5358
▁چوونه	-11.5358
▁کامێرا	-11.5358
▁گاتایەک	-11.5358
▁JavaScript	-11.5369
▁enabled	-11.5369
▁حازر	-11.5369
▁دەنوسێت	-11.5369
▁مستەفای	-11.5369
▁هێشتاش	-11.5369
▁هەمەلایەنە	-11.5369
▁وردو	-11.5369
▁پرۆلیتاریا	-11.5369
▁پێزانینی	-11.5369
▁ڕاستکردنەوەی	-11.5369
▁کردون	-11.5369
▁کەیسە	-11.5369
▁ئاییندەی	-11.5381
▁ئەوەدان	-11.5381
▁بوژانەوەی	-11.5381
▁بڕیاریداوە	-11.5381
▁سەردانیان	-11.5381
▁شێخی	-11.5381
▁قسه	-11.5381
▁وەلاتێ	-11.5381
▁چەوسانەوەی	-11.5381
▁گۆلپی	-11.5381
▁گەورەوە	-11.5381
▁94	-11.5392
▁بەرپرسیارە	-11.5392
▁خەلافەتی	-11.5392
▁دابەزی	-11.5392
▁دەردەبڕن	-11.5392
▁دەرەوەدا	-11.5392
▁سەردەمیانە	-11.5392
▁شتەی	-11.5392
▁ڕوناک	-11.5392
▁ەی	-11.5392
▁Copyright	-11.5403
▁دەوڵەمەندە	-11.5403
▁سیخوڕی	-11.5403
▁لەپڕۆسەی	-11.5403
▁لەکۆنگرەی	-11.5403
▁ناوچانه	-11.5403
▁هاوڵاتیەک	-11.5403
▁هەلوێستم	-11.5403
▁ئەمجارەی	-11.5415
▁بێتووشی	-11.5415
▁بەدەستەوەیە	-11.5415
▁بەڕێزە	-11.5415
▁سەلامی	-11.5415
▁بۆری	-11.5426
▁بەرزان	-11.5426
▁تەڵەیک	-11.5426
▁فرۆکە	-11.5426
▁لەت	-11.5426
▁لەوتەیەکدا	-11.5426
▁کۆنترین	-11.5426
▁یاریزانەکانی	-11.5426
▁ئیسرایل	-11.5437
▁برایەکی	-11.5437
▁بنەماو	-11.5437
▁حەزیان	-11.5437
▁دیکتاتۆرەکان	-11.5437
▁نامیق	-11.5437
▁ناوەکان	-11.5437
▁پارەیان	-11.5437
▁پێکهاتەو	-11.5437
▁یازدە	-11.5437
▁ئاپۆوە	-11.5449
▁بەئازادی	-11.5449
▁تارا	-11.5449
▁تەرخانکردنی	-11.5449
▁دێنێت	-11.5449
▁دەگەڕێتەوه	-11.5449
▁لەڕۆژانی	-11.5449
▁ژوور	-11.5449
▁کۆمەڵناسی	-11.5449
▁بەمافی	-11.546
▁حیزبایەتی	-11.546
▁دەورو	-11.546
▁زلهێزەکان	-11.546
▁پێدرا	-11.546
▁ڕەوشێکی	-11.546
▁ژیاون	-11.546
▁یەکلاییکردنەوەی	-11.546
▁باشەو	-11.5472
▁بەوەدەکات	-11.5472
▁تایبەتمەندییەکانی	-11.5472
▁خستووەتە	-11.5472
▁دەکاو	-11.5472
▁سەپاند	-11.5472
▁لیتر	-11.5472
▁نزیکانە	-11.5472
▁نیشاندان	-11.5472
▁کوێی	-11.5472
▁کۆمپانیایەک	-11.5472
▁reserved	-11.5483
▁©	-11.5483
▁ئەوەشمان	-11.5483
▁بڕیارەماندا	-11.5483
▁تەلەفزیونی	-11.5483
▁دانوستانەکان	-11.5483
▁دانیشتنەکە	-11.5483
▁داهێنەر	-11.5483
▁دەسەڵاتەی	-11.5483
▁سنووردار	-11.5483
▁قودس	-11.5483
▁مریەم	-11.5483
▁ناسیۆنالیستی	-11.5483
▁نیشانداوە	-11.5483
▁نەوتییەکانی	-11.5483
▁پێکدەهێنن	-11.5483
▁ڤیتامین	-11.5483
▁009647707681213	-11.5495
▁php	-11.5495
▁ئەتوانن	-11.5495
▁بەردەوامبوون	-11.5495
▁بەگشتیی	-11.5495
▁دەربە	-11.5495
▁عێراقێ	-11.5495
▁قەزاکە	-11.5495
▁ڕاپەڕینە	-11.5495
▁کپ	-11.5495
▁1958	-11.5506
▁Berprsî	-11.5506
▁Faris	-11.5506
▁Nêt	-11.5506
▁بەئەرکی	-11.5506
▁تێگەیشتنە	-11.5506
▁خستەروو	-11.5506
▁دەڕوانێت	-11.5506
▁شاوەیس	-11.5506
▁شیلان	-11.5506
▁لێوی	-11.5506
▁ناوه	-11.5506
▁هاووڵاتییەکی	-11.5506
▁پیاوسالاری	-11.5506
▁پێناد	-11.5506
▁ڕجیمکردن	-11.5506
▁گوارەکەیە	-11.5506
▁ئیسنا	-11.5518
▁ئەوانه	-11.5518
▁بیروباوەڕ	-11.5518
▁سەرۆکێکی	-11.5518
▁غەززه	-11.5518
▁میحوەری	-11.5518
▁پێبەخشرا	-11.5518
▁کرۆکی	-11.5518
▁دەنووسێ	-11.5529
▁لەشارۆچکەی	-11.5529
▁لەماڵەوە	-11.5529
▁هەڵویستی	-11.5529
▁وەزار	-11.5529
▁یەکتردا	-11.5529
▁ئاینە	-11.554
▁بونیان	-11.554
▁دەفەرمووێت	-11.554
▁ململانێکان	-11.554
▁کلاسیک	-11.554
▁بونیاد	-11.5552
▁بەڵگەو	-11.5552
▁داوایەی	-11.5552
▁سەرسەختی	-11.5552
▁نازری	-11.5552
▁وڵاتێکدا	-11.5552
▁کۆیلایەتی	-11.5552
▁ئەح	-11.5564
▁ئەنتی	-11.5564
▁بێکاریی	-11.5564
▁ساڵحی	-11.5564
▁لەناوخۆی	-11.5564
▁لەوەفدێکی	-11.5564
▁پڕوپاگەندە	-11.5564
▁پۆڵەندا	-11.5564
▁یاخوود	-11.5564
▁ێوەچوونی	-11.5564
▁بەکاربهێنێت	-11.5575
▁خۆپێشاندان	-11.5575
▁دراوەو	-11.5575
▁پشکۆنەجمەدین	-11.5575
▁ڕۆشنبیرە	-11.5575
▁کرێکاریی	-11.5575
▁کودەتای	-11.5575
▁ئامارەکان	-11.5587
▁بڕیاردانی	-11.5587
▁حە	-11.5587
▁دیوار	-11.5587
▁سەرۆکوەزیران	-11.5587
▁شێخانی	-11.5587
▁فیلمەکه	-11.5587
▁وێرانکردنی	-11.5587
▁پارچەیەک	-11.5587
▁ژەنەراڵ	-11.5587
▁کارەکانمان	-11.5587
▁کەرتە	-11.5587
▁بمێنێت	-11.5598
▁بەیەکجاری	-11.5598
▁جەرگەی	-11.5598
▁حاکمی	-11.5598
▁داهاتووش	-11.5598
▁در	-11.5598
▁دوەمی	-11.5598
▁چاوپۆشی	-11.5598
▁ژەنەڕاڵ	-11.5598
▁1500	-11.561
▁ئیماراتی	-11.561
▁بنە	-11.561
▁بنەمایەک	-11.561
▁بەسەختی	-11.561
▁دامەزراوه	-11.561
▁لێهات	-11.561
▁لەیاد	-11.561
▁نامێنێتەوە	-11.561
▁نزمی	-11.561
▁نۆیەم	-11.561
▁ڕیش	-11.561
▁گەلاوێژ	-11.561
▁یەکن	-11.561
▁ئازادیەکانی	-11.5621
▁ئامێرەکانی	-11.5621
▁جوتیارانی	-11.5621
▁حەڤدایی	-11.5621
▁دابەشکراوە	-11.5621
▁دیبلۆماسی	-11.5621
▁زێرەڤانی	-11.5621
▁لەدەسەڵات	-11.5621
▁مەسڕن	-11.5621
▁کاتیی	-11.5621
▁co	-11.5633
▁دێنێتە	-11.5633
▁سیاسیان	-11.5633
▁قەبوڵ	-11.5633
▁هەرکات	-11.5633
▁چەورەکەتان	-11.5633
▁یەکگرتنی	-11.5633
▁بووبێ	-11.5645
▁بگرم	-11.5645
▁بەرای	-11.5645
▁تۆپباران	-11.5645
▁خراپەکانی	-11.5645
▁دەدەنە	-11.5645
▁دەستت	-11.5645
▁سەرسامی	-11.5645
▁لەپارتی	-11.5645
▁لەیاریگای	-11.5645
▁چڕی	-11.5645
▁ڕکێفی	-11.5645
▁بەرهەمەکانیان	-11.5656
▁بەرێژەی	-11.5656
▁جەنگدا	-11.5656
▁داین	-11.5656
▁شارەی	-11.5656
▁ولاتەدا	-11.5656
▁گروپەکانی	-11.5656
▁ئەنفالکراوانی	-11.5668
▁است	-11.5668
▁بەختەوەر	-11.5668
▁بەردە	-11.5668
▁بەژنان	-11.5668
▁سەرمایەدار	-11.5668
▁شێر	-11.5668
▁قورستر	-11.5668
▁نوجەیفی	-11.5668
▁باسکرد	-11.568
▁بەهرەمەند	-11.568
▁دەستپێکردنەوەی	-11.568
▁شێعرێک	-11.568
▁پیشاندانی	-11.568
▁کۆمەلگای	-11.568
▁info	-11.5691
▁بگرنە	-11.5691
▁بەنهێنی	-11.5691
▁بەڕێوەی	-11.5691
▁جێناکۆکەکان	-11.5691
▁دووبارەی	-11.5691
▁دەستنیشانی	-11.5691
▁زۆرداری	-11.5691
▁لەدیدارەکەدا	-11.5691
▁نەبووەتەوە	-11.5691
▁ڕاگەیاندوە	-11.5691
▁کیری	-11.5691
▁بەمانا	-11.5703
▁سازدەکرێت	-11.5703
▁شۆڤێنی	-11.5703
▁نزیکانه	-11.5703
▁ڕێبازە	-11.5703
▁گرتنە	-11.5703
▁ناکۆکییەکانی	-11.5715
▁هاتۆته	-11.5715
▁هێرشبەر	-11.5715
▁یەکێتییەوە	-11.5715
▁بەوشێوەیە	-11.5726
▁بەڕێزانە	-11.5726
▁جیهانییە	-11.5726
▁جێگیرکردنی	-11.5726
▁خوان	-11.5726
▁سەربازه	-11.5726
▁سەعاتێک	-11.5726
▁فەرماندە	-11.5726
▁قەڵەمی	-11.5726
▁لێپرسینەوەو	-11.5726
▁نابینن	-11.5726
▁نووسراو	-11.5726
▁ڕۆژنامەوانان	-11.5726
▁ئەنجامدراون	-11.5738
▁تاوانەکە	-11.5738
▁تووڕەیی	-11.5738
▁تەکنیک	-11.5738
▁حیزبەوە	-11.5738
▁لەباتی	-11.5738
▁نازی	-11.5738
▁چەپەکان	-11.5738
▁گۆڵێک	-11.5738
▁هاوسەنگ	-11.575
▁هێواش	-11.575
▁ڕادەگەیەنن	-11.575
▁کەسمان	-11.575
▁ئیلاف	-11.5762
▁ئیلام	-11.5762
▁ئیلهام	-11.5762
▁بڕیاربوو	-11.5762
▁بگێڕن	-11.5762
▁بەرتەسک	-11.5762
▁بەرەوپێش	-11.5762
▁توانیم	-11.5762
▁تێدابێت	-11.5762
▁دووشەممەی	-11.5762
▁لێدەکەین	-11.5762
▁ڕادەیەی	-11.5762
▁کەسوکار	-11.5762
▁هەفتانە	-11.5773
▁وەختی	-11.5773
▁گرانە	-11.5773
▁بەنێو	-11.5785
▁تازەو	-11.5785
▁تێکستە	-11.5785
▁دەبڕێت	-11.5785
▁سروشتیەکان	-11.5785
▁مندالان	-11.5785
▁ڕویدا	-11.5785
▁کاغەز	-11.5785
▁ئەتروشی	-11.5797
▁دەترسن	-11.5797
▁سنوورێک	-11.5797
▁شەکر	-11.5797
▁ڕۆژاوا	-11.5797
▁کۆشک	-11.5797
▁گەڵای	-11.5797
▁uk	-11.5809
▁بەغداش	-11.5809
▁تەقیەوە	-11.5809
▁درابوو	-11.5809
▁دوایدا	-11.5809
▁دووەمیشیان	-11.5809
▁دۆزییەوە	-11.5809
▁لەئایندەدا	-11.5809
▁ڕێگەیەک	-11.5809
▁بنچینەیی	-11.5821
▁بەرپاکردنی	-11.5821
▁شەرمەزار	-11.5821
▁ئەرزی	-11.5832
▁بەرجەستەکردنی	-11.5832
▁تان	-11.5832
▁حامد	-11.5832
▁داواکاریەکانی	-11.5832
▁سەربازە	-11.5832
▁سەردانه	-11.5832
▁هەربۆیه	-11.5832
▁هەڵەبجەدا	-11.5832
▁چییان	-11.5832
▁ڕێگاکانی	-11.5832
▁کەوتونەتە	-11.5832
▁یەکجارەکی	-11.5832
▁باوکیان	-11.5844
▁بەدڵ	-11.5844
▁دەبەستن	-11.5844
▁فیزیکی	-11.5844
▁لەدونیای	-11.5844
▁ناڤبری	-11.5844
▁ناکۆکییەکان	-11.5844
▁گوزەران	-11.5844
▁ئاکاری	-11.5856
▁دروستدەبێت	-11.5856
▁زیرەکی	-11.5856
▁مزگەوتەکان	-11.5856
▁هۆکارانەی	-11.5856
▁هۆیەکانی	-11.5856
▁هێرشەکەی	-11.5856
▁ڕۆژگارە	-11.5856
▁دابەشکرا	-11.5868
▁دیت	-11.5868
▁دەکرێتەوه	-11.5868
▁قوربانیدان	-11.5868
▁لة	-11.5868
▁نەدەین	-11.5868
▁بازاڕو	-11.588
▁بەڕاست	-11.588
▁دروستبکەن	-11.588
▁ساڵانێکە	-11.588
▁شەڕدا	-11.588
▁وازهێنان	-11.588
▁چارەسەرکردنیان	-11.588
▁ڕاکێشا	-11.588
▁ڕۆژئاواو	-11.588
▁کۆتایدا	-11.588
▁تەنگژەی	-11.5892
▁خستووە	-11.5892
▁مەحمودی	-11.5892
▁نرخاند	-11.5892
▁چەلەبی	-11.5892
▁گوتارێکی	-11.5892
▁ئاوەکە	-11.5904
▁باوەش	-11.5904
▁بەخەڵک	-11.5904
▁شەکرە	-11.5904
▁هەڵمەتەکانی	-11.5904
▁پێغەمبەران	-11.5904
▁پێکبهێنێت	-11.5904
▁پێکهاتووه	-11.5904
▁ڕەفتارە	-11.5904
▁ئەتوانین	-11.5916
▁بڕوانین	-11.5916
▁جەنەراڵ	-11.5916
▁دەکری	-11.5916
▁ستایلی	-11.5916
▁سەرما	-11.5916
▁لەبیری	-11.5916
▁لەمێژە	-11.5916
▁مابێت	-11.5916
▁نابینم	-11.5916
▁نوح	-11.5916
▁هەرێمێک	-11.5916
▁ئاشکرایان	-11.5928
▁جیاکاری	-11.5928
▁خێری	-11.5928
▁دەباتە	-11.5928
▁شەشەمین	-11.5928
▁لەدایکبووی	-11.5928
▁گڕ	-11.5928
▁بەکارهێنا	-11.594
▁شوێندا	-11.594
▁لێکەوتەوه	-11.594
▁هۆکارانە	-11.594
▁هەواڵگریی	-11.594
▁هەواڵەکە	-11.594
▁وەرگێر	-11.594
▁پێبکرێت	-11.594
▁1977	-11.5952
▁You	-11.5952
▁خەلکێ	-11.5952
▁دنیابینی	-11.5952
▁وەزارەتەکەی	-11.5952
▁چاپەمەنی	-11.5952
▁کەهیچ	-11.5952
▁یاسایەی	-11.5952
▁ئەبینین	-11.5964
▁تەعبیر	-11.5964
▁خامنەیی	-11.5964
▁زانیم	-11.5964
▁شێری	-11.5964
▁لەئێستاوە	-11.5964
▁مارتین	-11.5964
▁پتەوی	-11.5964
▁پێدەدات	-11.5964
▁پەسەندکرد	-11.5964
▁ڕاپێچی	-11.5964
▁ڕەوان	-11.5964
▁کوران	-11.5964
▁لەکابینەی	-11.5976
▁ملیارد	-11.5976
▁هاولاتی	-11.5976
▁هەره	-11.5976
▁پاییزی	-11.5976
▁کاربەدەستان	-11.5976
▁گەیشتوونەتە	-11.5976
▁خوێندندا	-11.5988
▁عەزیزی	-11.5988
▁مسلم	-11.5988
▁وادا	-11.5988
▁پیسی	-11.5988
▁پەخشان	-11.5988
▁گەرمەی	-11.5988
▁دایەو	-11.6
▁دلاوەر	-11.6
▁سکالا	-11.6
▁لێو	-11.6
▁نەبینی	-11.6
▁هونەرمەندێک	-11.6
▁هەتاکو	-11.6
▁هەرەسی	-11.6
▁ڕێگاوبان	-11.6
▁کردەوەکانی	-11.6
▁کوێوە	-11.6
▁گۆڕا	-11.6
▁یاساییەکان	-11.6
▁ئەوانیتر	-11.6012
▁ئەکتەرێکی	-11.6012
▁بەباشترین	-11.6012
▁تایبە	-11.6012
▁خورشید	-11.6012
▁دانەوەی	-11.6012
▁دەستەکانی	-11.6012
▁شرۆڤە	-11.6012
▁فیدڕاڵی	-11.6012
▁لیستەکەیان	-11.6012
▁پانتایییەکی	-11.6012
▁یاریزانەکان	-11.6012
▁ئازادیە	-11.6024
▁ئامادەم	-11.6024
▁ئەلحەکیم	-11.6024
▁توێژێکی	-11.6024
▁سەعاتی	-11.6024
▁سەنگ	-11.6024
▁شیعی	-11.6024
▁لەشکرکێشی	-11.6024
▁هاندەری	-11.6024
▁هێڵێکی	-11.6024
▁هەروەهاش	-11.6024
▁ؤ	-11.6036
▁ترلیۆن	-11.6036
▁حەلەب	-11.6036
▁خوێنیان	-11.6036
▁فێرکردنی	-11.6036
▁قەیرانەکە	-11.6036
▁لەئاکامی	-11.6036
▁لەدەسەڵاتی	-11.6036
▁ماوەیەکه	-11.6036
▁ڕاوبۆچوونی	-11.6036
▁ڕاگرتووە	-11.6036
▁ئاوایی	-11.6048
▁داخوازیەکانی	-11.6048
▁دەپرسێت	-11.6048
▁قانوونی	-11.6048
▁نادروست	-11.6048
▁وات	-11.6048
▁پیران	-11.6048
▁پێشمەرگەش	-11.6048
▁گەیشتینە	-11.6048
▁ئاشتیی	-11.606
▁ئێم	-11.606
▁ئەچێت	-11.606
▁بەکاربردنی	-11.606
▁خوێندنەوەو	-11.606
▁دەبووایە	-11.606
▁قەرەباڵغی	-11.606
▁هەروەسا	-11.606
▁هەفتەنامەی	-11.606
▁چوارچێوە	-11.606
▁کەتیایدا	-11.606
▁بخوێنەرەوە	-11.6072
▁بیرت	-11.6072
▁خاکەکەی	-11.6072
▁عەرەبیی	-11.6072
▁لەخەباتی	-11.6072
▁مەفرەزەی	-11.6072
▁پەسندکردنی	-11.6072
▁چێ	-11.6072
▁ڕاشکاوی	-11.6072
▁کەمئەندامانی	-11.6072
▁October	-11.6084
▁تاو	-11.6084
▁فڕۆکەوانی	-11.6084
▁وەستاندنی	-11.6084
▁ڕاستییەی	-11.6084
▁ڕوەوە	-11.6084
▁کارەبایی	-11.6084
▁بەخێر	-11.6097
▁خەباتیان	-11.6097
▁دۆزراوەتەوە	-11.6097
▁سەدەیەک	-11.6097
▁شوناس	-11.6097
▁ـەوه	-11.6097
▁مامەڵەکردنی	-11.6097
▁پیشاندا	-11.6097
▁کارتێکی	-11.6097
▁March	-11.6109
▁بەدڵی	-11.6109
▁دەخوێنن	-11.6109
▁ڕۆژوو	-11.6109
▁ئالای	-11.6121
▁بسەپێنێت	-11.6121
▁دیالەو	-11.6121
▁دەقیقە	-11.6121
▁دەگرێتە	-11.6121
▁دەیلی	-11.6121
▁سێدارەدان	-11.6121
▁نزیکەکانی	-11.6121
▁هەنگوین	-11.6121
▁ڕژێمێکی	-11.6121
▁کەشی	-11.6121
▁کەمئەندام	-11.6121
▁ئابوورییەکانی	-11.6133
▁ئاوێتەی	-11.6133
▁بنبڕ	-11.6133
▁بچووکترین	-11.6133
▁بچێته	-11.6133
▁جیاوازتر	-11.6133
▁دەڤەرا	-11.6133
▁زانستیانە	-11.6133
▁سەیرکردنی	-11.6133
▁لێکردم	-11.6133
▁لەباشووری	-11.6133
▁لەجێبەجێکردنی	-11.6133
▁ناوێک	-11.6133
▁نهێنییەکانی	-11.6133
▁وشەیەک	-11.6133
▁پرۆژەکه	-11.6133
▁گەنجانە	-11.6133
▁بەدەنگ	-11.6145
▁دەچم	-11.6145
▁لەبەرچاوی	-11.6145
▁وازیان	-11.6145
▁پێویستییەکانی	-11.6145
▁کوردستانیشدا	-11.6145
▁کێبڕکێ	-11.6145
▁گۆت	-11.6145
▁گۆڕین	-11.6145
▁ئاگایان	-11.6158
▁بارین	-11.6158
▁بیلال	-11.6158
▁توێژینەوەکە	-11.6158
▁جێبەجی	-11.6158
▁خوله	-11.6158
▁دید	-11.6158
▁فەرموودەی	-11.6158
▁لێدەکەم	-11.6158
▁هەندێجار	-11.6158
▁پشتبەستن	-11.6158
▁ڕوسیای	-11.6158
▁ڕوونکردنەوە	-11.6158
▁ئەلقاعیده	-11.617
▁مەسەلەکانی	-11.617
▁گورزی	-11.617
▁گێڕایەوە	-11.617
▁ئەبی	-11.6182
▁بلاوکردنەوەی	-11.6182
▁بوونەته	-11.6182
▁بەرقەرار	-11.6182
▁بەرپرسەی	-11.6182
▁دروستیان	-11.6182
▁سەرۆکە	-11.6182
▁مرۆڤایەتیدا	-11.6182
▁گۆرینی	-11.6182
▁ئیبراهیمی	-11.6194
▁تێدەگات	-11.6194
▁دڕندەیی	-11.6194
▁زۆریشی	-11.6194
▁شەرمەزاری	-11.6194
▁عەمار	-11.6194
▁پایەکانی	-11.6194
▁چا	-11.6194
▁ژمارەکا	-11.6194
▁گۆڕیوە	-11.6194
▁ێت	-11.6194
▁1961	-11.6207
▁بیابان	-11.6207
▁حەویجە	-11.6207
▁خانەکانی	-11.6207
▁دەستەبەری	-11.6207
▁سەرلەبەری	-11.6207
▁سەرمایەداریی	-11.6207
▁شێروان	-11.6207
▁نادیارە	-11.6207
▁ناومان	-11.6207
▁هەڵیان	-11.6207
▁پارێزگاکەی	-11.6207
▁کاراکردنی	-11.6207
▁بڕه	-11.6219
▁بەوجۆرە	-11.6219
▁تۆمەتباری	-11.6219
▁جموجۆڵی	-11.6219
▁خوێ	-11.6219
▁ستیڤن	-11.6219
▁هەولێرە	-11.6219
▁ئاسیای	-11.6231
▁شەوانی	-11.6231
▁لەکۆمەڵگەی	-11.6231
▁ڕوە	-11.6231
▁کەرکووکی	-11.6231
▁گرتووەتە	-11.6231
▁ینک	-11.6231
▁ئازادن	-11.6244
▁ئاپۆ	-11.6244
▁ئینتیمای	-11.6244
▁بەوەزارەتی	-11.6244
▁بەیاننامە	-11.6244
▁تریشدا	-11.6244
▁تیرۆرستی	-11.6244
▁لەئاستێکی	-11.6244
▁ماوەو	-11.6244
▁نوسیوە	-11.6244
▁کۆمەڵدا	-11.6244
▁گیر	-11.6244
▁ئەنادۆڵ	-11.6256
▁براون	-11.6256
▁بنووسن	-11.6256
▁بێلایەنی	-11.6256
▁خەونێکی	-11.6256
▁دەرکی	-11.6256
▁دەرکەوتووه	-11.6256
▁فەڵەستین	-11.6256
▁قەوارەیەکی	-11.6256
▁ماناو	-11.6256
▁مەسەلەکان	-11.6256
▁نێوەندەدا	-11.6256
▁پوختەی	-11.6256
▁ڕۆحانی	-11.6256
▁باز	-11.6268
▁ملیۆنی	-11.6268
▁مەردان	-11.6268
▁پێشکەوتنە	-11.6268
▁ڕاستییەکی	-11.6268
▁بەکاربهێنن	-11.6281
▁حیزبیی	-11.6281
▁درەخت	-11.6281
▁سەرشەقام	-11.6281
▁لووتکەی	-11.6281
▁هەوڵیداوە	-11.6281
▁هەڵمەتە	-11.6281
▁وەبیر	-11.6281
▁پیاوانە	-11.6281
▁ڕاپەرینی	-11.6281
▁کەشناسی	-11.6281
▁ئەنفالدا	-11.6293
▁ئەنقەست	-11.6293
▁بخرێت	-11.6293
▁سازە	-11.6293
▁شتێکیان	-11.6293
▁مایکڵ	-11.6293
▁نەکراوەتەوە	-11.6293
▁پایز	-11.6293
▁کاردانەوەیەکی	-11.6293
▁کۆمەڵایەتییەکانی	-11.6293
▁December	-11.6305
▁ئاودێری	-11.6305
▁بڵاودەکاتەوە	-11.6305
▁لەئارادا	-11.6305
▁لەهەڵبژاردنەکانی	-11.6305
▁لەژمارەی	-11.6305
▁پێویستن	-11.6305
▁ڕاگەیاندو	-11.6305
▁ئارا	-11.6318
▁ئەمەشە	-11.6318
▁لەکەرتی	-11.6318
▁مادەیەکی	-11.6318
▁هاوبەشدا	-11.6318
▁هەڵگرت	-11.6318
▁وەفدەکەی	-11.6318
▁ڕێکەوتننامەی	-11.6318
▁ڕێکەوتنێک	-11.6318
▁گەڕاونەتەوە	-11.6318
▁بزر	-11.633
▁بیستنی	-11.633
▁بەدەوری	-11.633
▁حاڵەتەدا	-11.633
▁فەتوای	-11.633
▁مژدەی	-11.633
▁نەکەم	-11.633
▁هاور	-11.633
▁هیواو	-11.633
▁وەرگرتووەو	-11.633
▁پێشمەرگەیە	-11.633
▁ڕابوردوو	-11.633
▁کاریگەرە	-11.633
▁97	-11.6343
▁سەلماندی	-11.6343
▁شۆڕشگێڕانە	-11.6343
▁غیابی	-11.6343
▁نزیکەوه	-11.6343
▁نوێیەکان	-11.6343
▁نەرویژ	-11.6343
▁هەمیشەش	-11.6343
▁ًَ	-11.6343
▁ڕاسپاردەی	-11.6343
▁کوێستانی	-11.6343
▁کۆمەڵگاوە	-11.6343
▁کۆیه	-11.6343
▁تواناسازی	-11.6355
▁جەماوەرە	-11.6355
▁دووای	-11.6355
▁دەبو	-11.6355
▁نەهێنا	-11.6355
▁پاڵاوتنی	-11.6355
▁پەرتووک	-11.6355
▁چەکێکی	-11.6355
▁ژانی	-11.6355
▁ئیدانە	-11.6368
▁ئیراق	-11.6368
▁باڵیۆز	-11.6368
▁بەدیلی	-11.6368
▁سنورە	-11.6368
▁شیخ	-11.6368
▁هەواڵێک	-11.6368
▁ڕێکخراوێک	-11.6368
▁بووینە	-11.638
▁تورکە	-11.638
▁جوڵە	-11.638
▁حزب	-11.638
▁حیزبەکەیان	-11.638
▁زیندانەکانی	-11.638
▁سلێمانییە	-11.638
▁شێوەیەش	-11.638
▁لەئەستۆی	-11.638
▁هەڵبژاردنەوەی	-11.638
▁پرسیارەکان	-11.638
▁پورتوگال	-11.638
▁ڕەفعەت	-11.638
▁کۆمپانیاو	-11.638
▁ئاگاداربوون	-11.6393
▁ئێف	-11.6393
▁بەنی	-11.6393
▁ترسە	-11.6393
▁حافز	-11.6393
▁حەوتەمین	-11.6393
▁خالد	-11.6393
▁سوننی	-11.6393
▁سەرژمێریی	-11.6393
▁لێڤەرپول	-11.6393
▁لەجیهانی	-11.6393
▁لەمەسەلەی	-11.6393
▁وایکردوە	-11.6393
▁وردتر	-11.6393
▁بخاته	-11.6405
▁بەدیدەکرێت	-11.6405
▁جەڵتەی	-11.6405
▁نار	-11.6405
▁وتارێک	-11.6405
▁چارەسەرە	-11.6405
▁ئیعدام	-11.6418
▁قورئاندا	-11.6418
▁ناڵێت	-11.6418
▁نەکراوه	-11.6418
▁هاوکاتیش	-11.6418
▁هۆیەکی	-11.6418
▁ڕوداو	-11.6418
▁ڕێگەیە	-11.6418
▁ئاکەپە	-11.6431
▁خوێندکارە	-11.6431
▁خۆپیشاندانیان	-11.6431
▁دیارکر	-11.6431
▁دەگرم	-11.6431
▁شانە	-11.6431
▁پارێزگاو	-11.6431
▁پڕن	-11.6431
▁چۆمانی	-11.6431
▁کاتەکانی	-11.6431
▁گەڵا	-11.6431
▁ئامێرێکی	-11.6443
▁جۆزێف	-11.6443
▁دهۆکی	-11.6443
▁سادەی	-11.6443
▁شکۆی	-11.6443
▁شەق	-11.6443
▁لەسەد	-11.6443
▁مار	-11.6443
▁نموونەیەک	-11.6443
▁هەمەلایەنەی	-11.6443
▁ڕەخنەیەکی	-11.6443
▁أو	-11.6456
▁ببم	-11.6456
▁بەسەری	-11.6456
▁تیدا	-11.6456
▁جیاوازو	-11.6456
▁لەئێمە	-11.6456
▁ناخۆشە	-11.6456
▁نەوتییەکان	-11.6456
▁ووڵاته	-11.6456
▁یو	-11.6456
▁باوەڕمان	-11.6468
▁دیدارو	-11.6468
▁شەقامە	-11.6468
▁فێرکاری	-11.6468
▁هەستیارە	-11.6468
▁وانی	-11.6468
▁ڕەوانەکردنی	-11.6468
▁کل	-11.6468
▁کەرکوکە	-11.6468
▁اە	-11.6481
▁سوننەی	-11.6481
▁شمشێر	-11.6481
▁وەرنەگرتووە	-11.6481
▁کەوتووەتە	-11.6481
▁گەورەن	-11.6481
▁بڵاوکردنەوە	-11.6494
▁تێڕامان	-11.6494
▁تەمەنم	-11.6494
▁دابەزیوە	-11.6494
▁دروستبکرێت	-11.6494
▁زانستییەکان	-11.6494
▁سۆشیالیستی	-11.6494
▁لێکردووە	-11.6494
▁مشتومڕی	-11.6494
▁میلانی	-11.6494
▁ناوم	-11.6494
▁هاوڕێم	-11.6494
▁هۆز	-11.6494
▁پێوانەیی	-11.6494
▁پەیوەندییانە	-11.6494
▁ڕابگەیەنن	-11.6494
▁باوکان	-11.6506
▁بووبن	-11.6506
▁بڕیاردەری	-11.6506
▁جگەلەوەش	-11.6506
▁سودێکی	-11.6506
▁سۆزو	-11.6506
▁شەپۆلێکی	-11.6506
▁قائید	-11.6506
▁مینی	-11.6506
▁ناچارە	-11.6506
▁ڕاپۆرته	-11.6506
▁کابرای	-11.6506
▁گوتبووی	-11.6506
▁گەشتیاریی	-11.6506
▁August	-11.6519
▁This	-11.6519
▁ئابوورییەکان	-11.6519
▁بتوانی	-11.6519
▁بزووتنەوەیە	-11.6519
▁بەکارهێنان	-11.6519
▁جاک	-11.6519
▁دیکتاتۆرییەتی	-11.6519
▁سەرسوڕمان	-11.6519
▁ناڕاست	-11.6519
▁وردەکاریی	-11.6519
▁وشیاری	-11.6519
▁وەخت	-11.6519
▁پێشمەرگەکان	-11.6519
▁چار	-11.6519
▁ڕومادی	-11.6519
▁کاته	-11.6519
▁ئارەزوی	-11.6532
▁بەرزانی	-11.6532
▁خواز	-11.6532
▁دەگونجێت	-11.6532
▁عەرەبییە	-11.6532
▁عەرەبەکانی	-11.6532
▁ناوبانگ	-11.6532
▁پارەکە	-11.6532
▁پارەکەی	-11.6532
▁پێشمەرگەیەک	-11.6532
▁پەیوەندیەکان	-11.6532
▁کێشەکه	-11.6532
▁کەوابوو	-11.6532
▁گوزەر	-11.6532
▁net	-11.6544
▁ئاسۆیەکی	-11.6544
▁ئامێز	-11.6544
▁ئەنجامێک	-11.6544
▁ئەکتەره	-11.6544
▁بدەمەوە	-11.6544
▁بەهەردوو	-11.6544
▁دیوێکی	-11.6544
▁سعودیا	-11.6544
▁مەعریفەی	-11.6544
▁نیوزی	-11.6544
▁هاوخەمی	-11.6544
▁هەلەو	-11.6544
▁ڕیاز	-11.6544
▁ئەندێشەی	-11.6557
▁بۆچوونێکی	-11.6557
▁بەخوێنی	-11.6557
▁دروستکراون	-11.6557
▁دەردەخەن	-11.6557
▁دەنووسم	-11.6557
▁دەگەیەنن	-11.6557
▁سیاسەتمەدارانی	-11.6557
▁سێشەممەی	-11.6557
▁شوکر	-11.6557
▁فازل	-11.6557
▁چالاکییه	-11.6557
▁تێکۆشەری	-11.657
▁حاڵەتدا	-11.657
▁لەناویاندا	-11.657
▁هەردوکیان	-11.657
▁چاکتر	-11.657
▁ئاوارەیی	-11.6583
▁بەرنامەیەک	-11.6583
▁بەپـێی	-11.6583
▁ترم	-11.6583
▁دەژیت	-11.6583
▁سەیرو	-11.6583
▁لیۆنێل	-11.6583
▁مادەیە	-11.6583
▁هەرەشەی	-11.6583
▁پرەنسیپەکانی	-11.6583
▁ڕێوە	-11.6583
▁کۆنتڕۆڵکردنی	-11.6583
▁کەمتەرخەم	-11.6583
▁جنێو	-11.6595
▁سەردەمێک	-11.6595
▁لەمێژوودا	-11.6595
▁ناحیە	-11.6595
▁نێوانمان	-11.6595
▁پەنجەرەی	-11.6595
▁ڤیدیۆ	-11.6595
▁دوودڵی	-11.6608
▁غەیری	-11.6608
▁مۆری	-11.6608
▁نەزان	-11.6608
▁هیگل	-11.6608
▁February	-11.6621
▁d	-11.6621
▁ئیخوانەکان	-11.6621
▁بنەماڵەیی	-11.6621
▁تیپەکەی	-11.6621
▁جێگیری	-11.6621
▁خۆشتر	-11.6621
▁دادگاکان	-11.6621
▁دەستگیربکەن	-11.6621
▁سیاسیەی	-11.6621
▁میرۆ	-11.6621
▁هەلبژاردنی	-11.6621
▁پاشگەز	-11.6621
▁پێکهاتنی	-11.6621
▁چاوت	-11.6621
▁ڕێکوپێک	-11.6621
▁کێڵگە	-11.6621
▁کەئەمە	-11.6621
▁ئەکتەرەکان	-11.6634
▁بڕۆین	-11.6634
▁جیاوازەکاندا	-11.6634
▁جیهانیەکان	-11.6634
▁دەستکرد	-11.6634
▁پـۆلیس	-11.6634
▁کارل	-11.6634
▁کونسوڵخانەی	-11.6634
▁کەنار	-11.6634
▁یەکلاکەرەوە	-11.6634
▁بخرێنە	-11.6647
▁تێکەڵاوی	-11.6647
▁داهاتووشدا	-11.6647
▁ناوەڕۆک	-11.6647
▁پیتاندنی	-11.6647
▁پەیمانگاکانی	-11.6647
▁ڕەتکردەوه	-11.6647
▁تۆوی	-11.666
▁جیاوازییەک	-11.666
▁داخراوە	-11.666
▁هیدایەت	-11.666
▁ژنانیش	-11.666
▁یشدا	-11.666
▁ئەنجامدەدەن	-11.6672
▁بارەگا	-11.6672
▁تاوەکوو	-11.6672
▁دارو	-11.6672
▁زۆرینەیان	-11.6672
▁لەسەروبەندی	-11.6672
▁لەپشتی	-11.6672
▁مەمک	-11.6672
▁پاسەوان	-11.6672
▁گومانم	-11.6672
▁بەرشەلۆنه	-11.6685
▁درێغی	-11.6685
▁عەرەبییەکان	-11.6685
▁فرۆید	-11.6685
▁فەیلەسوفی	-11.6685
▁ناسیونالیستی	-11.6685
▁ڕابوون	-11.6685
▁ڕابکێشێت	-11.6685
▁ڕونکردەوە	-11.6685
▁ئاساییش	-11.6698
▁بهێننە	-11.6698
▁حاشا	-11.6698
▁قژی	-11.6698
▁قەدەری	-11.6698
▁مانگێکی	-11.6698
▁مەدینە	-11.6698
▁نالەباری	-11.6698
▁وڵاتەو	-11.6698
▁پێشانگایەدا	-11.6698
▁گەشتێکی	-11.6698
▁ئێرانیان	-11.6711
▁اللە	-11.6711
▁شەریعەت	-11.6711
▁ماڵوێرانی	-11.6711
▁دامەزراوەیی	-11.6724
▁سوریاش	-11.6724
▁ماری	-11.6724
▁هاتونەتە	-11.6724
▁پێشمەرگەوە	-11.6724
▁ئەندێشە	-11.6737
▁بنێ	-11.6737
▁بەدر	-11.6737
▁تێڕوانینە	-11.6737
▁دوزخورماتوو	-11.6737
▁دیکەشی	-11.6737
▁دەورێکی	-11.6737
▁مانگێکە	-11.6737
▁ماڵەکانیان	-11.6737
▁نووسەره	-11.6737
▁کاریگەرییە	-11.6737
▁کوڕانی	-11.6737
▁کۆبونەوەکە	-11.6737
▁کۆمەلگا	-11.6737
▁بەرجەستەی	-11.675
▁جمهوری	-11.675
▁ستە	-11.675
▁سیاسییەکەی	-11.675
▁سەربازیەکانی	-11.675
▁قایم	-11.675
▁لیژنه	-11.675
▁مەم	-11.675
▁ناگرن	-11.675
▁نەخۆشخانەیەکی	-11.675
▁هاوپشتی	-11.675
▁پەلامار	-11.675
▁ئارادایه	-11.6763
▁ئەنجامداوەو	-11.6763
▁باڵە	-11.6763
▁بوێری	-11.6763
▁دەژمێردرێت	-11.6763
▁سەبری	-11.6763
▁قاسملوو	-11.6763
▁مخابن	-11.6763
▁مەخموور	-11.6763
▁نیگای	-11.6763
▁وەرگر	-11.6763
▁ۆژەی	-11.6763
▁یاساوە	-11.6763
▁بەختی	-11.6776
▁جگەلە	-11.6776
▁دەیزانی	-11.6776
▁زیادیکردووە	-11.6776
▁سنگی	-11.6776
▁سوارە	-11.6776
▁عەبد	-11.6776
▁چاپخانەی	-11.6776
▁چەوساوە	-11.6776
▁کلنتن	-11.6776
▁تەقاندەوە	-11.6789
▁خوداوەند	-11.6789
▁لاوازیی	-11.6789
▁نەریتێکی	-11.6789
▁نەزانێت	-11.6789
▁نەزاهە	-11.6789
▁پێشوازیان	-11.6789
▁ڕەمەزاندا	-11.6789
▁کشانەوە	-11.6789
▁گرنگترینیان	-11.6789
▁گوێڕایەڵی	-11.6789
▁ئەتلەتیکۆ	-11.6802
▁خاوی	-11.6802
▁داعشیان	-11.6802
▁داواکارییە	-11.6802
▁دەسەڵاتیش	-11.6802
▁عیزەدین	-11.6802
▁لەریزی	-11.6802
▁موسڵمانانی	-11.6802
▁ونە	-11.6802
▁پارتییە	-11.6802
▁پشتیوانیان	-11.6802
▁پەل	-11.6802
▁ڕابردوی	-11.6802
▁ڕاستییەکەی	-11.6802
▁کارمەندێکی	-11.6802
▁کۆنگرەیەدا	-11.6802
▁گواستەوە	-11.6802
▁گوایا	-11.6802
▁باشه	-11.6815
▁ببیت	-11.6815
▁بێکاران	-11.6815
▁بەقازانجی	-11.6815
▁زەحمەتکێشان	-11.6815
▁سەرزەوی	-11.6815
▁مامەڵەیەکی	-11.6815
▁منداڵیان	-11.6815
▁کارکردنە	-11.6815
▁id	-11.6828
▁ئایەتە	-11.6828
▁بابم	-11.6828
▁بەوان	-11.6828
▁تەقەکردن	-11.6828
▁جێبەجێکاری	-11.6828
▁زەویی	-11.6828
▁سیاسییان	-11.6828
▁هۆلا	-11.6828
▁پێوانەی	-11.6828
▁کاردانەوە	-11.6828
▁گەشی	-11.6828
▁ئاڵ	-11.6841
▁باخچە	-11.6841
▁بەدواداچونی	-11.6841
▁جێگایەکی	-11.6841
▁خەبەر	-11.6841
▁دیموکراتیەت	-11.6841
▁سەربازییەوە	-11.6841
▁سەرپەرشتیی	-11.6841
▁لێرەشەوە	-11.6841
▁لەبەرەی	-11.6841
▁لەتەوەرێکی	-11.6841
▁مولازم	-11.6841
▁پرۆسەیەدا	-11.6841
▁کۆنەپەرست	-11.6841
▁گەڕانەوەیان	-11.6841
▁key	-11.6854
▁ئەژین	-11.6854
▁بەشداربوونی	-11.6854
▁حەزو	-11.6854
▁دورگەی	-11.6854
▁دەرببڕن	-11.6854
▁ستانداردی	-11.6854
▁وڵاتەکانی	-11.6854
▁کوێستان	-11.6854
▁125	-11.6868
▁بەرهەمهێنەر	-11.6868
▁بەیەکێتی	-11.6868
▁دەریان	-11.6868
▁سیمبولی	-11.6868
▁لەبارەیەوە	-11.6868
▁ناوبرد	-11.6868
▁هۆشیارکردنەوەی	-11.6868
▁چۆنێتی	-11.6868
▁being	-11.6881
▁ئەوروپایی	-11.6881
▁تەختی	-11.6881
▁زەرەرمەند	-11.6881
▁شۆڕ	-11.6881
▁فڕین	-11.6881
▁نۆی	-11.6881
▁وشەو	-11.6881
▁کەسێکەوە	-11.6881
▁یارییەکەدا	-11.6881
▁بنووسێت	-11.6894
▁بەرپرسن	-11.6894
▁بەشدارییەکی	-11.6894
▁توێژەر	-11.6894
▁دەزانیت	-11.6894
▁زەحمەتکێش	-11.6894
▁سیاسیانە	-11.6894
▁سێبەر	-11.6894
▁مەدالیای	-11.6894
▁وڵاتەکەدا	-11.6894
▁ژیرانە	-11.6894
▁کاریگەریەکی	-11.6894
▁گریمان	-11.6894
▁ئارێز	-11.6907
▁ئامرازێکی	-11.6907
▁تەلار	-11.6907
▁خانووە	-11.6907
▁دایکانی	-11.6907
▁دوری	-11.6907
▁سڵ	-11.6907
▁سێیەمیش	-11.6907
▁لێدوانە	-11.6907
▁لەجۆری	-11.6907
▁هێناوه	-11.6907
▁هەلومەرجێکی	-11.6907
▁وشیار	-11.6907
▁کۆمسیۆن	-11.6907
▁گۆڕینەوەی	-11.6907
▁گەشبینی	-11.6907
▁گەڕەکەکانی	-11.6907
▁ئاوەها	-11.692
▁بەجێی	-11.692
▁ستالین	-11.692
▁فراکسیۆنەکان	-11.692
▁ماده	-11.692
▁ناگۆڕێت	-11.692
▁وردەکارییەکانی	-11.692
▁ڕۆژیش	-11.692
▁گەورەیەو	-11.692
▁یارمەتیدەر	-11.692
▁ئاستەکانی	-11.6934
▁سووتان	-11.6934
▁لەندەنی	-11.6934
▁ناسین	-11.6934
▁ڕیفۆرمی	-11.6934
▁یانەکەمان	-11.6934
▁ئەوها	-11.6947
▁بوێرانە	-11.6947
▁بەجێبەجێکردنی	-11.6947
▁بەرپرسێ	-11.6947
▁تەئکیدیان	-11.6947
▁داوەته	-11.6947
▁سیمایەکی	-11.6947
▁فەخری	-11.6947
▁فەزا	-11.6947
▁ڕابەرانی	-11.6947
▁ڕواندزی	-11.6947
▁سۆڤیەتی	-11.696
▁فەخامەتی	-11.696
▁نەگرتووە	-11.696
▁کێشان	-11.696
▁بهێنێتەوە	-11.6973
▁خانەوادەکەی	-11.6973
▁خودان	-11.6973
▁دەنگدەری	-11.6973
▁لەبوونی	-11.6973
▁لەمبارەوه	-11.6973
▁ماتەمینی	-11.6973
▁نووسەرێک	-11.6973
▁وانەکانی	-11.6973
▁گرووپێکی	-11.6973
▁گەریلا	-11.6973
▁گەشتە	-11.6973
▁تێدەگەین	-11.6987
▁شل	-11.6987
▁فەزایەکی	-11.6987
▁لەدۆخی	-11.6987
▁وانیە	-11.6987
▁پەروەر	-11.6987
▁ڕازیکردنی	-11.6987
▁جەنابت	-11.7
▁درەختی	-11.7
▁لێسەندنەوەی	-11.7
▁کابینەکەی	-11.7
▁کەیوان	-11.7
▁گەرمای	-11.7
▁بەگوتەی	-11.7013
▁جیادا	-11.7013
▁خۆى	-11.7013
▁دابەشکردن	-11.7013
▁لەخەڵک	-11.7013
▁مەندەلی	-11.7013
▁هەشتاکان	-11.7013
▁ژەنیاری	-11.7013
▁کانتۆنی	-11.7013
▁C	-11.7027
▁Comment	-11.7027
▁ئەمساڵەوە	-11.7027
▁خامۆش	-11.7027
▁دەداتێ	-11.7027
▁دەستبەکاربوونی	-11.7027
▁نەیار	-11.7027
▁هاتی	-11.7027
▁هونەرمەنده	-11.7027
▁هێزەکانمان	-11.7027
▁وابزانم	-11.7027
▁پێکهێنراوە	-11.7027
▁450	-11.704
▁ئامارە	-11.704
▁بووەته	-11.704
▁بەمانایەکی	-11.704
▁دەتەوێت	-11.704
▁سەروی	-11.704
▁لۆگۆی	-11.704
▁پرۆژەیاسای	-11.704
▁پەلی	-11.704
▁پەیوەندیکردن	-11.704
▁ژین	-11.704
▁یاریزانه	-11.704
▁ئەحزابی	-11.7053
▁ئەوانن	-11.7053
▁بەڵێنیان	-11.7053
▁تێچووی	-11.7053
▁دڵت	-11.7053
▁دەوڵەتەوە	-11.7053
▁سیڤیلیا	-11.7053
▁لێپێچینەوە	-11.7053
▁مەخابن	-11.7053
▁هزرو	-11.7053
▁پێکی	-11.7053
▁Please	-11.7067
▁ئاڵۆزە	-11.7067
▁ئیتاڵی	-11.7067
▁بوونەو	-11.7067
▁شەوان	-11.7067
▁لێبکەوێتەوە	-11.7067
▁لەئەوروپا	-11.7067
▁لەبوارە	-11.7067
▁نیشتەجێبوونی	-11.7067
▁هەرچ	-11.7067
▁ڕەخنەگران	-11.7067
▁ڕەوایی	-11.7067
▁enter	-11.708
▁ببەستن	-11.708
▁خێڵی	-11.708
▁دەوڵەتان	-11.708
▁شەودا	-11.708
▁لەنەخۆشخانەی	-11.708
▁مسوڵمانان	-11.708
▁میلیۆن	-11.708
▁نەبوونە	-11.708
▁ییە	-11.708
▁address	-11.7094
▁بەنرخی	-11.7094
▁تەلەفۆنیدا	-11.7094
▁جومگەکانی	-11.7094
▁دیدو	-11.7094
▁دەروونیی	-11.7094
▁سوپایەکی	-11.7094
▁نەدانی	-11.7094
▁ڕوانین	-11.7094
▁کولتووریی	-11.7094
▁API	-11.7107
▁بڵاوبونەوەی	-11.7107
▁بەنموونە	-11.7107
▁حوکوومەتی	-11.7107
▁دانوستانەکانی	-11.7107
▁دەستکردی	-11.7107
▁سورە	-11.7107
▁لەوجۆرە	-11.7107
▁هەڵدانەوەی	-11.7107
▁واقیعێکی	-11.7107
▁ڕوداوەکە	-11.7107
▁کەسانەش	-11.7107
▁کەچۆن	-11.7107
▁گەورەمان	-11.7107
▁بەشدارە	-11.712
▁خەباتێکی	-11.712
▁لەدادگای	-11.712
▁پرۆگرام	-11.712
▁چەکداران	-11.712
▁ڕاپەڕینەوە	-11.712
▁کردووم	-11.712
▁کەحکومەتی	-11.712
▁گرێی	-11.712
▁بیانوو	-11.7134
▁فەرمانگەکان	-11.7134
▁قسەکردنی	-11.7134
▁پێنجوێنی	-11.7134
▁چرای	-11.7134
▁گفتوگۆکرا	-11.7134
▁یوونایتد	-11.7134
▁plugin	-11.7147
▁تراژیدیای	-11.7147
▁دەف	-11.7147
▁سیاسەتمەداری	-11.7147
▁نفوزی	-11.7147
▁هاوسۆزی	-11.7147
▁وادیارە	-11.7147
▁پێکبهێنن	-11.7147
▁ڕێککەوتوون	-11.7147
▁Tweet	-11.7161
▁بخوێننەوە	-11.7161
▁توندوتیژ	-11.7161
▁سیما	-11.7161
▁شارەزاو	-11.7161
▁شێوەکان	-11.7161
▁وەردەگرین	-11.7161
▁پاراستووە	-11.7161
▁پێدێت	-11.7161
▁کردووین	-11.7161
▁کەئێمە	-11.7161
▁گێران	-11.7161
▁correct	-11.7174
▁settings	-11.7174
▁ئەفسەرانی	-11.7174
▁بکاو	-11.7174
▁بڵندی	-11.7174
▁خاچی	-11.7174
▁دادەنرێن	-11.7174
▁شوێنەکەی	-11.7174
▁شەهیدەکان	-11.7174
▁ڕویداوە	-11.7174
▁ڕۆژێکیان	-11.7174
▁کوێخا	-11.7174
▁گۆڤارە	-11.7174
▁ئایدۆلۆژیا	-11.7188
▁بەندیخانەی	-11.7188
▁بەپێچەوانەشەوە	-11.7188
▁دووبارەکردنەوەی	-11.7188
▁دینە	-11.7188
▁دەور	-11.7188
▁رادیۆ	-11.7188
▁زیندووە	-11.7188
▁میللەتێکی	-11.7188
▁نیشـتیمانی	-11.7188
▁نەدەدا	-11.7188
▁پێناسەیەکی	-11.7188
▁ڕیکخراوی	-11.7188
▁ڤیان	-11.7188
▁کرمانج	-11.7188
▁گوزارشتی	-11.7188
▁گۆڕستانی	-11.7188
▁ئایدۆلۆژی	-11.7202
▁بەروبوومی	-11.7202
▁بەڕێوەیە	-11.7202
▁تارانی	-11.7202
▁تاوانێک	-11.7202
▁تێکۆشەر	-11.7202
▁تەئکیدیشی	-11.7202
▁جەژنە	-11.7202
▁حیکایەتی	-11.7202
▁درێژخایەنی	-11.7202
▁سەقز	-11.7202
▁لەدایکبوون	-11.7202
▁نەرمین	-11.7202
▁پێتوایە	-11.7202
▁پەیدابوونی	-11.7202
▁چەواشەکاری	-11.7202
▁یەکسانە	-11.7202
▁spambots	-11.7215
▁ئەنجامەی	-11.7215
▁بازیان	-11.7215
▁بیکاتە	-11.7215
▁بەرەسمی	-11.7215
▁دامەزراون	-11.7215
▁ناوخۆدا	-11.7215
▁هەوڵدەدەم	-11.7215
▁ووڵاتانی	-11.7215
▁ڕایدەگەیەنن	-11.7215
▁ڕیسوا	-11.7215
▁کارت	-11.7215
▁گێم	-11.7215
▁بوومە	-11.7229
▁مسعود	-11.7229
▁هو	-11.7229
▁هۆکارەکان	-11.7229
▁هەمووانە	-11.7229
▁ڤیاریال	-11.7229
▁گوله	-11.7229
▁ئاواره	-11.7242
▁تەقینەوەکه	-11.7242
▁تەک	-11.7242
▁دایان	-11.7242
▁دروستبوو	-11.7242
▁دیو	-11.7242
▁لێواری	-11.7242
▁مومارەسەی	-11.7242
▁نەشیاو	-11.7242
▁هۆلیوودی	-11.7242
▁چێوەی	-11.7242
▁گومانیان	-11.7242
▁دەخەمە	-11.7256
▁شانازییە	-11.7256
▁لەسەرەکان	-11.7256
▁لەناوچوونی	-11.7256
▁وەردەگرت	-11.7256
▁ڕوویاندا	-11.7256
▁باشترو	-11.727
▁برەو	-11.727
▁داڕشتووە	-11.727
▁ناڵە	-11.727
▁نەبووین	-11.727
▁ڕێگایان	-11.727
▁بردنە	-11.7283
▁بەجۆرێکی	-11.7283
▁دوابخرێت	-11.7283
▁دەڵیت	-11.7283
▁عیراقێ	-11.7283
▁پوچەڵ	-11.7283
▁چارەسەریی	-11.7283
▁ڕیشە	-11.7283
▁ئایدز	-11.7297
▁ئیسلامیەکانی	-11.7297
▁جادە	-11.7297
▁دەولەت	-11.7297
▁شاعیرو	-11.7297
▁عێراقییه	-11.7297
▁قوربانییەکانی	-11.7297
▁مارسی	-11.7297
▁پشدەری	-11.7297
▁چواردەوری	-11.7297
▁چیی	-11.7297
▁ڕۆژو	-11.7297
▁کز	-11.7297
▁گوناە	-11.7297
▁گوێدانە	-11.7297
▁html	-11.7311
▁سادەترین	-11.7311
▁سودمەند	-11.7311
▁لەوەیە	-11.7311
▁وێستگەیەکی	-11.7311
▁پـێـنجشەممه	-11.7311
▁گیراون	-11.7311
▁بابەتەی	-11.7325
▁بودجەیە	-11.7325
▁خستۆته	-11.7325
▁دۆزرایەوه	-11.7325
▁سەربه	-11.7325
▁لەسەرو	-11.7325
▁نەکردووه	-11.7325
▁ڕەنجی	-11.7325
▁کادرانی	-11.7325
▁by	-11.7338
▁ئافرەتانەی	-11.7338
▁ئەزموونەکانی	-11.7338
▁بەئارەزووی	-11.7338
▁حەڵاڵ	-11.7338
▁دوورەوە	-11.7338
▁دەترسێت	-11.7338
▁سازان	-11.7338
▁سەنتەرێکی	-11.7338
▁لەخۆگرتووە	-11.7338
▁ماناکانی	-11.7338
▁ماندووبوون	-11.7338
▁نەخۆشیە	-11.7338
▁هاوکارییەکی	-11.7338
▁هەژان	-11.7338
▁پاشـان	-11.7338
▁ڕێزگرتنی	-11.7338
▁کەسدا	-11.7338
▁ئۆپۆزسیۆنە	-11.7352
▁بۆمبێک	-11.7352
▁بەسەرجەم	-11.7352
▁خەڵکەی	-11.7352
▁دەخەن	-11.7352
▁سەربازەکان	-11.7352
▁شاندەکه	-11.7352
▁لیبراڵ	-11.7352
▁لەناخی	-11.7352
▁مەرزی	-11.7352
▁مەسیحیەکان	-11.7352
▁نوێبوونەوە	-11.7352
▁هەند	-11.7352
▁کەلەلایەن	-11.7352
▁گوڵان	-11.7352
▁ئەساسی	-11.7366
▁بانی	-11.7366
▁بڕیاریاندا	-11.7366
▁بەختیاری	-11.7366
▁دەستووردا	-11.7366
▁فواد	-11.7366
▁لەشفرۆشی	-11.7366
▁ناوو	-11.7366
▁ناوەوەو	-11.7366
▁نەزانراوە	-11.7366
▁ڕێزدار	-11.7366
▁کۆدەنگی	-11.7366
▁کەئەوان	-11.7366
▁بەخاوەنی	-11.738
▁بەرامبەریان	-11.738
▁خێزانێک	-11.738
▁نوسرە	-11.738
▁پەیوەندیم	-11.738
▁چوارچێوەیەشدا	-11.738
▁ڕوسیاو	-11.738
▁بخوێنن	-11.7394
▁بهێنینەوە	-11.7394
▁جۆراوجۆرەکان	-11.7394
▁حتی	-11.7394
▁ناحیەکان	-11.7394
▁نەمتوانی	-11.7394
▁هاووڵاتییانی	-11.7394
▁ڕاپۆرتەی	-11.7394
▁کوردسـتانی	-11.7394
▁گەنجەکان	-11.7394
▁بەسەرکردەوە	-11.7408
▁تاپۆ	-11.7408
▁تیم	-11.7408
▁تەموز	-11.7408
▁خێزانەکان	-11.7408
▁مەجلیسی	-11.7408
▁نایاتە	-11.7408
▁ڕووخساری	-11.7408
▁ڕێسای	-11.7408
▁ڕێڤەبەرێ	-11.7408
▁تورکمانەکان	-11.7421
▁دەرهێنەره	-11.7421
▁دەس	-11.7421
▁مامۆستایە	-11.7421
▁نیـیه	-11.7421
▁هەنار	-11.7421
▁پشتگیریکردنی	-11.7421
▁پێبکەن	-11.7421
▁ژنانەوە	-11.7421
▁گرەنتی	-11.7421
▁العراق	-11.7435
▁بژیت	-11.7435
▁سادەیی	-11.7435
▁سعودیەو	-11.7435
▁لەژیاندا	-11.7435
▁پسپۆرانی	-11.7435
▁ئەڵقەی	-11.7449
▁خزمەتگوزارییە	-11.7449
▁داستان	-11.7449
▁درێژەدا	-11.7449
▁لەکارکێشانەوەی	-11.7449
▁میشێل	-11.7449
▁ناگەڕێتەوە	-11.7449
▁هەڤاڵان	-11.7449
▁پەکخستنی	-11.7449
▁ڕاپۆرتەدا	-11.7449
▁ژینگه	-11.7449
▁کانیان	-11.7449
▁ڵی	-11.7449
▁برینداربووە	-11.7463
▁بەیروت	-11.7463
▁جیاوازیەکی	-11.7463
▁دووسەد	-11.7463
▁دەیەم	-11.7463
▁لەگەرمیان	-11.7463
▁نەخشەو	-11.7463
▁ڕۆژانەیان	-11.7463
▁گرفتەکە	-11.7463
▁یەکه	-11.7463
▁ئاوڕ	-11.7477
▁بگۆڕدرێت	-11.7477
▁سکرتارییەتی	-11.7477
▁وشەکە	-11.7477
▁گرفتێک	-11.7477
▁ئەرمەن	-11.7491
▁او	-11.7491
▁ترسێکی	-11.7491
▁دەفتەری	-11.7491
▁مەککە	-11.7491
▁نەکردبوو	-11.7491
▁ڕادەگەیەنرێت	-11.7491
▁کاردا	-11.7491
▁کوڕم	-11.7491
▁کۆمەڵەو	-11.7491
▁گوندەکە	-11.7491
▁ئاکار	-11.7505
▁بگریت	-11.7505
▁جێهێشتووە	-11.7505
▁دواڕۆژی	-11.7505
▁دوێنێش	-11.7505
▁دەستپێبکات	-11.7505
▁رۆیتەرز	-11.7505
▁عامر	-11.7505
▁لێکۆڵینەوەیان	-11.7505
▁نەوتەوە	-11.7505
▁والی	-11.7505
▁ڕایی	-11.7505
▁کاندیدە	-11.7505
▁کوردین	-11.7505
▁ەکەی	-11.7505
▁ئاشووری	-11.7519
▁ئامرازێک	-11.7519
▁فەرمانڕەوا	-11.7519
▁لەکۆمەڵگای	-11.7519
▁کەنەدی	-11.7519
▁دەمیرتاش	-11.7533
▁مافەکان	-11.7533
▁ملوانکەی	-11.7533
▁نەدان	-11.7533
▁چیرۆکەکە	-11.7533
▁کۆدەکاتەوە	-11.7533
▁کۆمیتە	-11.7533
▁شمەک	-11.7547
▁قایمقام	-11.7547
▁ماڵیان	-11.7547
▁منم	-11.7547
▁مۆدێلێکی	-11.7547
▁ڕوداوەکان	-11.7547
▁کامڵ	-11.7547
▁کتێبەدا	-11.7547
▁گوزاری	-11.7547
▁بەڕێزی	-11.7561
▁دەرزی	-11.7561
▁دەستکەوتنی	-11.7561
▁موسڵمانەکان	-11.7561
▁ناوەکانیان	-11.7561
▁وشەکانی	-11.7561
▁ڕوویەکی	-11.7561
▁کەسەیە	-11.7561
▁گرێبەستێکی	-11.7561
▁بەدروستکردنی	-11.7575
▁دەسەلا	-11.7575
▁زمانەوە	-11.7575
▁زۆرەو	-11.7575
▁سەرۆکێ	-11.7575
▁نابەجێ	-11.7575
▁پرۆسه	-11.7575
▁پەسندکرا	-11.7575
▁ڕاکردن	-11.7575
▁ڕێزلێنانی	-11.7575
▁گەورەم	-11.7575
▁1969	-11.7589
▁ئامادەنین	-11.7589
▁جای	-11.7589
▁میران	-11.7589
▁مێژووییەکان	-11.7589
▁ناوبردنی	-11.7589
▁هاتووم	-11.7589
▁هەمووتان	-11.7589
▁وابەستەی	-11.7589
▁پابەندە	-11.7589
▁پارچەیەکی	-11.7589
▁چیاکانی	-11.7589
▁گرفتانەی	-11.7589
▁ئەستێرەکان	-11.7604
▁بەغدادا	-11.7604
▁بەڵگەیە	-11.7604
▁تێپەڕاندووە	-11.7604
▁خۆمی	-11.7604
▁لەئەمریکا	-11.7604
▁نامەیە	-11.7604
▁وەیان	-11.7604
▁پاسداران	-11.7604
▁پزیشکەکان	-11.7604
▁پۆلیسێک	-11.7604
▁چرا	-11.7604
▁ڕۆژنامەیە	-11.7604
▁ئالا	-11.7618
▁بزوتنەوەکە	-11.7618
▁بسەپێنن	-11.7618
▁بەناوەکانی	-11.7618
▁سەیرتر	-11.7618
▁شێوەو	-11.7618
▁شەوێکی	-11.7618
▁لێژنەیەکی	-11.7618
▁مۆرکردنی	-11.7618
▁ناخ	-11.7618
▁هاوبەشەکان	-11.7618
▁هیوایەی	-11.7618
▁چاککردنەوەی	-11.7618
▁کردبووە	-11.7618
▁کیمیابارانکردنی	-11.7618
▁تاجی	-11.7632
▁سووتاندنی	-11.7632
▁شرۆڤەی	-11.7632
▁لەباربردنی	-11.7632
▁مامۆستایەک	-11.7632
▁ململانێکانی	-11.7632
▁نەخۆشیەکانی	-11.7632
▁هەردوولادا	-11.7632
▁چاوپێکەوتنێکی	-11.7632
▁ڕاسپاردەکانی	-11.7632
▁گڕی	-11.7632
▁یادگار	-11.7632
▁ئەرستۆ	-11.7646
▁بازاڕە	-11.7646
▁بکرێته	-11.7646
▁خۆکوژ	-11.7646
▁غەمگین	-11.7646
▁لەخاکی	-11.7646
▁لەموسڵ	-11.7646
▁هاوسەرگیریی	-11.7646
▁کۆڵ	-11.7646
▁بازنە	-11.766
▁جووڵەی	-11.766
▁سووتانی	-11.766
▁ملکەچ	-11.766
▁مینێکی	-11.766
▁کوتلەکان	-11.766
▁کەئەویش	-11.766
▁1945	-11.7675
▁ئێراقدا	-11.7675
▁بەئەنجامی	-11.7675
▁بەحکومەتی	-11.7675
▁تەمەنێکی	-11.7675
▁داناوەو	-11.7675
▁سعودییە	-11.7675
▁سەرمایەگوزاری	-11.7675
▁لاتین	-11.7675
▁نیوەر	-11.7675
▁پاڵپشتیی	-11.7675
▁ڕاپۆرتێکدا	-11.7675
▁ڕۆژنامەنووسە	-11.7675
▁کۆچەر	-11.7675
▁کێتی	-11.7675
▁یەکەو	-11.7675
▁ئەهلییەکان	-11.7689
▁بۆشایییە	-11.7689
▁بەرپرسێک	-11.7689
▁بەزاندنی	-11.7689
▁تێزی	-11.7689
▁تێکڕا	-11.7689
▁دڵنیاین	-11.7689
▁دەقەکە	-11.7689
▁زۆریی	-11.7689
▁سزادان	-11.7689
▁عەبدولر	-11.7689
▁عەبدولواحید	-11.7689
▁مەبە	-11.7689
▁مەقام	-11.7689
▁نیگار	-11.7689
▁وروژاندنی	-11.7689
▁کتێبخانە	-11.7689
▁کۆنەوە	-11.7689
▁کیمیا	-11.7689
▁بەفەرمانی	-11.7703
▁تێگەیشتنێکی	-11.7703
▁دۆزینەوە	-11.7703
▁نێوخۆیی	-11.7703
▁هەماهەنگیی	-11.7703
▁چواردە	-11.7703
▁کلیکی	-11.7703
▁September	-11.7717
▁ئۆرگانی	-11.7717
▁بڵاودەکرێتەوە	-11.7717
▁بەشانی	-11.7717
▁بەکاردەهێنێت	-11.7717
▁خاڵه	-11.7717
▁شاعیرێک	-11.7717
▁شەڕەدا	-11.7717
▁فورات	-11.7717
▁میکانیزمێکی	-11.7717
▁هەنووکەیی	-11.7717
▁هەنگاوانەی	-11.7717
▁وت	-11.7717
▁پەنجەکانی	-11.7717
▁کارەوە	-11.7717
▁گورگ	-11.7717
▁بریتییه	-11.7732
▁دادەنێ	-11.7732
▁دەدۆزێتەوە	-11.7732
▁دەستگیرکردووە	-11.7732
▁ستەمکار	-11.7732
▁عەبدولستار	-11.7732
▁قووڵتر	-11.7732
▁ڕابگیرێت	-11.7732
▁for	-11.7746
▁ئاراستەیەکی	-11.7746
▁ئەسپی	-11.7746
▁بیرکردنەوەیە	-11.7746
▁دۆستان	-11.7746
▁سەرهەنگ	-11.7746
▁فاشیزمی	-11.7746
▁لایەنەکەی	-11.7746
▁وەزیرانەوە	-11.7746
▁پاکتاوی	-11.7746
▁پێوەرێک	-11.7746
▁کۆندا	-11.7746
▁ئابووریدا	-11.776
▁باوەڕە	-11.776
▁بهێنه	-11.776
▁بڕوایەی	-11.776
▁بەسەرکردنەوەی	-11.776
▁بەهرە	-11.776
▁خستەر	-11.776
▁خوارەوەو	-11.776
▁داعشە	-11.776
▁دژایەتیی	-11.776
▁فاکتەرە	-11.776
▁مەزاری	-11.776
▁نوسی	-11.776
▁هاولاتیان	-11.776
▁پای	-11.776
▁پێبێت	-11.776
▁’	-11.776
▁بەسترا	-11.7775
▁بەنزینی	-11.7775
▁تارادەیەک	-11.7775
▁دیدارە	-11.7775
▁دیزاین	-11.7775
▁سەرێ	-11.7775
▁شایی	-11.7775
▁شڤان	-11.7775
▁عەبدولغەفار	-11.7775
▁قێزەون	-11.7775
▁قەرەداخی	-11.7775
▁لەلایەنە	-11.7775
▁میدیاو	-11.7775
▁هەرچییەک	-11.7775
▁پلانەکانی	-11.7775
▁چالاکوانان	-11.7775
▁یاداشتی	-11.7775
▁ئایدۆلۆژیای	-11.7789
▁ئەڵمانیاو	-11.7789
▁ابراهیم	-11.7789
▁خۆشحاڵیی	-11.7789
▁دەخوێنێتەوە	-11.7789
▁دەموچاوی	-11.7789
▁هۆنراوە	-11.7789
▁هەڵه	-11.7789
▁وەکه	-11.7789
▁پیلانە	-11.7789
▁پێناچێت	-11.7789
▁کوردستانێکی	-11.7789
▁کگم	-11.7789
▁دادگاوە	-11.7804
▁دووانیان	-11.7804
▁فرانک	-11.7804
▁قەرزەکانی	-11.7804
▁لیستێک	-11.7804
▁پـۆلیسی	-11.7804
▁ڕۆمانیا	-11.7804
▁کارلۆس	-11.7804
▁گەواهی	-11.7804
▁یەکخستنەوەی	-11.7804
▁ئاماژەش	-11.7818
▁بەرەوە	-11.7818
▁دورە	-11.7818
▁دڵنیابوون	-11.7818
▁دەربری	-11.7818
▁شارستانیەتی	-11.7818
▁لەسالانی	-11.7818
▁لەولاتی	-11.7818
▁نزیکبوونەوە	-11.7818
▁هەوڵێکە	-11.7818
▁پاسپۆرتی	-11.7818
▁پێناوەشدا	-11.7818
▁ڕووتی	-11.7818
▁ئێکەتیا	-11.7833
▁بانە	-11.7833
▁ببەین	-11.7833
▁بگەنه	-11.7833
▁ترن	-11.7833
▁تیرۆریستە	-11.7833
▁دێر	-11.7833
▁دەهاتن	-11.7833
▁ناڤ	-11.7833
▁پاسپۆرت	-11.7833
▁ڕێکەوتنێکی	-11.7833
▁گۆری	-11.7833
▁بداتێ	-11.7847
▁بکوژێت	-11.7847
▁بەڵگەنامە	-11.7847
▁توانیی	-11.7847
▁حەزدەکەم	-11.7847
▁شکستیان	-11.7847
▁لاریجانی	-11.7847
▁ناودارترین	-11.7847
▁١٠	-11.7847
▁پاشماوەکانی	-11.7847
▁پرۆسەکانی	-11.7847
▁ئێوەو	-11.7862
▁ئەنفالکراوەکانی	-11.7862
▁بەبەرچاوی	-11.7862
▁بەزوویی	-11.7862
▁دەپرسین	-11.7862
▁زاراوە	-11.7862
▁شدا	-11.7862
▁ظ	-11.7862
▁فیرقەی	-11.7862
▁لەبارودۆخی	-11.7862
▁هەوڵانە	-11.7862
▁پەشێو	-11.7862
▁کاتانەی	-11.7862
▁کاتەش	-11.7862
▁بردۆتەوە	-11.7876
▁بەسوود	-11.7876
▁جێگایەک	-11.7876
▁دادێت	-11.7876
▁ری	-11.7876
▁شوفێری	-11.7876
▁عەلەوی	-11.7876
▁مامی	-11.7876
▁پادشای	-11.7876
▁پڕی	-11.7876
[...]
