[PAD]
[UNK]
[CLS]
[SEP]
[MASK]
!
"
#
$
%
&
'
(
)
*
+
,
-
.
/
0
1
2
3
4
5
6
7
8
9
:
;
<
=
>
?
@
A
B
C
D
E
F
G
H
I
J
K
L
M
N
O
P
Q
R
S
T
U
V
W
X
Y
Z
[
\
]
^
_
`
a
b
c
d
e
f
g
h
i
j
k
l
m
n
o
p
q
r
s
t
u
v
w
x
y
z
{
|
}
~
¡
£
§
¨
©
«
¬
®
°
±
²
³
´
µ
·
¸
¹
º
»
¼
½
¾
¿
×
Ø
ß
æ
÷
ø
ħ
ı
ł
œ
Ƈ
ƒ
ƥ
Ʀ
ǁ
ǆ
ǈ
Ǌ
Ǥ
Ȥ
ȥ
ɑ
ɒ
ɔ
ə
ɛ
ɪ
ɽ
ʁ
ʇ
ʉ
ʌ
ʐ
ʒ
ʘ
ʠ
ʡ
ʤ
ʥ
ʦ
ʪ
ʮ
ʷ
ʿ
ˆ
ˈ
ˉ
ˌ
ˍ
˚
Α
Δ
Ε
Η
Κ
Μ
Π
Ρ
Φ
Ω
α
β
γ
δ
ε
ζ
η
θ
ι
κ
λ
μ
ν
ξ
ο
π
ρ
ς
σ
τ
υ
φ
χ
ψ
ω
ϐ
Ϙ
Ϡ
ϡ
Ϥ
ϥ
Ϧ
Ͽ
А
Б
В
Г
Д
Е
Ж
З
И
К
Л
М
Н
О
П
Р
С
Т
У
Ф
Х
Ч
Ш
Щ
Ю
Я
а
б
в
г
д
е
ж
з
и
к
л
м
н
о
п
р
с
т
у
ф
ц
ч
ш
щ
ъ
ы
ь
э
ю
я
є
і
ј
џ
Ѡ
ѣ
Ѥ
ѥ
Ѧ
Ѫ
ҁ
Ґ
ґ
Ғ
Ҙ
Ҡ
Ҥ
ҥ
Ҧ
Ӈ
ӊ
ӏ
Ә
Ӡ
ӡ
Ө
ԇ
Ԋ
ԍ
Ԙ
ԟ
Ԡ
ԥ
Ԧ
Հ
ա
ե
յ
ն
ր
א
ב
ג
ד
ה
ו
ז
ח
ט
י
ך
כ
ל
ם
מ
ן
נ
ס
ע
פ
צ
ק
ר
ש
ת
״
،
؛
؟
ء
ا
ب
ة
ت
ث
ج
ح
خ
د
ذ
ر
ز
س
ش
ص
ض
ط
ظ
ع
غ
ـ
ف
ق
ل
م
ن
ه
و
ى
ي
٠
١
٢
٣
٤
٥
٦
٧
٨
٩
٪
٭
ٱ
ٶ
پ
چ
ڇ
ڎ
ڕ
ژ
ڤ
ڦ
ڨ
ک
گ
ڵ
ھ
ہ
ۆ
ۈ
ۊ
ی
ێ
ۏ
ې
۔
ە
۞
ۥ
ۦ
۩
۰
۱
۲
۳
۷
۸
۹
ܐ
ܒ
ܘ
ܝ
ܠ
ܢ
ܩ
ܪ
ݒ
ݠ
ݥ
ݦ
ޏ
ޠ
ޥ
߇
ߎ
ߑ
ߠ
ߥ
ߦ
ং
ব
ল
া
ท
ย
ไ
ລ
ວ
າ
་
ག
ད
བ
ཡ
ა
თ
ი
ლ
რ
უ
ქ
ᄀ
ᄃ
ᄋ
ᄒ
ᅡ
ᅥ
ᅩ
ᅮ
ᅵ
ᆨ
ᆫ
ᆼ
ᇣ
ᇦ
ማ
ር
ት
ኛ
አ
ግ
ᓦ
ខ
ម
រ
ែ
᠈
᠟
ᠥ
ᥝ
ᥠ
ᦌ
ᦣ
–
—
‘
’
‚
“
”
„
†
•
…
″
‹
›
‼
⁄
₁
₂
₃
₤
€
ℓ
™
←
∆
∙
∷
≈
≡
□
►
▼
◀
◄
◊
●
◦
☿
♣
❊
》
㇍
㇎
㇡
㇤
㈦
㏇
㑦
㠆
㠍
㠐
㠑
㠞
㠡
㠥
㠦
㣥
㥝
㥠
㦓
㦣
䇏
䇑
䇣
䇤
䇦
䌇
䏇
䏥
䐇
䑇
䒦
䘠
䝿
䠈
䠏
䠟
䠡
䠣
䠦
䤠
䥝
䥠
䥦
䦣
䮠
䮼
中
健
再
凊
凝
処
動
勧
化
告
呠
坁
坊
坍
坎
坏
坐
坑
坓
坘
坝
坟
坠
坡
坣
坤
坦
坿
堁
堆
堈
堊
堍
堎
堏
堐
堑
堒
堓
堟
堠
堡
堣
堤
堥
堦
夑
奝
妣
宊
宠
康
建
愛
懑
懓
懠
懣
懤
懦
戥
戦
抑
护
报
抦
揇
摏
摥
摦
撦
攥
教
文
最
栁
栆
栈
栊
栌
栏
栓
栝
栟
栠
校
栦
椠
椢
椥
楝
楠
楡
楮
榏
榓
榠
榣
榦
殉
源
神
粵
者
行
試
語
資
転
運
道
集
﴾
﴿
１
２
３
４
５
６
７
##ە
##ک
##و
##ژ
##ێ
##ن
##ه
##ر
##ت
##ج
##ا
##د
##ی
##ش
##خ
##م
##ب
##ق
##ز
##ل
##ۆ
##س
##گ
##ڵ
##ح
##پ
##ف
##ڕ
##ع
##ـ
##ث
##ڤ
##ي
##a
##i
##k
##r
##b
##o
##l
##q
##s
##y
##t
##e
##d
##چ
##ى
##w
##n
##غ
##ض
##9
##5
##3
##7
##0
##2
##m
##u
##g
##ء
##ص
##8
##6
##h
##A
##O
##1
##4
##ة
##v
##c
##×
##f
##٧
##ط
##P
##K
##I
##T
##z
##j
##٩
##p
##S
##C
##ß
##١
##¬
##x
##ظ
##R
##V
##N
##E
##L
##٥
##ذ
##D
##H
##Q
##Y
##ı
##٨
##٣
##٠
##J
##M
##W
##B
##X
##₂
##٢
##٤
##ε
##γ
##α
##λ
##ο
##ρ
##U
##υ
##G
##µ
##F
##٦
##Ω
##Z
##у
##л
##ь
##т
##р
##ы
##ٱ
##❊
##¹
##ۊ
##ψ
##ι
##ς
##מ
##ר
##ו
##ן
##™
##ѥ
##°
##€
##ߑ
##ʥ
##ʌ
##ʒ
##ɪ
##ۈ
##о
##ш
##е
##в
##и
##к
##䠟
##я
##с
##䠡
##坠
##ᇦ
##䥠
##ߥ
##Ʀ
##ۥ
##ω
##μ
##κ
##η
##ᥠ
##ȥ
##ٶ
##ξ
##ν
##δ
##ד
##ש
##₃
##榣
##д
##а
##з
##м
##г
##ч
##䮼
##ማ
##ር
##ኛ
##ʠ
##н
##ц
##ј
##א
##ל
##楝
##º
##ф
##宠
##㥠
##ґ
##Ǥ
##Ϥ
##χ
##˚
##◦
##堦
##ח
##И
##Ш
##К
##Е
##σ
##ƥ
##כ
##י
##ם
##Ϧ
##堐
##楠
##Ԡ
##䒦
##۷
##π
##ƒ
##ʡ
##ת
##ט
##ה
##ԟ
##堟
##䥝
##䑇
##䦣
##堈
##Ѧ
##♣
##ԥ
##建
##ڎ
##堡
##㠐
##懓
##ʤ
##坦
##ߦ
##Ϡ
##坤
##ø
##堣
##●
##堍
##堤
##䏇
##ʦ
##щ
##榠
##妣
##Ƈ
##߇
##㏇
##榓
##ᥝ
##ʿ
##ܪ
##ܒ
##ܝ
##ܠ
##τ
##教
##者
##Δ
##榏
##ᇣ
##ł
##坏
##ڨ
##㠥
##θ
##³
##ג
##Ӈ
##б
##䏥
##ʇ
##ᦣ
##ϥ
##´
##ə
##ۦ
##⁄
##э
##←
##䇦
##楮
##ϡ
##۲
##堒
##Ә
##ע
##Ԙ
##ܘ
##ܢ
##ܐ
##ǆ
##נ
##ݦ
##ב
##ម
##ែ
##រ
##®
##堏
##懠
##ԇ
##Ѡ
##戦
##運
##転
##懤
##ท
##ย
##㠆
##Ѫ
##坣
##坎
##Ǌ
##۞
##æ
##椥
##Ґ
##坊
##ᅩ
##ᆼ
##ᄋ
##ᅵ
##康
##۰
##φ
##ʷ
##ې
##າ
##ວ
##ھ
##ߠ
##栆
##抦
##㈦
##ǈ
##摏
##揇
##栟
##Ԋ
##文
##㠍
##㥝
##坝
##і
##ޠ
##奝
##ӊ
##ግ
##β
##ъ
##榦
##п
##ޥ
##㦣
##䠏
##У
##Р
##Д
##С
##А
##Я
##ݥ
##坑
##ޏ
##ա
##յ
##ե
##ր
##ն
##ہ
##Φ
##栓
##堑
##Ҧ
##堓
##源
##ߎ
##䠦
##☿
##道
##П
##О
##動
##愛
##坟
##ю
##集
##ס
##䮠
##ז
##ק
##ག
##ʮ
##ა
##რ
##თ
##უ
##ლ
##ი
##۸
##۹
##堆
##۱
##²
##坓
##坿
##㠦
##㇎
##Ϙ
##◀
##椠
##∆
##œ
##Ж
##₁
##宊
##堁
##ѣ
##堊
##ˉ
##¸
##䠣
##攥
##懦
##化
##坘
##㇤
##Ԧ
##В
##ҁ
##ᠥ
##摦
##▼
##䤠
##坐
##告
##џ
##䠈
##Ҡ
##栝
##ᦌ
##摥
##ݒ
##Ҙ
##栈
##椢
##䇤
##ӡ
##戥
##া
##ং
##ল
##堠
##校
##䐇
##坡
##ϐ
##ᅡ
##ᆫ
##ᄀ
##ᅮ
##ᆨ
##ᅥ
##懣
##М
##Л
##ད
##語
##Ø
##栌
##䘠
##报
##۳
##פ
##ان
##ەو
##ەر
##ەک
##ەی
##ار
##وو
لە
##انی
##او
##ەن
##ای
##ەم
##ست
بە
##رد
##ات
##ەت
##ێک
##ێت
##نی
##ام
##ەوە
##دا
##ەڵ
##ری
يەو
بۆ
دە
کە
##یی
##ێن
##اری
سەر
##ین
کو
##ەکانی
##ەب
##ێر
##اڵ
##اس
##ەند
يەم
بەر
کورد
##ێو
##شت
##یان
##ەکان
##اد
هەر
##اک
##ەتی
##از
کۆ
##ێکی
##کرد
له
خۆ
##اب
##ەل
##ێم
پێ
##ۆر
##ەوەی
##یر
##کی
##ەش
##ەز
##ەری
##راو
##ەد
##مان
##ەکی
##سی
دەک
##سەر
##اند
##تی
##ستان
کرد
##وون
یەک
##ون
ڕۆ
##ستی
##گەی
##لی
##ەڕ
##شی
ناو
بک
##ێز
##اق
##رێت
کوردستان
دی
##انە
##ەیە
##ووە
##ەکەی
يە
خو
##اتی
##وم
##ەنگ
##اش
هەم
##انەی
##ایی
هەڵ
20
کۆم
سی
##ەنی
يی
دەب
دو
##ۆک
دەر
##ال
##ەکە
به
##رۆ
##ێراق
ڕۆژ
##رو
##ەخ
##ەوت
گو
##گر
ڕا
##یش
##ۆن
##ەس
دەست
##بەر
##وان
کار
بەڵ
دا
پێش
عێراق
##ەنج
لەو
##ۆی
##ێژ
##دی
##ەه
دوو
##اسی
##ێی
لەسەر
يا
##ور
##اڵی
##ەست
بوو
هاو
پار
هەو
وەک
لەگ
##ییە
خۆی
زۆر
##کردنی
##وک
##ارد
##زی
يام
##را
يەوەی
##امی
نو
##ایە
##گەر
##یل
##ێش
لەگەڵ
##ارە
##ێست
##کردن
##ڕی
هەرێم
##اوی
هەموو
##اوە
لەم
##می
پەی
کەس
##رین
##ەیەکی
##کە
يەنج
بەش
جی
##هێن
لای
##شتی
##وانی
##ایەتی
##مانی
##ێب
حک
پەر
دەبێت
بەڵام
کۆمەڵ
ڕوو
گر
من
201
##ید
نی
که
##نام
بەه
##گای
چەند
##ارەی
##ەف
دەکات
##ەمان
##تر
##ەوه
هی
##ەق
##ێد
##گەیاند
##ۆڕ
##ازی
نێو
تا
يەوە
خەڵ
حکوم
##ڵات
##اف
##یست
##ەندی
نا
##بوو
##ەدا
وەز
بن
##دو
##ۆکی
سو
هەیە
يێست
بو
##ایب
##ەین
یان
بێ
##ۆم
زی
##دار
##گرت
##ڕۆ
##گی
پێو
##ەیەک
ڕێک
##ووی
##کەوت
##نە
بێت
لەن
##بوون
##ژی
دەس
##ۆری
##یە
کات
##راوە
##گە
##ەمی
نەب
يێم
##ڵی
##رسی
##رس
داو
##ەیان
يەگەر
ڕێ
##وت
بکات
##زب
هێز
يیس
بەڕ
مو
##است
##اریی
##اتر
##خو
هەڵب
##وە
##ەلی
ياز
کەم
ساڵ
هیچ
سیاسی
##ادی
##دە
هەرێمی
##ەور
##ێتی
فەر
##لای
وڵات
##ەکرد
هەرو
##هات
##ۆت
##ووری
پێک
##نەوەی
##ۆز
##دان
##ەها
##دەو
درو
هات
##دانی
##ینی
دوای
سەرۆک
لەک
وەر
مان
سەرۆکی
دەو
گوتی
لەب
##ژارد
ياس
##ەج
یاس
يێستا
نییە
کاری
200
##یستی
##ییەکان
خۆیان
سیاس
بوون
با
چون
شێو
يای
پەرل
##یری
##اتە
گەور
يێر
تایب
هەول
مرۆ
شار
##کا
می
کێش
ياو
ناوچ
##ۆش
##ستانی
بار
##ێنی
لایەن
پەیو
##وونی
تور
بڕی
دروست
لەبەر
##ەتە
دەکەن
خوێن
##جی
##ۆڵ
بەد
بەو
هەڵبژارد
##ووس
بەک
دەڵ
کەر
تەنی
##یت
##اژ
بڵ
##ییەکانی
##ەرم
##وار
مرۆڤ
ڕای
دەسەڵ
##ەپ
تر
بکەن
نەت
##زانی
چاو
داب
هەولێر
هەروەها
دەنگ
##ەیی
##گیر
هەب
##ێتەوە
##کو
بد
##گری
زیاتر
##لێم
چونکە
حکومەتی
لەلای
##ۆل
##ێری
##پی
ال
##حم
##چی
سەرب
تەنیا
##وور
جیه
بەسەر
نەک
##کەی
##الی
لێ
##یزب
بەم
پێویست
##داری
##وب
##کاری
لەه
##ود
ڕۆژنام
يێمە
19
هون
##خۆ
ڕێکخ
##نەوە
يەند
ساڵی
هە
سلێم
يیسل
يەنجام
کۆن
تەو
بەپ
پارێز
داد
##کر
ڕاگەیاند
ماف
ڕاب
##اوەی
يێران
##ۆنی
##وس
یاری
بب
ياماد
بەت
ژن
يۆ
##یانی
دەد
تورکی
##ەوێت
سلێمانی
مام
جێ
در
گۆڕ
پاش
حیزب
##ەتەوە
تێ
یەکەم
نە
جۆر
##زم
##ەکانیان
ژم
##اران
ياماژ
بیر
کوردی
دەکرێت
زان
دەگ
کر
دەوڵ
ناک
بووە
پرۆ
بەرپ
##کردنەوەی
بەره
تۆ
شو
##وکر
##دەک
یەکێتی
نێوان
کردووە
پی
##کات
ڕاست
##تو
##ادا
##هێنانی
لەپ
گرن
بۆیە
##ەوەو
باش
##ەبی
پۆ
تاو
بەڕێو
10
دان
فیل
##زان
يەنجوم
لەد
تایبەت
لی
کوردستانی
هەند
يار
خەڵکی
هێن
يەمەری
يەر
نەخ
##ردنی
##ەمم
##اکانی
##ێکدا
شاری
دەت
##گو
##رێن
##راوی
##ێڕ
پێن
لەلایەن
پێی
وە
لەي
##اندنی
##امبەر
بەردەو
تاک
##وی
لەناو
دڵ
لێک
خۆش
##چاو
تی
مە
باس
خوێند
چوار
نیشت
کۆت
پارتی
ڕایگەیاند
يەنجومەنی
ڕەو
دەڵێت
عەر
##ایەت
##گا
##اغ
ڕۆژی
يەن
##دوو
بەب
نزی
بەن
##انەوە
پەرلەمان
مندا
##ڕۆژ
##وری
سن
باب
وەزار
نوێن
بکرێت
ياب
##ێل
شت
نم
کەرک
عەب
دەسەڵات
مێژ
##ەکه
شی
لەس
بەخ
##مەر
##پەڕ
يەمری
##فر
حکومەت
##اندا
##ەوی
قس
بەل
جار
ڕابرد
بری
##ووم
یانەی
خاو
گوت
جیاو
##کراو
هەندێک
##ەمانی
##وەر
بڕ
##ژم
گەی
شەڕ
باو
بەردەوام
تورکیا
هەز
خەڵک
##شن
دۆ
ياش
##ەبەر
لێد
##دەم
يەمڕۆ
وەکو
##چێت
گەر
یا
تیر
##دەی
##ڵاتی
دەرب
##تە
دیک
##داو
یەکێک
پێشمەر
بگ
##ەنگی
پل
##بوونی
##پەر
بەرهەم
##اکی
##هەڵ
کۆتایی
داوای
##ەرانی
چی
دەی
يەوان
##نەی
باڵ
دێم
گشتی
دام
##اع
سەد
بەهۆی
##خی
تری
##ەشی
سێ
وت
##ێشت
##ەمەد
پرسی
##وڵ
ڕی
سەب
بەڵکو
يەک
بی
##پانی
کەرکوک
##ێنێت
تون
##کار
يین
بەرامبەر
11
يەمە
##ەستی
##ترین
هەوڵ
گەل
تێک
ماڵ
قور
يازاد
گۆڕان
##شک
12
تۆم
ناب
مەس
دێموکر
##حمەد
باز
##تان
پەیوەند
پڕۆژ
دانی
ناوی
منداڵ
بەغ
شان
ياژ
تەم
سوپ
##بانی
يەحمەد
يیسلامی
بڵاو
2010
يەندام
يەمەریکا
هەردوو
نەتەوەی
##ەیر
عەبدو
##حەمەد
##ەکەدا
##ەکاندا
نوێ
##زگ
مەب
مەر
پاڵ
داهات
زۆری
##اه
دەستی
عێراقی
##ارەت
##ەع
تەن
##ەران
لەڕ
##شتن
چەندین
کردنی
هۆی
يەڵ
بز
يەل
دەم
##ەگ
يازادی
##ۆست
يەمەش
شێ
شوێن
ملی
بەدەست
تو
ژیان
ڕابردوو
سەرکەوت
بکەین
##تەر
وێن
2011
هەزار
نوو
##نیش
لەوە
هەڵبژاردن
بەرەو
گۆ
بر
##روپ
چۆن
##خان
چەک
ڕو
دای
وەزارەتی
شەه
زانی
بەي
وەزیر
عەلی
بەپێی
وەزیری
هەی
سەبارەت
سین
##ارەسەر
##ێبەج
##بێت
##ەتا
##بوونەوەی
پەرلەمانی
##ەوانی
پەیام
##ووت
پێویستە
لەنێو
گرت
##بار
يەد
چال
نەو
##ۆناغ
بوونی
##ایش
بارزانی
ژمارەی
##قی
##انسی
##شتر
##ورد
یەکگرت
هەڵو
بەکار
فەرمان
سیست
بەغدا
بەشی
هێر
ماوەی
##ەندە
بەشداری
چارەسەر
بەرز
##ینە
##فی
گەڕ
##00
لەش
پەیوەندی
داع
##ێڵ
##ێوە
جێبەج
دژ
##انەوەی
##یەکان
جیهانی
##ەکەیان
مافی
پرۆس
##ول
خزم
ژیانی
فر
##ونی
##انگ
نیشتمانی
محەمەد
کەل
##بەی
درێژ
گون
##کۆ
نووس
پۆلی
گوتیشی
سەرکرد
هۆک
##وانێت
دووەم
##ییەوە
يەی
گۆر
جیاواز
کاتێک
##اوو
نات
گرنگ
پڕ
##راون
##مە
##شتنی
##پەی
داعش
ناس
##گەری
##ییەکی
ڕۆشن
بەتایب
جەم
هەبێت
پشت
##اپ
سوری
ياماژەی
دامەز
##ەفت
##ینەوەی
تەق
کەوت
یاسای
14
تەواو
هەمیش
##ڵا
دیاری
قۆناغ
يەوەش
##وز
دەن
بنەم
##ەکردنی
##اقی
پیاو
ماد
##چوو
##یشاند
##ییان
دار
توان
دیکە
##حی
بەلام
15
ڕاپ
##انیش
وا
##خست
خان
شۆڕ
يەوا
هەمان
##ياو
ست
باسی
پێشک
قوت
لیژ
مامۆست
##کرا
##لم
نزیک
##کردەوە
پیر
بەرنام
چار
##ot
دەرەوەی
##ینەوە
لاو
لێر
##توگ
2012
يەمریکا
بڕیار
##اکان
خست
خۆپ
يەوەیە
##ێنێ
دیم
نەبێت
شەهید
گف
##گیری
ڕەنگ
ڕوون
کاتی
پارێزگ
دژی
##جەم
مەت
##ەلا
مەد
##یانە
##ژەو
##ێکە
بەرپرس
يەب
زین
نەد
يیسلام
##بی
دەکەین
ڕۆژنامەن
بەوە
##ۆشی
کۆمپانی
##گرن
دەیان
##اندن
موس
17
کت
هێزەکانی
هەنگ
گشت
18
##انه
ماو
خاڵ
دوور
##ایەکی
##وانن
##ایەوە
##کت
ول
##ەبەری
16
##گەیەن
کەن
دەکرد
دنی
قوتاب
کچ
خولی
ڕەخ
هاوو
##ێنن
##ایان
نام
کور
##استی
##بک
يۆپ
##رێ
##ێتە
##وود
يیم
توانی
بەرپرسی
##ەخت
ڕۆشنب
يابووری
##ێرد
فیلمی
##چوون
2009
##li
##پێک
سەرچاو
کتێب
##سیۆن
ڕژ
هەن
يەز
##ەوان
یاریی
##خواز
##جار
پەیامن
هونەرم
واتە
کردوو
تاوان
گفتوگ
هەست
ياژانسی
##ۆزی
ژێر
يامان
##گرتنی
جیهان
لیستی
##ێوەی
##ارم
بین
دەوڵەتی
بەشدار
##ێژی
عەرەب
ياستی
دەوڵەت
لەر
##رێتەوە
پارێزگای
##ند
زمان
##ایەی
کۆماری
##دەوڵ
##ێمی
خاوەن
##اتەوە
يەندامی
هاوپەی
##ەکانیش
13
تەند
کراوە
پەن
سینەم
کێشەی
##اخ
يەف
##یانەی
تایبەتی
##انەت
جەل
گەورە
سەربەخ
گەرم
تێدا
گەش
ياڵ
يایا
فیلم
تیرۆری
##چوونی
بخ
نەوت
##افی
داواک
کۆنگر
ڕاد
بڕیاری
##ەیت
ڕێکخراو
فی
حیزبی
##لا
وەڵ
بەهێز
بەرژەو
هێزی
2014
##جە
##ارەکانی
هێرش
پشتی
پێکهات
مەسەل
گەلی
##ردن
چاک
نەخۆش
##نا
برین
##بەری
دەسەڵاتی
زمانی
نەبوو
پێشکەش
ڕێگەی
يەوانەی
نەم
مەک
ژنان
يەس
##ەزی
نوێی
بت
تەندرو
پەروەر
بەس
2008
ياگ
بواری
##عر
يەویش
ناوب
نیی
میل
##ایشی
##ۆس
حەم
دیکەی
خرا
کردن
بەج
##ەکەمان
هەمیشە
کۆمەڵایەتی
ڕووداو
ناز
مێژوو
قوربانی
##سان
بەرگری
##ایەتیی
دواتر
خزمەت
یەکگرتوو
ملیۆن
خەب
دوا
گەنج
شک
جۆرە
ڕێژ
خۆم
خۆپیشاند
کەو
نەه
حەس
کام
لەبارەی
##ابوو
##کاریی
پاراست
نێودەوڵ
دەخ
##دایە
مانگ
فید
وڵاتانی
تەنانەت
##یستیڤ
سەرەت
دەدات
هەل
عەرەبی
پرۆسەی
داهاتوو
بۆی
پیش
##وونە
کۆب
يافر
ڕزگ
##انس
##ەنە
بەع
##پرس
##يەوەی
سەرەکی
يەمنی
تۆمار
مەبەست
##کەر
ڕووی
##انیان
تەواوی
هەواڵی
30
حکووم
خۆمان
##شدا
چالاک
##دوای
هێشت
کرا
دین
جگە
بابەت
##امان
سەردانی
فیستیڤ
دەنگی
هیو
سیاسیی
##لە
ڕە
قەر
##ێتیی
##دەد
##خانەی
ده
##ڤی
وش
يەنف
##ارێکی
بەشێو
هونەر
گەیشت
سوریا
مانگی
هەواڵ
تاز
##نج
مەز
ڕێز
##کەوتن
لەنێوان
پێشمەرگە
##ەختی
25
##گرتن
حزب
پێویستی
ناڕ
هونەری
##ابی
##خۆی
دەز
##an
بود
زیاد
نیش
##شەمم
کی
کوژ
##ینەی
نەتەوەیی
ڕاپۆر
بانگ
##om
##لان
##دەب
هاوب
يەوروپ
##uot
خۆر
##وانین
##رگ
نووسەر
گۆرانی
تێی
وڵاتی
پێنج
سەی
ڕێگای
فەل
سوپای
سیاسەت
##ێـ
بینی
quot
##ar
يەنجامی
بای
نای
لێکۆڵ
سەرۆکایەتی
يۆت
سەرجەم
ڕەش
لەوەی
##ودۆ
##ژێر
تەل
لەت
جەماو
ساز
ڕۆژهەڵ
يەزم
سەع
چاود
دابەش
بدات
یە
گە
مۆ
##ایت
##اڕ
هاوکاری
ياشکر
##گوز
کاک
کرێک
خول
##ەکەم
دەستگیر
نەکرد
تاڵ
هەبوو
بەتایبەتی
##وڕ
دەزان
هونەرمەند
##el
کردەوە
شیع
وای
دەبین
دکت
بچ
ڕێکخراوی
هەرچ
##ادر
هەفت
##سا
بەریت
##مانە
زۆربەی
شۆڕش
شەر
لێدوان
ڕۆژياو
بەگ
##کردووە
خێز
##ێند
ڕاستی
عەبدول
يافرەت
##ێچ
چاوەڕ
##جەی
پێم
لەچ
پاراستنی
بەریتانی
يەنفال
بارودۆ
کەسی
##ێنە
کراو
##هێنان
دانیشت
بریندار
موسڵ
کەسێک
بەڕێز
##یم
هاوکات
##ارانی
باک
توندو
21
ياگاد
##ڕینی
هەڵبژاردنی
##ەکەش
يێو
ڕۆڵی
سەرباز
دوێنێ
مال
حوک
بەبێ
وات
##ەدە
خراپ
تێیدا
##انەدا
تەر
جەلال
باشت
##یەکانی
##ۆیی
##ها
يۆتۆم
جێی
گەورەی
##ەموو
کوردستاندا
بەرێو
فیدر
##ەقام
##ووسی
توێژ
مار
حەسەن
بەڕێوەبەری
بڕو
جو
##تری
##ەکردن
##گرێت
جوان
دۆل
وایە
بازرگ
لەهەر
خوار
لێی
فڕ
چین
شەو
توو
سەرم
##اجی
یاسایی
2013
جێگری
دکتۆر
##اتری
##ەسەند
لێب
##سر
سرو
بەناوی
بەشێکی
دەکەم
شاع
بەشێک
ياست
یاسا
ناوەڕ
##ۆژی
دەبێتە
دیار
##عی
چەکدار
دێت
##دەمی
هێزە
سز
ستر
هەوڵی
تەندروستی
##داوە
گرف
##ومەر
هاوپەیمانی
مێژووی
تە
داوە
کل
ڕەس
ڕۆشنبیری
کان
شەڕی
بارەی
##ڕەو
يەست
خۆیدا
میدی
##en
ناوخۆ
ڕاو
##یەک
هێشتا
جێبەجێک
پاک
سەربازی
##تەری
##ێین
يۆپۆز
قەیر
سێی
هاوڕ
22
##وایە
لیژنەی
تێد
##مەند
##چە
کۆبوون
دایک
بدەن
نابێت
بەدی
سەرچ
##بە
داگیر
گیانی
##یراق
##ەزای
باوەڕ
گرنگی
نێودەوڵەتی
کاریگەر
نووسین
##ەڕەش
نوێنەرانی
##نامەی
هەنگاو
پشتیوانی
##دەر
بەز
##سانی
برد
دەڵێن
##سیۆنی
24
##er
##ێگەی
دامەزر
هەژ
ناوچەی
##ارێز
##ێستی
##گێڕ
##ارەکان
شتێک
##ەقی
کۆمەڵگای
ياک
##واز
##ڤان
شوێنی
پرۆژ
گەڵ
دابین
پەیامنێر
توندوتی
دیموکر
دەسەل
ڕۆژنامەنووس
پێد
يەت
##ەدان
خوارد
دێموکراسی
##ەوێ
يەڵمانی
کۆمەڵێک
ياسایشی
##ەلام
23
##ران
عوس
یەکێتیی
ترس
ورد
##واری
هەڵەب
نەی
لا
##کۆی
##ەخش
باشترین
##ێس
##یدی
##ێرەی
کۆبوونەوەی
مەدەنی
تاي
##ەبانی
##بن
##ەون
##خود
تورک
مەترسی
##on
تیرۆر
يۆتۆمب
يەندامانی
خۆشەو
خاوەنی
دروستکردنی
##ردا
##وەری
پۆلیسی
باڵای
##ەکانمان
کەچی
##ساڵ
##سپ
com
پر
نزیکەی
بەی
مەکت
لایەنە
هەڵس
چیر
##ۆچ
ياشکرا
##بد
##انێکی
##ەرە
ژمارەیەک
تێب
باشتر
پـ
پێشتر
قۆناغی
دیارە
دێموکراتی
سیاسەتی
##خستنی
وەزیرانی
ڕۆژهەڵاتی
یاخود
پاس
##ەکەت
هاتووە
سال
ڕاگەیاندنی
##چەی
##ووک
##ەسەری
##یەوە
مەحم
بەشێوەیەکی
##یاندا
ڕوونی
پرس
یاریزانی
##انەش
ڕێژەی
##راي
زانیاری
##استەی
ڕاگەیاندن
نمایش
پۆلیس
ڕەنگە
##ۆتەوە
ڕژێمی
##دەکات
پڕۆژەی
وەرز
يامانج
ڕۆڵ
جەنگ
##ادەی
حاڵ
##بڕ
##اکە
عێراقدا
حوس
پرسیار
##ەمبەر
##ووه
##کراوە
##هەوێت
لەکاتی
هەتا
پاشان
دەهێن
##ێکیش
کاریگەری
مالی
خەڵاتی
##elli
##یس
##ایەک
سۆ
##ـت
چاودێری
دەگەڕ
دەدەن
هۆکاری
دەچێت
helli
hellip
ياشتی
یارم
##ەڵی
##ەکانەوە
##وباری
دهۆک
خێر
##ەکەیدا
يیتر
بازرگانی
ژمار
نین
شاعیر
##دانەوەی
##کردنەوە
##پەڕی
یەکەمی
##ەژ
خەل
لایەنی
دەبن
باری
چاپ
فیستیڤاڵی
کردو
##ەڕوو
نر
##کێش
میر
پێشنی
بەرژەوەندی
بزووت
گەرمیان
گەند
##ەوتن
سای
مەبەستی
دەتوانێت
##اشی
##بینی
نیو
##اي
خوا
پەرلەمانت
يەمرۆ
ڕابردوودا
27
مالکی
نووسی
لەخ
##کان
کارەب
##ۆژ
##ەمین
##ەیەدا
بکەم
گیر
دەری
بل
دارایی
شێوەی
يەوروپا
##ەکو
##شە
ملم
يامادەب
هۆ
دەستەی
زەر
##بارەی
##که
26
سنووری
تاڵەبانی
یاریزان
ڕێب
##سەف
##اگ
توند
ياین
دۆز
مەکتەبی
##تۆ
##ێستا
لەق
بەیەک
کۆمەڵگەی
##ییەک
کاند
کردنەوەی
ناکات
199
ولات
جیاوازی
ستراتی
خوێندن
مست
بزوت
##نان
وەڵام
28
لێرەدا
هەڕەش
بەعس
لەژێر
يێستاش
بەیان
پارت
ڕێکخست
لەکات
کۆنت
##il
دێ
فەره
##ڵاتیان
زەوی
يیسراي
##زیش
يید
شەش
ناوبراو
لێپرس
شێعر
ڕاپۆرت
خودی
##ێنم
بەرهەمی
کردوە
فەرەن
لەدەست
مامەڵ
ناوەندی
سەن
دیارد
##کەوتنی
ڕووب
##ێنێتەوە
کاتژم
فەلسەف
##دای
##کری
پۆست
ڕەگ
##رە
دڵنی
##جۆر
کێ
سەردەم
بەڕێوەبەر
تەمەن
دەش
کەي
بەوەی
ناچ
مەلا
##بون
مەی
##اڵە
دەزگای
کورت
##راوان
لەع
تاکو
##ەمە
کوڕ
خەری
هەستی
توانای
##تیار
بم
يیر
##چێوەی
ڕۆژنامەی
جارێکی
کەری
دوژم
##گومان
بۆم
##ۆتە
نموونە
گفتوگۆ
تۆپی
کەی
##ەفا
زۆ
سەری
تەلەف
گەورەت
پێچ
##ەنجام
هاوبەش
ناکرێت
يێوە
##سیا
##زە
گروپ
پێکهێنانی
##مەت
لەدوای
چەم
ناد
##اتوو
ڕزگار
کاروباری
##وا
##وپ
##وچ
بریت
شێخ
دەڕ
ڕاستەو
سون
يەرکی
##له
هەڵوێست
جێگەی
ياسایی
چارەسەری
بەست
بەرنامەی
##ەپێد
دەکاتەوە
قەڵ
نوس
پێیان
پەناب
##ێکیان
##ایانی
ياسایش
##ارو
وڵاتە
لەیەک
نوری
دوایی
کۆمپانیای
تەک
خەبات
##ەکات
##لەی
داوا
ژین
##کانی
دیال
##وێن
##خۆش
عوسمان
میلل
بەمەب
سەیر
کۆبانی
ڕێگ
مالیکی
بەتایبەت
دەکەوێت
بۆيەوەی
ڕەت
يۆپۆزسیۆن
بەڕێوە
سەرکردایەتی
گشتیی
##هێنەر
دەچ
##ایینی
پایت
لەبەردەم
بیست
لەپێن
عەق
فڕۆک
قادر
##تەوە
ململان
مامۆستا
پێکەوە
شانۆ
ڕاپەڕ
29
نیە
کۆمەڵگ
##عری
هەروەک
يیت
##ادە
##گەیەنێت
بەناو
کارێکی
زانستی
##ەوتی
2007
##ed
چالاکی
پزیش
نەتەوە
بێگومان
##or
شتێکی
ياوێن
بودجەی
کۆمەل
پێشمەرگەی
بەمەبەستی
##اره
يەمساڵ
##زانین
بەریتانیا
پلەی
##ییەکەی
زانست
هەڵبژاردەی
لەساڵی
چارەن
یارمەتی
##اون
کەب
بۆچی
##ەستە
##ەکاری
مەسەلەی
ساڵح
سەرکەوتنی
##هێنی
مت
##اچ
##انێ
##ـی
زیندانی
يابوری
وەزیران
شەمم
##زیک
##ایک
حکوومەتی
دەتوانن
##بکات
گوند
موو
کارەس
ناوچە
##عود
##ەکەوە
##بارە
بێد
##یروان
کاتژمێر
میسر
ڕاستەق
حوسێن
فری
ڕەز
يێمه
بەردەم
مەحمود
چارەسەرکردنی
دەرەوە
دەربارەی
##برا
##انەیە
چەپ
نازان
##رم
##ارێک
##ۆڤ
##دین
هەبووە
##es
پش
پێغ
##ناک
بزووتنەوەی
زانکۆی
نەوتی
شێر
باڵی
کاب
بدرێت
پەک
سیستەمی
##ایەد
تریش
##غان
دەق
##وژ
##ابوون
##پارێز
شارۆچ
##ەنەوە
##ییەی
لەکورد
ژمارە
هەشت
عەبدوڵ
بان
خۆپیشاندان
##نیشان
يەوەشی
وەرب
##ەڵب
##دۆ
شێوە
##روپی
يینگ
عومەر
کشت
کۆی
وی
نیشتی
##شین
شێوەیەکی
##بو
سام
يەنجامدانی
مافەکانی
سەرەتای
فرۆ
وێنە
ناوچەکە
لیژن
هێم
بەدا
پشتگیری
دادگای
##فەر
لیست
بەرپرسانی
لەی
يیسرايیل
يیسپانی
يێرانی
بەدو
ماڵی
نەتەو
ڕێو
نەبووە
خەر
##ییه
سەرەک
##ینین
خەی
ڕێککەوتن
تاب
پارێزگاری
##اما
سەردەمی
##این
دۆلار
##رانی
پشک
نوێنەری
پەسەند
واقی
شێوەیەک
مستەفا
هەمو
##خوازی
##پێش
بەچ
هەرچەندە
تووشی
هەڤ
گرفت
##et
يەرک
حس
##بووە
لەماوەی
نێت
ساڵە
دەسەڵاتدار
##is
##ینەو
يەنجووم
بەند
يایینی
قسەی
نوێنەر
کشتوک
بون
وەرگرت
بزوتنەوەی
شاند
گروو
زوو
هەیەو
بەختیار
سک
کۆمەڵگا
##در
کەسێکی
يۆب
گوڵ
جێبەجێکردنی
##ەدی
##ۆلی
ببێتە
هێ
هەفتەی
##زەی
##کرت
##ur
زۆرین
نیشتمانیی
پێگەی
ناوەڕاست
دنیا
سەل
بابەتی
حوکم
مەرج
وەف
تاران
دامەزراندنی
ناسی
وه
سووری
ڕەخنە
دراو
سوود
موح
چەو
خێزان
ژی
ڕێگە
گومان
سەو
##وه
##اوه
خەم
پیرۆز
لەبەرامبەر
ياگادار
وەزارەت
تەمەنی
يەمریک
07
تۆمەت
خۆت
هێنا
بزان
فێر
هاووڵاتی
لەوێ
ڕۆژانە
سە
##وازی
##ما
##ەبوو
##ەکەو
تێبینی
دووپ
##نەت
##تن
##ەندیی
جەماوەر
پێشمەرگ
وتی
بەرچاو
##ەمەنی
بەکارهێنانی
نوێنەران
##ۆتۆ
بال
##گیز
گواست
##ابێت
ياماژە
##at
نەبوونی
سەرک
بنەمای
##براه
##ێران
بکاتەوە
##نیان
##اریان
##ەزایی
31
جێبەجێ
پەیمان
##حک
هاوڵاتی
يەدەبی
خزمەتگوز
نیشان
##زمی
خواست
##ەندا
پەیامنێری
کۆبوونەو
حەز
دادەن
##لات
##ەشق
داخ
پێدا
يەوه
##ۆیە
لەلایەکی
چۆنی
سکرت
##ووتی
خوارەوە
گۆڤ
دیکەش
خۆشی
کردبوو
##ایه
زیان
تايێستا
يال
يۆتۆمبێل
يوم
##اندنەوەی
یەکی
لەهەموو
داواکاری
کارە
کێشە
بیان
چاوی
##کەری
##تات
##انبەر
سێیەم
ياینی
یەکتر
هەرگیز
پەنج
##اح
کەسایەتی
دووەمی
نارد
بارودۆخی
کۆمەڵەی
##ووەو
نیگەر
لەکاتێکدا
جا
##ایم
##هێنەری
ڕازی
##نه
چیرۆک
سەرن
یاد
##رینی
##اکەی
تاوەکو
گۆڕینی
خەباتی
##ay
قسە
عەل
يارام
ڕەم
##زار
ڕەوشی
کۆنفر
بگەڕ
##ەتێکی
سیاسییەکان
بیری
بەرپرسیار
خاڵی
گۆڵ
ڕۆشنبیر
##انێک
دیکتات
##خانە
يەمانە
مرۆڤی
بایەخ
پێچەو
دینار
##بین
##دەست
کوت
کاندید
ياخ
سەردان
مۆد
##ەلە
گونج
##پەرشتی
فیدراڵ
جوانی
يەوانیش
يەنجوومەنی
##ەکانە
کوشتنی
ياراستەی
زانیاریی
هەڵوێستی
##براهیم
##شیان
##کێ
کەواتە
هاوسەر
دەستوور
سنوور
عەبدوڵڵا
ەوە
کلی
يەڵڵا
دەورو
لاواز
##ەوەر
جۆراو
وەرگرتنی
پسپ
##ێنەوە
ڕادی
مانای
سایتی
فار
هۆشی
وەبەر
##گرە
کەریم
جەنگی
نەز
ڕۆژنامەوانی
دەکرێن
ڕاستەوخۆ
وێنەی
باوک
فەی
مەسعود
جەست
سەرکەوتن
##یچ
شێواز
کۆنترۆ
وەڵامی
##دەن
بنی
فەرمی
دادگ
لەمەو
ژمارەیەکی
جەماوەری
دەدرێت
ياوێنەنی
ڕۆمان
##ەممەد
##ووڵ
دۆخ
سوور
دەستنیشان
توندوتیژی
198
وس
ياوی
##in
جەن
يەوەندە
##گەڕ
دەرکەوت
دەستووری
##ۆف
نەج
کری
##هێشت
##جا
ڕژێم
شارەوانی
نەخۆشی
چاکس
وان
کۆنگرەی
09
جۆری
##شەممە
##ژین
ياسمانی
جۆرێک
لەز
زیاتری
ناش
خەو
پاب
مس
کول
حەوت
يیدی
يینگلی
ht
بارودۆخ
##ەته
سوید
يەڵمانیا
سەف
##رۆز
##انت
کەسانی
دەرهێنانی
شەهیدان
کەمتر
##ودی
کەمال
فراوان
##ەزیز
گرنگە
##ەکر
وەردە
خۆشەویستی
کیمی
شێوازی
تاری
باشووری
##مەوە
دیکه
##ent
چونکه
##ێزی
دوژمن
هۆڵ
يامادە
دەبێتەوە
50
سپ
کورسی
##ەتیی
##لۆ
جێگای
خانە
شەقام
یەکێکە
هاوس
پاڵەوان
##ەشدا
##وانیت
##خانی
##ارەدا
بۆن
پێداوی
کراون
تەرخان
هەیه
دەسەلات
بەق
خوێندنەوەی
يیبراهیم
لەيێست
الم
لەکوردستان
ببێت
##اج
بهێنێت
تێگەی
تاقی
لەخۆ
دەگرێت
##ویەتی
ڕۆژێک
01
سـ
لەوانە
لێو
گیان
نیشتیمانی
سوو
##ێرن
بکرێن
يایین
شۆڕشی
ناوخۆی
بەیاننام
یەکەمین
##حمان
##اڤ
کارەکانی
دەف
##ەبێژی
بەرانبەر
سەرەڕ
08
تازە
دەرف
مادەی
##راوانی
##حکوم
##ردی
مەل
##ەمەن
سەرنج
گوێ
يەدەب
گەشت
بەداخ
##لو
لەسەرەت
##پە
نیشتەج
لەدەر
##دەستی
پۆستی
##روو
داڕ
ياوێنەنیوز
چەکی
پێشوو
##ەڕووی
بارە
دەقی
خاکی
وب
يەمەریکی
زانکۆ
بووم
##ەیەکدا
ناوەند
دەستیان
فۆتۆ
سەربەخۆ
##گەل
##ەپێدانی
کۆبون
کردووەو
مل
##وای
04
##اکرد
پێکرد
02
##کەن
##بان
سەرچاوەی
03
بەرەی
هەڵەبجە
06
يۆباما
ناي
بێک
##اریش
گوێرەی
فەرم
سینەمایی
سەپ
پێغەمبەر
دووبارە
ببین
پڕۆژە
##ەلاح
دەنگدان
نموون
سروشتی
يەمەریک
##ەڤ
يامانجی
وي
کوشت
منیش
تێپەڕ
##ەیش
پەیوەندییەکانی
##ڕە
گروپی
##ەوەیە
گۆران
کۆمەڵی
05
قەو
گفتوگۆی
گەورەترین
يێستای
##گۆ
لێدوانێکی
خوێندنی
قەز
##گار
بیروب
##بهێن
کارکردن
##دەشت
داک
کەه
نیشتمان
بونی
فراک
مەن
حاجی
بەکورد
سکرتێری
يامادەی
ناوچەکانی
مایەی
چوارچێوەی
##ستە
##ژیی
##نەو
شێوەیە
خوای
سەرپەرشتی
##گۆڕ
##ازان
کارگ
نهێنی
بەدوای
هەرچی
کۆمار
##شەی
گەندەڵی
ڕەگەز
##ێـکی
يەوانە
##امە
##ێڕی
لەمبارەی
کاتێکدا
##ۆلۆژی
باشی
دەزگ
تاکە
##ێنین
وشەی
##ەکار
بریتی
دەتوانین
سەیری
40
بگرێت
سەرەتا
يارەز
##بر
جەژ
ياه
ڕاوێژ
##اکەوت
يۆک
بچوو
لەشاری
##ووەتەوە
لەڕێگەی
ياسان
لەپێناو
تێدایە
بڕیارە
ویل
##بۆ
خاک
لایەنگ
##ەغ
چاوەڕوانی
##ەمەند
فش
يێمەش
##نەتەوەی
ناتوانێت
##ۆمەڵ
##کەس
دڵی
ڕۆژياوای
دابڕ
هەریەک
مەسی
علی
##تد
##حاڵ
مەج
يیدارەی
مین
یەکگرتووەکان
##ەکانم
میو
سەدان
##ترە
فەرمانبەر
يەش
ملیار
تێکۆش
لەج
تێکەڵ
کوردو
هێزێکی
##ەکانیدا
##یرە
##ۆکەی
لەڕووی
##اید
##ەندەی
پێشکەوت
##وات
گەرمی
سەرمایەد
سیستمی
##ەدانی
عەزیز
چوون
ڕون
ماند
بۆتە
پەیوەندیی
سەرس
سەربەخۆیی
بچێت
شەری
باشە
##ەدەر
لەعیراق
دانیشتن
##ێدی
تش
سێک
خۆیەوە
پاڵپ
ون
نەر
ياگر
شەممە
گێڕ
قورس
بخو
گەم
میللەت
197
ياشکرای
##شەممه
زەو
بکەنەوە
ياسی
پارەی
کەسانەی
سەرکەوتوو
دەردەک
بڵاوی
بازاڕ
ان
پێناو
بەردەوامی
##یەتی
بدەین
کردووه
سۆر
##ment
مۆڵ
لەل
بنەماڵ
تاوتو
هاوپەیمان
کەڵ
##ایل
##ڕەوی
شێعری
بەجێ
سۆسی
دەزانن
پەروەرد
سەنگ
##ەول
سپی
کۆڵ
هاوڵاتیان
ڕزگاری
هەینی
نرخی
خوێندکار
##تووری
##بەست
ڕۆژياوا
بۆچوون
داهاتووی
دەستپ
پێشووی
يەزموون
نێونەتەوەی
تەي
نەن
قەزای
بیانی
بگرن
بۆیه
دڵس
بەڵگ
##هاتی
خورم
لەگەل
##ازیی
سروشت
هز
##بوڵ
دایە
##اندووە
دەبوو
بەداخەوە
هۆکار
سەرەڕای
ناچار
قەب
##کس
لایەک
##ڵاو
يیتالی
##ەنجامی
وەس
##ەبوونی
سەرق
##اسایی
چینی
ژنانی
سع
##مەد
دەخو
يەخ
ڕەوانەی
##وڵات
شوب
سوپاسی
##al
لەدایک
يەمین
##ەدەست
سەید
بانگەش
سەدەی
پەڕ
140
سیم
دەبینین
##ـتی
##دەکرێت
سووریا
ياشت
ناحی
دیدار
##ەکەشی
هتد
کۆچ
##اعید
##اکردنی
لەخو
##تەو
##کێی
دادگا
##چاوی
هاند
##اوەو
کانی
سنوری
سەعید
##ۆرت
يێراق
برو
یارییەکانی
منداڵان
دەگەڕێتەوە
لێژ
يەمریکی
##زیکی
هاتنی
کۆل
دەري
ویست
##یەکی
ڕەه
##ڤەر
نان
دز
زۆرینەی
##ایدا
داهاتوودا
دەستکەوت
خزمەتی
سەرهەڵ
دەزانێت
دامەزراو
بڵێین
گۆڕانکاری
پایتەختی
##کەکانی
##وي
کتێبی
##بکەن
##تەرن
شارەز
مۆر
مرۆڤایەتی
واقیع
##ww
ڕۆژنامەنوس
ياڕ
##ەکەین
بەڕێوەب
مێژوویی
مۆن
##ماع
هاوش
وەست
100
58
شای
وڵاتەکەی
##کاران
مەترس
گری
www
ڕێکخراوە
نییەو
##ۆرم
هۆش
بەگشتی
##ەدەغ
سەرچاوە
گەشتی
دابن
کون
بەیانی
##ەتر
##ڕا
يەگەری
##وست
هەولێری
بس
##ێڕای
##خت
بەلای
يێستادا
تەماش
باوکی
متمان
##ەکدا
یش
تیرۆریست
دەروونی
موسڵمان
کۆبانێ
بۆیان
سەربەخۆی
بابەتە
##ینا
کەرتی
خانەق
يەزموونی
ڕاپەڕین
تاوانبار
چۆنیەتی
دۆست
دەنووس
عیراق
##گیرێت
دنیای
پێناس
##بردنی
##ەکەن
ڕاستە
##مەن
هاوکار
هێرشی
هەڵبژ
يەندا
نێچ
پێویسته
لەوەش
زۆرێک
لەهەمان
کارو
قەدەغ
##نگ
##ووەتە
بوونە
##کراون
هێڵی
##شم
##زا
پەیدا
##وسی
هەموومان
##رای
هاوکاریی
شارستانی
کوردستانە
پیشەس
ناتوان
گرێب
##توانی
يۆپۆزی
بەوەش
گووتی
فەرەنسا
##سک
کۆمی
جیاجی
##بکرێت
شارۆچکەی
هەموویان
کەسوک
ماوەیەکی
بنەڕ
دانانی
یەکل
پەنا
کێشەکانی
تیرۆریستی
کوردستانیش
سیاسییەکانی
خودا
##وەو
بەدوادا
##ەخانەی
##گەیەکی
##سەی
##اتن
لەهەرێمی
##کردۆتەوە
ڕەفت
سەدام
##وول
کارەبا
کۆمەڵگە
هەور
ڕێنم
لەبەريەوەی
ڕاشی
بێب
##هر
خەون
بکە
سزای
کارمەند
ماڵپەڕی
تیش
##اسم
گۆل
کوردە
##وق
سەم
نار
##ۆپ
پەلام
پێشوازی
کوشتن
جیا
نیگەرانی
ناوەر
هەزاران
هێناوە
مەع
چییە
35
یەکسانی
##دەخ
بەگو
يامادەیی
گەرد
مەزن
يازار
##رێژ
نێونەتەوەیی
دڕ
##ەشەوە
ماوە
دەستپێک
##انەو
##ەکا
بەهەمان
درێژەی
دەیهەوێت
لێپرسراوی
یەکگرتووەکانی
##کردنە
دۆسی
خۆشەویست
عب
##ێـک
شارە
##دەدات
ڤی
خەریکی
##اکێش
واتا
##لەتی
بەرێوە
ڕووبەڕووی
پاڵەوانی
##لاتی
کوڕی
##ووچ
##ێلی
شتی
کەش
واز
ململانێی
##توری
وەرزش
ڕود
بەڕێوەبەرایەتی
پەل
لاد
لەدی
##گرافی
لەيێستادا
دەتوانیت
##ندا
##ail
##زای
ڕیزب
ماددەی
نرخ
تاوانی
##ێوی
##ir
گرین
فیستیڤاڵ
يینگلیزی
ڕووبەر
##ۆگ
##راوەکان
##نیشانی
درۆ
نووسینی
يێمەی
کردووەتەوە
پێشێل
دەمان
##ڕین
بەتەو
تەنها
##هیر
##لۆم
کاریگەریی
پەروەردەی
موحەممەد
##سێ
هەرە
سەنتەری
تەيکی
يەڤ
سینەمای
داواکاریی
واش
بێدەنگ
هەڵوەش
تشرینی
##ارییە
کەناڵی
يەکتەر
ياڵۆز
##ایەن
##کوکی
پێمان
##ییەتی
##اورد
يیش
پێشان
##شینی
دەتوان
##لام
##ێنرێت
گەیشتن
مەزه
باخ
جین
کارب
##ێکەوە
کارەسات
ڕوان
##ۆرگ
دەزگا
ڕەزام
ڕاپۆرتی
پشکنی
لێکۆڵینەوە
مانەوەی
لەپەر
##am
بەڵێن
بەرش
لەدا
##ریش
##گه
هاوبەشی
وتیشی
تەس
##ییەت
##وش
هاتوچ
یادی
تێڕ
يارامی
##ێگای
بەخۆ
لەکار
##ماعیل
قەت
کێشەکان
پەکەکە
بەجۆر
##دەچێت
##ێننەوە
نێچیر
##چەر
دەکەوێتە
جیهاندا
بەسەردا
گوندی
نەیت
يەوکات
##رێنەوە
بڵێم
کش
مور
ستەم
حکوومەت
لێرە
تەلەفزی
شانۆی
##وێنی
کوردستانەوە
##تا
کەرکووک
ڕێگا
##امەی
##وێ
##رید
##ماندا
يەوانی
##گاکانی
##انەکانی
پارچ
عەقڵ
يیست
سیناری
گونجاو
حوز
خەڵات
مەڵب
##as
گەڕانەوەی
پابەند
کەناڵ
##رۆش
دەرچ
قەیرانی
يەوی
نەبوون
سات
لێکۆڵینەوەی
نەیتوانی
گوتەبێژی
يەگەرچی
##لێک
00
ڕاشیگەیاند
تاق
زە
کەت
دیموکراتی
##گەکانی
دژایەتی
عەم
مرد
##سن
##لیم
مێ
ياگاداری
سەندی
##کراوی
نەوش
هەرب
هەڵبژاردنەکان
تێر
##ion
##یند
ڕەخنەی
ڕێی
##وف
زنج
##دەکەن
شەرم
##مار
کۆمۆنی
نەف
کەپ
بووەو
پێشواز
يەلع
وەه
بەبەر
يەردۆ
سەرت
شەق
کۆنترۆڵ
##ەوا
نوسەر
دەزانین
بوە
هەری
کەسە
خۆیەتی
تابل
##ۆزب
چاوپێک
دور
گرتووە
##ڕانی
##بونی
45
هۆڵی
##نامە
لەبواری
گۆڕانکاریی
گەیاند
ياوێنە
هیواد
##بیر
نوسین
دۆخی
مزگ
##تیل
##اسەری
دابەشکردنی
هەڵبژاردنەکانی
میانەی
هێندە
##اماد
يومێد
ستراتیژی
لوب
نەکردووە
بنکەی
##ییەکاندا
تیپی
زار
کەلار
کۆنە
##انەیان
خانوو
##بێ
##tp
ڕەخن
هەت
##ۆکە
جەختی
فەرماندەی
بگرە
خورماتوو
کشتوکاڵ
نەیان
خەرج
سیستەم
شەوی
##ۆمی
خوێنی
يەسەد
چەوس
پێشبینی
تەندروست
وەها
##ۆڵی
کەوا
کۆمیت
میس
وەل
سەرچاوەیەکی
http
##ەسپ
ڕێکەوت
شاخ
وڵاته
سووت
سەردەشت
##هێناوە
هاش
بچووک
کۆش
##هێنا
ناه
ناکەن
##زاد
دێموکرات
هەڵمەت
يازادیی
يەنجامد
##وویەتی
دیاریکراو
هێنانی
گوم
کاتێ
بوار
بەنی
بووه
سەرچاوەیەک
##ۆنەی
##راوەکانی
##بوونەوە
حەمە
لەچوار
##ویست
سبەی
مەرگ
جەخت
پەیوەندید
کاروان
دیپ
##ۆکانی
شۆر
دەدا
##ردو
نەخۆشخانەی
واب
تۆمەتبار
کران
شکست
بەهاو
مێش
##ستانە
هەڤاڵ
وێڕای
پەروەردە
##ییانە
مامۆستای
جارێک
##ەبوون
2003
مەه
تۆپ
سەوز
##مەتی
پیرۆزب
بیت
هەنگاوی
دروو
دایکی
بکرێ
يەنجامدا
##day
ناتوانن
##ێنت
میواند
يیي
لەکۆ
باشوور
ڕەوتی
نەوشیروان
لەچەند
يێوارەی
نەکراوە
دواکەوت
بکەیت
##مێکی
بەردەوامە
کەمی
هیچی
باران
خوێنەر
جۆراوجۆر
##یب
ساڵەی
ساڵانی
##ut
##ەکەیە
پێچەوانەی
ڕاس
خانەقین
يەمڕ
سەرەتایی
بتوانن
on
نێچیرڤان
##رێتە
بەرژەوەند
دووپات
سور
ڕەسمی
دێتە
زۆرترین
لاب
##کوژ
هاوڕێی
تەقینەوەی
يەه
کاتدا
بتوانێت
پەیوەست
حوکمی
##کیان
زا
شیو
##بێژ
قوري
##ەکاریی
قبوڵ
##انا
مردن
فارس
ڕێکخستنی
داکۆکی
میلی
لەگەڵدا
دۆزینەوەی
##خۆشی
##ەماڵ
لایەنەکانی
دەوێت
##ەکرێت
يینجا
دواجار
##دەه
شەپ
بەرەنگ
##ۆتایی
کۆری
هەمووی
وتوو
علیە
لەبار
نەوەی
##ەڵات
##رالی
خەیاڵ
تار
يۆس
ڕیزبەندی
پێشکەوتن
##دێکی
خستە
##ec
سەقام
##کردوە
قازان
تەش
##فە
##باری
لەناوچ
##دال
وەرگێڕ
ڕۆژنامە
##تۆن
فوي
چاکسازی
موزیکی
هەڵەبج
يیسماعیل
##ازە
نابێ
جامی
هەڵبژێرد
ناکۆکی
سەرل
منداڵی
سعودی
يامێر
##اوەکانی
بکرێتەوە
جەنابی
دەوروبەری
عەبدوڵا
گوز
داهاتی
سەلاح
ماوەیەک
دانیشتوانی
دابینکردنی
ساد
دیکتاتۆری
خالی
##کای
یەکتری
بەپێچ
کردە
موزیک
لاوان
##ەیەی
بەرج
ڕیز
فوياد
بڕیارد
کابینەی
فیلمه
چوو
ڕێنمایی
دەکەنەوە
هەردوولا
ڕوسیا
حەی
بەهیچ
باڵا
##کران
کۆنفرانس
##الیزم
پزیشکی
پرسیاری
کرێکار
بەح
##گاری
##کردنیان
##گەریی
##اود
سێش
حوزەیر
بەشداریی
چەکدارانی
زەحم
ساڵێک
شـ
##کردەوه
يەبێت
سنور
##اندان
##گەیشت
نوسی
چەکداری
يەیل
##ەکێ
تەنگ
يەکات
ژوور
گەندەڵ
چیرۆکی
لەوانەیە
ناکۆک
کورتە
##رەس
کەموک
##ریان
بەهەر
گەلەکەمان
بەرهەمهێنانی
ياڵو
##مەندی
پیل
##با
يایدی
دەهێنێت
ڕووناک
نەتەوەیەک
هیوای
نازانم
##ەدین
جەع
##ێکردنی
شوبات
ناڕەزایی
##ەرێکی
تای
##اڕی
بپارێز
مح
نەهێشت
بەڕێوەچوو
هاوڕێ
سوت
حیزبە
قوتابخان
مەجید
نۆ
پاڵپشتی
نەری
وپ
وتار
##ناس
##راوه
خزمەتگوزاری
سەعات
يەنجومەن
وم
##ینەوه
ڕۆی
يەوەیان
##دانە
##ەکێش
پارە
کەمپ
کۆمەڵە
هێمن
گۆڤاری
قوتابی
ڕۆژانی
پێدانی
##ەقیق
سەلمان
نادی
بەدەر
سەرو
ڕایان
بەڵێ
يیسپانیا
شارەکانی
لاپەڕ
##ێڵن
ترەوە
پێوە
ڕادە
لۆ
##ناو
فەرهەنگی
##غانستان
لەجی
##ەرک
دادپەر
##رن
نەکات
حزبە
باسە
لایەکی
يۆپۆزیسیۆن
يێز
##ەفی
ياهەنگ
چاپکردن
89
ياراست
خەت
گوتم
##ـک
##اهەنگی
دڵسۆز
چیتر
##ۆساید
سم
##حمد
وال
يەندامێکی
##باران
32
پارتە
##تین
سەلام
196
ياژانس
جێگیر
##ێرانی
##ۆرک
چر
صلی
یاریگای
##ۆکان
##le
##گرین
سەرکوت
لەپێش
لەندەن
کۆمەلایەتی
##وزی
بەرد
کۆمپانیا
يەفس
حی
ڕۆژە
##یانەوە
هاووڵاتیان
بلاو
ياوەدان
بەجۆرێک
دەرهێنەر
##ەتدا
ڕیش
قوڵ
##ونج
دەگوت
پۆل
گل
لەبیر
کوردەکان
پلانی
##ەواری
جەمال
يایندەی
بەگوێرەی
لەپەرل
##ەوەش
لقی
هەموار
کاڵ
##اوان
ياخر
فاک
ڕێکخراوەکانی
##ەزایەتی
بهێنن
هونەرمەندی
خواردن
فەرمانی
بودج
زەم
مەدرید
لەسەرەتای
هەرچەند
کۆچی
سۆران
##بیا
##چون
بەعسی
نوێنەرایەتی
کەرکوکی
دراوە
ڕۆحی
وەرزی
یۆن
##ژمار
##گوت
بریاری
يینسان
بۆر
گەلانی
گرووپ
يافرەتان
بۆش
##مەی
##اوەر
سیروان
جاران
لەدژی
بریتییە
میوانداری
##بیری
دەرگای
بەراورد
کیل
##ودا
سەرپ
##نەکانی
سەرۆکایەتیی
##دەکاتەوە
##یدا
ناوە
بریار
34
##دارە
گواستنەوەی
دەخاتە
##لین
##رۆڤ
کوێ
قاعید
##اوەڕ
دەرمان
دانو
کوردیش
دواتری
پێشانگای
##ڕن
يێک
گۆش
##شیکردەوە
باشوری
پرۆژەی
لەسەری
##اته
يەوەندەی
سێشەمم
نەماوە
پیرۆزبایی
بەشار
خێزانی
وسلم
##ەرز
وەسف
سۆز
زیندوو
##ێیت
خەس
دەریا
دینی
بەخۆی
سامان
2006
بەڵێنی
##ییەکە
خۆڵ
شیعە
بەری
##هان
بچوک
##شەوە
بەرێز
هەلومەر
##ووەکان
گەرمیانی
لەبەغ
جن
##ex
خۆیاندا
فەڕ
توێژینەوەی
##راوەو
ژنی
سەرەوە
وەکوو
لایەنەکان
کۆمەڵایەت
فەرهەنگ
دەیانهەوێت
دەسەلاتی
سارد
##ۆنە
ڕەوش
گوایە
يەخل
ناوداری
بەکارد
برا
دیموکراسی
سەخت
بەهەموو
کۆکردنەوەی
دەزگاکانی
هاتوون
موڵ
کۆیل
لێژنەی
کەسوکاری
يەمج
##یانه
کاتەی
هەڵسەنگ
گول
دەستب
دەستور
زۆریان
نەهات
تەمم
سکاڵ
تەکن
بەرێوەبەری
زۆرە
درام
لێکەوت
هەڕەشەی
##قە
کردەوه
زیر
##زین
کچە
بارەیەوە
ناوخۆیی
دل
دەکاتە
زیندان
36
##وودا
شوێنێکی
گەورەیە
##ەکەس
##کردنەو
ڕێکەوتن
زاڵ
پێکهاتەی
هاتە
چاوپێکەوتن
يەکادی
دەگاتە
تردا
يابووریی
قایم
يەفغانستان
بەخو
پیشەسازی
ناونیشانی
##فری
جەستەی
بەپێچەو
عاد
بانگەو
پایتەخت
پێت
##ck
بۆچوونی
زۆرب
دادوەری
بەشداربوو
هێزه
ناحیەی
##گەه
درووست
بەمەش
هیوا
زۆرجار
دەوڵەمەند
##راوەی
خۆراک
يیمار
هەمووان
هاوڵاتیانی
کردبێت
##اوەکان
##ێدار
يامر
باکووری
ڕاکێش
دیکەوە
##روست
##are
گرفتی
##گرتووە
گرتن
تەی
##ۆچوونی
بکەوێت
تەکنی
هێندەی
نووسەری
دانیشتنی
ياید
##ەزان
نیم
بێز
دەبینێت
دەوری
دەگێڕ
سر
##کەکان
پەس
حاک
##هەل
سوک
##ێرت
پرۆگر
##ەتان
##ێیە
بگۆڕ
لێن
تک
ڕۆح
نەورۆز
دەرەکی
باڵیۆزی
##کاتە
درا
دەکەیت
ڕۆژهەڵات
خستەڕوو
دزی
گیانیان
پاری
لەمەوبەر
هەروا
ڕایدە
بەدەستهێنانی
لایەنێک
ڕوونیکردەوە
خراپی
##ێرە
تابلۆی
پەرت
##سە
دیسان
پێشنیاز
لەکۆتایی
دادگایی
مافە
پاشەک
کاتە
پێشەوە
دادوەر
مەو
دیاردەی
##بدات
##اداشت
لەچوارچێوەی
وەلی
لەوبارەی
ياژەڵ
وێست
##os
کرێکاران
خالید
قەیران
##ێستیڤ
قار
پەراو
##سین
##سو
##ڕیت
شاندی
گەلێک
re
60
واد
33
##یەت
دەبات
دووبار
لێرەوە
ياد
ڕاگرتنی
##یشدا
دەڵێم
ڕاستەقینەی
##ەنسی
پای
بدۆز
##ودەز
خود
بکوژ
کەمکردنەوەی
میکانی
##کەم
ياماژەیە
عبدال
يەکەن
يەمه
چەندە
نمون
هاتن
##جۆرە
قان
دواتریش
هەڵد
يامادەبوونی
يێ
##he
##بخ
وتو
##ییانەی
باکوری
##چاری
لەمێژ
سێب
زیانی
میراود
دەردەکەوێت
دەل
کاریان
دەرواز
ڕووداوەکانی
بناغ
دیس
وتەی
سەرقاڵی
هاتنە
بۆمب
يەردۆغان
دەکەو
##فت
ڕاسپ
ياوا
##ەکانت
میراودەلی
بەڵگەی
بووین
دەدەین
##مدا
نیشاند
ڕێگری
بانگەشەی
هەناس
کشتوکاڵی
تیایدا
برینداربوون
ڕەزامەندی
شاه
منی
##ەددین
يازادیخواز
##چن
خۆرياو
مەش
کاوە
یەکێت
##ments
لوت
مێرد
ساخ
لەمان
##ییەکانیان
زێڕ
##ۆته
جاری
##رەو
يەوەشدا
ڕاوێژکاری
ڕیک
##اسانی
فراکسیۆنی
خۆتان
##ێنەر
گۆڕەپ
بتوان
##حاڵی
سلێمان
لێکرد
واشن
زاخۆ
لەمەڕ
چوارەم
تێن
يیخ
دەستوری
##ەتەی
مەیدانی
چارەنووسی
هەڵگری
37
500
میدیای
پیاوان
پێداویستی
لەسن
نەخش
##توور
دروستبوونی
واژ
##ڕێت
خاتوو
دەبنە
لاوانی
لەدو
يێرە
براد
لین
وەرزشی
هاوولات
پارێزگاکانی
وەبەرهێنان
ڕوانگەی
ڕیال
لێیان
دەژین
هەوڵەکانی
هەڵسوک
##راوەتەوە
##ەگەری
بەکاری
پێداویست
##ah
قەڵەم
يەکتەری
کۆنس
سەدر
ياسمان
يێس
چەش
تیرۆریستان
##ەڵبژارد
گەیاندنی
پەیوەندییە
ژینگەی
بەرزن
جم
##ەمبەری
کوژراون
##ووانی
کارگێڕی
##qu
زمانێکی
##ەدەچێت
##سکی
يایند
جگەر
##ژیان
##ێمان
دەچێتە
##ەوەری
##ارین
يیدار
نەتەوه
##oo
ناوبژی
پتر
دەسەڵاتە
خر
بڕوای
##انیە
ڕک
##وین
عەش
بەرێوەبەر
جەژنی
برای
##پەرست
جەب
2004
کوردان
سەرش
دووپاتی
يەمڕۆی
دۆسیەی
وێران
بەرم
پلان
بەڕاستی
لەدەرەوەی
خۆب
دەور
##ووان
هێنان
کێشەو
بێن
وڵاتێکی
غەری
##ەتەوه
##لێمانی
##ەکیان
گور
فێستیڤ
کۆڕ
ياواز
##ەتەوەو
ڕەنگی
چالاکوانی
ڕەشید
بەندی
هەژار
دیوانی
قووڵ
سیاسیەکان
سیاسییە
بزانن
توشی
##اهی
لایەنێکی
خولەک
ماندوو
دوایین
تورکمان
دەشێت
میدیا
##کوژی
توانا
سەرمایەداری
بەبۆنەی
پرسە
کێب
##خس
پەیڕەو
چڕ
قوتابخانەی
ڕێوش
بۆت
##داوی
##ەستەی
چارەنووس
##پەری
کۆبوونەوە
##نەک
چاوەڕوان
لەمبارەیەوه
##بژارد
مامەڵە
##اوەتەوە
مزگەوت
کرایەوە
##وج
زانا
ڕاهێنەری
##کرێت
##hare
کۆنگرە
بارەگای
##پر
سەروەر
یۆر
کۆمیتەی
عاش
فای
پەرەپێدانی
شوێنە
کچان
دەزانم
کوژران
##کەین
داوایان
یوس
کەمێک
مردنی
ناڤ
##دەبێت
شوان
شیعر
عێراقەوە
يەنفالکراو
دید
of
هێڵ
قەرز
بەرف
بەرچاوی
سەرنجی
##ەشت
##اییەوە
بور
درێژە
مرۆڤەکان
حوکمڕانی
کاس
زنجیر
##یه
مرۆیی
گروپە
##رایەوە
نمایشی
پەیامی
بیروڕ
ڕێبەر
يەفسەر
بارەیەوه
خوازی
دەرچوو
##یشە
چۆ
جەعفەر
کۆتای
سوپاس
کرێکارانی
نابین
##امیل
بەهاری
##غی
وەرگیر
بڵێن
حاڵەتی
##نووس
نەکەن
##کاو
##شێو
##دام
دێرین
کارەبای
38
##سـ
پلە
سینەما
##it
فیکری
ڕووبەڕوو
فاشی
##کوو
بزانین
جۆن
##ژاد
کانونی
چوارچ
میللی
##کۆل
##گەین
دژە
سویس
ناسیۆن
دەکرا
يینسانی
##ێکانی
##ەرب
بێتە
کۆر
سەرباری
بیرکردنەوەی
باکوور
يیتالیا
لێهات
بەدەستی
##ic
fb
دامودەز
##lick
ياماژه
ياڕاستەی
شانازی
نەوە
##بکەین
##بونەوەی
مەسیح
لەلێد
نێر
##رۆس
یەکێکیان
دۆلاری
سوپا
ڕۆڵێکی
لەبەغدا
##گیرد
شۆف
فیلمەکانی
##ەدایە
##urd
فەو
ڕاستەقینە
بریتین
خواستی
##ەرو
بڵاوکردنەوەی
ڕف
دروش
يەفری
##بەت
دەگرێتەوە
شم
##ولی
کەسانە
دەخواز
تەواف
حاڵەت
دەبەست
خۆیشی
گوزار
خانەن
نیشتەجێب
چەمکی
مەح
دانوستان
بازاڕی
##ol
دەکوژ
پێشکەوتنی
##الیست
مای
مەم
ڕووسیا
گەنجان
2005
بنیاتن
دابەز
##ێکم
##ووسیت
دانا
تاکی
فەرەنسی
بنەماڵەی
کورته
##يەند
يەندازی
فێری
تیپ
سامانی
##رابوو
##سەل
بەتەواوی
حوزەیران
پیاوە
زەب
گرد
##اسیۆن
هێل
يیيتیل
شۆڕشگێڕ
پسپۆڕ
##کم
##وارد
##انیا
گاز
##ist
بەشە
لەف
سەرچاوەکه
95
##وەی
سەرکردەی
تێگەیشتن
ناح
نەکرێت
ڕیزی
but
پتەو
بکەینەوە
بمان
##یلی
حەق
سێبەری
عی
##av
##ناوی
میوان
فەیل
##وردن
تیا
مەری
##امەتی
ناوچەیەکی
تایبەتمەند
يینتەرن
سەرکردە
سەنتەر
بڵاودەک
##ne
خوشک
ياکام
سینەماک
دەسەڵاتدارانی
##وتی
منداڵانی
بۆنەی
مارک
لوبنان
کەسایەت
شیر
پێشکەشی
بەرێوەچوو
خزمەتگوزاریی
گرووپی
پێکدا
يەکادیمی
پیت
ڕامی
ياشکرایە
نەش
##شار
پێویستیان
##وویی
39
لەبەش
دادەنرێت
##ڵێت
##ادان
لەسلێمانی
لاوی
بڵاوکراو
مەڵبەندی
بەرب
کورس
دیاریکردنی
##ation
پڕۆ
##اسای
ویستی
هەڵە
تەب
##قامی
##جێ
نییه
توندی
يۆپۆزسیۆنی
ڕاستیدا
##نەکان
شارەکە
ياغ
کۆمیسیۆنی
بنچ
بودجە
##اکاندا
يەگ
واته
ڕوب
یەکسان
يامادەکردنی
بڕوان
##رخ
لەکۆن
##ایەو
لەهەول
لەرێگەی
پزیشک
دەبیت
##ێدا
فیدراڵی
فەلسەفە
تەقینەو
توانیان
دیمەن
پێشت
ڕۆمانی
##الان
ياکامی
##ەبێت
ياوات
دووەمین
خەڵکە
يەق
يەیلول
وەربگرێت
##ــ
وشک
##نانی
بۆي
خێڵ
يیرادەی
مامەڵەی
قاسم
جەو
##پێکرد
هەنارد
پێب
##یشیان
هاشمی
دیکتاتۆر
ڕوونکردنەوەی
باراک
پێشوازیی
سەڵ
##ارن
حیزبەکان
يۆتۆمبیل
زوڵ
هەربۆیە
##ڕەس
هاووڵات
یەکلایی
بەرژەوەندیی
سار
نیشانەی
لەلێدوان
##امەت
حەو
لەشک
زەحمەت
هاوپەیمانیی
##ۆکر
##کرن
بەهێزی
هاتوچۆ
لەسەردەمی
لەبری
دێن
مانچ
##ڵانی
##ەستین
تەح
پێکهاتەکانی
واقیعی
يەشک
کۆریای
ڕەگەزی
##ired
پارێزگاکان
##em
بەراز
requ
پارچە
بەکوردستانی
##لایەن
هاری
بەدڵ
##ێوەر
required
داخواز
قەبارەی
##ژەن
تاهیر
##الیستی
هزری
ڕابردووی
مەبەستە
سان
ڕق
##ساز
مانگە
بۆرژ
##mail
يیج
يیداری
دەستەو
##لانی
##ابەر
وشە
##اکردنەوەی
##ەزانی
ياماژەیه
قەرەب
یون
گەیشتە
يێمەدا
زانک
شەرع
##هەڵاتی
مەدەن
تەمموز
ڕایانگەیاند
42
بزانێت
گرێبەست
سەروەری
فەیس
پەخش
ناگ
ویژ
ياماده
بەشێوەی
برایەتی
توانیویەتی
ژنە
##استیدا
ياراوە
کۆبونەوەی
ڕووداوی
##ژیانی
سل
ناسراو
خانەو
سزا
ترسی
دەژی
##ڵق
دۆزی
کەوتە
ماست
خۆپیشاندەران
مون
کارکردنی
دەبنەوە
يیسلامیی
تان
هاوکێش
هۆن
جەوه
یانەکانی
مانچست
ور
پەیوەندییەکی
48
##شاد
##ts
وێنەیەکی
##دەدەن
##ێرێت
نێ
ڕەمزی
پرسیارە
بنەڕەتی
ياخۆ
بەياماد
##وشی
تەکنەل
پەراوێز
شوێنێک
##دەری
هۆڵەندا
##ەسەل
ياسۆ
دەريەنجام
نموونەی
يەحمەدی
##تل
یوسف
43
##ابن
لەپێناوی
پێدەچێت
##اکتی
بەبڕی
نیاز
باوەڕی
ژاپ
يەوەتا
يازاری
لەحکوم
ڕێـ
##قەی
دەستەبەر
یەکگرتووی
جوڵ
سەقامگیری
##ەدات
بووەتە
دەفەرم
بەخێر
70
بێه
تەع
دەربب
چەسپ
سیاسیەکانی
عەد
سێکس
دۆڕ
ژینگە
یاساو
گۆڕانی
شایانی
کێشەیەکی
ياسای
بەوەدا
پێیوایە
##ەیانی
دەگوترێت
وری
يەمان
دەرهێنەری
هەماهەنگی
##گەیەنن
بژ
توندوتیژیی
لایەنه
هۆشیار
کۆنفرانسی
گۆڕی
بەڵگەن
##دەت
##ڵە
لەمبارەیەوە
کاراک
وتووێژ
هاوشێوەی
##سال
##ەرکوک
گەشەی
195
مامۆستایانی
بەرپرسیارێتی
هەرکەس
ڕۆژنامەنووسان
55
کارت
نەهێشتنی
##گان
##دانەوە
##فیق
يوست
41
کاردانەوەی
##ریت
بەخش
لەوانەی
قەد
حکومی
خراپتر
مەخ
تکایە
بەرەنگار
الع
لانی
##اوانی
تیۆری
سالار
مۆدێرن
##ۆجی
دەهات
عار
لەهەڵبژارد
دەرباز
نەخۆشخان
کاندیدی
مووچەی
دیپلۆم
##سۆن
مەعری
يەبو
##لێن
##پەنج
پەنابەران
##امۆش
دەرببڕیت
بەمان
دەگەیەنێت
سب
دەکرێتەوە
هەمیشەیی
##وەتەوە
دیالۆگ
##پۆش
گەڕان
ململانێ
حاکم
توانیو
بەشێوەیەک
موع
ناوچه
نەناس
ژیانێکی
بەڕێوەبردنی
وەرگرتن
فراکسیۆن
##بووی
هونەرمەندان
ولاتانی
سەرد
بەڵکوو
1991
دەزانی
##یرانی
گەشەپێدانی
44
کوردایەتی
ڕام
##ەشە
نێودەوڵەت
تەيکیدی
شارەزای
لێدوانێکدا
گەورەو
##ەڕۆی
لەبەرچاو
##ەکانیاندا
##ۆڕی
بەرزی
موق
بیروبۆچوونی
نەروی
کەڕ
بنووس
ڕێککەوت
بڕیاره
يەلی
کۆنگرەیەکی
فەرمانگەی
وەرگرتووە
##ri
دەبینی
پیس
لەهەولێر
ناوەکی
کاتەدا
##ew
##هەم
##ەڕۆ
يۆج
وزەی
کەند
نەبن
هەڵدە
ساڵانە
يامادەن
نەتەوەیەکگرت
عادل
دروستی
لەچاو
ڕێبین
فرۆشتنی
عەس
##گەو
##ارت
کرن
80
عەشق
ڕایگەیاندووە
دامەزراوە
حەقیق
یێ
##اندی
##سیق
بۆمان
متمانەی
حەر
هیند
هەواڵگری
ڕۆژنامەوانیدا
بخاتە
يێن
بینینی
بێج
سەعد
مەشق
##ues
کردەوەی
عوسمانی
بۆنی
ما
##خستن
ڕادیۆی
مەسیحی
کوردیدا
##تور
بەدرێژ
وز
بەسەرۆک
سێیەمی
کشانەوەی
ساب
عێراقیش
سوودی
##ایەدا
##ەکەیەوە
پەرلەمانتار
##پێشخ
میسری
##ده
ڕۆژنامەنووسی
بەرەوپێش
تیادا
لەوبارەیەوە
##خەڵ
بابەتانەی
کۆنتڕۆ
جوگرافی
ترسناک
##ستانەی
##مه
لیبیا
وەفدی
عێراقییەکان
ياسیا
##ەرەکانی
دەرفەت
هونەرمەندانی
لەوڵات
##ڕەحمان
##nd
کوردانی
##رک
زۆرتر
##پەرستی
لەخۆی
دێموکراس
ڕوویان
لەهەو
داناوە
##ژمێری
تۆڵ
شەنگ
ياسانی
يایار
بتوانین
يەلعێراق
ڕاز
نووسینگەی
ڕست
گەڕانەوە
لەدوو
ڕاگەیەن
کوردستانێ
خاڵە
##اخی
گەوره
##ژن
لەڕۆژ
خواز
ياستێکی
نادات
##عە
بیرکردنەوە
چوونە
چووە
مامۆستایان
لەعێراق
وێ
##ەخشی
خەریکە
مرۆڤە
پێشکەوتوو
موت
هەنگاوێکی
ڕۆژانەی
نەیانتوانی
##ڤین
پاکستان
##لەت
##گاو
##ێکرد
گەڕەکی
بەخشی
نێرد
##انین
يەهلی
نال
گۆڵی
لەسی
جۆره
##انن
##یەی
دەگرن
جل
##وانینی
##ەینە
ڕاسپارد
سەند
هاوولاتی
نییەب
لەبن
نەس
مات
قوب
سەندیکای
##ەپەڕ
##ۆتەوه
کیمیاب
فل
ڕوسی
نەگ
بەرمیل
کولتووری
##شتە
##هاتنی
فەرمانڕەو
ترا
هۆز
وایه
کارەساتی
گاڵ
يەبێ
فرە
بەیەکەوە
تەڵ
##وورد
لێکدانەوەی
ستی
دەگۆڕ
مەزهەب
ناویان
##وێت
یەکەی
کەسانێک
باشترە
نەرم
میت
کوردستانیان
دەستە
##تەرخ
بوارەکانی
##ەنها
##امبەری
بەرنامە
##بوونە
پەیکەر
بناس
##چونی
هۆشیاری
خەونی
دەه
زیاترە
سروو
دەبەن
ڕووداوە
يەوەبوو
شیعری
46
موراد
کردوون
هاته
شکستی
لەمیانەی
مەلی
هەبوونی
وک
وتاری
کاد
##ەمەوە
پارل
ناشی
لەکەرکوک
غەز
يەنق
سەرچاوەکانی
کەلوپ
##ێچی
لەح
کوردیی
جێگر
هەندێکیان
##الیزمی
##ەترین
داهێنان
دەستیپێکرد
هیوادارم
پیرۆزی
بچێتە
کیش
بەشەکانی
##ey
يۆکتۆ
300
ناوچەکەدا
مەبەستەش
سندو
##لۆن
قسەکردن
دەهێنن
يیخوان
قەرەبوو
جێن
سەربازیی
باڵیۆز
يەلب
مارکس
شێرکۆ
يێراندا
##کن
مەراسی
بەدوور
##ڕۆژی
##ber
گران
شاندێکی
دەرکردنی
سەرهەڵدانی
لق
داوه
عەباس
موحەمەد
دەربڕی
پێنجەم
جول
نیوەی
واتای
يەشکەنج
زام
شەم
مێر
ناشرین
ناتوانێ
ياڵای
هەرێمە
زیرەک
##چەند
ناپ
##ەخشێت
##دن
وردە
لایەنگرانی
47
بەياو
بەهر
نەخشەی
گۆرانیبێژ
##نین
شون
ڕۆشنبیریی
تیم
هەڵمەتی
يیع
دوچاری
بەرهەمەکانی
سود
جەز
سەرتاسەری
دەستبەر
قوريان
خێرا
فەلسەفەی
سووک
##ێنتی
بەهای
ببنە
حکومەتەکەی
بانکی
پـێش
دەڕوات
ڕێکخستن
تۆڕی
##کاتدا
##ماڵ
##گەیەند
یەکجار
بەرپرسێکی
شیوعی
ڕێککەوتنی
دەناس
پاڵێو
هەواڵێکی
بژی
یاریدەد
ببن
##ەخس
توندوتیژ
چەمچ
پێدەکات
چاوەڕێی
##بەسەر
##ێکان
##کارانی
ياشکرایکرد
داخوازی
ناخ
یەکەمیان
چۆڵ
پیاوانی
خواردنی
ڕەوت
بۆسەر
##بدرێت
چەق
کەسیش
زر
هەوڵدان
ناڕەزایەتی
قۆناغێکی
تیشکی
بەتەنی
پێناوی
##ێویست
##نک
##ەڵاتی
کەمتەرخ
لەکۆمەڵ
جینۆساید
دواب
هاوچەر
شانۆیی
حکوومەتە
دراوس
وابوو
يیيتیلافی
دەڤەر
کاکە
خۆشحاڵ
دوکان
49
##وانە
##هێ
##شتەر
##مێس
##ەولا
##فەی
52
لەڕێی
خەمی
##يەوە
دەستدر
قوربانیانی
شێرپەنج
ڕووبەرووی
مۆب
يارەزووی
##ورکی
بووبێت
کلاسی
نه
قوتابیان
هەڵبژاردە
چوارچێو
کەميەند
سەرکردەکانی
سەفەر
سوڵ
جدی
##ەسی
بەکر
htm
ڕوی
##ەتەکانی
##خوارد
نایات
يالان
##يی
##ێکمان
ڤێ
کێشەیە
زله
ڕیف
شەف
گومانی
دەوڵەتە
کڵ
دابوو
ناوچانە
فرۆک
##ێڵێت
متمانە
خۆشب
ستراتیژ
کاو
هاتووچ
دەستگیرکردنی
##بدەن
پۆڵ
##ch
##ۆرمی
ڕایدەگەیەنێت
يیسلامییەکان
ڕەسوڵ
51
بەف
دەرکرد
يێوارە
ود
کاف
دەشڵێت
تازەی
تەلەفزیۆنی
##پا
##زانە
شۆڤ
دەبینن
یاسایە
پیاوی
چەواش
کەلە
لەنزیک
یەکگرتو
تەماشای
شەقامی
##ad
##ونە
ناوچەیە
بۆتەوە
حیک
کێبڕ
##کرایەوە
قەن
ڕاش
##وندی
خانەی
حزبی
##کاتی
کەوتووە
گوێب
بەنزین
##ەویت
##نشین
دێر
##لێ
دڵشاد
قوتابخانە
بەرپرسە
##گێر
بڵێ
دنیادا
194
فەرماند
ڕادیۆ
جیهاد
##فرۆش
لەپاش
خولەکی
پەنابەر
گرینگ
قاچ
بوونەتە
##ەپێدان
قسەکانی
53
جۆ
پاڵەوانێتی
لەشکری
سەرژمێری
يەمەی
نەژاد
نزیکی
هەڵک
سەرەکیی
قی
##گراف
عەبدولڕەحمان
لەپەی
هاتوو
نەخێر
##پێد
تەکنەلۆژی
بوش
کۆیە
##مانەی
شانۆگەری
گەمار
دروشمی
90
الح
خوێندکاران
ڕووخ
سەلاحەددین
دەمێنێتەوە
بڵێت
دەتوانرێت
هان
##راوێکی
پراکتی
پێموایە
هێزو
ڕونی
ڕێزی
لەڕێگای
پاریس
فەت
ڕەحمان
##ینه
بەتوان
##کردنەوەو
پڕۆژەکە
نەمان
##گرم
زێب
دەره
کرێکاری
##ێرای
یەکێکی
سیاسەتمەد
بەوه
##ستەکان
ناتوانین
بنەما
بەشداریکردن
مەترسیدار
کارمەندانی
پرد
بەها
عەلمانی
یاخی
کاربەدەست
پێشبڕ
##ani
سەردانەکەی
تاد
هەڵەی
نیسان
گۆڕەپانی
54
##ورتی
یانی
بەرگریی
فارسی
کەریمی
لەزۆر
سەلماند
##ینەوەو
گرێد
پان
کوم
موچەی
ناسنامەی
فۆرم
##کێکی
مەکەن
بێبەش
یاداشت
جیابوون
جیاوازە
مشت
ڕەنج
##مەز
بەيامادەبوونی
مۆسیق
##ەجێ
مەرگی
سوننە
گوێی
موبار
شەپۆل
بڵاودەکرێنەوە
زەمین
نەجمەد
بانگەواز
الن
هەڵبەت
گەنجانی
فەیلەس
##ow
##یداوە
فرمێس
دیموکرات
بنک
بگاتە
دەستپێشخ
شەهیدانی
ناوەڕاستی
دەوروبەر
يەج
نوێژ
واشنتن
تایبەتدا
گرنگترین
دڕند
ماس
##اوەری
لەکوردستاندا
##ەرەوە
زیادکردنی
درەنگ
مۆڵەتی
سڕ
56
##بهێنێت
کەد
بایەخی
شاد
بێي
توندڕەو
ببینێت
بگێڕ
##ەنین
##ەدار
هەف
##ەتاح
ڕووداوەکان
جەه
ڕوویدا
يەمن
پێغەمبەری
پێر
جووڵ
خولەکە
##ەکانیانە
##og
باڵەک
قارەمان
تەرم
يەستۆی
هاوار
دەوڵەتێکی
دەرفەتی
بێتەوە
لەوانەش
جگه
پەنابەرانی
##ڕای
57
پانت
ڕەزا
باپ
لەدیدار
تەيکید
يۆرگ
##ینگ
##ahoo
کورتی
هاوسەرگیری
خۆشحاڵی
##رێس
شۆرش
دۆر
تونس
سۆسیال
پەلاماری
چەمچەماڵ
نازانێت
شیرین
دەڤ
نازناوی
yahoo
بەشداریکردنی
پەت
##بێتەوە
##اسیۆنی
یەکە
##ێنەی
وەردەگرێت
##یەکەی
هەڕەشە
بێجگە
يەمریکاو
##ارەیان
زێباری
جد
لەبەرژەو
جاڕ
هێو
بەتایبەتیش
هاوڵات
نەشتەر
سویسرا
##کەوتی
بەهەڵ
سیاسەتە
ام
يامێری
خاڵێکی
بەکۆمەڵ
ببەست
ژیانیان
ناسراوە
##فتی
بنەماکانی
بەرشەل
کراوه
تەرمی
هاووڵاتیانی
تورکیاو
##ەنجوم
دەنگیان
کێڵ
چاوەر
##شەممەی
##dd
مەڕ
چینایەتی
يەوەمان
بەدرێژایی
گەڕەک
ماوەتەوە
بەجی
بەرزنجی
هاورد
لۆژی
قبوو
چا
دەبێته
کۆشکی
##بەش
ڕاگەه
##بوونەو
کاتێکی
مووچ
هەلی
يیمەی
نەین
##یین
192
##ەفور
بیرۆکەی
##ناڵ
ڕێکخراوێکی
لەوت
وێنەگری
##تاری
##ەبەیانی
خۆڕا
بڕیارێکی
کیلۆم
بۆخۆی
يەح
##اهیر
کامیل
##کدا
تاوانەکانی
بەرازیل
جەلەولا
يامادەکاری
##ەپە
خەلیل
ناردنی
بەکاردەه
ڕەخنەگر
کوردەکانی
دانیشتوان
چل
پۆستە
یانە
شەڕە
هەژاری
خەلکی
##ەوەن
##ەسەڵات
تۆمەتی
لەپەرلەمانی
عەدنان
ياڵوگۆڕ
شەی
بپرس
دیکۆم
پیاوێکی
چاکی
##نسی
هەولێرو
سیناریۆی
بکرد
لەپارێز
پێشو
دروشم
##اکانیان
دیکەدا
دادپەروەری
دیو
لەياستی
بەدیهێنانی
فشار
گەورەتر
بەهرۆز
##ەکردەوە
بێدەنگی
هەندێ
مەرجی
##ەکەتان
بەرێوەبەرایەتی
##ەشیان
يۆسکاری
##شتووە
پارێزگا
يەیاد
##هی
ڕێورەس
میلیشی
پرەنسی
خوێندنەوە
زۆربەیان
ماددە
گلەیی
ویلایەت
بکاتە
زێڕین
قوڕ
##ژە
یی
بینیوە
پە
##ڤە
مەنس
لەپاڵ
سەرپەرشتیاری
پێشتریش
ڕاگەیاندووە
بێژ
##امانی
##گاکان
بەفر
ناکەم
بناغەی
ساو
سیر
##سەری
##اییە
##تنی
ناڵ
##ایدی
ولاتە
هەڵسوڕ
عارف
نەدا
موش
لەقۆناغ
گەیشته
##ارەکەی
یەکڕی
ڕەمەزان
##رۆنی
حساب
تاڵی
توور
##ۆوە
##لوبەر
ناخۆش
سوکایەتی
##ەح
شارەد
هاوکارمان
##فرۆ
تێکست
فەز
باج
گرتنی
هاوولاتیان
##ave
دەستەواژ
مەریوان
st
يوس
هەردەم
کەوتنە
هەژاند
##اتۆری
سەرانی
شانۆک
هانی
کارێک
وەربگرن
##اکه
##بووم
سەڵاح
کۆمەک
##قر
مناڵ
بیروباوەڕ
بێو
کەمە
لەهەڵ
کۆبوونەوەیەکی
قۆناغە
بەپێچەوانەوە
غەریب
##اراست
بەتەنیا
زاری
##ینەکانی
تەقەمەنی
کۆبونەو
##هەلاتی
لێدانی
دەمهەوێت
قایمقامی
ڕووخانی
کەسەی
نووسراوە
کریست
دڵخۆش
##دایه
نادیار
بەزۆر
##کاتەوە
##اییەکان
کەيەم
##زۆ
کەسیان
مادد
کۆمەڵایەتیی
##فیس
چالاکوان
##ادین
##line
##ایەتە
##ێتەوه
نەگەیشت
##رایە
##ردومان
##داد
ببێتەوە
پله
We
ڕووسی
مەتر
ڕەي
زیادی
لەناوبردنی
تاریق
يامراز
ناکەین
مەگەر
حەمید
پێشمەرگەو
لەتی
حکومەتێکی
##انەکەی
##ۆنت
##انەن
وج
##ing
زوڵم
##50
مانەوە
پاسەوان
یەوە
ڕێکەوتی
خزمەتکردنی
فەڕەن
مانا
بەهێزکردنی
خەیاڵی
بەنیاز
کچی
##اندەوە
تاوانە
##us
چۆمان
دانراوە
لەرۆژ
##istan
##گوزاری
بەشێکە
دەچن
بالای
هەڵسوکەوت
ماچ
ڕوونیشیکردەوە
هەورامی
يەوروو
##تەی
سایەی
دەريەنجامی
خۆپیشاندانی
##70
##الا
لێکۆڵینەوه
بووەوە
##ادایە
لەلایەک
ڕێزلێن
کادر
پاشم
باسیان
حەفت
کراوەتەوە
بابەتێکی
بەرگی
بێگ
نەداوە
پێکهاتووە
حاڵی
##گەن
قازانجی
##ەنجومەنی
بوارەدا
##ەداو
ڕەتی
##يە
##ەوەست
تاریک
توڕ
یاریزانان
پەرەسەند
بهێنە
فەرهاد
لەبەشێکی
وڵ
يیمز
##lan
دەکەینەوە
لێوە
يامۆژ
ڕاستییە
بەڕێوەدەچێت
##تم
##ard
##ەرەی
موخت
##وەز
ترە
تەها
##سـتان
##ەکراو
شتە
دامەزراندن
##حیم
خۆپێش
##ومی
یاساکانی
بوونەوەی
سیستم
باژ
##پێچ
یاسین
ڕێوڕەس
ڕەسەن
مۆز
ستاند
بێش
گێڕانەوەی
فەرامۆش
تەکنیکی
##0000
ڕادەستی
يەستۆ
قوتابیانی
##شتەی
##الە
ڕوداو
مۆڵەت
دەنووسن
تریان
بانگهێشت
##هم
##ەید
لێکۆڵینەو
##ەستینی
##کەت
کرم
شاک
گەری
دیالە
ڕەج
یەکەمجار
پرۆژه
لیژنەیەکی
بەرزکردنەوەی
دەبینرێت
فەتاح
نوێت
ناتۆ
وەرنە
مایک
تووش
هاتۆتە
يەرشی
ترسن
##ەرێک
##ەکانتان
هەردی
have
حەش
کامەران
يەتۆمی
لاوازی
##urdistan
فکری
يان
نایابی
خەڵکانی
کێشەکە
##يەو
کورددا
تف
چیە
پەسند
ڕۆژنامەوان
شور
گەردوونی
مارکسی
يەنوەر
بەکوردی
خیان
##فراند
ڕاهێنەر
پێشهات
هۆل
يامادەیە
يازادکردنی
قازانج
##پەروەر
يەنت
جەر
حسابی
محەممەد
خۆڵەم
سەربەر
بیرو
##دەخات
ماسی
##شمان
دەرکەوتنی
مەسەلەیە
يیماراتی
دەمی
کرابوو
تۆر
دەربەندی
وڵاتەدا
هۆکارێکی
in
نزم
جیاتی
شاعیری
بەخت
فیلمە
کەيەو
دەربڕین
59
کردۆتە
سەرەنجام
شارو
کچه
یێن
پڕۆژەیە
کۆنسێرت
ماڵپەری
يەستێر
دەنگد
خانمە
ماون
دراوسێ
شێوەکاری
##ێمە
نایاب
##ەڵەم
زلهێز
##شتیی
يۆر
بمانەوێت
##ێدەکات
لام
يوت
نەوەک
online
##اتا
يۆجالان
##ەزم
##ەخۆ
جلوبەر
بۆردومان
سیاسیدا
##ەکەیەتی
يەمنییەکان
سەریان
باڵاد
بەوەشدا
داگیرکەر
کارتی
کڕینی
عێراقە
پەسەندکردنی
##زێ
زەنگ
##بانگ
##مانەوە
150
##خستنەوەی
پشکنینی
لەڕاستیدا
دەروازەی
ماڵێکی
پوور
يۆگ
تێبینییەک
جەبار
سەرکردایەتیی
پەرست
لەمانگی
ژووری
پەرە
ڕاپۆرتێکی
پەیڕەوی
ماڵەوە
نۆڤ
وەردەگرن
ياماژەشی
مەیدان
کەیسی
يەوتۆ
سەلی
##ادەیەک
خاوەنەکانیانە
بمێنێتەوە
شیعەکان
##ێنراو
گوتیان
دانیشتووی
خەلی
کوشن
چێژ
پەیوەندییەکان
نامۆ
gues
guests
##ژەی
##ۆکه
بەشدارییان
ڤیت
دووشەممە
892
سۆم
لێدوانی
بکەو
فاکتەر
##اندنەوە
##ag
لەسەرجەم
بوارە
لەپشت
مەزهەبی
##تەمبەر
لەيەنجامی
ناودار
هێرشەکانی
فرۆش
دەستپێکرد
ژەه
##ایەوه
ژیر
لەياست
پەرلەمانتاران
پێداچوون
بڵاویکردەوە
##ەختە
دەستپێکردنی
جودا
نەجمەددین
##ێرا
لەداهات
عەبدولم
سزاد
دەستپێکی
يەوروپی
ناساندنی
لەزان
هەرس
تورکیادا
##اندایە
هێناو
دەستبەرداری
جۆرج
شەرەف
بەرجەستە
##ەمەز
هەژمار
قسەکانیدا
پیشان
سەرمایە
##ڤیل
لەوەدایە
دەوڵەتانی
سڵ
هەردووکیان
پسپۆر
نامێنێت
تاڕ
##pl
دەبوایە
هەڵوەشاندنەوەی
ڕانیە
هۆکارەکانی
گوزارشت
بێکاری
يەخلاقی
ڕاپەڕینی
ناسیون
پرۆگرام
ڕاپرسی
شێوازێکی
پێشکەشکردنی
193
##کرنا
بەرنامەیەکی
سەرۆکوەز
تیشک
##امەز
موز
##ۆب
##گەیاندنی
لەبەريەوە
نێودەوڵەتیی
##دیق
##یتە
نێوانیان
کوێت
ياری
گەشتو
دیر
يەوکاتە
گەورەکان
##if
وردی
شکاو
یاریگەی
هەلو
##پرسی
يەگینا
بەدواداچوون
غاز
پێشنیار
دەسـت
مسۆ
##زارەتی
تەز
ياپ
جاش
یارییە
##ill
##لامی
مۆندی
وەلام
ياگری
##بڕین
لەشی
نەتەوەکانی
يەبوب
خۆشیان
دهۆکێ
ڕووداوێکی
ڕیاڵ
##مارک
درێژایی
يۆکرانی
نایاسایی
سەختی
بەتەنها
دۆخە
دەگەر
##ییەو
دەتوانم
هاتی
بەوەشکرد
لەدەستدا
ڕیزەکانی
دەنگدانی
یەمەن
شارەزایی
يەکرد
##ییدا
شتەکان
کۆنترۆڵی
بۆند
##تۆی
وانەی
شەهر
بڕوا
وەڵامێک
بریتیە
##سم
##ایەتییە
نیشتەجێبوون
##ەکرا
سیف
##ext
##پیوت
زمانە
تۆمارکرد
لەکۆنگر
##چووە
بەفەر
درێژخ
دووری
تۆک
خوێندکاری
ویلایەتی
حەیدەر
مانچستەر
يۆکتۆبەر
پاکی
##ەندێک
یۆلی
##ـیەکانی
مەرک
بینای
سەردار
لەسێدار
دەربڕینی
پەرلەمانتاری
دەنگەکانی
کۆتاییدا
نوێدا
ولاتی
##ەکراوە
خۆرهەڵاتی
کوردییەکان
جارە
لەشار
##ریب
لەرووی
بەڕێوەبەرایەتیی
بەرهەڵ
##کەو
ياوار
##لاوی
ڕەفتار
##ازم
گەن
گەشە
شوێنەو
ڕۆژنامەنووسانی
هەوڵێکی
##اکردن
##ەکردنەوەی
نزیکدا
##انم
بڕوات
نیوز
##دوا
جوتی
ڕێبوار
جیاجیاکانی
لەجیاتی
##دەدرێت
کەسەر
سێکسی
##ناسی
##نیا
تاوتوێ
دڵنیا
بەرن
چەندان
يەوسا
##ێستاش
ناوچەیی
الی
کتێبە
##ـیەکان
شین
##ak
ناوچەکه
خەسڵ
بەتاڵ
##یلان
94
شارد
##شێوەیە
لەعیراقدا
بەدواداچوونی
##ەدەن
کارەکانیان
##درێت
کڕی
##بێژی
پێکهاتە
قبووڵ
براوەی
بوونەوە
سەق
سەردەمە
400
باوکم
بەدڵنی
يەرکە
گەیشتووەتە
يایەت
##اردی
کوردستانییەکان
يەسڵانی
نوێیە
بەندە
دوورە
خوڵق
ياماری
کفری
جیاب
##ێنینەوە
میللەتی
نوسینی
يەمڕۆش
پڕوپ
تاقیکردنەوەی
هونەریی
يینتەرنێت
هاوسەری
يوسترالی
##تیک
يیل
پاڵاو
عێراقییە
خەلک
وادەی
فلم
دایکم
يازی
##دێت
هەردو
بۆرژوازی
key
##وڕی
##ۆرتی
يیح
هۆکارێک
نیشتیمان
##ەخۆش
ڕێکخراوەکان
بەچەند
يایدۆلۆژی
##یران
کۆمیسیۆن
##end
بگەڕێتەوە
خۆیانەوە
وەری
پرۆسەیەکی
چالاکییەکانی
دابمەز
پێویستمان
سەپاندنی
باشور
بڕە
##وڵێت
قەرەدا
وەب
هین
کم
بەرواری
##گەکان
مەحموود
تێکشک
کوتلەی
بەردی
نامەی
پێست
ڕوودەدات
جڤ
جیاوازەکانی
کەنەدا
نەیتوانیوە
##ارتی
سەرەکییەکانی
نەریت
##ەلای
بڵێی
##ۆتەوەو
جێهێشت
یاسایەک
پشکی
پەشی
تەیب
##گیردرێت
فشاری
کوژراو
خەرجی
موچ
##وخ
خێرایی
##ter
کردنە
##گەیی
ناچێت
##شەو
ببات
نەتەوایەتی
بگەیەن
فیر
کەمترین
ڕێبەری
نەناسراو
##ێشی
سەرخستنی
نەمانی
##فان
##وودی
ساخت
##ۆد
##الێ
يەرکێکی
##ەتیڤ
هەڵبژاردنە
مەهدی
##لیمی
نووسەرانی
زەرد
##زیی
ڕاستەوخۆی
پشکنین
##سـت
ڕێزگرتن
تاس
##ێرین
##ێکدایە
بەهەشت
هەریەکە
دەنێت
##بەندی
##ەدەس
##بکاتەوە
بەرەنگاربوونەوەی
##رەت
##ەکانیشی
کردنەوە
ڕێژەیەکی
دۆن
##ton
موج
ڕەنگدانەوەی
##رەتی
تایبەتمەندی
ڕوخس
تۆز
##نت
ناوەڕۆکی
##هێشتی
تەف
ناڕاست
بەياسانی
##ەکیم
یانه
ڕۆژەی
ڕەخس
کلیپ
mail
نێوانی
##ass
يەمانەش
##اییدا
قەناع
موختار
##کارە
ڕێن
کۆمۆنیستی
لۆک
##لیا
بنکە
نەتەوەیەکگرتووەکان
##ەنه
مەغ
##ازدە
گەشەکردنی
ووڵات
##کۆم
ياڕاست
لەوەدا
##مێنێت
الق
##کل
##کاند
هاوچەرخ
پال
دەستدا
هەبوون
لایەنگری
حەڤ
##ەیەکیان
نەمر
##سوڵ
بەستنی
يەلق
##ووش
گۆلی
مێشک
هەژم
مانگێک
ڕێگه
زێد
لەلێدوانێکی
یوت
##بلۆم
بەرگ
کۆمپانیاکانی
يیسرايیلی
سەرلەن
##ەروو
ڕاهێنان
لەبەرامبەردا
هیل
##انەکان
##ەکانیانەوە
ڕۆشنبیران
##روژ
خال
لەتەک
خۆڵەمێش
زاگ
گی
لەلی
بەرزب
دەستبەسەر
##ییەدا
ڕووەوە
##جاری
##فا
##داوه
مش
باکور
حەزی
##ەبن
دەرچوونی
کەک
لەتورکی
##ەخسی
بخەنە
##دەبێتەوە
بنیات
کاربەدەستانی
بخرێتە
لەيار
فرانس
یەکسەر
فەری
بکرێتە
##ییەکانەوە
لەهاو
ماوەکەی
##ەکانى
نووری
دەیەوێ
دیاله
هەرێمدا
يەخلاق
گڵ
##ەمینی
ياوڕ
ساغ
تیرۆرکردنی
کۆسر
یۆلیۆ
##لیۆن
##ايی
کەناڵەکانی
ڕابردو
موبارەک
دەرناک
##گرنگ
##بول
##ame
ستراتیژیی
دیوار
##یدان
دڵت
پێچەوانەوە
##بری
##ەکردووە
بانگهێشتی
سفر
يەمجارە
بەرجەست
##یشەوە
مارس
ببینن
تەڕ
پێکدادان
مۆس
ياسایییە
دەستخۆشی
##ێژەی
دروستکرد
ژەن
يەمینداری
مژ
ياشنا
ڕادەیەک
بەسی
##ەچ
ڤیدی
تۆق
##ڤا
سیاسیە
##انسەری
ڕۆیشت
پۆز
خەز
##گرێ
کانوونی
قەیرانە
موڵکی
مسۆگەر
يامانجە
شایست
ماستەر
ڕەچاو
چاکسازیی
چاودێر
کیمیایی
##ێته
هەڵگیر
ساڵان
فەرەنس
چەسپاندنی
سەگ
ياسیایی
نیشانی
سۆڤی
میهر
يو
زۆریش
بشک
دەخات
پت
##anc
##ەڕێو
پاراستن
گوندەکانی
دیناری
قەند
##سازی
##ێنیت
ڕێکخەری
دێنە
ڕاپەر
بەرێوه
سلی
بنیاتنانی
شەفاف
##ووکی
يەوەیه
##گۆڕی
دەرد
##خۆف
خۆشگوز
ياگای
یونس
دەرچوون
يۆتۆمبێلەکانی
ملکە
سەنگەر
خۆشە
بیل
سەرز
دەترس
کۆپ
فراوانی
دەدو
عاشق
فیش
گوش
کردم
ناخی
بوونیان
درێژی
يەبوبەکر
##ورم
##کراوەکان
کۆمپیوت
چوارشەممە
##لاو
ياوارەکان
ماری
بازنەی
وێستگەی
لەژ
دەیانەوێ
کۆمەڵگادا
شایەنی
نەبین
بەزمانی
يیمتی
##urn
##زو
ياشن
يێواره
داگیرک
پڕوپاگ
دەبێ
جەستە
##اە
##بکر
##پۆشی
##ەکاو
یانەکەی
يەوێ
دەروون
##ۆنیۆ
بەرپرسیاری
عیر
جەوهەر
مع
##راب
##الەت
باه
بگرین
##ەڵکی
##اشان
لەماڵ
دەرچووە
سبەین
لەسەرە
پاڵت
مەسەلە
75
بەرهەمە
ژاپۆن
##ەدوای
هەڵۆ
لەيەنجومەنی
بەناوبانگ
کیلۆمەتر
not
شیری
##گوێ
دەستەڵات
يەمەیش
کارەی
پێیانوایە
نوسینگەی
چوارد
نوێترین
وڵاتێک
ڕابەر
ڕەحم
پاسەوانی
يیمان
عەشیر
مه
ياڵۆزی
##ۆلۆجی
##ایتد
ناشیرین
نەزان
##ابوونی
قاي
ڤان
خستۆتە
قەتەر
يەلف
کەنداو
مەف
تیژی
کوژرانی
خۆراکی
کەشتی
هزر
سەباح
نەق
دامەزرێن
تەشهیر
بینەر
ڕێس
لەناوچەی
سامانە
وەرگیراوە
شەڕو
زۆرن
پـێشـ
پێشبڕکێی
هادی
پلاندان
کۆسرەت
زەمەن
بردنی
لێم
ماک
کوێر
دەمانەوێت
زانایانی
هاتوچۆی
##قا
##ەزار
##one
ناوبژیوانی
بەرفراوان
وچ
ڕزگارکردنی
پێکهێن
لابردنی
جێبەجێکرد
جەژن
بەڕێک
تایبەتە
پەروەردەو
فەلەستین
خراو
##ویی
يەوق
لەوێش
الل
##بل
191
پەیوەندیدار
دڵم
##گم
##ەهێن
دەگات
الج
##ۆنیا
يۆپەر
##arg
چاویان
شنگ
فۆڕ
جاف
##ۆسایدی
گوتاری
يیمەیل
دانیشتووانی
فەرەج
شەنگال
محمد
##ەناو
بەدەم
دەنگەکان
چوونی
بەهاوکاری
بگات
کەلتوری
لینکەی
برایم
دادپەروەر
me
تۆش
پاڵەوانیەتی
منداڵە
دووباره
چیخۆف
پاساو
نەهێن
پەنجا
میکانیزم
will
ترو
##ژیدی
هێرشیان
##وڵمان
comments
##کردو
کەلتووری
چاودێریی
بەغدای
##omments
##re
ناوچەکەو
هن
لەپەرلەمان
نازانن
پیشەیی
##نووسی
تۆڕ
عیم
ڕیفراند
نەرویج
##ـکردنی
##ەیه
##اسە
هەفتە
عیش
##ۆخ
باسه
دڵنیام
تەنیایی
یەکێتیدا
##ـیه
دهوک
يیسلامیەکان
وزە
وخ
مەسع
بەسەری
فایله
##ییەکانیش
سەري
شەشەم
خوێندکارانی
دات
ڕووت
یەکەمدا
ڕێـگەی
عوم
کەنی
##ێتم
##اباد
بەڕای
لەقەڵەم
ببنەوە
سامی
مری
##عەت
##ارییەکان
الس
بش
فەلەستینی
میلان
##گرانی
ناوەڕاستە
توورەج
##ەڵە
هەڵسەنگاندنی
وڵاتان
العر
دەپرس
ڕوونکردەوە
هاتوە
ڕێگر
بەدەستهێنا
نەینەوا
شارەدێی
ناوەراست
شەممه
ڕێوشوێنی
خور
گەو
##اردا
ماڵياو
دیموکراس
فڕۆکە
جۆراوج
ياوەدانی
بەدەستەوە
اڵ
دەردەب
بگیرێت
بۆرد
##ێڕاق
تۆمارکرا
دەستکاری
##ورە
مایەوە
جیاکردنەوەی
یاساکە
يەرم
قسەو
دەرکەوتووە
پرێس
ڕۆژنامەگەری
يیمزا
##موکر
Add
Share
قەل
ژیاندا
پەیوەندیدارەکان
عەدا
مێز
##bo
دیداری
##کارییە
لیوا
پیشەی
خانەنشین
##پڕ
ڕێباز
دەربەندیخان
##کترۆنی
یوتوب
ماوەیەدا
پێشخستنی
چەکدارەکانی
##ember
پێشی
خستن
گوزەرانی
لەپرۆ
##بهێنن
وایان
بوونه
تەلەفزیۆن
ڕێککەوتننامەی
and
خۆیی
کوتل
یۆرۆ
سەرلەنوێ
بچنە
##ەجی
يامانجەکانی
جگەل
بکەی
یاسایەکی
شارەزا
سعودیە
سالی
##رێنە
ناوەرۆکی
##ۆرد
پێیە
##کەریم
خەند
##ەوتنی
چارەی
هەڵدەب
##اهەنگ
کەوتوون
ڕەجەب
وایکردووە
نابن
سێشەممە
وەفدێکی
هیچیان
ياماژەیدا
بوەست
عەقڵی
تێگەیشت
کەسەو
لەهەرێم
بید
Name
##کەش
یەکشەممە
جوم
دەرونی
لێبوو
مەڵبەند
hot
يۆگۆست
بیانووی
پاشا
##ێڵی
##پێو
سابیر
ڕەوان
کەسایەتیی
لیبر
توێژینەو
##ایەر
سودان
گەیشتنی
ساڵانەی
ياسۆی
گازی
سیستەمە
ڕووناکی
يەمەریکای
##لێکراو
مادی
پەیوەندییان
لەباز
hotmail
ڕەيوف
گەشەسەند
بژین
cl
پێشەنگی
تۆفیق
دەنا
گۆڤار
##جاریش
نايوم
مۆبایل
##yle
##هاتووە
دەشنی
يەرسەل
پێشنیاری
##گەرایی
وەی
##ەڕی
تێدەپەڕ
شا
##ێکت
##وومە
شەرعی
يەمساڵدا
باژێڕ
قێز
##ندە
##انییە
##سیم
يەوەیش
بکردایە
خراپە
بردنەوەی
دۆزەخ
زانیارییەکانی
the
بورهان
زیانێکی
دەدەم
زەمان
کوردیان
لێدان
پێناسەی
جاریش
##id
##ایانە
##اڵح
ڕاستەقین
##un
هەڵبژێردراوانی
شەخسی
##اتان
##ەبێژ
لەسەرت
ڕەهەند
ناوز
هەندێکی
تەماوی
ڕژێمە
##دەکەی
پەیمانی
يایندە
ڕادەی
جموج
فیستیڤاڵه
دۆستی
بەیاننامەیەکدا
یاریدەدەری
تەلەفۆنی
شۆڤێنی
بهێن
عەمید
تاکەکانی
هەرکات
کۆلێژی
سەرسوڕ
يەسوات
يەرسەلان
بوم
نووسەران
داڕێژ
شێت
تێگەیشتنی
بگو
##ەسەر
پەیمانگای
dec
##چێ
هاور
عیماد
دیاردەیەکی
قەندیل
##مین
ستایشی
دوژمنی
تیمی
بداتەوە
ناياسایی
شەست
##ab
پیاد
##نەب
ڕۆژێکی
داخستنی
عەبادی
##شترین
داوەو
دیسانەوە
وریا
يەنبار
##وەند
پێشنیازی
##ورت
یاریزانە
جیاوازیی
پێناسە
سویدی
مووچە
مۆدێر
بەتەواو
67
سدیق
style
بەجێهێشت
زەحمەتکێش
يامادەکاریی
بەیاننامەی
کوژرا
هەڵمەتێکی
بەخۆیەوە
گڕ
##احی
يارەزوو
##oll
class
##ەرای
ياستەنگ
دابنرێت
دەسەڵاتێکی
ڕێبازی
يێزدی
هاتووچۆ
##سەد
##دەکەوێت
دوێن
دەبینێتەوە
بڕیاریدا
ret
کیبۆ
##ونجێت
تێکۆشانی
##خراوی
هەڵـ
text
گێر
لەنی
وڵاتدا
لاف
يایدیۆلۆژی
شانی
##oration
کێبڕکێی
##ایا
کۆنی
گەنجێکی
سادە
##ارێ
بەڕی
##ایەق
نمایشەکەی
تۆی
##باز
بدەم
##ect
##arget
پیاوێک
ڕەشی
سەرج
مەبەستم
تايێستاش
تراژیدی
بەمەر
پەرلەماندا
share
##ومار
وڵاتەکەیان
تابلۆ
کۆنترۆڵکردن
پاڵتۆکەی
return
نەکردنی
##lank
target
ژنێک
comment
##گن
##کراوەو
یارییەکی
click
دەوەست
##ووین
هوشی
##اوەیەکی
##بکەنەوە
گوتن
فەلسەفی
تەوافوق
بەرلین
ژمارەیان
دەگۆڕێت
دواکەوتنی
none
لەسنووری
##ەتیان
onc
چواری
گەشتیاری
##play
ژێرد
button
blank
##ونەوەی
شێم
پێشانگ
دڵسۆزی
fbs
decoration
onclick
پارێزەر
نیشاندا
هەلومەرجی
برزۆ
لەهەمانکاتدا
دەنگە
بڵاوبوونەوەی
لێکەوتەوە
##بات
برۆ
##ەوەکانی
کراوەو
فاز
نەچێت
سەرقاڵ
تێڕوانین
دەنووسێت
##کردەوەو
##ەکانن
خۆیەوه
بتوانێ
##بکرێتەوە
##نامەیەکی
##isplay
##شـت
دیاردەیە
وق
##کراوەتەوە
##ابرد
##ەکەیاندا
يۆپۆزیسیۆنەی
##ووکە
##ادەیەکی
وتەبێژی
هەزارو
غازی
قوو
ياوارەی
تێکڕای
بوایە
دەفەرموێت
بنووسیت
دیمەشق
##ەنتی
يێستە
دەستدرێژی
جاڕنامە
پەیوەندیەکانی
دەبینم
##دارانی
یارییەکه
##ابەری
گەورەکانی
##پەس
زاگرۆس
يینتی
حەماس
فەرمانبەرانی
##اسان
ڕاهێنانی
شیاو
سەرپێچی
لوتکەی
فۆنت
لەوێدا
جارێ
گووتیشی
وو
ناکوڵێت
##ۆرە
دەچنە
لەتیف
هەیەتی
تۆت
دابێت
باژێڕوانی
نەدەکرد
يەدرەس
##رەز
دووشەممه
بارودۆخە
بەبڕ
نايار
ویلایەته
بەهێزتر
کاتێکیش
تەندروستیی
حم
يیتاڵی
##ۆفێست
هۆرگ
میوانی
بەڕێوەچوونی
سیستەمێکی
چوارەمی
تێکدانی
حەمەی
ڕوک
شەریف
##ۆمپی
فیلۆفێست
لێکرا
شێمحەمەد
لەوه
هاوسەنگی
##ێڵنەر
##گێڕی
پەیوەستە
دانوم
تێپەڕی
دانە
##ومانی
کردوەو
بەرژەوەندییەکانی
کۆنتڕۆڵ
##ێڤ
دەولەتی
دۆس
حەمەغ
پەرلەمانتارانی
##ێنراوە
لەقۆناغی
##ارەیەکی
دوێتم
مافەکاو
هەنگاوە
##وۆری
فیلمێکی
شارێکی
هۆرگێڵنەر
##ەلایەن
ڕاگەیەند
يیماراتیەکانی
یوتوبوۆری
کردەی
##خانەکانی
کاراکتەر
کۆسپ
الا
##اڤی
ژماره
کیمیاباران
دەکێش
دەکردەوە
##اشە
بەرهەمه
شاڵ
بۆچون
دادەنێت
سکاڵای
یەکێ
يەلم
بازرگان
##بڵ
تورکیای
sor
بەرێوەب
تەلەفۆن
بەرل
##گریت
فەرماندەیی
ساڵدا
لەسایەی
يەفغ
نیوی
میسی
بەردەست
##دات
کوردیت
دوێنی
ياماژەیان
هاوسەنگ
ڕۆیت
وەستان
يەدی
دیدی
مەخم
##ێنمەوە
هەرەس
دەڤەری
عەبدولکەریم
کوری
##اردنی
فیدڕ
یۆنان
موڵک
يومێدی
میدیاکانی
نمونەی
##گات
ڕەوای
ڕۆشنایی
شوو
##گەیشتن
##زیۆنی
بەرگریکردن
##اوا
داواکراو
سەروەت
يەنقەرە
##هێنانەوەی
بڕگەی
يەمیر
لەمێژووی
توانیویانە
داگیرکردنی
قاعیدە
ساک
حەمەغەفور
نادەن
جوول
یەکان
کەژ
##ارەوە
خستنە
دەج
ناوەوەی
بیرم
لەسوری
##ێردرێت
قورسایی
up
دواخ
##ییەوه
لەيەنجام
يەمنییەکانی
##ەگەز
گفت
کوڕە
##وند
مووس
بەرهەمهێنان
بریاره
بەياش
ڕاگەهاند
کەڵک
##نداڵ
سێد
دروستکردووە
پشتگیریی
##ێمەوە
دەشتی
##ێنەری
بلی
میتۆ
##امین
دیج
کارگەی
65
##ساڵی
يەدات
##ەنبیری
لەجیه
زیادبوونی
فێستیڤاڵ
قا
نۆی
دەستم
هاولاتی
توون
داوی
يەنجامداوە
1988
بەدر
##ەوای
##ەسمی
گۆی
##بەخش
پرۆژەیەکی
تۆن
خوێنەری
##ەنت
هەرچەنده
خدر
فەوجی
هەروەکو
يەوپەڕی
بەربەست
##ro
هەلبژارد
گواستنەوە
Not
غەم
##پار
##12
بکەنە
شێوازە
يەنجامەکانی
##اشدا
کیبۆردی
یەکشەممه
فۆرمی
##ەکیش
کارەکان
بەرزبوونەوەی
خسته
##ەڵک
کاره
دەسەڵاتداران
برسی
کارگێری
کوردەوە
ڕابردودا
مۆدێل
چەشنە
يوردن
سەعدی
هەڵکەوت
فێستیڤاڵی
فەراه
زیند
هەلومەرج
گەورەیان
خوێناوی
کچێکی
بردەوە
نەما
لەکۆبوونەوەی
يیق
يیشی
ماڵە
دابنێت
وشی
کولتوور
sorani
دەنگدەر
ڕاوەست
وەرگێڕانی
سڵاو
ڕەوا
يینس
قۆر
بەرە
بەوەکرد
زراندن
ڕەتکردنەوەی
هۆشداری
بنچینەی
display
##لایەک
##ستن
بەڵگەنام
##اتیک
پێیەی
کچانی
کۆبوونەوەکە
ڕەفتاری
Send
##ەبات
##کێشی
پابەندی
##سول
ياراس
بێزار
لەپارێزگای
##ollow
هاریکاری
##ify
شرۆڤ
داود
##ەمدا
نەوزاد
ڕۆژنامەنوسان
لەناوچەکەدا
فایەق
##تیکی
##یلە
##بینین
Canc
JC
follow
##47
پارێزراو
بینووسیت
کێشی
سیاسەتەکانی
ویلایەتە
##ogos
##board
تێڕوانینی
فەیلەسوف
تین
پێکەنین
کەوتۆتە
يافرەتی
lex
##ul
##ەرەکان
جێبەجێب
پێشەوەی
هیوادارین
هاشم
مشتوم
Cancel
##مای
تاوتوێکردنی
بڕوانامەی
بڕیارەکانی
تێبینییەکت
لەشکر
تێبینیەکەت
دەستپێشخەر
يەدرەسەکەت
##وەندی
keyboard
دەرناکەویت
مر
##ilogos
lexilogos
داواشی
قەومی
Notify
يەوەند
يۆکرانیا
JComments
نەخۆشخانە
شام
ڕەق
کاروانی
جیهانیی
پرۆسەکە
دڵنیایی
شارۆچک
فەڕەنسا
##دێری
ڕەسم
یەکیەتی
يەلقاعید
حەمەد
شەڕێکی
کلتوری
خەریک
پتەوکردنی
بەوات
فیکر
##ڕێژ
گرتووەتەوە
تۆمارکردنی
کەلوپەل
ياوارە
دەستپێدەکات
تاریکی
دەریای
بۆشایی
دەشک
لەوێوە
##يەم
لەدانی
يەرکەکانی
پو
جۆرەکانی
چیای
بەردەوامن
##وەتە
يینگلیز
ڕاستیی
چەت
بروسک
خۆشگوزەرانی
یه
قۆن
ڕابورد
سەیرە
يیمارات
##کەوێت
دەمەوێ
گروپێکی
الش
يەوانەش
##داران
هەڵبەتە
دەڵێین
بسەپ
موسڵمانان
ـی
بگرێتەوە
##وکی
##gh
دەکەونە
##ارێتی
پەیەدە
هاتووه
بەدوو
گووت
داهێن
مەرجەع
##ۆسی
داین
فڕۆکەخانەی
خانم
تال
تەج
لەگۆڕ
حیزبێک
مێژوی
##ریس
لێدەکات
گەیشتووە
يۆڵ
پارێزەری
عێڕاق
جیاوازەکان
لەدەستداوە
دیاردە
گەنجی
هێزێک
هەڵبژێر
لەهیچ
ڕوخانی
وەرچەر
ڕوبەر
لەبەرژەوەندی
قەی
مەول
نامەیەکی
نەبووایە
##ـگی
##کردبوو
خۆز
##ەڕاو
جاد
وێرای
ناوبژیوان
باپیر
دەکەمەوە
جێبەجێکردن
پێشەنگ
##ێوەردانی
##لەندا
ياهەنگی
##تانی
جیاک
##اکەیان
خۆکو
بیرد
هەڵم
بەشداریان
##ەقیب
ڕانە
نەتوان
##وەگەر
دەپارێز
وەح
بکەمەوە
بەرو
لەبەیان
پێچەوان
لاسایی
##ابە
یاریزانانی
2000
زانایان
جوو
فەرەید
گرنگیی
ڕوبەڕ
یۆنیۆ
##بردن
بەباشی
زەردەشت
ڕاشکاو
بڵاوکردەوە
عەللاوی
تارق
جۆراوجۆری
برس
کۆمەڵگایەکی
دەزگایەکی
وڵاتانە
شاناز
بکەوێتە
##ەکانیشیان
سێشەممه
هەرز
تورکمانی
میان
کاپ
##ەوخۆ
لەوانه
لەسەرەتاوە
عەی
دەردەچێت
زۆرینە
دوژمنانی
##ڤید
وەبەرهێنانی
##ڕاست
بوژ
سیاسەتێکی
هەنگاوەکانی
پەروەردەیی
باوە
مسوەگەر
سەرسام
وادەکات
بێلایەن
قۆناغەکانی
ڕیفراندۆم
مەسعوود
سەرانسەری
کوردەواری
سڤیل
يەزمون
شەوە
خانووی
قام
کرمان
یارییەکە
##ەکتەر
چەمک
خوازیاری
سێدار
بەڵگە
گرێ
پرسیارێکی
هۆلی
فەرموو
##ومە
بیرۆک
دەرو
سینەماکاری
##نم
گاڵت
تاکەکان
بۆنم
ڕووبەڕووبوونەوەی
##وەکان
لەحکومەتی
ڕوناک
دوورو
##گەلێکی
کای
##ارا
درامای
لەگەڕ
##یسـتی
##اکەوتنی
هەواد
دەنـگی
##پێکردنی
تووڕ
##مانیا
باهۆز
##عا
يەرێنی
قاد
نەکەوت
داڕشتنی
##ووڕ
##امەوە
گەیشتنە
شەقامەکان
##گرێتەوە
ڕادەر
دانان
لەساڵ
کۆلی
کردنیان
جەمیل
فیدرالی
پێکردووە
بهێنرێت
ناتوانم
##سوڵی
چن
##برد
##اوێژ
مرۆڤێکی
##ـکـکردنی
چوارشەممه
##aw
##دەکەم
بڵاوکراوەتەوە
ژان
##ەتێک
تەواوبوونی
لەبەردەست
پوچ
يەمریکای
##پـ
نییەکە
لەکۆبوونەو
وسەر
##ۆلۆژ
گەشەپێدان
سەح
بکێش
لێبوردن
کەچ
ڕەهەندی
سەرۆکوەزیرانی
بەرهەڵست
نیه
مەسەلەکە
##بهێنرێت
##ub
ڕیفۆرم
##شید
ڕاپرس
خوش
نیز
شەهیدی
سروود
يافرەتانی
الت
##کۆڵی
سەقامگیر
ڕکابەر
دێڕ
هەس
يۆتۆمبێلی
واڵ
وەخت
سوڵتان
خۆرياوا
پێکدەه
دۆخێکی
بگەر
ستران
قەس
دەستکرد
لێکۆل
نف
##قەر
بەوردی
ماددی
مێشکی
شنگال
بچن
بژێوی
تریشەوە
##ەهات
يیدانەی
ڤای
ڕۆش
ڕووبار
ژنێکی
##دەگرێت
ساڵیادی
ياراستە
##ونەتە
خاڵەکانی
سالا
خەڵکدا
مانگه
هەڵەبجەی
سوودمەند
فەرمانبەران
هەموان
يەمەیە
سیتی
دواوە
ڕۆژگ
شمش
بڕۆ
ڕەف
##ەوم
فەراهەم
چینە
##وەش
هیندستان
##ماس
بەسە
يیمتیاز
وڕ
يەنی
##ۆگی
ڕوودانی
گەورەیی
بەيار
باجی
##داوەو
##اشەی
250
##ێکردن
يیمپر
پشتگوێ
کارەساتە
ووت
پاد
ڕۆژان
عام
بەدەنگ
پرنسی
زنجیرە
چوارچێوەیەدا
پێدان
ڕۆژەدا
وەدەست
نوی
نەچ
نەخۆشیی
يامادەبوون
لەیاری
بیەوێت
چوونکە
دەستبەجێ
سەرکۆم
##ارکی
ياڤ
ڕووداوەکه
تام
نڤی
سەربەست
قەدەغەکردنی
يامۆژگاری
##ێنیتەوە
فراوانتر
باخچ
بێم
سەرەرای
بەبەش
بایز
عەقید
هاندانی
نۆژ
##ندی
بیاب
مەنسوور
يیف
ڕوخ
بەپێچەوانەی
مانگرتن
ڕێگەچ
نیەو
شە
پـێـ
بزانی
##بوونیان
سوورە
گرنگەکانی
نایان
هۆیەوە
يەتۆم
بهێنین
داوامان
ویژدانی
دوابەدوای
هەڵگرت
دەرمانی
بردووە
کەیس
يەمشەو
##هێنەرانی
پشتیوان
دووپاتکردەوە
سەرف
##اندوە
سوێند
مافێکی
گفتوگۆکردن
ناع
##اتۆر
گرتەوە
يەنجامدرا
##لس
بەهار
برینداری
پڕۆژەیەکی
سەربازییەکانی
بەرشلۆن
وەبیر
دەردە
قال
وایکرد
سەلیم
کا
کرانەوەی
##ێلا
##نیای
##بیلی
##وانەی
کاتیشدا
ین
##اوەند
دەرەوه
يۆغ
ڕەحیم
پرۆفیس
دۆستان
سیناریۆ
دیکەوه
جوانە
کەرت
ژیانە
بدو
بج
نەکەین
هەرەش
دیاریکراوی
نۆر
##کین
لیژنەیەک
ياژاوە
پرۆگرامی
بەرت
##دەشتی
مانایەکی
جان
گوڵی
بنێت
تایبەتیش
يەمریکادا
بارودۆخەکە
نیازی
پڕە
لەوکات
لەيەست
نزیکە
کەمتەرخەمی
نەزانی
##بێر
نەتەوەو
کلیـکـکردنی
##نەوی
دایەوە
يەکەم
سیخو
ياکامدا
کەسانێکی
مول
سیمای
بەسەرۆکایەتی
##ەکاتەوە
پلانێکی
بونیاد
وام
##وێژ
##هێنێت
##خۆیان
لێدەکرێت
دەیکات
بێکەس
يەژمار
هاوین
ڕێکبخ
##امبەریشدا
داي
سوریادا
گۆرانیبێژی
چەکدارەکان
پەڕی
چاڵ
لەژیانی
##اکەدا
دەع
خۆیانی
دزەیی
ياغا
یۆ
کەرەستەی
وێت
##ستر
بنبڕ
داهێنانی
##ترن
نەتوانێت
مرۆڤێک
مەسەلەیەکی
کایەوە
##ێینەوە
دارستان
ڕۆژدا
##ەختانە
لەخزم
ڕەنگه
دەناڵ
گوێبیسـتی
##ەرەب
##ەمانە
کۆمەڵانی
بیخ
ياڵا
داخەوە
ویژدان
پەلە
يەرێ
نەپ
ساڵه
سۆشی
##شەم
دەکەنە
پرۆسەیە
سەپتەمبەر
نارەزایەتی
##دەخەن
##15
عەلاوی
دۆکی
لەدرێژ
دواخستنی
کەموکوڕ
يوسترالیا
##دەنگ
لەشـ
خۆماڵی
ڕێچ
کوردن
کاروب
##گوزار
##اکەوتن
يەندێش
گەرچی
بەڵکە
نووسیویەتی
يینگل
ماه
ڕۆژانه
وتارێکی
ياشکراکرد
هاواری
##گایەکی
بەغداو
##سل
دێری
نمای
هەڵپەس
زەمینەی
تاکێکی
بنەماڵە
هێور
هاتنه
منداڵێکی
تەسلیم
لەوان
بەمشێوەیە
بەهۆیەوە
بەرنامەو
سۆفی
گرێبەستی
بەلجی
##راونەتەوە
ڕێککەوتننام
پێگەیشت
ڕادیک
يەوقاف
بێنێت
خۆکوژ
لەولات
دروستکراوە
لەکاتێکدایە
ياق
میکانیزمی
##تەرناتی
يەوکاتەی
لەسیاس
ڕەوشت
تێکۆشان
دەین
خۆڕ
پەشیمان
ددان
##ۆدی
##پری
کەز
شیکردنەوەی
ياکۆ
باڵیۆزخانەی
میز
تاڵان
لەهەوڵی
ڕۆیتەرز
تەقی
وع
پەنابەری
کۆبوونەوەکانی
چێشت
##ێسی
##خۆر
##ووردا
دەستت
يیمام
شەب
ڕوویداوە
تەپ
داری
الب
گەلە
يەتلەتی
62
دانمارک
##رەی
کاردەکات
يەوەدا
يەلح
بنەمایەکی
کۆمپانیایەکی
مانگەدا
ڕوونیشی
##داین
نەبینی
دەرەوەو
کۆمەڵه
بەمانای
##13
##ێنرا
کرداری
دەستمان
نەدەن
مەزنی
1999
##زه
دەستکەوتی
##000
##پێی
يۆتۆمبێلێکی
خانەنشینی
بەدەستهێناوە
خای
دیکەیان
شانۆن
دووەمیش
شـاری
ڕاستگۆ
ڕێڤ
قود
##گل
بەخێو
ياوەدانکردنەوەی
##ڕان
##روز
کۆمکاری
لەکۆی
لەدیدارێکدا
بەرشەلۆنە
درەخت
جام
بەرکەوت
فیدراسیۆنی
شوانی
بڕیارەی
لەناوچە
هەڵبژاردندا
گیرو
سەرنجڕ
##وقی
##ارانە
لێوەر
يۆسکار
دەخوازێت
##بانێ
##ڕوو
سەردەمەدا
بەلکو
بگۆڕێت
ڕادەربڕین
زەوت
کۆنف
زانکۆکانی
##تس
##اوەن
پێنجشەممە
هاوەڵ
منە
لیوای
زەق
##ارییەکانی
نووسراو
کوتلە
باوەشی
پیشاند
##زن
##ێنەنی
هێرشێکی
جوانترین
نانی
##اترین
سبەینێ
نەبونی
لێبو
##فانی
هەرێمەوە
حەرام
حکومەتدا
گوتەی
دارا
ولە
##کەوە
لێدوانەکەیدا
هەڵوێستێکی
##ێکى
بەناوبان
##op
مانگانە
چاودێرانی
نووسیوە
عم
##ەڵەی
گوتوویەتی
داخراو
دوان
پیاوسال
##ێندراو
وڵاتانەی
دیواری
گەلان
بینین
یاوەری
وەزی
يیران
سونن
دەستبەکار
ناتوانرێت
دیت
بەتوندی
لەسەرتاسەری
##بەرە
وتویەتی
سنوورد
پاڵپشت
دەرەک
باوەر
تەواوەتی
زیندو
بوونەتەوە
شوێنەکانی
##ەخان
##ۆنا
لەگەڵیدا
1992
کەهەر
##فەری
کێشەیەک
دیمەنی
تاڵیبان
يەورووپا
سایت
##ۆرین
دڵەڕاو
##وێز
##ێژن
بگەڕێنەوە
پەرتووک
سازدانی
باوەڕیان
##ونەری
حزبێکی
ڕێکەوتنی
##سوم
##ێویستی
بەکورتی
جۆرێکی
بریکاری
براو
##ایەخ
خاوەند
کەناڵە
سۆسیالیست
ماڵياوایی
سیستمە
گرفتەکانی
##دنی
##کراوەکانی
نەخواز
يەندامان
یار
يەڕ
ناوکی
ناچاری
فرۆشی
پووچ
##لیس
واژۆ
موحسین
تاپ
ژێرخانی
فەخ
وانە
##ali
##ژەنی
##تاو
لیستە
هەرکەسێک
يەدەبیاتی
جەستەیی
##شان
يەڵێت
هام
##ەوڵ
گرینگی
گرنگتر
لەمەودوا
ببێته
دواییدا
گیراوە
##ریکا
چوارەمین
جددی
چاپی
یەکەکانی
دەوڵەم
##کەرەوەی
##ارکردنی
قۆناغەدا
سۆن
شل
##راوو
يەزمونی
دەبەخش
کۆمەڵکوژی
هۆت
چای
ناوچانەی
بردن
خوێندەو
سندوقی
##eb
دیمان
لێت
کاندیدەکانی
بنێن
بەڕووی
چاکە
بەياوێنەنی
يەسپ
يەمنیی
زای
ڕاپـ
بوێر
مادام
کیمیاوی
هەڵدەست
چارەنووسساز
یەن
لەتورکیا
قووڵی
گەلێ
بژارد
##اغی
##اردن
تواناکانی
مەرکەزی
بەدڵنیاییەوە
##اییەکانی
هاوپ
لەوەزارەتی
مەکتەب
هەرسێک
کاغ
##ڕێ
##انیی
دەردەخات
سوریاو
پێداگری
یارمەتیدانی
کۆبوونەوەکەدا
or
حەبی
حەقیقەت
مەفرەز
##pt
کرده
لەسەد
هەڵوێستە
بەرژەوەندییە
##دەکەین
##ەبان
ڕەوشەنبیری
پەخشی
هەڵەیە
جیهانە
يەرسن
دابەزی
برەو
##اپای
یارییەکان
يیيتل
##اکانەوە
هەستم
گەیشتوون
##دایەو
يەدا
##زیاد
72
##اسا
شارەکان
نەکردوە
لەدەستدانی
فریاکەوتنی
چەپی
تفەنگ
هۆشبەر
نەریتی
درێژخایەن
گەنم
کۆپی
ڕووداوەکە
بەڕێ
الر
دیمۆکر
کەوتن
يیجابی
شەماڵ
دەبەخشێت
عن
##گەیەنین
بگەیەنێت
##گەیشتنی
دووی
##ary
##ەوش
بووەتەوە
هێرۆ
##ازادی
دامەزراوەی
##خۆری
##رۆی
يەستێرەی
يۆم
بێسەر
##دەکەنەوە
هونەرمەندە
حسن
بەبڕوای
کارا
کارەکەی
##اردانی
کێشه
ماڵەکەی
سیستمێکی
پێداویستییەکانی
##ێزە
برایانی
يێوەی
دیل
لەدوا
##قادر
##ووب
##ریک
لەکو
دەسەڵاتدا
کۆمەڵایەتییەکان
زور
بڵند
##ەکەیت
گۆشت
لەڕۆژی
زانیارییەکان
بەياشکرا
بێر
##ادزێ
بپارێزن
سێو
غەر
##sh
هاتبوو
داڕشت
##ەخۆشی
پارتیی
وەرە
هێند
سەرکردەیەکی
نێودەوڵەتییەکان
نکۆڵی
يۆردو
خۆپێشاند
سیاسییەوە
لەهەم
چارەنوسی
کابین
بانگەوازی
لێبوردنی
تایم
حەکیم
وگ
پژ
يەکرێت
شکاندنی
زۆرد
سزادانی
نەمێنێت
ڕووناکبیری
Th
زریان
کتێبخانەی
تورکیاوە
دژوار
بسەل
Kurdistan
to
لاوە
هۆکارە
حاڵەتە
ڕاکێشانی
##ەمەر
بەشەی
تۆماری
هەربۆی
وبەر
##هەڵو
نیگەران
کارمەندی
نوێژی
بەرێوەدەچێت
دەستنیشانکردنی
بۆشای
پێشوازییکرد
##ەنا
يەوتۆی
##ەماندا
قەرزی
لەکاری
تەواوکردنی
##یشـ
لەوەتەی
کەلەپ
##لاتیان
کونسوڵ
لەدەستی
##گرفت
ڕاڤ
شانۆگەر
عەسکەری
##بوە
##لاند
##ەوەرێکی
پارلەمانی
کەرەست
دەسته
دەقە
سەرلەبەیانی
فەزای
ڕاگیر
هێمای
يەنگ
##اوێکی
جێب
يەدەن
لەخوێند
گشتییەکان
موست
پێدراوە
بەرەنگاری
ڕووناکبیر
هەڵن
نەوەکانی
ناڕازی
63
بەدە
ماوەیەکە
دەنوس
زووتر
بانک
يەمەریکایی
زەی
ڕۆژنامەو
The
نەخوێن
لەمیانی
تاکوو
مزگەوتی
یو
پێشینەی
فراو
يێزد
يەڵماس
نێگ
مق
تێپەر
لەيەم
دەبم
نەگرت
موسلیم
نووسیندا
##ەکەوێتەوە
الص
ڕێگاو
تێو
##خراو
##اسازی
وەلامی
ناوەڕاستدا
##ڤەرپ
نەرێنی
پور
##ەواو
لک
لووت
##انەوه
کاریگەرییەکی
شێرزاد
پارچەکانی
سەلامەتی
ماش
##وع
##az
بەهی
باسکردنی
خانەوادەی
نۆژەن
##ەکەوت
هەوڵێک
##ەرزی
##ووەکانی
بەرهەمێکی
##ەکەشدا
##بیت
##لاوە
پادش
پارچەی
دوورکەوت
68
حەل
خی
کارل
##هاتن
يەرشیف
##ترو
##جێک
کوردسـتان
کوا
بەرقەر
لەرێگای
نیشتەجێ
کال
چۆنە
بەرشل
سلیمانی
##وژی
کولتوری
بڕینی
پلەو
کردار
##گەرمی
ڕووبەری
نەگەڕ
گرتبوو
پێشێلکردنی
وتوێژ
بەڕۆژ
کلتووری
##پت
هەڵەیەکی
فەرەیدون
دیز
خەڵکێکی
پسپۆڕی
کەمپین
پێدەکرێت
پارەیە
نیمچە
ستافی
ڕێوشوێن
گوتو
سازکرد
پەردەی
باسمان
تیرۆریستانی
##جگار
چیدی
دەخەنە
85
نەجەف
نەشتەرگەری
لەيای
خوێندەوە
یەکێکه
فران
پاشەکش
یەکڕیزی
##ەوایی
بووی
نیوەڕۆی
##دەوری
يیراد
سندوق
کرماشان
سۆزی
بەشداربوون
سێر
##اندزی
ڕاستیە
چەقی
لەوەشکرد
اس
##تەدا
ناسک
نەدات
حزبەکانی
تەبایی
مێژوویەکی
لوبنانی
يۆل
يیسلامدا
لیژنە
پێشێلکاری
سەرە
خودای
##زەکانی
دیبلۆم
فێڵ
##ترینیان
يەفسانەی
دیکۆمێنتی
سەدا
هاونی
سەرچاوەکەی
##رەحمان
بریتانیا
نەتەوەکەمان
ياڵوگۆڕی
##ەخانە
يالی
يێمەو
ساڵیدا
يێرانەوە
هەڵسەنگاندن
بگر
جیهانیدا
بۆمبێکی
##ارات
بخات
هاوکاریکردنی
قوبادی
قەدەغە
بەرین
160
##گەز
يەوەن
بەفەرمی
کرابێت
بایک
کاسب
قازی
لاتی
##تریش
لەکەس
لێپێچ
ماڵپەڕ
نالەب
لەشـکری
##96
##تەرا
هەڵی
يەودا
وەسفکرد
##گەلی
کامێر
هێدی
سنوورەکانی
لایان
دیدارەدا
دەپ
هەفتەیەک
دەرهەق
ڕان
مرۆڤدا
نەکرا
هاوسەرەکەی
##بۆتەوە
##انگی
تەوەری
شوف
##خستووە
يێوەش
لەدرێژەی
##نەکردنی
دەداتەوە
##جێفی
##ایەتیان
بگەنە
مۆسکۆ
سەرجەمی
لل
##ێف
##شتان
لەکێش
پەپ
##درا
بەراستی
شەپۆلی
خانەواد
##رابێت
##ۆڵە
پێشوەخت
خز
هند
##یەکە
تەقینەوە
نەهامەتی
ڕەتکردەوە
##ره
##ێرم
بڕێکی
دۆستایەتی
باڵادەست
وردەکاریی
سێم
هاوپەیمانێتی
ڕاپەرین
##بەتی
پوخت
en
حەد
فەلاح
هەوا
هەندی
لەگەلا
داواش
حەج
موک
واق
دادەمەز
##اونەتەوە
تەماشا
فرمێسک
لم
چە
هەرێمیش
دەستگیرکران
شوباتی
هەڵسوکەوتی
خە
پچ
لەشوێنی
بزووتنەوە
حسێن
بکرێنەوە
پێشڕەو
هێزانە
پاشکۆی
سێیەمین
##گەینە
ياسن
پەیامێکی
عەو
##یدە
جووتی
يایە
هەڤال
هەموارکردنی
هەندێکیش
نابێتەوە
گرتوو
کۆمپیوتەر
بەرشلۆنه
##شیدا
ناوەندە
دلێر
عیشق
نمایشک
خۆکوژی
تاکه
##بۆوە
يێش
##لەو
بەهەم
دراوسێی
ڕیت
##تیڤ
پێشکەشکرد
بۆمبی
ڤال
دامودەزگاکانی
دوبارە
دەوام
بڕێک
خۆپـ
سوودێکی
بەتەواوەتی
کەرب
ڕوژ
بەستن
چارە
کرێی
##خانەکان
هەنگاوێک
سەرشانی
##بز
##ینار
دەرگ
بڵاویان
بینیمان
گرووپە
ياژانسا
بادین
فێم
##ومب
گوناه
بخرێت
هەڵەبجەو
بپارێزێت
##ۆخی
##ەرێت
##ورا
شاره
ڕاستییەکان
جەناب
تاقیکردنەو
تۆپباران
دەنگدەران
يەوەم
دەگرت
##هام
شتانەی
يافرەتێک
ابن
بەلاڤ
کۆمپانیاکان
پشتیوانیی
هەڵەبجه
##ەکت
##وتن
دەدرێن
يەندامەکانی
داواکارییەکانی
نێوەند
##ژمارەی
دەشت
##اکەر
پرسێکی
خۆزگە
ڕانی
##ازاد
##ازێکی
بوت
کۆمەکی
##ەهدی
گەیاندن
##فیسی
عەرەبە
خیانەت
یەکدی
دەدۆز
باسم
پەنای
##ess
زستان
مێژووە
##بازی
ڕۆم
گوێم
بەژ
پێوانەی
لەبەیاننام
یۆتۆ
کاکەیی
لەیەکەم
کاري
عێراقیان
پشی
##اوم
##ادق
نەڕ
##چەک
2001
خێزانەکەی
پێوەر
نەبوە
بەرپرسان
تاوانباران
شێوەیەی
سوننەکان
لەیەکتر
هاوولاتیانی
##ورو
گرژی
پڕۆژەکان
ڕەچاوی
سەندیکا
قاعیده
هەڕ
لەمی
شۆرشی
خات
لاپەڕە
600
نەبەز
دەربری
##ەشێو
ڕاستگ
مستەف
داڵ
کەلتوور
چارەنوس
اب
نەهاتووە
عەرەبەکان
##ەسەڵاتی
جێبەجێکردنەوە
##iv
##گەیاندن
درک
ياخاو
##یة
هاتیه
##کردووەو
کەشوه
باشیان
هەندرێن
پشوو
پێشوی
زۆرمان
ڕاي
بوخ
بارەوە
بەشدارن
نادرێت
##روستکردنی
خوازراو
کرۆ
لەهەردوو
##واند
هەوڵدەد
وردەکاری
##اردان
پاڵەوانێتیی
غەد
پرۆژەکانی
##ەکرن
لەهەڵبژاردنی
##کاوی
##ێکن
داواکارین
##ایەنێت
قەرەباڵ
يێرانیش
سۆل
ها
دوپ
##پیشاند
داهێنەر
##ێژکراو
کریم
فڕۆکەی
بەردەر
يێمەیە
سەفەری
قژ
لەهۆڵی
گەرەکی
نایابەکانی
پەنجەی
يەفریقی
پاشماوەی
نیویۆرک
##76
ياوارەکانی
لەهەندێک
##ەکانیشدا
عیز
خنک
ڕێکخراوەیی
ستراتیجی
کونسوڵی
نەبو
هەنووکە
##نییە
بۆری
باند
##72
##اتێکی
جب
وێنەگرتنی
سەرووی
مانایە
هێرشە
خواردنەوەی
يامادەبووان
هەتاو
بەخشینی
ياوازی
دادەنێن
##گۆش
##ـیانەی
کامیر
کاربەدەس
ناوەوە
ڕامیاری
جلی
##شێوە
##بێتە
زمانەوانی
##چو
نیوە
لەيەند
66
حزبەکەی
لێژن
000
بووک
لەباش
##ێدانی
##اداشتی
گرفتە
هاوپەیمانان
جەولەی
دراون
دانوست
کچێک
##کورد
شایستەی
فەق
##pr
شێعرەکانی
یادەوەری
کوو
کۆلێژ
##ابێ
ڕوکن
کایەی
##ەنەکردنی
پیادە
يایندەیەکی
مەند
مەراسیم
##پێ
منداڵەکانیان
فۆل
##امن
دواییەی
شەیتان
فین
گۆت
زاراوەی
هەبوە
##وورو
تاکەکەس
تايی
##سۆ
گریان
##ەدەب
مێژوودا
دەفرۆش
سەک
##بووەوە
پێوەند
لات
##ێنرێتەوە
نالی
بەپەلە
دەمێکە
be
ند
لەخولی
فەیسبوو
دگەل
##جانی
دەچوو
ڕۆست
موفتی
نەگۆڕ
پێوەری
نایەوێت
مەهاباد
فاکتەری
خوی
نەزاه
لەوڵاتانی
بێشک
ژنانە
بڕیاردان
کۆک
دەنگێکی
هەستیار
بیروڕا
بەرچ
پڕۆژه
بەمجۆرە
بەختەو
##وڵا
گەلێکی
گۆشە
کارەکتەر
ناسراوی
بخەن
يەستەم
قەزاو
##ews
شەک
نوق
کاتەوە
بەوپەڕی
سەت
شادی
##ویان
##ڤن
لێپرسراو
لەیاد
بوارەکاندا
زانین
جور
بنوس
براک
شۆفێر
زێر
پۆش
کڕ
##ەرمەند
61
##سیتی
داوەتە
120
گەنجە
##یانەدا
لەشوێن
دەرگا
لەمەر
لەبەری
خەڵکەوە
دەکردو
ناسینی
بزانم
گۆری
##جارە
بازن
##پۆرت
شوێنەواری
ڕاگو
سادق
##ەکانیەوە
لەوەکرد
##ۆیەکی
بیرەوەر
##ایەتییەکان
کۆمۆنیست
تەخت
##ینن
##ێندرێت
قەرەداغی
##تینی
##اتیکی
خرایە
سەه
##رەم
پێهات
سێبەر
شەراک
پاڵەوانیتی
خۆپـیشـ
یانەکە
ڕێگرتن
2002
کردەو
##وانینە
چاوم
بۆیەش
##ایەوەو
##ارییەکی
تەلەفی
تێپەڕبوونی
بەختەوەر
مەین
##کام
بەکەم
حاڵەتێکی
کێیە
پڕۆژەکانی
ڕەسەنی
پارچه
گەیاندە
##گیرکردنی
هێنایە
بڕوانە
##ەلەی
کۆمسیۆنی
يامار
توێژینەوە
##کردە
کێشانە
هەڵواس
کیلۆ
پارەیەکی
##کرابوو
دەستەڵاتی
يەڵێن
org
يامەد
##حیا
ڕونکردنەوەی
خۆشبەختانە
پرەنسیپ
##حە
##داریی
لێدوانێکیدا
مەترسیی
کەسێتی
هەواڵە
کانت
احمد
یاساکان
##ێردا
خۆس
يەنجامدراوە
يەندازیاری
يێستایش
لانیکەم
کەیەک
ڕۆژهەلاتی
##فتوگ
پارلەمان
##نیی
دەیەوێت
دەیکەن
دەرچووی
نەیانتوانیوە
فکر
##ڕووی
##کردنێکی
دابەزینی
##ەباتی
##ەنینی
پەیکەری
پێناد
جەزاي
هەڵـبژارد
لایە
وازی
يەمەیان
پارێزگار
نەدەبوو
خۆشم
لەتوان
قۆڵ
ناودەب
##ۆمێنت
زانینی
##نەوەو
##امدا
بەيامان
بڕیارەکەی
##ەکەشیان
هەنوک
خۆپیشاندانەکانی
شەرمەز
قو
##شێوەی
##48
ياوەدانکردنەوە
لەکۆبوونەوەکەدا
قون
تێدە
موقتەدا
بەلی
یەکگرتنەوەی
محەمەدی
پانتایی
يەرژەن
يەدیب
نەیویست
مامە
يەجێند
وروژ
قەزافی
بگواز
##ایلی
##اگا
ڕابەری
منداڵەکانی
فیلمەکە
وۆرک
##32
##ug
لاپەڕەی
##im
بەگرنگ
پەیوەندیان
سەلەف
وەفد
ڕکابەری
عیس
بێگەر
مافەکانیان
شارەزایانی
پارەو
میژ
يازادیخوازی
مانی
بەکرێ
قوربانیان
دەبەستێت
ترۆ
##ەراڵ
##ترس
پشووی
دەکەوێتەوە
فەڵ
##دێر
دوەم
يەقڵ
##یرەی
دروستکردن
ياستە
خواردنەوە
پێچەوانە
سیروانی
ناوخۆو
میری
##دەکرد
کوردییە
هاوت
هونەرە
يەلبوو
چەندەها
سەربە
کریستیان
لەلا
بنکەکانی
بەرتەس
##ووداو
يەمجار
سەروەریی
لەحکومەت
76
کودەت
##انداو
حەوتەم
هەریەکەیان
قەرەبووی
کەخ
سودی
##ەڤانی
بۆچوونە
##نەوه
بباتەوە
بڕین
شێع
جوانتر
کوردوستان
دابمەزرێن
لەسوریا
قەوارەی
خولەکەکانی
کۆیلە
سۆڤیەت
بڕیارێک
هار
##ەرێ
گەشەکردن
قادری
##ەینەوە
يێستاکە
موسل
نیوەڕۆ
خۆرياوای
پرۆفیسۆر
دێنێت
لەفەر
زۆرەوە
بەتۆم
کەمپینی
خاوەنەکەی
پێشانگایەکی
ڕێبەرانی
يەنتەرم
##روف
نیسانی
77
نوخ
ڕۆڵە
خشتەی
خۆیانە
##هێنین
##ەڵێن
##اوەدا
مەحکوم
ڕەواکانی
##گیریی
##اوەیە
دەکەون
بەڕێزان
##wn
##16
منەوە
دەڵێیت
میدیاکان
ياشکراشی
بدە
بەختی
ەو
##ارییان
دەگوز
لەوەڵ
بەکارهێن
عەبدولرەحمان
لەماف
ناتوانیت
مامەڵەکردن
گوندنشین
ڕاوێژکار
يەندازیار
بنکەیەکی
کوردا
ساڵەدا
پیرە
عاشقی
ڕەها
##کێک
کارم
وەڵامدانەوەی
ماونەتەوە
##الاک
2015
سەرچاوه
يەرمەن
##ویانە
نوجێفی
قاڵ
پاشەکشەی
شوناسی
وح
نابێتە
يەڵێ
نازانین
##ct
دواین
##وبی
دەیگوت
کۆبوونەوەیەدا
##ندەی
##قام
بپرسین
##کوت
ڕۆناڵ
دەرنە
هاوخ
##هێنن
يۆفیسی
خۆپیشاندانەکان
##ەتییە
يیسلامییە
تەمەنیان
کەموکوڕی
نۆز
##ەهۆی
##ێکیدا
خەڵکەکەی
سەفین
بەفی
##ێتەوەو
لەناک
دادو
هەبووەو
چەر
چێل
دەباغ
سڕینەوەی
بەياوێنەنیوزی
نەتەوەیەکی
بەرزنج
بۆمبڕ
بۆندی
کۆدەب
سلێمانیدا
توش
گۆڵچی
گۆرانکاری
بڕیاردرا
نەوەد
کاول
سعود
دەگاته
ڕێکخراوه
هەفتەیەدا
هۆکارەکەی
##هەڵات
کۆمەڵگەدا
جینۆسایدی
خۆڕاگری
يەیان
##ەخۆر
لەمە
پێویستیی
مووش
سـاڵی
کۆشش
يیمپراتۆری
##ەشتی
سواری
کردوه
فڵ
##چێتی
بەچاو
ياشکراکردنی
##ستمی
يەوکەس
##گەیە
ناوبانگی
بەیاننامەیەکی
کارگێڕ
بالی
يەنجامە
ناڕەز
قر
نەشی
##دراوە
هەوڵەکان
زەمەنی
قسەیان
يەواندا
لیبی
یاسادان
پرۆت
چالاکیی
يەلبوم
يوسامە
لەبارە
جلوبەرگ
سەرەوەی
##نامەن
یەکیتی
سازی
جەنگە
قاو
ڕۆب
بانگی
بابان
کۆمەڵگایە
فاتی
نور
مەعنەوی
لەکۆتاییدا
ساتەوە
نیگار
کۆمەڵگەیەکی
##خۆشبوو
##ته
کردی
باژێر
يەوین
یەکیان
خوداو
گوشار
کارنامەی
جەمسەر
يەفسەری
##مۆن
پێکەوه
چارەسەرێکی
جوانەکانی
سەرپەر
هەرزان
دیالۆگی
وبە
بایدن
يۆبام
ڕێوڕەسمی
##ذا
##ia
##امه
میانی
نامە
ڕووباری
##ـیەی
مەرجەکانی
لوی
مۆری
مێژو
کرانەوە
بەرامبەردا
دووەمیان
گشتگیر
عبداللە
جەهان
يەول
لەسنوری
##وابوو
دیوی
##ورک
دەربچێت
فریاد
مرو
##خورم
کەبۆ
##ایتی
خوالێ
مۆندیال
دێتەوە
##مێنن
يەمیش
کۆشک
##اژانسی
پردی
##ەفەر
کرێ
یارییەکەی
فەرمووی
لەدایکبوونی
بەناوبانگی
کوڕەکەی
چێلسی
يەوجا
بەيەنجام
سۆرانی
##وارە
پێشەکی
##کراوه
داوایکرد
##ەکەماندا
وەربگرین
کۆنترۆڵکردنی
##دەنگی
پێکدێت
نازناو
برادەر
##ویر
بزوتنەو
هەشتەم
سەردانەی
##اشەوە
يەستەمە
خوایە
لەکوردستانی
هەورامان
کێن
یەز
کۆمەڵەکانیش
بول
هەوڵە
باخچەی
تاچەند
##ەگەڕ
بەخۆوە
##يام
##ەکەوێت
پێگە
هەڵیان
بەبیان
سەرمای
جارێکیتر
دابنێن
مورسی
کوبانێ
فیدراسیۆن
سەرمایەی
دهوکێ
شاج
پەردە
دیاریکراوە
دونی
بڕۆن
داعشەوە
##نەم
##ێزان
نوێب
بەشیر
لێپرسراوانی
يەلیکترۆنی
##ۆج
##ەکەکانی
##ییش
پایی
##ۆمب
##ێبەجێکردنی
گەڕاندنەوەی
بابەتەکە
چەمکە
ياگا
يابی
بیروڕای
باق
میح
دووەمدا
##ەواوی
##ەبڕ
##ابو
لەگەڵی
شتانە
يەوروپادا
##ەکردنە
نووسەرە
گەمەی
عیراقی
##الەتی
نەخشە
##بولی
فاشیزم
پژاک
نەخوێندەو
يەنجامێکی
لەکۆنگرەیەکی
شەع
پەند
##نەڤ
شیاوی
##بارانی
##wnj
يەمجارەیان
بۆته
##شتمانی
کوژراوە
پێنجشەممه
يەمریکاوە
هەناردەکردنی
موجاه
zwnj
##ەقامی
بیرمەند
Net
ات
نادر
##زافی
جەوهەری
يەزموونە
نەیارانی
ڕۆڵەکانی
کاتژمێری
##ێدەه
خوێنەران
زانای
تەلاری
قەوارە
کەسایەتییەکی
ای
##دەدا
##ێکەی
جیاوازن
تەقلی
بەهێزە
جنێو
دەدوێت
سری
##ەگەر
##سەنگ
ناگرێت
لیۆن
بەنرخ
پەرەسەندنی
٢٠
پەرەی
##کریت
مەراسیمی
بێگانە
##نەد
هەموولایەک
یەکانی
##اتێ
پێبدرێت
موخ
ڕوم
دیمانە
کەمین
بنچین
##حان
زانستە
شوناس
پلاندانان
کەيێستا
##نیە
ڕێگایەکی
فراوانکردنی
ڕامان
ساتێک
لەزۆربەی
پاداشت
لەنزیکەوە
يەندامەی
توخ
موسا
نمایشکردنی
مۆزەخانەی
بۆچونی
##کیش
لەدەرەوە
یەکدا
دیف
هەرێما
##دەکرێتەوە
يەنارکی
يیيتلافی
توێژە
قانون
لەلێدوانێکدا
کاغەز
نها
##ووترین
پێوەندیی
پێکردنی
##رانەوە
##شۆپ
##ڕو
دەکاتەوه
بەگژ
پشدەر
تێرۆری
مەحاڵە
##بکرێن
شێعردا
یاوەر
بەپارێز
بەرپەر
دیسەمبەر
موزایەد
بزاڤی
لان
ناخۆشی
يازادییە
بەحر
نشین
لەپێک
دوژمنان
ياسانکاری
جیاجیا
تاقە
لەداهاتوودا
دەبوون
زۆرم
بزوتنەوە
شارۆچکەکانی
##من
##اییان
شەشەمی
پاشەکشە
کەمتەرخەم
شکۆ
تیژ
يەنفالکراوەکان
کارانە
##ێیەکی
102
جوام
دیدارەکەدا
جوتیاران
يەمڕۆدا
هاوڕێکانی
گوندەکان
مسوڵمان
شەرعییەتی
##قول
##99
خێزانە
هێمنی
يەزموونێکی
##مال
##ou
هەوڵیان
64
بەرگەی
کۆتا
##کردۆتەوه
##خوا
بڵاوکرایەوە
دامەزراند
سەرنجڕاکێش
73
##هەر
تێدەگ
بەهمەن
بەرزترین
گەنجێک
بدەنەوە
نیشاندانی
مەست
##لیب
لەکۆم
##دید
لەبەرامبەریشدا
تاڕادەیەک
کارزان
يەفریقا
##ەکەسی
ببەن
سنورد
مەکسی
بەرزنجەیی
جە
بەربەر
لەنەخۆش
##ونەوە
لێدوانەکەی
پاڵەوانەکانی
دەرهێنان
نییەلە
عەتا
لەری
138
سازش
دەريەنجامەکانی
دیپلۆماسی
کەتی
##رابوون
##اویی
يامرازی
کڕین
##حید
نەکراو
کۆنتڕۆڵی
تارم
##ێتییە
کاریکات
دەسەڵاتەکانی
قەززافی
##دوتی
هەڵبەست
کوردستانن
بخەینە
ناوبانگ
دامەزراوەکانی
قڕ
بەرهەمهێن
مایۆ
کەلوپەلی
##تێب
بەرامبەری
ناکەوێت
داکۆکیکردن
##سار
فیدرال
بڕوایان
بازرگانیی
يەندازەی
یەنایەر
نمایشکرا
هەڵگرتنی
کەرکوکدا
بەخۆیان
لۆژیکی
##تاش
##ۆچوون
گرژ
بدەیت
ڕاهێن
هەتاوی
چیت
يەوانەوە
##کراوەی
يەنداز
هوشیار
##کەند
##بژ
هەڵخەڵ
بەپلەی
جێگ
پسپۆری
هاوشێو
نالین
##عەی
##ـکی
لەبوار
لەناوەڕ
گوتار
داعشی
کەژاڵ
هەڵات
##ەپانی
عێراقیەکان
کوتله
کن
##ەکەکان
نەخۆشییە
قەدەر
##يەس
پیلان
جەهانگیری
##نوس
شیعەو
لەکوێ
بەپێش
بزاڤ
بەڕێوەبچێت
نیوەر
یەحیا
بۆردومانی
يیمە
وەرگ
الف
بەسەرپەرشتی
ولی
يەوروپای
یۆنانی
##نێکی
##زەت
پێدەکەن
تەکنیک
کەج
خواستەکانی
بەرژەوەندیەکانی
خانی
هەقیق
دەیانەوێت
ڤین
##بەند
##se
منداڵێک
بەرنامەکانی
پەروەردگار
شێرپەنجەی
##دیو
##زیا
دەنگۆی
دەگێڕێتەوە
پاشگەز
##کردوو
کێشانەی
ناسیۆنالیزم
##وودە
ماڵو
لەخۆر
ڕزگاریخوازی
##ەپەگە
دەستەواژەی
دیجلە
بەپێ
پرسیارێک
شەهرستانی
لەوڵاتی
موچە
ch
##ەسازی
زۆرەی
پیک
زاهیر
##الح
چالاکییە
فۆتۆگراف
پوچەڵ
عیل
قەش
هۆر
##oc
##بووین
##ارییەوە
قوتابخانەکان
بەختەوەری
##ۆکاری
ساڵێکە
بیرەوەری
دەگواز
شوێنەی
خێرای
بالا
##بایە
لەپرۆسەی
##بوک
نموونەیەکی
خایاند
نوک
##شێت
دەرهێن
پیرۆزە
بڵاویکردۆتەوە
دەرماڵ
نەدرێت
هەستکردن
##کەرکوکی
بەچاوی
##تەق
ببینین
پەرلەمانتارێکی
نەفرەت
زل
بۆچ
##پەروەری
سەرچاوەکان
##حکومەتی
کارێ
دادەنی
دەگمەن
وەکی
لەڕی
دەبا
دروستدەکات
پرۆسە
گەمارۆ
يۆڵۆمپی
يەوەوە
چارەسەرکردن
شاعیرە
سید
کتێبێکی
ناوەڕۆک
يازیز
##تردا
جید
شێوەکار
تواناو
چەن
دینارە
تەلەڤ
پێگەیەکی
مانچستەری
جۆش
##رب
خۆمانی
ناوێت
بەشـ
لەبەشی
بەهۆیەوه
باشترکردنی
دژایەتیکردنی
ڕیکلام
نوسراو
##st
بەردەوامەو
دەیخ
پڕکردنەوەی
ڕێگەیان
کیمیابارانی
جاک
يەوەکرد
ڕابکێش
لێدوانەکانی
بەدواوە
ڕۆشنبیرانی
خراوەتە
##کة
##ێدان
حوسنی
گفتوگۆیەکی
گەردوون
##ـیان
##ەوس
گفتوگۆکان
يەنفالی
سەرکەوتنێکی
##زیۆن
ڕەوتە
##سیر
وەبەرهێن
حەڵ
حکومەتەوە
##کێشانەوەی
فیشەک
بگەن
هێرشبەر
سنە
##ۆپی
هەره
ڕاگرت
حیزبەکانی
پێشکێش
##ڤیچ
قوم
عەبدولع
بپ
باڵند
يەنجامبدرێت
جۆرەی
شێوەیه
##وێنێت
ناونیشان
يایاری
يەوس
وڵاتەی
شێخان
پارتێکی
گفتوگۆیان
سالارکەرکوکی
بەکەس
پیری
کێشەکەی
میرات
پێشمەرگه
کەهەموو
دادی
1990
حەزم
پێشین
وەستاوە
سەنگی
پایە
##بنەوە
شارەزوور
لەمەش
کەمپی
سوریای
کەناری
پێکهاتبوو
##سادق
هەماهەنگ
ڕادەیەکی
تازه
قۆرخ
##نێ
##ياماد
بارهەڵ
لەياک
ناعەدا
##جان
##اکت
کێشم
بەکاتی
دانوو
گەڕایەوە
بزووتنەو
لوق
##کۆڵ
##ۆکردنی
##کردووه
##ێوەردان
دەبرد
جوتیار
نۆڤەمبەر
حەقی
##زێکی
دیزای
##ووسەری
تەقەی
لێبووردن
بەرەکانی
یارمەتیدەر
##نس
کود
درێژکردنەوەی
بەرلەوەی
ساتی
غەی
##سەند
##ەلەر
لایەنانە
وەش
لەجیهاندا
##ەکیی
کردین
##یشم
##اشا
دەسەڵاتداری
هۆڵەندی
بادینان
کەوتنی
سەوا
فۆتۆگرافی
ناوەراستی
لەداد
بام
##ڕم
##يیس
لەکەن
کامیان
##ێـکدا
هاتوونەتە
74
هو
کلین
شایەت
قۆڵی
ڕوانین
##لەمان
دەگیرێت
##ازیلی
جیابوونەوەی
دەروێش
نیوان
الث
يەیلوول
##انەیەکی
بەنم
پەرلەمانەوە
لەرێی
پاوان
پێدە
توانیمان
گەشتوگوزار
##بم
بەرێک
کۆمیدی
گۆشتی
تەقەیان
کاراکتەری
باوەش
خەلاف
##یتەوە
يەوروپاو
لاتینی
شەکر
##دەوامی
پین
داوەتەوە
ڕۆژنامەکە
حوزەیرانی
وڵام
##گیان
یەکخستنی
بابەتەکان
عەبدولقادر
زەرەر
تێنسی
78
يیبن
هاورێ
ساڵێکی
نایەک
بتوانرێت
داخوازییەکانی
ملکەچی
##خوێند
ڕۆژنامەگەریی
کوردێک
##یستە
مانایەی
بەپەر
تورکیاش
يازادە
خولێکی
وەزارەتەکان
ڕۆژگار
جیاوازدا
وێنەگرتن
یەکگرتوەکان
گۆن
دایه
يیمزای
تاوانەکان
ياماژەم
بەبەراورد
ڕاشکاوانە
##وەکانی
دوک
ڕابگرێت
بایی
دراوی
خەڵکیش
گەلەکەی
لاس
پاپ
چەور
##ەبە
تۆیە
لەبەڕێو
کەرنەڤ
تەنیشت
يەرج
گیرۆ
فرۆشتن
پێکدادانی
دێرسیم
ڕۆژێ
##وترێت
دەمار
تایفی
##عم
##گرنەوە
##ەسـت
ڕووخس
يافرەتێکی
لێدەکەن
بەرنامه
لەمەوپێش
ياشتەوایی
بەپێویستی
عەبدولمەهدی
زەری
عەمم
لەرۆژی
##بدەین
چاکساز
کۆنەپەر
خۆبەخش
يەنفالکراوان
##کردنەوه
بەردەوامبوونی
گەرانەوەی
بازاری
حزبایەتی
یارمەتیی
مردوو
يایندەدا
ژور
ناوچەکەی
هەیانە
یاریزانێکی
تێز
يارارات
##خوازیی
لەناوچەکانی
قايیم
سیڤی
کەسەکان
دراما
##عەد
هەنووک
کراوەتە
کاز
دەمو
1975
دەستپێب
عەمەلی
پیشەسازیی
##لک
##لق
##شتیوانی
دامودەزگا
##uary
190
ترین
##لاد
##ەرتی
لەباری
قسانەی
پڕۆژەیەک
هێزەکان
لێبێت
کەسایەتییە
دەخرێتە
ڕاپۆرتە
بەگەڕ
ڕاگەیاندنەکان
##ییانی
##وایه
هەوڵدەدات
700
##ەوێڵ
شوێنانەی
لەیەکێک
لیژنەکە
ناوەندەکانی
یەو
##ـتا
ڕەحمەتی
هه
ڕاک
بۆس
##اعی
پەیوەندیەکی
دابڕێن
ڕیشەیی
خۆڕاگر
فریشت
زەمینە
ڤه
بەرەبەیانی
يەرد
##ەکمان
##اتەکانی
دەیەی
بابەتێک
سکۆت
چو
##ەبێ
بووبوو
دەسەڵاتیان
يەمنیەکانی
ياستێک
ڕۆڵیان
کۆچبەر
سووکایەتی
خەڵکەکە
بەدیار
لێپرسینەوە
گریمان
قوريانی
لەبارەوە
69
ڕەخنەگرتن
86
بەهەند
ياوێت
دێته
بەرزنرخ
يەرسناڵ
شارەدا
ڤاڵ
ڕاچ
بەساڵ
هیر
##اکەش
##ەخشن
بەکۆم
ڕێورەسمی
##اهیرە
عەرەبیدا
##بەستن
مەعسوم
##راف
کۆرپ
پۆزەتیڤ
سەريەنجام
##لێکی
يەپ
پێکەوەژیان
ياوە
سەربازانی
دووپاتیکردەوە
شەمەند
پاڕ
گرتە
پێنەد
داگیرکەران
جێبەجێن
ڕێنماییەکانی
لەخۆیدا
نەقش
خوە
دوود
دڵڕ
ڕۆڵەی
83
باد
کەمان
یەپەگە
##گۆر
شۆفێری
هەمیشه
لەهەوڵ
سەرکۆماری
لێبورد
##ort
نەجیب
مووسڵ
تق
زیات
هەڵوێستەی
سۆسیالیستی
سووتەمەنی
خستەسەر
##ەمەی
دابونەری
##عای
زۆرو
ڕەنگاو
دەستگیرکراون
تەرخانکراوە
يەجێندای
##یدایە
چاوەڕێ
پاساوی
وەزارەتەکانی
قەناعەت
يەلفوب
##ra
دەکرێ
لەنێوانی
دەگرین
لەيەنجامدا
##جەر
بێيەوەی
تاقمە
بەخوێند
یۆڤان
دووچاری
ژاپۆنی
بیروباوەڕی
##ریا
##ازدەی
حیزبەکەی
حیکمەت
لەحاڵ
##کردندا
پاڵن
مەتری
ڕووداوه
جۆراوجۆرەکانی
کلاسیکی
88
گوڕ
يێمەوە
گەیاندووە
گەمژ
جەعفەری
as
##ماڵی
لەدەسەڵات
##ياوای
کامل
دڵنیاییەوە
##ڤێ
پـۆلی
تێوەگ
##یەکاندا
ناوێکی
داستان
تم
هەڵبژاردنێکی
گرتوە
فەب
نازی
داپ
##ـتانی
قەزا
فت
ڕۆمانە
بکاتەوەو
ڕادەکێش
##ەدەم
هەمەلایەن
دەداتە
ڕەوەندی
شۆڕشە
چاودێریکردنی
##درێژ
ڕۆیشتن
کلاسیک
کرو
هەمبەر
جڵ
زەین
تێیاندا
شۆ
نواندن
ستۆکه
يۆتۆمبیلی
##اراستنی
کەربەلا
بڵاوکردۆتەوە
ناسر
کۆڵان
شۆک
گوو
##ov
##کردنه
ڕەخنەو
میدیایی
دەنـگیـیانەی
##هاتوون
پاشای
سایک
خۆشناو
چیرۆکە
جێبەجێی
توێژەر
لەیلا
دەستدرێژ
سێدارە
بەرێت
ڕووبدات
بەڕێوەبردن
وەستا
##20
هیج
##وویەکی
يەکرەم
خۆماندا
1979
کەپێویست
##زخورم
دۆخەکە
سەلماندنی
بەلجیکا
شاجوانی
عەبد
يۆتۆن
چەکدارێکی
ڕاپـۆرت
دەریان
يەگەرنا
لەڕابرد
بەزەیی
دەکەوێته
##باس
##ڵێن
سیح
چیا
شانبەش
گەمارۆی
فرس
پا
بەسەرچوو
جیابوونەوە
دواخرا
##اندنە
شێواندنی
ڕوح
بەرێوەدە
##فرۆشی
حەشار
عەن
پێوەی
لەکەم
دادەب
لەڕا
گروپه
مۆدێلی
هەوای
لەباک
گفتوگۆکانی
کۆبوونەوەکەی
بەقەد
دیاریکراودا
نارەزایی
مەکە
کالی
##هین
بزر
بدۆزێتەوە
بەرپا
ڕووداوانە
لەچەندین
يەهل
گێژ
بەرای
يامێز
دەخۆن
گرانی
چیمەن
نەتەوەییەکان
هەشتەمی
کۆبونەوە
دابڕاوەکان
حمە
سه
##ەوەکان
##ine
تێپەڕاندنی
دەستکەوتەکانی
بەتۆمەتی
پێشەوا
دیارب
مەعریف
خوالێخۆشبوو
ملیارو
پێید
کەميەندامان
ناف
##گرتنە
ڕوونە
سەرنووسەری
بەرفراوانی
فارو
هالی
بەرێ
##ەجۆر
دەمێنێت
ڕژێمەکەی
##رایەر
##ڵاوە
بەسەرهات
لێدەکەوێتەوە
زەحمەتە
گورگ
وەزارەتە
##وێنن
سەدی
يەلج
##14
دیوە
کەمەوە
ڕێکخراوەکە
زیادەڕ
##arch
پڕۆسەی
نايارامی
لەيایند
##وانگەی
حکومەتیش
بەياژانسی
بەرزە
هەناسە
##عد
##لیپ
يیز
يێستاو
دەگەڕێت
کۆنەپەرست
ڕاپۆڕ
سازکردنی
ڕوخساری
فۆک
چەوری
بوک
لو
##یندا
ڕایگەیاندبوو
خوارەوەی
گرفتەکان
جەختیان
لێق
هەستە
دەرک
پابەندبوون
ڕم
کەف
بەڕەسمی
لیستەکەی
فرۆکەخانەی
قیر
##دەوڵەتی
کۆمەڵگاو
pr
چڵ
ناکاتەوە
وەربگیردرێت
زووترین
دانیشتنەکانی
کەزۆر
بەکۆی
اح
لێکردن
خانو
نەبووەو
نەمسا
حەیدەری
فەه
کایە
کەشت
##قوب
##لوو
يەمساڵی
نەبی
تێکستی
گوتویەتی
##رێکی
جیاوازییەکی
پشتڕاست
دانیشتووان
دەمەی
ڕێگەیەوە
عەممار
شانبەشانی
دەکرێتە
دانەن
میدیاک
مج
ڕسول
بمێننەوە
دەرفەتێکی
درۆز
گفتوگۆک
کپ
ڕاگەیاندنەکانی
ڕادەگەیەنێت
هەرکاتێک
يینگلتەرا
قایل
##اسەی
##زانم
تێکچوونی
هەناسەی
خەتی
نز
##کوتی
ڕۆژنامەنوسی
مێژووییە
##کەرە
##ەرد
کەمن
گۆڕانە
بەشێکن
دیموکراسیەت
کارياسانی
کەمبوونەوەی
لەبەرانبەر
زەبەلاح
ڕاگەیەنراو
##ەکم
هەمی
لەگەڵیاندا
پێتان
دیکۆمێنت
خاوێن
سەددام
کۆنسێر
دیزاین
يەمنیەکان
سەنگاوی
دۆنم
پەیوەندیە
وەسفی
بدۆزنەوە
هێنانەدی
قەرەبووکردنەوەی
ناوەندیی
##ەهای
توانرا
بڕیارەکە
بابەتەکانی
بنەڕەت
خۆکوشتن
ەم
##ودە
نووسەرو
لادن
جووت
##خا
##18
##اڵەکانی
کردۆتەوە
شاراوە
ڕادەست
ڕاپۆرتەکە
تاوانبارانی
يێجگار
تایمز
##خال
##ـتان
توێژەکانی
تەکنەلۆژیای
##ارانەی
بەرازیلی
گوێز
##ایەتییەکانی
دەکوژرێن
يەکادیمیای
دەستەبەرکردنی
##ڕەوە
چەکدارە
بتوانم
هەڵکش
In
هەق
لەماوەیەکی
لەهەمبەر
هێنانە
شەممەی
بارەگاکانی
او
پۆت
دەستێوەردانی
ساڵەکانی
##ايیل
گفتوگۆو
باڵاکانی
موم
##تراز
ڕیس
##لولی
تێنە
لێمان
کەبەر
##اریا
سەرەخۆشی
لایەنانەی
خەڵاته
سەندیک
پیلانی
ياوازدان
پاو
دیاریی
سەرۆککۆم
بەعسییەکان
فۆلکل
سانس
##گادا
داگیرکەرانی
بەردەمی
يازادانە
جێبەجێد
دەهێنرێت
شێعرە
ناسیۆنالیزمی
لەزانکۆی
یەد
سەرچاوەکە
خۆشەویستیی
موتڵ
هۆتێل
دەبرێت
پارێزگەها
لەتەمەنی
چاودێران
جون
##وڵی
کەسان
يەستێرە
تەکنەلۆژیا
##ۆرینەی
دەسکەوت
ياسا
باڵەخانەی
بەکارهێناوە
ڕێگەیەکی
زنجیره
کەميەندام
دێو
##نۆ
بەخێرایی
##خات
يەبین
مسۆگەرکردنی
فازڵ
باقی
##ەزا
##کەدا
گرتو
کوردیەکان
یادەوەر
وامان
قسەیەکی
دەرببڕ
##ێگەیشت
1980
فەیسبووک
مەقام
بارانی
یۆرانی
79
پەرۆشی
##بووەو
قوربانیی
يێراقی
##زەکردنی
سەرا
بارزان
دەمێک
شیعه
خەف
سەرەتاوە
بمێنێت
سەرکوتکردنی
خوێنەرانی
يیسلامیدا
قەڵادزێ
مەدا
نوێکرد
##لایەنی
##گرنگی
بانگەشە
خشت
##ریدی
دەستەوە
کوشتار
بەلێ
##خوازان
800
دووک
بیکات
##ێندەر
يەکەین
##ژێت
##گەدا
##ەلەرز
هاوي
دەسەپ
بەبیر
جەماوەریی
زاو
بەناچ
هەڵبژاردنەکاندا
شەوێک
دەڕوانێت
سەما
وەرنا
خۆشمان
نازم
تاوتوێکرد
شڵ
لاری
##بۆری
بەکارب
جگەلەوەی
99
بۆوە
نامەیەک
84
##سێن
لەسەرەوە
تەوەر
بەسرە
بەڕێزیان
دەکرێنەوە
کەمترە
گاڵتەج
بەمەرجێک
مێزی
##گەلە
مەلای
سکاڵا
##ەکەری
دادەخ
##لایەنە
بەشێوازی
بەشێوازێکی
فەبرایەر
##ـان
##ێتر
##ەبا
يیدان
پەرۆش
##ێدە
##گوڕ
ناساندن
قورسە
محم
یەکپار
##بەرایەتی
چۆتە
ياسوود
دەمێننەوە
بچووکی
بۆمبڕێژکراو
##ەکەى
لەوی
خەونە
دێرینی
تەری
گێل
##ەکەوه
گۆڕانکارییە
هەردوول
سروشتییەکان
مەشقی
هەلوێست
##ابینی
ساتە
##شـتی
هەرێمێکی
سەرەکیەکانی
سست
##17
ناون
##وڵڵا
ڕووخاندنی
گوشاری
يیتاڵیا
فۆر
##خەی
مێژوون
يۆتۆمبێلێک
عەبدولعەزیز
ڕواڵ
قەیرانێکی
سەرکەوتنیان
هەژموونی
حاز
##بوی
##ەسەی
دەستل
لەگەڵیان
یانەکان
دوورخستنەوەی
نییەل
واتایەکی
بارودۆخێکی
شێرپەنجە
بۆکان
پێنوس
##یشمان
##ەییەکان
سایکۆلۆژی
1970
ناڕاستەوخۆ
##ڵاوی
يیله
باسێکی
هەڵدەس
مەشه
##پێدان
پانتای
##ەترسی
وەرگرتنەوەی
عیسا
يەفغانی
##ubli
de
يۆز
يەمجۆرە
تایبەتیان
شەقامەکانی
82
یانیش
##عەتی
##net
نەورۆ
بریندارەکان
فریاکەوتن
فیلمەکەی
گیرفانی
##بینن
##عل
##دەکرێن
کۆتاییهێنان
شکاند
##ۆچکەی
سەریهەڵ
ياوێنەی
زیاتریش
گۆشەی
قوباد
بەهرەمەند
لەسێدارەدانی
دەژم
ناگەڕ
بنەر
##چوونە
دەستپێشخەری
وابێت
##ەدەکات
پەرچ
##ترێ
لەبڕی
شارێک
پێیدا
هەندێکجار
يەبوو
پێنجەمی
بەشێکیان
بەپەی
##atur
نايومێد
##ەڕو
هەرچۆن
سەردانێکی
دەربڕیوە
پێشمەرگەدا
زیاتریان
جگەرە
هەناردەی
ڕێژی
نەتوانن
يەمرۆی
نییەبۆ
مانچستەریۆن
دیزاینی
سەپاند
دوێنێی
دەبیست
##ۆلا
##ودجەی
1000
فێرکردن
لەلیستی
يەنتەرمیلان
يامانجێکی
حەت
##ەنگە
##گران
هەفته
پاککردنەوەی
دیکەشەوە
گوزەر
هید
ڕەوشتی
بەرەوڕووی
گیرا
ڕێگەگرتن
پەنجەر
يادەم
دێموکراسیی
##موکراسی
Al
جاسم
بنیاد
زنجیرەیەک
هەڵدەبژێر
لەسەرەتادا
پارەیەی
خوان
سوێن
هەستان
کەلتور
زەل
قەتی
هەنگاوەی
##کردووەتەوە
خۆپێشاندان
هاورێی
##رەف
##سات
هاولاتیان
لێکدان
لەساڵانی
حەوی
غەیر
لەژیان
ڕێزو
دۆڵ
يورد
پەری
##گرد
پارکی
دەڵێ
مایکل
تۆتالی
بادی
##وێنە
کۆمونی
يەنجامیان
کوڕان
بەسەریدا
##10
##ووف
بەيەزم
قەڵای
کوشتووە
##پیدی
قورسی
بەنداوی
لەمبار
گوتمان
بەزۆری
خۆشیەوە
کۆمۆنیزم
مشتومڕ
##36
جیم
نێوخۆ
کچەکەی
ڕەزامەندیی
يەفسانە
گوێبیستی
##لەند
##iz
سەدە
گشتییەکانی
فاروق
عێراقێکی
گرنگییەکی
چاوەروانی
##ەوانە
##ێنەوه
##اپۆرت
جلوبەرگی
چۆل
ژەنی
##ێشتر
خزمەتێکی
تۆماربکات
کۆبوونەوه
##بونەوە
شیرینی
##باو
##ێنج
سەروو
##سیری
بیمەی
##بوڵی
جەواد
بەرخو
هێشتنەوەی
بۆخ
بۆنە
داخست
يەسڵ
لێوەرب
##سیل
يەکا
پەیمانگا
شاهۆ
ڕامیاریی
##رام
ڕۆن
##رور
گۆڕاوە
لەيەو
بەغداد
دەستکەوتێکی
سەعدییە
چالاکوانانی
بگەین
یەکەوە
دەڕۆن
بازاڕەکانی
يەقڵی
##ارک
##ارەکە
لەسەریان
دۆلارە
میترۆ
هەرد
لێـ
سـاڵ
ڕێزلێنان
يیحسان
ڕوبەڕوی
هاید
يەری
##تدا
خۆپیشاندەرانی
پارتەکەی
بایکۆت
##ەڵێت
##لینی
يامادەکردن
ناساند
لێیە
96
##اکرێت
گوی
يەمساڵیش
پورتوگ
##انەوەیە
##بکەم
ياستەی
سەنگەری
شاردنەوەی
تۆقاندن
##ییەکانمان
وتەکانی
سەیدسادق
دەگەرێتەوە
لەڕێک
يەنجوومەن
لەمافی
بداتە
باڵاو
مۆندیالی
پڕوپاگەندەی
##امۆست
##گرام
دەنێن
شاکر
نیزامی
وەن
يازایەتی
دەمام
بیریان
##ڕێتەوە
##ستۆ
##اڵێکی
بیرە
لەسێ
پەیمانگەی
گەندەڵیی
##وەت
بهێته
دەوامی
يازادو
فیدڕاڵ
kurdistan
##ڕۆک
هەبن
بەردەوامیش
يەوەشکرد
نەدراوە
تازەپ
لێکۆڵەر
هەژاران
مۆسیقا
يەچ
بیب
ڕاستیەکان
زانیاریانەی
هەڤپەی
هاوکێشە
ستاندارد
##ێخ
##22
بزانە
خۆپیشاندەر
پێشوودا
پاڵەوانیتیه
##شتێک
##وکاری
##وتاب
يیدریس
ناوەرۆک
##بکەینەوە
##ەسەلەی
ياماژەشیدا
کاربکەن
بەزووترین
ڕەمەز
سـاز
##سکۆ
##گین
##روت
دەگەن
هێنایەوە
دەستکەوتە
فەرمانڕەوایی
ڕێکخراوەی
ڕەچ
لاوازە
##وڵاتە
کادیر
87
##iew
مێردەکەی
سەربەرزی
بەرپرسیاریەتی
فیت
وار
وکاری
##اوازی
کۆس
خۆمم
بێزاری
##کاتیشدا
خەلیفە
##ەرکی
بەرۆژ
چاوەکانی
لەشێو
##ers
برسێتی
لۆس
يەگەڕ
بەهەمانشێوە
گۆڕانکارییەکانی
نەوەست
دەنگدەرانی
پاڵی
##وولی
پەرستی
نەتەوەکان
##رەوی
##ەوری
لەیەکێتی
تاراو
ڕوونکردنەوەیەک
قول
##دەزانی
##روپا
دادگایەکی
##اسیی
##ەدەری
##لیتاری
يیستی
##ایەتییەکی
لێپرسینەوەی
سەلم
هەقی
##ووشی
کاتێکدایە
##انیت
##اوەنی
دەرخستنی
##ێژێت
يەنجامدەدرێت
##ابیلی
تەسک
يۆپەراسیۆن
پیادەکردنی
مامەند
سالانی
0770
یەکێتییە
ڕاپۆڕتی
مص
##دز
##um
لەتر
يەوەیشی
بەهێزترین
مەرجێک
ستەمکار
مەسیحییەکان
سینەماکارانی
سەرکە
لێکراوە
گوێگرتن
دانوستاندن
98
##ac
1998
بەکاریان
کەڵکی
سوون
##اشترین
##ەتێ
گوێیان
بەسەرۆکایەتیی
گیروگرفت
##19
##رۆژ
هەبو
دەخایەنێت
سوتەمەنی
سینەماکانی
لاپەر
یارییەدا
##ەبردنی
##دەوام
بەوپێی
قسانە
هەوادارانی
##رۆسی
مامەڵەیان
کافر
فرانک
##رج
دیوان
بهێڵ
سول
جۆرێکە
دەگەڕێنەوە
پێشمەرگایەتی
دیکتاتۆرییەت
##چک
کەسه
بەڕاست
بایرن
##ەیەکەوە
خەڵکانێک
دەیبینین
ڕفیق
لەسەرۆک
لەکۆت
نەي
کەڵەک
یەخ
##یەوه
##ریە
##حمن
خەلات
کێو
##ووسەر
##یانەو
دووبەر
##ەیەکیش
بەشه
دەیویست
##گەلێک
لەوانەیه
فیست
هەڵاو
ڕەواندزی
دەسەڵاتەوە
دەستگیرکرد
پێرس
##وربانی
ڕایگەیاندووه
نوسراوە
ڕۆمانەکە
##ەربای
وەرچەرخان
##igh
يیمامی
سەختە
##هانی
ڕۆلی
پڕۆژەیاسای
##هەلات
ڕۆژێکدا
يێمەیان
دۆڵی
یاخ
##ەگرێت
عەزی
هەڵدەگرێت
پێداچوونەوە
شەهرام
شمشێر
لة
##ێهر
کارانەی
نوسر
يەنجامه
دەقێکی
کیشوەر
تۆکمە
لەيەندامانی
چاوە
##تۆس
وەرن
الکرد
دەموچاو
جێم
قاهیر
پیادەی
قسەیە
لێدوانەی
##گەیەنرێت
لەراستیدا
مەترسییەکانی
اع
##نەهێن
ڕۆژانەدا
##ینیت
ڕەوانە
گشتیدا
يیمپری
يەسڵی
کیژ
جێناک
بۆنموونە
بفرۆش
##ۆو
##گەیەک
##ەورە
##دانێکی
گەردی
##ودۆخی
ڕەسول
ڕێکخستنەکانی
لیژنەکانی
لەناوچەکە
گەشەسەندنی
جەزايیر
يەولەوی
چەکە
بۆخۆیان
##لیای
سالم
پرسیارەکە
بەواتای
ڕاستگۆیی
چێنراو
##گڵ
دروستبووە
بدرێن
يامادەکرد
بروس
تەوافوقی
فەیسبوک
هۆنراو
گاڵتە
هەڵسوڕاوی
هانا
لەزیاد
پێشووت
پارک
هیتل
##زەر
لەفر
##اندو
سوار
سەربەستی
تیرۆرستی
مەودای
##کارێکی
نزیکەوە
يەسکەند
شەونم
1996
ناجێ
پێکهێناوە
هۆشیاریی
بۆچوونەکانی
یۆتۆبۆری
زادەی
لەڕۆ
##ەوەز
ياوو
هەبووه
##دم
##شا
##گەکەی
بووژ
يامارێکی
مەرامی
واشنتۆن
دیمەنەکانی
لۆژیک
عین
نەکراون
نەبێتە
1987
هاوپەیمانەکانی
سەراسەری
##اکەم
درێژەدان
نووسینە
پەنجە
بارودۆخەی
جانت
ناداد
جێگە
پەرلەمانتارە
هاوشانی
ياخاوتن
باوی
پیتی
تیڤی
##کۆتی
نزیکبوونەوەی
ڕێکخستنەوەی
زاخو
کۆمەڵایەتییە
ڕزگاریان
ڕوونیکردەوه
بست
##هاو
بکش
لەسەرکرد
##ەیران
گۆرانیی
حوکووم
پردێ
سانت
عە
فات
##تار
##گۆی
بۆل
##زیاتر
تەوەرێکی
چرکە
ناسنامە
مەزنە
قانونی
سیل
بوونەو
میللەتەکەمان
هالیوود
میش
##گەوە
دەستڕ
ملیارد
Fri
بناری
##کردنەوەیەکی
دنیایە
بینەران
##اوەیس
بیک
نیین
هەفتەیه
هیندی
قاهیرە
گوێڕای
کارەکە
بەهەشتی
ياسەو
ژنەکەی
وتووە
يەدای
سەرکردەو
تەعریب
مەغریب
يیفلی
نەتەوەییە
خانمان
چەشنی
زانکۆکان
يایەتی
بەردەستی
هاوکاتی
باخی
يەیوب
قەرەتە
بق
##مۆ
##ەخۆی
جەنگێکی
ناڤێ
گێمی
لەپی
##ۆکەکان
جیاد
##ییەکانە
کیس
توندڕەوی
سنورەکانی
پراکتیکی
تێدەپەڕێت
##خە
خستەروو
يەبێتە
تورکەکان
لەزین
خستنەڕووی
##اوانە
يەمیری
بەبۆچوونی
يەمەریکادا
تەقە
دیارترین
گومانلێکراو
قێزەون
ڕەبی
دووان
نەقیب
##ەیدا
##مینی
##یەکانەوە
يەیلولی
بەجێب
پێویستیمان
گوندێکی
بیانوی
وەستانی
##جه
##شتیمانی
دەولەت
گرنگیدان
توانایی
میرانی
is
خاتری
##rt
بارو
هەستێکی
يەسعەد
##وڵاتانی
ملکەچ
هەموومانە
دیکەیە
يیرادە
مانچستەرسیتی
عێراقەوه
پارتیدا
پەیوەندییه
بکەینە
کاتێکدایه
هونەرمەندێکی
پێشووتر
شـار
St
جود
کوردێکی
##ەسـتی
ياژانسەکان
دن
مێینە
نزار
ڕۆژه
پیاوەکانی
بایەخێکی
وف
##ەریی
دەگری
دوبەی
مەحاڵ
تەگەر
لەبەیاننامەیەکدا
##ڵەی
بەراو
ڕۆژا
يارادایە
دامەزرا
لەيێستاشدا
ژەهراوی
نێوانیاندا
هەڵپەسێرد
قەسی
دەربکات
بچوکی
بگۆڕن
نایانەوێت
شارەکەی
##وبەندی
چالاکیەکانی
فێربوونی
ناوزەد
##ۆگرافی
لەهەند
هێڵە
پێداچوونەوەی
زوم
##ووق
سەرکوتی
پشێوی
هەڵوەشانەوەی
خەڵکیان
زانیوە
نەدی
شاعیرانی
گرتنەبەری
هۆم
##چووی
##35
##شتاین
ياماژەمان
دڵیان
ڕاپۆرتەکەی
نایەکسانی
پێگەیاندنی
بەکێش
1994
میهرەبان
کەرەستە
دەخرێت
##and
هاندەرانی
مۆدێرنی
##وەڕۆی
بەرخۆ
##ێیدا
بەتوانا
عبد
##ۆیشت
ڕێـک
نەهێڵ
ناردووە
مریشک
##حق
کێشاوە
خراپترین
هێلی
قارەمانی
قەف
پیرەم
دیاربەکر
##لة
##ەشمان
##ەقە
يەلس
دنیایەکی
سەرەتاکانی
فێربوون
لەبنەڕ
خۆپـیشـاند
داعشدا
هەناوی
حەمەڕەش
قایمقام
بنبڕکردنی
دری
چێندراو
ياشتیخواز
هێما
لەگەڕەکی
قابیلی
پارتەکانی
گەشتیاران
##وونەوە
ناگەیەنێت
نق
شارەکه
بەدەیان
بازار
زێ
زەیت
##باڵ
##اوەکەی
دەکەوت
دارو
هێرشه
هێرشکردنە
بەندەکانی
کۆتاییان
زەمینی
وەت
##به
##ەنەی
نەبرد
شیعەی
مەترسیدارە
تێکۆشەر
يەفریق
موزایەدەی
خەست
لێش
##ایێ
##ووسین
تیمێکی
گەرەک
بەغداوە
بەلایەنی
کادری
لەيارادایە
خودایە
##گیرێ
نابەر
دایان
عەرەبستانی
خوێندنەوەیەکی
ڕوداوەکانی
میلیشیا
فلمێ
نەقشبەندی
ڕقی
کز
کەنار
فەڕەنسی
مەعریفی
کێڵگەی
يازەربای
سەلەفی
نايومێدی
تکریت
ڕێپێو
بەدب
شوێنانە
##نێک
##ik
##eed
ببینە
ژنانەی
1997
##رایەوه
هەڵگیرس
##ارێت
سەرگەر
##گیراوە
حسین
شانۆکار
بێگەرد
خویند
ياگایی
بەیەکێک
فریا
بزانیت
##فۆر
پێکد
پێکهاتەیەکی
##ێنا
بوەتە
مەخمور
قەبوو
چێژی
يەپر
حیزبانە
نەوتە
ناڕاز
یارمەت
گفتوگۆیەک
تێکەڵاو
وەهای
ڕەخساندنی
##ابووە
هاوتا
نێوی
##چوونەوەی
##کارییەکانی
تانک
قۆناخ
سـی
کتێبەکانی
لەناکاو
##nes
کۆڕی
##ۆڵم
##ودەی
دێی
##وەوە
لەکتێب
يەوانەن
شاعیران
چاڤ
ڕاسی
يۆد
بخۆن
داگیرکاری
يەتوان
پیشەساز
مۆسیقای
پێبکات
##وندوتی
لەرا
تۆزێک
وانییە
سەرای
##ادات
##روستی
##گیانی
بەدەستهێن
فەرمانبەری
سەرەکییە
شێوازێک
يوتومب
بوین
کرایەوه
بەرزتر
بزانرێت
پیلانگ
دەگێڕێت
ژەنەڕ
مەق
پیشانی
بەزۆرینەی
1993
پۆسته
ڕێگەچارەی
براوە
پایەی
##ەبونی
الخ
110
ناسنام
گفتوگۆکه
ڕێککەوتنە
نێردراوە
##بێرگ
بەرتەسک
##خەری
کوردست
پێدەدرێت
هەندەران
تاوانێکی
مانگدا
مارسی
##49
دروستبونی
يامادەبوو
تەقینەوەکانی
ڕونیکردەوە
بەکردەوە
کەسێ
لایەکەوە
کەمیی
نەچوو
لەخۆدەگرێت
عەقڵانی
وەهم
وەرگێڕان
##اندز
پەتی
کەسێکیش
بەسەریاندا
نەمری
یەکڕیزیی
خواو
کەوتەوە
سایکۆل
گروپێک
##جم
##ۆرا
بنێین
دوورن
هەبووبێت
هەمویان
يۆپۆزیسیۆنی
کەناڵێکی
اخ
حور
دوم
ماج
##ومان
پەرلەمانە
دەیب
وێڵ
##اندنێ
Friday
##اوەیی
زانستیی
توڕەیی
##اواز
درێ
پڕۆژەکەی
ستایش
سەرنجە
Mon
##یانەیە
ساڵانێکی
يێرانە
ڕۆژنامەیەکی
گونجاوە
سانتی
##راد
##ەرینی
fal
سەرفر
هەشتی
کرابوون
بەیاننامەکەدا
هێناوەتە
زەه
##لەک
مامۆستایەکی
لەیاریی
پشکداری
گێڕانەوە
##پرسانی
تیرۆرستان
لەخەڵکی
دەریایی
71
کازم
##نای
نامان
هاریکاریی
خولەکه
مەعریفە
جوگرافیای
##اتیا
پێکراوە
ژمارەیە
پێبەخش
بەفیڕۆ
فور
##ەڵا
ناوەک
نادا
هۆیەوه
پەرلەمانیش
کاریگەرییان
بیروبۆچوون
چەتری
داس
##40
کۆیی
يەچێت
پەیامە
يەڤین
قاچاخ
کەع
فرەژ
تەقاند
خاڵێک
پەروەرده
عبدالر
لەسێدارەدان
هەڵگەڕ
فیزی
دهۆکی
پەیمانگاکان
يێکێ
چاندنی
هێرشبەری
تۆمارکردووە
فەیلی
بهێنێتە
یەکێتیش
یەع
کوالی
سیستانی
##ەستن
پاکستانی
لێقەوم
بانی
بەدەنگی
##ژمێر
دەهێنێتەوە
پاڵێوراوی
##ublish
حیس
ڕۆما
چونە
شانازیی
نەخۆشییەکانی
فریای
يەفسەرێکی
خزمەتکردن
بەرشەلۆن
##رت
##ەما
##رینە
حیزبێکی
بەخشین
دەخەن
ڕووبەروو
شەرعییەت
بەحرەین
حاشا
گوتە
مومار
##اکەمان
دەرس
کێشەکانیان
100000
کامە
قەبوڵ
##زادە
##فیش
##ێنرێن
گرفتێکی
حەڤدەی
عومەری
خیت
دکەت
##اوین
##ەڕۆژ
خۆیانن
جوري
پێڵاو
بەپشت
جیاوازیان
##بینم
فەتح
دانیشتوانەکەی
ساکار
پرنسیپی
يۆمەران
بیانوو
کەشێکی
تۆڵەی
false
##اداری
لەپڕ
هونەرییەکانی
موکری
جیان
گەمە
##رنا
##عەلی
##ەرن
يەمانەی
بارێکی
بەلاوە
سوم
##ەتەوەی
##زینی
يامێدی
ڕەوشە
بۆيەو
حیکایەت
فرو
##شکی
##بووه
بێتاوان
دانیان
بڕیارو
##ساڵدا
کارەساتێکی
لەمانە
ناحکوم
تۆدا
لێدێت
مەبەستمان
سەربازێکی
سنوورە
مەنووچ
دەردەکەوێ
خەبەر
عل
خۆری
##سیاسی
شۆڕشگێڕی
جولەکە
دەستلەکار
##دراو
##ادار
شوێنه
##خانەو
پێشکەوتووی
توێژینەوەیەکی
يەلعێراقیه
یادە
##ەرا
##وتین
وەڵامێکی
لایەنگر
است
خومەی
کرایە
یاسایه
بەبەشداری
هێڕ
وێر
##KK
##کەیت
توێژەران
مەیلی
خانووبەرە
بێشکچی
حکومڕانی
##ەگەڵ
دیکەیش
شارەزایان
خەتەنەکردنی
ڕیشەی
يەشکەنجە
91
بف
چووم
##ەتری
ناوەکەی
ناگۆڕ
سیاسیش
زانیارییانەی
پری
##شه
يەور
کۆمە
چەندی
کامکار
دەسەلمێنێت
سونە
چەوساندنەوەی
يامێرژەنی
بارم
توانایەکی
چاککردنی
بچینە
يامادەیه
بنەڕەتدا
##سـتانی
بات
ڕایی
هەوێنی
مرۆڤەوە
وتارەکەی
##وشت
میوە
لەرز
ناشار
ڕاگەیەنرا
بگەیەنن
##ەونە
تیۆر
يەمریکاش
دڵەڕاوکێ
باژێرێ
وادی
کردۆتەوه
گوتەیەکی
لەیەکتری
لەوکاتەدا
News
سوب
##ۆمێنتی
يامادەین
بیرکردنەو
ستار
يیقلیمی
کردەوەو
دەرکردووە
کەمینە
اللە
جیهانیش
نامرۆڤ
تێبپەڕ
سیمین
العرب
92
زادە
بۆلای
##ایەتییەوە
کۆنگرەکە
##پارێزی
تەقینەوەکەی
پرۆگرامێکی
دەپارێزێت
بەنگ
پەژ
##37
بابە
پرسیارانە
یەکیەتیی
لەخۆیان
##ازانجی
رۆژ
##30
گەورەکەی
پیشانگ
یەکسانیی
شاخەوان
##ust
چێڵ
##ارەو
دووجار
ياماژەیەکی
يەنجومەنە
قۆناغەی
کوران
بینەری
دۆستەکانی
کەسوکار
بەرێوەچوونی
چرک
گولل
وەبیرهێنانەوەی
جەی
پێستی
ناوچەیەدا
ستەمی
بچکۆل
يێواران
يەمریکییەکان
بونیادی
##کراونەتەوە
دەکوژێت
زامن
فتو
لەگەرم
بەڕێژەی
نەخو
چیک
ياشتیانە
تەنگژ
ياڕاستە
عەدالەت
کاربەدەسـتانی
##خوێن
هاتەوە
يەلمانیا
180
تاقیکردنەوە
دامەزرێنەری
دانووستان
سرووشت
ڤێت
##قان
##اییەکی
##رافی
مانگرتنی
ولا
تاوانباری
سـاڵح
پرۆژەیه
حەقە
ڕادیکاڵ
سوێندی
خەوی
مۆل
##رة
##ەنتین
ملیۆنی
بریتانی
تازەپێگەیشت
پیرەمێرد
یەکلا
دەستەب
نیت
داواد
دەستوەر
شاردا
جەلاد
##ییەکیان
پێکەوەژیانی
سمکۆ
جۆز
لاش
##گەش
##ەبووە
سالانە
دەخوات
##ەکانییەوە
##ازەی
بەشەر
حکومەتێک
##ەبەرایەتی
1989
##ەبوونەوەی
لەبازاڕ
مەنووچێهر
بەکرد
##انداوە
بکەون
هەڵنە
##دینی
##گوای
میللەتە
دۆخەی
بة
ودا
يێستاوە
هاتینه
بیناسازی
##حکومەت
بەيامانجی
حەمەڕەشید
يەپرێل
##port
پێکان
##گیرا
ڕۆژنامەکان
بگاته
مەبەسته
دڵتەز
سۆنگەی
يێزدییەکان
شەراکەتی
هەڤپەیڤین
شەل
##الیکی
بەنێو
وتارە
کلتور
کەموکورتی
دەوت
بەڵی
هاوری
هەڵبوەش
نامەوێت
زیندانیانی
دزینی
عەز
دیبە
دروستبکات
کۆمەڵایەتیەکان
تشرین
هەموارکردنەوەی
گورج
ڕێوڕەسم
اذ
##خرێت
بڕیاریان
دادگاییکردنی
لێهاتوو
خزمەتگوزارییەکان
لوقمان
##جەو
هەڵگرتووە
لایێ
نیۆی
دەسەڵاتدارێتی
تووشبوون
قبوڵی
هەوە
ڕوس
##خراوە
بەرژ
وێنەکانی
ڕواە
گرینگە
جەڵ
##ۆتی
بکەت
ڕۆژوو
هاوبیر
يەلبومی
کودەتا
##الین
بنە
بگوترێت
قوربان
دەمێ
نووسینەوەی
خۆمدا
##ڤیا
داخە
##دەیەکی
برینی
دەیتوانی
سێپت
يەندامێتی
گرنگیان
بونەتە
فەرموود
Se
##ەشم
##ەخواز
##ۆیەک
بریارە
دەوڵەتێک
کڵێس
بەرپـ
ڕێژەیە
بەناونیشانی
ڕێککەوتنێکی
ڕەخنەیی
تن
قل
##گراد
ياف
دواڕۆژ
دوژمنایەتی
کراونەتەوە
خەڵاتەکانی
تايیفی
لویس
کراوی
سەره
##ەکەینەوە
يیسلامە
لادانی
بەبەردەوامی
##ublished
لاه
ویەک
##اشین
پەیڤ
ڕایس
کۆنەکان
يەوانەشی
##لۆپیدی
حەقیقەتی
دەرکەوتن
##ۆشن
شتێکە
بارزانیی
دەکردن
کورستان
تایل
خراون
کوبانی
##ابێتەوە
الاس
گۆڕانیش
##ـیەکەی
خون
مود
کەرامەتی
لاوەکی
خەمخۆری
ڕێورەسم
پتەوت
هوت
داوایەکی
سەرەتادا
##ەویست
هەمە
داستانی
ناهێڵێت
نەگونج
بێژەر
نەخوازراو
چەل
##چەیی
کوێی
درکاند
گەیەن
دیدارێکی
سەڵاحەدین
##ەتیڤی
دەرێ
دەول
تورکیایە
ڕەح
کولتور
عەقڵییەتی
لینین
##اکو
##لملان
جوانکاری
داگیرکەری
ژوورەوە
بـ
##اکانە
سوڕ
مامناو
کەلێن
پەیوەندیدارەکانی
دۆک
##ۆدا
##اکسیۆنی
##دارەکان
کامپ
هەڕەشەکانی
##ڕۆسەی
يەنجامەکان
لەشەڕ
##دەوڵەت
بایکۆتی
بروان
گۆڕەپان
##واد
بۆتان
پەرتەو
يارادا
منداڵەکە
خستنی
مەدریدی
یارییه
بیانییەکان
سرووشتی
هاتووچۆی
##منداڵ
بەهۆکاری
الذ
دەربکەوێت
جیهانییەکان
سۆڤ
چۆنیەتیی
1968
سەرشەقام
کورسییەکانی
ناعەدالەتی
gmail
يەبی
ڕەب
پەرەپێدان
ياسەواری
يەبن
زەردەشتی
خوێندنگە
ژێردەست
##وپێک
##ێێ
یەکگرتوی
گەشبینی
ڕۆیشتنی
ڕۆناڵدۆ
هەریری
##اییەی
هاوینی
##یلا
هێنانەوەی
لێکدانەوە
تازەیە
PKK
مۆڕ
پاداشتی
##ەکرێن
بووایە
تیرۆرست
پەرتوک
عەشیرەت
زێدی
کیان
##ڵو
##رۆژی
بەڵگەیەکی
بەشوێن
بەڕوونی
کەمدەر
بەردەوامه
گەلەک
دەستگیرکرا
##احیەی
##مەنی
تاکێک
جەلیل
بخش
بەرژەوەندیە
فۆڕم
زیاترو
زەنگی
وکار
ڕاوە
##ۆڤیچ
##چین
کێشا
تاکەکەسی
بابەته
لەقەزای
پۆستەکەی
گفتوگۆیەکدا
بەناچاری
خومەینی
مخ
##نتن
کوردمان
نواندنی
بێته
ژیانم
حەمەس
دەوڵەمەندی
یوون
##ترد
##ەرگرتن
##ەڵەک
خۆياماد
هێزەی
پێنچ
بەبی
بابل
کۆبکاتەوە
نیشتەجێی
تایف
بودجه
يەلعێراقییە
لال
يیراق
##اینەوە
پێزانی
يازادییەکانی
بینا
بەڕێزتان
يەدەبیات
سووتان
چەندێ
دادەڕ
تەواویان
بەرچاویان
يۆرگانی
لەبوارەکانی
نەبووم
يیسلامیە
تۆڕە
کۆنفڕ
دابڕێنراوەکان
ببەخشێت
دانرا
تیمەکانی
##خالق
بەپێویست
خەڵکانێکی
##ەتای
گوێد
ساڵانه
نەکردووەتەوە
بەستووە
هاب
##وویانە
خۆج
بێخ
نوسەری
يەلقاعیدە
##ەستێت
لەپڕۆژ
دڵخۆشی
قسەیەک
تەنێ
دایکان
گوللە
بارهەڵگر
##یەو
پێکهاتەکان
يەتات
ولاتەکەی
بخوێنێت
هۆزان
هەوڵدەدەین
مەرجە
پێکهاتوون
خۆرهەڵات
داهاتوویەکی
کلینتۆن
##لیسی
ڕێڕەوی
بەخەڵکی
بڕگە
وێنا
خستۆت
مەبەستیان
يێرانییەکان
ياغای
بەرێوەبردنی
زایینی
ڕستە
گۆم
هەرل
خولە
بچێتەوە
کلیلی
هاوڕێیان
یەکگرتوەکانی
##اکاری
وشەیەکی
##باب
کوردییەکاندا
وڵاتەکە
هاتووەو
ڕەشە
ڕێنمای
عوب
##ارەیە
##وردا
سکال
لەخول
مۆرکرد
کەوتوونەتە
هەرسێ
ڕاوبۆ
ولاتێکی
لێکۆڵینەوەیەکی
پڕی
گات
##ەوێتەوە
##دابوو
ياسۆس
خاڵانەی
ترسناکە
لێڤەرپ
بەمە
ماڵپەر
خواستە
لەوێشەوە
وەدی
##راندنی
بوێری
ياواتی
ڕۆژنامەکانی
شەرەفی
ناوخۆییەکانی
فرۆشت
داق
داون
لەشارەکانی
لێرەو
ناڕەزای
شەوانە
دۆزرایەوە
سەوزی
سەقامگیریی
بەلیستی
81
تۆنی
دەستێکی
بەيەند
##ولا
گیانل
جیاجیاکان
پێمانوایە
##گەکە
لەسەدا
توێژی
لەدەوری
هەڵەکانی
پاشانیش
تریشی
عەبدولح
هەستیاری
دەرچووانی
دیمانەی
ترمان
بەخاک
وەزعی
شێوه
لێسەند
شەوکەت
يابوریی
بونە
ناهەم
کەرکوکیش
##42
##وسڵ
سلێمانیش
بەڕێوه
داهاتێکی
فیلمەدا
لیبراڵ
سندوقەکانی
تەلەفیزیۆنی
خۆیانیان
ياسانە
گوتەنی
##کەرەوە
کراوەیە
بەرێوبەری
گەیشتنه
لەعێراقدا
نێگەتیڤ
بەرۆکی
نەبێتەوە
##هاتەکانی
##کتۆر
کۆنگرەیە
کامڵ
##ەکەمدا
سالح
ماندو
##ەسەلات
##دەتوانی
يەرژەنتین
قايیمقامی
تەور
##قل
##سانە
##ابان
گوایه
لەند
##شنگ
لەشەڕی
هەلەب
تۆمارکراوە
هەفتەیە
ڕێککەوتنێک
يەمانەن
بێوار
مەکسیک
بەوپێیەی
کیم
تیرۆرو
ناحیەکانی
فارسیی
لەخزمەتی
اڵاو
دەستەم
##ۆیا
ڕۆژياوایی
نەیار
فریو
نەجات
کوشندە
عەبدولموت
شەفافییەت
شێل
##ابر
کارگە
کۆمەڵکوژ
يەکاتەوە
##اکانمان
Wed
##اکۆ
داهاتوی
گیراو
خانەخو
بگرێتە
کەدەب
##اڵەی
کوردییەکانی
يازارەکانی
##کۆف
کۆنگرێس
دەخەینە
سەیرو
ژیاوە
مانچستەریۆنایتد
يیب
الک
ڕەوایە
دنیابینی
يەشکەوت
يیداریی
زەبری
لێکۆڵینەوەکان
خوشکی
سکی
وەدەر
يەمەو
باسکردن
جارانی
ساردی
شەخس
های
پرو
##وتە
تەراز
گەورەیەی
مەترسییەکی
ڕۆک
##ایبەت
هەبیت
لەدروستکردنی
نادەین
شایستە
شیوع
شاڵاوی
##ێیان
بەڕۆ
##ێتییەکی
ڕووید
يەکتیڤ
بۆماوەی
بێکار
قوتابخانەو
موحەمەدی
دیبلۆماسی
##سـتی
##rom
##ەوەیان
دەگەڕێن
توندتر
شێروان
سەرتاپای
دوازدە
مرۆڤەکانی
گرنگن
لێبکات
##برالی
ناردنەوەی
شەرمەزار
غەیرە
یەکجاری
لەبەرنامەی
بیرمان
پڕۆژەیاس
لەنێوانیاندا
##nesday
Wednesday
##ڵای
##گەیان
##وبونەوەی
گوتەبێژ
قەدری
ستیڤان
em
it
کاکی
##امەکانی
لەوبار
تایبەته
ڕەگی
گۆرانییەکانی
گونجاوی
تاوتوێک
فەریق
##ڤانی
کارمان
##وتەی
وڵاتەکەمان
##وورە
هەوڵدەدەن
کۆمپانیاکە
نەکردن
توێژەری
چۆنییەتی
پێداویستیەکانی
دیمۆکراسی
بەرقەرار
##ek
پێدەب
##ۆرانی
##دول
ساڵەو
##خوازەکان
دەهێنا
##urs
1974
خن
دەسپ
ماڵێک
ڕاپۆرتێک
نوێنەرایەتیی
نەکەیت
ڕه
##گیرێن
داهاتو
بەدەستبهێنێت
نابینێت
ببەسترێت
خرۆش
بوبێت
سەدری
ماوەیەی
نوێیەی
خوارێ
پاڵێوراو
##الاکی
##وکمی
یاسادا
دەستوورە
نەرمی
يادەمی
کتو
##دایی
##زیر
خۆشتر
ڕۆنی
پێکردن
پێکبهێنرێت
شەڕڤان
يەوەشیان
يیيتیلاف
##ولات
بەڵگەوە
يینسانەکان
ڕەچاوکردنی
قەتیس
غی
کەبە
##ەبکات
نوێوە
گەورەدا
##ایەتییان
وتەبێژ
زمانێک
پێشبر
نێوەندی
##کرێ
لەيام
يەمریکایە
شیعرێکی
ساختەکاری
##پێن
دۆستانی
ياشکرایان
سوتاندنی
هاونیشتمانی
وەڕ
##ud
يەندامە
تێبگەین
واقیعدا
خەسرەو
ببەستێت
بەجیا
##تەرناتیڤ
##نار
دەردی
يێرانەوه
هەردووک
فیدا
ياکرێ
کۆنەپەرستی
فراکسیۆنە
تۆڵە
هیلاری
کرمانج
لێکت
خێراتر
ڕەتدەکاتەوە
عەسکەر
لەترسی
چێڵسی
##پشتی
بەرهەمهێنەر
وتنی
نەتەوەیە
داواکردنی
ڕەزامەند
عەدالەتی
هۆلیوود
لەبارەگای
براوەکانی
يارە
لیتر
بڕەخس
پلانە
هاوکێشەی
##کەنەوە
نەدەب
کوڕێکی
خەرجکردنی
پاتری
هاتبوون
زەرەرمەند
جێگرەکەی
درێژخای
يەفغانس
فاتیح
پێوو
مندال
وێنای
خێرخوازی
##ۆڤا
چیرۆکێکی
مۆنت
ڕێبەرایەتی
لەحزب
##ەجەم
يامادەکردووە
دەسەڵاتەکان
ملیون
سکرتێر
تەرمەکەی
Com
بگەی
شاز
مۆت
پرۆلیتاری
وێنەیی
لەجێی
بەشداربووانی
##انەمان
تێکەڵی
##کۆپ
زمانەکانی
##دەبن
هاوڕێیەتی
بەگەرمی
##یلەی
ناوچەکەیان
کانون
کاریگەریان
سویسری
بەربڵاو
جەرگ
کەپێویستە
قووت
یانەیە
##الیا
گوندە
ڕوانگەیەوە
موشەکی
دەنی
##ەناس
لەسەرووی
دەسەڵاتەکەی
ملوان
سەرەتاییەکانی
یۆڤانتۆس
ناسراون
ستۆدی
دەنگدانەوە
يەمەریکاو
بدەینەوە
يێسک
دەرهاوی
ڕابەرایەتی
بەرشلۆنە
تەمی
##انەشی
##گیرس
پێیەتی
بەکارهێنان
جەمسەری
موسەوی
ماوه
ڤینۆس
جێر
##ریف
کوردییەوە
پێشڕەوی
میک
بەياگ
188
دانیشتوی
خوارووی
لەیاسای
کۆیلەی
جمه
بەبڕیاری
th
بەرەیەکی
کۆتر
لەبیری
منداڵەکان
پەیامەکەی
هەڕەشەو
ڤیدیۆ
کۆنسێرتی
منیان
##ضی
##ێکا
##ۆیت
هەرێمەکان
بگونج
هەوڵەکانیان
گۆرانییەکی
سەیران
یەکلاکردنەوەی
ماندووبوون
خێڵەکی
بەتوانای
دەردەسەری
##جیری
سیاسیەوە
قسەم
بەردەوامیی
سەمیر
کیشوەری
ڕونیشیکردەوە
باڵەکایەتی
مید
##ۆستی
##ردە
هەڵق
الد
هەستیان
دەوڵەتدا
دەردەکەون
گەشتوگوزاری
ڕێگاوبان
يۆتۆنۆمی
مابوو
##يار
يەکاد
نووسەرێکی
سەلاحەدین
فۆڕمی
کادی
##ستەکانی
##ێکه
سەروک
بێڕ
يازارو
دڵە
زیادبوون
وەرزشکردن
Sun
رادی
شوک
گار
يیتی
بوویت
نەکەوێت
هەڵبژاردنەکە
شیعریی
لەبەرژەوەندیی
خاوەندارێتی
##اوس
بەچی
بوارێکی
ناوچەیەک
نوێنەرێکی
ياژانسەکانی
10000000
حامی
##کیل
ژناندا
يەرکانی
دژه
دێموکراسیدا
گوڵە
تیرۆریستییەکان
يامێرە
خەسڵەتی
ژیری
##عب
##ەپەر
لەياس
##تانه
شەرمەزاری
##ووخ
کوردۆساید
بەهان
بنرێت
گەورەش
لەڕوی
کەرنەڤاڵی
کۆمسیۆن
دەسەڵاتێک
فرەیی
باوەڕم
دواکەوتوو
زیندووی
لەولاتانی
ته
##ەکەنەوە
بەرایی
##ەپێش
زەنگەنە
فێمینی
کوەیت
پەیرەو
نیچە
ناوچەکان
وێنەو
##اندنا
سازکرا
چاوەروان
پرەنسیپی
شەشی
##جێکی
تووڕە
بگەڕێینەوە
سپارد
هاوڕێیانی
ڕستەی
مەرکەز
قامیش
نەبون
دوورگەی
ياڵت
سەربازییەکان
سوودیان
ڕەهەندە
##دری
يیتیل
##کرنی
پشتیان
ڕوونتر
دادەمەزرێن
ڕاگواست
ياشکراشیکرد
تات
##ینێ
لەشێوەی
باشترو
خێرو
گیرانی
زەویدا
کۆبوونەوەکان
ڕاسپێرد
Tues
##وح
##گایە
تیاییدا
شەهاب
فەرمانگەکانی
بینیم
بونەوەی
Tuesday
قە
مۆم
##بۆرگ
##ۆردا
دوزخورم
نیشتمانە
سەمای
سودمەند
##60
لەژمارەی
دەرون
##الانی
بەپێک
ببەخش
جۆرەها
توڕە
شکۆم
سوننی
لەهەمانکاتیشدا
توانیویانه
شوێنەوار
نەورۆزی
دیبەگەیی
لسەر
##خەن
ڕەهای
پێنجی
بەسره
پێشمەرگەکانی
بەیاننامەکەی
قەوم
يەویتر
يازادیخوازان
لەخزمەت
ڕێچکەی
دەرماڵەی
خا
شایەتی
کردوویەتی
ژینگەو
فایق
حەبیب
وکو
##وولە
نزیکن
میرزا
تەزویر
لەدانیشتن
##يەی
##غانی
لەرێک
ڕێگەو
پەراوێزی
ماڵوێرانی
نیۆیۆرک
بارگر
چاومان
بەخۆش
توانییان
دەخوازن
لەبەرچاوگرتنی
##fo
دەستخۆش
دروستە
شتەکانی
بخەین
بەیانیان
دەفرۆ
بەڵگەنامەی
مۆدێرنە
وەفدەکە
##ەڵان
سواڵ
موه
هەڵبگرێت
هاتنەوەی
پاسەوانەکانی
يەفریقیا
جوامێر
يۆن
گەیی
ناوەکانی
گرنگه
کچەکە
یادکردنەوەی
شەبەک
مێدی
##اوەکە
##ەزاران
##ەدای
##ەدەستی
بوود
##جیم
سروودی
Monday
زووە
سنه
ستاف
##چه
##ەکانەوه
کاربکات
##گرتوو
یاریکردن
ياماژەیەک
گەڕاندەوە
شیعەکانی
##وشوێن
##دەکەینەوە
هەندێکیشیان
لڤین
##هێڵ
##si
لەمڕۆ
پاشایەتی
تەقاندنەوەی
تەواوکەری
نەبووبێت
مانگانەی
لیستەکانی
يارەزووم
يەردۆگان
##نەکەوت
نەخۆشخانه
کردەوەیەکی
بژاردەی
ڕۆستەم
فاش
لەچی
##ییەتە
دیلان
نازانیت
هەفتەن
گەردەل
يەورووپ
موستەفا
##وفی
دەبینەوە
جیدی
دادە
گەرما
دابەشکردن
دیارو
خۆپیشاندانەکە
غەفور
ڤە
##ەکەر
ڕۆژگاری
لەمیدی
ياودێری
هەمیشەی
پەسەندی
Satur
بەمی
##تێ
##عة
##داخ
ڕاف
يەنتی
دایکە
هەشتا
دەناڵێنن
Saturday
نامی
یەکشەممەی
##ومێنت
لەيەزم
تێبگەن
خام
##ەکەدایە
پێنوسەکان
لەبودجەی
دەگەنە
بەرزو
شارەوانیی
حەوتەمی
بەرەوپێشبردنی
هیتلەر
پتەوتر
kurd
حام
وێژ
چونی
##لێت
کێشەیان
بیکەن
مەسرور
##ارەسەرکردنی
خۆرهەلاتی
شانۆگەریی
نموونەیی
مارکسیزم
view
##تما
دوکانی
ژیانیدا
بەستنەوەی
1983
ڕۆژنامەنوسانی
پـێـنج
نامیل
##یانەش
دەرخست
سەرکەوتووی
لەوەف
ڕێگایەک
هەمومان
ياسانتر
شاهیدی
مەلیک
93
##یرا
##ێزەکانی
##یدانی
خانمه
نزیکترین
بەخێرهاتنی
فێن
ولای
هەمووشیان
بەوەوە
##ودەست
يینج
زیانەکانی
بەکاردێت
جوڵەی
لەهەڵبژاردن
هەڵدەستێت
بشار
##اکات
##الم
وەرگر
جاره
دەکوژرێت
ڕێڤەبەری
کامیرۆن
کاریزم
میون
دەمرێت
نووسەرەکەی
پـێـک
سورەتی
بودجەو
دەڤەرە
نەهێناوە
##هنی
هەڵبژاردنەوە
يابڵ
##ێلە
فرەن
تەڤ
ناوەندێکی
##لۆپیدیای
هێش
هۆیەشەوە
##ولە
189
حیج
يێسـتا
خرایه
دەگوزەرێت
لەيێستا
سەرکەوتنە
تێدایەو
بەعسدا
تێناگ
وشیار
مینی
##ەپەست
لەدڵ
پرسیارەکانی
130
گەیشتۆته
پرسەکانی
زەوییە
یۆرانیۆم
کەین
يەوت
##راپ
موسوڵمان
برینداربوو
##نەکراوە
فرمێسکی
##هەمی
##75
نیس
جەماع
برینداربوونی
شارستانییەت
زنجیرەی
تاه
هاتبێت
کەرکووکی
بیستەم
##اراستن
فۆت
ڕەوایەتی
مەسي
هەمانکاتدا
##ursday
دزەی
##رخی
خوه
ياراد
ڕێژە
هاندان
يەگەریش
هەڤاڵانی
يیعدام
Thursday
تامی
کردەیەکی
هەڵپەڕ
گەرەکە
براکەی
بەسەدان
بدرێتە
وێنەگر
هاندەر
لەهەمو
هەڵەو
وڵاتەوە
##نیشاند
نەهامەت
گەورەترە
برادەرانی
يەنیم
جیددی
کین
##ایەتەوە
يازادییەکان
##ەکانیشەوە
کەموکورت
دەلێت
Mag
نۆک
خودان
جیهانبینی
بڕیاریشە
ڕزگاربوون
دابڕان
بەسیاس
کردۆته
بهێنم
دەبێتەوەو
بوەو
##گرتنەوەی
درەوش
چوارگۆش
فیستیڤاڵە
بەدیاری
دەکوژن
کوشند
نڤیسەر
بەرپەرچ
##هاب
کوردانەی
چاوێکی
وەلید
پێداویستییە
لەپەیوەند
کوردسات
##ەسات
لەگوندی
##کارو
ناوبرد
نەکردبێت
خوێندنگەی
نادروست
عەشقی
دێموکراسییە
میتۆدی
بەدەپە
توم
زبڵ
يەمانیش
ساڵرۆژی
پارێزەرانی
لەياو
يەزانن
حەسرەتی
گەریل
لەمیسر
الثانی
Sunday
##ەیک
##ێدایە
##ینیا
هەڵبژاردنەدا
هەواڵەکانی
پەروەردەکردنی
ڕۆژنامەنووسیدا
##گێری
##ووز
بێتو
##ژمارە
##کۆزی
يامادەبووانی
پۆستەکانی
کەبڕی
دیپۆرت
دەخاتەڕوو
تارمایی
no
##اوت
دەکران
##ۆزسیۆن
وەزیرەکانی
ناراست
ڕوداوی
وەیە
##ەتیش
دەسوت
سەرۆکج
داهاتودا
##ێگەیشتن
کابر
بەخشیوە
يەحز
هەرەشەی
جووتیاران
All
عەلا
ڕەقیب
##مانێکی
##رۆسەی
##خواست
وڵاتەکه
زیندەو
نەدە
وشەیە
##بینێت
گۆلەکانی
دەمانەوێ
ڕەخنەیان
يەمڕۆکە
ناگرێتەوە
توندڕەوەکان
عف
##کەیەکی
نیشانە
ناهەق
گردبوونەوەی
خامۆش
بنێرێت
##دانانی
پرسیارەکان
خانمی
درۆی
هەڵەبجەیی
ڕفاندنی
##خەڵکی
ڕوبەروی
ph
کۆبوو
##ێزانی
لەگشت
ماوەیە
##لاح
حاکمی
ساختە
دنا
کۆست
کەسانه
سپۆرت
فەرمیی
تەعبیر
نەتوانراوە
فەن
فەنت
کەتا
##وة
##دة
کەچەند
دیارەکانی
کۆمەڵێکی
نەبووه
ڕێژەیی
تێبگات
##ڕاگەیاند
قەرەباڵغ
##گز
##ەکورد
دەگەیەن
##لیل
نیگای
خولەکانی
خوڵقاندنی
يیلهام
جیهادی
دەیوت
حوسێنی
لەناوەڕاستی
کێشمەکێش
##خش
##انەیەک
جیهانەوە
بەکاربەر
نەمام
دەچێتەوە
دەقەکەیەتی
ياوێنەنیوزی
دەفتەر
دبلۆم
##mar
سەردانە
پێداو
نەژ
شیکاری
1982
پەلامار
نانەوەی
١٠
کوڵ
بەهەدەر
بەخشن
لەڕوانگەی
بڕوام
مەعروف
پایز
##ارەتی
بەپی
##ەشک
کارای
##ەکردنەوە
##وسەری
باسکەی
يیسلامیش
کتێبەکە
کێشەیه
هەریمی
واژوو
##ڵێم
##OA
کوردستانەوه
ڕاگەیاندنە
هێناوەو
##اهەت
تازەترین
نەتەوەییەکانی
بەندکراو
##ەکێشان
قاچی
بامەر
شیان
##زەو
بەمشێوەی
گوتراوە
يیسلامییەکانی
بردە
پەیماننامەی
ببینم
ململانێیەکی
کارتۆنی
باڵادەستی
موتڵەگ
مشک
بەرگرتن
##ابین
سەردەمەی
لیژنەیە
بەوەیە
دێموکراتەکان
قوڵتر
تۆتنه
پووچەڵ
فەس
##ندان
##جین
##حەی
تورکیە
گۆڕین
پرسەو
جاس
خاش
شێری
ڕووس
بوێت
بڵێیت
جەنگاوەر
پسپۆڕانی
ياریتما
فەرید
Jan
دەیە
چۆک
##نجی
ڕووەو
هێزانەی
يەکت
بەشداربن
باشتری
پۆستەکان
تاڕادەیەکی
##ected
کرمانجی
نس
وەلا
##ەوەم
##ەندەکانی
##ەلان
دەستاو
سولەی
ڕەشنووسی
نەتەوەکەی
سەرەکییەکان
شاشەی
##ەوەمان
زۆرەم
نیگ
داوەت
برۆک
سەیید
سپێرد
لۆجی
لەيەستۆ
لەفەرمان
prot
لۆڤ
##بەخ
پێداوە
وتوویەتی
یەکگرتوویی
شۆڕشێکی
کۆمەڵگەیە
##مارکی
يەکادیم
##azine
کردون
دەستکە
بەهاکانی
بەهاوو
دەنگوب
دەربەدەر
ناوخۆییەکان
دەسەلاتە
سنووردار
##هەڵوێستی
بوترێت
زاتی
##قین
دەڵی
الە
کەتێیدا
پەرتووکی
دەپرسم
بەدرخان
Ber
مایە
##ەکراوی
گۆڕستان
وێنەیەک
فیلمێک
نەیارەکانی
پرسیارەوە
سەرمایەداران
لادان
بپارێزین
جموجۆڵ
ابو
کوێتی
بەهادین
کەمدا
بوونەوەر
يەسەدی
تەلار
دانیشتنێکی
بخوێنێتەوە
يیمزاکردنی
ترسناکی
بەواتایەکی
هەربۆیەش
##شاری
##پاک
زۆربوونی
عەباسی
لەقوتاب
بەدوا
بکەوێتەوە
تامەز
زەمانی
ڕدە
##ارەن
هەڵبژاردووە
##فرانس
جارێکیش
##ایشدا
سەرجەمیان
نەجم
دیدارێکدا
سەعدون
عەلمانییەت
يەلفوبێی
گەوه
##ویل
##حادی
##يەنجام
هەڵدا
خۆمەوە
##اگۆ
##نیکی
لەول
ياشووری
نەدەکرا
دابنێین
خێری
فلیم
##وینی
لەبەه
کاتیش
وهاو
هەڵکەند
مناڵان
خڕ
##ress
بڕیوە
ياماژەش
خواردووە
هەڵوێستەکانی
وەرگرتوە
شڵەژ
##میر
##لەر
هەمەلای
بوونێکی
الط
##ەگەل
کۆبوونەوەیەک
وەڵامیان
##دەهێنێت
کوێستان
سۆزان
تالەبانی
ماکی
##وایی
بەریەک
دەخاته
يەرجەنتین
##افز
بنێرن
تریشیان
يامادەیبوون
ياڵۆزتر
وەهمی
سەربەرز
co
چوومە
کێم
ۆرک
یەکەیان
تاجی
تایبەتەکان
خولەی
1995
مونت
ڤایرۆس
بەکرێگیر
چوارشەممەی
ناوچەگەریی
جەختیشی
موعت
يیرادەیە
##ڤه
##چان
##ەکەیشی
لەناوی
دانەوێڵ
لێدە
ڕوناکی
خەونەکانی
ستەمکاری
بەنیازی
کۆریا
مەڵ
بەردە
نەیەوێت
سامەڕ
هەنووکەیی
هەتی
کەشی
یاریگا
نازانرێت
1984
هۆکارەکەشی
ڕفاندن
ناچێتە
##يێستا
يامۆز
دەگەڵ
يارای
باوکە
##حیح
یارییەکەش
کەپێشتر
بەهاوکاریی
نیشتەجێبوونی
مەرجەعی
دادەبەز
لەبنەڕەتدا
بامەرنی
خەوت
ونی
##ەداری
بیسەل
بارەگ
پابەندبوونی
گوزەران
تەحسین
بەنیازه
Magazine
ڕۆژێکە
يەردەن
پاڵەپەست
ناسەقام
##ترینی
بەخشرا
تووند
chak
فان
ڕوانینی
کارەش
شەڕەکە
پلاستی
تەسکی
ڤیتامین
##رێک
لێکراو
کتێبەکەی
پێکهاتبوون
خێزانێکی
يامادەباشی
ڕوداوە
دەستیپێکردووە
تەفسیر
##ەساڵی
هەروەه
تێهەڵ
ناکاو
يەناد
لیسته
سەندنەوەی
##دۆست
مندالان
تێکەوت
پێشێلکاریی
شانۆکاری
پیاوسالاری
پچڕ
May
##فور
##we
کۆکن
بەهەنگ
##زمە
نەمابوو
کۆمەلانی
لەدایکبووە
تەمموزی
يینسایک
شەوان
عەف
##مانه
نەگەیشتنی
تاوەک
ياشکراو
موزیکژەن
لەسەدەی
##کردوون
بکۆڵ
ڕاپەڕی
جێبەجی
پیران
خۆپیشاندانێکی
دەخاتەوە
مەزاد
شەریعەتی
قوڵایی
ماریا
سیخوڕی
نەبینیوە
زوممار
خێو
سونی
##دارێتی
يۆق
جێـ
ڕوویەکەوە
يیدارە
پەکەکه
سارا
تۆری
حاج
##ێرێ
##اردۆ
پەیتا
##ەیاندا
منداڵەکەی
پارێزگایە
فڕۆکەوان
زانیارییەکی
مردووە
مەولود
لەوەڵامی
لامان
نەکە
یەکەیەکی
کەسەکە
نیکۆل
يەڵلا
سەرەڕۆیی
چەقۆ
چەواشەکاری
دیلی
داواکانی
تاکڕەو
تاکڕەوی
پەیوەندیمان
سیاسییەی
لێبکرێت
دراوه
دێرینەکان
دەخوازم
دوپات
صالح
##کەیی
کەسن
مرۆییەکان
يەلکترۆنی
نەبووەتە
بنیاتنانەوەی
يامۆژگ
پەست
کاوه
##علی
##ارەسەری
لەوپەڕی
مانایەک
سەدەکانی
هەزارەها
جوگراف
هەڵوێستیان
کۆمەلگای
سەردانەکەیدا
تاقم
##ێنەرەوە
پێوویستە
res
فە
شەون
کورتدا
##ـیەکی
حکوومەتەکەی
هەتایە
يوسامه
نايارام
ڕونکردنەوەیەک
درۆزن
بەراوردی
97
##يین
##ەدام
##ەدەکەن
ڕۆژەوە
يۆتۆمۆب
دیکەشیان
ڵام
حکومییەکان
ڕاوەد
نیوزی
نیگەرانیی
پەیڕەوکردنی
تەحری
جڤاک
يینسایکلۆپیدیای
ذین
ياند
کڵاو
##سەت
##45
##ەناوی
الدین
دنیاوە
دابەشبوونی
مارتین
بەندەری
ويەو
گەشتیار
کێبر
تەيکیدیکردەوە
داڕشتنەوەی
هێژ
##حەت
کەپەی
لەمن
قسەمان
پەنایان
وەردەگیردرێت
1976
پەله
سەرپێچ
ڕایانگەیاندووە
کاپیت
عرو
فەج
##کرابوون
بەهێزو
حەزرەتی
سەرنوسەری
تەڵاق
نوێکردنەوەی
کوالیتی
سەرابی
##ەلەف
زیانیان
شانشینی
##ییانه
سعودیه
ترسنۆک
protected
##زایی
گواز
##ارییەتی
نووسراوی
بخەمە
هونەره
جوانەکان
چەوساندنەوە
بەعسیەکان
فاکتەرێکی
لەيارادا
زێتر
لۆگ
##اویان
داپۆشی
دابەشی
##وبار
دیارن
يەستەن
گفتوگۆکردنی
گرێدانی
بەکاردەهێنن
##ght
خوداوەند
VOA
##39
قوربانییەکان
خۆپیشاندانە
##گوزاریی
ناپۆلی
##خواردن
زوب
عاي
##38
##ییەوەو
هەرێمایەتی
ياژەڵی
دەنێرێت
هەواڵەکان
کۆلۆنی
نوسیویەتی
دانوستانی
يۆپەراسیۆنی
##ۆتا
تۆماس
بەرنامەیە
فەلەک
سنوورەکە
تووڕەیی
سادەی
##ەینی
کراس
ناڕەح
پرسه
واقیعە
بکەیتەوە
بۆنمونە
بەبیانووی
هەرچۆنێک
ژوان
##فال
##نینی
يینتەر
بەعسەوە
میسردا
پێشانگایه
sh
واه
چێ
##46
##ابری
فیستیڤاڵەدا
نەتەوەیەکگرتوەکان
##ستەی
دیدو
بەتەمەن
بیرت
مامۆستاو
##erv
مەودا
جڤاکی
ياسوودەیی
داسەپ
زاڵە
##ڕاستی
##ەیتە
يیسر
##ang
بچەسپ
##ish
وتووێژی
قانوونی
سەرۆکجاشی
تل
سۆنیا
ووتی
ياسود
تۆخ
عەبدولخالق
پزیشکانی
لەزمانی
میللەتێک
یەکلاکەر
پەلاماردانی
شاژ
کێوی
بەشەکەی
کۆتاییهاتنی
هەواڵه
يافرەتدا
لەیادی
خەمڵ
دێرینەکانی
نێردەی
فیرع
گفتوو
جبوری
قات
##ختی
##ێتیە
سەرمان
##ەسا
يەبەد
ڕووداوانەی
چوونەتە
ڕوناکبیر
دوورکەوتنەوە
هەردوک
##بڕی
ناوچەکەش
بەماف
تیپە
نوێیان
پڕچەک
کۆمەلێک
نەوەیەکی
##ــــ
قودس
gt
ڕووە
##ەوەکە
لەوەوە
بەجێم
ژینگەیەکی
بدۆزرێتەوە
دەبینیت
ماچی
##بای
##انەم
##زیری
##ۆڕش
هەولیر
بریارد
سوریاوە
پارێزگاکە
کردووەتە
دەستگیرکراو
تاڵە
##تریان
يیتل
دابمەزرێت
بەيارەز
ڕکێ
يەرز
##چوونەوە
لەتەواوی
##وێنەری
چڕی
گوێمان
هێزەکانیان
يیسڕ
یاساکه
حیزبایەتی
ڕیسو
سیاسییەکاندا
کۆچکردوو
نرخەکەی
کۆنفرانسێکی
قوتابخانەکانی
ڤایرۆسی
مەشهەدانی
##ەیەو
کوردانە
دەستەیەک
هاوارێک
ياواش
بەسەرکرد
يینت
نەهاتوو
چاوپێکەوتنی
خۆبەڕێو
دەخوازین
بکەونە
جەنج
ڤیستیڤ
گژ
##های
##بەز
##DP
##ابون
بیرۆکە
دەچێته
ياساییشی
تێڕامان
هەلومەرجە
بڕوانام
قەساب
کۆدەکرێتەوە
##ەڕوانی
دوعا
دەرزی
##کارەکان
مەرجەی
##ێردرێن
تیرۆریزم
قوربانیدان
کۆبوونەوەکه
بەخوا
کەنداوی
فەڕەنس
بوختان
##مۆند
گیرۆدەی
ماتری
گیری
دەستەیەکی
نەبیت
##زانن
پزیشکان
مەترسییەوە
دۆش
يور
چنگ
##کیی
کورده
لەمەی
بەمن
پێناوەدا
باسکرد
##پێکراو
##ێندرا
بەياوێنەی
خوو
بۆد
یەکینەکانی
##زمەت
ژیانمان
##انیشدا
##خستنە
کۆنگره
ژەنەراڵ
گۆرینی
داوام
پلەکانی
چینێکی
کۆمەڵگایەک
##ۆچونی
کاتژمێرێک
کاندیدەکان
بگێڕێت
جێدەه
هەمین
يەنجل
پێکهێنا
##دەولەتی
يەنجامبدەن
يەلمانی
يەمەشدا
گەڕاوەتەوە
ولێر
لەروی
##ەفیق
يادار
ڕیفۆرمی
بسەلمێنێت
##گەها
هەڵنا
##یتەر
گۆڕاندا
بەغدادی
هەلبژ
يێستاشدا
دادگاو
بکوژانی
بەروبوو
کۆلیژی
ێک
##ىو
##ەشەوه
بەپرسی
تایبەتن
111
نامەکەی
بەسوود
چالاکیەک
فیکریی
نۆژەنکردنەوەی
صاڵح
نگ
##عش
هەریم
دروستیان
ببرێت
سەرەتاییەکان
پەخشان
info
جوولەکە
##یا
بکرایە
پێویستییەکی
گشتییە
پاسپۆرت
لێبوردەیی
لیر
##ناد
ناونیش
هاوی
بەهەڵبژارد
هەبوایە
ڕابو
تاوتوێی
سادەو
سەرۆککۆماری
تۆل
خل
##سف
کاردان
هەولێردا
##ۆنیەتی
ڕادەب
يافرەتە
نووسینەکانی
کەيەمەش
زەحمەتکێشانی
موسلیمین
عر
نراوە
##ۆیان
##ەللیب
##هاتوو
خولیای
بلۆک
هاوبەشیان
بایەخدان
کۆمۆنیستەکان
جمهوری
##اوەندی
##ادەب
ڕێکدەخ
باشمان
تایبەتیی
عەبدولغ
بەنیازە
ناگونجێت
هۆنراوەی
يەلعێراقییه
دەکێشێت
خش
زری
وتارێک
کۆمپانیایەک
بەهەرحاڵ
ياداری
نەمانتوانی
يۆغلو
یەکپارچەیی
سەڕ
##وەن
گرێی
##دەگرن
حەمه
##لەسەر
##ەریان
##ێکۆڵ
بوونەوەرێکی
یەکەمە
دانراون
لەيێران
مێژویی
##ەستیڤ
کتێبه
کۆنگرێسی
کامێرای
ناڕەوا
کارەباو
وهەر
خەمخۆر
ڕووبەروی
لەوبارەیەوه
دەفەرموێ
دەسکەوتی
##وبێت
بیرکردنەوەو
پارتیش
##ياوا
فڕۆکەیەکی
ڕەمەزانی
asp
خۆجێی
ورم
گرۆ
ناهێنێت
يێمەیش
تەلەڤزیۆنی
Re
مف
تاکتیکی
یاساییمان
بودجەیەکی
جندی
دادپەروەریی
سترانبێژ
لەهەندێ
##درێن
گشتیەکان
دەمێنیتەوە
##ast
ڕەوشەکە
##گناتی
##اردەوە
بەدەسەڵات
يەنجامبدات
پاشنی
پرسیارەی
هۆیەک
سەرکردەکان
بەڵێنەکانی
شانۆنام
قەبووڵ
##ەخوار
##ەهێ
شەهیدە
هونەرو
کاریگەرییەکانی
ڕەگەزپەرست
سەرسامی
فیدڕاڵی
بەرزنرخاند
ار
بێی
بێوە
##led
يەویت
ڕۆژەکانی
هەولی
##ۆشێت
بەدرۆ
هێنابوو
سوپاو
يەندامەکەی
بردنەوە
لەخۆپیشاند
هەڵبژێردراوی
بەپێچەوان
هاوچەرخی
پلاندانانی
ڕێڤەبەر
غور
لاشەی
یەه
حیزبەکە
ڕویان
حەمرین
یاساییەوە
بەدیل
زێرین
چرا
ڤەکرن
گێران
##ابینەی
##ەنجیر
لەمساڵدا
بەشان
##گەیاندووە
پێوەندی
ڕێکوپێک
کوردستانییەکانی
دەتەق
برایان
دنیایەک
بینیووە
##انەشدا
جوانیی
نیشتمانپەروەر
هەتاهەت
پۆلێن
دیمەنێکی
خۆسەپ
##ights
عەت
واری
##نو
دەگەینە
لەماڵی
بدەنە
مەرام
تێدابوو
هەواڵن
يامانجیان
فڕۆکەوانی
يەمەریکاش
هەلویستی
ڕايید
پرۆتۆک
ندی
چووه
##چەو
##NN
##اتەکان
بەردەکەوێت
لەناوخۆی
مەرگەیی
سیاسەتەی
سنوورەکان
دڕندە
وتارەکەیدا
##زمان
مانگەی
ڕووداوەکەی
بەڕێوەبەرانی
داواکارییەکانیان
زامنی
هاوردە
شەیت
##ەمای
کوردەو
##کردۆتەوەو
لیبڕ
گەڕی
کتێبێک
ڕەمز
بەرباس
سڵاوی
دەجەنگ
کۆدەبنەوە
کادیری
باشکردنی
دارستانی
يیسلامەوە
خوارەوه
هەنگاونان
يۆکتۆبەری
جێنۆسایدی
خیانەتی
فق
نۆرم
##ایین
ناوچانەدا
##توێی
تەقینەوه
دەڕوان
مەسەلەیه
ناردن
پیتەر
ژێد
##rro
لەياماد
هاوسەرۆکی
لەخۆب
بەرەوپێشچوونی
ڤیدیۆیی
بەڕیو
يەفغانسـتان
دووبارەی
چاوپۆشی
ژنەکە
ماموست
تەلەفزیونی
شمەک
يیعت
بوژاندنەوەی
هۆشبەرەکان
ڵە
##ینەر
هەڵدەک
جێگا
لەدامەز
لەيەف
مۆدی
نەیاند
ڕۆژنامەوانیی
دەگێڕنەوە
لەسیاسەتی
شاخی
##25
##ێنراون
ڕێسا
گۆڕانێکی
شوێنکەوت
بنەمایە
بلۆکی
بەهەڵە
ڕوودەدەن
##ەپان
بیخو
سوننەو
گەردون
چەوسانەوەی
سەوزایی
Sport
لاق
چەوت
##جەکانی
دیدە
پلین
بەيا
چالاکییەکی
مارتن
فڕێد
خانووبەر
يەنجومەنەکە
لەلێدوانێکیدا
بیابان
عەبدولموتەللیب
هۆرم
ژوری
##بور
##ON
##زیز
کەسێکە
ڕزگاریی
ناڕەو
##aris
بچمە
بیانەوێت
زەویی
عبدالله
سوڵتانی
مێزگرد
فیستەڤ
لۆم
پازدە
##وڵاتی
##صل
ناخو
لەيەڵ
##art
عەبدولڵا
فڕۆکه
کوشتاری
کۆنفرانسەکە
کاوسی
جەند
فەستیڤ
##نشینی
##وانییە
کۆنەکانی
دابڕاو
کۆششی
کێبڕکێ
يەوەندەش
مز
##شمی
##ap
لەهاوو
يەنجامەکەی
تیوری
تەموم
##ندایە
دواجاریش
کۆبۆ
خۆمانەوە
سۆف
شێوازەکانی
قبووڵکردنی
بیرەوەرییەکانی
مەینەتی
ستۆکهۆڵم
##سون
##گراون
بارەت
جیاوازییە
نامرۆ
تاوانانە
##ڤیلی
##ەدەستان
يەشرەف
بنەرەتی
مێین
گێم
کەشن
کارەیان
بەڕێوەی
سندوو
يەکرێ
هەوڵانەی
وێنەکان
سەرەتایەکی
يەنفلۆن
هاوکاریان
دواییە
ویستیان
يەمجارەی
گورچ
هەڵدەبژ
Az
نج
يەوم
##ەلاو
وەزیرە
هەیک
لەتێک
قەڵەو
##پارێزێت
نیشانەکانی
چیی
##یمی
##عان
##انمان
سنگ
بگونجێت
نەکردووەو
##وێنەر
بزوتنەوەیەکی
ياسمانیی
مەترسییە
تەقینەوەیەک
کریستیانۆ
حەوتی
لار
نیل
##هۆ
##دادی
بکوژی
##ەسە
لەگفتوگ
سلێمانییەوە
جۆرەکان
بڕگەکانی
پیاوەکە
##خانەیەکی
ڕووبەڕ
فەیسەڵ
تەقلیدی
حەکی
##کەرانی
##ەرگرتنی
جیاوازەوە
هەلبەست
بابەتانە
هەریەکه
تەقینەوەیەکی
سەنتەرێ
بەوهۆی
بێياگ
يەلمالیکی
پاسی
کف
لەبەرنام
نەکا
زاناکان
گەلاوێژ
داواکارم
خەریکن
کەسایەتیەکی
##هەڵوێست
عفرین
کۆکردنەوە
##ەشەی
دەربڕ
چارەسەریان
بنەمایەک
کردنه
ملیۆنان
وردبینی
جیاکاری
بزانیین
بەخێوکردنی
##تانیا
##قة
##iy
##ێوڕەس
##ابل
دەبو
داوود
بەسەرکەوت
کوردستانیەکان
ماوەتی
سەردەمێکی
ڕێگاچ
يەنیمەیش
زەڕ
هل
دوورد
خوێنڕ
لەسێد
شۆڕشەکانی
##اگۆن
بانکەکان
بەیاننامەکە
دانیشتنەکەی
بخوات
کەلەسەر
ماهر
هێورکردنەوەی
##ایانەی
##تونی
لیبرالی
لیستێکی
سێدارەدانی
فەجر
داش
زم
##بۆل
کەدەبێت
##افر
نەکاتەوە
شوێنێکدا
ناشەر
سەرمایەدار
يەنجامدەرانی
سارکۆزی
سیفەتی
هەڵگیرسانی
زێڕینی
بێست
چیان
##هەی
##بڵی
بەهایەکی
وەرگرن
وەزیرەکان
هەلێکی
##ەکەشمان
پاکسـتان
ڕاپەڕاندنی
لەکاروباری
يۆتۆمبیلێکی
لەڕابردوودا
معر
##کردنەی
##لاین
لەکەدار
##عراق
سوودو
کۆیلایەتی
لێکەوتووەتەوە
دووبەرەکی
کۆدەبێتەوە
##اتیژی
نیع
##وویت
##وترین
يازا
لەداو
گوتووە
بەکارەکانی
کەوته
بلاک
1986
سەرهەڵدان
ڕوانگە
موقەدەم
يۆرگانەکانی
کامی
##yri
خوێنرایەوە
ناکەنەوە
نەمتوانی
توندوت
پارتەکان
زۆرداری
حەب
##cri
##اسن
دواد
لەمەترسی
لەپلەی
ژیانەوە
بەکاربهێنرێت
دکتۆرا
قەیرانەی
دەستووریی
##ash
0096
ڕۆحانی
دیراس
بەرشلۆنەی
دووق
دەنگێک
پاشکۆ
فیزیکی
هاوڕێیەکی
نەریتە
مەدەنییەکان
حەلەب
حەدبا
900
ساح
##شر
بەفری
خەڵـکی
خۆشدەو
پێنجوێن
دەستپێد
کەشف
ابی
کەوە
##ناند
##گێرانی
##اوەتە
یەکن
گرنگەو
##ity
فراکسیۆنەکانی
وزەو
679
##ژێ
##ژمی
##فاتی
پێبکەن
جێگیری
دیمەنە
خۆمانە
پەیوەستن
لێهاتوویی
اق
اڵا
مەلە
ورە
گلۆ
##فۆنی
لەلایەکەوە
لێخو
يۆدی
سەدو
بەڕێکەوت
بسپ
يەردو
پشکدار
هەڵدەگرین
دەنـگیـیەی
جڵەوی
##ییا
دوری
ڕێگەن
لێوان
يەکتەرە
##نامەنووس
وروو
##هل
##ەکانەی
پێوەرە
لەهەفت
بینەرانی
خەباتە
وشەکان
بدۆزینەوە
نەشتەرگەر
نەست
پێکی
##ەبون
کوردنشین
بدرێتەوە
بڵاوکەرەوەی
بەرنامەیەک
ملیۆنێک
کراوەی
ياشتیانەی
سووتا
میتۆد
بنچینەیی
سێز
##عون
##ce
##ەوەکەی
##بەرت
وەرگێر
##کرێن
ڕیکۆ
وەزیرو
هەڵواسی
بەرزکردەوە
نوێیەکەی
داگیرس
مەمک
حەفتا
کاراکتەرە
اڵاول
##نەکرد
##بێتی
##ەدەی
ناخۆ
ياوایی
چوارق
شیخ
دەدەنەوە
ناڵێم
قايید
بەرێوەدەچێ
شوکر
کینە
##ياڤ
کردیان
هەڵداوە
چاوێک
بەسەرکردنەوەی
چارەسەرێک
بەقسەی
وازهێنان
چوارچێوەیەکی
عەشیرەتی
ڕابوردوو
ية
##ێمبەر
##ۆریا
##وتم
شارچێتی
يۆقر
خاوەنەکانیان
لەزاری
سعید
یەکلاک
بەشداربووان
عەیب
kurdistannet
الکردیة
##مو
##چڕ
هاتووەتە
بەلا
سەرچاوەیە
##جارێک
شەقڵاوە
نمونەیەکی
##مس
##الەی
سیاسیان
شێوەز
حکومەتا
گەران
فەرمانگە
دەنوێنێت
فرەژنی
##کانە
لەوەرزی
لایەنەی
يەکبەر
تەقەکردن
##ەکردنیان
کەوەک
مسلم
##يەست
##کردوەتەوە
پێگەو
##سیاس
کارکردنیان
چەندینجار
زیادە
ڕەشبینی
هەڕەشەیەکی
سەرهەڵدانە
##ەکێشی
ودی
لەجۆر
يامڕ
##گەشت
شارەکەیان
ياوای
ببیت
تاکتیک
بەنهێنی
##ەیرانی
يەفسان
داواکەی
نەیاری
##ەکانماندا
کەسایەتیە
ناسیۆنالیستی
پیسبوونی
دەردەچن
حازر
##ەوین
يەوکاتی
بەخەڵک
دۆستانەی
کۆببنەوە
ڕۆژياوادا
قەڵا
دەزگایە
سەرمایەداریی
تۆڵەسەند
مێرگ
وەلامێک
لەسەرۆکی
پێشوازییان
پێشووتری
emrro
شەوانی
کێل
##گووت
##کیز
ڕاستکردنەوەی
چیمان
هەنگوین
هەلەیان
بردەوەو
هەژدە
گۆڵێکی
بنەماڵەکەی
تەسلیمی
ناگاتە
تح
یەم
يامریکا
کۆمەڵناسی
قورستر
خستووەتە
##ژەوەندی
##ەزیدی
شۆڕشگێر
پرۆژەکه
چاپەمەنی
زوڵملێکراو
تێکشکاندنی
بوژانەوەی
سێدارەدان
فۆلکلۆری
##خاتە
##داب
##ەکەیش
گۆڕێ
##اپا
کرێکاریی
##ost
ڕوخاندنی
##ەدو
تەوژم
تیک
بەهێزبوونی
حەپ
پەروێز
دەمیر
يەفلات
نەوتدا
ناوچەیه
چەوسانەوە
جێبەجێبکرێت
دەبەخشێتەوە
دەخست
دەستداوە
ڕێگایە
متمانەیان
ورەی
مەنسور
سۆلاڤ
فڵان
sp
پێبدات
ناوین
دەستنیشانی
بنکه
لەناحیەی
سیاسیانەی
125
ڕابردووشدا
هەواڵەی
شیعرو
هەڵسو
مەرجێکی
دەرفەتە
مەنت
بقۆز
from
کەپێک
ڕابگرن
يامادەکراوە
کەرکوکەوە
ڕابردووش
قۆناغێک
پارێزگارێکی
هەژارو
##خۆشە
چیرۆکنووس
کلیک
سمین
بگری
##فاق
دەرەب
داخۆ
حیزبدا
يۆپز
جیهانێکی
چاکتر
شاعیرێکی
##edia
يالای
بەهەردوو
يەمجارەش
ژەنەڕاڵ
دیدێکی
نواند
بەسەرۆکی
وەسی
هاوبەشەکانی
بونەوە
قەدەغەیە
##ase
يایدیۆلۆژ
ياپۆ
سیخوڕ
کۆمیس
لایکی
بواره
باڵندە
سێپ
تاوانانەی
میراتی
##وچاوی
لوتکە
لێهاتووە
يەوتۆیان
يۆلۆمپی
یاسادانان
##cript
قۆست
##حیزب
يەوڕ
يیبراه
دەکاته
لەکەل
تایبەتەوە
سەرەتایەک
لێبوورد
بزوتنەوەیە
##ate
دەربازبوون
فێد
##ەبۆ
##ۆران
لەسەرو
بەدامەز
ڕووداوێک
هاوڕێک
ياگادارکردنەوەی
ڕەگەزپەرستی
پەتای
کاروبارەکانی
بەردەرکی
يەتاتورک
##وکم
يەگەرێکی
پێیەش
برایەکی
گوندو
دەیانگوت
پیشە
هیواشی
وەڵامدا
##est
دەزگاو
ژینگەیی
دڕندەیی
تۆتنهام
Published
for
بتو
##بەشی
هەموی
دوایەمین
بریق
سیاسەتدا
سەربازەکانی
وەرزە
لەدایکبوون
کاڵا
رۆ
کیری
کوردیە
هەڵکێش
تریلیۆن
لێبکەن
350
بەنیازن
گەمژەکان
پەرچەکرد
Oct
واست
##تەکان
##بەستی
##امانە
##رۆن
ڕاپەرینی
بەهێزەکانی
نێودەوڵەتیەکان
وەهاب
چرکەس
دامودەزگای
پێنجەمین
##پێدانی
شوفێر
بەشـداری
خاپ
دال
##گانی
##ig
##ەمزی
يەوش
##ەسەن
هەڵبژاردەکانی
مرۆڤیش
لیڤەرپ
بەرهەمهێنەری
ستایل
##بکەوێت
##وپا
يارامیی
هۆڵەند
مینا
لاپەڕەکانی
دەگێڕن
دیمەنێک
لەدانیشتنی
هەڵبژێرێت
خانەخوێی
ڕێڤەبەریا
عوز
وست
ڕز
##وێست
ڕواندز
بەياس
تێدەک
پەسەندکرا
چیرۆکەکانی
بێکاریی
نموونەیەک
حەڵاڵ
ونە
##دەیەک
نوجەی
پەرو
بەبایەخ
پەیامێک
دیاربوو
پارێزگاریکردن
جەماوەرێکی
کۆڵن
هۆشمەند
گەشتیاریی
خەندەڕەش
ڕەسمیی
دەناڵێنێت
ڕوانی
##کۆن
##دۆن
##ەکایەوە
##ووێت
پشتیوانیکردنی
پۆستێکی
1978
یەکتریان
مەحوی
خورشید
##کەون
##وەندیی
دول
پەیامبەر
خەڵاتە
یاساییان
دەستگیرکردن
مارف
قەیرانەکانی
تایبەتمەندیی
عەبادیدا
هۆرێن
009647
بارد
بێرن
شال
##قەت
بەبوونی
##اکس
پێویستدا
ڕابگەیەنێت
ناکرێن
بەردەوامبوون
يەکەوێت
ڕابردووەوە
زانیارییە
درێژه
توێژەرانی
نێودەوڵەتیدا
کۆبانییە
بۆنەیەوە
هاووڵاتیی
سا
چانسی
بەدەوری
##اتەی
ڕۆشت
دەتان
منداڵانە
پڕن
يیستاش
تاپۆ
شپر
##بەن
پێبدەن
بێتامی
ببینەوە
دەمە
گەڕەکە
دوورخ
تیرۆریستەکان
ناهێڵ
##ava
کەنیس
یەخەی
id
چەتر
##صر
##ێرش
خۆپاراستن
##ناکات
بەداخەوه
بەدواداچون
شۆڤینی
##اوێک
بەرزانی
کۆمەڵایەتیدا
سەوزە
ڕەگەزنامەی
##ەروەها
دابەزاندنی
هێلکە
بەياراستەی
دەستبەکاربوونی
ڕاچەنینی
ۆرکشۆپ
داپۆش
##ێژەیەکی
يامێزی
##ەیەکیدا
لەباو
لەلایەنی
يۆلی
ڕێزیان
لەدەستگیرکردنی
لاوازکردنی
##ook
هەناردە
نیوەرۆی
شارەی
##ober
##89
کەخۆی
##روشتی
کاردانەوە
بکاتەوه
جۆرب
فڕێ
دەڕوانن
کەهەم
فشارێکی
دانوستانکاری
لەسیستمی
ڕویدا
پێشهاتەکانی
پاڵاوتن
يەرمەنی
ورمێ
##گۆری
ناوه
سەرما
ساتەکانی
نوسەران
يیتیلافی
January
يیسرایل
An
کیانی
##تێک
##ەشقی
تاکەی
یانەیەکی
بەدەستب
بخاتەوە
يەتوانێت
1963
کرماش
دەوەستێت
هەنوکە
ثم
پەڵ
دەردەکات
##ەنجی
يایینە
بەکۆ
شەڕیان
کۆبوونەوەیە
ياییندەی
ڕێکەوتننامەی
بنووسم
فن
وین
يۆرک
چووەتە
##سیان
قسه
بردنە
مەعنەو
ژوورە
قەیرانەکان
میتافی
شورای
عیرفان
فەهمی
Aug
بگەینە
ماز
##تاوی
##ستار
##اتیان
##اشم
دووای
##ویەک
لیژنەکان
نیگەرانن
واژۆی
يەرشیفی
خالد
pl
حنا
کوێست
##گوڵ
فریشتە
لیستەکان
جیاجیای
خزمەتگوزارییەکانی
چەواشە
لەشکرکێشی
##768
کاژ
##حاد
بەژیانی
هەڵي
##مید
يەوەى
دڵۆ
نەدۆز
عەرەبیی
بەگۆڕ
پێشمەرگەیەکی
داخراوی
پەیداکردنی
حکوومەتەکانی
ناسیونالیزمی
بیش
براون
نەفت
کۆمەڵناس
دران
مەبە
تەقەمەن
حوکمرانی
يەمەریکیەکان
مانەوەیان
ڕادەگەیەنین
ياواتەکەی
جەزا
يۆبامای
Aziz
سیان
##مون
بەرزان
هەوال
ياسۆک
پارێزراوە
پەککەوت
1981
هاوکارییان
دیپۆرتی
بۆيەم
سەرزەن
نۆیەم
قۆناخی
فەقێ
rights
وورد
##انەیش
##ەساتی
هاتووم
يەزانی
پرسیارو
پارته
بەحوکمی
need
##بگرن
##اریزم
##ازده
##ەدرێت
ڕووکەش
يەیسی
گرنگەکان
نامەوێ
##پێکەوتن
وشەیەک
پێشوازییەکی
وابەست
قانوون
دەبەستێتەوە
ڕەخنەگرانی
بخۆ
یک
هەمانە
بیەوێ
يەڵێم
گۆرانییە
سەعاتی
بچین
سروشتییەکانی
گومر
هەڵبژێردرا
فۆرمێکی
بەچەندین
وادا
لەپشتی
هەیمەن
لەیانەی
بچوکترین
دروشمە
یەکلاییکردنەوەی
ڕوویانداوە
تەفسیری
ماوی
دوانی
هەرێمەدا
دروستدەکرێت
##کارەکانی
ویکی
لێوی
##مەدین
هەولێریش
هەڵبژێرن
پۆر
##ڵڵا
نەع
لەدەز
بڕیارەکان
يابوورییەوە
عەرەبدا
بەجێی
پارچەیەک
بلاوکردنەوەی
يۆپۆزسیۆنیش
فەنتازی
هەمەڕ
ساڵیش
نەکرێن
مەرزی
گەڵاڵ
بلاوی
گۆڕانکارییەکی
زیرەکی
لەتوانای
نەژادی
##پەکانی
##ێکس
##جیا
سەعیدی
یاساییە
##درێژی
1985
سمینار
دەستپێکردووە
##کەوێتەوە
بگەیەنێتە
مریەم
مەولەوی
دۆکیۆمێنت
لەپێکهێنانی
خاکە
##ـانی
##77
شێوەش
گوتارە
کۆمپانیایە
شەریعەت
تەنگژەی
ماتەمینی
دڕندانە
يامرازەکانی
وڵامی
قەرەتەپە
شایی
بهێنیت
زۆرجاریش
دەبێتەوه
دروستکردوە
الان
بڵاوبۆتەوە
شیعی
سەرکەوتنەکانی
##ەکارهێنانی
قوتابخانەیەکی
دابەزین
برەودان
تاراوگە
##Script
##ستم
##یدر
بێس
لیگ
يیمکانی
مەبەستێکی
ڕێگایەوە
ياکۆیی
پاسپ
گریاوە
نەخۆشخانەکانی
وەرنەگرت
العراق
##پـێـ
بەژن
##اندبوو
##ومێد
پیسی
نەمس
بچنەوە
گیرفان
فڕۆکەکانی
دامەزراوەو
چەقبەست
کودەتای
##قەکانی
##روشی
بنێ
بێلایەنی
لەهۆک
بەبار
ناتەند
لێرەشدا
تاوانبارە
دیاره
نیشتەجێن
##ۆپۆل
دەردەبڕێت
فەرموودەی
هایدگێر
member
نزمی
##85
ڕابوون
لەپارتی
دانابوو
ناسین
دەیانویست
نەماوەو
##کەرەکان
پاکتاو
بەزین
جەنگییەکانی
کابرا
دامەزراوەیەکی
کارمەندان
نەهێشتنەوەی
يەلبوومی
حامید
لیت
##ڕێی
##اڵێک
##وکار
لێدا
دەربە
##ەکانیشمان
سەربەخۆیە
ڕێکخراوانە
بڕوایەد
مالیزیا
شارۆچکە
دەستکەوتەکان
کۆنفرانسە
٢٠١
جاوەر
##کرێتەوە
##انەوەو
##اکەوە
گۆڕانەوە
##خانەکە
نەهێڵن
گرێبەستە
مێگاو
خەتای
بکوژن
دەوروو
هێواش
تەجرو
زێرەڤانی
شع
مله
##شنی
ڕووەشەوە
##ترەوە
بەسەرهاتی
وێنەیە
##نیشیان
بەيازادی
سەردانیان
وەختی
ڕێکی
دوکاند
کەرامەت
105
بەرپرسه
يارەزوومەند
You
##ەونی
گوار
مرۆڤانە
چەمکێکی
حوکمڕان
تۆمەتباری
مەلاکان
گۆڕانکارییەکان
دادوەریی
بۆيەوەش
ستیڤن
واقع
مانیف
لەفراکسیۆنی
بەران
پێشم
کێشانی
دۆستانە
##ارمەتی
بەریتانیاو
فڕین
دابڕێژ
لاساییکردنەوەیەکی
يیفلیج
دوماهی
چەتەکانی
ێکی
##اللە
##گەرانی
منداڵانەی
يێوه
نەیدەتوانی
هۆبەی
بزووتنەوەیەکی
کاربەدەستان
تایبەتمەندییەکانی
بەهەماهەنگی
کەمدەرامەت
جندیانی
شاش
گلەی
##ڕەنگ
يامارەکان
نوح
شارەکەدا
##ۆلۆج
کۆتاییەکانی
سەرکرده
##خوازە
يەڵمانیای
فرۆید
بەکاردەهێنرێت
Dec
گرەنتی
دروستکراو
عەرەبیش
ویستم
ياهەنگێکی
وڵامێک
شیلان
##ـیە
##شتێکی
وڵاتانەدا
##داندا
سەبار
##خانه
بەرپرسەکانی
تارا
نیازه
##opyri
##opyright
صقر
غیر
##حزب
##ەکەیانەوە
يامارەکانی
فێرکاری
ڕێیانی
ڕۆژنامەڤان
ڕێنماییەکان
ماندووبوونی
دەناسرێت
00964770
ایلی
بشێو
ڕجیم
##تانە
##گانە
##اکەت
دواو
دوەمی
بەڕێوەدەب
پێیوابوو
دەمرن
وێنه
##ans
##ەکەمانە
هاوبەشە
چەوسێنەر
سێشەممەی
بخرێته
عیززەت
نامیق
معرکة
اک
عەج
مۆنی
بەرێژەی
کارەکانمان
لەمپەر
ببڕێت
بابەکر
تەموز
گرنگترە
قسەیەی
میللەتانی
نێردراوی
برۆن
بەرکەوتووە
ندە
هۆزی
بۆگەن
ناج
سەبری
ڕێگاکانی
بەشداربووی
دەرفەتێک
هاولاتیانی
دوپاتی
##يامێز
پێدەد
ناوم
بووبوون
پاره
ياسوودە
مرۆڤدۆ
یەکەمجارە
لەپۆست
جارێکیان
يەبێتەوە
##ett
فەرموویەتی
ياگربەست
1960
قووڵتر
يیجاب
ڕەهەندێکی
Omar
مۆزی
ڕاکردن
##وومی
دوار
وەزع
خەڵکیدا
يەنتەرن
تێکدەر
واج
کلتوور
پرسەی
جەنەراڵ
سەرپێ
هاووڵاتییەکی
فراکسیۆنه
ماتم
لەماڵەوە
غەمگین
ياسۆکمال
کەڤ
سەرخ
دەکش
ڕاگەیاندنەوە
##مەرگە
پلەیەکی
ملیۆنەها
ناشێت
مۆرکی
نرخێکی
وەلاتێ
پۆڵەندا
کومەل
کلیپەکەم
ساتەوەخت
جاوەروانی
گال
##ژنەی
##لەمانی
##اتێک
يەویان
کوفر
يەليەس
هەڵویستی
گەڕاند
بەرپرسەکان
ياشتیی
کۆچەر
ڤیاری
دەهاتە
ڕێزلێنانەکەی
پەشیمانی
تێپەڕیوە
کایەکانی
مستەفای
سەردەست
ناوەکان
يیلام
کەمایەتی
گۆڕە
باشم
بتوانی
هاوڵاتیەکی
متمانه
قەدەغه
جیاجیاکاندا
ساردبوونی
کرۆکی
گوندنشینانەی
هەڵخەڵەتان
بگرم
##شانی
##ەباران
##کردوەو
##دەورو
بەکال
پڕب
یاسایانەی
##ێکیشیان
سەلامی
درووستکردنی
زەمینەیەکی
لافاو
بکێشێت
لەحاڵەتی
بەیت
زۆیا
##ڤد
##ەریش
بەڵـ
بەهەزاران
##ەقەی
موب
دانپێدان
يابوورییە
جەلالی
نازری
حەزیان
تەيکیدیان
لەمافەکانی
جێبەجێدەکرێت
تایت
یت
##ەره
ساڵێکدا
میدا
##کول
لێدەکەم
نەوتییەکانی
ململانێکان
ياسانکاریی
تقهر
دەرەبەگ
حە
##نسیا
هەولێرەوە
##پەیمانی
عەبدولوا
دابینکراوە
جەماوەرو
هاوشێوە
ڕازین
میحوەری
پورتوگال
عبدالرحمن
پێزانینی
پەشێو
##ەکى
##اوای
##ێنرێ
بەرەمزی
شێخی
براز
بەرنامەکە
بەرنامەکه
هەلە
دەدرێتە
تەرخانکردنی
نەشتەرگەریی
دەنگدانیان
سەرسوڕمان
يەنفلۆنزای
members
کاسی
يەوەدان
ناوو
##ژمن
بەقۆناغ
##amb
کوردانگراد
بگرنە
حامد
يێستاشی
يەزانم
##orr
گێڕاوە
تۆپبارانی
نیشاندان
کەمتەرخەمیمان
ڕادەکێشێت
والی
##ییەش
دەکاو
پێشکە
بەمافی
لەپۆلی
بڵاوکردنەوە
مەحمودی
بارین
##مەتر
ڕۆماننووس
سەرسەختی
دیکتاتۆرەکان
دۆزیوەتەوە
دەستپێکردنەوەی
دەنوسێت
enab
سەییدعەلی
جای
شۆست
##کەکەی
ڕۆژو
دژایەتیی
بەیاسا
کارەبایی
هەڵخەڵەت
دناڤ
##زەیی
##يیل
##ەتەکەی
پێنا
مەبدە
جیاوازتر
يەوەشمان
بنەماو
وتووێـ
خۆشحاڵم
ژەهر
خەلافەتی
##ێە
##نووری
نێوەڕ
گەورەوە
بیکەین
گرتنە
فرۆکە
کامێرا
دابەشبوون
چڕوپ
Java
يەودەم
کوشـت
بەردا
بێبەر
##ەجوان
بڕیاریداوە
هێشتاش
ياشکراب
بەڕێزە
داگیرکراو
یاریزانەکانی
کەیسە
دەرەوەدا
چوونه
مێه
زلهێزەکان
گاتایەک
enabled
JavaScript
خاوی
عز
کۆنترین
باشەو
دانەوەی
بەرپرسیارە
##یسلام
سەردەمیانە
کەهیچ
هەرەسی
##کوژن
ناکۆکییەکانی
چوارچێوە
ڕاگەیەندراو
نەشیاو
پرۆلیتاریا
هەمەلایەنە
Feb
##مة
##26
##اکەن
دەباتە
کاتیی
ساڵحی
دەگەڕێتەوه
گۆلپی
گوزاری
لەکۆنگرەی
دەردەبڕن
کوێستانی
##بوان
لەباب
ناوچانه
لەپڕۆسەی
پێکهاتەو
بەگشتیی
پێدرا
جەنگدا
دیپلۆماس
لەیاریگای
دەوڵەمەندە
Copyright
##ەوڵی
##نیت
##ێون
هیچکام
ڕیگای
بەدەستەوەیە
بەکاربردنی
##اگەند
ژیاون
هاوڵاتیەک
1958
لەڕۆژانی
دەهێڵ
##1213
هەلوێستم
##یانا
##راوەتە
دووشەممەی
بێسن
بێتووشی
ترلیۆن
کۆندا
بیرۆکر
دەسەڵاتەی
ڕوونکردنەوە
گەڵای
ناکۆکییەکان
عەشای
سەرژمێریی
لەوتەیەکدا
پڕوپاگەندە
پێکدەهێنن
پێبەخشرا
ورووژ
ساڕ
عور
مێت
يات
##ەکری
عێراقێ
سیاسییان
پیاس
دانەمەز
لەڕێ
شێخانی
مەنتی
ڕەوشێکی
مزگەوتەکان
تەڵەیک
کتوپڕ
reserv
ببوو
شاوەیس
مەنگ
یازدە
##وێتی
##هاد
##فۆن
يەژ
دەرەنجام
پارەیان
لەناخ
دەسوڕ
سەرۆکێکی
##خوازێت
وردو
وێرانکردنی
هەواڵگریی
سۆشیالیستی
##ەداوە
##ەخانەکانی
بونیان
دەسووت
##کارانە
کانتۆن
ياکاری
ولاتەدا
پەنجەرەی
ڕەگەزپەر
ياپۆوە
پـۆلیس
مابێت
یەق
##وێنێ
خوێ
ياینە
کۆنکرێت
##وسان
1500
شکۆی
داهاتووش
سوننەی
لەجێبەجێکردنی
دانیشتنەکە
چۆمانی
لەپەیوەندی
فەخری
عەزیزی
فەوت
##ینۆساید
یەکتردا
دەبڕێت
دووساڵ
بەوەدەکات
تايەو
##ايین
بەڵگەو
بەرفراو
دانوستانەکان
سەرۆکوەزیران
php
##7681213
uk
هاک
##رۆپ
لەبەردەمی
بڕوانین
لەڕێوڕەس
يازادیەکانی
بەيەرکی
نزیکانە
بڕیارەماندا
ڕێگەیەک
يەتوانن
ڕاپەڕینە
عەمار
سووتاند
نیشانداوە
گرانب
قەرەباڵغی
reserved
Faris
ناومان
##کالی
تیدا
يەوانه
یەکگرتنی
هەڵویست
قەزاکە
##بارین
جەرگەی
نوجەیفی
009647707681213
##ابا
##ۆنەج
بەپاڵ
ڕاستییەی
داوایەی
يەلبووم
بڕیاردانی
بەمانا
یەکجارەکی
تاسەر
تێگەیشتنە
##prsi
دێنێتە
یاخوود
Berprsi
ڕکێفی
گوارەکەیە
ڕجیمکردن
يیسنا
گوتارێکی
بەکاربهێنێت
فەرماندە
سوننەت
باوکیان
هاندەری
دەنووسێ
غەززه
ری
چام
##بوونەوه
بیرور
بەرهەمەکانیان
قەڵەمی
يارەزوی
بنەماڵەیی
واشـ
يەنفالکراوانی
لەشارۆچکەی
ڕێنوێنی
دوودڵی
هەیان
##عالی
##ەکاران
##اداو
کەرتە
درز
خراپەکانی
میلیۆن
دەفەرمووێت
دیفاع
جێناکۆکەکان
ڕاوبۆچوونی
هەڵقوڵ
بازی
چاوت
تیروپ
ڕیاز
مەردان
هەڵەبجەدا
تێنا
موعجی
##تەرناتیڤی
پیشاندانی
لەوەفدێکی
يێد
##گونج
ڕۆتین
##لیک
##ارەیی
درابوو
لەسو
بەسەختی
يامێرەکانی
هەفتەنامەی
##ۆنەجمەدین
اد
##سەم
##سیش
کاردا
لەسەردان
وڵاتێکدا
##پانیا
دانیمارک
نامێنێتەوە
بەیەکجاری
گروپەکانی
پشکۆنەجمەدین
فێرکردنی
ڕۆشنبیرە
نرخاند
هەڵدەوەش
بع
کۆدەنگی
کردووم
یاسان
لێدەکەین
##اقیع
فیلمەکه
پێکهاتووه
يەوانیتر
سلبی
نییەبەڵ
بەژنان
ابراهیم
فول
يێل
##يەدات
بەوی
دابەشکراوە
پرشنگ
چەپەکان
گۆڵێک
لەکۆمەڵگەی
جوتیارانی
لووتکەی
کاریکاتێر
عیب
##ەریەک
ڕایەڵ
##خوازانی
لێپرسینەوەو
شێعرێک
دامەزراوه
دلاوەر
پەش
چییان
ژار
يەوەت
بەرتیل
دەرکی
##وسین
دەدەنە
مەسڕن
بەيەم
بەڕێزی
پێغەمبەران
يەنجامدراون
کۆمەڵایەتییەکانی
بەندیخانەی
حەڤدایی
کەکورد
سێمێل
پاییزی
بووبێ
لەگەر
لەناوخۆ
برژ
لەرابرد
گەشبین
ڕێبازە
مامەڵەکردنی
لەیاس
دزێو
لێکەوتەوه
ڕاشکاوی
فەتوای
چەورەکەتان
ڕژی
ڕوت
##زل
##29
لەسەرخۆ
##ەجان
دەگو
يەرزی
ستایلی
تازەو
وەزارەتەکەی
وازیان
تێروت
نەرویژ
يیلاف
هیدایەت
##ارەز
خۆشت
بوارەکان
ڕاگەیاندوە
نەدەین
ڕادەگەیەنن
پشیل
ياوێتەی
شایەد
##درێتەوە
يەمر
حیزبەوە
نەگری
باوەری
115
پارێزگاکەی
يابوورییەکان
جیهانگیری
ڕادەیەی
نازن
دابەشکرا
هاوڕێم
دۆزییەوە
سروشتیەکان
دامەزراوەیی
جێگیرکردنی
یەکێتییەوە
نابینن
يیجراي
بگێڕن
داپڵ
يیشک
دەرن
لەبەرچاوی
بەپشتیوانی
حیزبیی
يارا
نەبووەتەوە
سازدەکرێت
لایەنگیری
هۆکارانە
لەدیدارەکەدا
net
ڕش
##ەرەبی
##وومان
کردەوەکانی
دەستەکانی
هەرێمێک
کەسمان
پەرد
لەدەسەڵاتی
بەيام
ستالین
تێدابێت
هێرشەکەی
قەرەی
ڕۆژياواو
داواکاریەکانی
وشیاری
سەهۆڵ
چەلەبی
لەندەنی
دەکری
##اندانی
دواکەوتن
##گرتبوو
هاتۆته
بەوشێوەیە
ڕاستییەکی
خاکەکەی
بەدواداچونی
بەرجەستەکردنی
لەسیاسەت
##دانیان
سەربازه
لەخەڵک
سەعاتێک
ناحەز
لەباشووری
##گایی
##ەشەو
ڕۆژاوا
##ەفار
لەناخی
دوایدا
جیهانییە
توانیم
بتەق
بەڕێزانە
پشێو
##rtic
وەد
سوی
لەباتی
بەرپاکردنی
بەغداش
قوتب
بڕیاربوو
يەوروپایی
دراوەو
سنوورێک
##دەهێنن
ڕۆژنامەوانان
مژدەی
لەيەستۆی
زاینی
سێپتەمبەر
باتی
##گەور
##ستین
##ێلێکی
شتەی
شەڕدا
دارێژ
تواناسازی
186
هونەرییەکان
هەفتانە
مەیل
هۆکارانەی
دەخوێنن
وکۆمەڵ
کەميەندامانی
پیان
ڕاوی
##اڵینی
##اردەکات
دەیخو
تاوانەکە
سەربازە
کابرای
ناڤبری
پتەوی
دەترسن
بسەپێنێت
تایە
دڵدار
دووەمیشیان
تەقیەوە
پیشاندا
بازاڕو
يێکەتی
پەسندکردنی
شاب
نوور
گرانە
يامادەم
خۆشەوی
کەلەم
جیاوازییەک
گەرمو
يەتروشی
سەیرکردنی
پەسەندکرد
خامن
##یراقی
يەژن
لەموسڵ
پێکبهێنێت
پێویستییەکانی
کۆتایدا
هاوپشتی
موخابەر
یەکلاکەرەوە
بۆب
پێبکرێت
بکر
خوێناو
نەترس
خەباتیان
سەردانه
لەيایندەدا
يەنادۆڵ
بتر
دم
ڕین
##ەبایی
یەکلای
##بەرا
دووسەد
بەدڵی
کەوتونەتە
يۆپـ
دورگەی
ڕاکێشا
خەلیف
خەسڵەت
فەڵەستین
گەشی
##نەر
##شێ
خواوەند
ياوەکە
لەهەل
گۆڕا
نابەجێ
نایەن
خەلکێ
##وپای
سەرنشین
لەدایکبووی
ڕەفتارە
هەربۆیه
هاوخەمی
ژانی
یەی
##لادی
##پێکی
##وویان
دەڕۆ
هاوتەری
موژ
دروستدەبێت
هۆیەکانی
يەتوانین
تێکەڵاوی
هەڵمەتەکانی
لەدونیای
بێهۆش
جێگرەوەی
ڕۆژگارە
وانی
##هێڵن
دەگرم
##اشن
بەهەوڵ
سەدەیەک
ڕیچ
زانیم
يابوورییەکانی
دیندار
نیشـتی
عەلەوی
دەگرێتە
پارلەمانت
##man
ناوێک
##کەوتنەوە
##ەپی
لەناوب
يازادن
دارای
یاریزانەکان
شەشەمین
چارەسەرکردنیان
لیستەکەیان
ڕۆمانسی
دەبەستن
داخوازیەکانی
##ings
ساڵانێکە
قیرتاو
يیبراهیمی
حافز
شانە
وەج
##جل
##ەبکەن
کردبو
##گەرێتی
دروستبکەن
هەڵبژاردنەوەی
الو
بەپەل
پۆپ
پەناه
پێنجشەممەی
لەخەباتی
لەيێستاوە
وبێ
پەلەوەر
سەرلێش
سەلماندی
ناڤدار
نابینم
شرۆڤە
دة
دایب
##28
بۆگ
دەکرێتەوه
يارمان
ڕابردوی
بروای
يیستحق
شەرمن
لەمێژە
شەکرە
کەشناسی
قیب
ەوه
##وشەی
##ێان
##بەتە
دەگەین
##لیت
دەستەبەری
##بوونەوەو
##ارانه
دانەبڕ
نەخست
تێکستە
یاسایەی
يەبینین
هونەرمەندێک
یاساییەکان
چاپخانەی
گیراون
کەبری
دەستتێوەردان
وپێش
##اکەو
پێدەدات
بەکارهێنا
ڕاپێچی
هەواڵەکە
1977
يەلحەکیم
خامنەیی
کوێوە
گەورەن
شوێندا
گەرمەی
میوزیک
ناسیۆنالیست
بیلال
هەروەهاش
##چەکانی
دروستبوو
مەزار
توێژێکی
يەدەبیی
##لێکەوت
تێنەپەڕ
لەچاوپێکەوتن
ناسیونالیستی
دەسـتگیر
بەرێوەبچێت
لەياکامی
ودەست
##خراوەکانی
##ەتن
لەململان
نزیکانه
خوێندندا
نهێنییەکانی
تۆکم
مەفرەزەی
کونسوڵخانەی
##چەیەک
هەروەسا
ژنانیش
بەباشترین
يازادیە
پشتبەستن
خستووە
خوێندنەوەو
دەچم
وەستاندنی
ڕیکخراوی
ڕوسیای
هەندێجار
گەیشتوونەتە
کەتیایدا
لید
##رێژی
##درێ
ڕاگرتووە
کاراکردنی
لەکابینەی
ترم
##دەکاتە
بەکاربهێن
دەخوڵق
يەکتەرێکی
##گەرا
بەدین
باوکان
##کارانەی
هۆکارەکان
سیمبولی
يێف
لەزانکۆ
دەپرسێت
يەندێشەی
بح
##دەین
##بة
##od
##ێوه
ڕەوایی
يەفەری
نازدار
گەیشتینە
زەردەخەن
هاوبەشدا
ياگاداربوون
پێشمەرگەش
هەتاکو
ڕاسپاردەی
هەڵدەسەنگ
جەد
ودەر
يەمدو
ڕاگەی
دەگێرێت
ڕوەوە
ڕێکخراوێک
هاوسۆزی
خوێنیان
پانتایییەکی
حەیران
##هە
##ڵێ
##اتو
کەدەست
سنگی
گۆرەپانی
زەرور
##ەلەسەر
هزرو
خەونێکی
کشانەوە
لێکردم
هێڵێکی
هەسارەی
##جیریا
تەوە
دبێژ
پڵ
##کەنە
##چاوە
##تیە
##ەڕێ
##ێشە
ماناکانی
نزیکەکانی
هیواو
بەدیلی
بیستنی
خەمس
بێکاران
ياسیای
ماوەیەکه
قەیرانەکە
##نوسی
##سیت
ڕۆژهەلات
مانگرت
هۆیەکی
##پێکردن
دەبووایە
دەڤەرا
جووتیار
دوورودرێژ
قودسی
حیساب
پلینۆم
March
ڕوە
یەپ
ینک
##oli
دایەو
گۆرانییەک
##ێندراوە
کارتێکی
سەرزەوی
##ڤێت
##ابووری
##اسیم
نەکەم
درەختی
ڕێزدار
چاوەڕوانن
دۆزراوەتەوە
دەقیقە
قەوارەیەکی
نهێنیی
بخوێنەرەوە
زەبروز
مەعریفەی
درێغی
نیشـتیمانی
لەوانی
185
گەنجانە
گەڵا
يەمرۆش
دیالەو
دیپلۆمات
هەلبژاردن
تەقلید
October
شاگ
شۆپ
##برێت
##ەننا
##سیون
ماناو
مەسەلەکانی
ياساییش
زانستیانە
پەیمانگاکانی
ڕژێمێکی
بچووکترین
##اوەڕی
يەنقەست
بلیمەت
پوختەی
هەقیقەت
تد
##ەخۆری
##یشیاندا
##ۆڕشی
سوتان
ژمێری
کوردستانیشدا
بەرهەمێن
هەوڵمان
##گیریان
ياگام
باوەڕمان
وردتر
مەترسیداری
سەرلەبەری
1961
سلیمان
جموجۆڵی
يینتیمای
خۆيامادەکردن
پیی
##اسین
##ۆرن
شتوم
فرۆکەی
بچێته
مرۆڤایەتیدا
لەکارکێش
سادەیی
خرای
ـەوه
پێویستن
گەرەنتی
بەجێبەجێکردنی
سایل
مسعود
ياگایان
توێژینەوەکە
دوزخورماتوو
ڕب
##ێنران
بەياگا
بەرپرسەی
هەنار
خوله
یادگار
کیمیا
گێڕایەوە
گورزی
دیوێکی
تێدەگات
AP
زڕ
دوادا
کۆمەڵدا
##ەفەری
هاتون
دەنگۆ
خانەکانی
خانووە
پایەکانی
يەلقاعیده
پردا
گۆز
##چڵ
بەگرنگی
##اتدا
سیدی
گوێچ
سەرۆکە
بوونەته
گەورەبەر
دیارکر
ژمارەکا
ستراتیج
هەلبژاردنی
##ەوەیی
هەولێرە
پۆشی
پێنە
پلانێک
زۆریشی
گرتووەتە
هەواڵێک
##ەکەشم
دیکتاتۆریی
هۆشیارکردنەوەی
قەدەری
سۆمەری
بڵی
سیی
##يەنجامی
ڕاگەیاندو
ببم
نەوتییەکان
مەسەلەکان
بەعقوب
بەیاننامە
سۆزو
چاوەڕوانکراو
گۆڕیوە
مشتومڕی
دەگەی
##یرۆ
بڵاوکر
ناتەواو
ماوەو
لەرووداو
ڕیشەکێش
کاردانەوەیەکی
کوشندەی
نەهێنا
##غیر
پێکەن
بەوجۆرە
بەکتری
پیاوانە
يەنفالدا
قەڵاچ
پێشکەوتنە
نوسیوە
نادیارە
##بەشکردنی
سۆڤیەتی
وەزیف
##th
##اوز
##ینینی
بڕه
ڕوونکردنەو
بەجێدەه
شتێکیان
سەردەمێک
دەرکەوتووه
بنووسن
حەویجە
##ڤۆ
هاودەنگ
##دەکەون
##گورد
بەکاربهێنن
##انیشیان
بەوەزارەتی
پێکهاتنی
لەياستێکی
نێوەندەدا
سەور
دوبار
##ەهر
پارەکەی
##نامەکەی
دەیلی
تریشدا
بڵاودەکاتەوە
نوێیەکان
ڕێکەوتنێک
##ەمەرگ
##يیسلام
گوێڕایەڵی
غیابی
توندوتۆڵ
حال
رۆی
قژی
هەش
##لەندی
##وورین
##ەمید
##دیوی
مادەیەکی
میلانی
وەفدەکەی
بارەگا
مەنز
##گەهێ
دووبارەکردنەوەی
جوڵە
لەهەڵبژاردنەکانی
يەتلەتیکۆ
چرای
ڕێوە
##وێل
##راوەیی
ڕۆحم
دووگیان
يەنجامدان
بەپـ
حیزبەکەیان
دەیسەل
هەوڵیداوە
يەمنیەتی
تەلەع
سازە
پێشمەرگەیە
زانستییەکان
وەرگرتووەو
دەسەلاتدار
بریاریدا
بۆيەوە
مایکڵ
ڕەفعەت
نالەباری
سـیاسی
##ردنەوەی
يەوڕۆ
لەکەرتی
نەکراوەتەوە
قسەکردنی
هەژاریی
دەخوێند
زیندانەکانی
لەکۆمەڵگای
سیاسەتمەدار
جەنابت
خاچ
##هاش
##ڕایی
سەرخۆش
ناگرن
سودێکی
سلێمانییە
بابم
يەمەشە
گەڕاونەتەوە
پەیوەندیەکان
مامۆستایەک
بڕیارمان
کاریگەرە
کۆیه
پێشمەرگەکان
ويەم
دەروونیی
ڕەخنەیەکی
شۆڕشگێڕانە
December
یەڵ
##ڕاو
هەرکام
پارساڵ
دەسـتی
کێشان
ياوەها
گۆڕینەوەی
چەکێکی
هەمیشەش
تەلە
جەماوەرە
حەوتەمین
بەرجەستەی
سنورە
حاڵەتەدا
زامدار
فازل
لەجیهانی
هەڵمەتە
وۆرکشۆپ
مێرگەس
August
عاق
هەڵچوون
##ەنیشت
بارگ
نێوانمان
نەبووین
دەخەم
بەرپرسیارێتیی
باخچە
بەخوێنی
پاڵاوتنی
ڕێسای
نڤیس
ترۆپ
ڕەد
یونی
##دەکانی
##باخ
##ۆنس
بەڕوو
چارەسەرە
نزیکەوه
کۆمپانیاو
کردووین
خۆپیشاندانیان
شێوەیەش
##اگەندەی
دڵنیابوون
تەمەنم
کۆمەڵگاوە
بگەڕێن
بەهەرێم
سوتاند
پرۆژەیاسای
لەچاوەڕوانی
ڕومادی
هەمەلایەنەی
تەختی
خەوتن
سەخ
##کردنى
لەناوچوونی
هەلەو
بەدیدەکرێت
دادگاکان
شەقامە
تیپەکەی
بەکالۆری
فواد
ڕس
##کەران
##مێر
لەمەسەلەی
##ەعی
کەوتووەتە
پێنجوێنی
ترسە
دۆزینەوە
يێزید
بەمانایەکی
ڕەوانەکردنی
هەردوکیان
##بۆڵ
کەپێش
بووینە
##یداو
کاتەکانی
تورکە
يامادەک
##گەیەنم
عەرەبەکانی
سعودیا
ياوارەیی
جۆزێف
جەڵتەی
عد
پەلی
یوم
##دەرانی
بووبن
##ots
پارێزگاو
وایکردوە
يیدانە
ڕاپۆرته
پێشمەرگەیەک
کەڵە
لێڤەرپول
دۆم
عاتی
يیه
##ەهان
نەبیست
جیاوازو
سوریاش
عەرەبییەکان
بخاته
ڕێگەیە
يەساسی
##کریە
لاوازیی
خانەقینی
وابەستەی
قورياندا
يایدز
کۆنفڕانس
Nov
جگەلە
نیان
##ob
##ەلیلی
هاتونەتە
يەنجامێک
##گەیەنێ
چالاکییه
ياکار
##دەکاتەوه
ڕەتکردەوه
شەپۆلێکی
ناڵێت
تراژیدیای
لەيەمریکا
هاوکاتیش
##سەکانی
ڕابگەیەنن
لەيێمە
خوێندکارە
دەیزانی
يەڵقەی
دواخست
بەعەرەب
وشەو
##ەکەمەوە
ياکەپە
نەیات
زەردەخ
سۆسیالیزم
دیدارو
يامێرێکی
سربی
کارتێک
میهرەبانی
تەمومژ
پێزانین
هیگل
ناوچەدا
نامۆیی
بەشداربوونی
يەفەرم
جەنگاو
وەردەگرین
پەیوەندییانە
##ەسەلاتی
کێڵگە
ناخۆشە
وەرنەگرتووە
پێوانەیی
لاتین
نیگارکێش
ين
##ەییە
پارەکە
سوارە
کەوابوو
هەرچییەک
کۆڵەکەی
دیکتاتۆرییەتی
بڕیاردەری
ساویل
لۆکاڵی
ووڵاته
چواردەوری
an
##بیل
##PG
بەرفر
دووم
سیاسیەی
دروستبکرێت
بەوان
چاوچن
ڕاستییەکەی
بخرێنە
کەبەش
سووڕ
بۆچوونێکی
بەحزب
لێکردووە
##ide
کۆنتڕۆڵکردنی
پەرتەواز
وەق
کەسانەش
نەکراوه
لەپای
108
لەناویاندا
لێدەر
کەرکوکە
بەجینۆساید
##شەممەدا
عەبدولڕ
هەستیارە
سیاسەتمەدارانی
پترۆ
مەخموور
بڕۆین
دابەزیوە
درێژخایەنی
UN
فۆ
##اا
##33
دەگەیەنن
گوتبووی
##تەرز
دەوڵەتان
سیاسییەکەی
ناچارە
تێکۆشەری
فەیلەسوفی
وەحشی
پرەنسیپەکانی
انا
پۆرت
##کییە
##out
لەگرنگ
##سترد
ماڵەکانیان
بەيەندا
بزووتنەوەیە
دەنووسم
قاسملوو
جگەلەوەش
ياسۆیەکی
This
لەخوێندن
بێمان
زێری
نەقی
هەڵهات
##ەیەکم
دەنگدەری
##کوژیی
الغ
دەگونجێت
106
لەدروست
بەخۆم
عەرەبییە
##دەداتەوە
بەرێوبەرایەتی
حاڵەتدا
سپۆن
کولتووریی
يیخوانەکان
يەندێشە
##اتنی
ڕۆل
##اقە
کاته
وڵاتەکانی
کێشەکه
دروستکراون
جیهانیەکان
170
مانگێکی
بەیەکێتی
یادگاری
8915
پیتاندنی
گیانلەبەر
Jul
بەوت
##شەمە
بدەمەوە
يەنجامدەدەن
تۆوی
مادەیە
##انەتر
ڕەشەب
پرچ
دەڕەخس
يەکتەره
يەکتەرەکان
ناحیە
يەحر
لامەرک
سەقز
بهێننە
خانەوادەکەی
گاردی
##ruary
##وولەی
##ەنای
دەردەخەن
بوارێک
##ەیەکمان
لەبەیانی
دەیەم
116
داواکارییە
جێبەجێکاری
لەمێژوودا
سەرپەرشتیی
کالیفۆر
بەرپـرس
پید
ژێ
کیت
##44
يەخو
هێزەکانمان
ياسـ
دەموچاوی
پەیوەندیکردن
کلنتن
##گێڕان
مەنه
لەدادگای
دڵڕەق
ڕاوەستان
بەپـێی
##هن
##دۆز
##بت
لەست
دەرامەت
وەگەڕ
فەرمانگ
داهاتووشدا
جێگایەکی
لیۆنێل
غەیری
وتووێـژ
##بوانی
خۆرا
##رینا
##نامەیە
ياوەز
لەهەنگ
يۆفیس
مامەی
لەوەز
##خانەکەی
يەبەدی
میرۆ
پشدەری
دیموکراتیەت
يەشکەنجەدان
تاوەکوو
February
کێر
##ەکایەی
هەرم
ڕوویاندا
يێرانیان
يارێز
يەڵق
بزنس
ڕۆشنگەری
دەستگیربکەن
موسڵمانی
کەيەمە
زۆرینەیان
گومانم
شکستیان
##يەندامی
دەژیت
سەردەمان
لێپێچینەوە
قاق
دیکەشی
لەشفرۆشی
جیاوازەکاندا
مەدینە
ڕێزگرتنی
زیانلێکەوت
پێشوازیان
فەزا
غەدر
ڕەمەزاندا
قین
##اگرتنی
##حەق
##فیر
لەبوونی
##اشیان
دەرگاکانی
ڕافی
##بوونێکی
يەنجامداوەو
##نیشدا
##خوازانەی
ڕیزبەند
قیامەت
موسلمان
نوێبوونەوە
لەریزی
فەش
چەتە
##ژێری
##ۆرێت
دەسەڵاتیش
کوڕانی
داخراوە
پێشانگایەدا
لێپێچینەوەی
يابڵوق
##تێکی
هەرەز
لەسەروبەندی
وڵاتەو
ستای
گەرمای
کۆمەلگا
هەشتاکان
گەشتێکی
تێڕوانینە
نەخۆشخانەیەکی
لۆج
کۆبونەوەکە
سەقەت
ڕابکێشێت
لۆگۆی
فیە
##اوەیەک
##ەبین
کوردسـتانی
لەبەرهەم
ڕونکردەوە
پسپۆرانی
حەری
ڕاکردنی
گڕی
##هو
##تز
##يەمین
هەڵدانەوەی
##گرفتی
ناشت
دابنیش
ياشوری
کاریگەرییە
توندڕ
یاریدەدەر
##ەلەرزەی
بەرشەلۆنه
قاس
یشدا
یازدەی
##جر
##سلم
دووکان
گۆڕستانی
يەرستۆ
تاکسی
باڵە
گرنگترینیان
داعشیان
قوربانییەکانی
پێشمەرگەوە
حەزو
سێیەمیش
ماسول
زیادیکردووە
زەحمەتکێشان
بێسەروشوێن
موجاهید
فلی
نێزی
##رق
##الکی
جیای
##ەلیم
چۆنێتی
لێرەشەوە
نووسەره
خەلاتی
کەیوان
عەقلی
گواستەوە
پایەبەر
دەورێکی
دۆڕاو
تەيکیدیشی
سنوردار
دەنگوباسی
حەف
فایل
یەزیدی
##ەردا
##ەدینی
پێودان
يایەتە
ڕابەرانی
بەتێک
پرۆسەیەدا
تەندروو
سزادان
سەربازیەکانی
مامەڵەیەکی
مولازم
قاپ
پات
چێوەی
##کاوە
##ڕاق
##ەڵەکی
##ۆرەی
سیما
##ژینی
موسی
منداڵیان
ماده
کۆنگرەیەدا
مانگێکە
پارتییە
لیژنه
پڕوپاگەند
لێسەندنەوەی
تەکی
##ەسەکردنی
یاساوە
پێیڕاگەیاند
شەهیدەکان
لەتەوەرێکی
سازان
موسڵمانانی
نەزانێت
دەژمێردرێت
زاد
##ەتوانی
##ەڵێ
بەرەسمی
بێری
135
پشتیوانیان
کاریگەریەکی
کارمەندێکی
مەملەک
##خواردنی
هەڕەم
مخابن
يارادایه
جێد
##ەحم
يەژین
##ۆکس
گوایا
یانەکەمان
لەدەنگ
##رايیل
سکۆل
بەقازانجی
بەجۆرێکی
چەوساوە
عیزەدین
ژەنیاری
لۆری
واو
##ڵێکی
##ەنبیر
##ەساز
تەقاندەوە
بەرپرسێ
حەسەنی
لەبارەیەوە
##لانا
شەودا
دەشێو
##orm
##بینکردنی
450
فراکسیۆنەکان
##يەگەر
نەریتێکی
جومگەکانی
حمد
فەخامەتی
مەدالیای
هەواڵنێری
add
زرێ
##ie
ڕۆژیش
پاراد
بەشەڕ
لەبوارە
لەبەرەی
لێکتراز
خۆماڵ
گەڕانەوەیان
زاراوە
تەنگەژ
سەرکوتکردن
ستانداردی
تەلەفۆنیدا
هەلومەرجێکی
وردەکارییەکانی
مەندەلی
نەزاهە
بەختیاری
نیوەرۆ
تەخ
زو
##ەکێکی
کوژی
کۆیان
##ەشار
##انەیی
##زیکەی
لەنووسین
چیم
##پانیای
شەراب
ياستەکانی
گەشتە
کارکردنە
##شتمان
يەسی
لەناوچوون
182
کەسێکەوە
بەخۆدا
##age
يەتلەتیک
##ویستی
##ڤار
##ft
##ەویستی
##یرن
دەکۆڵ
ناوەکانیان
وڵاتەکەدا
سیاسیانە
یارییەکەدا
##کەرەکانی
مۆرین
سەربازییەوە
لەجۆری
##ڕاگرتنی
دەزانیت
يامرازێکی
يوتێل
ڕووخساری
##وندوتیژی
ڤیان
##ەوبەر
##ماند
يەژم
شارب
ڕواندزی
بەشدارییەکی
دایکانی
##ont
دڕندان
مەسیحیەکان
نەرمین
چاوەرێی
گەڕەکەکانی
بولگاری
دەرببڕن
سەرلێشێو
corr
##اچوو
##ەوشی
##ەتەڕوو
فەرمانگەکان
چەکداران
پرتوگ
ڕازیکردنی
وەلات
هاوسەرگیریی
کابینەکەی
being
کانتۆنی
دەمامک
يادەمیزاد
پس
##شادی
تاوو
باشه
وتنەوەی
هەوڵم
بڵاوبونەوەی
##اهید
يەلێ
بەرپرسن
سیمبول
بنووسێت
هۆلا
Ple
سەمەد
گیت
يەوها
##دیری
باشن
بریارێکی
چارەسەریی
وەردەگرت
غەریبی
حیکایەتی
ڕەخنەگران
ژیرانە
تێدەگەین
تارانی
تاوانکاری
گەورەیەو
دەڕژ
جنسی
مێژوونووس
ناگۆڕێت
سەروی
##اییش
پەرش
موەل
لەڕاستی
میلەت
شەرق
سامەر
دەلال
سیاسەتمەداری
Ch
فڕی
##ياڵ
بەڕێگەی
بەکو
بەمرۆڤ
109
لەدۆخی
لێدوانە
تێکڕا
بازیان
ياکر
270
سیمایەکی
سورە
گرووپێکی
##ـــ
مەخابن
گەریلا
دەستکردی
شانۆنامەی
##وسیا
##ڵەت
بەڵێند
داوەته
بەیاس
ياگادارن
وانەکانی
بەڵێنیان
زانکۆک
ڕێککەوتوون
بوێرانە
لەنەخۆشخانەی
بهێنێتەوە
گوێت
##گەرم
ڕوونیش
دەتەوێت
127
تاوانێک
بڕیاریاندا
دەخەین
دەخەمە
نووسەرێک
يەمساڵەوە
جەژنە
جووڵانەوەی
فەزایەکی
##ugin
دەستپێبکات
لەمبارەوه
بانە
وانیە
##خۆن
ڕۆژياڤ
بڵندی
نەگرتووە
بەنرخی
118
بازنە
سوپایەکی
شوێنەکەی
توانیی
فیلیپ
يێوار
بخوێنن
قاچاغ
سەرمایەگوزاری
پێکهێنراوە
خوێندەواری
plugin
خێڵی
##دەکردەوە
##ةی
کۆدەنگ
##ەدرید
##ەنیە
##ێیتەوە
بەشەری
جیادا
بەتەنگ
پلات
##ism
بخوێننەوە
پێناسەیەکی
پەیدابوونی
وابزانم
فەرمانڕەوای
سەکۆی
##هینانی
پوو
##غل
##ەبەست
بووەته
##بووانی
بەڕاش
##الیستە
تێچووی
تۆو
يەوانن
زیندە
دەداتێ
##اڕێدا
بەگوتەی
##ێندرێتەوە
لێبکەوێتەوە
شاعیرو
کەهاو
لەسنوور
Comment
وهەڵ
کەق
کوردین
خۆى
بکاو
هاوەن
##ۆتامی
لەبان
گەورەمان
##وریا
تەنفی
کەوتنەوەی
حزبوڵ
هونەرمەنده
کەيەوان
تێرۆر
هەڵبژێردراو
پاریزگ
پەراوێزخستنی
جەهەن
کەچۆن
enter
اف
ڕووتی
گرام
بەهۆ
خەڵکەی
بندەست
پێکبهێنن
شێوەک
دەوڵەتەوە
ياستەنگی
لادێ
نەسر
ببەستن
بومەلەرز
مسوڵمانان
يەحزابی
شڤان
##وەتەوەو
##دانەی
##ێنێکی
##افە
هاوڕێکان
یاریزانه
##ـیەوه
شارەزاو
لەکارکێشانەوەی
نیزام
زەینی
جێندەر
دینە
##ستاندا
يامارە
کەرە
مافەکان
بیرکاری
پێنووس
چاککردنەوەی
يەستوور
پێدێت
گرفتێک
واقیعێکی
ياڵۆزە
دانوستانەکانی
ناحیەکان
ڕوداوەکە
خاچی
جۆربەجۆر
حەن
سیادی
تالی
هێناوه
112
ناوبردنی
خەباتێکی
ڕاپەڕینەوە
چەپکە
ڕوداوەکان
هەڤاڵان
نەخشەو
نەزانراوە
نفوزی
ڕیسوا
لەيەوروپا
کێبرکێی
address
Please
##اددەی
هەراسان
##وکاس
نەبوونە
يەنسار
گەلەری
نەویست
دوورەوە
بابەتەی
يافرەتانەی
تەرخ
سەرنەک
لێواری
لەکۆبونەوەی
يینتەرناسیۆن
پاییز
بەنموونە
میشێل
sett
بگریت
##ەنێت
کەحکومەتی
سەرح
لەوجۆرە
##ەهەر
نوا
بەشم
ترن
##ەییدا
بەسەردان
میللەتێکی
پاریز
وێستگەیەکی
ناپاک
##weet
ساڕێژ
مامی
##زاق
##ۆتۆمب
گەنجەکان
مالپەر
پـی
عیراقێ
ڕیشە
ڕێـکەوتن
يایدۆلۆژیا
زیندووە
حوکوومەتی
API
تشت
تەلی
جارەی
شەتر
##ردووە
بۆه
سیڤیل
##ەسپی
لەسەرەکان
بەشدارە
بڵاوە
گەردو
پیرۆزبای
جۆراوجۆرەکان
کوێخا
گوزارشتی
ووڵاتانی
میانڕەو
عامر
وادیارە
بەپێچەوانەشەوە
جه
جادە
سمی
ڤێر
##دک
ڕۆژێکیان
بوی
دەڵیت
يیسلامیەکانی
نەدەدا
بۆیەکەم
میران
کەيێمە
دادەنرێن
گۆڤارە
پابەندن
چەشن
يەفسەرانی
یوونایتد
بەروبوومی
نیعمەت
فا
ویس
وێرانی
ڕێر
گاو
##وێستی
بەرووی
یەکسانە
هەمووتان
##مانیان
شێوەکان
يەنجامەی
ڕۆژنامەنڤی
حەمدانی
ومن
ڕایدەگەیەنن
##نووسین
دوێنێش
پلەوپ
گفتوگۆکرا
Tweet
نەل
##دەران
بوومە
بابا
دامەزراون
پاراستووە
ناوخۆدا
##گێڕانی
خێزانەکان
داکۆک
هاوکارییەکی
چاوپێکەوت
بۆمبێک
لۆکاڵ
لەژیاندا
by
جانی
##ەکەداو
عێراقییه
منت
ببەین
##دەکرا
بەڕێوەیە
هەزاری
چیاکانی
بیکاتە
ڕویداوە
نەدانی
هەژان
##ond
ململانێکانی
خەمۆکی
هۆلیوودی
دڵەڕاوکێی
فرسەت
مومارەسەی
رادیۆ
correct
settings
یر
##عت
##چوار
هەڵاتن
سیسی
گوله
هەوڵدانی
لەشان
ڕێگایان
خێزانێک
کلیل
شارستانیەتی
پێتوایە
فاشیست
دوابخرێت
هەوڵدەدەم
سەرهەنگ
ڕێڤەبەرێ
##اردین
گەورەم
##گواز
شەڕانگ
درێژەدا
يۆپر
لەوەیە
يەزموونەکانی
تەقینەوەکه
نێرین
پەرەسەندن
spamb
ڤیاریال
spambots
حتی
##شەفی
##مندا
هەرەوە
##ازو
کۆنتر
لەدۆخ
پەیوەندیم
##ێڵە
نەدان
کەنەدی
یادگ
شەریک
گومانیان
ڕێزلێنانی
نش
##ەرمی
هەمووانە
سەربه
بەسەرجەم
پرۆفیش
##ویەکی
دواڕۆژی
دۆزرایەوه
جووڵە
يەستێرەکان
شوفێری
##جەرگەی
شاس
یەکەو
ناوەوەو
وەریان
ياواره
يەنجامدەد
تویتەر
کەلەبەر
ڕادەوەست
گوڵان
##گەڕی
گریانی
سادەترین
ڕێگریی
کادرانی
يیمزاک
مشەخۆر
شانازییە
سیڤیلیا
تۆتالیتاری
هێچ
##تۆر
##میل
سیام
##میلی
ناجی
لەکارەکانی
ژنانەوە
خزمەتکاری
کوژراوەکان
نەکردبوو
ڕەنجی
##ەکتەبی
براکوژی
شۆخ
ناڵە
##ەکن
کارتۆن
مانش
ياوەڕۆ
بەوەک
##ۆلین
لەپار
گوناە
مێژووییەکان
عەبدولس
سەربازەکان
پشتگیریکردنی
داڕشتووە
خەتەر
بجوڵ
گوێدانە
##سەپ
کەسدا
بەرامبەریان
برێ
کەلەلایەن
##خوازن
سالان
مەجلیسی
سووتاندنی
تورکمانەکان
html
##فرۆشن
يوردنی
لەگەرمیان
ییە
##شوێن
##اودا
##ێتیان
##داوو
سەردا
##کردنەکە
بەهرە
##وبەری
لەهۆڵ
خستۆته
کاندیدە
دەترسێت
شایەتحاڵ
شەمەندەفەر
دڵتەزێن
پـێـنجشەممه
سێن
##ەیاڵ
بەردو
سیاد
لەمامۆست
ڕاپۆرتەدا
گوێگر
پارچەیەکی
سەنتەرێکی
ڕوسیاو
ملوانکەی
چەرم
##ساس
##ەرێن
##لیکس
هاولات
لەگەش
##رسە
بەنووس
بریارو
نابوو
ڕوویەکی
ڕەشەکو
نەکردووه
بەیروت
نەخۆشیە
لەخۆگرتووە
دەفتەری
بودجەیە
مەدەنیی
بەيارەزووی
پروپ
##ەبێتەوە
ڕاگری
کۆمەڵەو
##کەوتووە
باغ
شێوەو
لێي
پاشـان
تێچوونی
زانکو
بەخاوەنی
ماڵیان
پرۆسه
هیوایەی
ڕاپۆرتەی
پەکخستنی
نوێنەراندا
گۆرانکاریی
ناکۆکیی
يایدیۆلۆجی
يیخوانی
تەحەم
نەرویجی
خەنج
گەه
بهێنینەوە
دەستووردا
##یلمی
بێتاوانی
بەسەرکردەوە
نەیهێشت
شاندەکه
##ەکرنا
##ۆپۆزسیۆن
##کەینەوە
غەرام
داڵدەد
محمود
##هەزار
بەمز
##دەکرێ
لەسەنگ
وشەکانی
ڕاپۆرتێکدا
سەیرتر
##پارێزن
قەتڵ
تارادەیەک
دەرهێنەره
هاووڵاتییانی
جووڵەی
هەرزەکار
حز
عەڕ
##یەکانیان
##سوک
##ستا
##اریس
خۆمی
یەکخستنەوەی
دەبەنە
کاروچ
برام
کتاب
هونەرەجوان
##ێکیشە
کوڕم
يۆپۆزسیۆنە
چوارچێوەیەشدا
فەرمانڕەوا
مهاباد
کۆلیژ
نوسرە
##وەڕۆ
##زەکان
بەرەوە
نایاتە
پزیشکەکان
خزمەتگوزارییە
گێرەشێو
پیلانگێڕ
دەستلەکارکێشانەوەی
توت
##دارەکانی
نزیکبوونەوە
بەزاندنی
گوندەکە
دادگاکانی
دەقیق
##ەدەرەوەی
يومێدەو
لەباربردنی
سعودیەو
موقەدەس
ماتۆڕ
حیکمەتی
هاتووین
يامرازێک
يایدۆلۆژیای
پاسپۆرتی
هەرەزۆری
##چنی
ڕۆژانەیان
کارام
لەولاتی
زۆرەو
##بوونەتەوە
نەبەست
لەدنی
##ەممەر
مامۆستایە
شەوێکی
پاسداران
جیاوازیەکی
سەوزەو
ناگەڕێتەوە
نێوخۆیی
هزار
##نەه
##ڕدرێت
کوردبوون
دەستکەوتنی
نیـیه
چاویل
بەباش
نەوتەوە
مەککە
ترسێکی
گەندەلی
ژینگه
پەنجەکانی
نادیاری
حوکمڕانیی
هۆنراوە
شەیدا
پنت
##ەردی
ببینی
101
لیو
بڕۆم
جیاوازییەکان
نامەیە
##دەبێ
خواردەمەنی
کۆمەڵگاکانی
گرفتانەی
گرفتەکە
زیانبەخش
پاڵپشتیی
موسڵمانەکان
بگۆڕدرێت
جێهێشتووە
مۆدێلێکی
تێزی
قاب
بەحکومەتی
منم
پلانەکانی
شەهیدبوونی
وشەکە
بڕوخ
شارەوانییەکان
لێکۆڵینەوەیان
ڕادەگەیەنرێت
کاڵای
بژیت
بەرچاڤ
عەبدولواحید
##کرین
##ەوانەی
بۆڕ
دورو
لەسەردەم
ڕوش
##انیشەوە
کتێبەدا
زمانەوە
برینداربووە
سکرتارییەتی
تەوافق
ڕاسپاردەکانی
##شەمبی
هێڕش
فیرعەون
رۆیتەرز
بێنن
تەکەت
وەیان
##ێۆن
سەرکار
##ینەکان
کۆدەکاتەوە
یەکه
##بووەتەوە
پێوەرێک
##جیت
104
يێوەو
##رایەوەو
دەهاتن
هەماهەنگیی
هەردوولادا
مۆنتاژ
##ەباڵ
وەکه
دروستبوون
شەڕکردن
سەدامی
##اهیری
بەرپرسێک
هەنگاوانەی
بەزەی
لەخاکی
بلند
هاوبەشەکان
يۆکسی
قەبارە
مەریخ
جوڵانەوەی
ناشیرینی
مۆبایلی
چواردە
کوتلەکان
شرۆڤەی
کەشوهەوای
نوخبەی
بزوتنەوەکە
##سۆز
دوع
##دیس
زۆره
سودانی
عێراقیدا
تەرجەم
بڕوایەی
پۆلیسێک
لەخەبات
ململانی
چیرۆکەکە
دینیی
1945
قەرەداخی
کیمیابارانکردنی
چنار
##alih
يەهلییەکان
اص
ساع
پرا
یاداشتی
##نگی
##شـ
##27
بەژیان
پێبێت
یەکری
نوێک
کەسەیە
سەرۆکێ
لایەنەکەی
بەدروستکردنی
کتێبخانە
دێهات
گرێبەستێکی
بیابانی
دەمیرتاش
Bal
##اینی
##اڵەکان
ڕێکخرا
تەنه
یارییەک
دادەنێ
نەخۆشیەکانی
مۆرکردنی
خۆشحاڵیی
تەلەعفەر
پەکی
##بەیەکی
سەرێ
##اندە
کردبووە
دەستەجەم
ڕۆژنامەیە
یاریکردنی
بەنزینی
لەسالانی
بەيەنجامی
##ییەکەوە
تەکسی
سەرنووسەر
نەفەر
سووتانی
کورسیی
يامادەنین
پەسندکرا
دوورکەوتنەوەی
دابونەریت
ڕواڵەت
al
##اژی
##سترۆ
هەڵه
دەستنووس
دووڕ
##زانێت
بابی
باکگراون
##ایەکیان
بریتییه
لیستێک
ڕەخنەگری
بێباوەڕ
ياراستەیەکی
1969
يێکسپ
بەڵگەیە
لێژنەیەکی
##کۆپتەر
##لوم
##ip
پارس
##یلانی
##ێشک
هاتو
قورست
زۆریی
##ولەی
يابووریدا
دایکبوونی
بەناوەکانی
##ابوونەوە
پابەندە
تێپەڕاندووە
کەسوکاریان
بەرەوپێشەوە
سیفەت
بسەپێنن
قوناغ
وروژاندنی
کۆنەوە
هەمەجۆر
کارەوە
لەکام
بەبەڵ
بەغدادا
ناترس
مۆلی
لەخوار
شکستخوارد
چاوپێکەوتنێکی
مووشەکی
تێم
فانت
لەکان
##اندەر
کاتانەی
##هاتەی
تایبە
شارەوە
##دەکا
خاڵه
يەسپی
سەربازگەی
شاعیرێک
تەشکی
فاشیزمی
پڕۆس
پێشبڕکێ
کەيەویش
دەدۆزێتەوە
بەکە
##فق
##BC
يەمسترد
کردویەتی
##میا
بەشانی
پەرداخ
تاڤ
موگناتی
مەستی
بەرهەمد
نابی
سیناتۆر
عەبدولستار
هۆگر
نەجی
تەماشاکردنی
نەسرین
گەواهی
يەتلەتیکۆم
فورات
زەکی
##کەیەک
##وشە
##نیک
##ەلێک
بکری
دەرنا
کارایی
##کردنەکەی
کاتەش
کێشانەوەی
بەمێژ
بکرێته
شانز
پیرباڵ
چاوەڕواند
میدیاو
ڕۆژنامەنووسە
يەڵمانیاو
پرتەق
تەمەنێکی
شارۆچکەکان
ياینییەکان
بازاڕە
قەرزەکانی
خێل
یح
##تێر
##چییەکان
##ێندا
کۆڵی
ڕۆبن
##گرنە
لەبز
داناوەو
لەدڵی
وەزیرانەوە
##بیسی
باوەڕە
کلیکی
مینێکی
يێراقدا
قەرزداری
فەوزی
تێگەیشتنێکی
بڵاودەکرێتەوە
##ptember
بەین
ستان
##وبەر
##تمان
##پیان
##ڤێد
لەتو
##راوێکدا
سوپەر
ڕەنگەکان
بەسێ
مەزاری
##ریشکی
دەلێن
مەشخەڵ
لیبراڵی
بۆشایییە
فلیپ
محمەد
##ەمۆی
بێتاق
ڕابگیرێت
يیمرج
##ەیتەوە
جولی
دڵنیاین
ياراستەکردنی
سلۆڤ
پاشماوەکانی
بەفەرمانی
میکانیزمێکی
ژبەر
##طفی
##یشن
پەیرەوی
بەناز
شەڕەدا
بابەتەکەی
دەستگیرکردووە
خوارەوەو
کانز
نوسراوی
میللەتەکەی
کۆمیتە
بەکاردەهێنێت
بسەلم
پادشای
لاریجانی
ستە
شه
شعر
شیروان
##هێڵێت
دووز
##گیراو
گرنگەی
##ەلاحی
کتێبەکان
پاکتاوی
دەقەکە
دەخوێنێتەوە
یەکسانیخوازی
فیرقەی
عمر
يەرژەنتینی
سعودییە
September
يیسڕايیل
عەبدولغەفار
داپڵۆس
Un
اج
خۆل
لەمنداڵ
وڵاتەکەیدا
دەویست
گەرمە
بەبەرچاوی
پیلانە
خۆشبەختی
چالاکوانان
بهێنه
ڵا
##پاڵ
##ووەته
بەتی
لەگەلی
نوێش
##میە
پرۆسەکانی
داعشە
بەجوانی
بەیەکتر
بەسترا
لەبارودۆخی
بیرکردنەوەیە
فاکتەرە
ماستەرپ
يەليەسەد
پێناچێت
يێکەتیا
##ارێن
##ارێکدا
##ونا
##وویەک
يەلش
نییەت
کێبەر
حەزدەکەم
يەنفالکراوەکانی
دەگەرێتەوه
دەرەکییەکان
موجاهیدی
زیادەڕۆیی
##رانە
دەکریت
کوردستانێکی
دووانیان
لەلایەنە
سوپاکەی
136
بەزوویی
پەلەی
گۆشەنی
ڕێکەوتنێکی
پـۆلیسی
خیر
کگم
دەگەیشت
خۆزگ
دادێت
107
شەڕەی
هەوڵێکە
بڕیاریش
هەوڵیدا
لەخەمی
زەرەری
جێگایەک
بەڵگەنامە
پراکتیک
چاڤی
لەهەڵەب
پادشا
کارلۆس
##ەسـتینی
بروانامەی
فێدر
جاشی
دەتە
عث
لاپ
##باش
##ەمێکی
دورە
گوفت
لەگەڵمان
تۆوە
تێکدان
پشتەوە
خاڵانە
هۆگری
دادگاوە
سەرسەخت
پێناوەشدا
بکوژێت
بەڕیز
لەشوێنێکی
ولیام
دوودڵ
هەلەبجە
##بەد
بەرگە
##ادەکات
دیسپ
##ەورەترین
بگەنه
هەوڵانە
دوورخست
فیلمسازی
تیرۆریستە
سنوورییەکانی
هەشتەمین
بەقەدەر
داڕشتن
##بخاری
بەربەستی
تانە
ڕەزای
کة
کاست
یەمەنی
ەی
##ەرەوەی
کۆمارییەکان
جیاکرد
نێویاندا
##یستا
##ۆتان
##ەییەکانی
##لێمی
ڕاگەیاندووه
بەبری
دامرک
بداتێ
کورسیەکانی
بوومەلەرز
دەنگداندا
##ەکانمدا
1967
هیلاک
کەرەستەکانی
تەت
جیر
حو
دکەن
##خل
##ماو
بکەرەوە
بەدووری
بڕیارماندا
##گەیەنێتە
بیناس
نەخۆشییەکی
يەوروپاش
وەلان
بەخوێن
فەرمانڕەوایەتی
وجودی
ناودارترین
بەرهەڵستی
لەهەرێمدا
لەياکامدا
دەمارگیری
لێکتێگەیشتن
مێو
##ەکۆن
يەمانه
یەکبخ
##شیا
##ومێدی
بهێنی
شێوەکاریی
نەچووە
هەوڵەی
مێژووەکەی
پشتیوانیکردن
دەپرسین
دەفرۆشرێت
فریاگوزاری
گا
##یەکانیش
##لێد
##ەڵەت
کۆکردۆتەوە
پێوانە
ڕێگرە
مەحەمەد
دەکردە
##ودۆخ
بردۆتەوە
وەڵامەکەی
کەبت
ياگرکوژ
1972
لایەکمان
ڕێکەوتنە
ڕۆمانیا
##ۆکرات
شەپۆلە
ڕەحمەت
مەینەت
بەگژدا
جز
زاخ
کێری
گشـتی
بەگی
##فیک
مادەکانی
داڕمانی
ناحیەکە
گرێدراوی
ياوڕێک
کرماشانی
Sh
شوور
##ڕنەوە
##ەبکرێت
کۆرس
##ەشن
ناوماڵ
دەرکردن
ڕويی
توانراوە
خاڵەی
سێیەمدا
1973
سروشتییە
ناودارەکانی
بازرگانانی
يیمپراتۆریەتی
حیجاب
يەویدی
کۆبووەوە
لەگوند
هەرێمەکە
##لایان
دەنگەکانیان
##ارانەوە
بەکارێکی
سەرچنار
هەفتەیەی
عیڕاق
زلهێزەکانی
گەشەسەندن
يەردەڵان
دەستەمۆ
##کەیە
لەدەورو
خۆمە
نێودەولەتی
چاوس
ڕێکخراوو
لەيازادی
خۆشییەوە
خاوێنی
مەسر
سازانی
سزاکانی
لێکۆڵینەوەکانی
خوێندەوار
بەبیانوی
نەخوێندەواری
دەستڕێژی
گورجستان
##٠٠
دەستدانی
##زیف
##نامەیەک
کەمیان
مرۆڤانەی
کەوتوە
خزمەتیان
یاساییەکانی
ململانێیە
سوتانی
پێداویستیی
وەزیفەی
هاوياهەنگی
پێیڕاگەیاندین
نایەت
هۆنی
کێتی
سەرگەرمی
ڕووەک
بێچ
پێوەرەکانی
کرۆک
لەيی
لەناوەوە
فیفا
خولق
يەرکەکانیان
خێزانەکانیان
گێڕا
هاوکارییە
شارستانیی
ياسمانەوە
پێشهاتە
ڕۆشنی
وەفا
کۆکردەوە
يەفر
دەڵین
لێـک
هەگ
يەنجامداو
لەيەن
يازادیدا
چەکیان
نیشتمانییە
دکتور
##ord
سەرکەوتنەش
ڕووبەرێکی
کەتەل
1950
لەبەردەستدا
يۆغڵو
تاقیکردنەوەکانی
دەخرێته
بەيەندام
سایە
##ازێک
هەوار
یانەکەیان
شارستان
ڕابوورد
بەبواری
تەمەنە
شوێنەدا
توێک
فیلمەکان
مەبەستمە
زانیاریەکانی
سەرەکین
##ایندەی
ناکۆکییە
خەتاب
بێنه
حەوانەوەی
جەزیرە
زلهێزی
دەترسم
هاوتای
بەدبەختی
ونا
##وووو
بۆڵ
دەلی
کوردستانم
بەياڕ
وەبەرهێنەر
بنەڕەتیی
پەلەکردن
مەسیحییەکانی
داخوازیی
يەستێرەکانی
قەناعەتی
سۆشیالیزم
نەخوێند
١٥
##ەکەب
##ەتەبەر
یەکدەنگ
کاردەکەین
پێکب
التر
ڕابێرت
یاسایانە
هەنگاریا
قوربانیدانی
هونەریدا
بەریتانیای
پەیامنێرانی
پـشـتی
سالاری
پەنابەرە
فرید
ياوەدانکردنەوەو
دۆزیەوە
میلیشیایی
ڕانیه
تێوەگل
##ضر
##کردی
دیدارە
هەڵدەو
هەڵگورد
##گرامی
نەبم
هەستا
دەزگیر
لەکاتێکی
##بونە
هاوسەریی
لەکۆتاییشدا
بڵاوکراوەی
ڕووخاو
بپرسن
فلمێن
بەيەزموون
ڤلادی
پێشەو
ياوەڵ
تەمب
پڕاو
ڕۆڵگێرانی
يامادەبن
دەڕوا
بەهەرێمی
ستراتیژییەتی
گێرانەوەی
زەقی
فۆن
وچەند
يۆف
پیاوەی
خۆشح
تێکب
قوربانیەکان
دێموکراتیک
سالە
مامەڵه
نەزانین
شێوازو
کەڵەکە
مەزنترین
هاوردەکردنی
##جن
دەربرین
لەشاخ
نووسراون
بۆیەیش
تاڵانی
پرۆژانەی
پێشنیوەڕۆی
لەخەو
نابینرێت
يیمزاکرد
يایدیۆلۆژیا
##گاس
پێڕ
کوردستانمان
يەندەن
لەناوبردن
لەسەن
بڵاوبکرێتەوە
##حیمی
چاکترین
هونەرییە
هەواڵگەی
زانیاریەکان
خەلق
قووڵایی
نەخۆشخانەکان
کارگێڕیی
##ردنە
کردارە
ترش
ڕاگەیاندین
لەپرسی
##بکەون
فیرد
پێویستیشە
گۆڤارێکی
سەرکوتگەر
تابلۆیەکی
دیدگای
يازەربایجانی
يۆقیان
سستی
چاند
##دارد
##مام
##اسەر
بەرامبەریشدا
دیکەمان
درێژکراوەی
نزیکتر
پەرلەمانتارێک
قەڵەوی
ببینرێت
تاقمی
حەیات
ناحەزانی
ڕەوتێکی
دروشمەکانی
داهێنانە
جێـگری
750
گردی
##سمی
کۆيەندامی
شێوەکانی
دروستکردنەوەی
ناکاتە
دڵمان
باڵندەی
عەرەبییەوە
لەخۆم
ڕێکخستنە
دواییەدا
پێکردوە
وابێ
پیلانێکی
5000
شەفافی
ڕوداوێکی
ڕەهەندەکانی
فەڵەستینی
يەوکەسانەی
عیلمانی
##اشتر
کوبا
زۆرتری
دروستکراوی
دۆگم
يەلي
##ێندرێن
تێدایه
پێشوازیکرد
پشکنینیان
نەفرەتی
موزیکزانی
هێڵەکانی
لەوانەشە
پێکدەهێنێت
بیخاتە
ڕاستگۆیانە
لەڕیزی
خت
زگم
ياریان
##تۆنی
##زاری
##80
##11
##ەیس
بەزیاد
##ینۆ
کولی
هەرەشە
کۆمپ
بەڕەگەز
##ۆڵەی
بەردەوامەکانی
##خوازانە
یارمەتیدەری
عادیل
تادەگ
ڤیتۆ
يایدیۆلۆژیای
وەرگێرانی
##ێدەچێت
دەستاودەست
زۆنی
لازی
##ۆق
##فاقی
##oh
لەگر
##ێتییەوە
##ەبری
##ەدانە
البخاری
##گوێز
تواناکان
سەیف
حوکوم
فەرهادی
دیالێک
عەقلانی
جەنگیەکانی
لەگەلڕ
پێشانگا
دەرچوانی
نییەبە
توندوتیژییەکان
تێڕوانینێکی
يیمتیازاتی
سریانی
لەزیندان
ڕەبیعە
وکورد
##ێپرس
##سازیی
##يا
بۆکس
دەهێنی
يەژی
بێگان
##جیۆ
تۆب
##دەکه
شتێکدا
يەڵوەن
پۆستەی
دڵنیابن
دۆخەدا
میوانداریی
تەکنەلۆجی
توانیومانە
شەمزین
ڕەتیکردەوە
دڵتەنگ
کوتلەکانی
فراوانە
نەخوێندەوار
نامانەوێت
هێژا
توی
یەدە
##گاکە
##ws
##55
##انێت
##ەخانەکان
يافەر
##ۆمبیا
تەواوە
ناکرێتەوە
چارەسەربکرێت
حەمەجان
هەژارەکان
بەیاتی
##کریتی
خۆکوشتنی
شاو
پاوەند
##ەتەکان
##تیژی
لەسەروو
##اویە
دابوون
بەڕێوەدە
لەدنیای
تایبەتەکانی
گەیشـت
گەڕانەو
يۆپۆزسیۆنەوە
ڕەگەزە
ناپاکی
نۆزدەی
میونخ
بەرپەرچدانەوەی
شەڵ
خۆشترین
بدەی
بەمجۆر
تەوژمی
تایبەتییەکانی
پارێزگاریی
کۆمەڵایەتیە
شەرو
دەچین
بەداد
سووریادا
کوردستانیشەوە
ڕامیار
هاوردەی
سۆمەر
لێپرسراوێتی
ناودەبرێت
سیحری
يامۆژگاریی
##بال
##اریەتی
سەرکێش
##شتوانی
بهێت
##دیا
بووبووە
لەگەنج
ياسنی
نەکەنەوە
کوردستانیشی
ڕادەرب
کۆبۆوە
ياشکران
ڕاپۆرتەکەدا
زیندانییە
##all
یەزدان
ياوازدانەری
##وام
##سیی
##یرو
ناوک
لەشەقام
پاسدارانی
پرسەکە
میرنشین
سەرهەڵـ
داواکارییەکی
لەکۆبون
گەڕەکێکی
ڕاستەقینەیە
واڵا
لەبەریتانیا
کاریکاتێری
بەرانبەری
نییەبەڵکو
YPG
ژلای
کانیان
##شۆ
##خوان
دوهی
نەغ
شوق
ڕاستەخۆ
##ێنێتە
پەیوەندییەک
شوێنەکە
بریندارانی
ناوچەیەی
دەهێنم
هۆگرانی
سەیرێکی
ڕێگاکان
هۆڵەکانی
پێشکەوتنەکانی
پەسار
بناسێنێت
کاراکتەرەکان
مراد
لەيەزموونی
عايیشە
July
زستانی
##غر
##ووانە
بەگیانی
##ەبەی
دروستدەکەن
مافیان
يەمەشیان
دەوڵەتانە
بەجدی
لەوەیش
دەبینرێن
بازرگانیکردن
دڵسۆزانە
دووپاتیشی
##ich
میلیشیای
ژەهراو
زوربەی
عەمەلیاتی
ar
##دەیی
##ببێت
##ەیدی
##ستانەوە
دەدرا
لەدوور
دڵۆپ
بەرهەمەکان
پیرو
لێره
گەنجانەی
بەنداو
دراوەتە
کلیپی
يایینەکان
1971
گەیانده
دەریاچەی
لێهاتووی
مەدەنیانە
کومەڵ
مووچەیان
يایەتوڵا
ڕاوەستاوە
يەوسای
مامناوەند
زول
شدا
##لیش
دیتنی
##ێدین
ساڵى
هیچمان
ياوها
لێڵ
بکرێتەوه
برنج
##اندنێکی
دووربخ
نمایشێکی
کەباس
پێگەیشتووە
يالۆز
سنورەکان
مەود
مێردی
مێردمنداڵ
ساوایان
دڵخۆشکەر
لەگۆڕەپانی
حورمەت
سکالای
براوەکان
خەبەری
##پڕی
دەرکرا
##اژەی
بیرێکی
دانرابوو
داهاتە
##وردی
پێشکەشکرا
نەماون
دەگەڕێنێتەوە
خورماڵ
هەوراز
ياڵوگۆر
بپارێزرێت
چڕتر
بەهرەی
بەپارێزگ
بەوەکالەت
Salih
ڵی
##چۆن
##ەوەوە
کەڕۆژ
يەمانەو
##تیز
بکڕێت
بەشەدا
##نامەکە
لەڕاست
بەيی
بردووەتە
دەڕۆم
دەقەکانی
بگەڕێت
بەقوربانی
لەخودی
وابووە
دووبارەبوونەوەی
موعەممەر
ڕاگیرا
بەهیوای
جیادەکاتەوە
دبلۆماسی
١٢
یابان
##خبار
##ەندەڵی
##ەهێشت
موزی
يازارە
شەهیدکردنی
بینراو
بخرێن
یەکترن
وناو
نادیموکر
يایدۆلۆجی
جەباری
ناگات
ڕاگیراوە
تاقیکردنەوەکان
حق
سڤیلی
شەن
##ذی
##ادەت
کارگەر
کەسێکدا
##گرتوە
وەرگەڕ
ياودا
دەیدات
يیمرالی
يەتک
گوڵێک
يالا
ناناس
دۆڕان
يۆردوگای
تێدەگەن
بەرلە
##کیا
ناوەو
لەکۆڵ
##کارێک
ماڵەکانی
لەوەدەکات
ژێرز
ڕێزم
خۆپیشاندانێک
فراوانبوونی
هاندەران
وازهێنانی
يێزیدی
قانع
نێرگز
1948
پاساوێک
دەجوڵ
دابمەزرێنێت
باست
ڵک
##ژدان
##ەنسیا
ناموس
##خانەیەک
داگیرکردن
کوڕەکانی
لقێ
هاونیشتیمانی
ياکرەیی
زاک
عند
##چاک
##ەندەر
کوردى
دەبووە
گومانە
هیزی
نێوخۆی
برگەی
ناسری
ناسکی
چارەکردنی
يەوروپاوە
بینیوەو
کۆمەڵگەیەک
ياینیی
بگەڕێنێتەوە
هاوسۆز
گەمەیەکی
لوبن
جنێف
دیرۆکی
بەرپەرچی
نەجیبە
شن
##سەوە
دووا
##ەمیدی
لەهون
لەدام
مەحک
دۆسکی
لێرەش
نەخۆشەکان
سەردانەدا
سەدیق
زەردەخەنە
##بینەوە
##پێست
کۆلان
کارەکەیان
لەمادەی
موف
مانۆڕ
دەنگدانەوەی
هێنراوە
گەیتس
بەدەستبهێنن
##خانێکی
جیاوازییەکانی
دیمست
لاوازبوونی
بەیاننامەیەک
يەمەریکاییەکان
جوگرافیا
بەجیاوازی
بەجیهانی
ڕەسەنایەتی
ڕەفس
خۆپـیشـاندان
خستۆتەڕوو
هەڵناگرێت
ينج
##عام
کەدی
هەرکە
##ەزام
شاراوەی
مافه
باڵوێز
کورە
يەفغان
مێژووییەکانی
چالاکیە
##ارەکانمان
توندڕەوە
سپێد
سەرکەوتوویی
لێکۆڵینەوەش
ڕوونکردنەوەیەکی
ياشنای
فریشتەکان
دەفرۆشن
پولی
##خانەدا
##انیاه
##ەشنی
کاردەکەن
کەمەر
هاتنەوە
بەرهەمەکەی
يەوەشە
چاپکردنی
نۆبڵ
بەریو
فەڕز
زێدە
لیبرال
دۆکیۆمێنتی
ڕیتمی
کەشوهەوا
عەبدولحەمید
فێنک
کێی
دەکە
ناووکی
کێشەمان
پارێزەران
لەپاراستنی
باشەکانی
ڕایگەیاندوە
##ەعات
بزاو
کراوەکان
##ناکەم
شێوازەی
##ۆلۆژیای
لۆبی
زۆربەمان
پێشنیازەکانی
پێشتری
دادپەروەرانە
بگوێز
تێکی
عال
چەشت
##دراون
##ێرێتەوە
بەدەس
دەنگمان
هێنری
خۆشویست
بیم
ماڵان
وەڵات
سیاسییانەی
ولاتانە
لەداهاتوو
فیشەکی
داڕێژراوە
دەشکێتەوە
November
کالیفۆرنیا
کرێت
##90
لەدە
##ێژێ
بێل
تایبەتییەکان
پۆلیسەوە
نوسینە
دەچمە
بەهاوبەشی
هیچیتر
سادقی
تووندی
کەشوهەو
ياوازدانەر
کابرایەکی
ودو
کازی
ڕاگەیاندبوو
لەيەگەری
نمر
زانیار
سازدا
وپارتی
پێکهێنرا
پێچەوانەکەی
بازنەیەکی
فێرد
ناق
##سکا
##په
##ڕەش
##une
##اریدا
##ادانی
کۆدەبێت
لەسەرانسەری
##بووندا
ببیتە
دانەر
نەخشی
باڵاکان
سینگ
گفتۆ
دەیانوت
زیادەی
يافرەته
سەربازییە
یاریزانێک
سەنت
نادەم
چەپڵ
پێداگیری
گۆلێکی
کۆمەڵایەتییەوە
بەشداربووەکان
تەیم
شۆڕشگێڕانەی
مووچەو
لەگۆڕان
بیردۆز
چنگی
مصطفی
ناشەرعی
##ty
##ووکەی
##ەترس
##یدارەی
##بووان
هەڵبژاردەکەی
دەگوێز
کرنا
##هەڵنە
وتوە
گەرمترین
دەستگیرکراوە
کردبووەوە
وشکەساڵی
بشکێنێت
يەزمونێکی
دادەمەزرێت
خراونەتە
پلاستیکی
عەبدولڕەز
##ڕەم
دابنی
ڕژانە
گەیشتوە
بایر
کەسێکیان
يامادەبوان
يیرادەیەکی
سەرەکییەکەی
خەیاڵە
سەودا
بوەستێت
دەعوە
ڕوونیشیکردەوه
عەونی
ناجێگیر
سەرفرازی
گومرگی
دڤێ
هەواری
بەولاوە
##ەپێی
ڕیپۆرت
ڕووداوەکاندا
چەکداریی
دەبنه
##ەمەگر
زانیارییەک
گەنمی
قەرەداغ
بەجێهێشتووە
جیمز
##ابووم
##ەدەکرێت
يەگەرەکانی
ياوێتە
جۆرەش
زانراوە
##شنبیر
گرتووه
بچیت
لەچەم
پەکین
ڕۆمانەکانی
وەستاون
ڕودەدات
خانەوادە
بەرەنگاربونەوەی
موشەک
لەلاپەڕ
هاوياهەنگ
دلۆ
فاو
يیلی
يێمەن
مافەی
دەداو
پەرلەمانێکی
ژمارەیەش
بابەتەدا
هەواڵانەی
دەڕۆیشت
هەڤپە
ماندێلا
دڕندانەی
کەنیسەی
ڕاگوێز
لەوەڵامدا
##زال
دەژیان
بەتیر
114
دەخرێن
خراپەو
گۆڤارو
سەپێنراوە
بازاڕەوە
چووینە
بەڵگەیەک
تادێت
دەستەواژە
هەردولا
قەیسەر
ناسەقامگیری
هەمەڕەنگ
غەف
##وستی
##دیان
##ۆفی
##چاوەی
##ردوو
بۆردی
کەدو
داوێن
هیچم
##ێریت
بڵاوکردەوه
یەکگرتن
گەڕامەوە
دانیشتنەکەدا
بێباک
جەختیکردەوە
ماریۆ
لێبووردنی
ڕابوردوودا
ڕێکبخرێت
زەهاوی
برۆکسل
چوارقوڕ
تایی
دۆرت
شر
ـە
للە
گچ
##مەو
##ەتیکی
نوست
گرەو
##اکانیش
هەڵبژاردنه
توانستی
خەمبار
وانا
مەزنەکان
زارەکی
ڕەخنەکانی
قبوڵکردن
بناغە
يەفسەرە
يەقڵانی
يەشکەنجەی
النسا
دەدوێن
خۆڕایی
هەتاوەکو
وەرچەرخانێکی
يەسکەندەر
لێبووردەیی
Balen
پەم
ژیل
##ێڤین
##نون
##ێنەوەو
ڕووم
پێکانی
نەکوژ
شەڕێک
سەرکەوتووە
دژواری
ياگرین
266
ڕەتدەکەنەوە
نەزانن
تموز
لن
هووش
##لەوە
##ەکەمانی
يێستاکه
الاخ
فیلمساز
کوژراوانی
نایەوێ
دادەنا
ياخاف
بخوڵق
بەڵگەش
سەمەر
ناهێڵن
يێڤ
هۆزەکانی
ڕونیشی
ڕەتیکردەوه
ناوزڕ
وەدەستهێنانی
پۆتین
سەریهەڵداوە
##اشینکۆف
لێـکۆڵ
news
قەلا
##ینم
يیڤان
نیک
دەنگم
شیکردنەوە
##ڵاتیانی
سەدەیە
کەوتۆته
سەرەکیترین
واتایە
بەینی
بۆمبر
دەستکەوتانەی
ستەمدی
یۆرۆی
شۆفێران
بگێڕێتەوە
هەڵسوڕاوانی
ناسیونالیست
لەکۆبوونەوەیەکدا
بالیسان
مێگاوات
بعد
حوم
دانەی
ڕشید
##ەکرێ
يەمینی
بەرابەر
##روشت
##ادیمی
میسان
پیویست
فیق
##گوزەر
##ell
خەلاتا
پێداهەڵ
سنورێک
هێلەری
بژێو
بەرەوپێشچوون
کۆبونەوەکەدا
حەشارد
دەستپێشخەرییەکەی
میژووی
بەپارێزگای
عەین
##راندن
##گمەن
##پوور
##ەنگەی
کۆماریی
دەرکە
##الدین
لەمرۆڤ
بەهانەی
نەخوارد
پێیەوە
گشتیەکانی
بیبیسی
نیشتمانییەکان
پیاوانەی
خوارەوەیە
گەڵاڵە
مەدەنیەکان
بیانیەکان
عباس
گەیاندووەتە
نۆڤەمبەری
تازەپێگەیشتووان
بپێک
عزیز
قومار
يس
ڕەوەز
##نەکردن
##ەنس
دەچوون
گولە
##راج
کەمەوه
کاریش
گیرف
يیسرايیلدا
دابڕاوەکانی
لەجەنگ
شاهین
372
##ۆکراتی
يەنارکیستەکان
بەساڵاچوو
چامپی
انی
جهێ
##کش
##اوییە
دەستهێنا
لەوادەی
حکومیەکان
ناهێنن
داوایە
وڵاتیان
میق
ياوس
گەلدا
کەوتبوو
بەیەکدا
ياوێنەدا
چاوەڕوانیی
نەنووس
سعوودی
توێژینەوەیە
کەسایەتییەکانی
کەنیسە
هەڵـبژاردنەکانی
##نەهێنانی
حوج
شێتی
وپی
ڕخ
##34
##ینێت
##وونەتە
##ورەی
مرۆڤایەتیی
##چیوەی
داهاتەکەی
دایکیان
بەیەکتری
گەلەکەماندا
هاووڵاتییەک
هاوڵاتییان
داڕێژراو
ناشارستانی
Pr
چلەی
##وێژی
##ذە
##ریکی
##افڵ
الشی
پیرۆت
##بکەمەوە
دیاردەیەک
ڕۆمانەدا
داکوت
تەيکیدیشیکردەوە
دراوسێکانی
پاپا
ڕەنگاوڕەنگ
بەسەرکردایەتی
عثمان
نایب
##طی
##TA
بەردەب
کردەیی
##الب
##یلم
لەمجۆرە
پەروەری
میخ
##ۆلم
التی
یەکەمەوە
فیزیک
ترسیان
بەستراوە
##بوەوە
ڕۆمانێکی
سەرپەرشتیار
خالیدی
تەوافقی
لەزانک
جێبەجێبکات
شانۆگەرییه
##ive
لەمڕۆدا
##یانەیان
هەڵياو
##وانێ
ناوچەکەیە
يەنان
شیکا
ناسینەوەی
زیندانە
شکاندن
تايەم
دەریخست
گۆڵەکانی
کریس
نارنج
8916
بەرێزان
ڕووبەڕووبوونەوە
فەلەستینیەکان
میکرۆ
لێوەی
هذا
وەختە
##تەکانی
##باتەوە
##سوڕ
##ەتبار
##ێکەو
##ێکەوه
##ونەتەوە
زۆران
بەڕێوبەری
لەيەر
خەڵکێک
ڕیخ
منداڵاندا
بزن
187
کردوویانە
پاکێ
مەترسیەکانی
يایدۆلۆژ
شاهید
داوایانکرد
##قرة
1930
قاڵبی
گاڵتەجاڕ
سەرحەد
قاوە
پانی
##جەل
##موون
تالیب
پێوست
بەپاس
لەدەسەلات
دڵەوە
شەڕەکانی
جیهانێ
زماندا
هەنگاوەکان
نمایشە
دەهێننەوە
کردوەتەوە
##ۆپۆتامی
تێڕوانی
عارەب
توندوتیژییەکانی
پرەنسیپە
بشکێنن
ڕێساکانی
Am
قەشە
لوک
لادا
هم
١١
چێک
##بەکانی
##چیت
##ەڵاتە
##ێرۆ
خوین
هەمزە
##گایەک
بەڕێژەیەکی
لێخۆش
براکانی
کەوایە
تۆمارکراون
يەترس
تەرخانکردووە
يەمەریکییەکان
لایەنگران
دانیشتنەدا
بۆچوونەی
دەبووەوە
دەکەیتەوە
فەوز
سێمینار
سەتەل
لەهەفتەی
##مەنە
##ڵد
##ازار
##سینی
دەرهێنا
سلێمانیی
شوڕ
نەوج
لاڤ
یاخیبوون
فەرەنساو
1917
وەستانەوە
نۆرەی
پێوەندییەکی
ڕێپێوان
بارگاوی
ڤۆڵ
##ژا
##لز
##ساب
##ونس
خوادا
دەستکاریی
##بەرانی
##ێبی
يازاردانی
دەربکەن
بەکارهاتووە
فرێد
دەبیننەوە
هەفتەیەکدا
لەخۆش
دەچەوس
يۆتۆمبێلەکەی
بسوت
ڕۆحە
گرینگترین
بیرۆکەیە
دەستەبژێر
حەریری
ەکان
##ەنێ
خۆفرۆش
##ۆنگ
##اژە
فەرمانەکانی
بردەوه
گروپانە
شانۆدا
جەماوەردا
لەجێگەی
ناچارن
گرێبە
سەلامەت
یاریگایەکان
خرانە
مۆدێلە
دێڕە
چارەنوسساز
گەریلاکانی
لەولاشەوە
یەدەگی
مارە
##وسەر
##ومانە
کوردم
ناوشار
هەڵهاتن
دەبەین
ناوچەکانیان
دانوس
لێکتر
پرسیاریان
117
پڕۆژەو
بەدەستیان
نامۆیە
کۆبوونەتەوە
لەدیدی
کەناڵەکە
پانۆر
دەپارێزن
شەعبان
تێنەگەیشت
##کێت
##ڵەتی
##فین
##RT
بەرینی
دووانە
عەربەت
گۆرەپان
خستەوە
مەسەلەیەک
سوننه
بونەتەوە
خەمێکی
تێکەڵکردنی
يەکتەرەکانی
نەخشەیەکی
گورزێکی
دەبەسترێت
داخوازییە
ماددەیە
يینسانە
لێکۆلینەوە
نەقیبی
KNN
لالی
وخو
ياریش
##ەنێو
خۆدەر
##وونەوەی
کارلێک
##کەرێکی
ڕەحیمی
کرێکارە
##سپیر
خەیات
گومانەوە
0750
نیشتەجێکردن
يیشکردن
پێشکەوتنێکی
گۆشەیەکی
وادەزان
دۆڕاندن
##ورکیا
موزەف
هەڵکشانی
کۆسۆڤ
aspx
تەد
هیش
ژاک
یشی
##ردان
خۆجێ
هاوڕی
زۆرترە
نوین
يەوەدایە
کەمپەی
لەبەرد
لەسەدی
باوکت
شکستە
تازەدا
چینەکانی
جەماوەرەکەی
نرخێک
گومرگ
بگۆڕین
لەيایندەیەکی
دەڕوانێتە
بۆخۆم
صحیح
##واو
##ادة
##ەسازیی
داهێنەری
لایەنەوە
وێناکردنی
بەرنامەکەی
دەکردم
سروشتیی
کونس
سووتاوە
##سکیل
سەربەستیی
عیساوی
لەبەڕێوەبەر
یل
##24
##ەبردن
دادا
##هێنانە
دەسگیر
ببەز
##اندنیان
دڵداری
پەیوەندارەکان
ڕوفاتی
يیسلامیان
دکتۆری
بەگفتوگ
هەڕەشه
تۆمەتباران
خوڵقاند
دەستکاریکردنی
بەلاڤکریە
بروسکەی
سپۆرتینگ
لەيەڵمانیا
بێستون
##کرو
دەهێنین
##ییەتێکی
##ەبو
پێبکەین
بکەر
##ێزەی
هاتم
ياراز
گەرانەوە
تەموزی
توخوا
فرەڕ
درێژەیان
بەیاسای
##ناکرێت
لیستەکە
بەقەزای
ونبوو
تاقەتی
بناسێت
1920
يەلجەز
يیتلاع
کاندا
##ضا
##یانێکی
ڕۆژانەش
هەوکردنی
پێوه
مۆمی
لەچارەسەرکردنی
هەڕەشەیە
##کریم
تابڵ
هاوسەرەکەم
##اڤێ
وەرزشوان
لێوەردە
بەلاڤکرن
گۆشەگیر
تەلەڤزیۆن
هەڵدەبژێرن
ژلایێ
هەد
##نێت
##فۆرد
##چۆ
دوێ
پێشەوەو
زیو
یاساش
ياوڕی
قسەکەی
هێرشەی
ڕێزمان
نادەست
خوێندکارێکی
دێموکراتییەکان
3000
لەبەردەستدایە
يەلبومه
نادادپەروەر
لۆز
ڕشت
کەسەوە
چیاکان
بریتیه
سەمفۆنی
نارازی
956
نێودەوڵەتییە
يۆرگان
لەسێدارەد
يامادەکارییەکانی
ڕۆبۆت
ویکیلیکس
هەڤپەێڤین
يانی
کرین
##ەوترێت
کارگەیەکی
ناڕۆ
لەهێزەکانی
نەگرێت
گەرووی
بڕیارانەی
حکوومەتێکی
حوسین
پارتێک
ڕاپۆرتەکانی
پۆستەر
خۆپیشاندانەکەی
هێجگار
لەجەنگی
##ions
خولەکێک
چەواشەکار
بەرگێکی
پیاوسالاریی
نادادپەروەری
فتوای
لەڕێوڕەسم
تەنفیزی
قیت
مڵ
ڕەی
کەدا
پێڕەو
بکەوێ
ڕاهێنەرانی
خۆیدایە
چاونەت
جاروبار
گەلەکەیان
منداڵەکەت
بڕوامان
کوڕێک
بەستراوەتەوە
##ناکەن
نیگەرانە
خۆشەویستەکەی
ناڵێن
ماددەیەکی
جومگە
خوشکە
لێتان
بەکۆمەڵی
ڕج
ڤینی
##ایمی
دیتن
دەروات
بهێڵن
##یشەی
لەمەدا
کاتانەدا
ساڵڕۆژی
بڵێس
کوردیەکانی
بەشداریکردنیان
داعشەکان
حوکمە
ژیژ
يۆکس
ساتێکی
وشکانی
داواشیکرد
کاولکاری
مروڤ
بەرخۆدان
يازەربایجان
حورمەتی
##86
##ەکاتی
بەرەگەز
ڕاڤە
ڕێڕەو
ياسودە
بوونمان
دروستکرا
##داوای
چیکی
هەوڵبدەن
يازادانەی
شانسی
فرانسی
ناهەقی
هێمنانە
جلال
دەروونناس
خراوەته
بەردەرەش
پەردەپۆش
کۆچبەرانی
جێبەجێنەکردنی
سانسۆڕ
يەتوانێ
پاڵەپەستۆی
##نەدانی
##وویانه
هەوایەکی
ڕووماڵ
##وتنەوەی
وڵاتەکەم
میه
پێویستییان
مافپەروەر
لەناوەندی
ڕەوەند
پلەیەک
پیرەمەگر
مەترسیەوە
هۆکارێکە
بەشداربووەکانی
دۆرا
تێکشکانی
دیمانەیەکی
چەرخی
لەکۆتایدا
##ڤەی
##ارس
کەگو
کوال
##یرۆک
##مانەکانی
دوی
##ۆند
پەروین
ڕابردووە
دەیگێڕ
سەیارە
لەتەل
بچم
بەڕێوەبەرە
دەسەلاتدارانی
سەیریان
بۆچوونەکان
چووین
قاعیدەو
غەززە
دارە
لۆر
##ian
ڕۆز
پێشەک
هەرێمەکەمان
لەبڕ
میم
لەبەرز
نەگوت
ناکام
چیلی
چالاکانە
سەربازیدا
بدەنێ
##ory
هیواخواز
مەولانا
فاشیستی
سیاسەتمەداران
دۆران
برسیەتی
يەفسانەیی
سامەرايی
Kurd
دلێمی
قەزایی
ڕەع
گڵاو
##ژنی
##لاق
##يۆ
##95
هەرلەو
خۆدز
لەوکاتەوە
پەرلەم
##وبون
بەتاوان
نامەکە
خولەدا
چەکدارانە
سونەتی
پشکا
يەمریکایی
بازاڕێکی
پەلکێش
درۆو
هەڵسەنگاند
ڕوبەڕووی
بێهێز
يیستحقاقی
دون
ژەنگ
##ld
##ارێتەوە
##ەنسا
##سیە
دەستێک
عێراقن
بکاته
گەورەکە
تێگە
داننان
لێکن
وتارەدا
126
هەڵبژاردنەکەی
هونەرێکی
##ووسینی
داگیرکردووە
هەنگاوانە
سایتە
کۆمەڵگاکان
##atch
بگەڕێین
دەزگاکان
ساتەدا
نهۆمی
چەواشەکاریی
بەرێوەدەچن
يۆقرەیی
دەخستە
بتراز
تڕ
سیخ
يەرکان
يەدهەم
نایجیریا
هەفتەدا
##وپێکی
هەشتاکانی
گومانلێک
دڕندەی
ڕاشیگەیاندووە
هەناسەیەکی
تەقینەوەکان
موجام
بروسکەیەکی
يیتیحادی
شەت
##ڕەوەی
##ستەر
##ازەکانی
##ۆشین
تیڤ
بەغدایە
دیمەشقی
پارێزگایەک
تێپەڕاند
دەورەی
##news
ياوارەو
سەرسوڕهێنەر
لەمبارەوە
بەبارودۆخی
واپ
##اوێز
##راست
موزای
ياودێر
بەدرو
دڵنەو
##خانەیە
گرتۆت
ڕەنگین
##ۆزیتەوە
مەزەندە
دانیشتووە
شێعرەکە
##ەدەرەوە
کافکا
ڕەنجدەر
کۆمپیوتەری
غەمبار
بەبەشێک
ڕووناکبیران
مومکین
بێوەژن
سوودوەرگرتن
##نوور
##هیم
##بەیەک
نیکۆ
##بوور
بەپیر
نەستی
لیم
113
نابیت
يەدەم
ڕەخنه
بەردباران
يێسقان
هانای
کۆبونەوەکانی
لەوبارەوە
هەڤپەێڤینێکدا
جیل
ژنیش
##ژێن
بەژێر
##ێرو
فەرام
بدایە
بەخۆڕ
موسوڵ
نەهێل
کوژراوی
بالەی
کۆڵانەکانی
نێودەوڵەتییەکانی
تراژ
ڕێورەسمه
نێگەتیڤی
پۆشاک
هەڵپەسێردراوەکانی
67972
لەسوید
##بۆن
##بەگ
##ڤەری
##ریی
سەراپای
##اڵکردنی
##ەوەیەو
##ەدەبی
ڕاهات
##رینگ
بنوێنن
يابوورین
بەلانی
چالاکانی
کەنارەکانی
دنیاش
چاکەی
بەسایتی
جوێن
گۆڕانکارییەک
واقعی
تارمای
قاهیره
بیکەنە
لاهای
##ەحمەت
جادەی
شەکەت
##ێگ
يەپری
##اییەک
دەباتەوە
##گرەی
لەویل
##نامەکانی
پێویستم
کرێن
ڕاستییەک
هەڵوێ
يەزانین
دکتاتۆری
هەفتانەی
##ومەرجی
پاسکیل
زانکۆیە
يۆباڵی
ياسمانییەکانی
مینبەر
میوەی
##ەکەشیدا
داویەتی
بۆشایییەکی
##ناندۆ
جاه
##وشک
##ain
##NT
بەزان
کەزیاتر
بکریت
بوجەی
ساڵانێک
بەداو
بەدەستوور
شەوو
دکتۆرای
ڕۆژنامەنووسیی
کریە
نەیانهێشت
يازادیخوازانی
بناسرێت
##ەسیب
يەندازەیەک
بفرۆشێت
ڕێم
##نیر
##امێکی
##یرادەی
داخی
هەوری
پرۆف
##کردنەوەیان
تیي
بەيەن
تەواوکاری
بەوەف
دەزانرێت
##ۆڤەر
ياییندە
زیندوویی
زاڵبوونی
وەرچەرخانی
تەختەی
نۆزدە
يیدانەکردنی
بەبایەخەوە
موزەففەر
ساف
شالی
مد
##87
يەع
نالیا
ناوچەو
لەپر
وتارو
ولاتدا
تۆمەتانەی
دادگادا
بەڵێنانەی
وتارێکدا
يەنجومەنەکانی
وەسفکردو
955
کادیرانی
شاکەلی
بۆندێکی
حەڤدە
پـێشـووی
دابمەزرێنن
جوب
پەنگ
##تاندا
##بۆر
##ڕەی
##ge
کەلی
##ەتیف
هەڵید
##ەساڵ
##ەسوور
زۆربە
هەڵبژاردنیش
کۆنگ
تاکتی
عەرەف
ياماژەیکرد
کاکا
دامەزراندووە
##ۆچون
ولاتان
بانکەکانی
تابت
سەرهەڵداو
کەتایبەت
يایدیای
پاسەوانانی
لەلیژنەی
دايەن
البقرة
کەهەمیشە
ڤەن
##رەجی
##اقوڵ
##ەهاب
##ەرمەندی
ببمە
بەرهەمێ
پڕۆژانە
پیاوەتی
مەترسیەکی
پـێو
ياسمانییەکان
نارەز
بەبەرپرسی
لاپەڕەیەکی
لەمانەش
ڕیکخراو
خەسڵەتە
هەڵدەستن
دابونەریتی
چوە
ەکەی
##هۆک
جیب
ڕوود
ڕایتس
دانەوە
يەنس
دیاریکردووە
شۆڕشدا
نەهێڵێت
کۆببێتەوە
خواروو
نەیاران
باریک
سەگی
ملازم
لەجاران
انت
نۆبڵی
پاڵپشتیکردنی
سەرشان
میوانانی
حەرامە
سەلماندووە
کۆنسێرتێکی
بەدەگمەن
تەرازووی
قبول
نەڵ
##ناخ
##شێتەوە
##ەکرێتەوە
بۆق
##ێیەک
لەسەري
ڕووەوه
##ڵاتانی
هیچکات
مرۆییە
لەبەرواری
##ەپار
الناس
بەيازاد
پارێزگاکاندا
پێشکەشکاری
نەتەوەییەوە
بچنه
عەبدولو
توێژەکان
عیراقیە
دەروازەیەکی
بیرکردنەوەیەکی
نیشانەیەکی
ڕاگەیەنراوێکی
لەرۆژانی
جەنابتان
گۆشەگیری
حەقیقی
سکۆتلەندا
ڕێـکخراوی
لەخولەکی
Ar
Apr
اول
زوه
ووز
ەة
##اڵای
ياویان
ڕاگەیاندنەی
103
نمرەی
ڕزگارمان
دەڕوانی
تێپەڕینی
دۆسیە
محێدین
بژیم
کۆبونەوەکەی
بەدڵنیایی
مقاو
پاڵەوانێتییه
پـشـتیوانی
بیستی
خاسی
زات
##گۆن
##ێکەوت
##ریبی
##ستیە
دەبەخشن
##ۆندی
ڕووین
##کرنەوەی
فیڕۆ
ڕۆژنامەنووسێکی
چاپەمەن
ڕاپۆرتەکان
بۆمن
زووانە
پیرۆزەکانی
گەشتەکەی
دامەزراوەکان
قوتابخانه
سەرمایەداریدا
يەمانەشدا
چاودێرێکی
##بکرێنەوە
سایکۆلۆژ
دەرهاویشتەی
مەها
هال
##ستۆی
بۆدا
##ازاڕ
یەکێکیش
لەوانیش
فەرحان
يازادیان
نووست
بارزانیش
نیشتمانیدا
يەزانێت
جوانکردنی
پرسیارکردن
يامادەبێت
زەردی
خەرمان
وەبەرهێنەرانی
##گۆڕان
بچووکە
نەوەیەک
سێکسیی
فلمی
##rev
##ube
##شەمه
هەڵدەبژێرێت
شارباژ
تێری
وخۆ
ڕد
یع
##تسکی
گوه
تێپەری
دانمارکی
##پەڕاندنی
بەلەم
لەڕاپۆرت
تەقه
شەهیدبوون
نەدەهات
گەیشتمە
برینداربون
شوێنیان
يیرشادی
بگرێتەبەر
بدەینە
يەندازە
جیاجیادا
هەموویانەوە
سەرپشک
فایلی
هەڵکشان
لەپاڵەوان
ڕەيووف
هۆلەندا
پەرەگراف
دۆزەخی
يینتیما
زامنکردنی
بەرژوەندی
بێڕێزی
بریاردرا
هول
پەندی
##ڤیت
يەووڵات
کەدەر
پێدەدەن
##انەى
دەستێوەردان
##ڕیوە
کەمینەی
تراز
پلەد
ڕیب
##ێنێتەوەو
##ییانەیە
عەرەبیەکان
بەدیو
کۆبوونەوەیەکدا
بەندایەتی
ویستویەتی
عبدول
بێدەنگیی
یۆنایتد
لەيەنجامدانی
توخم
بەربەرەکانی
تەریق
بەيەزموونی
پریمەر
ڕیکۆرد
کتی
##سـی
دەستگیرد
##دیت
هاوکاتە
##هاتە
بەتەم
ژنەکان
ناکەیت
بەلاڕێدا
تونسی
شوێنەکان
پیشەگەر
کلدان
دەسەلمێنن
ڕاگەیاندندا
نیوێک
بلباو
داراییەوە
دەقێک
لەخۆمان
بەلایەوە
برادەرە
يیدارییەکانی
گردبونەوەی
ڕێککەوتنامەی
1946
هندەک
هاوشێوەکانی
بەدبەخت
ددانی
##پارتی
سیکۆل
##ەیەکگرت
لەکۆل
مرۆڤدۆست
هەوڵبدات
تێکهەڵ
128
بەغد
مەرگە
##ونیان
يەیەوێت
دیمۆگرافی
سالانەی
دەزگایەک
ژوورێکی
زۆرباش
ڕاگەیەنراوی
يیماندار
لەبازاڕی
سەرپەرشت
چیتان
فۆرمە
يەکتەرانی
گەورەبەرپرسانی
نگی
پول
##هۆی
##یەدا
##ياخ
##af
##چانی
##ێرەدا
خۆوە
##ەهار
ناهێن
##وتانە
چاوەکانت
مندالانی
دەید
دەنرخ
##ەکەمانەوە
کامەیە
هونەرەکانی
يامانجێک
توندیان
ڕاپۆرتەکه
کۆمەلایەتیی
فەرهەنگیی
بیروڕاو
بەرمیلێک
پاڵاوت
ڕاپـۆرتێـکی
نەدیوە
يەمستردام
تەکان
دهێن
##کوک
##شینە
##چێو
##ەویی
کوێیە
بەرەب
کردۆتەوەو
##اردنەوەی
لەمباری
نەکراوەو
دانس
دەربچن
هەوڵیش
122
مەرد
##ەعید
میرنشینی
توندرەو
تایفە
ڕۆیشتووە
نیشاندەدات
سارتەر
ماستاو
ودەز
موچەو
لەوکاتەی
ڕیتم
زەبروزەنگ
تس
جۆل
ڕضی
##کەیان
##ros
##RE
پێڵاوی
##ورسی
بەهێم
تیمە
يەدرێت
نایاتەوە
کۆبوونەوەو
فەلسەفەو
ژیاری
##احەتی
يارامە
بەرپرسیارن
پەڕینەوە
دیدارەکە
يەڤە
ياڵۆزییەکانی
بەهاوڕێی
يەنجومەنێکی
ڕاپـۆرتی
پێوەندییە
جوريەتی
##rticle
يەتلەتیکۆمەدرید
سەرەدان
خۆتی
کۆمۆن
##رۆشی
نێوەدا
هێناون
ياشـتی
دایەل
قۆناغەکە
دهێته
لێدوانێک
ڕوونیکردۆتەوە
##ۆلۆژیا
باشیش
خوداى
دەتوانێ
جەختیشیکردەوە
کەدەیان
هۆلۆک
دەستپێشخەریی
تۆڵەسەندنەوە
ڕیچارد
ژەم
##دون
يیوە
چاوخش
ڕۆژنامەکه
باسەکە
##تەرە
نەخۆشییەکە
دەچینە
درامایە
##ith
بەتواناو
ڕەخساوە
وەبیرهێنانەوەیە
بەشمەین
هووشەنگ
دیان
قڵ
نایەوە
##دەیە
##عین
بەرداری
##ەداین
بکڕن
##انەیه
هەڵگر
بنبەست
پێوەیە
يەرکەی
پێناکرێت
يەکەنەوە
منداڵه
دابەشدەکرێت
ڕاوچی
سوننەکانی
دەچنەوە
##ork
زیندانیان
مەلەکی
نیگەرانییە
داواکارییەکان
شەپۆڵ
موتەکی
پراکتیزەکردنی
مۆڵەتیان
هەڵکەندنی
لەدنیادا
سڕی
##نسا
##دیث
##ەهید
وڵاتەکانیان
نەمزانی
گرنگیەکی
##ییەکدا
لەکاتێک
چەمکەکانی
شاندەکە
بنیاتی
کەڵەش
کارەساتەکە
دواکەوتوویی
دێنه
دەستبەسەردا
لەپەرلەماندا
ژێردەستی
نیهاد
بێوی
زبر
##ستۆن
کەهەڵ
##ێرێتە
دانپیان
##فرانسی
دیکارت
نەدەزانی
سەربەخۆکان
هیومان
هەواڵەکەی
گوڵێکی
وابڕی
زاڵبوون
لقەکانی
فەرماندەیەکی
سەرنجڕاک
ياسودەیی
انە
حەجی
عق
هەکاری
گالی
گرافی
##ۆڕینی
##گانەی
##KP
##ph
بەگەر
##ەنیا
پێشبردنی
وەزاری
درایە
##ارانەش
خوێندنیان
دەسەڵاتدارە
##پەڕێت
هێشتووە
تەمەنێک
مەیسەر
##esh
سەرکەت
دەستوورێکی
بەدوایدا
سەرشەقامی
##گیردرێن
کیشەی
گەوج
خەندان
قەیسەری
بەرچاوە
کیلۆگرام
کازاخ
لەباکووری
ڕێژیمی
يوتومبێل
وەبیرهێنانەوەیه
چاوەڕواندەکرێت
زێڕی
##فن
##ستیی
##ەتى
يەمنیش
دیڤید
دیجیت
##ۆکدا
کاربکەین
پەره
دژبە
تەواومان
دارشتنی
لاوێکی
نەخۆشە
لێکۆڵینەوەو
لەجێگای
کۆنەپارێز
##ەکێشانی
يیدارەدانی
##ڵەسی
لەپەیمان
تەزوو
بگەیەننە
سەرسوڕمانی
هێندەش
پاشتر
گەردونی
دێل
##ژان
##پای
##اسـت
##ەکانه
##ەلێکی
دیق
##اسیون
الام
لەپەنج
دڵێکی
وەزیراندا
دیاریکرا
##بیة
##خوازەکانی
132
ڕێزان
جوانەمەرگ
وەفاداری
بگەڕێمەوە
تێکۆشەرانی
دەخول
عەمر
دورست
يەوقافی
کرواتیا
چیمەنتۆ
الذی
تەحریر
ڕافیع
تەه
##اردە
بوەوە
لەباشترین
بکەنەوه
يامادەکر
ڕەوشەی
سێهەم
يازادیەکان
برێک
پەرلەمانیان
کۆنگرەکەدا
حەمام
بەگەلی
لێبکەین
##ەکانمانەوە
زەردە
ماندوون
يەمریکیەکان
لەپارێزگاکانی
میکانیزمێک
میحوەر
فۆتۆگرافەر
Inter
سەریهەڵدا
سەرگەردان
فاس
##بگرێت
سەرتی
سەروم
کۆمێدی
هاواریان
بەکام
نابینین
دەکەینەوه
175
دابەشکرد
لەچاوی
سزایەکی
بەیەکەوه
يیرانی
قەڵاد
تاقیگەی
کەمپەین
دەروازە
حەفتاکان
خەندەق
ڕاوەدوون
شاسوار
یق
##خەر
کردبوون
خویان
##کەف
نەبنە
کوردستانیی
ڕەوانه
پڕۆژانەی
توانایان
بردوە
کۆنفراس
بریتیبوو
زەورا
يۆسلۆ
وەرگیراون
یونایتد
بێهی
جومعە
باندێکی
لەباکوری
يەسکەندەری
عەبدولڕەززاق
چاخ
گەز
##ەتاو
یەکدەنگی
يازاو
يامادەکراو
لەيین
بڕوانێت
##ێڵم
پیاودا
دەخرێنە
ڕۆژنامەنووسێک
گیرس
گوندێک
نەفی
زەمانە
دراماکە
بمانەوێ
ناسیونالیزم
شارەزاییەکی
خەزن
يەپڵ
ناوەکییەکەی
پێشبرکێی
قامیشلۆ
مەسيول
بلا
وێب
وڵە
##ڤاتی
هەڵگرن
جیۆپۆل
نەبڕ
##مەرگەی
گوتبوو
لێدانێکی
باڵەکانی
ڕیو
گوناهی
تەقییەوەو
بخەنه
ياینەکان
جاڕی
بکرێنە
قەواره
تەشری
دەبیتە
يەلیکس
لەوڵاتە
##بلی
##زر
##پان
هەڵگرتن
کاردۆ
بوری
بەرهەڤ
شۆڕشێک
ستراک
يیرۆ
کاندیدێکی
ناشای
بێبەری
هاتوونەته
دەژیم
کەموکوڕییەکانی
دەستتێوەردانی
گرتووخانەی
دەسکەوتەکانی
خاشاک
چامپیۆنس
lt
حات
سانا
لێنی
پتری
کیر
گەد
##کەکە
##لب
##فەهان
##ەوەیەکی
هەڵەیەک
هەڵنەب
##ورن
بەردەوامدەبێت
کەوتنەوە
کەوتۆتەوە
خراپەی
چەکداره
يامانجەکان
دوژمنە
جێبەجێیان
پارەیه
مێخ
والم
دەناسێنێت
نۆیەمی
يەحرار
تاووتو
یەکریزی
کەمپەینی
##بەخشی
##سێکی
##فۆرم
بەروب
کۆمێنت
کەماوەی
تواناکانیان
دووره
هێرشانە
بنیامین
پەیوەندییەکانیان
دابڕانی
هاوکارییەکانی
دەستورە
غەزە
ڕاگەهاندنێ
لەقەڵەمدا
ڕاڤەی
میراتگری
فس
هیی
هارم
##دیی
##ەتەو
سوێد
يازارێکی
پێکرا
بەسەرچووە
ببە
لەڕوو
دەمزانی
سوریە
##اقیعی
کورکی
کۆنترۆل
ڕوانگەیەکی
بوارێکدا
فەیلییەکان
دەريەنجامە
پێشوتر
يوردون
يۆپزسیۆن
ياسـمانی
تەنگی
کڕن
##وپی
##ژدانی
##جەت
##ڵێین
##ووتە
##ستێکی
کۆمید
دوعای
دەروەی
منال
##ەبەرچاو
مەبەستێک
ياگاداریی
دیارترینیان
فەرموون
بپارێزێ
گرووپه
ڕستەیە
دراوسێکان
ڤیدیۆی
بەرخودان
لەيەوروپ
سەرهەڵـداو
فوت
مەکی
گاندی
یاب
##ناز
##گەکاندا
##وري
##ەییەوە
داماڵ
ماڵەکان
جەمشید
هەنە
کامانەن
ياسایشەوە
تیرۆریستییەکانی
يایدیا
دیکتاتۆرە
عیشقی
فاتح
ناتەندروست
موجاهیدینی
دێنی
وکەس
يەکەی
کرینی
##ێنەرە
وەکالەت
يەوەین
بوونایە
درامی
##تورو
بارزانیدا
خێرخواز
ياساییکردنەوەی
ياشتبوونەوەی
کۆنفرانسێک
تەنگژە
ژوورەکەی
دووپاتیشیکردەوە
1957
پەیوەندییەکانمان
موکریانی
ناراستەوخۆ
حوشتر
جاڵ
مڕۆ
نکو
ڕات
##بەیان
##ەکراون
پێشدا
دەسـ
زاناو
پرسیارم
تەناز
يەڵتەرناتیڤ
موسڵی
مانگەکانی
تۆمارکردن
ياگاداریان
یارمەتیان
دەبنەوەو
دەسەلاتێکی
مۆڵگەی
بکوژرێت
خۆشبەخ
بۆندەکەی
لەکۆبوونەوەیەکی
نایانەوێ
بەخوێندنەوەی
يینجیل
فرەنسۆ
کەپێکهات
تۆکی
خاوە
##ناوە
##فة
##92
لەودیو
##دیە
دیاریدەکات
لاوەند
##انسە
يامانجەکانیان
پارتییەوە
سەفەوی
بخوێنینەوە
هاوپەیمانانی
سەرهەڵدەدات
شارستانییەتی
مردوون
دەناسێت
يیمتیازی
مووسا
نورەدین
کۆسپی
دست
##زاب
يەودیو
ناوخۆش
لەوەو
بەشەوە
سوهەی
بێتوان
کێشایەوە
سەربڕینی
بەبنەم
چۆنایەتی
دۆلاریان
سرودی
220
تیرۆرکردن
چەپەڵ
خۆشیدا
کاندیدکردنی
بۆناو
المج
سەرچاوەیه
ياڵۆزیی
کارەساتەکانی
يەردۆغ
کاروانێکی
وێستگەکانی
موتل
باجەکەی
نەگەیشتووە
بەناوبانگەکانی
کوێرانە
يیمتیازات
دەگوزەر
بەپەرۆش
اذا
فلیمی
لەکی
چاخی
##ەڵای
يەوێت
کوی
##تیڤی
##ەخم
دڵپاک
121
گوناح
توانایەک
برینەکانی
گەورەیه
توێژینەوەو
يەتڵەسی
خوێندنگەکان
بەچەک
وەزارەته
وەزارەتێک
جەستەیان
ياگرەکە
يیستر
تاقەت
لەوبارەیەشەوە
دەريەنجامێکی
خەلیفەی
لەکوێوە
##ێرمۆ
حوکوومەت
حاشاهەڵنە
يەمدواییەی
##نها
##اوەوە
هەڵەکان
بێنی
##یتان
یاریدا
حکومەتیان
بڕەکەی
##خانەکاندا
لێدوانانەی
ياستەدا
وەڵامدانەوە
بێدەر
کابینە
سامانه
تەندروستیان
بواردا
وێرانکاری
بۆردومانکردنی
ياوارەبوون
وەیسی
داویێ
بەلجیکی
تێدەچێت
یەعقوب
##دەوە
##عودی
##ةوة
##ەوردە
کۆدی
##ابەی
ڕاگرتن
##اردایە
##ێشێت
فەرز
##کرابێت
##اهر
ملیارێک
وەزیرێک
شکانی
##ern
##ایەکدا
فەرمانبەرە
هاوپەیمانێتیی
کۆڕێکی
مەمل
لێکۆلینەوەی
خۆڕسک
شەفیق
##لەکانی
##eg
##شتا
##ەسم
دەستن
لەوێن
کەسیی
##خوێنی
هێنرا
يیمکان
کەوچ
##ant
يەتنی
کۆبوونەوەیه
پڕۆژەیەی
لەدەستووری
عەبدوڵای
درۆیەکی
دەپاڕ
غەیب
this
سف
##زەیەک
##media
##AG
##ەکەمی
ناودەشتی
دەرکراوە
لەسەرمان
شارەو
میتر
تۆزی
##ەممەدی
تیای
يەمڕۆمان
يێوەیە
سەرماو
گروپەکە
پەنابردن
یارمەتیدان
دانیشتنەکان
ناکۆکیەکانی
سادەیە
بڕیاردەر
بپرسێت
قەلەم
##oci
پاڕانەوە
پێنەدراوە
بارگرژی
لەسێدارە
عاقڵ
ماردین
وێک
٣٠
##ورین
##دێ
گواردی
نیوکاس
دەکاتەوەو
##استە
القی
الکت
جێگۆڕ
ڕاستتر
##توکی
بەڕێوبەر
داناوه
يابڕوو
دەیکاتە
تونێل
ژیاننامەی
بەرزەکانی
پیشەو
وڵاتیش
بلێر
کۆمەڵگاش
نەوتیەکانی
ویلی
سوورن
هەریەکێک
کاربۆن
تۆمەتبارکردنی
ڕاکێشاوە
هاووڵاتییان
ماددەکانی
يارەزووەکانی
پاشەکشەیان
ڤاڵەنسیا
ماتماتیک
##بەخۆ
##قالی
##ەدەبات
ڕۆبەرت
##ەجێی
یاساکەی
نەگۆڕی
کۆتاییهات
دەیکەین
داماو
دیاریکرد
دەیانگرێتەوە
پێغەمبەرە
مەزنەکەی
دەوڵەمەندکردنی
پایسک
بەچاودێری
تایفەگەری
داقووق
ڕووبەڕوی
بەسەرکەوتوویی
چڕوپڕ
شیکاگۆ
شڕ
يەکەیت
کەکاری
##وخو
##ڤارا
##يەک
##چەیەکی
##طة
عێراقه
دووهەم
هیز
##وویە
شتێکیش
نابم
دایکت
دژوارە
بەرپرسانە
کتێبەی
هیوام
لێبگەڕ
بۆمباران
دراوەتێ
تۆمەتبارە
مورادی
ڕۆحێکی
لەپەرلەمانت
بەدەنگەوە
نەوەدەکان
کینگ
##ترۆ
##غە
کوردستانه
يەسیل
##الدۆ
لەبەرپرسانی
دەکەنەوه
دانەب
لەدژ
منداڵییەوە
##زگار
بەرزایی
شەهیدانە
خێزاندا
دواییه
يالو
نیشتەجێبون
بنچینە
وتووێژەکانی
ڕێنووس
فەراهەمکردنی
هەڤالانی
نەزاهه
ڕاهێنەرە
ڕەچەڵەک
دەڕواننە
Prev
خەندە
گه
##ەي
##حد
##82
##ەنشین
##شتەکانی
هەڵکردنی
دەبارێت
دەسنیشان
يەگەرەکان
میکان
تەوق
دانایی
بەلشەفی
کەوتمە
ولاتێک
بەخۆشی
سوتاندن
ياینده
پسپۆڕان
يیعلامی
دۆسییەی
حەمەدەمین
عامری
بزووتنەوەکە
لەکتێبی
فال
مم
##لەم
##گۆت
##حانە
##پس
##ەوز
##لیزی
##اردەکەن
کەماڵ
کەمیش
لەبەرچی
خوێنە
يەنجامدەدات
بڕگەیەکی
بەردەوامیان
تەقییەوە
مانگێکدا
##ical
شۆڕشگێڕانی
ياواتەکانی
دەژیا
غوربەت
سەوره
Next
قۆز
گەوەر
##our
لەنام
##بەرن
لەوەرگرتنی
لەکەش
ياسماندا
بەسەردەب
بەپڕۆژ
عەبدولا
خستنەوەی
ڕوونکردەوه
بخەم
هێرشەکان
سەیوان
کریستی
تێپەڕدەبێت
سەنگەرەکانی
تابلۆکانی
##بونیان
دڵسۆزانی
پایزە
مەشرو
حەوش
پۆڵا
1921
جڤاتا
داقوق
هەڵقوڵاوی
هاوتەریب
خران
##زەم
##97
##ەرانە
##امۆ
کەدوای
##ەتیە
منەت
ناوچەکەوە
نەکرێتەوە
جۆرو
خاڵس
کچەکان
گۆرانییەکان
باوەڕەی
خێرە
ڕزگاربوونی
لەپێنج
وەلاتی
نەریمان
هۆنگ
دەڤەرەکە
لەدیدارێکی
##بکرێ
مووشەک
يەستەنبوڵ
تادەگاتە
بگە
##هەمین
##ev
نیازە
ياوێکی
کرایه
بەبەه
سندی
دانیال
نەهرۆ
هاوکاریکردن
نەکردەوە
يێوەدا
بیستەمدا
بەچەکی
ياگرکەوتن
کەپێی
##لینگ
دەروازەیەک
تروسک
لەپرۆژ
حەدیس
يۆتۆمۆبیل
##وێنەرایەتی
June
فۆرد
لێز
##گێران
##ۆرێ
##ەریکا
202
دوشەممە
بوویەوە
ساڵەوە
یاساغ
لەبەرەکانی
الله
بەتاڵی
يەڵبەتە
ناسراوەو
خستبووە
گشتیش
بخەنەوە
يۆپۆزسیۆنێکی
وەزارەتێکی
ناردنە
وەرزشیی
گەڕانەوەیە
بیتوێن
دلشاد
دەڤەرێ
شەیدای
پاڵاوگەی
بەرزبۆتەوە
تراژیدیا
قۆرغ
ڕێکبخات
خۆپێشاندەران
سەرفراز
##بەخۆیی
هەتاهەتایی
عەبدولسەلام
بێنەوە
دێنەوە
ڕێست
ڕوباری
ڵات
##باسی
##ڤاڵ
##UK
##ێرەوە
ناویاندا
پێشڤە
هەرێمەی
چەنده
بووندا
ڕابوارد
جێگاو
پاشەر
تاوانەی
دەربرینی
دواى
هاوکاریمان
##ێندرێ
##ەکەتدا
کەباب
سنوورێکی
پەلامارد
ساختەکاریی
يوروپا
لافیت
وەحش
بڵاویانکردەوە
تامەزرۆی
موخابەراتی
عنە
##بڕینی
##ێرز
ناوشاری
##گەرە
بندەستی
بێینە
دەسپێک
کەرو
کراب
##ەبەرە
تیرە
گەلۆ
دەمویست
ژیانت
لەشفرۆش
##پەیمان
هیوایان
بچیتە
ڕوونیان
يینگڵ
لەجیهان
بیانوویەک
بەرهەڵستکاری
ڕێگەوبان
ڕێکدەخرێت
موزایەدە
BBC
بەکردنەوەی
خەمە
پرێ
چادر
کێک
##انان
يەوەتە
خوز
##دارو
چاوەکانم
زانایەکی
بریارەی
دەیڤید
خزمایەتی
هەنگوینی
گشتییەوە
##ارمەوە
دەوڵەتەکانی
نەوتەی
بەشێکه
پۆلیسیش
وەفدە
سەرنەکەوت
ڕیکلامی
قوتابخانەیەک
ڕاگەیەنراوە
قسەوباس
بسەلمێنن
بووژانەوەی
نەکەوێتە
سەتەلایت
ساند
قوژ
١٩
بەزم
بۆرس
##راوەتەوه
##مانا
بویە
سیاسیەکاندا
سەرۆکەکەی
سیاسین
بەدژی
هێندەک
عەبدی
بەلژی
بڕوانن
بارزانییەکان
145
گەیشتووه
کانەبی
جەنگەڵ
ڕژێمەکانی
شارەوانییەکانی
تێکستێکی
يیرادەو
سێرجیۆ
شەعب
حەتمی
هابرم
بیرورای
دەڕۆین
ينجا
لووتی
وص
پووک
گەنگ
##کارەی
حکوومی
پەرەپ
جیاوازییان
مادیی
چالاکییەکانیان
ڕەيی
پرۆژانە
کەيەوەش
گروپەکان
##هێشتا
لێوەش
دزیی
دۆستێکی
زەماوەند
سۆزانی
چۆپی
عوسمانییەکان
نەجمەدین
باپیری
لەشێوازی
لەزیادبوون
جوت
##راوەکەی
هەڵدانی
يیدو
بێجی
پێوەدی
پێکەوەیی
میکا
بیرمە
باشووردا
وەع
خوێندووەتەوە
##شنبیری
##ێنێتەوه
يازادییەوە
براکان
پیاوەکان
ستات
دنیاو
گەشەپێد
##ێـکه
ياشکرابوونی
پاکژ
هەژێن
جێگەیەکی
لەجێ
لەلێپرس
عەمبار
ڕفاند
ڕاگەیەندرا
##ەگەزەکان
کوردەواریدا
بەسیاسەتی
ژێدەر
هەیکەلی
تێروتەسەل
يینتەرناسیۆنال
داتا
##نەبوونی
##دس
##uk
بەدانی
بهات
بەڵک
کۆمەڵکوژیی
بوەتەوە
دواییانە
بەتاوانی
جێیان
دەمڕاستی
پەیامەی
يامانجەی
خەلەف
سەرەکیان
زەواج
هاوشان
حەقیقەتە
کیلۆمەتری
پرۆگرامەکانی
هەژموون
دایناوە
کەلەپووری
ماڵپەڕە
بنەڕەتییەکانی
لەوبارەوه
##هاشمی
AKP
شینی
##تون
##ەکەوەو
لەژمارە
دەستان
کەدەی
##ێنسی
##ەخات
چەندێک
##وتار
مرۆڤن
##زانیاری
کاتیک
نییەه
##کارییەکان
##کەرو
دانیشتنە
دکتۆرە
بەدیموکراسی
بودجەیەی
1964
ڕاسپاردە
قوبرس
تەقیوەتەوە
قاڵب
جڵەو
بایکۆتکردنی
ناڕازین
زهنی
##دارەی
##اڵا
لەواقیع
نیەتی
هاتۆت
لەبەکارهێنانی
دروستکەری
یاریەکانی
دەتەوێ
گوتانەی
يینش
##بەیانی
ناسرا
بڕیارانە
زیندەب
مالک
##دەکاتەوەو
يەلعەرەب
میلیش
ناکۆکەکان
جگەرەکێشان
بڕوانامە
ستراتیژێکی
هاوینەه
فۆلکلۆر
بەرخۆدانی
دهۆکیش
خێوەت
دزە
یدا
##اڵێو
خۆێند
دەردەه
يازەر
پێکە
بارەوه
لەبەردەر
بەوانەی
دەدز
لەڕووداو
فره
هۆکارو
1400
يیماژ
هاوپەیمانە
شکور
دەرەوەش
حسێنی
خۆتدا
نرخەکان
##itle
وجود
يەتۆمیی
ڕادیکال
شەراکەت
پورتوگالی
ڤێتنام
سۆنگەیەوە
لەيەفغانستان
لەدەوروبەری
دیی
زاتە
زیانە
نغ
##ەترە
سەروبەندی
##ەبنەوە
گوژم
پێشیان
##اڵیا
جیایە
بەڕە
##ەلیک
لەکۆش
پاشەڕۆژ
وەغ
درێژتر
##افیز
نوێیەکانی
پێویستیەکی
##ابیۆ
نەتەوەییمان
ڕەشنووس
بەگەل
دەسەڵاتدارەکان
وهەموو
جەستەیەکی
کۆچکردنی
##نداڵی
لەفڕۆک
فەیلەقی
هەفتی
##يەوسەت
کۆپییەکی
ڕۆژگارێک
دوکەڵ
حەمەساڵح
Mar
اهل
تومار
##وەتەوه
##اڵەت
##ێمبەری
دەبەم
داخو
##ەقڵی
##ێداوی
مرۆڤەکاندا
يۆزب
دیکەو
بەدەستە
پیاوه
کامکاران
شتێکمان
پاسەپ
دەخوارد
بەرێوەچوون
لێکردوون
سوپاسگوزاری
گرێبەستەکانی
1959
دیموکراتیی
نوقمی
گفتووگۆ
im
##گەم
##پۆر
خۆنووسین
##ەلسەف
خوراف
##ێژە
لەسەردەستی
نیق
تاج
سەرۆکێک
##ۆنین
بباتە
درکی
داهاتەکانی
وەزیرێکی
پیرانی
پڕۆژەیه
پزیشکە
نەزۆک
المن
تیرۆریستیی
پارچەپار
سامانێکی
ڕەوشا
نەتوانرا
درکاندی
##لەمانت
یەدەگ
لەسەرکردایەتی
پڕبایەخ
مەملەکەتی
ڕۆژنامەنڤیسێن
جاڵج
زەنجیر
##ارتن
##ریة
##ەبار
##یانکرد
پێشەوای
##کەوتوو
يەگەربێت
هەوڵەکانمان
123
نابینیت
بەشداریم
مادده
##بیح
گشتگیری
حەسرەت
بۆیەشە
سازدەکات
دکتاتۆر
سەیرم
گواستنەوەو
خۆشیەوه
ویستوویەتی
زرار
1923
لەهەمووی
کەرەستەیەکی
داوادەکات
بەوهۆیەوە
بایە
سێوی
##نن
##UR
##ایة
ڕاج
##گەردانی
لایەکەی
بیرمەندی
کوردستانییە
عەرب
##وەرۆی
يینتم
گەلەوە
دەستیکرد
واي
مانگانه
خراپیی
پرسیارانەی
خەوش
بڵاویکردەوه
خەڵاتێکی
گڵۆب
کەمینەکان
خۆبەخشانە
پاڵنەری
حەتمەن
باوەیس
##مر
بەرمیلی
##ێکیتر
دوهەم
پێشێلی
لەسەرم
نەتوانین
ياباد
دەیڤد
مەبەسـتی
ڕێکخراوا
چاودێریکردن
ولاتانەی
##دۆستی
عەلەو
نێرینە
فەلەستینییەکان
نالەبار
1387
فۆکۆ
دووکەڵ
سایکۆلۆجی
خیتافی
قەرەیلان
پسوڵ
##ژێمی
بۆلی
##کردایە
##روس
کاراو
چونەتە
باروود
بەوەکردووە
ڕێکخەرانی
بەپەلەی
باشوورو
هێناوەتەوە
نەداوه
نەداوەتەوە
دەیانتوانی
چالاکییەکان
هیوایەکی
دەستگیرکراوەکان
پرسەکان
دڵنیای
کەیفی
دەسەلاتەکانی
سەپاندووە
مەزهەر
ياکامەکانی
هاوڵاتییەکی
يیمزایان
کێشمەکێشی
یەکلاکەرەوەی
لەجۆرەکان
بلیم
چییەو
ڕێد
##دەکان
##سازە
##فس
##ies
يازایانە
حیزبییەکان
نەسی
داناو
بەلەد
يەلێکس
دنیایی
لەرێ
هەبووایە
بەگشت
شتێکم
بەیارمەتی
سنوورییەکان
ياینیەکان
حاجیانی
مێهر
خەرجییەکانی
دزیکردن
یەکێتیە
##ages
سەردانەیدا
لەوەزارەت
حل
وسی
وپێک
چکۆل
##ەنانەت
##ەڵڵا
##ەڕۆژی
هێزەوە
کۆنەکەی
باسێک
يەلتەرناتیڤ
پیاواندا
ستادی
165
پێویستیش
لەتۆم
يەنفالکردنی
گەڵاڵی
جەستەم
لایەکیان
سیمۆن
بەردێک
حساباتی
يەستێرەیەکی
يینگلیزەکان
ناوبژیوانانی
زەیتون
نامرۆڤانە
يۆنلاین
##حل
##ەرج
دیش
يیمانی
بەشخو
لایەنەکاندا
درەخش
بابەک
يەلبانی
ژیانا
جیهانیان
پشتە
ساڵەح
وەزارەتەکەیان
کوشتنیان
بڵاویکردۆتەوه
هەورەها
پێشوازیکردن
زیندووکردنەوەی
میوانەکان
چەواشەکردنی
خەزێنەی
براکەم
گوێڕایەڵ
سانتیاگۆ
شکۆمەندی
گیل
##ib
##ەکەتی
کەدەت
کەخۆیان
##ەڕۆیی
ناوەخۆ
لەمام
گرەوی
بەهجەت
##ۆمەوە
لەنوێ
هێزەکەی
لەبێ
پارێزی
جۆرجیا
##دەکەوێ
ڕاستییەکانی
تێکەل
##کۆس
لێرەدایە
جەللاد
يەسەسەر
ترساندن
حوکمڕ
کارگەکان
دەرچوی
شەرمە
ڕێوشوێنە
##خەڵک
زەیتی
خۆسوت
٢٠٠
کاپیتالیزم
شێک
##وەست
##ژوو
##احمد
##خانەوە
##چەکە
بەروار
##اردەکرێت
هیم
ڕێکاری
کاتەوەی
يەگەرە
ڕێیان
بەکەمی
بەپارتی
دەربکرێت
ژیانێک
هێرشانەی
پێکهاته
نەمدەزانی
لەچۆنیەتی
240
جیاوازیە
لەعیراقی
داخران
بیانەوێ
ڕەخنەیە
سیستەمێک
جێگیرە
##olog
جووتیارانی
بوخاری
ساتەوەختی
بەيەنجامدانی
قەشەنگ
يەفریقای
تێناگەم
سولەیمانی
سامەڕايی
هاوڕێکانم
مەنج
##ok
##چیل
بکەوە
بوغ
کەمالی
شارەکاندا
لیمۆ
دەمەو
ڕوونشتن
یارییان
لەراپۆرت
وەرزەدا
داخرا
دەستپاکی
يەزموونەی
يیستخبار
نوسەرانی
1966
فەرهەنگە
دەورانی
دۆڕاند
میسرییەکان
دێموکراسییەت
بێياگا
يەنتۆنیۆ
ماکس
خوراسان
ووڵاتی
بمێنێتەوەو
پێداون
تامەزرۆ
مامەیاره
دۆرتمۆند
پەڵە
##تەک
##In
##ەراو
ناوماڵی
دەرم
کارێن
##ێشن
پێکەنینی
کوردیمان
بەرزیان
دژیان
پشتەوەی
دەنووسی
بەلامەوە
137
هونەردا
سیاسەتێک
ڕەشەبا
چینێک
سترات
بەوەشداوە
هەڵدێر
برادەران
يیدارییەکان
بۆرژوایی
پەنابەرانە
ياشنابوون
پشیلە
دەیخاتە
بەرپـرسی
مایەپ
لەدۆخێکی
مانشێتی
جەس
عالی
##وودەی
##کیدا
گرێک
چونک
##زمدا
لەيێو
بەبۆچونی
گەرایەوه
بازگەی
##ووتنەوەی
مەسەله
شکڵ
لەتەنیشت
ڕاستیەی
چەکدارێک
کۆبوونەوەیان
خراب
کاسۆلی
تیۆریی
دیپلۆماتی
دەستدرێژیی
لالش
تێزە
جابر
شکات
مێل
##واق
##گاکاندا
##ەخست
نەبنەوە
##وورەی
زۆریشیان
يەلکت
##ەگەلی
سازبکرێت
عەبدولف
چالاکیێن
گرووپێک
داخاز
سەردانەکە
سووربوونی
مورت
کەناڵه
کۆمۆنیزمی
نەفەس
سەرتاپا
خۆرياوایی
بۆرژوا
پـێشـک
فەزیل
بەنیازین
دیرۆک
دەروونناسی
يەوەنده
دیفاک
هەوڵیانداوە
کۆچبەران
زیادەڕەوی
مانیان
مەقامی
##گور
##ڕەوانی
##عەب
##ەناب
کەهێشتا
##ەدرا
دوولایەن
##ەقڵ
شارەکەمان
تەواویی
کەنال
کێشەیەی
گەرماو
کۆنگرەدا
ڕادەگرێت
مەسەلانە
عەبدوللا
ڕاستەقینه
بازاڕدا
نرخە
کشتوکاڵییەکان
یەکتریدا
1962
کورسییەکان
يۆجال
گۆڤارەکە
ڕۆستەمی
یەزید
زیندەبەچ
بترس
ساسانی
ڤید
##دابی
بەرەکەت
##رێتەوه
##کردنیش
کەمدەکاتەوە
شارەکەم
بارت
بەکۆتا
چاولێک
دەنگانەی
##گیرانە
زیاتره
تەوەرەی
نابات
لەوەلامی
قەرەج
پـێویست
گیران
يەمەریکاوه
ياشتییانە
تیرۆریستیەکان
مەرگەسات
قاعیدەی
بێوێن
لەرۆژياوای
هندی
لەنیوەی
##ـدا
کوردییان
هەمواری
پێوەرێکی
يابڕ
بڕوانینە
کەله
يەنجامیدا
پێماند
تەرح
کلک
##بداتەوە
ڕاگەیاندنێکی
هاوبەشیی
##وێنەرانی
جێبەجێکردنیان
بێبنەم
تیپێکی
ڕوخسار
زێدەتر
ڕێوشوێنەکانی
ناڕەزایەتیی
میخايیل
نع
##گەڵ
##پاکی
##ییەیە
##کردبۆوە
شیکاریی
هەوڵبدەین
نابنە
سەرکردەیەک
ستریت
زمانى
ڕێکخراوانەی
قوربانیەکانی
##امانج
سەرمایەو
نێودەوڵەتیش
لەبەردەمدا
شکستێکی
لەبەغداو
فێستیڤاڵە
هاووڵاتییە
فەرامۆشکردنی
کڕیوە
بەنمونە
شەڕڤانانی
نڤیسەرێن
بەگۆڕان
بۆمبرێژکراو
از
حالەتی
هوم
سەردەکەوێت
يەهێن
کۆمسی
دوات
##ۆنەوە
دەستوردا
##ارەیەک
لەهەریەک
وێنەکە
سینا
دارەکان
گەشەو
ياڵمان
پرچی
سەردەمێکدا
بانکە
بەداعش
بلاوبوونەوەی
ماشێن
بگوازێتەوە
بشارێتەوە
قوتی
نێژ
##دران
لەلایان
لەهی
ڕۆژنامه
لەشەقامی
دووەمە
چارەیەکی
ڕادەیە
کەوابێت
واین
شەرە
ڕاستیەکەی
کلدانی
دامەزرانی
گەورەتری
گرفتانە
سەنتەرە
کورسییە
ڕەخساند
ساغکردنەوەی
نەکەوتووە
تێبپەڕێت
بپۆش
ساي
يارد
##سۆنی
##سلام
##فراوان
##war
##up
بەزی
ڕۆلێکی
يەعر
##الۆگ
بهێنمەوە
بێتەدی
بەڕادەیەک
مانگا
توندوو
هەیبەتی
ياماژەیداوه
باوەڕپێکراو
سەرکێشی
سروشتە
يەڤرو
ڕایدەگەیەنین
دەلاق
يامادەنەبوونی
فڵانە
فرانکف
ياڵتون
موعتەبەر
عەشایەری
خرایەڕوو
لانە
لاستی
نشتیمانی
پوش
##ڕشتنی
##YD
بەحکومەت
بۆک
پێخ
داڤید
پێشینە
##ەهی
پێوستە
بێتوو
دانیشـت
شانۆیە
لەنێویاندا
گرتنەوەی
کەوتووەو
شەهیدەکانی
بتوانیت
##ایتدی
##ێسکی
لەکاتژمێر
يومێدێکی
دڵسۆزو
وەرگیراو
بەربڵاوی
دەستبەردار
فەتو
##رابێ
يەچێتە
سەرزەنشت
بریاروایه
دانەیەکی
ڕەقی
##ۆچی
##ێنراوی
لەسەروی
ڕووماڵی
##وتاری
##خول
##دانا
دوایش
وەرگێڕی
##کرانی
ڕاسته
وەزارەتا
کەرکوکیان
دەناسی
دەوڵەتانەی
لەتیر
زەرەرو
ياینز
بەندەی
کۆنترۆلی
دادگایە
##تەرنێت
هۆشدار
پەلامارە
گەردنی
وەهەروەها
يەهری
حەوزی
شاڵاو
بۆچونە
بەرقەرارکردنی
فینلەندا
تەلەفیزیۆن
يارەق
بەپێکهێنانی
لامەرکەزی
يانا
##مەندە
##مێنێ
بەرخ
هەڵدەد
لەسەريەوەی
لەگۆش
##ێشەی
نیگا
##دوڵڵا
پێوان
ڕابگەیەنرێت
##چاوکردنی
حکومەته
گەڕۆک
ناسا
پارێزگایه
دەزگە
داگیرکرد
زانیاریەکی
ناشرینی
دەگرێتەوه
بنەماڵەیەکی
نانخواردن
باخەوان
گوللەی
لێکردین
1947
پردێک
ڕەنجدەرانی
ڕاڤەکردنی
زەلیل
بارمتە
موەلید
ڕۆژياڤا
دارد
سەورە
عاب
##رف
##سەن
##سبەت
ناوەی
کارێکە
داگیری
کۆمەڵەکە
ڕێکدەخات
نەبا
##ۆزسیۆنی
تەوار
دەدەیت
يەرخ
ڕیگەی
هەڵوەستە
142
سزاکان
باوەڕدار
فیستیڤاڵێکی
گۆڕانکارییانەی
تایەر
دەرگایەکی
بەخۆیەوه
نەورۆزدا
بناغەیەکی
داهێنانێکی
پێشهاتەکان
ناوبژیوانان
گوناهبار
يەولەویەتی
بەکێشەی
يەتوانم
ڕووبەرووبوونەوەی
سەروکێ
يەسەسەرد
زێی
وانه
##زری
##اتیی
سەراب
ڕایەکی
بەسەرەوە
ڕۆژنامەیەک
لەدهۆک
لەناوچوو
##ێلێت
مەرح
کەوتنه
پارێزگایەکی
مەکۆی
مێژووەوە
پێویستیەکانی
سزایە
پـشـت
خۆپیشاندانێکیان
ڤیا
سیستەمەکە
##دەهەم
پزیشکیی
ڕقم
سبحان
تاقیکردنەوەیەکی
بەناوبانگترین
چواردەی
لەباشوری
پێنادرێت
میژوو
خەلافەت
يەکەوێتە
فانتازی
دلۆڤان
هیشام
هەین
##اڵەکەی
##ادۆر
##ابوری
##ەنجانی
مرۆییەکانی
میکی
##وبە
لیب
وێنەیان
لەشەش
نەدرا
##چوونێکی
زمانێ
نەیدەزانی
تايیستا
مالیک
بەرپرسیارەتی
پێشکەوتووە
کۆچکرد
خەرجیی
سربیا
لێنا
نمونەیەک
ڕووبەڕووبونەوەی
قەرەبو
جاڕنامەی
سیناریۆیەکی
##کاندید
زەمەنێکی
کەسایەتییه
دۆسێی
ماهیەتی
ناودەبات
سولەیمان
ترۆپکی
جەک
##وال
##ڕۆی
##اوەتەوه
دەگرنەوە
ناوازە
##ۆکڕ
دەستهێنانی
چەکەکانیان
لەشدا
خستنه
يەبات
هەستمان
تیرۆریستانە
##سانس
بارینی
ناچن
يۆپۆزسیۆندا
وەربگرێتەوە
ناسیح
کاندیدێک
بارودۆخەکه
تاریخ
ڕاشیدە
تۆمەتبارانی
لەکۆبانێ
پێشنیازێکی
بڵاودەکەنەوە
يیقلیم
کەبڕیارە
پەروێزخان
یەقین
لەسەنتەری
هابرماس
شەمە
##اربوو
##اڵدا
کاروکار
##بوونەی
هاتینە
خوێنم
بەمەسەلەی
دەدرێتەوە
نەخوش
تاکۆتایی
شیوە
یانەیەک
##بێتەوەو
سوریایە
دەنوێنن
نزیککردنەوەی
تاوانب
لیژنەیەی
شاعیرانە
بمرێت
پێشمەرگەیان
لیستا
لاوازو
جەستەو
ڕەگەزێکی
يەردۆغانی
##کوژێت
کەموکوری
وتوێژی
کۆتایهێنان
##کەشکردنی
سیڤیلی
سەرگەردانی
تاوتوێکرا
ڕاگواستن
هەیمەنەی
گرتۆتەبەر
جەغ
##oft
##صی
بەژمارە
بۆتۆ
##ێنەرانی
کوچ
##گەرییە
بارگرانی
سلێمانیەوە
کرایەوەو
لەشۆڕشی
کەیف
کۆمپانیایه
ژینۆساید
يۆپۆزسیۆنەکان
هاووڵاتیبوون
متمانەو
يەمجەد
نەخشەڕ
هۆزە
زەنگێکی
اڵان
تالاسی
فێمێنی
##اکتۆر
احد
سـیاس
گەوهەری
بەپاڵپشتی
بەياڕاستەی
زەکەری
کانە
##رێم
بەرەنجامی
ناوهێنانی
کۆمارە
داه
هەموولایەن
نەبیل
##اترە
لەدەم
گرتووەو
##یسـت
هەڕەشەیان
هەستیارو
مانایەش
مۆربکات
شیوەن
يایەتوڵڵا
جێهێشتنی
1918
هەڵگرتبوو
دەگوازرێتەوە
خاس
دڤێت
سلم
هذە
چێو
یەل
##لێر
##ـێـ
##يەوەش
##ry
يەملاو
بەروو
بەردین
پێي
##ەدیی
##ژیت
وڵاتانه
##ۆزا
بەپێو
ياشـ
1200
وێنەکەی
لەوەڕ
بەيۆتۆمب
##ەوانیش
توانیوە
تاوانەکەی
قەرەوێڵ
بایۆلۆجی
بەیاری
کەبێ
لیژنەکه
##کرتێری
نەناوە
تایبەتمەندێتی
##سالاری
سەندووە
لێکدانەوەیەکی
قاوەخانەی
لەمەیدانی
سندووقی
يەردوگان
هەڵسوراوی
زێرینی
جری
قد
لەکرد
##بیست
##ـێـکی
##ینت
##مانن
##نامه
گوتین
##ونیخ
ناتەواوی
ناسراوەکانی
دەنکە
ناوبەناو
لێبڕ
پێدراو
داراییەکانی
دیاردەکانی
یەکیک
یەکلاب
لێکۆڵینەوەدا
دواکەوتووە
ياراسته
##مەیشن
برایانە
ناحەزان
خێڵەک
هەڵدەگرن
دەرهین
بۆندێک
تێوەگلانی
ناجێگیری
at
يست
چلۆن
##واس
کەگ
##ێنەیەکی
ڕۆسۆ
عێراقیی
یاسر
گەورانەی
کۆند
گۆڕانیان
کراسی
گرنگانەی
بڕیارم
کچێنی
نەخۆشەکە
بەیاننامەکه
نموونه
سەرپەرشتیکردنی
شارەزور
بەڕێوەبرد
ڕۆژهەڵاتدا
دەگۆڕن
بەنرخێکی
Email
ind
قوچ
وێل
##راین
##لکاری
پێبدەین
يەگرێت
پێکبێت
بەدەسـت
لێدەدات
بیهێن
تێکرای
دەمەق
##ووتەوە
بەوەداوە
##اندنەوەو
داواکراوە
يەساس
هەڕەشەکردن
بەرنامەیەی
دەچەسپ
سەرەکییان
کریکاری
مەلاو
نهێنیەکانی
دادوەران
قەیرانەکەی
بڕوایەدان
يوستور
مێرمندا
سیستمەکە
میکانیزمەکانی
عمران
دەسەپێنێت
فیستەڤالا
جاڵجاڵ
بگیرێ
لاز
ماب
کاوەی
##زەه
##ارەکانیان
##اماندا
##ێنەوەی
خۆپەرست
ناونووس
دوبز
بهێننەوە
##ەخانی
##ەخنە
يەوەیشدا
بەهەوڵی
پێکراو
نەچوون
پیاسە
کەلاری
نەتەوەییدا
ڕاوێژی
جێبەجێکار
دەریدەخات
لەقس
گێڕانەو
زینداندا
دەلێ
بەيامادەبونی
ڕووداوەدا
پراکتیزە
ڕووسیای
يوتۆمب
بەسیستمی
پۆزەتیڤی
يامادەکارییەکان
لەنیو
دەفرۆشێت
کۆنەپەرستان
جاوی
شۆری
قیم
ویت
ڤەد
##رایه
##حاق
##پشت
##امای
بۆڕی
ناوجەرگەی
دوانە
دونیا
خەڵەف
##ێتیدا
##کەیتەوە
ژندا
تەنهاو
زانینگ
ڕەنگێکی
وشکی
يەستۆن
کاریگەرتر
##بدرێ
لەیەکێتیی
يیدیعای
شەریفی
قەدەغەکراو
قوتابخانەیە
سکاڵایان
تەقینەوەکە
نەگبەتی
دەرهێنەرە
يەگەڕێتەوە
بروسکە
ناڕەزاییان
وکر
٢٥
ڕشتن
##وگرافی
##عاد
ناواز
##ومێنتی
يیڤ
گولەی
دەستگرتن
کارتە
پێشوت
چەندانی
##ێدەنگی
حکومەتەی
گوتنی
گوتەیە
وتبووی
توێی
گرتەبەر
حەماسی
دیناریان
خواروی
خەباتگێڕ
چەپڵە
شاندەکەی
وابەستە
ساردو
خۆشحاڵین
بەکۆمەڵێک
لەپشتەوە
پالاو
دڵتەنگی
دیموکراسیانە
چاڵاک
ڕاڤەکردن
بازنەیی
بەيامانج
بارگرژ
هێشـتا
هەتیو
بارەگاکەی
گەرموگوڕ
بەکالۆریۆس
سەرتیپ
yout
دخ
شووش
##کەشی
##ادەن
ڕۆتینی
دەرمانە
ڕۆژێکیش
دەستەل
هاوینە
##کردنێک
##ەمانەوە
خۆشیی
پارتیەوە
ڕەوانی
119
نووسراوێکی
بنەمال
مەزەند
2500
دەهێنێتە
سەردەمدا
يایینیی
موحسن
بالاد
چیرۆکێک
باوکێک
مینبەری
بەگوێی
تابلۆکان
لەهەڵبژاردندا
بناسن
لەهەڵمەت
تۆکمەی
بیرۆکەیەکی
بجەنگ
فەخر
دەبیستین
يۆپەراسیۆنەکانی
مامناوەندی
داپۆشینی
گلۆب
داند
لاک
##ەیشی
##ەبارەی
یەکهەڵوێستی
دەبمە
نوێکەی
ناشتنی
##ەییەی
لیس
ستوون
مامۆستاکان
هاوڕێکەی
هەنگاوه
پێدەڵێت
مەدەنیدا
خەراپ
يەشێ
وەستاو
هەڵوەشاند
گۆڕانکارییانە
کۆشـکی
کۆنفرانسەدا
1965
ستۆکهۆلم
خەفەت
گاڵتەجاڕی
##ێێێێ
##ياراوە
ڕاگواستنی
بولگاریا
ڕەشەکوژی
ڕایب
##جیل
##lam
لەدەوڵەت
##اسۆ
یەکتا
لەولاوە
ڕێکا
مرۆڤایەتییە
##گریی
دانه
يارت
پلا
سوپایە
بەرزای
خانوی
عەرەبستان
ناڕێک
شەرقول
جوانکاریی
دەگەڕێمەوە
لاوازەکانی
مەعش
##ational
شانۆکارانی
جیابونەوە
السلام
بازرگانان
بلیتی
پەپوولە
خۆڕاگریی
ڕاهێنەران
سکۆتلەند
يوتومبیل
ناهەموار
پەستانی
نامرۆڤان
ڕووداوەی
مەملەکەت
الای
علم
نایش
پەه
چه
چنی
ڤێلا
گلی
##ڤسکی
##يەکات
##ff
##ەجۆ
تورکیاوه
ياشناک
ڕەنگەکانی
گشتیان
گەشەپ
قەرار
سازکرن
نیوه
پەنجەرە
المسلم
دەخوێنرێتەوە
مۆراڵی
پەلەپ
داکۆکیکار
لەبارودۆخ
يەسڵەن
يۆدێرن
تایلەند
سەرنەکەوتنی
se
خايین
مسی
##مێ
##ارشی
ڕۆیی
هەڵیب
دەبووم
هەرێمەکانی
پێکەنی
باڕ
ياماژەکان
ناکۆکە
باسکراوە
ياشبەت
برێڤ
##راونەتە
##جەماوەر
فیلمەی
مێژووش
##یسلامی
##ـیا
نیشتمانپەروەری
پشکنیندا
حاڵەتەکانی
پێبەخشی
ستراتیژییەکان
يیحتی
هەرزەکاری
وەختێک
ڤالنسیا
دەرببڕێت
##ەگەلێکی
دوارۆژ
لێکترازان
PUK
دب
ژێری
##فات
##ەکۆمەڵ
لەخان
##روا
لەمەکتەبی
وڵاتەیە
جیهانەدا
##اعە
بەکارهات
شەوقی
میرە
شانده
پاڵەوانێتیە
کۆچیان
بەڵێنیدا
دادوەرانی
دەهاتنە
نەخۆشخانەکە
لەڕۆژنامەی
پـێشـنی
بگرنەوە
توشبوون
دیکۆمێنتاری
الاسلام
یەهودی
PYD
هاڕ
گێچ
##لەیەکی
##ڵێک
##فێر
##ەندانی
يیستان
نیوتن
بنێشت
##کەوتنەوەی
ياوەڕۆی
ترێ
ڕولێ
هەڵوەست
##یەکانە
ياماژەیداوە
بخایەنێت
موسڵمانە
پـرۆسەی
پۆلیسەوه
نینۆک
لەقازانجی
دەشڵێن
##orld
ڕێککەوتنه
سەرمایەدارانی
خوێندکارانە
بەخۆوه
سەرچاوەیەکیش
جگەرەی
نەشار
فەزڵ
کەيەمڕۆ
يەژمارەکا
قابیل
جوانن
غەرب
ژاوە
##وارەی
يەوجار
کونج
##اکا
دەستک
بوویە
هەمووشی
##نامەو
ڕێکبکەون
کوردستانیانی
بەخەبات
گوتەکانیدا
دەیەمی
مەرز
کەوتی
کامەرانی
تێدانییە
گەڵدا
وهەم
خەمناک
بالاو
کارگەکانی
ڕەفتارەکانی
ڕەفتارو
سووتەمەن
يیدارەو
تیپەکە
توندوتیژییە
جێبەجێبکەن
بەدەستهێناوەو
نەچووەتە
کۆبۆوه
مەبدەيی
عەبدولوەهاب
پریمەرلی
تاش
ذی
چانس
بەدار
##تیری
خەڵتانی
باهیر
وتنە
پەنهان
سیاسەتکردن
بەڕێزت
مەدەنیەت
دیکەشدا
دانیشتنێکدا
سەرکەوتووانە
کارەساتێک
پەیوەسته
کەمپینە
لینکی
سەردێڕی
وکۆم
توێژینەوەکان
پۆشاکی
قڕکردنی
نەهێڵین
چرکەیەک
خونچە
سیامەند
کەگوایە
Mic
تینی
چری
##ڵان
##پرێس
##ەوەکەدا
##ستیان
يەووڵاتە
##ەڕێز
سیاسیەکەی
فەرد
##ەییەکی
دەدایەوە
155
ڕۆژياواییەکان
گوماناوی
هۆڵێکی
هەتایی
پێشکەوتنخواز
##چونەوەی
کافتری
امر
دەکێشن
ڕێکبخەن
خۆکوژێک
زەیدی
لەسەرکردەکانی
جوريەت
زۆرەملێ
خوێنڕشتن
Norm
شووی
ودوو
##کێن
##ڵام
##ڕشت
يەمەوێت
بەربەری
##ەکانا
هەريەو
هەمەچ
هەرێمیان
کۆمەڵەیە
پرۆپ
يارن
مێژە
بەردەوامبێت
دەربازی
دەیدەن
پیرەژ
هەلپەرست
پشکۆ
يامادەیییان
يیشکالی
خوێنەرێکی
پرۆژەیاس
لەپەیام
بنیاتنان
بدوێین
ياقاری
نوقم
عیسمەت
هەڵاواردن
دەستوەردانی
يافەرین
کۆسۆڤۆ
##ـانەوەی
##اوەته
بەراست
کاترین
داواکانیان
##ەرمارک
##الینی
جۆرێ
دەربەدەری
بڵاودەبێتەوە
##ەوانان
لەتاو
ڕاگەیاندنەکەی
لەدەستداو
##ated
دەستوورییە
يەڤه
تایکو
ڕێگریکردن
فەوج
شیرکۆ
1956
پەیکەرە
1925
ژەهری
ڕوبەڕوبونەوەی
گیروگرفتی
نەهاتووەتە
بەياشتی
مۆرینهۆ
گۆشەنیگای
کاروکاروباری
حەسیب
قەپ
##وابێت
##بژێر
##la
کۆفی
خوت
دەبڕن
ڕۆژانەو
کۆمەڵـ
داواو
##کرێنەوە
يەلهاشمی
دەنرێت
دەنێرن
دەیانزانی
گەشەکرد
ڕێکخراوەکەی
هێشتاکە
ياشکرابوو
210
خێراو
دەریاچ
کەيەگەر
بیستووە
کارکردندا
عەقڵە
دەرچونی
فاکت
دەوڵەمەندەکان
کۆنسێرته
سەرسوڕمانە
دواناوەندی
##ebook
بەچاوێکی
لێکدانەوەو
تۆتالیت
کەعیراق
يەورپا
ڕەحمانی
شوکری
تالیبان
حد
خلی
زەڵ
فلان
نەوەیە
هێته
وجی
##زێی
##wa
##اوێزی
##اکار
دەکڕن
نیا
کاتێـک
ببەستین
ژنەی
بەناڕ
بەخاوەن
بەرهەمهێنەرانی
يیسلامییەوە
کۆمەڵایەتیەکانی
بەعیراق
ڕەشب
تەرەف
سزاکەی
توندترین
وەڵامە
بگرنەبەر
دێموکراتەکانی
تەشەنەکردنی
جیابونەوەی
فرانسۆ
فازیل
بلیت
میزۆپۆتامی
ياخاوتنی
هەڵیانکوت
لەشێوەکان
ڕاییکردنی
بەيەندازەی
April
هورم
يوپ
##وەیەکی
##سۆزی
لەدەوڵ
##اوانەی
##ەنام
يەون
خۆدا
گوێر
##وانم
##دیف
پەیەد
##دوە
يێستەش
هەرواش
سیاسەتەوە
بەدور
بەورد
بەسەرکەوتنی
بەسەرماندا
لەهێزە
نزیـک
دۆستە
بڵاوکراوە
بڵاوبکاتەوە
نیشتمانیان
کچەکانی
خواردنە
زەروور
بەمەبەست
دەخوێننەوە
بەخۆپیشاند
بگۆڕێ
دەلالەت
کۆبونەوەیەدا
شەمس
سودیان
هەلیکۆپتەر
يیلتیز
ڕاگەیەندراوێکی
وۆرکش
يەنارکیزم
هەڕەمەکی
تایکواند
ذلک
پایەد
##دەس
##بع
##ەیاڵی
لەدار
لەدەوڵەتی
بەژمارەی
##اکسیۆن
يەستان
##ومن
مافێک
شوین
عێراقیه
نەوتیان
زمانیان
چاپکراوە
کوڕەکە
کۆمپانیایانە
بەجێهێنانی
مردنە
نەفس
يامێره
پرۆگرامە
دەورە
تیپەکانی
يینتەرنێتی
موعارەز
نەگەیشتۆتە
لەداهاتوویەکی
هەلوێستی
کەرتەکانی
گەیشتوونەته
ڕاسیزم
شەیتانی
لەپۆلیسی
مێهدی
شووم
نانە
##ڤێر
##NA
دەگە
کونی
##ورێ
لەمەشدا
الاع
یاریەکە
ببنه
بەتاک
##وومەنی
بڕاوە
مەسەلەیەدا
ڕێژەکە
کەون
زەرەرمەندی
هاوبەشن
خەمەکانی
بەقاچ
##ەیشەوە
دەخوێنمەوە
دەرچووەو
مایۆر
يینتەرنێتەوە
هزریی
مێرمنداڵ
پردێکی
توندڕەوەکانی
يەنیمەیشن
پەپوول
باقر
يەرجەنتی
دەجەنگن
لیڤەرپوڵ
يەعرەجی
youtube
وياو
يول
پلی
##wan
خۆکاندید
##ابردو
##ێمەی
##راوەته
##تیش
ناوت
هەمووشمان
فەردی
زیاترن
يەندەر
بەڕێوبەرایەتی
قسان
گەیەند
دێمە
نەواز
میلاکی
بەزمانێکی
ياساییدا
دواییش
شەقامێکی
نانێت
هۆشمەندی
پەلاماردان
عبدا
بەرێزیان
پاشەکەوت
دیسەمبەری
بەرێوەبەرانی
ناحەق
لەڕۆژهەڵاتی
توخمی
جوامێری
لەڕابردوو
یادەوەریی
هوتێل
خاپوور
بەرهەمدێنێ
بلێم
لوي
یس
##عەل
##ax
سەرەو
##گەرای
هەڵبگرن
بوونەوەو
ژنێڤ
فرەر
بنەمالەی
لیژنا
نوێیەدا
کامۆ
خراپەکاری
يێرانیەکان
سەرکەش
ڕۆمانەکەی
دۆخێک
مۆراڵ
سینەماکاره
سانایی
دۆڕاندنی
ستراتیژییە
تەجاوز
دۆکیومێنت
میدیاکار
ڕۆنالدۆ
##acebook
دڵۆپە
تەکەتول
حیم
سة
فابری
قاز
مسر
ڕزی
لەگرنگی
##ەنووس
کەدوو
سەروب
بهێڵێت
گویل
دەستەیە
ياگرە
گرتی
##ەقڵانی
وەرگرین
ڕۆژنامەڤانی
ببڕن
بەخەباتی
##کراودا
##خیلی
124
ڕاپێچ
##ێردی
لەراستی
هاوبەندی
ڕەشپێست
پشتگیریان
پاڵەوانێت
بازاڕەکان
پەلکێشی
ساتەی
هەڵدەق
پێداویستیە
تەڵعەت
دەهۆڵ
کوردییدا
خوڵقاندووە
خیل
شیل
##ەکای
##ێنرایەوە
##ەبکەین
##اکم
##رۆژەی
هەوڵدانە
تێکرد
لەشوێنە
زمانحاڵی
پاراستنا
مانگەوە
لێیەوە
##ێگەیشتنی
دەزگایانە
کەبەهۆی
قەزاکانی
يیشوک
لێنەکەوت
پەیوەندییەدا
وەرگیرا
چۆڵکردنی
سەرکۆمار
نوخبە
دەستەوەستان
وەدیهێنانی
##ارەنووسی
لەرابردوودا
بزم
حەڕ
شیش
وفی
کروز
ڵاتی
##وگی
##حاری
بەدەوڵەت
##ریق
يەمەشی
هەرت
##یروانی
لەسەرکار
لەهەشت
##کرانەوە
حکومەتەکان
دانیمارکی
بڵاوب
گرنگیدانی
تەقینەوەو
176
زمانناس
چاکبوونەوەی
تازەکان
يەڵمانییەکان
شێروانی
پیرۆزدا
يینگلیزیی
يارەزووە
پێشکەوتو
004
بچووکەکان
خەتەنە
وتووێژەکەدایە
خۆشباوەڕ
بێشەر
سۆمال
##لسواری
وەرگێران
بەلێپرس
لۆجیکی
یاساناس
TO
تیان
جارەیان
زید
يێدی
ڤەک
##ثیر
##xpl
##ەوخۆی
یاساکەدا
دابووە
درێسی
هەندێـک
جارەش
هەوڵه
ياژاوەو
يەیوبی
کەوتووه
مەدە
##ێننەوەو
هێرشەکانیان
پێکهاتەیەک
لەتۆ
لەتەق
بەریتانیادا
دانیشتوون
زانکۆیەکی
بۆنەیەکی
سەرنجێک
مینرێژ
فەرمانبەرێکی
دانیشتنەکه
لەدیموکراسی
##ناوچ
جمال
کەسایەتییەکان
بکێشێتەوە
خاتەمی
بەخوێندن
يەویتریان
خۆشدەوێت
ـدا
ڤاتی
##بوری
##بۆلی
##ili
##ous
##ەوسی
یەکەکان
##ومت
هەمەج
لەوەکردەوە
هاوچ
هەرێمەکەدا
يەوەبێت
ترەوه
کۆنگری
مافەکانمان
##وکرات
باشبوونی
ڕیي
کەلێنی
گەنجینەی
لەتاران
لەتاقی
ياشکرایی
يێوارەیە
يەرکیان
خواستێکی
کۆبوونەوەکەش
بارودۆخەدا
نموونەش
زەوییان
ياژەڵە
##فراندۆم
فرانسوا
بوەستن
هەڵپەڕکێ
لەدامەزراندنی
بەڵـێن
تەندرووستی
يومێدەوارم
موتلەگ
حەوا
زەخ
عو
##وێی
##جگە
##بکە
دەگرنە
بەرکەوتنی
ڕۆزا
##ۆڕا
کەمەی
سیاسیمان
لەباخ
بەکوشت
بیرورا
چوارسەد
##هەڵگر
کۆتاییشدا
گۆرانییه
##ێندران
سەربازیان
تەرکیز
هاوپەیمانیەتی
ڕێژەیه
نوسینەوەی
بایەخە
نیشتەجێیە
وبۆ
پەروەردەکردن
پەروەردگاری
کەناڵەکان
يومێدەواری
پلانەکەی
نیازن
بەهرام
شێرپەنجه
سەڵاحەددین
تۆقاندنی
زەمانەتی
ڕوحانی
دەمێنێتەوەو
لەکۆتایشدا
جێرمان
Normal
OF
email
بپەڕ
تیری
لینینی
نەوی
یەش
##گام
کەشتیی
لەگون
هیزەکانی
پێویستەو
لێکد
بەبن
شیهاب
دیکەم
يینکاری
دەمەدا
ڕودانی
143
دەنێین
کچەی
تۆمارکران
گەشتر
هونەرمەندانە
بچینەوە
لەچالاک
ڕێککەوتنەکە
##گۆڕین
سەنگەسەر
گونجاودا
يەنجامدراوەو
يێوارەیەک
پێداویستییەکان
غەریزەی
فەرماندەکانی
##وخاو
جادوو
بەرهەڵستکار
ڕاپرسیی
وەتەن
دادەبەزێت
بەڕاشکاوی
يیدوارد
ایل
بێژی
##دامی
##ماز
##ینای
کۆبکەنەوە
##لیز
##ەکەیی
يیتیکی
بەڵێندەر
پێشمان
دووژم
لەبڵاو
##ۆڵد
##زمەتی
ژمارەکانی
ڕەون
دیکۆر
پارێزگارو
زمانەی
تازەگەری
ڕێزمانی
ڕەتیان
میللەتان
يەنجومەنه
سینەماکار
پڕۆت
يەوروپیەکان
بەيارامی
شلێر
بەڕۆڵی
لەهۆکارەکانی
چاوەڕواننەکراو
Fil
ترد
##دیر
##ياش
##سەرای
##ۆکۆڤیچ
##ۆلە
درزی
خەڵکانەی
کامپی
سیاسییانە
خێزانه
##سپێرد
کاریگەریەکانی
مەبەستیش
تۆمەتب
ڕەگەزیی
بێدەنگە
يەنجامدراو
ياهەنگێک
زۆربەشیان
بێيومێد
پێداچوونەوه
نەچێتە
پێکدەهێنرێت
يیيتلاف
یورۆ
هەڵـبژاردن
لەکەناڵی
بفەرم
پاکتاوکردنی
تراژید
ویلیام
پـێشـکەش
زوڕ
کارپێکردنی
##اردەی
##گرتنەوە
شاراوەکانی
لەهێرش
تێبەر
ياماژەکانی
##ایەتین
وتەیەکی
برەوی
پەیامبەری
نامەکانی
یەکگرتووەکاندا
فەلەسـتینی
ڕێژەیەش
فڕۆکەخانە
فەرمود
مەنوچ
بەوەشکردووە
##تاژی
لێکۆڵینەوەیە
تەندروستییەکان
پێشنیازو
يەلیکت
##گەیەندرێت
هاوڵاتییەک
لەبەیاننامەکەدا
هەقیقەتی
کوشندەیە
تیروپشکی
watch
لوڕ
هاڵ
##باتی
##بەدەست
##ەمەندی
کەخەڵکی
لەمیس
لەبنی
##گیران
مافانە
بەرپاکرد
باوب
کرێکارێک
##ens
لەخاڵی
تەلەفونی
نادۆز
بەچارەسەر
زەویە
هەینیدا
دەنووسرێت
ياڵۆزو
يەندازیارانی
يەخلاقیی
کاپتنی
کەتايێستا
بهێنینە
سکر
شەج
فاری
لاڕ
##رات
##ڵۆ
##ووژ
بەگری
بەگومان
##اکاریی
هەمەدان
##انەیەی
کارەدا
لەبانگ
بیرهێنانەوەی
کرچ
دەیانی
##خانا
لیژنەکەیان
شاندێک
گیانم
يامادەیکردووە
گریمانەی
لەبارەوه
زیندانەکان
زەبر
زوڵمی
پەیکەرێکی
امین
تۆزق
قێزەونە
ڕاستەقینەکەی
هەرزوو
لێوەربگرن
لەگرنگترین
وگو
کفر
##بانە
##98
##ەیا
لەغ
بۆپ
بوه
مانشێت
بەدەسەڵاتی
خۆشن
بەرهەمانەی
بیڵێم
وشانە
مالا
بڕواب
نووسینەکەی
##فەرمان
يایینییەکان
##int
وەهایە
نوسەرە
سمایل
سەرۆکایەتییەکەی
سەرەوەدا
##سولی
ناڤین
وانەیەکی
يەدیبان
سەتەلای
کەیەکێتی
لەخۆرهەڵاتی
سەلمێنەری
يیمپریالیزم
لەگەرەکی
پڵنگ
يۆپراسیۆن
زاوا
پۆی
##ویت
##لەق
##ڤاڵی
لەدان
##ەبەستی
خۆڵی
دەرز
لەمۆندی
بەڕێگای
تێیان
لەسەعات
بەرزکردەوه
توانەوەی
ياڵمانی
##لاة
ڕێژەکەی
چالاککردنی
ڕۆژياواوە
بازرگانییەکانی
کۆمەلایەتییەکان
بێدەسەڵات
دەردەکەن
سەماحەتی
چرکەی
مەمکی
کەموکوڕییەکان
داعشیش
لەبەڕێوەبردنی
نیکۆلا
میدالی
چاونەترس
غوڵ
##دەکە
##بوم
دەخیلی
##لیو
##ەڕەو
خوری
کاراتر
بەسەرکردەوەو
ببیست
بەتەلەف
لەيازاد
ناڕوات
کراوەیی
خراپیان
يامانجمان
دیاردەو
دەوروژ
نەزانێ
تیرۆریستییە
لەکارکردن
دووپاتیان
یۆنامی
نەهاتوون
دیکتاتۆرەکانی
تانکی
هاوڵاتیانە
گەشتوگوز
پێدەبەخشێت
##ەزامەندی
فەرامۆشی
١٦
##ستەمی
##دابێت
##ەلەم
##اندم
دووتوێی
ياداب
##وتەوە
##استنەوەی
سەرۆکەکانی
يایەتەکانی
بەسەربرد
##کراوەکەی
بەرهەمهێناوە
کۆتاییەکان
قۆناغه
مەترە
بەشداربێت
نمایشەکە
کۆمەلگەی
ڕێگەپێد
کراونەتە
فشارە
لەدیوانی
داخوازییەکانیان
فێستیڤاڵەکە
پێداگریی
هەندیک
مستەفاو
هەردووکمان
کەچەندین
ملهوڕ
ڕوونیشکردەوە
تەرخاند
BDP
اغ
عومان
مریشکی
##لاس
لەژن
##ێرنە
کردبا
یەکترد
خواوە
##ەهەڵ
##وکە
هەمووانی
کەسـ
نیـیە
دەسکاری
کەمکردنەوە
تێي
هێنانەوە
لێدەکرد
يەکرێن
هەوڵب
بەياست
ياگامان
دیکەیشەوە
بەجد
##دەبنەوە
گروپەکەی
دەچیتە
مەلەفی
سەرپەرشتیارانی
هۆشداریی
##بکرێتەوەو
ڕەخنانەی
يەیلوولی
ياژەڵداری
دامودەزگاکان
شۆڕشگێڕان
دیوارە
پەرەسەندنەکانی
فرۆشرا
داتاش
دۆستانه
کەخاوەنی
دادەنیشن
کۆنەپەرستانەی
ڕاکش
فیداکاری
بەهانای
زرێپۆش
يۆدێرنۆ
زن
پک
##تیی
##ياس
یەکێـک
##ۆڕە
داوەتی
##وارت
ڕابوونی
بڕبڕ
پەیامەکانی
156
لاوەک
ڕێکخراوەکەیان
ولاتەکەمان
يیرلەندا
وەرگرتبوو
سیاسییەکانەوە
تێپەڕین
پێشکەوتووان
قەتەری
تۆمەتبارکرد
لینکە
يیمەیڵ
ڤیتۆی
هەرەسهێنانی
ياقارێکی
ستۆدیۆی
ناڕەحەت
گورچیل
مۆزیک
نێوەڕاست
قەڵاچۆکردنی
چوارقوڕنە
بەکان
تەندی
خار
##وێر
##ێنه
کوتان
##اکەپ
يەهات
هەڵچنی
هاوپێچ
لەمەوە
يێستاکەش
##ێنیان
سەربڕین
لەهێزی
لەهەناوی
ببەخشن
ڕەواند
قسەکردنە
تێکچونی
منداڵبوون
گەڕانی
##گوزەرانی
##جۆره
بالاکانی
##بینێ
##ind
سەرسور
نەناسی
تێڕامانە
يیستای
سۆزداری
هێنانەکایەی
لەرۆژنامەی
[...]
