[PAD]
[UNK]
[CLS]
[SEP]
[MASK]
!
"
#
$
%
&
'
(
)
*
+
,
-
.
/
0
1
2
3
4
5
6
7
8
9
:
;
<
=
>
?
@
[
\
]
^
_
`
a
b
c
d
e
f
g
h
i
j
k
l
m
n
o
p
q
r
s
t
u
v
w
x
y
z
{
|
}
~
¡
¤
§
¨
©
«
¬
®
°
±
²
³
´
µ
·
¹
º
»
½
¾
×
ß
à
á
â
ã
ä
å
æ
ç
è
é
ê
ë
ì
í
î
ï
ð
ñ
ò
ó
ô
õ
ö
÷
ø
ù
ú
û
ü
ý
þ
ā
ă
ą
ć
ĉ
ċ
č
ď
đ
ē
ė
ę
ě
ĝ
ğ
ġ
ĥ
ħ
ī
ĭ
į
ı
ĵ
ķ
ļ
ľ
ł
ń
ň
ŋ
ō
ŏ
ő
œ
ŕ
ř
ś
ŝ
ş
š
ţ
ť
ŧ
ū
ŭ
ů
ű
ų
ź
ż
ž
ơ
ǎ
ǐ
ǔ
ǝ
ǧ
ȇ
ȋ
ȗ
ș
ț
ɐ
ɑ
ɔ
ə
ɛ
ɡ
ɣ
ɪ
ɹ
ɾ
ʀ
ʁ
ʃ
ʊ
ʒ
ʕ
ʘ
ʰ
ʻ
ʼ
ʾ
ʿ
ˁ
ˆ
ˈ
ˌ
ː
́
̃
̄
̇
̩
̪
͞
͡
ͱ
΄
ΐ
ά
έ
ή
ί
α
β
γ
δ
ε
ζ
η
θ
ι
κ
λ
μ
ν
ξ
ο
π
ρ
ς
σ
τ
υ
φ
χ
ψ
ω
ό
ύ
ώ
ϙ
ϛ
ϝ
ϸ
ϻ
а
б
в
г
д
е
ж
з
и
й
к
л
м
н
о
п
р
с
т
у
ф
х
ц
ч
ш
щ
ъ
ы
ь
э
ю
я
ё
і
ї
ј
љ
ћ
ў
ғ
қ
ҝ
ҫ
ү
ҹ
һ
ӕ
ә
ө
ա
գ
դ
ե
զ
ը
թ
ի
լ
խ
կ
հ
ղ
ճ
մ
յ
ն
շ
ո
չ
պ
ռ
ս
վ
տ
ր
ց
ւ
փ
ք
օ
և
ְ
ִ
ֶ
ַ
ָ
ֹ
ּ
ׁ
א
ב
ג
ד
ה
ו
ז
ח
ט
י
כ
ל
ם
מ
ן
נ
ס
ע
פ
צ
ק
ר
ש
ת
،
ء
آ
أ
ؤ
إ
ئ
ا
ب
ة
ت
ث
ج
ح
خ
د
ذ
ر
ز
س
ش
ص
ض
ط
ظ
ع
غ
ـ
ف
ق
ك
ل
م
ن
ه
و
ى
ي
ً
ٌ
ٍ
َ
ُ
ِ
ّ
ْ
٠
١
٢
٣
٤
٥
٦
٨
٩
ٱ
ٹ
پ
چ
ڈ
ڕ
ژ
ڤ
ک
گ
ڵ
ھ
ہ
ۆ
ۇ
ۊ
ی
ێ
ە
۰
۱
۲
۳
۵
۶
۷
۸
۹
ܐ
ܒ
ܕ
ܗ
ܘ
ܚ
ܝ
ܟ
ܠ
ܡ
ܢ
ܣ
ܦ
ܪ
ܫ
ܬ
ܳ
ܵ
ܼ
ހ
ރ
އ
ޖ
ާ
ި
ެ
ް
ँ
ं
अ
क
ख
ग
ज
ट
त
द
ध
न
प
फ
ब
भ
म
य
र
ल
व
ष
स
ह
़
ा
ि
ी
ु
े
ो
्
ক
ন
প
ব
ম
য
র
ল
স
়
া
ি
ী
ু
্
ੀ
ર
ા
க
ட
த
ன
ப
ம
ர
ற
ல
ள
ழ
வ
ா
ி
ு
ெ
்
ు
ె
్
ാ
ය
ි
ก
ง
ด
ต
ท
น
พ
ภ
ม
ย
ร
ล
ว
ษ
ส
ห
อ
ะ
ั
า
ิ
ุ
์
་
ོ
မ
ာ
်
ა
ბ
დ
ე
ვ
ზ
თ
ი
კ
ლ
მ
ნ
ო
პ
რ
ს
ტ
უ
ფ
ქ
შ
ჭ
ხ
ḉ
ḍ
ḏ
ḥ
ḧ
ḩ
ḫ
ḱ
ḳ
ṇ
ṕ
ṗ
ṣ
ṭ
ṯ
ẍ
ẓ
ả
ấ
ẹ
ế
ệ
ọ
ố
ồ
ộ
ớ
ụ
ỹ
ἀ
ἄ
ἰ
ἱ
ὀ
ῆ
ῖ
ῦ
ῶ
‐
–
—
‘
’
‚
“
”
„
‟
†
•
…
′
″
‹
›
€
№
→
↓
⇒
∅
∈
−
≈
≠
⊆
─
│
└
├
┬
▪
☆
♭
♮
♯
ⴰ
い
く
し
て
の
り
ア
ィ
イ
ウ
オ
キ
ク
グ
コ
ジ
ス
ソ
タ
ッ
デ
ト
ド
ナ
ニ
ブ
プ
ベ
ボ
マ
ミ
モ
ラ
リ
ル
レ
ロ
ン
・
ー
一
三
上
下
世
东
中
五
京
人
代
会
全
公
共
兵
内
化
北
区
十
华
南
县
口
古
和
国
國
城
夏
大
天
太
子
宁
安
家
山
島
川
州
市
帝
年
广
後
德
手
振
探
撃
文
新
族
明
春
晉
朝
木
東
松
楊
武
民
水
汉
江
河
治
法
津
浦
海
湖
漢
爾
特
王
珠
甘
皇
盆
真
石
社
福
秦
經
羅
耶
胡
自
行
西
話
語
贵
載
通
道
郎
金
长
集
青
高
黄
가
간
강
거
건
게
경
고
공
과
광
교
구
국
굿
그
금
기
김
꽃
나
난
남
내
너
녀
노
눈
뉴
느
는
니
님
다
단
달
당
대
도
독
동
드
들
디
라
람
랑
래
러
레
로
를
름
리
림
마
만
말
맨
면
명
무
문
물
미
민
바
박
발
방
백
별
보
복
부
불
브
비
사
삼
상
새
생
서
석
선
설
성
세
셜
소
송
수
순
스
시
식
신
아
안
애
야
어
에
여
연
열
영
오
왕
요
우
운
울
위
유
육
은
을
의
이
인
일
임
자
장
재
적
전
정
제
조
좋
주
지
집
차
참
천
카
크
키
타
태
터
토
트
파
페
포
프
피
하
학
한
해
향
호
혼
화
후
희
ﬂ
﴾
﴿
ﺍ
ﺹ
ﻁ
ﻑ
𐭥
##u
##b
##e
##r
##î
##t
##l
##i
##k
##s
##d
##o
##f
##p
##a
##g
##h
##n
##ê
##q
##m
##y
##ş
##v
##c
##ç
##z
##û
##3
##6
##0
##x
##미
##호
##전
##9
##7
##4
##8
##5
##j
##2
##w
##á
##포
##´
##ğ
##ı
##ه
##ح
##و
##ج
##ر
##ك
##ی
##é
##1
##ڵ
##گ
##ت
##о
##н
##ф
##е
##р
##ц
##и
##ö
##ک
##신
##라
##ü
##ا
##니
##ص
##م
##ي
##ن
##ー
##ش
##ب
##ُ
##þ
##к
##л
##а
##ι
##ν
##ω
##π
##ε
##ύ
##ς
##우
##당
##은
##ێ
##λ
##ά
##í
##ل
##د
##ō
##ó
##ź
##س
##چ
##ò
##г
##َ
##ْ
##ḱ
##ä
##ñ
##선
##이
##ā
##έ
##θ
##σ
##ȗ
##ł
##υ
##ρ
##η
##ο
##ί
##خ
##ル
##マ
##ク
##ق
##ف
##ة
##ە
##ī
##ę
##ม
##ร
##ั
##ต
##น
##ก
##ส
##ิ
##ท
##์
##ū
##д
##ы
##в
##è
##ï
##ř
##¬
##ь
##ш
##щ
##ẍ
##道
##â
##̇
##ž
##ŭ
##ť
##°
##ś
##ա
##կ
##ո
##ɛ
##ə
##γ
##α
##ڕ
##ز
##의
##ḧ
##ș
##с
##š
##ɔ
##ː
##ɹ
##̩
##ン
##ジ
##リ
##グ
##ژ
##城
##区
##ē
##ż
##φ
##ή
##晉
##č
##п
##у
##́
##б
##ئ
##з
##я
##国
##共
##ظ
##շ
##³
##ә
##һ
##м
##த
##ி
##வ
##ற
##்
##ம
##х
##ж
##ю
##ß
##세
##상
##ۆ
##̪
##ɡ
##ć
##ą
##가
##ו
##ש
##й
##т
##해
##ʿ
##郎
##ĥ
##љ
##ἰ
##χ
##β
##인
##시
##대
##آ
##州
##市
##۳
##۸
##י
##ִ
##ד
##한
##ъ
##ܠ
##ܡ
##ܟ
##ܝ
##ع
##đ
##ह
##ल
##ं
##ग
##ि
##क
##ा
##태
##胡
##法
##ာ
##מ
##ז
##א
##ן
##지
##ų
##ّ
##ʻ
##ø
##국
##τ
##ù
##ǎ
##ى
##東
##ო
##ბ
##ი
##ă
##à
##の
##ì
##口
##र
##ु
##ख
##़
##ڤ
##마
##ῶ
##ṣ
##ה
##ב
##ל
##브
##사
##랑
##ء
##ـ
##아
##ṗ
##ِ
##ú
##å
##ΐ
##ḥ
##۷
##۱
##پ
##უ
##რ
##ხ
##ე
##ლ
##ა
##ë
##ק
##ð
##ქ
##თ
##ვ
##ր
##ի
##ն
##行
##ῖ
##ţ
##æ
##κ
##μ
##ہ
##람
##꽃
##ფ
##ზ
##ô
##朝
##ǔ
##۵
##۶
##子
##兵
##을
##동
##화
##ʒ
##ʊ
##ɪ
##ܪ
##ܣ
##春
##ό
##ւ
##ռ
##羅
##ė
##ר
##ת
##ý
##ர
##ث
##ő
##ڈ
##²
##վ
##մ
##և
##ј
##ғ
##古
##자
##조
##로
##트
##δ
##물
##נ
##ג
##ע
##ʾ
##٠
##南
##إ
##΄
##ֶ
##ּ
##浦
##ч
##스
##皇
##피
##ذ
##ү
##江
##─
##ط
##ġ
##♭
##宁
##ů
##ި
##ެ
##غ
##צ
##פ
##하
##는
##ˈ
##县
##ً
##ψ
##래
##를
##¹
##ե
##ղ
##생
##э
##华
##人
##民
##和
##ტ
##ს
##ְ
##ׁ
##ָ
##க
##ώ
##أ
##ã
##川
##ם
##터
##य
##내
##٩
##キ
##ア
##ٍ
##ξ
##ボ
##イ
##−
##ض
##帝
##여
##운
##ნ
##კ
##დ
##्
##स
##ी
##プ
##ு
##ல
##ப
##ெ
##ń
##부
##յ
##۰
##ٌ
##ẹ
##도
##ි
##ය
##ḍ
##성
##애
##과
##ʼ
##ס
##ǐ
##만
##語
##դ
##ք
##ܘ
##ܐ
##들
##ィ
##백
##振
##მ
##ʰ
##ĭ
##木
##一
##ラ
##ド
##ח
##민
##ӕ
##키
##야
##기
##ห
##า
##ย
##ุ
##ด
##ล
##나
##ھ
##レ
##ス
##タ
##ĵ
##주
##ĝ
##۹
##山
##自
##զ
##כ
##¨
##٢
##族
##뉴
##림
##ŏ
##ṭ
##ё
##왕
##ố
##ܼ
##ḫ
##×
##东
##新
##ǧ
##治
##ܢ
##ܕ
##်
##မ
##단
##적
##國
##家
##安
##全
##♯
##代
##고
##म
##ˁ
##海
##리
##드
##ồ
##ɑ
##͡
##ʃ
##り
##제
##±
##ŕ
##ழ
##무
##স
##ম
##ী
##য
##়
##া
##유
##ě
##장
##世
##새
##ર
##ց
##ը
##デ
##다
##ল
##չ
##ǝ
##ћ
##송
##ế
##ो
##ె
##ు
##耶
##ṯ
##┬
##방
##œ
##ļ
##द
##ウ
##ッ
##ト
##შ
##̄
##복
##º
##카
##ว
##社
##ษ
##ง
##١
##ט
##ɐ
##ʁ
##ட
##տ
##հ
##ੀ
##난
##ḉ
##구
##話
##会
##त
##타
##임
##٤
##٥
##요
##ؤ
##ज
##일
##ḳ
##õ
##석
##京
##オ
##爾
##撃
##ọ
##პ
##ű
##ོ
##ﬂ
##수
##건
##ܬ
##ܵ
##명
##간
##ս
##ブ
##ミ
##青
##い
##ň
##լ
##գ
##어
##օ
##♮
##湖
##і
##ַ
##ḏ
##집
##公
##ܗ
##ܒ
##ܫ
##ാ
##연
##말
##ֹ
##에
##ỹ
##न
##면
##€
##러
##ष
##느
##님
##ニ
##맨
##載
##下
##서
##정
##소
##름
##ソ
##강
##モ
##파
##남
##ন
##ু
##島
##ŋ
##교
##혼
##র
##ক
##德
##經
##夏
##ṇ
##қ
##ῦ
##集
##ા
##อ
##울
##ロ
##͞
##페
##셜
##ớ
##ۊ
##향
##ா
##ன
##ả
##ナ
##手
##て
##く
##ζ
##레
##안
##年
##ܚ
##ộ
##水
##三
##十
##真
##ῆ
##디
##ľ
##크
##ޖ
##އ
##ް
##ރ
##ާ
##바
##化
##비
##희
##↓
##珠
##ɣ
##별
##재
##े
##西
##し
##게
##ހ
##설
##공
##व
##ʀ
##漢
##北
##노
##্
##ব
##ấ
##보
##ܦ
##ट
##प
##ะ
##녀
##ẓ
##ҹ
##ț
##거
##明
##차
##ჭ
##천
##ब
##ٹ
##열
##ি
##금
##٣
##王
##五
##𐭥
##식
##上
##金
##ɾ
##ベ
##광
##ध
##≈
##প
##พ
##٦
##ệ
##コ
##津
##ї
##թ
##探
##ө
##大
##भ
##발
##독
##순
##٨
##通
##육
##ụ
##☆
##石
##ķ
##į
##ճ
##۲
##中
##ȋ
##文
##문
##ள
##영
##汉
##후
##너
##̃
##փ
##ď
##楊
##그
##박
##内
##河
##ۇ
##학
##토
##ơ
##경
##ŝ
##պ
##ܳ
##్
##ḩ
##ˆ
##խ
##ȇ
##ʘ
##®
##特
##ў
##오
##ĉ
##天
##달
##ҝ
##ⴰ
##ँ
##an
##er
##in
##ir
##ar
##ên
##ya
di
ku
##ek
bi
de
##st
li
##en
##în
##at
ji
##yê
##el
##al
##et
##av
ser
##rd
##we
##irin
he
##anê
kurd
##ra
##ist
##eh
##iy
##ma
##ey
her
jî
##and
##iya
##ok
##am
ber
nav
xwe
##ûn
##ed
##anî
##ay
##il
ev
##or
##îk
ba
##ih
##em
da
##on
re
##eya
##es
##tin
##om
kurdist
##iş
pê
ya
##un
##îr
##ol
ew
##ez
##ke
##ekî
hat
##îy
##kirin
##az
20
##end
ye
##îya
##êr
kurdistanê
##raq
##oj
al
##eb
##arê
iraq
##ur
##iye
##ana
herê
serok
kir
##eş
##eta
##ûr
##im
der
##ik
bo
ra
iraqê
##de
ve
19
##und
##as
##işt
an
##iyê
##ev
en
ne
go
herêma
roj
##eha
dest
##ad
##ber
bû
##iv
kom
##dar
sal
gund
##sa
##êz
##ûm
##îyê
##êj
kirin
##eke
gel
##bûn
serokê
am
tê
##gir
gir
par
##andin
wê
hev
##îs
##na
yek
##be
evê
pêş
##man
##êd
pir
##ak
##wl
##îl
rê
##is
##ah
##ro
wan
##ul
##îş
bar
##kin
##gih
baj
200
201
##ov
dê
##ew
##ayê
bir
kar
##îst
got
##ye
##waz
##kê
##eyê
##elat
yê
hu
kes
wî
##ara
pna
##erîk
yên
el
##kar
##îyên
##anîn
amerîk
##ît
##it
enc
hem
lê
##eka
##ger
din
pişt
bin
dem
ragih
wez
##ij
##anên
##iz
##ayî
##îne
dib
bih
##oz
dike
##iha
##ent
mal
##da
##erê
##eyên
huk
tir
##xwaz
##uh
##ekê
st
vê
##ûmeta
sala
##geh
##kirina
##geha
be
##bû
bike
##êrê
em
hatin
hêz
nû
##nam
îr
##yî
##ve
ragihand
tirk
##us
çav
er
##erên
ar
me
##ef
navê
##iyan
##af
##aş
xw
du
in
##bera
bel
##yar
##ch
mez
dî
weha
##tina
baş
##îna
##sî
bûn
##aw
hil
##înê
hukûmeta
amerîka
welat
mir
bê
##dî
av
##eng
pey
pêk
çar
cih
##erî
##era
hin
##xwe
dij
##ina
##erm
##go
navbera
te
##êş
zim
##arêz
gelek
bikin
##iyên
##tî
##ec
##ivîs
tur
##arî
##ax
##tir
dev
kurdî
sûr
##os
wezîr
gundên
navç
##bûna
çend
##hil
hêzên
piştî
##ab
beş
##kir
mezin
hatiye
îranê
turk
##ane
parl
##ng
hewl
niha
##la
dewl
ker
##ran
rew
mirov
parêz
##ka
##îz
ko
##dana
##îh
##yan
end
##mê
##manî
çavk
han
hemû
siya
kon
##îkirin
nivîs
##id
gundekî
daxwaz
##îyan
rû
##xist
##înin
18
gor
çavkanî
##ijar
##um
encam
dih
girêd
##etê
dibêj
##roj
##wer
xu
##lin
##ta
endam
##ûd
dikin
lîst
##ex
wek
##op
wer
##ic
##ig
rewş
##ata
##dan
##he
##00
saz
##yên
bihê
çê
##etî
heta
##ft
##aran
red
##re
daw
##ena
##ib
pol
##kev
bajêrê
##ot
dibe
##kû
##ment
xuya
zanîn
as
##pê
dema
##îrok
hel
##ala
##ect
turkiye
sed
tay
##le
##ûrê
navçeya
##med
derb
deng
##eyan
##bijar
##iyament
##îd
##zanî
ango
per
cîh
##yon
##vê
##arên
##ene
dan
mu
##du
##ilê
rojnam
kur
xuyakirin
##pir
parliyament
199
##irect
beh
##eşk
redirect
barzanî
hê
kerkû
aw
hilbijar
ger
dir
roja
##îm
##din
##alîkirin
aliyê
##enê
##wend
hevp
##aya
nîş
##og
##îye
beralîkirin
tev
##van
civ
tayb
dijî
leşk
##ap
##anûn
meh
##tû
ama
12
kurdan
kombûn
10
##ac
bal
##kî
##per
part
xel
day
es
nêz
##yayê
##pirs
##est
##andina
##ete
##ekirin
kê
11
az
aş
wekî
##eser
sê
encûm
##ost
ab
se
##ûs
ereb
##ing
bajarê
îs
hilbijartin
hatine
şer
hene
2010
bib
2011
bûye
ên
##ut
gişt
bak
wezîrê
##eran
17
hate
14
parêzgeha
##if
##xan
bilin
qanûn
jêd
divê
##ama
##anîya
##ûrî
gotin
##di
êr
pro
berde
rewşa
##tê
##girê
serdana
evroj
peywend
eb
ferm
angora
##eyî
kiriye
ez
yekê
navend
pirs
##jm
derve
kerkûkê
hevpey
##iyon
##lî
##bi
##aq
fir
dîrok
15
şê
##olê
zimanê
2009
##ava
##xd
heye
berpirs
teq
na
çareser
nava
paş
##ora
16
su
##îv
şand
herw
lîsta
ter
mes
##ikî
mar
maf
le
pirtû
hik
belê
##irê
min
aj
2008
ava
##îndar
encûmena
ewê
2012
##êne
tek
wezar
##kêş
##hem
polîs
kuş
behsa
zar
fran
##ia
kev
##ast
herdu
bibe
##îkî
serokat
##dul
nûn
##etewe
çek
bêj
is
##aniya
##ola
zan
yan
mil
nûç
siyas
hejm
##ket
bikar
rast
girtin
kesên
##veb
berê
##wam
herêmê
bareya
##asî
##oh
##adê
ti
hez
##andan
##te
##orê
gr
hewlêrê
êrîş
##ob
kuj
erd
nas
##emê
##payê
ax
girêdayî
##anîna
##best
dewleta
birîndar
198
dil
dibêje
##ha
##bar
##ela
##istanê
dixwaz
##ine
##lam
##hilat
13
##ku
neh
amed
başûrê
malikî
br
jin
derv
##ema
muh
pîr
os
##ibû
##hat
beşdar
siyasî
zê
##manc
parliyamenta
weke
##kên
xeb
berdewam
##oş
##înî
belav
##isa
îro
##xweş
##okê
tenê
azad
ad
##pa
guh
the
destpê
têk
##xistin
fer
##jî
bakur
van
dad
##ter
demok
wezareta
ajan
gelê
##omb
herî
berhem
ewl
af
evan
pêşkêş
alîk
bûy
hewlêr
##iq
dax
weş
kêm
##îng
##ûl
##oya
##bo
cel
yekem
##iw
pet
ziman
alîyê
mis
nişt
##gehên
##ud
nê
##ej
bilind
rêveb
komara
gul
##xdadê
##orî
pên
##azî
##pan
##ge
şar
##rê
197
serokatîya
baz
##ks
##istana
kuştin
car
xwend
##dest
netewe
##etên
tên
bareyê
biryar
##ûna
dibêjin
peywendîyên
ma
taybetî
tal
gu
##iraq
kurdistanî
neb
##ce
demê
ebdul
vî
îraq
dar
##eder
##sê
eş
endamên
##avê
mer
##rî
kû
##dê
giştî
##west
mad
eh
##gel
ewro
dide
rêz
gundê
rom
bêjed
##welat
evî
##manîya
##ser
daxu
ajansa
##edar
##ayên
##xistina
sîn
##pêş
endamê
##rat
bihên
##îrê
##eq
ak
rojnamev
diyar
##mer
kirine
ewan
tişt
dawî
hes
kujtin
welatên
##eyn
##arin
malb
civak
##od
##emb
teror
mesûd
cîhanê
hinek
dû
berî
pirsa
cur
##çe
##ion
##kevtin
##gehê
dikar
##yana
##darên
zarok
##ekir
nîşandan
##ne
silê
ît
##eyek
##th
şêx
of
##ang
dr
sp
dam
##kol
##îb
##anan
rûn
petr
jê
hun
amade
jibo
elî
##eyeka
may
baxdadê
##bûyî
nexweş
mûs
nivîskar
sel
supayê
##ip
21
dihê
amedê
art
alîkar
kurdistan
ke
at
deverên
##enb
##înên
komît
ehmed
osman
##ign
new
wezîrên
196
##ker
mehm
##ûş
helbest
feder
##kirî
sûrîyê
03
nûrî
în
##lah
pêşwaz
pîroz
çand
##îra
xan
wiha
derbas
xwepêş
hey
bibin
xelat
hejmara
gorî
##lê
##ika
fermî
##ton
tirkiye
hevpeymanîya
heft
kurdên
bûne
hevwelat
gih
nêzîkî
mê
mirin
jêder
yekî
alîyan
ch
##îka
##tr
ast
25
amad
lêkol
##kan
we
away
erebî
girêdanên
##darê
kel
damez
biz
hew
30
daxwaza
taybet
tekez
##ug
reş
alman
##oyê
alî
##ag
##lan
pay
##yoz
gerek
zêd
##ard
dêr
herêm
dirêj
îraqê
ef
balyoz
mel
êdî
rojav
##ind
##ûmetê
tel
bomb
çi
##por
##yanî
##îkê
kombûna
##istan
pros
herwe
##ikê
med
bajar
xur
rûs
##irg
##esa
or
çal
heger
##men
berf
fîl
##înan
eger
##dem
##oc
##hilata
##ûra
alîyên
##va
bawer
hikûmeta
post
align
dibin
##ix
iraqî
xebat
devera
##ba
asay
##ram
##yem
hember
ag
##îyye
##deya
##mar
195
´´
sûrî
girin
##alê
fel
##bn
##li
##alî
un
duh
##elê
mûsilê
ap
hus
##nameya
ed
çiya
##ers
##danê
##gire
wêne
gen
navenda
salên
pk
proj
##war
ob
##ebanî
giring
doh
çalak
bajêr
başûr
##inê
tirkî
bide
şandeya
09
##cî
daye
herweha
##ko
mehmûd
col
artêş
cihê
kombûnê
niştim
dik
îslam
mirovan
yekît
##ct
şerê
armanc
herwisa
mafên
serê
194
sor
hêv
##yaya
kor
far
##çû
talebanî
pirr
biry
07
##etir
04
fra
kr
##wan
ay
parast
leşkerî
##lo
muhem
24
partîya
zêde
02
05
bîr
##met
##pg
herwiha
##wez
##day
pêd
##nîş
##ret
hilbijartinên
jiyana
tu
##jim
##îyar
cihgirê
22
192
karê
çû
welatê
##ens
ragihandin
fam
payt
meha
##of
girîng
federal
sek
##oloj
ner
ved
serhil
bêtir
dengê
ot
şeh
heman
şah
brît
pênc
kesan
ro
rad
nik
xal
##ep
##gê
pêdiv
perwer
2007
km
08
band
qer
dix
destê
000
##ri
##ust
bakurê
rêya
hilbijartinan
fransa
eliraq
pkk
guher
amerîkî
damezr
##girtina
kongir
##gar
##xaneya
nûnerên
obama
şor
##nî
##asyon
##ksiyon
qed
terorîst
berpirsên
##zan
desthilat
dixwazin
##ekirina
ket
##ewî
23
kov
##ona
qur
##nîşan
nûçeya
piş
xwed
rêkevtin
xwarin
##lu
rojhilat
girt
pêşwazîya
sep
îng
06
guft
navîn
193
nam
ned
bidin
dîtin
ewledar
##sp
##eyeke
##wey
##enter
##ûb
dîdar
destnîşan
cu
wat
xiz
asayiş
27
qez
wir
avê
malp
bazirg
malbat
##guh
hêj
navxwe
demokrat
01
tirkiyeyê
mîr
##yle
derket
##tan
##oka
##onê
hind
##san
##tp
xelkê
##tirîn
eliraqîyye
reng
##ekar
28
##dewl
dim
agah
fraksiyon
biw
îm
qanûna
mafê
paytex
26
##irx
salan
jul
pes
pirtûk
celal
dûr
birêz
encama
pr
silêmanî
mêr
pêkanîna
rojhilata
serekî
##der
##vanên
çap
##ub
kem
xir
jpg
pêşmer
sib
style
##are
xurt
##yal
xwepêşand
geş
bab
têkil
tî
##wîst
##avên
awayekî
muhemmed
##kirinê
şîr
dixwaze
##darî
rejî
op
nak
tem
##ray
prosesa
mam
cem
bix
salih
jêderekî
didin
##axa
top
##beş
encamdan
çîrok
##mend
rêxistin
##ras
peya
agir
bikaranîn
koç
##ck
heya
nehat
komel
##han
dez
qanûnê
çendê
sur
zanist
muz
dîyar
##sala
veger
##bûnê
##ekan
fil
pak
##efa
##ae
biryara
##px
famîl
##enc
##ant
nêç
artêşa
dihat
layê
mih
##imî
çaw
piştev
sw
and
polîsên
##nas
aşt
##dêr
jun
xweş
tîr
aug
kol
##afa
petrolê
xist
kompan
yekbûyî
hezar
pl
##berê
leşkerên
derbarê
##çûn
parliyamentê
29
la
komîteya
bu
caran
##orm
##ond
dîroka
##tinê
rojnameya
şoreş
##ator
##şemê
##karê
neteweyên
serokwez
sa
bed
sam
bingeh
balyozê
kan
navdar
##nê
kons
kirina
aborî
##etan
kevn
##ike
##îzî
zêdetir
##rah
##ehê
##za
oper
##şt
hiş
##baz
##enî
nêçîr
man
##ord
##awî
pêkhat
ey
qeb
cej
jan
##ibûn
esed
##ich
cuda
rêxistina
##ireh
ol
##atê
2006
tund
##ibe
welatî
##xt
dec
rejîma
##alên
were
nîşan
leşker
malpera
##bend
partiya
##se
hêvî
vir
duyem
center
mij
bilinda
jêr
sîst
com
##êdayî
mala
##îj
dikare
sîya
hiz
##ogan
dol
taw
##kevtina
îran
rûp
##gan
dikeve
şan
nêçîrvan
ah
daxuyan
##çûk
##ler
##hên
çarç
##andinê
tirkîyê
konf
grêdayî
net
##hev
ref
hevkar
##îf
##gr
##ht
##uk
##bidest
zay
karên
karbidest
xwest
191
sil
koma
kombûnek
bend
çêkirin
pd
navn
vek
ht
nîv
sey
bay
##girt
tekezî
apr
##iyar
dewletê
xelata
hatibû
ka
şev
sedsala
pêşkêşî
##ahî
##mam
##ida
##kef
##zê
nem
qad
sit
şem
##ûmet
piştre
amerîkayî
oct
140
##bêj
xwez
arêş
parlam
arîş
bid
##ow
jiday
zanîngeha
pirsên
##wat
germ
##emed
xwedî
salê
maddeya
##tên
pirsgirê
hukûmetê
31
berfireh
nîne
rojava
zer
rex
kam
pêwîst
dirist
##fî
##bir
##yad
##sta
wêj
##ermend
şir
amerîkayê
sch
bavê
50
riz
aşkir
îngil
##ff
##hen
nêv
geng
##gera
##dîn
yekemîn
dikir
yekîtîya
tr
mon
hesen
mijar
nov
mêrd
serbi
gun
##oy
ewropa
destûra
ron
bajarên
##gen
ermen
nirx
##cê
hejmar
famîleya
tun
mîn
##wê
çareserkirina
met
jêderî
##îlê
##îkirina
derveyê
dîdarê
sînor
zû
dip
##emîn
daxuyanî
##girin
alb
tew
ciw
kurmanc
##ür
##şemb
##ox
pêşmerge
bik
serbixwe
selah
jidayîk
barên
doz
deverê
##ahiya
seb
ligel
##iyeke
nêzîk
parastina
dinê
pêdivê
sir
iraqa
##alan
gengeş
##bê
##land
ewên
wisa
destpêka
##ation
posta
tar
dîsa
peyv
ewledarîyê
siv
##aka
niştimanî
##ie
##imê
lat
##nan
pil
çavdêr
th
huseyn
peyam
bang
qebûl
##ehr
navdewl
keç
##îyek
mû
pas
kul
mill
rola
rojavayê
fermand
dîw
cî
##barî
rojnamevanî
sh
##bay
sekret
##kuj
islam
100
##ight
fr
gotinê
berpirsê
cara
##art
##dp
pdk
##lar
stran
##ans
##îsê
asayişa
siyaset
cor
##berên
sûriye
aşkira
feb
bas
wezîran
jidayîkbûn
cin
ram
hevpeyv
40
rastî
opoz
erdogan
##tern
##elî
dewletên
çareserkirin
eşîr
kil
tey
firr
çandî
ny
wên
##amê
gaz
##siv
haş
derdi
sedema
hebe
anî
##îyekî
demjim
##yona
##eyekî
berhemên
kurt
qon
qurb
http
##ess
##ikan
##ewend
hêla
nob
çiyayê
dane
heb
pirtûka
bij
##tine
armanca
##iyona
##heng
##eyekê
êz
berj
dawîyê
nah
##îkol
dor
##oma
rêvebir
dikarin
swêd
tevî
nek
çekdarên
##urg
nu
avakirin
hunermend
##ikên
rojê
kurê
îtil
rûnişt
mamost
##keve
vala
bad
##deyê
nûnerê
malbata
rawest
qu
##baran
atom
diçe
##qê
##ariya
dijîn
##axê
##inc
##ga
alîkarîya
##îrî
kurdistana
zimanên
mêrdînê
navçe
bon
rojan
erz
ps
silêmanîyê
lew
##ûst
derd
piştgir
têne
##irandin
cez
im
biçûk
str
wil
##ell
ta
aram
îl
rojên
îtal
##ide
mec
bergir
i̇
##ian
bil
must
##ph
dijwar
dîrokî
axaf
hêr
gelhen
gelhenasî
mas
operasyon
##ura
pesend
bernam
fu
tom
salî
şaristana
##wî
##ebûna
stenb
hîn
nêr
##deş
##andî
sos
ewropayê
şî
##wd
den
awayî
gundistana
rev
lîb
190
nabe
##îsan
hatina
brîtaniya
des
polîsan
bud
mihemed
jap
miz
yew
##çin
##qa
berjewend
##anîyê
şew
##ato
##amber
navên
birê
civakî
##ww
##ere
##iyek
beşar
##ace
meb
digire
##ewa
rewşenb
lêkolîn
##ca
##irî
har
hêza
çûn
gelekî
kemal
##adî
zîn
hol
##wa
2005
hevdu
beşdarîyê
heleb
fraksiyonên
îranî
axa
bdp
hwd
www
abor
afr
îsra
îtilafa
##brah
bim
##êran
telev
kiş
et
bersiv
##ale
rojhilatê
hebû
##ember
##ibin
tevlî
zêbarî
##ort
hikûmetê
##sef
##çî
##vin
##vanê
pêşket
##isê
şeş
##fa
radi
biwarê
parlem
bord
digel
ban
demokras
bis
beşdarî
silêman
sar
hebûn
desthilatdar
##ze
##onî
##tinên
misirê
beyan
##all
nex
rêvebirê
##ivî
eyad
wid
jiber
parlament
hevwelatîyên
mîna
cîhanî
rêj
isray
bêjedana
rûniş
##bsp
çînê
haşimî
çawa
kompanya
##bek
gundî
mebest
tend
beşa
polît
qedex
ferman
##ilman
felsef
maz
welatan
##col
2013
dewlet
mat
##warî
##okî
sekreterê
##parêz
tîrm
##garî
jinan
##eye
width
bes
mus
##weş
parêzgeh
aloz
dav
##anb
êv
gihij
2003
mek
nbsp
hemî
demokratîk
mînak
dinên
encamên
civata
çekdar
haw
dew
isbn
bûyer
border
##son
##manê
xwedê
ebdullah
gur
##tor
##evan
rojavaya
teb
##sin
hilwest
##ewl
hevdî
kontr
dadgeha
wateya
bêjedarê
selahed
karbidestên
##weya
dezgehên
siyasîya
rûsiya
dîya
serokwezîrê
##ayet
herêmên
##girtin
##ayan
vekirin
dihokê
piştevanîya
qasî
sî
çandin
roman
xebatên
girtî
##oman
##abin
nake
##eft
##uz
pêşîn
veb
##atî
pev
##weyê
fîlm
rûpela
îngilîzî
00
##eg
riw
##can
opozis
wanê
did
##îran
pêşn
2004
abdul
##êje
35
xelkên
paşê
sivîl
sînorê
##ral
can
##aye
##ite
razî
sol
dost
hav
##eteweyî
law
##ikin
ex
##bert
bingeha
temam
şerr
derveya
pis
##dara
xwediyê
kîm
sazkirin
hebûna
veguh
2000
sedr
komp
##las
hest
##deh
##nk
##yl
latînî
tekn
afgan
bigih
rapor
binav
ten
destûrê
duhokê
##yayî
pîkol
werger
zarokên
si
firrok
cureyên
meş
##me
rez
êrîşên
##girtî
##kevin
nekir
zax
diş
jiyan
pêj
mey
riya
beramber
pêşin
kêş
girê
mijarên
gotina
navdewletî
##her
##pên
##inî
turkiyeyê
hûn
##ii
bûyerên
vekiş
dihên
neteweyî
weşanên
##brahîm
##ou
niştî
dikim
mist
siz
##may
hîna
naskirin
org
##girên
otom
bex
##idae
warê
derveyî
sazdan
nivîskarên
eswat
şehîd
kurmancî
for
nor
sin
##ica
mak
damezrandin
biş
##mana
##uliraq
keş
rêkevtina
pêng
con
bic
fransî
nec
##ros
bêh
eswatuliraq
cot
##kere
diz
efr
xane
milyon
##endî
ell
##şa
##atîk
do
navneteweyî
dîn
##bîn
bûyerê
##tiya
##color
sêş
##ceya
hatîye
##karên
tirkiyê
siyasetmed
mûş
şerm
daxuyanîy
bêjedan
konferan
joh
kat
##sch
weşandin
şandeyeka
malbatên
deh
##okên
tariq
kand
##ry
encamdana
civaka
valakirin
bg
bihîne
siyaseta
dos
val
##dû
cîhan
dya
niz
##qu
pirtûkên
##ın
mela
nî
##mî
serkir
cihên
to
##atîya
ragihandiye
##obîl
gelên
kongireya
xirab
rol
hema
derbasbûyî
şêr
fîz
serî
ver
anat
del
bgcolor
bernameya
zanyar
rêk
##andiye
##berg
hevgirtina
ferheng
##par
##werî
dora
mor
elek
res
zarokan
tv
##çav
hî
##io
##omê
bibîne
alîyekî
paraz
nivîsandin
##exê
petrola
##enîş
giştîyê
misilman
kovara
pêjgeha
bat
dabeş
##yonê
konsul
sîstema
niştimanîya
##qînê
##ût
navxweyî
laş
##ru
##ün
rizgar
mit
ac
sef
barak
ciz
şad
bilî
##êrî
komis
##rast
##aceae
demekê
##êre
ynk
ken
soz
##irina
qir
deb
dîwana
hemberî
gener
cejna
him
bexd
pena
hevpiş
beşekî
avakirina
gotinên
mîl
##ius
deryaya
çêd
##danên
hûr
anîn
45
xizm
sip
bên
pej
qet
##co
bila
destên
islamîya
##edana
pevçûn
ge
ellawî
gal
##îdê
bandora
rojnamevan
on
pan
##bor
herdem
bazirganî
##aç
almaniya
dibistana
tes
sîyasî
siteya
veş
çir
dawîya
jîn
tim
teqîna
şoreşa
qey
##afir
fa
mix
sun
weşan
##pî
demên
ph
qas
##êt
##eku
hund
pîş
##ogra
paytexta
nakin
##gro
danûst
pel
ek
giran
bor
azer
mizg
32
##urî
bav
fest
##ys
gotiye
##lem
##ezar
seq
îslamî
##bekirê
vekir
##to
##min
pêşan
##olojî
##îyeka
kiribû
dît
pêşî
dîrokê
xwepêşandan
##ûnê
îd
##ron
nehatiye
kerkûk
aştî
kab
##çûna
zag
##gîr
##ûya
hezaran
cure
hoş
ley
sax
hukûmet
2001
ben
##zanîn
##jen
çem
##tiye
##ûsa
sûriyê
1991
gol
teqîn
siyasîyên
cer
##lom
digih
##edan
otomobîl
xaka
hen
wergirt
bandor
sen
189
sem
pîv
##hed
##ekên
êrîşa
kal
stenbolê
jor
holê
##yanê
hevbeş
lu
çekên
desteya
afganistanê
kew
ok
##dema
nebû
ragihandina
##sel
##îtî
danîn
sûd
tan
nehê
33
ha
##ern
kî
##evanên
dibîne
gotar
hac
2002
israyel
ham
radiy
ceng
dîl
mo
zew
encamê
xem
kongr
##andinên
wezîra
împer
37
dibînin
##zî
##ile
34
##yn
dêrs
êriş
erdê
##qî
beg
dok
und
zor
lez
çemê
bizav
peyamn
pa
çîn
çarçov
nif
##pe
peyda
##erîm
##set
##ork
repor
john
36
##ate
sibehê
berev
xet
1992
xwendina
bêtirî
zanistî
sc
çarçê
tû
sereke
##izê
nerazî
navxwey
##rû
alf
##isch
rêxistinên
serhildana
tor
##meh
##xw
back
jêderên
##yarên
adil
##ung
dinyayê
navçeyên
##ington
nim
##eger
bikeve
grû
gef
rih
gotara
ciwan
daxwazên
tevgera
teh
bingehîn
##berî
parç
##kurd
dom
serkef
qezaya
##ire
##vaj
adarê
60
şing
lî
êl
qurbanî
##şê
text
##êjin
yekîtiya
asta
xweku
parêzg
gava
##bî
ewleh
faris
##eriya
newro
telef
gew
##20
baştir
nayê
zir
##span
destûr
##vanan
mustefa
##mas
lîsteya
wex
jîyana
gil
38
kesekî
peyva
xebata
##çê
silêmaniyê
tah
nivîskarê
niv
##enda
##kevtî
##deyên
##ênî
girtina
##yo
ant
dayik
dawiya
fransayê
pêx
qanûnî
mistefa
bah
tiştekî
şermezar
ru
##esaz
##îlî
cal
pi
1998
qew
çaverê
prof
dilê
ho
dikirin
bur
tra
heval
mod
war
dagir
brîtan
rexne
##ground
right
san
##lû
derê
pirtûkê
daxuyannam
kompanyayên
îslamê
pişka
reh
xera
zin
îst
pêvaj
sedem
1999
pakistanê
kend
##sên
##sîn
##ont
##exan
navendî
##asê
##atoriya
taxa
xwenîş
zarav
dîsan
firok
koreya
background
naver
nûner
deveran
mirovên
##ding
azadî
şaredar
tomar
bî
##emen
serdema
şewit
radiyoya
sim
##eda
kirdarên
hal
rûyê
nêzî
bombeka
80
bra
teng
naz
was
##gî
pat
jos
key
##50
hatibûn
ewlekar
##ban
wal
##sk
enq
parêzgehên
plan
îbrahîm
derf
komarê
##ish
nato
rêberê
ceb
serxwe
almanî
muhr
anatol
elh
##iyekî
serbaz
erdnî
dek
şûn
bigirin
39
xizmet
97
##adem
osmanî
dîyala
mah
derman
dayîn
cam
hoz
karmend
daxwazê
xelîl
hevpeyvîn
nikare
piraniya
lîstik
mît
ebd
##olog
sêr
##êdî
azerbay
egerê
##ong
##akî
naxwaz
jinên
##bet
##ima
serdeş
##aza
bexdadê
1997
##mara
şirn
xez
zeh
eşkere
xwar
rewşenbîr
il
##helat
kirî
mol
sist
##lor
nahê
ray
##fê
##emêr
##aks
têkoş
gengeşe
yewn
kit
rij
destpêkê
cû
serjim
budceya
urd
tex
##istanî
##ity
bihînin
pêdivêyî
##îneya
##rên
elektr
##linton
nûçeyan
temenê
42
##gl
##enên
##ele
fermandarê
general
emîn
hij
peq
cejn
##heim
mem
dewlem
co
##eroj
damezrandina
dtp
komkuj
qay
##dir
##mîl
188
bersiva
dehan
nema
perg
ereban
fê
bidest
win
teqîya
mac
çim
mehê
sûrîya
mebesta
nebe
komeleya
cew
şik
fireh
hebin
41
km²
terorîstan
##bil
##ten
rec
kuştina
spî
sov
##ift
##kara
diyal
##ivîsa
sû
til
##iyayê
kirîye
##avî
##gere
demeke
kêmî
xalid
hêjayî
agahdar
danî
sad
nûçeyên
stranbêj
bey
1990
mixabin
akin
bul
##fir
##mayê
##efîl
1995
otomb
##taş
##kom
kesî
##îngê
boneya
psîk
46
tirkîye
almanya
pirranî
rûniştvanên
frans
topbaran
salve
1980
bizava
xo
##ozof
mûşê
yo
biparêz
bakûrê
rêjeya
xer
osmaniyan
left
deş
2014
pirsgirêka
pêwîste
300
bet
pad
##uya
ewî
dengên
dengbêj
tendir
pit
hilweş
peywendî
##canê
cil
##kerên
1994
iz
##gu
##ock
pal
48
##ijad
47
derbasî
zel
biyanî
jimar
hindek
festîv
##arîya
enf
sêyem
vedî
maweya
şerî
refer
zayîn
goman
##ium
atomî
dewlemend
dixwe
parêzgarê
bûyera
çanda
poz
##mên
piranî
avah
êrîşî
tawan
##maş
boy
stêr
##hej
tune
##gîn
derdikeve
birin
xêz
##anda
hevwelatîyan
tax
partî
serokwezîr
zil
##bur
cell
bala
ziv
##ris
rûsya
##xê
dayîk
fiz
fîlozof
girêdan
tiştên
colspan
52
naw
libn
robert
##çar
wik
##xaneyê
dixeb
58
est
##edîn
asî
şaş
49
nêvbera
##sal
##şî
1996
qes
##ır
pêzanîn
karî
sûriya
gihijt
so
##karî
merc
qada
bern
dîp
amadebûna
kandîd
qel
şamê
##les
malê
belavkirin
44
lond
olî
yaneya
##şembî
şirnexê
43
geh
##perest
felah
guneh
navçeyê
şîret
navnet
1993
beyannam
mos
nîs
reut
##ove
pîrozb
zana
##orn
kûr
##ken
pêşve
rêvebirîya
##anînê
peyman
dadgehê
70
nev
tîne
##pt
asteng
almanyayê
têkildar
51
şandin
##aa
die
kesê
mirina
xanî
bare
xwîn
55
ragihandinê
hêriş
54
kevir
sosyal
referand
ebû
##iyet
##rop
şerrê
xwendin
fraksiyona
cud
birayê
tirkan
alîkariya
demokrasîyê
##stît
va
##ekarî
gerd
rûniştina
53
ii
no
##uş
tîm
##cle
eve
xebit
tîma
ur
lewra
hêş
##iç
dêrend
56
zêr
berwarî
##erast
erzîr
nad
##enas
hilbijartina
kombûnekê
akp
şûna
jîy
yekgirtî
balafir
albûm
êvarê
dana
##uma
##îkayê
belg
nivîsîn
şehr
didom
##sen
kerkûkî
nasîn
##ien
diyalog
derhên
berdest
herêmî
televiz
by
lêkolînên
paytextê
500
rem
##ld
##etîya
##urê
2015
helwest
têkiliyên
hilwestê
pen
dig
xwenîşand
kin
lêger
##ice
digirin
abdullah
swêdê
alfab
leh
êş
asayişê
##xe
##artin
##ênê
edeb
doza
##ver
##avan
##iyanên
ala
rag
##ganî
bîne
##esê
wergirtina
bingehên
malan
##otam
helbestvan
59
deme
dadgeh
bicih
navnetewî
desthilata
komisiyona
dizan
ezm
polîsê
gulanê
aştîyê
serokatiya
selaheddîn
niştîmanî
goyên
pirranîya
buh
##eman
beşên
sedan
##8an
rêbaz
hevwelatî
sîr
peymana
bixw
badînan
bexdayê
hêdî
derya
##ive
wêran
anku
biden
##nivîs
hej
gelem
##îza
pirsê
kovar
dimîne
lo
neke
wa
##ein
##ner
kurs
kevin
mele
##ان
projeyê
dêrsimê
sovy
intern
dixw
hêvîdar
stir
eşîrên
kuwey
erdhej
dur
hersê
bibînin
nûneran
bikaranîna
dilov
binavkirin
ret
##car
serwer
##name
akadem
faun
##ts
tehr
##99
jiyanê
rojane
hevalên
bikevin
dîdara
pap
web
##îşk
goran
dara
bixwe
dawiyê
eslê
57
##do
##etiya
##orf
##ith
##awa
mazin
krîst
kontrol
nez
##ula
xistin
cîran
hok
oc
von
çin
##ue
mex
nivîsgeha
întern
paraztina
mijara
faunaya
kîl
vekirina
cihanîna
awayê
##îre
hatî
rengê
xizmeta
heşt
daxwazkirî
mayin
ara
diya
peyamnêr
naveroka
sl
##danî
##hê
berhev
mirî
kombûnên
rêzdar
ewledarîya
demîr
suriya
xaneqînê
bêd
feq
têgih
muzîkê
derdora
berjewendîya
kanî
xwînê
##opotam
##ies
##hol
##eno
arêşeyên
wash
reuters
dengan
awar
şeva
oz
çel
##nama
mezinên
186
##ira
##ilî
##ement
##oglu
prot
îtaliya
##ûne
rêberên
hikûmet
nobelê
##iana
##abê
cîgirê
term
bit
çendîn
187
aq
hak
span
##ekanî
##mah
pêy
##dama
jina
##umê
##xane
##res
##ary
##asîya
mid
yewnanî
tol
şeref
projeyên
ahmet
##uf
dengdanê
##ceae
agiriyê
##emêrgê
ener
navokî
derxistin
heyî
hejmarek
cê
lin
us
##lên
bigire
têde
xwarê
bûna
zank
xurtkirina
samî
parz
malper
nikarin
rexn
xwepêşanderan
##bas
basa
washington
welê
##ön
cihû
##ack
duyemîn
##bey
serans
rûsî
çêkirina
afganî
biryarê
ir
##ceyê
##ehman
##maz
##îyane
fut
çer
##lek
muzîka
hişyar
ni
dahat
##ure
sup
parêzgehan
serjimariya
kana
west
çil
##uc
##aj
bergirîya
##lîsê
hemwelat
urdun
##rata
##îzm
girtiye
netewî
evaya
neq
azadiya
alîkarî
rihayê
mezintirîn
tevger
##f1
##no
beşê
bedir
seqizê
bînin
##mîn
##ebû
nakok
qonaxa
##mehdî
berxwe
bax
nes
beriya
bêne
ris
##perî
##iyanê
vol
##hr
ola
qam
efrînê
alfabeya
koş
nerînên
press
goyan
çîrokên
televîz
fik
##´ê
##anin
aliyên
rûpel
ermenî
erdnîgarî
hed
##olî
dever
şêwey
pêşkêşkirin
pispor
pejirandin
derxist
##ingen
pesnê
90
po
serma
dêrika
hîngê
##up
##yek
kun
##urt
partîyên
çalakîyên
##îstan
ebdulmehdî
eşîra
##ensis
bb
##burg
##ullah
##ivîse
perwerdeh
çavdêrîya
tîrmehê
hoşyar
miş
##rad
##rayî
##engî
##gotin
mehab
dabû
bûş
1979
netew
york
serkevtin
##ekîm
emerîk
beşek
fêr
##êra
bihêz
dadwer
##lı
serdanê
nûjen
hevpişk
awist
romî
##aniyê
##eza
##bûrd
wêjeya
por
##ûgo
##one
endama
destwer
##gehan
destnîşankirin
qadir
radigih
##kes
nîşand
welêt
gl
##tîn
##ûnî
##ihê
helbestên
çiyayên
xwarinê
##stanê
##ivers
binpê
##afî
bajarokê
nexş
##sh
big
anko
bira
180
asyayê
xwepêşandanên
nekin
zaxo
qasim
erzîromê
cûr
neyn
îş
şa
##îdan
##izî
hevpeyman
arîşeyên
îz
##qel
##itz
şared
baybûrd
besra
gem
şîn
##ota
##atiya
pêşmerg
pêxember
##br
mezopotam
sk
karûb
hay
pûş
##tiyê
##34
##24
encûmenên
pişkin
kanûn
##ult
kesek
werin
mehmet
xwekuj
rêkevtinê
çînî
##tt
kongireyeka
demjimar
qedexe
rus
amadekirin
kerîm
çiq
bermîl
tundî
##ational
stranên
receb
otombîl
cîr
evd
gim
îsa
##tek
##ges
##ho
xelîf
pêncşemê
kompanyaya
pêkhatên
hevdîtin
kabîneya
deşta
ist
qos
##den
##ül
biçe
##ivin
serkevtî
##iyana
xaneyên
çarçêweyê
şam
##ial
##30
lidar
##azê
##andinan
çêbû
hewil
farisî
ewe
##big
##îstanê
erkê
##besta
serdeştê
fl
êrîşê
sûriyeyê
helebçe
ziyan
##êrin
1988
birêveb
##îknas
kongreya
##okan
2017
gelemperî
kap
xora
pîrozbay
balyozxaneya
daxuyanîyekê
nisê
##fer
##olojiya
rob
##îzan
mehan
winda
mane
sîne
şeq
radest
pêkanîn
parêzgehê
1989
projeya
hevkarîya
nenas
sum
yekşemê
hill
##hejm
teqiya
vedi
##iyanî
2016
karekî
guhertin
xwarinên
firrokeyên
##ewer
##uha
sîyas
kulîl
jo
##beran
qeza
axaftina
futb
xweda
rewand
misir
bl
##rin
diçin
##omet
kad
xew
yî
##85
##îyeke
perwerdeya
bism
temamî
##wanê
bext
rûsyayê
împeratoriya
gimg
gav
destûrî
1970
cûda
lad
rojhelat
postên
husên
fey
men
##fel
dis
##iştina
maye
pêşketina
##tal
##32
îsraîlê
newrozê
mot
wes
baxd
##iyekê
gotûb
best
bêje
aştiyê
##kel
serdan
##vest
taybetmend
bimîne
##cana
##ahiyê
sûrîye
axaftin
operas
gotûbêj
wel
xêr
##qet
##atên
birayên
dûv
xebatê
sibê
qonax
japon
şewitandin
um
##chen
navendiya
##bare
dûrî
yar
##ûsê
gulan
david
yêk
##tîv
namz
##tim
##mal
serbest
sînorên
##ûç
##ates
daray
bîra
##ux
##îkên
welatekî
ednan
kanala
dolar
##ci
##îzmê
paşî
civakê
libnanê
has
mi
şike
ال
rêbend
demek
nirxê
çarçoveya
herç
xwê
piştgirîya
zaxoyê
sêşemb
##êl
berz
hevpeyvîna
zaz
##bij
##reş
stemb
muhsin
tundû
id
##rasî
bawerî
rady
perwerde
geşt
şano
sipî
tûr
##36
demokrata
##guher
##iyane
kontrola
biy
kirdar
paşa
meriv
hefteya
dîk
gev
##cl
1987
sêrtê
his
##xa
stand
pêdivî
sîstem
stirat
bona
sêw
rêzefîl
kişand
matem
ca
##ier
biçin
neft
gelo
fermana
1960
dihatin
dizanin
##ame
ewa
derhe
dihate
izz
##je
##inên
##îlan
werz
tehranê
kuweytê
##35
ang
giştîya
îraqî
plana
vedîtin
berdin
enstît
1982
vekirî
##dd
##37
##andine
sêşemê
400
tarî
pêşxistina
kîmya
##istanên
gov
##ahn
1975
xwezt
##ürk
dîplom
##amen
serokên
##kevt
şandeyê
niştec
egera
aborîya
klas
nab
##îdî
##39
##işê
##eşop
elq
gerîl
adara
##ea
##îyeyê
nehatine
kanûna
sul
bihêt
baweriya
zagros
nat
tirs
ewrop
bingehê
esk
diax
##maya
nexwe
çimku
piranîya
##îtan
ahmed
kult
înternetê
baxdad
##tu
##weyî
##got
tevahiya
xwendek
##rich
dîyarbekirê
bedirxan
şiv
afir
rojnamevanên
nerm
##yeka
##bûne
150
dilgir
careke
1946
soranî
ebdur
jîyanên
kak
yeke
anîna
##karîyê
bihar
seîd
tûn
tij
##ereyê
serhed
##ebî
piros
dîm
jêderê
hindistanê
bixe
##rik
##42
goş
hunerî
polîtîk
karmendên
bîn
gar
zey
##rîn
dûn
mich
hukum
dezgeha
kevneşop
josef
##derî
##vanî
##edî
##îşê
lêpirs
nekiriye
##gil
bixwaz
##ada
komela
biryarên
parastinê
bêr
my
##lim
##ella
çarşemê
balkêş
diyarbekirê
mûsil
xalên
laşê
dêrendaz
nînin
##ly
bereya
1986
mizgef
bol
reft
dewletan
abd
rojnamevanan
pîşesaz
serxwebûna
ard
omer
##rehman
îsma
dîdarekê
ceh
erkên
hilbijartinê
efs
terorîstî
bixin
geor
gola
kos
##ebê
gelhe
##roc
xerab
borî
##idî
serhejm
karkerên
rengî
clinton
botan
##evê
##gerin
mûz
xaç
serokkom
1984
profes
tendirist
ec
turkman
paşeroj
ce
tam
##erd
##eve
biwarên
hevpeyvînekê
95
mîrê
##ekêş
bîranîna
şevê
birêve
siyasetmedar
şingalê
##tîya
##ûk
##ibandin
helwê
##iyonê
hewram
tîpên
cen
mazî
##hal
##emî
rah
stat
kob
##xaneyên
têkel
tiştê
pîkolan
anatoliya
kif
sab
ul
##ûyê
bakûr
biryare
milliyon
desthilatdarîya
vekişîna
zankoya
xat
##irên
cihekî
##cey
##10
rêyên
kod
hêsan
august
zex
##aria
##eba
komên
##îşa
paşîn
weşana
paytext
demar
rojnameyên
celewl
çawanîya
enfal
yanî
##ila
##îte
hilber
teor
şax
##bin
##bîr
##mad
##ore
derbaz
je
sy
tab
##îq
##ûrên
kujtina
rûniştvanan
zord
##bih
##iyard
##êjê
tewaf
kas
##îp
##47
rêkef
dijmin
asayî
rêveberiya
huner
çîroka
leyla
ewlekarîyê
75
kehr
##iss
dijwarî
nebin
armancên
bazirganîya
yas
mun
##hî
##ney
##qt
##çek
##aret
bida
##edanê
dihêt
hêjayê
benda
mana
##yarê
##25
1981
petrol
înîyê
agahî
keça
pêşîya
lêkolînan
avêtin
bêhtir
mêj
##bekir
berdan
pêşwazî
mûsa
##qas
##45
##ayetî
giravên
##engê
##oph
1983
dirêjîya
fre
##kt
##ji
yawer
girift
univers
wêjeyê
îlonê
konsulê
zehmet
het
om
tak
##gêr
çavkan
lîstên
rojname
xelk
##asyona
hizir
pêvajoya
gomanbar
jêrîn
bergirîyê
cema
fat
zemîn
pêşinyarên
cebar
form
mik
wind
rakirin
rageh
vekol
mur
mast
##40
serb
amer
pêşkevtin
hevpeymanî
derveyên
demokrasî
çûye
bikim
konferansa
yem
##lîn
##iaceae
##60
gelaw
pirtir
terorê
careka
guftûgo
maş
metir
##iran
##stan
wekhev
frank
hacî
pitir
eur
##etiyê
185
civîna
ewropî
agahiyên
kaz
nûçeyeka
girtine
muzîk
xwestin
##int
1985
xanim
##bach
dend
fet
nûr
##usa
##qîn
##11
nebûye
keyan
swe
##itin
##ach
##ill
baran
##usen
çalakiyên
dyayê
fol
rok
##perê
##cel
##xin
îsal
samer
serbixweya
veşar
siw
wîl
îmar
##onên
hikum
destpêkirin
ehmedê
fermangeha
hevalbend
mic
##bax
##ren
##xanê
pirsgirêkên
rewşenbîrî
##bel
##îyekê
##eva
nef
proses
roma
bexda
##ograf
biparêzin
îlan
##baş
aliyan
pêşiya
##lag
nivîsên
perç
gazê
xor
##lad
##ki
çep
îh
daxwazkirin
sebah
ceza
pesendkirin
sat
pêwend
##ender
boz
vex
barack
çaren
##pêç
çapkirin
bro
pez
##saz
##for
##iyeyê
parîsê
dikevin
mirinê
##inan
dewam
anîne
##itî
##kiriye
rewşê
dixe
stenbol
şadbûna
naxwazin
enerj
qamiş
##ceyfî
eg
tînin
serper
saliya
cîhana
kevt
berfanb
dosyaya
paul
laz
##fe
navî
all
komarî
veguhast
çiqas
hewramî
som
##geheke
polîtbur
##ebaran
elman
##raniya
endamekî
dewr
jam
çewl
##arîyê
##una
hevser
##otê
çekdarî
guhdar
perwerdeyê
##dayên
salox
wergirtin
nîşana
gulana
1977
hişk
çekdaran
brîtanya
riswa
don
pop
qal
îbn
##21
##înim
##iyeyî
fars
sermawez
gent
ki
pest
şiw
##dam
##adt
malên
bej
erk
tevl
spasîya
amadekar
muhemed
padding
cm
##tar
##yd
rûnê
desthilatê
##ensî
##edê
pêl
mag
978
öz
##vana
kêl
doll
neynewa
99
hir
hur
lîz
peh
kirdara
avrê
bajarekî
zerdeş
siyasetmedarên
##rist
##lum
##osa
##26
herdû
reg
##evî
binem
##perwer
berpirsyar
şehîdan
navxweyîya
sistema
xoras
xin
seret
##anîz
element
nûçe
peyvdarê
xes
ders
kesk
kombûnan
mijarê
reporta
qah
##oyên
##27
kerta
îtalî
çima
pîkolên
##îzê
pîrozkirin
zazakî
nih
qaz
xala
berg
##lap
carek
gunc
solid
piçûk
koşka
bbc
lîs
nekirin
ûd
##31
##stein
##îkan
komê
îtîl
kongireyê
bimînin
bexşa
karûbarên
##nasî
werbig
akincî
1em
gre
nan
##38
darayî
reşîd
##olojîk
şîretkarê
##oç
##ych
##ily
##îtiya
çavên
##ical
rêxistinê
şeqla
radestî
fe
##46
##wir
romana
nobel
pêzanînên
ruh
sind
##ster
##evanan
gora
kesayet
demjimêr
kete
loma
tran
##xur
##îneke
teqînê
65
waş
yil
##ti
dist
##aman
##amet
civînê
1974
xwendevanên
malbatê
dixebite
tewafu
hom
korê
##wanî
##ime
bûbû
hindê
swîs
ling
nîn
##riya
##ûz
##16
xweser
komar
giranî
##demîr
xwedayê
diplom
pêşinyar
gunehbar
bismilê
berçav
##îsyona
piroj
astron
cemal
serbazên
wor
##bs
##gin
dif
diq
##ede
dibê
firo
duhok
bernameyên
nîşandanê
niş
vi
##ann
ali
rêw
rêber
mirovî
astê
duhî
şemz
wêneyên
elhekîm
festîvala
ocalan
lêd
##sl
##şe
##eşê
çavan
duşemê
##îmî
1973
##ûşî
baybûrdê
nar
##vî
##cr
înê
bawerîyê
xul
##ory
tep
sedî
jinê
1976
colemêrgê
barê
heke
##29
##grin
xizmetg
##iel
navera
girava
kêmanî
serhildayên
riwek
cizîrê
demîrtaş
##gal
##amên
##êja
##cep
çapa
zayînê
cezayê
şêweyekî
carê
kut
gote
kuşt
çekan
##hatî
sedemên
celewla
gö
not
nîj
##bûr
##yara
anîye
ven
zoz
ûr
##jîn
bilê
rabi
bûd
bajarî
##îtiyê
piştrast
turkiyeyî
zêw
kehreb
neş
xûya
##hel
##way
dêra
şêwaz
##baj
tendur
##akir
##hema
çiriya
enstîtuya
bond
##44
liser
lihev
dabir
kiribûn
perl
împar
line
zeng
şi
##ketî
licê
hecî
pêşeng
nêzîka
koçber
peyvên
lîbya
riwekan
salvegera
mayinkirî
paq
sûm
##allah
kird
2019
lêbor
mezintir
bajêrên
farqînê
zewic
azerbaycanê
nisêb
##kov
##net
##şer
##xana
##iştin
##usê
##ick
1978
nexweşxaneya
krist
banga
nuceyfî
qala
bêyî
##ops
char
afrîkayê
gro
kö
uz
##let
##87
deq
height
rap
binêre
partiyê
alîkarîyê
niştîmanîya
##ografî
ga
strat
partiyên
weşanê
bîrd
komkujiya
naverasta
gend
##ça
##ık
prog
nasnameya
kêmtir
##ekirî
color
parastin
sekin
hevkarî
fîzîkê
saxlem
wêranş
##ua
##uch
##eddîn
binivîse
##ozê
temaş
terorane
news
collap
1928
derketin
felsefe
sems
sosyalîst
bw
alli
gundan
hukûm
swêdî
şaredariya
lêgerînê
çî
##ende
rêveber
##oci
genus
weşanxaneya
pêywîst
samerrayî
kef
yekser
asya
romê
gihişt
ut
##rew
encum
dinirx
dibistan
ketin
diristkirina
kewç
fak
ros
##awîst
leşkerê
##pag
heyderî
nîvroj
bijîşk
hunermendên
piştgiriya
willi
zelal
xeta
şeb
kop
mesîh
corc
ferhenga
port
##eç
##oq
serdest
ragihandibû
kurte
teqe
heyva
bawerîya
ketiye
peyama
xweztin
hijmar
goştê
##île
1971
nemir
berjewendîyên
yûs
##kera
##ftî
##keş
bikaribin
lêkolînê
tûj
semb
##istanan
##gerê
##îze
aramî
pêngav
gotarek
collapse
rav
##had
berhema
##ahîya
dibû
saziyên
##hausen
farsî
arêşe
serkirdeyên
daxuyannameyê
remez
urdunê
##edia
##îla
nasandin
1925
aştîyane
têkoşîna
eyal
rich
##´´
neçar
îsota
debbax
enqereyê
cap
##bikin
##77
nade
rêzê
valign
salveger
hêşta
izzat
qend
##ariyê
##înek
yasa
kirmanc
gotibû
axav
romanê
1966
bajêrî
##îje
gurc
hukûmeteka
klasîk
nabin
teş
##bînî
##ml
##80
##ja
##iyeta
##iyam
##keft
##îyî
encûmenê
ezîz
hunera
sept
silop
diparêz
îtalya
helwesta
gentiana
paqij
kîj
masî
##pr
##ebûn
##over
birçî
##izmê
##osê
1957
radigihîne
dollaran
son
##onan
recep
##îyanî
##karan
kêf
1972
ronahî
konsulxaneya
bîst
giya
çûna
şay
##pat
##çeyê
dida
##eks
hilawîst
##ûdê
firat
##barek
1967
heyder
1930
ragi
îtîlafa
##anal
##inde
awayekê
plat
derdikevin
kifş
polîtburoya
gün
roh
##lîs
##ustral
pirsgirêk
parlement
hîç
##çik
tête
dubare
##etîv
okyan
dekak
stiratec
seretayî
croc
liv
##illa
invest
##lîsa
##dayan
sîyaset
nemîne
çûne
pêngavên
derfet
sak
têr
şên
##wana
##ayekî
##olf
##bûma
polon
leşkeran
heyvê
baydemîr
tîrmeha
diyalogê
stembolê
gra
ney
##ham
##ekt
ass
mesr
arîşeya
dorpêç
pêşangeh
##dirêj
##enosî
sav
##istî
##omî
1969
hêja
meclîsa
çaverêkirin
william
fed
##kerîm
##dên
120
teqînên
qezafî
babê
çavdêrên
nifûsa
ave
len
sex
##qaş
##yeke
vexw
mehdî
xanedana
##ubl
nobela
##anbul
##firoş
derhêner
edebiya
seh
##dorf
##hes
veqet
rewa
chp
reşem
bazirganîyê
film
dabeşkirina
molek
sîrwan
folk
wîlay
darê
##betî
##pad
##olojiyê
guherandin
raport
serkeftî
pergala
##werê
##stin
##ander
das
rojekê
tix
îslamîya
1945
quş
bêjedaneka
tawanbar
protest
lît
##sanî
##oger
zanîngehê
hêl
dayika
sêdar
daxuy
1965
brîtanî
helebê
îsraîl
zêwye
allium
font
kl
nap
penc
ze
şemb
##dayê
serkevtina
##iman
kombesta
pirraniya
demist
##ekirinê
nerazîbûna
serperişt
qub
şil
##49
sern
##orên
bot
2018
##axt
koda
talîb
artêşê
meks
hozan
fac
mul
zind
çew
rej
##daran
##mann
mewl
hingê
navendên
1961
xelatgirên
norwê
naxwaze
demistura
dra
hişt
phil
##işîne
raya
##ling
peywendîya
teksta
rewandizî
radyoya
jac
ked
vet
xil
##stêr
##aba
hezîr
efser
dîyarkirin
daxuyannameya
brîtanyayê
dat
##rana
##48
tiştek
konfer
milliyard
operasyonên
james
norm
tez
##lat
bos
hevdû
xwîna
1963
medya
1958
international
gates
qut
îdî
##rayê
nêvdewl
cas
sîv
zem
##viya
bûbûn
berpirsekî
wezaretên
afirandin
##ûlê
perwerd
xurttir
wergirtiye
modern
hedba
cîranên
futbolê
derheqê
şeqlaweyê
bom
cîb
nep
mark
şahê
îngl
vegeriya
xwezayî
pu
nivîskarekî
cemîl
##lass
londonê
çewlî
nîvrojê
ragiahn
warên
##kenc
##22
##stit
hesa
##eber
amêd
zimanî
lîbyayê
pejir
şehristanî
lîm
sewa
xar
##33
##îrên
aliyekî
##ebar
arif
mezinê
hevpar
tevahî
##aca
berdewamî
hijmara
adar
comb
hon
qis
sm
wi
##tv
##rak
albûma
##unda
##ried
mamoste
dosya
penaberên
hundir
maşallah
gera
kaya
sent
##gor
##ald
##eyl
##ille
dîtina
hemûyan
xeter
neftê
fah
mend
pe
weh
zik
##işk
##ova
binçav
xirist
fîlmên
nîqaş
pevçûnên
jorîn
mosko
bixwîne
79
hot
sn
çol
destan
kursî
lîstikvan
nisêbînê
kîjan
les
ton
şop
bist
hêvîya
##ubey
êzîd
grûpa
nivis
bulgar
pozetîv
##hn
##15
dep
hatîne
goşt
##oza
propag
milyar
serkevtinê
lidarxistin
pehl
rên
zî
esmanî
aktîv
250
alîgirên
rêkevtinek
##luk
navdewletîya
rawestandin
tîrmeh
mexm
##qteda
1px
76
fon
max
sere
berd
##îyanê
elc
stock
zanko
kelh
nîvê
braz
îsmaîl
vexwend
nuha
var
yez
zîr
zev
dikê
bûya
binê
stew
hunerê
nexweşiyê
neda
vegerin
rezberê
keyaniya
lîn
sif
êla
firyad
gihîş
felest
##şembîyê
aboriya
bêjedanek
dîlokê
seranserî
niştecih
tet
xoş
hum
kesen
mut
mubarek
divêt
mîlyon
jînenî
qurbanîyên
mercên
midya
matematîk
##17
seran
##ediya
sedemê
##eynî
serhildan
kovarên
îngîl
cins
mustafa
klinton
pîl
qul
umer
##19
pêşhat
muftî
behr
êvarî
hemaheng
edî
pot
send
##gol
##yîya
##cên
##amî
##îkaya
nivîsandina
nûçeyê
bombbaran
proje
despê
london
kursîyên
bla
hên
zanî
##înanê
##ande
berdev
selîm
damezirandin
baweriyê
1950
ermeniyan
wergerandin
galerî
qor
yûn
##ps
##cer
serpê
serrast
bêjedanên
komput
rezber
size
cotm
kîlomet
world
september
hiq
pî
wiz
##cus
##iştî
nakokî
seyîd
şemîyê
felsefeya
tebaxê
danûstandinên
zemînler
dd
##bên
##ty
ewrû
engl
aktor
wate
necef
çêdibe
sing
zeyn
çet
##dînê
##gun
##înijad
##ehî
##akê
baştirîn
rojavayî
agirî
zaravayê
bêdeng
etr
fff
jenosî
sev
sof
yarî
##86
##irîne
pêr
demekî
dibistanê
erênî
##hatina
1964
yewnan
bidawî
600
ibrahîm
sîm
şandina
##amer
navdarên
##ole
ras
sale
bête
pênas
soran
serhildayan
##watal
ciwanên
serkird
çarçoveyê
biser
##ûmê
##gerî
standinên
sazkirina
arîşeyan
zindî
fo
qil
##so
##oanal
##mel
##şar
##atorê
##iyayî
avî
##idin
##acing
pileya
êzd
pesendkirina
kanada
kela
##urd
##ley
negih
bajaran
els
sazî
##iyonên
ebdulkerîm
039
##spacing
derketina
arîşe
revandin
cellspacing
nadin
uzun
##wataliraq
77
haz
##kanî
##kerê
##ım
##ales
karl
werdi
radyo
dollar
wêje
operasyona
hebûye
kompaniya
cellpad
cellpadding
cir
ep
sibe
terî
##herê
##vanîya
diç
erx
dîcle
amerîkaya
##last
behs
##omas
tebax
pêşveçûn
qamişlo
f1
xort
seredana
dab
karb
piştgîr
##awer
peywendiyên
peywendîyan
şêxan
xwendinê
1968
1962
nikar
islamî
parlamenterê
yekema
mêz
##îsa
##yr
##zt
##girtû
##rov
kombûneka
berpirsiyar
axê
heyv
1955
nameya
derketiye
hêrîş
stockhol
66
ff
##ars
##esi
elşer
ebas
batmanê
penaber
kendava
tîmên
ein
usa
##kr
##don
rojî
##ahê
birît
pişta
tirş
mehên
awayeke
1956
hevdîtinê
tahir
cn
dal
##au
##zer
kujt
zimanan
mêrges
afrîka
konferans
kandîdê
##exaneya
gimgimê
berfanbarê
avesta
seranser
fay
şek
##rid
##ayide
avedan
leşkerîyên
sînorîyên
bisek
dun
feh
lev
sew
##keran
parçe
dîmen
ehmedînijad
ermenistanê
hundirê
pîrozbayî
serwerîya
emerîka
dinirxîne
cent
caf
lor
qeh
vekêş
zorê
##zay
##ath
##atan
wergera
asmanî
husey
têkiliya
hevkariya
qedexekirin
çandinî
mehabad
perliyament
kaniya
##tîk
elewî
standin
##ceol
1959
parlamenterên
tayî
##qad
##atîv
berda
##urn
##îtê
erê
derbi
prote
mesel
guman
maddeyên
arêşeya
cinsê
kurten
strana
konferansê
daxuyannameyek
##f1f1
şaredarê
kirdareka
encumena
combret
f1f1f1
class
hor
hov
##çeya
##wn
jixwe
##elan
##girtinê
lêb
ingil
hingî
devê
fermîya
pkkê
agirbest
telefonê
fiş
ziyanên
berdem
raper
girs
herwekî
şaristan
piştevanî
demokrasiyê
meydana
dizane
elqayide
gû
zeb
##ym
iraqîyan
serokdewl
dixin
tîpa
zirav
combretum
türk
zinc
##sor
bip
deryayê
##dariya
##ewan
##nameyê
##enburg
fîlmê
dimeş
from
parçeyên
xwekujî
vedigere
reftar
yemenê
gab
iş
xeya
îde
##zanê
enwer
pira
##ican
##ibê
sub
alîkarê
atlan
genim
teyib
sizayên
navxweyîyê
window
xorasanê
wêranşarê
zal
##gur
##hk
kurda
navb
nave
herêman
destkev
hevdem
hêzeka
hinekî
helbestvanên
1947
krîza
koçî
tawanên
riwekên
pêşniyar
cengê
calceol
awistral
tundûtû
xwendekarên
mesrûr
qef
##hu
biq
req
##uth
nexweşiya
xelatên
razîbûna
teqînek
destwerdanê
pirosesa
bilêv
fîn
##oğ
##zad
dikuj
##îneyên
##omys
##ebo
##che
medyaya
îmza
cinsa
gaza
opozisyonê
##ische
wextê
mahm
dîmeş
çîya
##ric
##kek
##atiyê
##ûran
##use
##ifa
spanî
##şembê
bêhn
nivîsîngeha
otombîleka
mizgefta
hiqû
bun
dı
gom
mand
rind
herr
##oks
baq
seroka
komkara
sûre
##opt
balind
zimanekî
nebûn
nerîna
pêşangeha
parzem
bek
eyî
ziw
##iyetê
##masî
barzan
##ews
emê
dayikê
cureyan
kevnar
https
hawar
university
85
800
mêş
##rem
##fan
##yekê
##işî
başûra
beşdarbûna
azadiyê
helbestvanê
1920
qurban
teknîkî
meşhed
astronom
wef
##28
bernama
##edarên
desteser
dinivîs
##ument
êrîşan
rêvebirina
nexweşî
xwepêşandanê
elektron
george
mob
nw
sinc
##barê
##adan
##geheka
azadîya
1953
dimînin
kêşeya
gewr
ewropayî
##dik
##´an
##ör
bihêlin
rojnameger
dirust
##utsch
carekê
psych
opozisyona
##kurdistanê
seranserê
diaxivin
derbikevin
agirê
yen
##şem
here
madeya
diyarkirin
helbesta
1954
dîs
mî
semîn
wh
##kot
##oyî
##13
##anbar
yekgirtû
##geriya
##ozî
##leg
aşit
175
bizavên
postê
bidlîsê
parlemana
kehrebayê
cib
los
qazî
##bl
##gon
hert
destnîşankirina
biwaran
şirov
fîzîknas
hevpişka
birawest
##reyê
dabîn
angel
hevs
##bûye
diher
mehmed
xelas
misoger
okyanûsa
oder
zarê
##îda
##urk
##êdana
##axî
##ipp
july
##fff
sêyemîn
şivan
horm
kim
çom
##lik
##66
bihîst
pers
pirsan
disek
calceolaria
67
moh
##mat
kirmaş
gelh
parv
pere
damezir
bombebaran
hindik
verlag
çarçêweya
kendavê
beya
cum
gi
tiv
serd
##okrat
##kirinên
alik
##ewset
wergêr
çêkir
89
haya
îmam
##nes
##els
derûn
pêşeroj
dikev
##yarî
qanûnên
fermîyê
ferec
mêvan
çapamen
wêjeyî
##ayetiya
qesra
dilovan
rêbendanê
eskerî
zerdeşt
kêfxweş
lab
oton
weq
yus
##iyaye
##oker
##emer
##kariya
mezh
çêbûna
nexweşiyên
1949
1926
##ormato
raporta
kewçêrê
cîbic
fîr
iii
nur
pj
çên
##mos
##eket
bikir
##ilan
komek
salane
emîr
##kaya
nêzîkê
martin
xaneqîn
nekirine
69
wîkî
##înam
kiryarên
îroj
beşeke
helîk
kurtî
tekoş
axivî
tiştan
##ions
berfirehtir
##phyl
muhrkirin
eyaleta
lan
lav
##stadt
##enz
berlin
berbi
xwedan
baw
##adet
karkir
##igh
hesibandin
ketine
nemînin
biparêze
mezopotamyayê
vexwarin
ffffff
hekarî
şex
##12
##ار
biç
hec
##olên
hikûm
bazar
xwepêşandana
eyûb
masûl
veşartî
xizmetguz
stratej
lêbelê
rh
sine
##beya
bac
werbi
wezaretan
destpêkirina
bûyeran
asayîşa
krg
filist
nêrînên
bizavkarên
ewlehîyê
kulîlk
lang
şekir
##tator
##43
##ıl
digot
derxistina
nivîsand
beşdarîya
hefteyê
xwepêşanderên
vegere
brîtaniyayî
beramberî
akinc
hillarî
##feld
serbazî
fin
hekar
serdem
##anak
##girî
mej
##efan
teqand
birîndaran
komîteyên
1948
1918
hunermendê
atomîya
bicîh
xwepêşandanan
cerib
zu
salekê
##itiya
piştê
lawaz
germî
aqil
mehabadê
rêzefîlm
çerm
##yekî
##jad
dey
derkeve
##manên
demir
rojnameyê
kurid
franc
şoreşê
bişîne
qoserê
molekul
fad
qoç
sas
sît
mejî
xwer
##lingen
rastê
peter
qereb
teybetî
parlemanê
êlihê
perwerdehiya
dêrendazên
bus
leb
şeng
bûm
êrîşeke
şarez
xwendiye
şanoyê
pasevanên
##lary
selahedîn
şehîdên
rêkeftin
xûyakirin
mîk
ran
##dek
##pp
##cd
##xî
##elên
##endê
##igit
gotine
navendê
xaneya
gihîj
rejîmê
leşkerekî
parlamenter
bername
leheng
berxwedana
kür
xeynî
şab
##89
##üz
deriyê
kirinê
hilbij
aşkere
rêveberê
##eph
sebaret
standard
ragiahnd
700
##rêz
##neya
dicle
alan
##ita
demeka
##bûy
##danan
kêmkirina
seyda
piştgirî
lubn
digre
bixwaze
meşhedanî
cl
mîh
raz
xam
##ûdî
hevj
hevre
##îta
emr
dûçûna
şoreşger
raman
lîbiya
hilwestên
daxuyanîyeka
pişkinînê
pîrozbayîyê
metirs
gendel
fahm
keyê
koka
nun
##maran
##41
##erhên
##alis
raw
gelêrî
nûj
instit
avahiya
berhemanîna
misrê
off
şîrove
rûniştin
telefonî
peywendîdar
nîsanê
birçîbûnê
mêrê
##uel
##tel
##oo
##mij
##alay
alt
##dead
pêşveb
##ise
##yema
misirî
helbestan
##cleyê
çavkaniyên
ffdead
87
##67
deutsch
jiya
alaya
##iser
bêt
hindî
##umb
berhemê
nebaş
dihêle
atat
terorîstên
1937
îlona
kîmyayî
resûl
debax
dîtiye
##xwîn
darayîya
proseseka
cnn
lay
##rar
##meq
##yen
##ygo
##ict
cîhê
teqînan
##asyonê
nimûn
slov
pêşmergeyên
mina
yigit
##ford
##edarî
##ezîz
##evin
##êjên
belavbûna
meras
tiştî
medres
lewma
mecbûr
times
kitê
fîlozofên
it
pek
with
xoy
çak
##bun
##hi
##mo
##artina
diket
diçû
##irinê
##eme
##êrên
germah
diyarbekir
herwesa
mecîd
dabeşkirin
fizîknas
aaa
##tora
##iyo
##îyanên
anal
amûrên
##uss
hillary
dengî
musa
nedaye
sivik
cizîrî
doktor
texmîn
##mon
##yûm
##yane
##én
bap
endez
##line
christ
diristkirin
ronî
zîndanî
çandinîyê
misilmanan
sûdê
newroz
şayes
çomanê
gam
gum
hama
rot
tora
yun
çîna
##bic
##ûlî
##ini
giraniya
seds
îsk
dariz
pêkhatî
mêrdîn
sirû
azerbaycana
çewlîgê
propagand
qat
##ük
dagîr
##karîya
meq
dibêjit
saziya
gerîyeka
179
hevwelatîyek
hewayê
sirûş
ramanên
wênesaz
danûstandinan
taxên
didome
rêbaza
netewên
kirmanckî
serperiştîya
pêşhatên
werbigire
cat
city
lal
let
ziyar
serdar
heş
##îyana
neg
abûr
bikaribe
berdewamiya
ajansên
komîteyek
heyw
bajarok
1931
pakistan
papa
micha
tendurist
pjak
cr
fal
qa
sîl
##banî
##ns
##ence
##atîyê
hatîya
##ope
##oga
komîteyê
1952
1923
îngilîz
quant
pêşketin
afganîstanê
abdus
ferî
hadî
pent
tef
çaxê
##ee
##ved
##andanînê
##yeyê
##daw
inter
##opa
##yonên
derva
1940
temen
html
lawê
pîvaz
spanya
mezopotamya
etrûşî
giyanê
mîs
say
##arek
heq
real
weznê
##ics
serokatîyê
dixwazim
xaneyê
dirêjiya
family
dîdarek
hişmend
1919
girêbest
efrîna
împerator
serdeşt
sêwasê
sermawezê
mêrgesorê
ci
mens
##ref
##len
##kray
jîyan
##ayîya
alim
##evanî
sazûm
nerîn
koreyaya
nîsana
but
cend
carî
ober
tac
##sey
##skî
##ezr
##tepe
beşdariya
amadekirina
aydin
serhildanê
malbateke
çapemen
aştîya
bêjedanekê
nerazîbûn
bz
hr
mün
ubey
##îma
bikuj
##eyîya
girêdana
terxan
lêkolîna
efrî
1924
1922
xalan
malperên
pile
firrgeha
etn
pêşniy
qeyrana
nimûne
dilovaniya
nakokîyên
pûşperê
bûdceya
kürt
hhk
ted
warî
xid
##tînin
pêşkevtî
binema
endaz
rûx
derbix
kêmas
riza
êzdî
japonî
mebestê
veguhez
çinarê
helwêst
şiwanî
avrêlê
gurcistanê
fot
fried
jen
sez
yor
ziya
##f9
##pus
serxweş
yaz
##îyament
girû
##îtanên
helbijar
##bike
muham
nebûna
merasî
sînorî
zêdebûna
nirxandin
pasûrê
parlamentoya
muslim
dişîne
xwarina
danîmar
sêşembî
geverê
waşington
tixûb
kav
keb
nis
qum
##det
##har
##meta
##55
##aniyan
dereng
gelan
gellek
##isi
yêt
bihêle
esper
azadîyê
1943
paytaxt
saint
hizre
germiyan
tomarkirin
rays
sumer
yûsif
daxuyanîya
sîvîl
huseyîn
kay
##nên
##ezê
biratîya
konser
##opter
kêşeyên
hasan
binemala
normal
vîd
##dayî
##şad
kurdiya
##eyd
##akt
demî
mezina
dîcleyê
murad
giştpirs
cureyekî
1941
##daye
serhildanên
leşkerîya
îzm
elşerqel
beha
lek
pab
syn
çaks
##69
##18
zimên
##iba
giştiya
axif
xeber
gull
amadebû
1927
şahîn
1933
ciwanan
rawestandina
michael
abdusamet
danê
hy
çe
##ewe
##si
##far
##fal
##cc
##enan
##ahid
arş
##cht
##icus
muqteda
şanda
rêza
1932
buye
1000
bijîş
desthilatdariya
wexta
zivistanê
dadwerîyê
72
88
kok
wusa
##ranê
kuft
list
##elînin
##raw
##ikr
gelî
mezra
turkî
dayn
110
rastiyê
nehên
romanên
çalakvanên
guherîn
name
mêran
tawana
beyannameya
rêkxistina
çarenivîsa
saloxeger
quantum
danîna
ima
riha
zygo
şerên
##sar
deman
##etîk
ewil
20px
pêşkevtina
ingl
wezaretê
buy
samanên
şanoya
sark
bigihêje
bigihêjin
êrişên
patr
qoser
cul
fî
host
ih
şarî
##oyan
##fr
##pol
jimara
berpir
derkevin
yekalî
##îteya
mirovekî
nivîsbar
xwendevanan
romney
damezrên
pişik
awarte
##önig
kinc
ox
##var
##ız
ewru
##kirine
rahên
helbet
reform
budceyê
holland
kişandin
dîyal
çêdike
enqere
erdnîgar
urm
anatoliyaya
wana
xerî
##mir
##canî
##cih
##eki
##andar
evîn
parîs
hemîd
kerbor
nivîskî
##000
ayd
nîvgir
nirxên
zîndanê
bizavkar
jef
vo
çêr
##uyê
dex
derî
komeke
##ular
devkî
##able
şert
bakura
berdewamîya
##thus
1939
thomas
cezay
îtalyayê
pevçûnan
qewimî
ezmona
supas
hevserokê
qahîre
elşerqelewset
ageh
gavê
lam
nîsan
vat
îra
##bara
##tro
##keyên
dic
bibû
##eli
hêzan
mirovê
##ides
##xaneyan
destpêkir
maddeyê
madrid
1934
1938
saet
##benda
hebûne
rûniştinê
roleke
topbarankirina
zêrîn
spanyayê
têkeliyên
jean
swedê
oderno
awaz
bîl
mang
##niş
##onya
ankara
karsaz
demkî
begê
hêzê
parêzer
hêsanî
prosesê
bîranîn
koça
erzir
hevdîtina
xerc
amêdiyê
esperant
hola
kez
merî
nijad
##fên
##ês
##irîn
dah
dazanîn
hewlên
polit
zanîngehên
main
rêzên
cureyek
1936
sîstanî
êzîdî
atomê
##guman
rêbazên
çelebî
facebo
zygophyl
kü
pex
##bullah
##kal
##pin
ditir
liqa
serbaj
##iyeka
emmar
cihgir
hinekê
##gotina
##tîj
##îkirinê
rûber
##dide
ebbas
guherîna
qurbanê
israyelê
xemgîn
termên
tevgerên
jînenîgarî
hist
kaş
pra
##şan
bersî
##unc
parve
##ulus
star
##dike
##ique
##odon
pêwîstî
nirxand
album
derdor
pêngava
gelawêjê
investkarîyê
serexweş
78
ibn
kg
meke
zaf
##udi
##jê
##win
amp
pars
##pêk
azerî
firoş
##port
1951
1944
mont
tebaxa
girtîgehê
pîvana
biyolojî
hikumeta
68
cad
hîl
sirg
##çer
##zin
##14
##ediyê
##esazî
ent
##ovî
standinan
inf
160
margin
##ketina
nehiştina
xwendekar
035
filmê
140px
zûtirîn
mekanî
penaberan
seqiz
baregeha
pêşkevtinên
bondên
dînî
tib
##bol
##çi
deşt
##ebe
##ahîyê
tirsa
##ico
erebên
##utu
çûyî
tije
helwêsta
ragehand
hezîranê
piz
yay
ûêd
##bela
##my
##çîrok
##ano
##ero
daku
pêşbaz
rêkan
aswataliraq
hêmin
pêşkêşkirina
derketine
seyid
zîndana
forma
##kence
ceger
peş
payî
rî
def
##atus
##mayên
berl
rêka
##isî
##ulê
turkîya
##iforn
çandiniyê
tendiristîyê
destkevtên
tundûtûj
canê
ges
kn
king
lou
rolê
sand
vers
xê
##zên
digotin
neyê
birr
amerîkan
arn
başûrî
wergir
seddam
nasir
##ofer
##çûnê
qebûlkirin
zanyarîyên
enqerê
fêk
tolhil
dilgiran
profesor
xesro
utc
xilas
konferen
cd
fos
qayî
sik
tera
##bad
##eyand
##emanê
##ting
deryayî
aniye
binya
##ute
##kert
bizavê
guherînên
##ischen
nemaye
fransayî
sîyaseta
nêvdewletî
kra
qûr
you
zul
şadî
##fi
navberê
##ayek
##aze
##beyê
kong
sazdana
zanîna
muc
avakirinê
##iraqê
xwedîkirina
xwepêşander
şîrov
kanalên
şemr
sunnî
kitab
fizîkê
îmaratê
lêborînê
otonom
cab
nayên
##tîne
##65
##aneya
##enberg
serbil
pêşkef
gotarên
dinya
super
dils
rêkevtinên
rêkevtinnameya
eynî
##bendî
pelên
mizgeft
tengava
namzed
paşeroja
jon
##tîyê
herîrî
herkes
navkirin
##dep
##tîm
sûrîyeyê
miletê
çalakiya
fuad
necîb
dixwest
beyannameyekê
guncayî
werbigirin
windows
beng
haf
ri
##zx
##´î
para
karanîna
stefan
parlîyament
bibêje
bilindên
zanistê
bidom
çêdikin
mexmûrê
edîb
ged
qan
saya
hertim
##edînê
##olan
##ivîn
salnameya
##bec
çavê
cihan
kujtî
radig
berfirehî
weberhên
hukumeta
wîlayeta
gey
kawa
meng
##23
digere
kum
biguher
##geran
polîsek
talib
dimilî
prensî
june
bill
gefên
dewrîy
tevlîh
richard
hilawîstîyên
bîyanî
flor
xak
##xal
dibûn
lij
têg
karwan
armen
##ifol
paşxistina
celîl
xwendevan
medan
ayet
1921
dipey
axaftinên
1908
nexoş
sovyet
land
mayî
qiz
xey
yu
îcar
##ient
##nis
bijî
##ated
vegotin
karker
dibistanên
pirtûkan
zarokê
zanin
rastiya
bazara
heskî
amadeyî
giringîya
ronak
bijar
erzîng
doğ
awareyan
ebdurrehman
enfalkir
serpêhat
fab
gên
mü
##po
##pha
##yas
serv
##mayî
##esp
##işa
##ase
##evanê
rojnama
emer
turkiyê
behra
##ûsk
şerekî
çareserîya
siyasetê
brit
celadet
ebdulqad
unit
şahmaran
kongireyek
sibatê
çîrokan
konseya
##own
php
gerdûnê
termê
zewicî
reşemiyê
berdevkê
arast
keya
ment
milê
og
##pey
##ari
serk
goog
yekîneyên
pêşbir
##dafî
zanîngeh
zaniyar
atalay
bizanin
hewî
quranê
îsraîlî
pêşnîy
veşartin
referandumê
baxç
tepeser
zygophyllum
nanê
##pel
##ins
geliyê
##îsyonê
bindest
çarşembî
dijber
erebistana
qezenc
nêrîna
festiv
hoşdarî
fêm
betal
serokkomarê
herrif
ju
leş
moz
##ave
desthelat
rêve
elb
dum
belkî
çares
perest
leon
kevtin
qerek
milletê
cont
otomobîla
rijd
xelîfan
gelheya
kcd
xola
şaxa
##uer
##dig
##nivîsa
##nijad
##ino
##oke
##ezî
rakirina
hevalê
rûviya
##acî
xelf
tuneye
nêrwe
time
derfetên
televîzyonê
flora
nenaskirî
taybetmendiyên
niya
nivîsa
pûç
şov
##hof
##70
##inus
digeh
didan
bigrin
vej
##êziya
birîn
dinivîse
cihanê
kerem
şêw
çareseriya
husnî
wateyê
kanal
teyran
banka
şêrwan
sunn
##exaneyê
wikip
sovyetan
veguhastina
wîkîp
gram
könig
mh
##zeran
det
bert
berkel
ewqas
##endayê
derew
ann
binek
##ize
arg
avak
ajal
##rîg
rojnamevanîya
1929
kovarê
sibat
pakîstanê
nîvro
xwezayê
albuma
biken
japanê
şêrko
cenga
nifûs
baregehê
akademiya
teoriya
kurteçîrok
google
air
daran
darên
tat
##gus
##arekî
bipêş
berk
##emên
##esî
##îsên
##itt
tirkîyeyê
beşan
##dinî
bibîr
hesin
berfanbar
giringî
topbar
##nasiyê
kirîbû
nîjad
charles
midyadê
dîmeşqê
gurg
gîyanê
sec
toh
ça
##sîr
##dol
##arş
##evanîyê
navçeyeke
civîn
kevç
belavkirina
dadê
neteweya
mawey
nebûne
genc
guhertina
xistiye
dînar
pişkinînan
zeyt
werdigire
erzînganê
corê
qehr
êk
##derê
##encî
hatibe
duşembî
sedam
125
ajalan
ofîsa
hewa
koçer
grûp
californ
rexneyên
împaratoriya
black
suh
##mû
##75
##ste
serl
kurdê
##ikir
##îtîk
mehk
gotinan
##kujî
adiy
melayê
1935
bendên
dişibe
rewşenbîrên
çerç
binpêkirina
berbiçav
##zxormato
şunda
##uta
##pet
##stî
kurdi
kurdish
berder
##esar
pêç
dersên
##îtîya
kerest
##opol
##îvî
qedand
ketina
siltan
havêj
cotmeh
almaniyayî
lezgîn
serkeftin
taha
coun
biharbê
ûdîye
fc
sûn
tas
çay
##bat
##furt
##ón
digerin
jîyanê
bakû
##esco
alex
derw
yekitiya
heme
dîv
kot
bêjin
weşand
jêderek
serkeftina
nûneratîya
vedîtina
didomîne
erdhejê
nexwezt
cegerxwîn
few
love
national
ziyanê
##pl
##yt
##wo
##wal
##rama
##ista
berbij
baba
2020
dengdana
dengdan
balê
esîl
hejmarên
##hatinê
guhdarî
girîngî
geşkirina
xweşî
1917
kawe
ramana
katol
bexdad
televîzyona
lêpirsînê
niştecihên
balindeyên
gê
kiç
ktv
nus
wenda
berbijar
hata
##urus
park
hemdem
##inae
##idura
terorizmê
nexweşxaneyê
fîlma
1942
xweşik
kaniyê
##ikeve
1914
harry
bişînin
tehran
zaravayên
firehnijad
kandîdên
feqiyê
sultan
xiristiyan
kck
lem
las
##dane
##niya
##qolî
gundiyan
çarem
mehma
dilşad
ewledarî
pêşwaziya
melkert
rêkevtinekê
gengeşekirina
bijîn
i̇s
pêşinyara
qeter
arab
mişex
talîban
hewîce
bûrî
şef
##kiş
##yîn
##erekî
##etek
##iyarî
##edewl
##iler
destana
##îtal
belge
dawîn
##ott
amaje
helbestê
derbasbûna
##nasên
gengeşekirin
##îkolog
mekanîz
îdirê
nehêlin
psîkoanal
hilweşandina
şerîf
xebitî
televizyona
pisporên
şemzînanê
înglîzî
bre
eu
iv
zîyan
##rîs
##siya
##osî
##qe
##inia
jim
annan
gord
kares
peymanê
kerbela
gorran
xelef
abûrî
bru
gust
selam
îmze
bixeb
selahat
gotarekê
berevanîya
qewim
firotin
qendîl
teze
radigîh
aus
fez
kêr
kax
lut
mum
olê
pîk
##sun
##dikin
##yc
##üm
##êna
hesî
##mamê
aliya
##ural
duv
dirû
aşkera
rastîn
ferhad
eşker
dîtine
##bêra
##ları
veguhaz
report
macar
dîplo
kevneşopî
serokkomar
edebiyata
dîndar
fen
nic
ord
pît
png
rek
rim
sv
îna
şaxê
##ben
##reta
komun
mirg
bêhem
sedir
kevtine
nexweşîya
melediyê
çalakî
hêviya
1912
mongol
derdixe
efserên
crocidura
associ
yekgirtûya
çapameniyê
kh
taq
şe
diguh
##îstîk
bêy
polat
rasterast
ferz
nameyê
pres
bîrdoz
86
fist
giyanî
keh
qaç
tot
##su
##poş
berber
##ors
##uran
##devan
elawî
ern
spas
agahdarî
şirove
rêkxist
paraztin
wesif
angaş
quşxaneyê
îngîlîzî
stockholm
cey
hab
lar
tul
îdar
şid
##yol
##yûs
##şîne
##zel
bigeh
##ston
##kew
serokayetiya
##gerên
tec
dihew
lîste
naskirî
derbasê
herêmeke
suryanî
xistine
##zade
kişanak
qedexekirina
dewleteke
zanyarî
tesl
firokeyên
rageyand
pezmij
rabigih
pêşveçûnên
96
brah
gez
oh
pin
za
şey
##ikirin
##än
##ird
sermay
navbêra
reza
kiryar
##darîya
bihev
endaman
şêwe
atmos
kolon
pêşketinên
sîxur
north
şingal
peqîna
qayde
hokarê
sînemayê
cotmehê
wikipedia
bı
jeh
kema
pû
sah
##kanê
##sit
##dad
##gi
##nav
deyn
##elle
beraz
##îkarê
##onom
##îşt
karkeran
dibistanan
teqandin
ajans
bandorê
kolanan
metre
felsefeyê
sadiq
lady
cenabê
american
folkl
dosyayên
##oğlu
hekariyê
hevjîna
adiyemanê
für
gh
gavên
hit
mekan
tit
viya
##ois
##mek
##ward
##ور
##ênin
rep
##une
dern
dina
binêrin
##îzma
nivîsiye
march
kevirê
pêşwazîkirin
xelatê
armancê
rengên
##leri
hejmartin
berjewendiyên
youtu
kurtenavê
had
kît
od
zeha
##ake
##88
##öl
serek
##eban
##kariyê
gerîn
balef
bibêjin
dervey
selet
nedin
bedlîsê
kanton
kampa
trt
bijart
lewre
darayîyê
cehzeran
paşerojê
hevpeymanîyê
şêniyên
piştgîrîya
bisekinê
beyatî
xerîb
bez
miq
pîs
taxê
wend
îmad
##uw
##reyî
##ûyan
##erz
serfir
têt
##ewiyan
wezîf
welatparêz
##ose
dirûş
tevayî
wezaret
raste
zêdeyî
xira
kevnare
dolaran
tawanan
hevkarîyê
rizgarî
afrîkaya
organîz
şûnde
şikak
gehişt
namzedê
elmanya
ûrm
weqfa
gon
sant
virg
##ست
##iyarê
##îko
##eşt
##gihand
##ital
aslan
mutt
gerstêr
##ifra
marks
zanayên
##ther
alîkarîyên
efsan
şahid
nameyek
serekîyên
temo
##idea
resen
hevpeymanan
serhejmarîyê
zîrek
qoret
fadil
yorkê
california
1ê
cens
fi
giha
mc
xên
xûr
##bal
##tz
##mi
##şên
##con
##warên
naverast
##oran
##nak
dinav
bihorî
##utt
milên
130
edît
çalakvan
row
radio
katal
wext
çimkî
hilweşandin
diyaloga
istanbul
bixwazin
çaksaz
youtube
fas
hz
wolf
yks
##biya
##ayel
##îyo
1900
ankû
eliyê
rewşen
partîyan
##dia
firatê
gru
azadkirina
destpêk
vedike
komeleyê
mijûl
rêkxistin
hîp
dêrsim
beyannameyê
xwenîşanderan
usama
supasal
vîr
##gah
##gul
##yx
##îtîyê
hemu
##iza
##izma
stre
mezine
##icum
##îmet
##ketin
carna
rêzgirtina
federedewl
têkilî
siyasetmedarê
nizanin
debara
saxifra
moon
ewlehiyê
asîmîl
portû
diplomat
diparêze
alikariya
kuridstanê
francis
heywanan
64
ciyê
mov
memê
rûmet
##bb
##keya
##mus
##inin
##incî
sersin
jîr
##ese
alavên
##uri
##iver
girav
mirovahiyê
rûbir
perlem
dirûst
prob
bilindtir
madd
##eynê
civakên
federalî
ort
romayê
rengîn
piştevaniya
rêvebirên
meşandin
otomobîlên
nûnerîya
tûrk
matemat
austral
iro
lok
nig
vic
xalê
çiv
jidest
herçar
derûnî
pêşbînî
kese
bêî
##gos
beşîr
parliyam
rastîyê
berdewame
madeyên
egerên
girtîyên
mîranî
##mayîl
gewre
rayedarên
avahîya
usame
çêbûye
kobanê
birîtaniya
apê
auf
eta
gazî
jer
kêz
taş
vlad
##ûma
##asa
pêştir
hildan
asp
tevaya
rojnamevanê
taybetîya
dirêjahiya
babetên
hizbullah
psîkolog
operasyonekî
deniz
otomobîleka
simko
jimareka
bermîlên
şikeft
derwêş
63
dîye
roş
##sûn
##dy
##ni
##yanên
##án
bayê
##emenî
yekrêz
rêkê
eleq
##ume
sedê
derbikeve
##ife
miliyon
guhartin
ebdulrehman
bizan
bombên
desthilatdarên
xwedîyê
îmz
bendava
şemo
tewrat
##şemba
nahên
baregehên
rojhelata
dîplomatîk
şaxên
program
stewrê
manî
poş
qud
rist
vel
##meya
##zar
xweya
goma
destdirêj
cihekê
lîstika
nîştim
naskirina
têkçûna
hemberê
çiyayî
destnîşankirî
piştevanên
kolomb
canew
havînê
qurbanîyan
cewad
protok
nexwest
serhejmarîya
kristofer
sid
xîz
çile
şotê
##bu
##loyê
##vedana
##cîl
##jan
##ameya
navdarê
hatiya
kire
dergehê
##êdan
##ison
biray
##afê
avh
weku
eşref
##enbach
giringên
ayinde
pasdarên
##weşîne
phys
sûc
stranbêjên
cudayên
mêzgirê
ebdulqadir
muttekî
0px
dye
koz
soci
tav
up
uran
çekî
##red
##rom
##lis
##fil
##nos
##zem
##76
hein
##ayiya
##ayîyan
pêlên
komûn
malî
arj
başî
paşxistin
bêjeya
proseya
malperê
hiştin
zûtir
japonê
pisp
henry
tendirust
jimareke
diplomatîk
lîtvan
sernavê
pejirand
karkirên
91
fût
nal
pyd
ren
zah
##eth
alîyek
elkê
navendîya
ewlekarî
înstît
bombbar
biwarî
şanaz
silavên
mihemedê
alozî
havîn
sindî
nizm
padîş
dixebitin
şehrez
navbeyn
nivîsbariya
tevlîhev
eq
##lenda
##pen
##ws
stûr
stûyê
zanînê
azar
170
kelar
eliraqîye
serekîya
1910
şems
tewaw
cizîra
navxweyîyên
lîceyê
balafirên
hejar
sovyetê
serkirdatîya
mensûr
nîvgirava
hand
miha
qeş
rock
##cew
##93
##stem
##raf
##amîl
bers
navperê
pêda
xwandin
kondol
##etîf
carl
qereya
1913
lîber
krîstyan
xelîfe
tundûtîj
serhedê
veto
friedrich
ej
tikr
viyet
##qan
##yi
##vand
digrin
xwecih
evîna
neç
hevr
pêşkeş
##enga
çare
hinc
kerku
bihête
muş
awustral
##anûnî
polîsî
milaz
bikarhên
ebdulh
çandê
amadeye
##ense
##weys
arêşeyan
gihijtine
##ayetîya
vebik
sefîn
berevanî
grûpên
zilam
pêzanînan
##kevtîyên
census
98
pam
publ
run
rhe
sih
##bik
##km
##kayê
##zm
##ال
##ali
##okirina
herêmakurdistanê
rojek
##îse
belku
##chus
##goş
##abad
##taya
tayy
bikarh
##asîf
hezro
ebdulezîz
orş
##ffdd
haşim
êzid
gihijtin
vekişandina
online
mizgîn
joseph
pergal
şaşî
dixwin
sînema
operasiyona
ddffdd
serdemê
bawermend
jiyaye
atatürk
giyan
kı
sîna
wey
xanê
##ls
##çeyên
##74
bikê
##eniyê
##îner
##înana
##înerê
##ett
##ihev
enbar
##geriyê
standina
duyema
hing
çêbûn
##acan
birîndarên
muhir
##kson
carnan
##thera
##alîf
frac
ayind
zêdetirî
manev
pêkhateyên
arêşedar
fring
opozîsyonê
desthilatdarîyê
tour
paraztî
soza
rijê
texm
linux
radigihînin
nexşeya
lêpirsîn
zext
zindanê
wizeya
wefat
inglîzî
62
bûr
kîn
##ios
##sayî
##diz
##gey
##cu
##çel
##90
biket
##atîf
navnîş
##endan
altern
anad
pêşberî
##iter
standinê
tirkmen
aşûr
kuştî
spec
##ction
xwarineke
hizrên
konfran
huseynî
dîwarê
stranan
mamosteyê
dijwarîyê
1905
parlamentera
digihîje
bahoz
serxwebûnê
bixwînin
cêgirê
feylî
programa
binçavkirin
aşitiyê
lavrov
endezyar
darizandin
pentag
taliban
bêhempa
ford
hû
hek
jar
pul
tro
##rand
##rîk
##fûr
##şîr
bera
##îyona
têda
##isan
kart
duyê
daneyên
bikartînin
hesenê
rûsan
felek
hindistan
vegera
##îjin
april
wêneyê
operasyonê
bernameyê
pîşesazî
##ischer
##ology
festîvalê
dixwîne
image
berbijarê
cîn
ciya
hanî
lord
nay
tîk
şakir
##56
alfa
##ebûnê
deran
veq
pêşbîn
##ition
ragihan
##efer
dihok
10px
miss
bazarê
biryarek
tele
daxuyaniyek
refor
kamp
gunde
hevpeyvînê
opozisiyonê
raportên
keşt
hûrik
bandorek
wikile
trans
îdîa
##urnal
minaq
ziyaret
wîkîpediya
71
cct
qaf
rey
îdarî
##kerî
##mes
##şîn
##emberê
##old
anton
yeka
yekgirt
pêşxistin
##karîyên
welatiyên
dihîne
german
##îmên
civatê
nêzikî
bazarên
dihête
awayek
alîgir
xurek
otob
baban
derdorê
şadîm
henas
êrişî
kandîdkirina
pêşveçûna
buhayê
qonaxên
biharat
mikayel
agirbestê
berlînê
cctld
fêrî
piya
##rt
##îx
##keta
##hing
##urên
##ulu
##ule
elf
nûh
##teq
nebî
konsûl
refên
1915
hestên
êrişa
belgeyên
nisêbîn
robos
sîstematîk
pêşvebirina
74
dorê
kaw
klî
mox
siy
saf
sîd
##atorî
##mak
albert
aleks
kirde
##iva
##rog
##înejad
hêzeke
belgen
pêkve
tecr
rewşên
asê
parliyamentarên
gule
app
##off
hêjmara
paytextên
nemana
daxuyanîyên
sîx
çemên
azerbaycan
##emêrg
fêkî
pestoya
yasayê
botanê
lubnanê
##krayna
mekeyê
bekir
cidî
hid
veke
##udî
##lü
##hur
##şeh
##vên
dive
##ety
berb
derûd
##sayê
paris
yekbûna
##roz
##enta
##nameyên
hans
##opl
##îva
##iqê
bazîdê
çûy
qersê
nede
bazirganiyê
pirtûkek
dûre
sibehî
famîleyê
pêşnîyar
rolek
dîlok
tilb
albûmên
çinara
hevdîtinan
bextyar
dilgiranîya
tijî
feat
sembola
cûd
nax
vem
vide
şûr
##serî
##ariyan
##îneyê
hep
rabe
##dax
turkmanî
rewşeka
award
ajalên
##rêt
dûrxistin
şîrîn
zayînî
kurmanciya
hevdîtinên
bigihîne
hamid
zewac
semsûrê
terîq
serokdewletê
mîhrî
erziromê
zehawî
hic
ital
neyên
nord
qû
qab
rp
seke
wesa
##uj
##bola
##yp
##erzan
serw
sernivîs
navber
evsal
serokî
neur
##êda
kara
##tîf
##abî
##bia
rasteq
merd
eden
projeyî
mehmûdê
##pguh
geştên
pakistanî
bikelînin
corên
mamosta
kêşe
dokument
##sînor
hisên
freud
axavtin
##meqamê
bîng
marî
vît
##bayê
##koyê
##iro
##irînin
diçê
kirê
eles
binec
îrland
danan
jinû
alîkarîyan
unesco
##ubê
rawestîne
i̇n
1903
aboriyê
350
veşandî
oksî
gilî
kevirên
xebitiye
cihûyan
journal
kakeyî
şebek
remezan
çîyayê
diherike
dw
nekar
ost
pasîf
şuk
##biz
##lav
##hl
##vanîyê
##erin
##eteke
##esor
als
##gira
bardî
##ewar
devokên
nivîsandinê
partîyê
diyarkirina
gihand
qereq
wateyên
tîpguh
operasyonan
1906
dostên
caesar
dîplomat
kultur
sindoq
hijmarek
remezanê
hertimî
şengalê
kevçiyê
saxifraga
piyan
sond
wêr
##geya
dievê
##raman
herin
##îlên
xwand
duwe
##cher
rûer
rewşeke
hell
##etepe
bibê
pîran
spaniya
mayîn
alîkariyê
kelê
zêdekirina
##erson
farq
ragihandine
daxuyanîyan
rojnamevanîyê
masiyan
operasiyonên
stiratej
murat
hukûmî
pêşerojê
tenduristiyê
culemêrgê
content
bîz
gûn
tw
##sas
##oft
##83
bibûn
##stina
##alet
derx
amarên
human
elx
arm
xwûd
dihînin
##vanekî
peywendîyeka
zêdekirin
medyayê
dikişîne
##nasê
xwezaya
gotinêye
japan
girtîgeha
sozên
dokan
ewlehiya
##lûcî
şaredariyê
erdheja
îşkenc
serdaneka
werziş
kulturî
kazim
hêrîşên
helîkopt
louis
dînê
flo
larî
tin
xoz
##pera
##hin
##eton
serwerî
##amin
xwedanê
##îkal
derz
##ivîna
##îsî
##karîyan
bihata
stend
hewldanên
rûerd
lîstikên
seîdê
mart
lee
kêmbûna
biryaran
rêzim
dikarî
newzad
komelên
dezgeh
kolej
musilman
##anbolê
serkirdeyê
bandoreke
haco
hokarên
xwendekaran
enerjiya
lînka
avedankirina
offic
xidir
îzmîrê
çerçov
900
hoy
lû
nurî
tic
##zen
##zanên
##ğı
##mail
##andarê
##ûnên
karwanê
##îtên
emin
nûbih
##efef
##oth
##ingê
înkar
keleha
pişk
kamer
metal
que
makez
senator
luc
gilg
beyannameyek
putin
dikuje
daynin
fex
gefa
xef
##îmê
##tik
##dal
##awe
##84
##eter
##ehan
##amp
##ayeke
##oriya
têbîn
karak
binef
bei
xwandina
xwast
başe
lîstin
prov
teqemen
nasname
##ejirîne
neteweyîya
ebdulla
herême
efefef
bazirganiya
oldar
wilo
radiwest
meydan
roleka
golên
digihîne
cewher
bigre
futbol
stembol
kêleka
yilmaz
merasîma
dîvrîg
wikileaks
edu
hü
heng
kx
nîz
##nig
##metê
##82
##wen
##yaz
jibîr
dadi
pêşke
##ewerê
##ijî
erka
int
başur
cihgirên
rûda
lîstikê
muk
sêv
komîteyeka
mêh
hewar
efxan
rêxistineke
nehatîye
suryan
zayend
metr
çavdêriya
zîndan
delal
şingala
nahêlin
tewafuqa
semsûr
gihişte
komputer
perliyamentê
efrîq
muhammed
gordon
canewerên
dog
fit
kro
kbs
odeya
sö
sus
tok
##och
##qû
##mit
##xem
##xwer
##indeyê
##stra
##alya
##okhol
##aziya
##imin
##iket
destp
stan
belç
şêxanê
quran
mîrek
renge
eyn
ramanê
êzidî
cezayên
makk
necmed
dizeyî
kursîyan
hişyarî
dahatî
devereka
xaça
nihênî
firotina
groß
serbilind
viyetnam
aks
hop
nîk
trop
°c
çoman
##del
##ajî
##anya
bif
##iyî
##ons
komstêr
##ûman
têra
birîkarê
emir
kofî
##ester
çareseriyê
leg
berfê
qeretepe
sepandin
pirtûkxaneya
oldarî
mijaran
corane
1909
hole
şeşem
beyanam
pêşniya
dizew
jîngehê
danûstandin
wargehên
referandum
jîyane
pêwendiyên
diqew
êzîdiyan
serbajarê
xêncî
makezag
faş
hul
hekîm
kır
çun
şu
##nd
##mez
##şîd
##ûtê
serdarên
berdana
berlîn
yaşar
parka
hemko
erb
ars
nivîsandiye
asûr
##îvanê
lep
belavbûn
komîte
taybetîyê
projeyan
pêncşembî
gengeşeyê
##ianus
dostane
tesîra
pîvanên
hozên
referanduma
##ience
##999
neqanûnî
perwerdehiyê
karûbarê
gimgim
fakult
fonksiyon
ewrûpa
negatîv
berdereşê
bakûra
selahattîn
qereyaz
cast
yemen
şot
##rîna
##sîl
##eri
pêw
pêde
##evanîya
##ador
amûdê
aşûrî
supa
bazîda
dêrikê
agahîyan
geşep
tîp
plandanînê
konsol
comp
thumb
parlamentoyê
lawan
bexden
zehm
dêrendaza
helbestvanekî
hemwelatiyên
skot
welîd
kosret
swîsre
stratejîk
paz
tif
zw
##kiyê
##mond
##ûh
##etta
##avêje
##iyaya
##anîyên
##îkar
##olu
derkevtin
rojn
komkujî
salek
##îstên
##dae
stokhol
##awê
##îzin
lîstan
werdig
##other
cîhad
nîşanên
dayne
##ution
brîndar
diyarkirî
hewc
bajarek
edward
bîranînê
daxuyaniya
fermandeyê
eşîreke
teybet
rûsiyayî
johann
benz
tank
xwenîşandan
derfeta
stêrk
pîrozbah
xwînhên
nezah
zankoyê
yêkgirtî
rêbendana
vexwendin
##herêma
vekêşana
piştevanîkirina
rowspan
bîzan
cîkirina
cograf
hîd
nuh
vana
xab
xap
zend
îlam
##ous
##aneyên
##erîya
diçûn
##oli
##endorf
derkevt
##dariyê
amûr
##ism
mirîş
avabûna
greva
axayê
azadkirin
carina
sînora
hinekan
newy
kellat
kroker
pêdivîye
qere
desthilatdarî
babil
seyf
seydayê
show
davut
mekt
lawên
ekber
tengav
psîkolojîk
edebî
derheqa
sekinandin
stiratecîka
erxeniyê
dîsk
tivêj
mejiyê
pêşnîyara
gerînend
jinûve
kellaterzan
gluk
nel
sans
tine
çelê
##hh
##zdeh
##ûla
##71
##atum
ewq
neu
##êzê
malana
stêra
koban
##ection
awayên
jêderan
celeb
bilindbûna
medenî
pirtûkeke
geşta
mijdar
daxuyaniyê
sebebê
bangî
gihijtiye
keşf
batman
okto
elektrîkê
xwenîşanderên
giriftên
kutil
şembî
damezirandina
molekulên
parlîyamenta
bok
birina
gül
lind
remed
##lendî
##yg
##wig
sera
berû
beran
##anîk
##ezya
rabû
##ahan
binî
arî
parliyamenterên
tevli
hevpeymana
firokên
bilindahiya
maddî
cureyê
fîlman
kork
komele
zanistên
2006an
silav
millet
selahedînê
çandiniya
vebike
anatom
elektir
rizgariya
pêşangehê
brawn
camp
derhênerê
televiziyona
kîmyabaran
pîşesazîyê
mûzîkê
tevlihev
özg
tekoşîna
kincên
mhp
pp
çiyê
îlah
şke
##ln
##des
##navê
##zi
##ûf
##95
##makî
##okirin
##oksî
dabûn
hevrik
başurê
bêguman
girêday
kurên
12ê
esas
aşitî
marmar
nexweşxan
bomba
bîrên
xaleka
nakim
zanista
filest
pdf
kampên
bergiriya
tenahî
hîmê
berevajî
dagirker
betula
ezmûna
kanîreş
washingtonê
hilawîstî
norwêcî
jackson
hemahengîya
dilsoz
82
au
aut
cia
jı
ly
lud
tri
şal
##rum
##ipa
##hez
##neyê
##wên
##eyman
dada
amar
##îşan
kare
elm
elmanî
emrê
xwa
dîwan
asos
hêk
##oglû
carinan
romanî
hevwelatîyekî
taybetiyên
fîlîst
diken
krom
nediyar
xirbê
maneya
mijûlî
1911
ermenistan
dipeyî
keçên
febru
wilhel
veguhest
xizmetên
vekiriye
##exaneyên
fizîk
albûmê
serweriya
hemwelatîyên
hilberîna
system
parzemîna
gendelîyê
festival
bijarteya
73
clu
meta
sig
wall
çu
##lop
##sed
##ny
##sted
serxistina
##ungen
anc
anter
##akan
derbaza
perfor
hezexê
dilhê
jêhatî
ayindeyê
salihî
##nasiya
olên
leşkerek
bayram
peyamên
baskî
opozîsyona
##brahim
maked
zewaca
daxuyannameyekê
dermanên
kobanî
frankfurt
magn
hovane
binemayên
ihsan
lijneya
qizil
heskîfê
tepeserkirina
society
cla
eks
fes
just
lûl
sara
vil
êşa
şiyan
şiyanên
##çikê
##81
##ск
##ome
##unê
alp
serokom
##rosê
##îsta
ragihana
##aft
dijberên
dawûd
daniel
kevtiye
bron
dûyem
alîkarîkirina
komîta
înan
bombebar
rojhilatî
bedena
budce
polîtbor
dizî
zanyarên
qeterê
berdestkirina
pîşesazîya
moskow
tayîbet
sarkozî
çareserî
ykss
kondoleza
tayyip
84
bü
kah
nerast
pla
zaza
şîrê
##bon
##yahu
##iyen
pêre
aliye
alîyekê
##ebil
##ehab
destkeft
##êjî
pêşandan
stal
peywir
sêmê
##dibe
akt
bizane
bazirgan
kompanyayê
hînd
1902
aloztir
exla
efrîn
mitt
peyamner
dagirkirina
ewlekariyê
televîzyon
herçende
yasayî
roketên
yildiz
venez
jenosîda
zincîr
##eydak
esperanto
qûrbanî
qaçax
wilhelm
kîs
rum
rod
vas
yal
ypg
zur
##bînin
##our
##mund
##vîn
##elli
##andê
##iyal
evro
##işînin
pêve
##ever
##xwaza
arch
##îdên
abbas
daryûs
xanima
awayan
##low
dîyarkirina
vegerandina
##encanî
jidayik
kampan
mater
sizayê
rêkx
##sky
rewşenbîrîyê
georg
amadekarîyên
silopî
angeles
münchen
pêşkeşî
81
banê
dêrê
qij
##barên
##fort
##areya
ewna
kirman
##darîyê
birînên
hemed
beled
hilda
avahî
dengd
111
tekst
kevçî
grub
##înga
##ocar
coll
girînge
opera
rêxistinkarê
komeleyên
piştevanîyê
play
planên
pêkhateya
zayendî
germîyan
nêvxwe
rêvebiriya
##ideae
sefer
çêdibin
sunî
##ograph
mîtolojiya
avahiyên
white
sîlvana
pabend
şemrexê
lob
sana
tre
zum
çekê
##sg
##pişt
##çem
##ani
##atina
sererast
##iyeya
##anîye
##ili
bag
##endama
derec
komîsyona
##manan
##ije
bihurî
##bûyên
dijep
##eck
##oseyê
aware
civat
qanûnîya
15ê
paşve
berdewambûna
##oşî
şaristanên
talan
eşkê
dûzxormato
dikit
girtiyên
aşkirayî
dozê
sebrî
neket
panthera
xemil
lîw
975
danîye
dixwast
berxwedan
siyasetmedarekî
dijminên
omeran
gelawêj
zankoyên
erdnîgariya
qerekoseyê
supasalarê
kobaniyê
oktober
dîy
isa
kalîf
netan
tug
waran
##uşt
##bes
##rok
##kil
##gav
diguher
##andarên
##ilînin
##omên
yak
##keyê
##îyet
##eben
##aseb
amn
pêşketî
##maniya
birîna
biharê
test
diravî
ezê
pirseka
serokatî
dadwerî
peters
carekî
meletiyê
bedew
december
refs
aşkirakirin
demjimêran
opozisiyona
nizane
qeyd
reportê
##şêx
berzincî
tûnis
xarpê
cotmeha
pîvan
sincarî
radigîhîne
tilbiş
tîpguhêziya
83
ipa
kek
pav
qac
rö
rik
tînê
wo
yer
ûf
şim
##ual
##bul
##bîne
##rek
##zig
##xon
##atra
herik
rojevê
##îşkî
karîb
##îstê
gotî
ins
nivîsî
civake
siyasiya
##tep
grup
gula
maj
21ê
hefte
ewledarîyên
koçberî
zanistiyê
konsûlê
##girtiye
sitem
fîzîkî
xwepêşandanek
sci
walter
pûşpera
tendiristîya
##opsis
protesto
rasip
işik
kirmaşan
damezrênerê
binekoma
larîcanî
fakulteya
dijepeydak
qenc
xalî
zaw
îb
şera
##eus
##dînan
##otî
##cin
##zon
##73
##´yê
##هر
##ین
##ert
life
##ati
##eten
reb
recî
##işe
##ady
komkirina
dibînim
tirî
bela
goristana
rojnameyan
dirav
nêza
encûmen
grekî
nasandina
dilxweş
kêmkirin
tişta
dihêlin
##ugh
##agu
efendî
##mark
uns
xizan
diplo
nêzîkan
wêneyan
qonaxê
i̇st
parlemanî
kenala
kongreyê
doktora
pier
burhan
ewlekarîya
serxwebûn
asîda
afirand
turkmanan
tewafuq
mewlana
bombe
humsê
pêrta
pêşniyara
çepê
bîzans
özgür
loc
mîra
qaş
riyên
tena
xav
xec
##gîrî
diafir
biax
biyan
deqî
lib
berp
evînê
iraqeka
derg
ens
enz
rojekî
karin
dihêne
dibêjim
##kûpêk
derbazî
muwe
xelkî
11ê
şêweyî
çareserîyê
tekane
yekîtî
didine
##ations
demjimaran
lîbîya
music
vebikin
meysûn
nahêle
beyt
wikit
popul
pêywîste
##lîsî
folklor
kalîforn
refsencanî
61
dre
mîz
mîd
perê
tîl
wit
##bêz
##lendayê
##ning
##vi
##79
##ов
bidar
liber
##raz
##ayiyan
##tinan
kirbû
##adin
salv
##ûmî
##giran
hevzay
yekgirtina
hukmê
çaremîn
devok
nivîsîna
lîstê
asiya
civîneke
xelq
pîrosa
beşdarîkirina
guhar
petray
darxistin
036
tekezîyê
reşnivîsa
giringîyê
girîngiya
vediq
cemiyeta
bendera
birêxistin
teknîk
sinorê
otomobîlan
tankên
kîp
science
êlên
wargeha
rewşenbîrîya
keviran
parzûna
sînemaya
operasiyon
berzencî
dîktator
tablo
micros
diparêzin
stiratecîk
fedral
tolhildanê
enfalkirîyan
county
edeneyê
avest
bît
chil
che
hîm
qo
tap
îbr
##lay
##yet
##yib
##cem
##ûsî
##atir
kurdis
herek
eva
##iştine
yasîn
dergehên
ragirtina
antî
##adi
kirinên
##îşî
emro
peyvê
pêken
dijberî
##idê
şandiye
island
##board
akrê
bajêrvanîya
diktator
qered
guhertinên
sibata
çîrokê
komelgeha
aştiyane
eyl
ahûra
teyfûr
nym
1904
dewama
gurcî
bigihînin
gegen
nazim
enfalan
nadir
enerjî
ebdurehman
berfanbara
rapora
saxlemîyê
sofî
fehmî
qefq
endazyar
kerboranê
virginia
wikitable
aya
bêz
cûn
cind
dîr
etîm
gü
hîz
hênê
ja
mm
pag
tod
ust
werê
wêrê
çandinê
##kîn
##kon
##out
##fl
##ام
##ät
dikan
seraya
##asan
anjî
destî
##rot
bird
elew
arke
mest
##iyanan
bês
dijiyan
devoka
##abanî
##tac
##vaniya
kêfa
nûnera
jineke
şaristanî
pêncem
##nîgarî
hejmareka
generalê
ewlehîya
naverok
elhes
têgihiştina
flav
herçend
mûzîk
statîst
metirsî
hevseng
yusif
jefrî
îradeya
davutoglu
bînê
kaf
qirg
ré
ûn
##ilkirin
##ihat
##esan
##etah
##ikek
2018an
##itan
stev
dîdevan
gelekan
parêzgar
tayyî
derbeya
gercanê
hezkirin
têkîl
heftê
bombek
genet
şahî
namîne
filmên
pakij
1916
##oyek
will
1901
norwe
zanyarîyan
cizîr
benj
nehêle
tehsîn
şûnda
dermanan
libnan
internet
hetanî
veguhastin
korêya
xizmetgoz
sembol
sext
efserekî
hazir
fîzîknasê
saloxegerîya
wergirtine
berkelî
katolîk
matematîkê
navbeynkariya
aust
cim
kle
ped
pala
qar
rud
song
tîb
zûl
##bolê
##pîr
##gela
##yth
##zo
##zim
##ark
serf
##îyeta
alav
dera
bûk
têh
##akurd
karnameya
##its
beq
tirkiya
avad
peyvan
##lama
koord
perr
##têgih
paşkevtina
##tewe
dûbare
hefteyan
amadeyîya
hewayî
dimire
hizar
hejmareke
sirşî
nêrîn
lîbyayî
milyonan
serkirde
model
gerdûnî
xaçperest
zikmakî
jenosîd
dikujin
amadebûyan
dîyalog
agehdar
nijadperest
associated
awustraliya
february
idî
loz
pse
torê
uh
wis
şel
şib
##riyê
##cı
div
bigo
serdanên
##rab
heremê
goya
salix
yekalîkirin
kesekê
elçî
dikevê
sûryayê
##aban
##ûdeng
dayikên
girtinê
êrîşeka
mert
##anga
kron
tawûs
pasdaran
teyyib
hebîb
massa
2004an
teknolojî
fîzîka
ceribandin
hêvîdarim
##brid
feysel
polîtîkayên
çavkaniyan
xinûsê
nîjer
silopiyê
eyûbî
berpirsa
##amîleya
nen
pre
tayê
yanê
îc
##53
##ín
##eral
debê
##andayê
##tingen
##îyon
derk
amir
vêga
##gehek
nûdem
hilde
asmanîya
dayin
##hatin
maur
mercê
heftem
dirêjî
orhan
fraksiyonan
pêkhatina
jêre
aheng
mamosteyên
1907
havînan
katjim
hevbeşa
zinar
dadgehkirina
glob
istanbolê
talîbanê
filistînê
qoçg
derbixe
problem
hinceta
cid
gîl
hûrî
mim
prat
roya
tûşî
who
yed
zam
zîlan
şiyar
##turk
##kiya
##cîh
##erek
lig
lixwe
##avayê
heqê
##onia
pêla
bûyî
yekşembî
pêşiyê
rêç
##ovan
ele
rûdin
girêdayê
çêkiriye
##enau
şêweyê
şêwir
axiv
adem
rûnbir
agirbesta
qebul
cejnê
hizra
##îfa
##oyeke
peyamek
bank
exxon
xeterê
pêvajoyên
osmanîyan
ozçel
çileya
binpêkirin
hevpeymaniya
îsawî
herçendî
zozan
temaşe
rejima
casim
cîbicîkirina
masûlkeyên
bajarokekî
biharbêhn
pisporê
##oplaz
îbranî
rûnbirêş
blu
hall
ky
kiz
lur
perî
pinc
tov
viyana
##ober
##oda
##gez
##mil
##werên
##öy
##ات
serça
evana
##olas
destexaneyê
girj
karg
karîn
##îtanan
ste
hild
mezinahiya
kopê
rûbarê
asim
nîşandin
##aqa
milîtanên
neteweyan
rêzgirtin
avêt
xistina
mijdara
fermandarîya
kilam
##iano
demokrasiya
selaheddînê
afganistan
house
televizyon
efserê
enerjiyê
tewafuqê
serrastkirin
ziwa
merasîm
têgîna
dilhêsayî
bew
burg
cis
dogan
gn
hos
hûş
ib
night
yeh
über
بن
##bus
##piya
##hm
##cal
##cia
##zek
##ekarê
##str
jiyane
##eles
##wed
##iyarên
evîndar
##eşe
##asiya
gundikê
##giriyê
yekeyên
##bex
##nameyek
ergen
mezr
dijm
##gora
##igan
sazişê
gercana
109
seid
##ings
pîranê
##ters
akad
îndon
hewce
xebateke
giringîyek
kempa
suriye
##raham
##rahman
pêkhatiye
cinsî
çûnkî
vebir
bêhna
acc
mîlîtanên
herdemîya
ewlehî
naziyan
têkoşîn
xêzanên
balafirgeha
têgihiştin
ladin
profesyon
siwar
îlankirin
akincîbûnê
şemzînan
lêdana
birawestin
hişmendiya
mengur
doğan
şoven
zeytûn
dirûvê
##stedt
netanyahu
dé
iran
kîr
kast
nin
ov
temb
##tex
##feq
##xwar
diviya
kulî
##îranê
##olo
##eşî
##adar
##êjim
hugo
elez
demsala
##izm
arîst
dupat
peyker
mirovahî
nîşanî
mehser
mesud
neheq
aktr
xaneyan
organ
kovî
bazirganên
planê
hizr
bikêr
pilan
frensî
daxuyanîyek
fîzîk
sefera
erzîrom
berdestkirin
kovareke
emerîkî
geştevanîyê
cemawer
yemenî
datîne
deutschland
slovak
çapemeniyê
dexîl
bersîva
konferensê
ronakbîr
fewzî
cre
lap
nok
pep
##lov
##nik
##êk
##yoyê
##ştin
##jin
##ра
##ía
##înîyan
##eland
hebê
##iyye
herisê
pêv
##îyetê
rêkarên
kareb
amerîkayîyan
bihûrî
kont
çêbûne
awa
##iform
yekêtiya
erda
mislim
talabanî
##thur
medved
çûk
vedig
girtîyan
mîrên
babekir
##rass
kolanên
##see
çêkirine
pirsgirêkan
ronahiyê
derdiket
wilay
i̇l
bernameyeke
lêkolîneke
israyelî
solin
danûstandinê
ekrem
sûdanê
pêvajoyê
asîdên
danas
bermîleka
sêşembîyê
cezakirin
guhdarîya
werbigre
korêyê
rêberiya
lenîn
atlant
atlantîk
dinivîsîne
reformên
çêrmû
facebook
##ifolia
united
dumlûcî
pezmijoka
xûrt
medvedev
92
bd
lex
one
qers
rub
tof
way
yenîş
çeç
##çu
biguh
##stant
sert
##wext
##iyûm
berdide
dahên
20ê
pareyên
hevûd
hildi
##oss
##kirchen
asûrî
mudd
diran
##îme
tevdi
seit
şervanên
qanûnan
2012an
komîteyan
fermandariya
îlon
opozisyon
dişew
##sche
rizgarkirina
nerazîbûnê
modela
wald
pergalên
dadgehkirin
îtaliyayî
gemîyên
haydar
evdireh
îhsan
hevseroka
saloxandin
köy
girseyî
mahmud
germahiya
tefsîr
ewrupa
dewrîyey
tayyîp
faz
garan
kengî
maran
neha
##ude
##ké
##key
##keyan
##sia
##hard
##arch
kurde
##raya
berevan
bermah
pêşen
##aki
kariy
lêbih
##aşa
pêktê
##hagen
adam
dût
şêxo
038
serhildêr
nedane
pesna
famîleyeke
##ichte
kamil
şirket
november
boneyê
mînakên
bigihîje
siza
nizan
zewîl
traj
wiki
hêrişên
internetê
bitenê
rusiya
xorasana
napole
ewrûpayê
awistralya
sazûmaniya
##f9f9
tûrkiye
vîtam
ergenek
aqu
gasê
last
teha
şîd
##uman
##rib
##kez
##qol
##qanûn
##mun
##irkî
diger
komarên
pare
##îsyon
##ahr
##itor
##sîm
çarşembîyê
turkmen
##idîn
##rea
pola
taylor
esad
dîrokzan
miliyard
grîf
bakurî
eşîrê
merwan
kûba
îns
dikarê
dikane
sekinî
vedik
watch
agahiyan
suriştî
netkurd
pirsgirêkê
nuşt
aborîyê
aborîyên
hestî
teknoloj
nivîsandine
rojnamevanekî
berevanîyê
peqîn
kanadayî
tevgerê
xewn
axaftinek
kodeta
yasaya
rohn
history
serfiraz
rûbirû
official
750
f9
gard
mîm
riyan
xend
##beta
##îde
##lana
##ss
##pêr
##wald
##اد
##eron
##alus
##etz
hede
rab
raf
amêdî
##ull
##îstî
##îtir
ert
avakir
deved
##ider
##xistî
gorên
##igen
danana
##esta
115
##bibe
terr
marg
gulê
ebdulbarî
teroristî
federasyona
heywan
herêmek
ayetan
aysel
wirmê
rengekî
dimil
zanistvanên
mijdarê
schwar
opozisiyon
raportê
jiyaneke
bened
îstîx
textê
hêrişa
berhevkirin
şamp
afirandina
zeytê
distîne
nişkê
parlementoya
hesab
felestînî
mutleg
stockholmê
psychoanal
yusuf
##buntu
mehkûm
atmosf
parliyamn
lîtvanya
rhein
newyork
f9f9f9
coş
lı
lekî
nuk
pem
##rez
##tah
##64
##jo
##stê
##ild
reaks
##îyonê
komst
##chi
hinard
##gotinê
##tîmal
##axta
navça
çavkaniya
xuş
werine
##ige
cîhanîya
muxt
##dust
êrîşek
make
dûgela
mêvand
astara
xebatan
xebatkarên
niştiman
ketel
geştir
koçbar
sade
october
meclîsê
bilez
bisep
kompanyayan
şerrekî
domin
bahse
young
êşkenc
awareyên
2017ê
gerîlayên
polîtîkaya
yildir
##ield
pehlewî
parvekirina
waşingtonê
mekanîka
yayın
sunneyî
portûg
dîskografî
microsoft
mengurrî
yenîşeh
dewrîyeyyeka
5px
94
cha
dt
ext
gok
gran
hîr
keda
pur
rîs
xij
zîl
zara
şaf
##ûde
##63
##وو
kup
aliyek
anna
destxweş
##ito
dibit
studi
ind
dewletî
##idan
dawet
diref
mesela
siyasetên
bikarin
##oba
jinek
guhê
care
##pêşx
zarokekî
newala
înî
gihaye
kelem
##ardo
artêşên
2007an
mamek
mihê
janu
pasîna
sosret
kateg
##que
pêxemberê
mîtra
sads
2014an
fîlozofê
xebitandin
perwerdehî
herçiq
dîkt
cemawerî
lazim
rave
kifşkirin
norwêc
kîlometre
aktorên
negihij
xizmetguzar
alimên
hafiz
weberhênanê
##wood
kantona
gruba
ciyawaz
club
performan
petrayus
5ê
dc
gît
gray
maya
moş
mûra
naq
rîş
ty
taz
xol
ûg
şin
şen
##bab
##îvan
##tem
##say
##pak
##ûc
##72
jial
beravên
##îkir
dayê
derçû
gundiyên
gired
kartê
##îstanî
hemze
stein
stutt
indi
bell
##idel
daxwazkir
civiya
rastîya
brand
dadgehên
afret
zaroktiya
heftiya
colemêrg
damezrand
agahîyên
opec
##owa
fred
mamostayên
lêkolîner
nexw
alozîyên
hîc
aciz
rojnamevaniyê
panel
aştîxwaz
leyîst
1890
serkeftinê
komkujîya
cilên
peymangeha
lêgerîna
awistriya
destwerdana
şaweys
xwekujekî
wesay
qonaxeka
regez
bergên
kesayetiya
graf
nêvdewletîya
pejirandina
yûnan
serrastkirina
helîkopter
urmiyê
tohmet
dihewîne
pêwist
dawûdoglû
dot
lên
saw
xana
x20
yav
ûsiv
ûris
şed
şîl
##reb
##tanê
##imay
##pek
##val
##xo
dizanî
##elok
serhat
herif
##ils
##onyayê
##êrîn
rabin
destxistina
karkirina
binivîs
hukim
bejî
hewla
nivîsîne
##tain
denge
##tûk
##inga
1500
hejmarê
êrîşekî
diley
brun
pîrhes
destpêbûna
madde
diyarî
sepandina
dîyarbekir
çawan
tîrêj
tîrêjên
saudî
kaiser
##landê
berjewendiya
dewleteka
dişînin
bişk
traf
zilm
nawç
tehrîr
menû
tûnisê
bidaw
somal
pirojeyên
zêwyeê
hezîrana
despêka
meseleya
bihîstin
xwerû
kitêb
sirûştî
tixûbê
aydogan
qayîde
bijarte
rimond
nîştimanî
kerkukê
dizewice
pseud
stuttgar
7ê
bent
blo
golê
lon
rat
rost
rîb
roc
sod
tos
vav
xema
##tion
##ky
##fta
##êlê
##ûkê
##او
##areke
##eko
##als
serdarê
xweza
têbînî
yekemê
birad
kard
arma
çargo
navçê
xudan
polonî
##oto
ash
mukr
2010an
giştîyên
theod
kuştinê
medî
orient
farqîn
girîngîya
nedan
old
nîşaneya
konfeder
şîe
kîmyayê
jîngeh
hundurê
xerzan
malperra
neqş
evdil
kadro
xêrhatina
japonyayê
radyoyê
nabînin
profesorê
mêjû
hevalbendên
îhd
nişka
gihiştiye
pêngaveka
##press
platfor
crocus
sêdaredan
sêdaredanê
##ubeydî
stewr
felestînê
mîkro
xêv
gedeyê
billboard
victor
arjent
konsûlxaneya
tugluk
bêrî
coga
gîr
hîk
hûs
how
jûra
led
marê
xas
çiyan
##retê
##serê
##siyona
##deb
##pi
##vedan
##92
##ан
##ansa
##atiyên
##avêjin
kirîn
anth
enîya
karan
emar
sûrê
##ibînin
rojnameyeke
105
dayîka
şandeyeke
mary
zanyarê
dilîze
carol
ebdull
dûmah
mêvanê
balyozên
baweriyên
postan
nameyeka
navxweya
topxaneya
xweşt
xiste
bedfort
common
metran
pêşketinê
tesîr
1896
lîstikvanê
sêrt
birine
qesrê
##aaa
werzişê
xatûn
cemawerê
împarator
bombar
yezdanên
bilêvkirina
1758an
dabînkirina
aaaaaa
girêbestên
etnîkî
gulleyên
berkeliya
tulipa
lîberal
şadîmana
makkeyn
yildirim
cama
call
cefer
fan
hag
kûl
lt
lah
tara
veh
çolê
îf
##kay
##pît
##ven
##yay
navekî
ever
##esc
boya
ragirtin
eniya
karîk
stud
rewan
goreyê
##opî
gerr
kevne
bilindê
##kerd
derbaskirina
nikarî
mîran
esedî
##birî
gengeşeyan
nekarî
wilson
harûn
qirr
digihêje
simkoyê
ewlekariya
muhrkirina
gerdûn
kontrolkirina
feqîr
pêyws
fikrên
kaplan
joe
govend
drama
elcez
cibûrî
facebookê
kürd
ernst
brahîmî
hitler
ebdulhadî
rijêma
qereyaziyê
ludwig
derkete
napoleon
cun
dus
sü
seng
sard
çev
şak
şûş
##kanên
##oqa
##fet
##gang
##nell
##ûda
##78
##înit
##êrk
god
komî
amînî
##row
##ulî
##izin
stra
peyw
peres
perçe
mehemed
nêzik
paşayê
mesele
2008an
iso
##iqî
gulebaran
biryareka
spor
mirine
kelep
melzem
terorîstekî
demokratan
xirîst
seyran
peyvek
çavdêran
gazên
dewra
fîlmnîgarî
serkirday
gewirkî
çaverêyî
zindan
urdonê
psîkolojî
dengbêjan
lêgerîn
krîstyanên
misircê
qazan
##slav
bistîne
disekine
parvekirin
şexsî
îskender
bruks
stiratejîk
gilgam
i̇stanbul
nympha
koordîn
c3
hg
pale
rika
sîyan
unam
zamen
çwar
##bana
##eum
##layê
##gînî
##ned
##ück
##št
alê
##ebus
##ures
kiribe
##imezr
komkirin
##aha
##ozy
step
emîne
arthur
belûç
rewanê
xuyanî
##exane
pirse
bêjim
isra
milet
##iqandin
mûsewî
##tonê
bajêrokê
##rayîyên
berfirehkirina
pilandanînê
vebû
daxuyanîyekî
hundur
1898
nimêja
gefan
domand
topbarankirin
south
geheş
hêşîn
xwenîşander
hejand
gaveke
dîplomatên
ardê
europe
nefta
xortên
îhtîmal
qazax
lîseyê
swîsreyê
xetabar
maxim
dîmenên
dimeşîne
disekinê
texmînkirin
bikujin
##farbe
bîranînên
dipeyive
avhewa
mîrektiya
nezahe
korkmaz
zamenhof
93
cav
ced
fiq
gest
nine
şiyana
##uwe
##tec
##pes
##gn
##çal
##62
##wîn
##ış
##هو
##är
##ereb
serketî
berbil
navandin
xwep
xweyî
##ayi
##ayîyên
daxistin
alkan
amara
##giriya
##ewarî
bingih
stek
##aşî
##aşê
dua
kerbel
rûbûna
dihata
sazîyên
danez
mehekê
kombûneke
maria
amedî
gultan
rêkevtineka
demokratîka
temsîl
bixêr
karbidestan
sitran
germiya
nêzîkbûna
piştgiriyê
bergirî
denîz
lîbî
sima
komisiyonê
digihê
hamburg
peyamnêrê
dayikbûna
1998an
xizmetkirina
hoza
ebdil
qayide
bernav
ezmûn
supasîya
bihêztir
nîşandana
gemîya
pêşmergeyan
evdal
rahînanê
polonya
zeynel
mobil
akincîyên
abûrîyê
hrsg
street
kirdewe
benjamin
january
menûçê
##farbe1
aur
long
nell
pûl
sîb
zîv
##by
##rol
##lekî
##leyê
##kun
##sol
##ville
##cak
##zmê
##warê
biya
biqel
##iyaran
navdêr
##raqê
rapirs
rafi
giravê
biraş
kesane
demdirêj
emil
##goya
##kirdinî
1800
muamer
berdew
ajansê
made
zarokek
şêxbiz
nexweşxaneyên
federas
balyoza
media
seksî
xalkê
nehatin
##ffeq
islamê
eşîran
kilamên
nuj
demokrasîya
veber
##ski
elektrîk
1882
bicihkirin
demîrbaş
hikûmeteke
kanadayê
berxwedanê
nesr
fikr
nûredîn
avrêla
çîçek
bijîşkiya
serdemên
orşelî
pierre
muweffeq
ağ
ear
hîs
hong
hîvî
katî
qol
qib
çen
##uyan
##teya
##ode
##new
##êla
##yel
##ardi
diweşîne
serkêş
##oko
##ilis
evin
##emar
rest
pêyî
##îreyê
##enderê
##îsmê
##îstana
stekan
emru
inc
pêkanî
dijatîya
nivîsarên
##iden
##xistiye
##dank
çêl
awust
##dine
seg
14ê
evroja
îroyîn
sînem
dûgel
cureya
bajêrvanîyê
îslamiya
terorîstîya
mêrx
buch
sîstemê
dîwarên
bask
hawa
sunne
çemçem
1992an
şermezarkirina
waliyê
hevpeyvîneke
firehiya
moskov
peymanên
înternet
hişyarbûnê
rêbendan
çarenivîs
elementên
tetwanê
elektronîk
sumeriyan
dîplomas
krîstyanan
qirgiz
îstîxbar
unami
8ê
giz
hip
hyd
if
kis
mûl
och
rin
sot
sag
syl
tut
ubuntu
vac
xis
zikê
şet
şof
##pj
##part
##nay
##arat
##alem
hecê
berya
bacanê
alas
##ivê
##ivis
##king
##itim
binih
xwişk
##enge
beşîk
##ngil
kongirê
##idi
werina
##ication
çêtir
hêm
hilbijart
dayîna
##esty
berpirsîya
daxw
zimanek
zimanzan
##ceph
hunerên
heftîya
hefteyekê
keleh
kors
vedib
bandûra
silêmanîye
topan
hişê
tawanê
vekin
nemr
şemiyê
guneha
bikîn
##ieg
kişandî
havîna
hestê
keştî
##qube
farisan
80px
komkujiyê
2015an
hakim
bloka
gever
gerîla
mizgeftê
hilberîn
giriftan
zerdeştî
korêyî
mesîhî
zeit
rejîm
brazîl
brazîlê
propagandayên
ceyh
teslîm
poşman
padîşah
çêrmûgê
ces
dy
fort
giş
gut
gûl
hend
kş
mobîl
uk
xaz
##uda
##sm
##pon
##yîyên
##61
##ای
deye
##stinê
berbir
##omer
kiryara
##işta
hevtêgih
##ewerî
birûs
elect
binx
malm
##daş
##chn
piştîvanîya
nivîsê
##xistine
endamekê
##ogen
partisi
##dikeve
ismayîl
##iqa
ebdulm
gihandina
unter
gencan
vediş
guherandina
nedît
##nasan
plaz
xweztiye
hejmartina
siruş
mizûrî
mazlum
mistef
##ques
misilmanên
academ
hevpişkên
xizmên
danîne
alfred
şirnex
sistem
##efîlm
festîval
didomînin
çelîk
nieder
##lık
rewandizê
japonya
govara
bolanî
kosov
rêkeftina
guftûgoyan
xesx
pêşengiya
köln
êzdîyan
konferensa
namzedên
svg
komunîst
milazgirê
zûlfeq
royal
stuttgart
ema
fek
ferê
hena
mv
pij
set
teke
çat
çam
##sdorf
##pora
##ycl
##5f
##رد
##enn
sers
serç
sersa
##urs
dersa
eng
salim
têdik
##roş
baroya
birayetîya
hemo
lêv
bihêne
state
emper
dîwar
bûnê
##goyê
##ecus
##abadê
kongire
parliyamenteran
dirke
giştiyê
nehişt
##ejirînin
bilindkirina
bilindahî
biryareke
maweyê
romiyan
hevwelatiyên
kelandin
rûsîya
berfir
fîlîp
##demir
apwe
serhilda
qerem
xurtbûna
muhemmedê
dezgehê
kanalê
nemsa
ronahiya
metro
sînoran
peyameka
stranê
zînde
afrînê
tevlîbûna
dîyale
dostê
bêjedanekî
doskî
îdamê
1891
têkoşînê
referandûmê
gelemper
##mazda
rûpelên
sîyasetê
sabah
zordest
fatma
guhdarîkirina
deqe
qendîlê
smith
##eylanî
jînenîgar
despêkê
kompaniyayên
berpirsiyariya
bapîr
muslimanên
xakên
topbarana
berberis
mekanizma
fûtbola
belgenam
apple
kanîreşê
têdikoş
ecê
hard
hpg
jêrê
kalên
lêz
lot
mew
roz
rîp
ts
vul
varan
yıl
çor
çax
ûz
##dil
##fur
##goz
##ûq
##ér
dima
serkevtîyên
##radê
##eyi
herfa
##org
##îkayî
dag
##olution
yeş
derên
rama
##evskî
hevîrê
rêv
baranê
##karekî
hemd
##gehekê
meg
##afirê
dujm
dengekî
parliyamenterê
##vaniyê
îsot
##ifê
berpirsiyarê
marx
milan
berdewamin
ferq
biryarekê
madeyê
şêxê
colum
nûnerêniraqê
xwarinan
nameyên
xirokên
pêwîstiya
pêdivêyên
aramîyê
holly
felsefîkî
davêje
hawird
otomob
bişon
ferhengî
antîk
trak
otombêl
dizanim
dahatên
cûreyên
cîranê
gerîlla
formên
vekolîn
dendik
lêdan
hiştiye
bistînin
yewnanistan
bikuje
havêjtin
federedewleta
uraniy
census85
texmînî
##ebilind
yenîşehîrê
dirkepet
6ê
ada
high
jehr
kent
nr
rûmeta
rond
zek
zora
çarê
öc
##ll
##hou
##yu
##yewî
##vent
##wêr
##ée
##ān
##atîyên
##îklop
##esk
##oloc
dersînor
destpêşx
têhr
lêk
kerema
##ids
zanînên
asyaya
perava
kurm
kurrê
beheş
112
êrîvanê
erdnig
zêt
berheman
mercan
akreyî
nexweşîyên
mehmud
##agas
bombeyên
##oca
##ware
girtîye
##weyek
dîdareka
babet
surya
bendê
scho
anîbû
hêrs
revenda
desthilatdariyê
dewletek
davod
siûd
xirabtir
vert
komisyona
xizmetê
1991ê
1889
cewherê
şagirt
bolîv
feth
fettah
îmarat
##bsite
lêborîna
gendelî
norwêcê
lîmfê
karbon
bilêvkirin
yeni
fîzîknasekî
fosf
biguherîne
florida
pêşbirka
diguhere
total
rabigihîne
qoretû
bîzansê
ahûramazda
bigoşt
profesyonel
öcalan
fem
flast
hanê
hra
hanîn
hînî
jack
mera
mant
nazî
pc
xen
zengî
##uv
##ranî
##deng
##otin
##gh
##gewer
##huk
##nîk
##miz
##üş
##artû
dipirs
diva
serpir
navan
##ayekê
##imir
rakir
19ê
roje
girçin
birrîn
karab
kargêr
##itiyê
##itînin
belar
##yaran
welatek
dijiya
hêkan
civînên
10ê
kêber
şeran
millî
birîndarkirin
##iwan
bilindkirin
rêvebirin
darv
meryem
kûz
nexweşxane
037
însan
reşo
çiyayan
ketibû
nedikir
##ences
##rahiya
reflek
germyan
keçik
fermandarên
basket
aramîya
musilê
êvara
dostoy
bazirganîyên
ekonom
nehêlana
dîlan
zehf
saddam
xêzan
taxeke
nîsk
neviyê
astengên
televizyonê
xwenîşandanên
##ithecus
derxistiye
hevpeymanên
xêrxwaz
zehmetkêş
master
çepgir
yûsiv
moskowê
sendîkaya
##arslan
şeklê
mezheb
institute
sirûda
arşîv
mucahid
heinrich
bexdenûs
amnesty
xaçperestan
x2013
menûçêhr
xesxêrê
apwebsite
têhranê
550
doc
lov
out
qen
sora
sîra
tekî
ud
vak
xum
zeman
##eo
##ria
##sil
##qeya
##înîn
serû
##rac
herema
berît
kirdarê
##ash
ana
nest
##îştin
barî
birca
hembera
mezax
welatîyên
peyrew
kerd
##ido
goranî
esp
##ifer
legel
135
adolf
ajansî
madagas
sînan
nexweşên
heyvan
##kow
##weyekî
malbatan
babacan
nehate
kompaniyên
laj
olîm
##ukt
kiliç
wêneyek
kurtasî
nekeve
veguher
firrokeyan
nizîk
nizim
##ınar
îdam
1892
leza
bernard
xanîyan
ebûl
lehengê
##انی
nezan
fêrbûna
rusya
birêvebirin
birêvebirina
bismil
bextiyar
gotûbêjan
ahmedînejad
abdur
bozarslan
şiwan
##firoşe
mendelî
zemînlerza
bush
bapîrê
girûpa
pişikdarî
merîwan
serexweşîyê
gesch
vladîm
azarpêr
duwem
beyanameyekî
danasîna
karîkat
elcezîre
4ê
east
fû
gûr
geylanî
kerî
kre
soh
what
xay
yon
##bak
##ias
##kana
##dc
##şah
##xeb
kuta
litt
##eni
##îno
kurdîstanê
##iyat
dak
##ony
##eyat
##endeyên
derkev
rojeva
têl
yekpar
##êdanê
karibin
malik
stû
peyî
devrên
mirovek
behdînan
gerim
tevbi
fire
159
zarava
hezex
beşdarîkirin
ebdula
dard
civaknas
jêderekê
chry
ayeta
##rie
xwedîyên
27ê
geşbîn
koçberên
komelgehê
alban
holenda
radigeh
pêngavan
şêrîn
çirîya
bandorên
ill
cûdî
bidestxistin
tendirûst
zivistan
zivistanan
kuweyt
iranê
america
roketan
kehrebaya
##uage
savar
penceş
konferens
bulgaristanê
kîlometran
tayîp
proteîn
vexwarinên
kulîlkdar
rawêj
derbixin
bijîşkî
nîjadperest
sersinkê
xîzanê
veqetiya
hüsey
massachus
vediguh
zewîlerz
veberhem
5em
benî
cîl
cang
fun
gm
gîh
kiv
mb
meya
mord
rubey
xaş
xêra
yn
##uq
##tiyên
##leta
##nitz
##mûs
##şema
##çuk
##xiyê
##jiyan
##حم
##ère
##aro
##yat
##ettîn
sersala
kurdekî
herem
berek
veg
##aswataliraq
pirt
birî
birûsk
##izar
##afên
dîdarên
miriye
pêkan
cihêr
##êşê
konstan
##perwerî
##hemîd
daxûyan
neteweyê
hesp
dûra
heftiyê
gihandin
projeyekî
nikola
guhert
##ûbî
dîdaran
geşbûna
htm
mitîngê
îdrîs
grûba
parçeyek
telefon
firokexaneya
raymond
çerx
neqiş
şaredarî
pirojeya
wîlayetên
midyada
einstein
kurtenav
cumhur
istanbulê
terîqeta
asûriyan
remedanê
polîtboruya
lozanê
##ště
beşîkçî
3ê
9ê
cîv
cida
fîk
fetah
gib
nacî
osa
senter
tene
wol
yü
çik
##uyanî
##sûr
##sînê
##gay
##nek
##yer
##yeya
##yye
##cik
##çeyan
##ûta
##ند
##ст
##yakirin
herfê
##andibû
berna
hati
hatib
##ebah
dere
rojiya
rojeke
##itê
##izab
bef
##cha
peyivî
sûreya
çêkirî
##reich
dawid
muq
şeraf
peywendîyê
dadperwer
nebez
diyare
civaknasî
nivîskaran
bajarokên
##ixê
romay
kongiresa
pişikan
peyamê
laur
nemane
##cêfî
keçan
kurêt
2005an
romanya
dostanîya
tenik
phyl
borîya
bavêje
zagonên
1899
1897
newroza
lîstikvanên
pozît
birinc
êşkence
toleyên
şerefnameyê
nakokiyên
destwerdanên
şaredarên
robin
kulîlkên
serhejmarî
tendiristî
hêsantir
dabirrayîyên
şileya
english
nunerên
##mirov
çapê
qehrem
berazan
bikarhanîn
alfabe
sîdekan
farqînî
hewarhatinê
berbilavî
hoh
kandî
lü
nabê
ore
##buch
##dk
##deha
##gên
##vekêş
##çan
bikî
##ats
##aliya
##etîyê
##etten
##andîye
seroktîyê
racî
##dex
giranb
##gihandina
karger
##ität
male
sta
hatinê
tirkên
arvan
##chy
bibêjim
gotineke
marie
hezkirina
rêze
ajansaaswataliraq
tiştekê
selman
gencên
##jimar
oto
demokratî
28ê
26ê
open
bingeheka
daxuyaniyeke
metrop
pilem
shak
sekretêrê
##lari
ramyar
kilik
kilîsê
wêneyekê
reviya
deshilat
rêjîma
alozîya
wergerandina
firrokeya
veşart
enfalê
hokara
şêweyekê
qasimlo
şêwazê
axavtina
nepenî
zemînlerzê
ingilîzî
kirmaşanê
labor
bersîv
tundûtûjîya
lokman
pasîfîk
dîyalogê
berdewama
hüseyin
2px
asa
aras
eman
eug
gavan
lac
niq
pic
tinê
zevî
çesp
##birina
##ranên
##tayê
##kat
##fam
##fîl
##ος
ded
lian
##anderan
bere
basan
kirrîna
book
salona
##rod
karînên
emmer
bêkes
##kirna
kopa
dihes
##opên
##ibîne
polanda
##duyan
behsê
gerok
##aph
##diště
ebb
gulî
hefteyên
china
25ê
amadene
dêrik
melek
berfer
##ixbar
##erské
dikîn
yekîtîyê
radîkal
qurana
girtiyan
girtibû
build
##bendê
nîvk
arîşeyê
bidim
tuncel
core
eşîreta
biçûktir
îlaf
çûnê
zîndanên
##evanekî
şerrên
rezbera
nîgar
ferhengê
moqteda
rudaw
sûpayê
avahiyê
karîger
xanîyên
mûzîka
##ophyl
gelawêja
sindoqa
pêywîstî
axavtinên
silopiya
edebiyat
sifir
wizeyê
perliyamenta
raperîn
zebeş
abûrîya
vîdyo
endezyariya
##şehir
derûdora
zewacê
koleja
anatomiya
kromoz
statîstîkên
uherské
global
mehsertê
##iformes
lêbihor
herçiqas
mûrad
biqelînin
hêminî
hradiště
dostoyevskî
cro
ccc
doj
gerê
jak
lag
pana
qîm
relat
wet
xi
##beh
##rev
##sf
##sc
##şînin
##carî
##ûg
##xi
##üs
##اب
bigir
##elph
##etts
heqî
##rap
##ami
berdê
##emmed
##omp
derenc
bob
boş
bott
anarş
pêşde
##îşka
biratîyê
karkirinê
kesana
binax
ersel
##afîl
xwên
duqolî
##sîmê
navçeyek
hewldan
##ici
çêbikin
poly
aso
asan
nêzê
119
2009an
teqandinê
nakeve
nehrî
##uddîn
mabû
diyarbek
##arinc
##angê
gihêj
amadekarî
kele
reşemî
dirêjkirina
efû
rêkevtinan
komelgeh
29ê
##kefta
50px
nirxandina
nekev
hunermendekî
rûniştinên
math
keştiya
resul
qirkirina
hûrkirî
wextî
nazm
anatolyayê
peqînên
1885
bernivîsa
televiziyon
çinar
mayinek
sêşembê
sîstemên
niştecîh
xatirê
zextên
zengîn
honaka
language
medreseya
propagandaya
nerazîbûnên
alexander
navnîşana
rûerda
teqemenîyan
##asebeta
şêwirmend
hevûdu
ebdulletîf
nymphaea
vladîmîr
bn
bana
ewey
fur
giv
hît
nij
nera
past
pod
porn
qera
sîs
xîv
çob
şaw
##reh
##lib
##kut
##dr
##hûr
##news
##ен
##erat
dit
biçû
##sten
##alon
##avêj
serhad
##andra
berç
##eddafî
##orum
baek
yah
##imar
##dev
pirtu
encax
##ents
mezinbûna
hewldana
kord
derbendî
nîştec
civiyan
kêmasî
bakter
##iff
şandeke
grûb
rêveberên
1978an
heyeta
chi
amadebûn
tekezkirin
24ê
çûbû
dîdarekî
keman
vegeriyan
buwe
bingehekê
hevkariyê
##şembiyê
peyvekê
millkarî
fren
baskê
baskên
dijwartir
bernameyek
2013an
romannivîs
solo
wergerê
anatomî
qirt
qetilkirin
zagona
senar
şûnwarên
qaymeqamê
bidestxistina
şiklê
dewlemendiya
##basit
nesax
rûpelan
dadwerîya
sky
xewna
suleyman
piroses
euro
hikumetê
perçeyên
ruhê
kefer
sîyasetvanên
pehlew
vexwendina
gihîşt
yewnanistanê
kitêba
voa
qoretûya
hûrd
video
şukur
lyga
serokomarê
qeredaxî
kargêrî
hûşyar
yûnanistanê
benth
cry
dj
fus
gêr
gift
kalê
ml
olan
sr
soma
toy
zîyanên
şû
##uye
##lon
##iî
##iat
##iidae
##seng
##gîl
##muş
bider
hex
hegel
##ayn
##işîn
##unt
destbi
destnivîs
salar
salîya
##êze
##ewayê
elşêx
ragihandîye
erzan
mezre
bêg
turkiya
nivîsar
##ote
##lear
partiyan
##uter
leip
franç
serokatiyê
grand
vîde
nexweşîyê
federala
xaned
desthilatên
##guhêz
mîrza
têkilîyên
kolan
şanku
diristbûna
monarş
derdixin
dijwarîya
exp
##ross
rolên
pelhev
golan
senatorê
tankan
derfetê
hevpeyvînek
peqînê
1880
1881
dengbêjên
edebîya
fikir
ziyanek
pîrozbayîyên
nûçegih
green
##jînal
şêwaza
2019an
çewlîg
mexmûr
qurbaniyên
hikûmetên
institut
kerboran
ditirsin
mişext
pîkolê
folklorî
sûcdar
species
reforman
rojnem
dengderan
xarpêtê
dijminê
kadroyên
divabû
erselan
aa
giyanên
hana
jorî
mom
over
pîra
rike
sap
sob
yel
zekî
çayê
îx
îfa
şep
##bag
##reya
##dîna
##oi
##ztin
##és
##aroj
ligor
##att
##aven
##rag
##ayîyê
##emon
serokeş
##işte
enzî
goh
##êzên
gire
yekta
##beg
##mane
##aksî
rêyan
gotîye
##bûyan
##efil
xwera
çendî
koendama
konstant
rûv
çêbibe
civate
mehr
##pert
xelîlê
esil
sema
îsp
şertên
proton
