[PAD]
[UNK]
[CLS]
[SEP]
[MASK]
!
"
#
$
%
&
'
(
)
*
+
,
-
.
/
0
1
2
3
4
5
6
7
8
9
:
;
<
=
>
?
@
[
\
]
^
_
`
a
b
c
d
e
f
g
h
i
j
k
l
m
n
o
p
q
r
s
t
u
v
w
x
y
z
{
|
}
~
¡
£
¤
§
¨
©
«
¬
®
°
±
²
³
´
µ
·
¸
¹
º
»
½
¾
×
ß
à
á
â
ã
ä
å
æ
ç
è
é
ê
ë
ì
í
î
ï
ð
ñ
ò
ó
ô
õ
ö
÷
ø
ù
ú
û
ü
ý
þ
ā
ă
ą
ć
ĉ
ċ
č
ď
đ
ē
ė
ę
ě
ĝ
ğ
ġ
ĥ
ħ
ī
ĭ
į
ı
ĵ
ķ
ļ
ľ
ł
ń
ņ
ň
ŋ
ō
ŏ
ő
œ
ŕ
ř
ś
ŝ
ş
š
ţ
ť
ũ
ū
ŭ
ů
ű
ų
ź
ż
ž
ơ
ǎ
ǐ
ǔ
ǝ
ǧ
ȇ
ȋ
ȗ
ș
ț
ɑ
ɔ
ə
ɛ
ɡ
ɪ
ɹ
ɾ
ʀ
ʁ
ʃ
ʊ
ʒ
ʕ
ʘ
ʰ
ʻ
ʼ
ʾ
ʿ
ˁ
ˆ
ˈ
ˌ
ː
́
̃
̇
̩
̪
͞
͡
ͱ
΄
ά
έ
ή
ί
α
β
γ
δ
ε
ζ
η
θ
ι
κ
λ
μ
ν
ξ
ο
π
ρ
ς
σ
τ
υ
φ
χ
ψ
ω
ό
ύ
ώ
ϙ
ϛ
ϝ
ϸ
ϻ
а
б
в
г
д
е
ж
з
и
й
к
л
м
н
о
п
р
с
т
у
ф
х
ц
ч
ш
щ
ъ
ы
ь
э
ю
я
ё
є
і
ї
ј
љ
ћ
ў
ғ
қ
ҝ
ҫ
ү
ҹ
һ
ӕ
ә
ө
ա
գ
դ
ե
զ
ը
թ
ի
լ
խ
կ
հ
ղ
մ
յ
ն
շ
ո
չ
պ
ռ
ս
վ
տ
ր
ց
ւ
փ
ք
օ
և
ְ
ִ
ֶ
ַ
ָ
ֹ
ּ
ׁ
א
ב
ג
ד
ה
ו
ז
ח
ט
י
כ
ל
ם
מ
ן
נ
ס
ע
פ
צ
ק
ר
ש
ת
،
؟
ء
آ
أ
ؤ
إ
ئ
ا
ب
ة
ت
ث
ج
ح
خ
د
ذ
ر
ز
س
ش
ص
ض
ط
ظ
ع
غ
ـ
ف
ق
ك
ل
م
ن
ه
و
ى
ي
ً
ٌ
ٍ
َ
ُ
ِ
ّ
ْ
٠
١
٢
٣
٤
٥
٦
٨
٩
ٱ
ٹ
پ
چ
ڈ
ڕ
ژ
ڤ
ک
گ
ڵ
ھ
ہ
ۆ
ۇ
ۊ
ی
ێ
ە
۰
۱
۲
۳
۵
۶
۷
۸
۹
ܐ
ܒ
ܕ
ܗ
ܘ
ܚ
ܝ
ܟ
ܠ
ܡ
ܢ
ܦ
ܪ
ܫ
ܬ
ܵ
ܼ
ހ
ރ
އ
ޖ
ާ
ި
ް
ँ
ं
अ
क
ख
ग
ज
ट
त
द
ध
न
प
ब
भ
म
य
र
ल
व
ष
स
ह
़
ा
ि
ी
ु
े
ो
्
ক
ন
ব
ম
য
র
ল
স
়
া
ি
ী
ু
্
ર
ા
க
ட
த
ன
ப
ம
ர
ற
ல
ள
ழ
வ
ா
ி
ு
ெ
்
ు
ె
్
ാ
്
ය
ි
ก
ง
ด
ต
ท
น
พ
ภ
ม
ย
ร
ล
ว
ษ
ส
ห
อ
ะ
ั
า
ิ
ุ
์
་
ོ
မ
ာ
်
ა
ბ
დ
ე
ვ
ზ
თ
ი
კ
ლ
მ
ნ
ო
პ
რ
ს
ტ
უ
ქ
შ
ჭ
ხ
ḉ
ḍ
ḏ
ḥ
ḧ
ḫ
ḱ
ḳ
ḻ
ṇ
ṕ
ṗ
ṛ
ṟ
ṣ
ṭ
ṯ
ẍ
ẓ
ả
ấ
ẹ
ế
ệ
ọ
ố
ồ
ộ
ụ
ἀ
ἄ
ἰ
ἱ
ὀ
ῆ
ῖ
ῦ
ῶ
‐
–
—
‘
’
‚
“
”
„
‟
†
•
…
′
″
‹
›
€
№
→
↓
⇒
∅
∈
−
≈
≠
─
│
└
├
┬
▪
☆
♭
♮
♯
ⴰ
い
く
の
り
ア
ィ
イ
ウ
オ
キ
ク
グ
ケ
コ
ジ
ス
ソ
タ
ッ
デ
ト
ド
ナ
ニ
ブ
ベ
ボ
マ
ミ
モ
ラ
リ
ル
レ
ロ
ン
・
ー
一
三
上
下
世
东
中
五
京
人
代
会
全
公
共
化
北
区
十
华
南
县
口
古
吉
和
唐
国
國
城
夏
大
天
太
奉
子
宁
安
家
山
島
川
州
市
帝
年
广
後
德
手
振
探
撃
文
新
族
明
春
晉
朝
木
本
東
楊
武
民
水
汉
江
河
治
法
津
派
浦
海
湖
漢
特
王
珠
甘
男
皇
盆
真
石
社
福
秦
經
羅
耶
胡
自
華
行
西
話
語
載
通
道
郎
金
长
集
青
高
黄
가
간
강
거
건
게
경
고
공
과
광
교
구
국
굿
그
금
기
김
꽃
나
난
날
남
내
너
녀
노
눈
뉴
느
는
니
다
단
달
당
대
도
독
동
되
드
들
디
라
람
랑
래
러
레
로
를
름
리
림
마
만
말
맨
면
명
못
무
문
물
미
민
바
박
반
발
방
백
별
보
복
부
불
브
비
사
삼
상
새
생
서
석
선
설
성
세
셜
소
송
수
순
스
시
식
신
아
안
애
야
어
에
여
연
열
영
오
왕
요
우
운
울
워
위
유
육
은
을
의
이
인
일
임
자
장
재
적
전
정
제
조
좋
주
지
집
차
참
천
침
카
크
키
타
탁
태
터
토
트
파
페
포
프
피
하
학
한
해
향
호
혼
화
후
희
ﬂ
﴾
﴿
ﺍ
ﻑ
ﻕ
ﻝ
ﻭ
𐭥
##o
##n
##s
##t
##a
##i
##p
##e
##l
##k
##v
##y
##r
##u
##m
##î
##ê
##z
##c
##h
##d
##f
##b
##j
##w
##ı
##ü
##ş
##g
##q
##x
##û
##6
##´
##̇
##7
##9
##8
##2
##0
##3
##1
##ç
##á
##ß
##4
##5
##ա
##ր
##դ
##ն
##զ
##ի
##ẍ
##é
##ۆ
##ت
##ن
##ى
##ج
##ا
##ú
##ğ
##ë
##ɪ
##ˈ
##ɑ
##ː
##ʒ
##ل
##م
##ک
##د
##ز
##ی
##ö
##ā
##ʻ
##ī
##ó
##ļ
##ǔ
##ō
##ə
##и
##в
##а
##و
##о
##т
##р
##ы
##е
##í
##ű
##ر
##ו
##ש
##ė
##п
##ق
##ئ
##ي
##ä
##ū
##ض
##č
##ñ
##ि
##ش
##ح
##ك
##ێ
##ه
##날
##آ
##н
##к
##ḧ
##ḥ
##ة
##ł
##մ
##è
##ã
##χ
##τ
##ί
##δ
##α
##ô
##ḱ
##생
##은
##г
##с
##ě
##ì
##ب
##â
##ν
##ο
##ι
##ά
##ť
##π
##ε
##ρ
##َ
##ِ
##ٌ
##く
##æ
##у
##л
##ć
##ّ
##خ
##й
##국
##ē
##ە
##چ
##ŭ
##ș
##여
##ع
##ა
##მ
##ე
##რ
##ლ
##ო
##ბ
##θ
##ς
##세
##이
##°
##س
##レ
##ー
##ン
##州
##д
##͡
##ʃ
##λ
##σ
##명
##인
##간
##ڕ
##ǎ
##ً
##γ
##고
##б
##à
##安
##县
##珠
##ш
##κ
##μ
##ų
##š
##ُ
##ژ
##ǝ
##з
##ј
##子
##ȗ
##왕
##ܟ
##ܘ
##έ
##ʁ
##̃
##ɛ
##گ
##כ
##ן
##ڤ
##ь
##ξ
##ù
##ă
##ố
##́
##ό
##न
##्
##ध
##ु
##ف
##를
##י
##נ
##ג
##ע
##ר
##å
##ء
##փ
##ե
##ő
##غ
##朝
##ذ
##ھ
##만
##내
##ܡ
##ܪ
##ܝ
##ْ
##─
##구
##ţ
##ह
##ल
##ø
##đ
##۹
##۷
##٤
##۳
##۵
##۶
##õ
##ص
##ـ
##族
##ם
##ּ
##מ
##ָ
##ֹ
##ṭ
##ῶ
##і
##ю
##ц
##ڵ
##ż
##市
##山
##区
##۰
##り
##浦
##川
##해
##ث
##帝
##오
##면
##υ
##ʊ
##ύ
##ń
##ז
##ȋ
##撃
##の
##人
##×
##−
##애
##의
##들
##로
##드
##ط
##교
##가
##자
##ή
##ω
##β
##э
##м
##ү
##ж
##스
##타
##임
##я
##թ
##լ
##피
##는
##پ
##х
##ב
##ʿ
##ř
##ק
##ה
##랑
##ò
##ế
##ï
##宁
##明
##조
##영
##ą
##²
##리
##ח
##ַ
##ʾ
##א
##ד
##ʰ
##경
##³
##口
##대
##ч
##ל
##ラ
##ә
##혼
##ś
##র
##ক
##া
##木
##一
##郎
##い
##ṣ
##晉
##ය
##ි
##성
##ъ
##한
##ɔ
##ʀ
##ý
##η
##水
##건
##տ
##ո
##ւ
##ɾ
##태
##후
##վ
##ք
##东
##新
##أ
##ώ
##하
##라
##마
##շ
##振
##¬
##þ
##순
##신
##西
##յ
##ս
##ɹ
##ナ
##ベ
##φ
##南
##집
##ۇ
##ḫ
##ғ
##ာ
##်
##물
##을
##海
##ル
##ド
##ス
##ト
##ष
##त
##र
##य
##ṯ
##գ
##º
##ظ
##도
##า
##ษ
##ท
##ย
##ˁ
##소
##수
##ર
##새
##上
##ŋ
##일
##상
##自
##설
##ת
##ი
##ნ
##კ
##ニ
##キ
##グ
##國
##年
##ी
##۲
##۸
##ž
##ा
##ს
##北
##道
##ﬂ
##ɡ
##전
##ө
##ジ
##モ
##ོ
##ð
##ִ
##ި
##ț
##비
##에
##٣
##٨
##٩
##복
##ミ
##オ
##青
##ď
##±
##┬
##부
##터
##울
##별
##시
##름
##단
##語
##化
##ǐ
##래
##қ
##¨
##ṟ
##க
##்
##ி
##ܕ
##ܫ
##ܐ
##ܢ
##어
##적
##ф
##ů
##կ
##ხ
##ზ
##თ
##ʼ
##ܵ
##江
##भ
##क
##ả
##사
##레
##ḍ
##ṗ
##ۊ
##法
##강
##į
##щ
##津
##ṛ
##ֶ
##ˆ
##민
##호
##ٍ
##ĭ
##느
##녀
##유
##안
##미
##ḻ
##야
##ղ
##장
##ம
##ழ
##ர
##œ
##ĥ
##த
##ு
##ッ
##ম
##ন
##家
##아
##ס
##և
##♭
##ĝ
##ტ
##박
##ܠ
##ܦ
##व
##代
##十
##国
##니
##ռ
##ソ
##ク
##ქ
##ვ
##١
##나
##్
##ె
##文
##行
##ę
##독
##ހ
##침
##פ
##연
##트
##ാ
##동
##화
##ா
##ட
##ன
##ψ
##͞
##발
##𐭥
##ט
##ṇ
##ζ
##노
##ܒ
##ܬ
##♯
##共
##림
##ห
##ส
##น
##อ
##ม
##ร
##พ
##ิ
##手
##უ
##토
##٢
##羅
##צ
##派
##ज
##ơ
##ġ
##ῖ
##ň
##ŝ
##우
##주
##서
##ু
##স
##河
##۱
##リ
##공
##다
##島
##王
##օ
##ё
##문
##द
##ї
##ọ
##ụ
##ट
##ộ
##ィ
##ܗ
##게
##ெ
##வ
##ல
##ள
##٥
##ẹ
##特
##京
##선
##്
##ウ
##ロ
##말
##大
##真
##̪
##키
##һ
##지
##̩
##ľ
##ุ
##ด
##ว
##์
##ệ
##ं
##स
##म
##ְ
##ア
##ῆ
##ٹ
##ׁ
##러
##إ
##პ
##희
##열
##マ
##タ
##石
##ল
##난
##ী
##য
##়
##ź
##카
##٠
##़
##耶
##운
##파
##和
##ŏ
##漢
##광
##հ
##ց
##ग
##प
##会
##요
##금
##과
##պ
##워
##차
##바
##٦
##기
##ῦ
##华
##民
##ӕ
##ჭ
##ȇ
##े
##ἰ
##정
##ற
##ो
##크
##世
##東
##탁
##唐
##재
##三
##集
##송
##ḏ
##΄
##페
##셜
##湖
##男
##ҹ
##☆
##չ
##華
##全
##제
##ؤ
##뉴
##¸
##မ
##ボ
##コ
##ћ
##식
##너
##ہ
##ồ
##ǧ
##խ
##ẓ
##ĵ
##향
##্
##ў
##ĉ
##ล
##ั
##꽃
##맨
##ޖ
##އ
##ް
##ރ
##ާ
##천
##¹
##љ
##육
##디
##방
##람
##브
##ܼ
##€
##ⴰ
##ấ
##ܚ
##載
##下
##ง
##®
##ก
##ப
##ņ
##城
##당
##ા
##남
##석
##胡
##거
##ḳ
##公
##ต
##社
##ँ
##보
##ը
##夏
##皇
##ḉ
##話
##天
##♮
##春
##イ
##探
##ブ
##デ
##달
##შ
##ŕ
##포
##ʘ
##무
##დ
##治
##汉
##백
##ি
##楊
##학
##ڈ
##반
##ะ
##古
##通
##本
##ケ
##ు
##中
##≈
##ব
##그
##ҝ
##五
##ख
##ũ
##ब
##德
##經
##ķ
##金
##↓
##an
##er
##in
##ir
##ar
##ên
##ya
di
ku
##ek
bi
de
##st
li
##en
##în
##at
ji
##yê
##el
##al
##et
##av
ser
##rd
##we
##irin
he
##anê
kurd
##ra
##ist
##eh
##iy
##ma
##ey
her
jî
##and
##iya
##ok
##am
ber
nav
xwe
##ûn
##ed
##anî
##ay
##il
ev
##or
##îk
ba
##ih
##em
da
##on
re
##eya
##es
##tin
##om
kurdist
##iş
pê
ya
##un
##îr
##ol
ew
##ez
##ke
##ekî
hat
##îy
##kirin
##az
20
##end
ye
##îya
##êr
kurdistanê
##raq
##oj
al
##eb
##arê
iraq
##ur
##iye
##ana
herê
serok
kir
##eş
##eta
##ûr
##im
der
##ik
bo
ra
iraqê
##de
ve
19
##und
##as
##işt
an
##iyê
##ev
en
ne
go
herêma
roj
##eha
dest
##ad
##ber
bû
##iv
kom
##dar
sal
gund
##sa
##êz
##ûm
##îyê
##êj
kirin
##eke
gel
##bûn
serokê
am
tê
##gir
gir
par
##andin
wê
hev
##îs
##na
yek
##be
evê
pêş
##man
##êd
pir
##ak
##wl
##îl
rê
##is
##ah
##ro
wan
##ul
##îş
bar
##kin
##gih
baj
200
201
##ov
dê
##ew
##ayê
bir
kar
##îst
got
##ye
##waz
##kê
##eyê
##elat
yê
hu
kes
wî
##ara
pna
##erîk
yên
el
##kar
##îyên
##anîn
amerîk
##ît
##it
enc
hem
lê
##eka
##ger
din
pişt
bin
dem
ragih
wez
##ij
##anên
##iz
##ayî
##îne
dib
bih
##oz
dike
##iha
##ent
mal
##da
##erê
##eyên
huk
tir
##xwaz
##uh
##ekê
st
vê
##ûmeta
sala
##geh
##kirina
##geha
be
##bû
bike
##êrê
em
hatin
hêz
nû
##nam
îr
##yî
##ve
ragihand
tirk
##us
çav
er
##erên
ar
me
##ef
navê
##iyan
##af
##aş
xw
du
in
##bera
bel
##yar
##ch
mez
dî
weha
##tina
baş
##îna
##sî
bûn
##aw
hil
##înê
hukûmeta
amerîka
welat
mir
bê
##dî
av
##eng
pey
pêk
çar
cih
##erî
##era
hin
##xwe
dij
##ina
##erm
##go
navbera
te
##êş
zim
##arêz
gelek
bikin
##iyên
##tî
##ec
##ivîs
tur
##arî
##ax
##tir
dev
kurdî
sûr
##os
wezîr
gundên
navç
##bûna
çend
##hil
hêzên
piştî
##ab
beş
##kir
mezin
hatiye
îranê
turk
##ane
parl
##ng
hewl
niha
##la
dewl
ker
##ran
rew
mirov
parêz
##ka
##îz
ko
##dana
##îh
##yan
end
##mê
##manî
çavk
han
hemû
siya
kon
##îkirin
nivîs
##id
gundekî
daxwaz
##îyan
rû
##xist
##înin
18
gor
çavkanî
##ijar
##um
encam
dih
girêd
##etê
dibêj
##roj
##wer
xu
##lin
##ta
endam
##ûd
dikin
lîst
##ex
wek
##op
wer
##ic
##ig
rewş
##ata
##dan
##he
##00
saz
##yên
bihê
çê
##etî
heta
##ft
##aran
red
##re
daw
##ena
##ib
pol
##kev
bajêrê
##ot
dibe
##kû
##ment
xuya
zanîn
as
##pê
dema
##îrok
hel
##ala
##ect
turkiye
sed
tay
##le
##ûrê
navçeya
##med
derb
deng
##eyan
##bijar
##iyament
##îd
##zanî
ango
per
cîh
##vê
##yon
##arên
##ene
dan
mu
##du
##ilê
rojnam
kur
xuyakirin
##pir
parliyament
199
##irect
beh
##eşk
redirect
barzanî
hê
kerkû
aw
hilbijar
ger
dir
roja
##îm
##din
##alîkirin
aliyê
##enê
##wend
hevp
##aya
nîş
##og
##îye
beralîkirin
tev
##van
civ
tayb
dijî
leşk
##ap
##anûn
meh
##tû
ama
12
kurdan
kombûn
10
##ac
bal
##kî
##per
part
xel
day
es
nêz
##yayê
##pirs
##est
##andina
##ete
##ekirin
kê
11
az
aş
wekî
##eser
sê
encûm
##ost
ab
se
##ûs
ereb
##ing
bajarê
îs
hilbijartin
hatine
şer
hene
2010
bib
2011
bûye
ên
##ut
gişt
bak
wezîrê
##eran
17
hate
14
parêzgeha
##if
##xan
bilin
qanûn
jêd
divê
##ama
##anîya
##ûrî
gotin
##di
êr
pro
berde
rewşa
##tê
##girê
serdana
evroj
peywend
eb
ferm
angora
##eyî
kiriye
ez
yekê
navend
pirs
##jm
derve
kerkûkê
hevpey
##iyon
##lî
##bi
##aq
fir
dîrok
15
şê
##olê
zimanê
2009
##ava
##xd
heye
berpirs
teq
na
çareser
nava
paş
##ora
16
su
##îv
şand
herw
lîsta
ter
mes
##ikî
mar
maf
le
pirtû
hik
belê
##irê
min
aj
2008
ava
##îndar
encûmena
ewê
2012
##êne
tek
wezar
##kêş
##hem
polîs
kuş
behsa
zar
fran
##ia
kev
##ast
herdu
bibe
##îkî
serokat
##dul
nûn
##etewe
çek
bêj
is
##aniya
##ola
zan
yan
mil
nûç
siyas
hejm
##ket
bikar
rast
girtin
kesên
##veb
berê
##wam
herêmê
bareya
##asî
##oh
##adê
ti
hez
##andan
##te
##orê
gr
hewlêrê
êrîş
##ob
kuj
erd
nas
##emê
##payê
ax
girêdayî
##anîna
##best
dewleta
birîndar
198
dil
dibêje
##ha
##bar
##ela
##istanê
dixwaz
##ine
##lam
##hilat
13
##ku
neh
amed
başûrê
malikî
br
jin
derv
##ema
muh
pîr
os
##ibû
##hat
beşdar
siyasî
zê
##manc
parliyamenta
weke
##kên
xeb
berdewam
##oş
##înî
belav
##isa
îro
##xweş
##okê
tenê
azad
ad
##pa
guh
the
destpê
têk
##xistin
fer
##jî
bakur
van
dad
##ter
demok
wezareta
ajan
gelê
##omb
herî
berhem
ewl
af
evan
pêşkêş
alîk
bûy
hewlêr
##iq
dax
weş
kêm
##îng
##ûl
##oya
##bo
cel
yekem
##iw
pet
ziman
alîyê
mis
nişt
##gehên
##ud
nê
##ej
bilind
rêveb
komara
gul
##xdadê
##orî
pên
##azî
##pan
##ge
şar
##rê
197
serokatîya
baz
##ks
##istana
kuştin
car
xwend
##dest
netewe
##etên
tên
bareyê
biryar
##ûna
dibêjin
peywendîyên
ma
taybetî
tal
gu
##iraq
kurdistanî
neb
##ce
demê
ebdul
vî
îraq
dar
##eder
##sê
eş
endamên
##avê
mer
##rî
kû
##dê
giştî
##west
mad
eh
##gel
ewro
dide
rêz
gundê
rom
bêjed
##welat
evî
##manîya
##ser
daxu
ajansa
##edar
##ayên
##xistina
sîn
##pêş
endamê
##rat
bihên
##îrê
##eq
ak
rojnamev
diyar
##mer
kirine
ewan
tişt
dawî
hes
kujtin
welatên
##eyn
##arin
malb
civak
##od
##emb
teror
mesûd
cîhanê
hinek
dû
berî
pirsa
cur
##çe
##ion
##kevtin
##gehê
dikar
##yana
##darên
zarok
##ekir
nîşandan
##ne
silê
ît
##eyek
##th
şêx
of
##ang
dr
sp
dam
##kol
##îb
##anan
rûn
petr
jê
hun
amade
jibo
elî
##eyeka
may
baxdadê
##bûyî
nexweş
mûs
nivîskar
sel
supayê
##ip
21
dihê
amedê
art
alîkar
kurdistan
ke
at
deverên
##enb
##înên
komît
ehmed
osman
##ign
new
wezîrên
196
##ker
mehm
##ûş
helbest
feder
##kirî
sûrîyê
03
nûrî
în
##lah
pêşwaz
pîroz
çand
##îra
xan
wiha
derbas
xwepêş
hey
bibin
xelat
hejmara
gorî
##lê
##ika
fermî
##ton
tirkiye
hevpeymanîya
heft
kurdên
bûne
hevwelat
gih
nêzîkî
mê
mirin
jêder
yekî
alîyan
ch
##îka
##tr
ast
25
amad
lêkol
##kan
we
away
erebî
girêdanên
##darê
kel
damez
biz
hew
30
daxwaza
taybet
tekez
##ug
reş
alman
##oyê
alî
##ag
##lan
pay
##yoz
gerek
zêd
##ard
dêr
herêm
dirêj
îraqê
ef
balyoz
mel
êdî
rojav
##ind
##ûmetê
tel
bomb
çi
##por
##yanî
##îkê
kombûna
##istan
pros
herwe
##ikê
med
bajar
xur
rûs
##irg
##esa
or
çal
heger
##men
berf
fîl
##înan
eger
##dem
##oc
##hilata
##ûra
alîyên
##va
bawer
hikûmeta
post
align
dibin
##ix
iraqî
xebat
devera
##ba
asay
##ram
##yem
hember
ag
##îyye
##deya
##mar
195
´´
sûrî
girin
##alê
fel
##bn
##li
##alî
un
duh
##elê
mûsilê
ap
hus
##nameya
ed
çiya
##ers
##danê
##gire
wêne
gen
navenda
salên
pk
proj
##war
ob
##ebanî
giring
doh
çalak
bajêr
başûr
##inê
tirkî
bide
şandeya
09
##cî
daye
herweha
##ko
mehmûd
col
artêş
cihê
kombûnê
niştim
dik
îslam
mirovan
yekît
##ct
şerê
armanc
herwisa
mafên
serê
194
sor
hêv
##yaya
kor
far
##çû
talebanî
pirr
biry
07
##etir
04
fra
kr
##wan
ay
parast
leşkerî
##lo
muhem
24
partîya
zêde
02
05
bîr
##met
##pg
herwiha
##wez
##day
pêd
##nîş
##ret
hilbijartinên
jiyana
tu
##jim
##îyar
cihgirê
22
192
karê
çû
welatê
##ens
ragihandin
fam
payt
meha
##of
girîng
federal
sek
##oloj
ner
ved
serhil
bêtir
dengê
ot
şeh
heman
şah
brît
pênc
kesan
ro
rad
nik
xal
##ep
##gê
pêdiv
perwer
2007
km
08
band
qer
dix
destê
000
##ri
##ust
bakurê
rêya
hilbijartinan
fransa
eliraq
pkk
guher
amerîkî
damezr
##girtina
kongir
##gar
##xaneya
nûnerên
obama
şor
##nî
##asyon
##ksiyon
qed
terorîst
berpirsên
##zan
desthilat
dixwazin
##ekirina
ket
##ewî
23
kov
##ona
qur
##nîşan
nûçeya
piş
xwed
rêkevtin
xwarin
##lu
rojhilat
girt
pêşwazîya
sep
îng
06
guft
navîn
193
nam
ned
bidin
dîtin
ewledar
##sp
##eyeke
##wey
##enter
##ûb
dîdar
destnîşan
cu
wat
xiz
asayiş
27
qez
wir
avê
malp
bazirg
malbat
##guh
hêj
navxwe
demokrat
01
tirkiyeyê
mîr
##yle
derket
##tan
##oka
##onê
hind
##san
##tp
xelkê
##tirîn
eliraqîyye
reng
##ekar
28
##dewl
dim
agah
fraksiyon
biw
îm
qanûna
mafê
paytex
26
##irx
salan
jul
pes
pirtûk
celal
dûr
birêz
encama
pr
silêmanî
mêr
pêkanîna
rojhilata
serekî
##vanên
##der
çap
##ub
kem
xir
jpg
pêşmer
sib
style
##are
xurt
##yal
xwepêşand
geş
bab
têkil
tî
##wîst
##avên
awayekî
muhemmed
##kirinê
şîr
dixwaze
##darî
rejî
op
nak
tem
##ray
prosesa
mam
cem
bix
salih
jêderekî
didin
##axa
top
##beş
encamdan
çîrok
##mend
rêxistin
##ras
peya
agir
bikaranîn
koç
##ck
heya
nehat
komel
##han
dez
qanûnê
çendê
sur
zanist
muz
dîyar
##sala
veger
##bûnê
##ekan
fil
pak
##efa
##ae
biryara
##px
famîl
##enc
##ant
nêç
artêşa
dihat
layê
mih
##imî
çaw
piştev
sw
and
polîsên
##nas
aşt
##dêr
jun
xweş
tîr
aug
kol
##afa
petrolê
xist
kompan
yekbûyî
hezar
pl
##berê
leşkerên
derbarê
##çûn
parliyamentê
29
la
komîteya
bu
caran
##orm
##ond
dîroka
##tinê
rojnameya
şoreş
##ator
##şemê
##karê
neteweyên
serokwez
sa
bed
sam
bingeh
balyozê
kan
navdar
##nê
kons
kirina
aborî
##etan
kevn
##ike
##îzî
zêdetir
##rah
##ehê
##za
oper
##şt
hiş
##baz
##enî
nêçîr
man
##ord
##awî
pêkhat
ey
qeb
cej
jan
##ibûn
esed
##ich
cuda
rêxistina
##ireh
ol
##atê
2006
tund
##ibe
welatî
##xt
dec
rejîma
##alên
were
nîşan
leşker
malpera
##bend
partiya
##se
hêvî
vir
duyem
center
mij
bilinda
jêr
sîst
com
##êdayî
mala
##îj
dikare
sîya
hiz
##ogan
dol
taw
##kevtina
îran
rûp
##gan
dikeve
şan
nêçîrvan
ah
daxuyan
##çûk
##ler
##hên
çarç
##andinê
tirkîyê
konf
grêdayî
net
##hev
ref
hevkar
##îf
##gr
##ht
##uk
##bidest
zay
karên
karbidest
xwest
191
sil
koma
kombûnek
bend
çêkirin
pd
navn
vek
ht
nîv
sey
bay
##girt
tekezî
apr
##iyar
dewletê
xelata
hatibû
ka
şev
sedsala
pêşkêşî
##ahî
##mam
##ida
##kef
##zê
nem
qad
sit
şem
##ûmet
piştre
amerîkayî
oct
140
##bêj
xwez
arêş
parlam
arîş
bid
##ow
jiday
zanîngeha
pirsên
##wat
germ
##emed
xwedî
salê
maddeya
##tên
pirsgirê
hukûmetê
31
berfireh
nîne
rojava
zer
rex
kam
pêwîst
dirist
##fî
##bir
##yad
##sta
wêj
##ermend
şir
amerîkayê
sch
bavê
50
riz
aşkir
îngil
##hen
##ff
nêv
geng
##gera
##dîn
yekemîn
dikir
yekîtîya
tr
mon
hesen
mijar
nov
mêrd
serbi
gun
##oy
ewropa
destûra
ron
bajarên
##gen
ermen
nirx
##cê
hejmar
famîleya
tun
mîn
##wê
çareserkirina
met
jêderî
##îlê
##îkirina
derveyê
dîdarê
sînor
zû
dip
##emîn
daxuyanî
##girin
alb
tew
ciw
kurmanc
##ür
##şemb
##ox
pêşmerge
bik
serbixwe
selah
jidayîk
barên
doz
deverê
##ahiya
seb
ligel
##iyeke
nêzîk
parastina
dinê
pêdivê
sir
iraqa
##alan
gengeş
##bê
##land
ewên
wisa
destpêka
##ation
posta
tar
dîsa
peyv
ewledarîyê
siv
##aka
niştimanî
##ie
##imê
lat
##nan
pil
çavdêr
th
huseyn
peyam
bang
qebûl
##ehr
navdewl
keç
##îyek
mû
pas
kul
mill
rola
rojavayê
fermand
dîw
cî
##barî
rojnamevanî
sh
##bay
sekret
##kuj
islam
100
##ight
fr
gotinê
berpirsê
cara
##art
##dp
pdk
##lar
stran
##ans
##îsê
asayişa
siyaset
cor
##berên
sûriye
aşkira
feb
bas
wezîran
jidayîkbûn
cin
ram
hevpeyv
40
rastî
opoz
erdogan
##tern
##elî
dewletên
çareserkirin
eşîr
kil
tey
firr
çandî
ny
wên
##amê
gaz
##siv
haş
derdi
sedema
hebe
anî
##îyekî
demjim
##yona
##eyekî
berhemên
kurt
qon
qurb
http
##ess
##ikan
##ewend
hêla
nob
çiyayê
dane
heb
pirtûka
bij
##tine
armanca
##iyona
##heng
##eyekê
êz
berj
dawîyê
nah
##îkol
dor
##oma
rêvebir
dikarin
swêd
tevî
nek
çekdarên
##urg
nu
avakirin
hunermend
##ikên
rojê
kurê
îtil
rûnişt
mamost
##keve
vala
bad
##deyê
nûnerê
malbata
rawest
qu
##baran
atom
diçe
##qê
##ariya
dijîn
##axê
##inc
##ga
alîkarîya
##îrî
kurdistana
zimanên
mêrdînê
navçe
bon
rojan
erz
ps
silêmanîyê
lew
##ûst
derd
piştgir
têne
##irandin
cez
im
biçûk
str
wil
##ell
ta
aram
îl
rojên
îtal
##ide
mec
bergir
i̇
##ian
bil
must
##ph
dijwar
dîrokî
axaf
hêr
gelhen
gelhenasî
mas
operasyon
##ura
pesend
bernam
fu
tom
salî
şaristana
##wî
##ebûna
stenb
hîn
nêr
##deş
##andî
sos
ewropayê
şî
##wd
den
awayî
gundistana
rev
lîb
190
nabe
##îsan
hatina
brîtaniya
des
polîsan
bud
mihemed
jap
miz
yew
##çin
##qa
berjewend
##anîyê
şew
##ato
##amber
navên
birê
civakî
##ww
##ere
##iyek
beşar
##ace
meb
digire
##ewa
rewşenb
lêkolîn
##ca
##irî
har
hêza
çûn
gelekî
kemal
##adî
zîn
hol
##wa
2005
hevdu
beşdarîyê
heleb
fraksiyonên
îranî
axa
bdp
hwd
www
abor
afr
îsra
îtilafa
##brah
bim
##êran
telev
kiş
et
bersiv
##ale
rojhilatê
hebû
##ember
##ibin
tevlî
zêbarî
##ort
hikûmetê
##sef
##çî
##vin
##vanê
pêşket
##isê
şeş
##fa
radi
biwarê
parlem
bord
digel
ban
demokras
bis
beşdarî
silêman
sar
hebûn
desthilatdar
##ze
##onî
##tinên
misirê
beyan
##all
nex
rêvebirê
##ivî
eyad
wid
jiber
parlament
hevwelatîyên
mîna
cîhanî
rêj
isray
bêjedana
rûniş
##bsp
çînê
haşimî
çawa
kompanya
##bek
gundî
mebest
tend
beşa
polît
qedex
ferman
##ilman
felsef
maz
welatan
##col
2013
dewlet
mat
##warî
##okî
sekreterê
##parêz
tîrm
##garî
jinan
##eye
width
bes
mus
##weş
parêzgeh
aloz
dav
##anb
êv
gihij
2003
mek
nbsp
hemî
demokratîk
mînak
dinên
encamên
civata
çekdar
haw
dew
isbn
bûyer
border
##son
##manê
xwedê
ebdullah
gur
##tor
##evan
rojavaya
teb
##sin
hilwest
