[PAD]
[UNK]
[CLS]
[SEP]
[MASK]
!
"
#
$
%
&
'
(
)
*
+
,
-
.
/
0
1
2
3
4
5
6
7
8
9
:
;
<
=
>
?
@
[
\
]
^
_
`
a
b
c
d
e
f
g
h
i
j
k
l
m
n
o
p
q
r
s
t
u
v
w
x
y
z
{
|
}
~
¡
¤
§
¨
©
«
¬
°
±
²
³
´
µ
·
¹
º
»
½
¾
×
ß
à
á
â
ã
ä
å
æ
ç
è
é
ê
ë
ì
í
î
ï
ð
ñ
ò
ó
ô
õ
ö
÷
ø
ù
ú
û
ü
ý
þ
ā
ă
ą
ć
ĉ
ċ
č
ď
đ
ē
ė
ę
ě
ĝ
ğ
ġ
ĥ
ħ
ī
ĭ
į
ı
ĵ
ķ
ļ
ľ
ł
ń
ň
ŋ
ō
ŏ
ő
œ
ŕ
ř
ś
ŝ
ş
š
ţ
ť
ŧ
ũ
ū
ŭ
ů
ű
ų
ź
ż
ž
ơ
ǎ
ǐ
ǔ
ǝ
ǧ
ȇ
ȋ
ȗ
ș
ț
ɐ
ɑ
ɔ
ə
ɛ
ɡ
ɪ
ɹ
ɾ
ʀ
ʁ
ʃ
ʊ
ʒ
ʕ
ʘ
ʰ
ʻ
ʼ
ʾ
ʿ
ˁ
ˆ
ˈ
ˌ
ː
́
̃
̇
̈
̪
͞
͡
ͱ
΄
ά
έ
ή
ί
α
β
γ
δ
ε
ζ
η
θ
ι
κ
λ
μ
ν
ξ
ο
π
ρ
ς
σ
τ
υ
φ
χ
ψ
ω
ό
ύ
ώ
ϙ
ϛ
ϝ
ϸ
ϻ
а
б
в
г
д
е
ж
з
и
й
к
л
м
н
о
п
р
с
т
у
ф
х
ц
ч
ш
щ
ъ
ы
ь
э
ю
я
ё
і
ї
ј
љ
ћ
ў
ғ
қ
ҝ
ҫ
ү
ҹ
һ
ӕ
ә
ө
ա
գ
դ
ե
զ
ը
թ
ի
լ
խ
կ
հ
ղ
մ
յ
ն
շ
ո
չ
պ
ռ
ս
վ
տ
ր
ց
ւ
փ
ք
օ
և
ְ
ִ
ֵ
ֶ
ַ
ָ
ֹ
ּ
ׁ
א
ב
ג
ד
ה
ו
ז
ח
ט
י
כ
ל
ם
מ
ן
נ
ס
ע
ף
פ
צ
ק
ר
ש
ת
،
ء
آ
أ
ؤ
إ
ئ
ا
ب
ة
ت
ث
ج
ح
خ
د
ذ
ر
ز
س
ش
ص
ض
ط
ظ
ع
غ
ـ
ف
ق
ك
ل
م
ن
ه
و
ى
ي
ً
ٌ
ٍ
َ
ُ
ِ
ّ
ْ
٠
١
٢
٣
٤
٥
٦
٨
٩
ٱ
ٹ
پ
چ
ڈ
ڕ
ژ
ڤ
ک
گ
ڵ
ھ
ہ
ۆ
ۇ
ۊ
ی
ێ
ە
۰
۱
۲
۳
۵
۶
۷
۸
۹
ܐ
ܒ
ܕ
ܗ
ܘ
ܚ
ܝ
ܟ
ܠ
ܡ
ܢ
ܦ
ܪ
ܫ
ܬ
ܵ
ܼ
ހ
ރ
އ
ޖ
ާ
ި
ް
ँ
ं
अ
क
ख
ग
ज
ट
त
द
ध
न
प
ब
भ
म
य
र
ल
व
ष
स
ह
़
ा
ि
ी
ु
े
ो
्
অ
ক
ন
ব
ম
য
র
ল
স
়
া
ি
ী
ু
্
ર
ા
க
ட
த
ன
ப
ம
ர
ற
ல
ள
ழ
வ
ா
ி
ு
ெ
ொ
்
ు
ె
్
್
ാ
ය
ි
ก
ค
ง
ด
ต
ท
ธ
น
ป
พ
ภ
ม
ย
ร
ล
ว
ษ
ส
ห
อ
ะ
ั
า
ิ
ุ
เ
์
་
ོ
မ
ာ
်
ა
ბ
დ
ე
ვ
ზ
თ
ი
კ
ლ
მ
ნ
ო
პ
რ
ს
ტ
უ
ქ
შ
ჭ
ხ
ሕ
ር
ḉ
ḍ
ḏ
ḥ
ḧ
ḫ
ḱ
ḳ
ḻ
ṇ
ṕ
ṗ
ṣ
ṭ
ṯ
ẍ
ẓ
ả
ấ
ẹ
ế
ệ
ọ
ố
ồ
ộ
ụ
ἀ
ἄ
ἰ
ἱ
ὀ
ῆ
ῖ
ῦ
ῶ
‐
–
—
‘
’
‚
“
”
„
‟
†
•
…
′
″
‹
›
€
№
→
↓
⇒
∅
∈
−
≈
≠
─
│
└
├
┬
▪
☆
♭
♮
♯
ⴰ
い
く
の
り
ア
ィ
イ
ウ
エ
オ
キ
ク
グ
ケ
コ
ジ
ス
ソ
タ
ッ
デ
ト
ド
ナ
ニ
ブ
プ
ベ
ボ
マ
ミ
モ
ラ
リ
ル
レ
ロ
ン
・
ー
一
三
上
下
世
东
中
五
京
人
代
会
全
公
共
化
北
区
十
华
南
县
口
古
和
国
國
城
夏
大
天
子
宁
安
家
山
島
川
州
市
帝
年
广
後
德
探
撃
文
新
族
明
春
晉
朝
木
本
東
松
株
楊
武
民
水
汉
江
河
治
法
津
浦
海
湖
漢
特
王
珠
甘
皇
盆
真
知
石
社
福
秦
經
羅
耶
胡
自
行
西
話
語
載
通
道
郎
金
长
阳
集
青
高
麗
黄
가
강
거
건
게
결
경
고
공
과
광
교
구
국
굿
그
금
기
김
꽃
나
난
남
내
너
녀
노
눈
뉴
느
는
니
다
단
달
당
대
도
독
동
두
드
들
라
람
랑
래
러
레
로
를
름
리
림
마
만
말
맨
면
명
무
문
물
미
민
바
박
발
방
백
별
보
복
봄
부
북
불
브
비
사
삼
상
새
생
서
석
선
설
성
세
셜
소
솔
송
수
순
스
시
식
신
아
안
애
야
어
에
여
연
열
영
오
온
왕
요
우
운
울
위
유
육
은
을
의
이
인
일
임
자
장
재
적
전
정
제
조
좋
주
즈
지
집
차
참
천
카
크
키
타
태
터
토
트
파
페
포
프
피
하
학
한
해
향
호
혼
화
후
희
ﬂ
﴾
﴿
ﺍ
ﺡ
ﺯ
ﻉ
ﻱ
𐭥
##b
##e
##r
##n
##h
##i
##m
##a
##z
##o
##u
##l
##s
##ê
##t
##v
##î
##ş
##q
##0
##k
##c
##y
##û
##d
##w
##g
##p
##x
##j
##1
##3
##5
##8
##9
##س
##ا
##ف
##ر
##ن
##7
##̇
##´
##f
##2
##4
##ß
##ç
##ு
##ல
##ம
##்
##ப
##ெ
##ர
##ü
##6
##ت
##و
##ە
##ı
##ش
##ة
##ö
##ğ
##ä
##è
##é
##ه
##د
##ی
##خ
##е
##к
##о
##т
##р
##ы
##х
##ز
##ي
##ì
##ú
##â
##ل
##ح
##ض
##í
##°
##ܒ
##ܫ
##ܬ
##ܐ
##송
##ب
##گ
##ك
##م
##æ
##ī
##å
##ۆ
##ڤ
##대
##ė
##ā
##ñ
##з
##ә
##б
##а
##ј
##ҹ
##н
##š
##٠
##٨
##پ
##á
##ک
##ð
##ێ
##ш
##ó
##چ
##ھ
##َ
##ُ
##ث
##́
##д
##с
##м
##أ
##и
##ǎ
##ē
##治
##α
##λ
##κ
##ό
##ς
##ě
##ō
##レ
##ス
##タ
##ū
##č
##ق
##я
##ə
##ι
##ν
##ّ
##ł
##ấ
##ș
##ع
##ж
##в
##ế
##ो
##ं
##य
##ी
##ś
##ẍ
##υ
##ρ
##ώ
##π
##η
##ʃ
##ɑ
##σ
##γ
##έ
##τ
##ბ
##ი
##ლ
##ს
##래
##ů
##ë
##у
##г
##ু
##ি
##ব
##র
##ô
##ڕ
##ȗ
##─
##ḧ
##ʊ
##ῖ
##μ
##л
##ã
##ž
##ה
##ד
##ו
##ת
##ц
##ى
##ч
##ь
##ă
##ù
##ء
##−
##স
##ম
##ী
##য
##া
##়
##ؤ
##ּ
##ֹ
##ג
##ά
##ο
##ذ
##ِ
##ḥ
##사
##나
##이
##ط
##조
##ω
##東
##의
##à
##ْ
##β
##도
##ą
##ъ
##文
##帝
##楊
##ř
##غ
##ـ
##ų
##ï
##ǔ
##ص
##ŭ
##й
##新
##县
##☆
##¨
##်
##မ
##ာ
##ʁ
##̃
##ژ
##ε
##ί
##і
##δ
##ئ
##ξ
##ф
##ȋ
##ج
##ב
##ר
##י
##ڵ
##ַ
##ִ
##年
##の
##ッ
##ト
##ボ
##ー
##ル
##ả
##호
##ி
##ழ
##ῆ
##ť
##آ
##차
##ე
##დ
##ა
##복
##한
##²
##ø
##מ
##ס
##타
##ɔ
##ː
##ɛ
##த
##வ
##ற
##ї
##ἰ
##χ
##ύ
##장
##수
##ָ
##ע
##ְ
##ˁ
##구
##ր
##և
##ե
##լ
##յ
##ա
##ն
##ю
##区
##京
##ż
##ि
##ল
##þ
##п
##ٌ
##고
##ò
##न
##्
##ध
##ु
##漢
##만
##্
##φ
##ć
##ћ
##ǐ
##ל
##ܘ
##ĝ
##ը
##į
##õ
##랑
##왕
##ę
##식
##ক
##기
##რ
##ო
##ნ
##ﬂ
##朝
##ḻ
##×
##리
##스
##כ
##ן
##다
##보
##면
##물
##아
##ܪ
##ܝ
##ჭ
##ӕ
##θ
##阳
##市
##க
##ள
##국
##강
##ʰ
##ő
##ˈ
##ʒ
##ʿ
##۳
##۷
##۱
##┬
##ラ
##古
##自
##는
##ɡ
##э
##金
##株
##会
##社
##ظ
##۹
##մ
##վ
##ի
##͡
##ܡ
##נ
##ʻ
##ĭ
##키
##백
##과
##ռ
##家
##話
##을
##ո
##ս
##州
##ٹ
##ġ
##ĉ
##耶
##一
##族
##ệ
##本
##े
##व
##ा
##ग
##र
##두
##ש
##א
##法
##エ
##स
##٣
##은
##ḱ
##야
##ʼ
##시
##트
##汉
##희
##ộ
##터
##麗
##΄
##木
##郎
##ド
##ֶ
##ý
##선
##동
##ɪ
##ँ
##ट
##ल
##ሕ
##إ
##ク
##त
##ļ
##城
##川
##ḫ
##태
##ף
##ĥ
##향
##신
##문
##西
##ḍ
##щ
##니
##տ
##영
##파
##қ
##պ
##ү
##島
##ń
##ロ
##ナ
##라
##해
##ք
##ज
##제
##금
##로
##上
##人
##民
##共
##和
##國
##安
##全
##º
##ാ
##↓
##ર
##ા
##़
##ׁ
##١
##ட
##ா
##ன
##դ
##크
##コ
##ン
##ɾ
##브
##온
##٩
##٤
##٥
##海
##թ
##운
##드
##가
##ܠ
##ܼ
##ܵ
##ܕ
##피
##ῦ
##ֵ
##ტ
##უ
##ё
##い
##ܚ
##̈
##ւ
##հ
##ή
##들
##레
##۰
##명
##ொ
##ζ
##語
##ט
##თ
##პ
##კ
##宁
##름
##ʾ
##성
##맨
##ŋ
##세
##ў
##湖
##요
##일
##口
##우
##에
##서
##า
##ษ
##น
##ก
##ล
##ง
##ন
##կ
##խ
##ẹ
##독
##צ
##明
##ር
##क
##ह
##포
##ხ
##지
##知
##ק
##어
##후
##마
##ブ
##リ
##北
##하
##게
##너
##화
##방
##주
##王
##ܟ
##♮
##德
##러
##ṣ
##đ
##부
##ุ
##ป
##ร
##ň
##ẓ
##۲
##무
##새
##ḏ
##ṗ
##ṭ
##박
##상
##적
##건
##œ
##림
##国
##代
##٢
##მ
##울
##연
##ű
##ց
##ṇ
##난
##く
##여
##ǝ
##북
##ニ
##キ
##グ
##შ
##ვ
##ם
##교
##자
##ῶ
##³
##ً
##ม
##ว
##ქ
##ท
##ย
##ٍ
##江
##집
##भ
##子
##ț
##뉴
##探
##շ
##느
##람
##꽃
##ɹ
##ŕ
##천
##ہ
##비
##道
##ȇ
##ި
##म
##ె
##్
##¬
##정
##載
##下
##재
##פ
##인
##ź
##ܢ
##석
##ィ
##̪
##ห
##ิ
##ธ
##ด
##胡
##十
##단
##ŏ
##್
##イ
##デ
##소
##ţ
##당
##զ
##特
##չ
##ғ
##石
##를
##ミ
##オ
##青
##公
##प
##ි
##ය
##ҝ
##♭
##거
##설
##ོ
##ө
##즈
##육
##ח
##南
##٦
##생
##ზ
##撃
##द
##ז
##マ
##ܦ
##페
##셜
##ܗ
##ア
##ŝ
##行
##달
##љ
##大
##真
##카
##ⴰ
##水
##һ
##애
##ọ
##ụ
##۶
##փ
##晉
##ۊ
##皇
##化
##օ
##գ
##り
##山
##전
##말
##바
##공
##광
##河
##ジ
##モ
##ḳ
##오
##안
##미
##녀
##노
##เ
##์
##그
##ウ
##五
##ส
##อ
##พ
##ḉ
##임
##羅
##순
##夏
##ޖ
##އ
##ް
##ރ
##ާ
##ķ
##ۇ
##ľ
##혼
##ɐ
##ั
##ต
##ʀ
##ṯ
##유
##발
##ǧ
##♯
##ʘ
##ケ
##͞
##𐭥
##별
##ψ
##ղ
##۸
##ख
##내
##ũ
##¹
##經
##东
##민
##春
##ڈ
##결
##열
##토
##ހ
##ะ
##ष
##浦
##世
##集
##华
##۵
##ˆ
##±
##ď
##通
##남
##ồ
##三
##プ
##ค
##경
##津
##솔
##中
##ు
##天
##ベ
##ब
##€
##학
##ソ
##ĵ
##ố
##ơ
##珠
##≈
##an
##er
##in
##ir
##ar
##ên
##ya
di
ku
##ek
bi
de
##st
li
##en
##în
##at
ji
##yê
##el
##al
##et
##av
ser
##rd
##we
##irin
he
##anê
kurd
##ra
##ist
##eh
##iy
##ma
##ey
her
jî
##and
##iya
##ok
##am
ber
nav
xwe
##ûn
##ed
##anî
##ay
##il
ev
##or
##îk
ba
##ih
##em
da
##on
re
##eya
##es
##tin
##om
kurdist
##iş
pê
ya
##un
##îr
##ol
ew
##ez
##ke
##ekî
hat
##îy
##kirin
##az
20
##end
ye
##îya
##êr
kurdistanê
##raq
##oj
al
##eb
##arê
iraq
##ur
##iye
##ana
herê
serok
kir
##eş
##eta
##ûr
##im
der
##ik
bo
ra
iraqê
##de
ve
19
##und
##as
##işt
an
##iyê
##ev
en
ne
go
herêma
roj
##eha
dest
##ad
##ber
bû
##iv
kom
##dar
sal
gund
##sa
##êz
##ûm
##îyê
##êj
kirin
##eke
gel
##bûn
serokê
am
tê
##gir
gir
par
##andin
wê
hev
##îs
##na
yek
##be
evê
pêş
##man
##êd
pir
##ak
##wl
##îl
rê
##is
##ah
##ro
wan
##ul
##îş
bar
##kin
##gih
baj
200
201
##ov
dê
##ew
##ayê
bir
kar
##îst
got
##ye
##waz
##kê
##eyê
##elat
yê
hu
kes
wî
##ara
pna
##erîk
yên
el
##kar
##îyên
##anîn
amerîk
##ît
##it
enc
hem
lê
##eka
##ger
din
pişt
bin
dem
ragih
wez
##ij
##anên
##iz
##ayî
##îne
dib
bih
##oz
dike
##iha
##ent
mal
##da
##erê
##eyên
huk
tir
##xwaz
##uh
##ekê
st
vê
##ûmeta
sala
##geh
##kirina
##geha
be
##bû
bike
##êrê
em
hatin
hêz
nû
##nam
îr
##yî
##ve
ragihand
tirk
##us
çav
er
##erên
ar
me
##ef
navê
##iyan
##af
##aş
xw
du
in
##bera
bel
##yar
##ch
mez
dî
weha
##tina
baş
##îna
##sî
bûn
##aw
hil
##înê
hukûmeta
amerîka
welat
mir
bê
##dî
av
##eng
pey
pêk
çar
cih
##erî
##era
hin
##xwe
dij
##ina
##erm
##go
navbera
te
##êş
zim
##arêz
gelek
bikin
##iyên
##tî
##ec
##ivîs
tur
##arî
##ax
##tir
dev
kurdî
sûr
##os
wezîr
gundên
navç
##bûna
çend
##hil
hêzên
piştî
##ab
beş
##kir
mezin
hatiye
îranê
turk
##ane
parl
##ng
hewl
niha
##la
dewl
ker
##ran
rew
mirov
parêz
##ka
##îz
ko
##dana
##îh
##yan
end
##mê
##manî
çavk
han
hemû
siya
kon
##îkirin
nivîs
##id
gundekî
daxwaz
##îyan
rû
##xist
##înin
18
gor
çavkanî
##ijar
##um
encam
dih
girêd
##etê
dibêj
##roj
##wer
xu
##lin
##ta
endam
##ûd
dikin
lîst
##ex
wek
##op
wer
##ic
##ig
rewş
##ata
##dan
##he
##00
saz
##yên
bihê
çê
##etî
heta
##ft
##aran
red
##re
daw
##ena
##ib
pol
##kev
bajêrê
##ot
dibe
##kû
##ment
xuya
zanîn
as
##pê
dema
##îrok
hel
##ala
##ect
turkiye
sed
tay
##le
##ûrê
navçeya
##med
derb
deng
##eyan
##bijar
##iyament
##îd
##zanî
ango
per
cîh
##vê
##yon
##arên
##ene
dan
mu
##du
##ilê
rojnam
kur
xuyakirin
##pir
parliyament
199
##irect
beh
##eşk
redirect
barzanî
hê
kerkû
aw
hilbijar
ger
dir
roja
##îm
##din
##alîkirin
aliyê
##enê
##wend
hevp
##aya
nîş
##og
##îye
beralîkirin
tev
##van
civ
tayb
dijî
leşk
##ap
##anûn
meh
##tû
ama
12
kurdan
kombûn
10
##ac
bal
##kî
##per
part
xel
day
es
nêz
##yayê
##pirs
##est
##andina
##ete
##ekirin
kê
11
az
aş
wekî
##eser
sê
encûm
##ost
ab
se
##ûs
ereb
##ing
bajarê
îs
hilbijartin
hatine
şer
hene
2010
bib
2011
bûye
ên
##ut
gişt
bak
wezîrê
##eran
17
hate
14
parêzgeha
##if
##xan
bilin
qanûn
jêd
divê
##ama
##anîya
##ûrî
gotin
##di
êr
pro
berde
rewşa
##tê
##girê
serdana
evroj
peywend
eb
ferm
angora
##eyî
kiriye
ez
yekê
navend
pirs
##jm
derve
kerkûkê
hevpey
##iyon
##lî
##bi
##aq
fir
dîrok
15
şê
##olê
zimanê
2009
##ava
##xd
heye
berpirs
teq
na
çareser
nava
paş
##ora
16
su
##îv
şand
herw
lîsta
ter
mes
##ikî
mar
maf
le
pirtû
hik
belê
##irê
min
aj
2008
ava
##îndar
encûmena
ewê
2012
##êne
tek
wezar
##kêş
##hem
polîs
kuş
behsa
zar
fran
##ia
kev
##ast
herdu
bibe
##îkî
serokat
##dul
nûn
##etewe
çek
bêj
is
##aniya
##ola
zan
yan
mil
nûç
siyas
hejm
##ket
bikar
rast
girtin
kesên
##veb
berê
##wam
herêmê
bareya
##asî
##oh
##adê
ti
hez
##andan
##te
##orê
gr
hewlêrê
êrîş
##ob
kuj
erd
nas
##emê
##payê
ax
girêdayî
##anîna
##best
dewleta
birîndar
198
dil
dibêje
##ha
##bar
##ela
##istanê
dixwaz
##ine
##lam
##hilat
13
##ku
neh
amed
başûrê
malikî
br
jin
derv
##ema
muh
pîr
os
##ibû
##hat
beşdar
siyasî
zê
##manc
parliyamenta
weke
##kên
xeb
berdewam
##oş
##înî
belav
##isa
îro
##xweş
##okê
tenê
azad
ad
##pa
guh
the
destpê
têk
##xistin
fer
##jî
bakur
van
dad
##ter
demok
wezareta
ajan
gelê
##omb
herî
berhem
ewl
af
evan
pêşkêş
alîk
bûy
hewlêr
##iq
dax
weş
kêm
##îng
##ûl
##oya
##bo
cel
yekem
##iw
pet
ziman
alîyê
mis
nişt
##gehên
##ud
nê
##ej
bilind
rêveb
komara
gul
##xdadê
##orî
pên
##azî
##pan
##ge
şar
##rê
197
serokatîya
baz
##ks
##istana
kuştin
car
xwend
##dest
netewe
##etên
tên
bareyê
biryar
##ûna
dibêjin
peywendîyên
ma
taybetî
tal
gu
##iraq
kurdistanî
neb
##ce
demê
ebdul
vî
îraq
dar
##eder
##sê
eş
endamên
##avê
mer
##rî
kû
##dê
giştî
##west
mad
eh
##gel
ewro
dide
rêz
gundê
rom
bêjed
##welat
evî
##manîya
##ser
daxu
ajansa
##edar
##ayên
##xistina
sîn
##pêş
endamê
##rat
bihên
##îrê
##eq
ak
rojnamev
diyar
##mer
kirine
ewan
tişt
dawî
hes
kujtin
welatên
##eyn
##arin
malb
civak
##od
##emb
teror
mesûd
cîhanê
hinek
dû
berî
pirsa
cur
##çe
##ion
##kevtin
##gehê
dikar
##yana
##darên
zarok
##ekir
nîşandan
##ne
silê
ît
##eyek
##th
şêx
of
##ang
dr
sp
dam
##kol
##îb
##anan
rûn
petr
jê
hun
amade
jibo
elî
##eyeka
may
baxdadê
##bûyî
nexweş
mûs
nivîskar
sel
supayê
##ip
21
dihê
amedê
art
alîkar
kurdistan
ke
at
deverên
##enb
##înên
komît
ehmed
osman
##ign
new
wezîrên
196
##ker
mehm
##ûş
helbest
feder
##kirî
sûrîyê
03
nûrî
în
##lah
pêşwaz
pîroz
çand
##îra
xan
wiha
derbas
xwepêş
hey
bibin
xelat
hejmara
gorî
##lê
##ika
fermî
##ton
tirkiye
hevpeymanîya
heft
kurdên
bûne
hevwelat
gih
nêzîkî
mê
mirin
jêder
yekî
alîyan
ch
##îka
##tr
ast
25
amad
lêkol
##kan
we
away
erebî
girêdanên
##darê
kel
damez
biz
hew
30
daxwaza
taybet
tekez
##ug
reş
alman
##oyê
alî
##ag
##lan
pay
##yoz
gerek
zêd
##ard
dêr
herêm
dirêj
îraqê
ef
balyoz
mel
êdî
rojav
##ind
##ûmetê
tel
bomb
çi
##yanî
##por
##îkê
kombûna
##istan
pros
herwe
##ikê
med
bajar
xur
rûs
##irg
##esa
or
çal
heger
##men
berf
fîl
##înan
eger
##dem
##oc
##hilata
##ûra
alîyên
##va
bawer
hikûmeta
post
align
dibin
##ix
iraqî
xebat
devera
##ba
asay
##ram
##yem
hember
ag
##îyye
##deya
##mar
195
´´
sûrî
girin
##alê
fel
##bn
##li
##alî
un
duh
##elê
mûsilê
ap
hus
##nameya
ed
çiya
##ers
##danê
##gire
wêne
gen
navenda
salên
pk
proj
##war
ob
##ebanî
giring
doh
çalak
bajêr
başûr
##inê
tirkî
bide
şandeya
09
##cî
daye
herweha
##ko
mehmûd
col
artêş
cihê
kombûnê
niştim
dik
îslam
mirovan
yekît
##ct
şerê
armanc
herwisa
mafên
serê
194
sor
hêv
##yaya
kor
far
##çû
talebanî
pirr
biry
07
##etir
04
fra
kr
##wan
ay
parast
leşkerî
##lo
muhem
24
partîya
zêde
02
05
bîr
##met
##pg
herwiha
##wez
##day
pêd
##nîş
##ret
hilbijartinên
jiyana
tu
##jim
##îyar
cihgirê
22
192
karê
çû
welatê
##ens
ragihandin
fam
payt
meha
##of
girîng
federal
sek
##oloj
ner
ved
serhil
bêtir
dengê
ot
şeh
heman
şah
brît
pênc
kesan
ro
rad
nik
xal
##ep
##gê
pêdiv
perwer
2007
km
08
band
qer
dix
destê
000
##ri
##ust
bakurê
rêya
hilbijartinan
fransa
eliraq
pkk
guher
amerîkî
damezr
##girtina
kongir
##gar
##xaneya
nûnerên
obama
şor
##nî
##asyon
##ksiyon
qed
terorîst
berpirsên
##zan
desthilat
dixwazin
##ekirina
ket
##ewî
23
kov
##ona
qur
##nîşan
nûçeya
piş
xwed
rêkevtin
xwarin
##lu
rojhilat
girt
pêşwazîya
sep
îng
06
guft
navîn
193
nam
ned
bidin
dîtin
ewledar
##sp
##eyeke
##wey
##enter
##ûb
dîdar
destnîşan
cu
wat
xiz
asayiş
27
qez
wir
avê
malp
bazirg
malbat
##guh
hêj
navxwe
demokrat
01
tirkiyeyê
mîr
##yle
derket
##tan
##oka
##onê
hind
##san
##tp
xelkê
##tirîn
eliraqîyye
reng
##ekar
28
##dewl
dim
agah
fraksiyon
biw
îm
qanûna
mafê
paytex
26
##irx
salan
jul
pes
pirtûk
celal
dûr
birêz
encama
pr
silêmanî
mêr
pêkanîna
rojhilata
serekî
##vanên
##der
çap
##ub
kem
xir
jpg
pêşmer
sib
style
##are
xurt
##yal
xwepêşand
geş
bab
têkil
tî
##wîst
##avên
awayekî
muhemmed
##kirinê
şîr
dixwaze
##darî
rejî
op
nak
tem
##ray
prosesa
mam
cem
bix
salih
jêderekî
didin
##axa
top
##beş
encamdan
çîrok
##mend
rêxistin
##ras
peya
agir
bikaranîn
koç
##ck
heya
nehat
komel
##han
dez
qanûnê
çendê
sur
zanist
muz
dîyar
##sala
veger
##bûnê
##ekan
fil
pak
##efa
##ae
biryara
##px
famîl
##enc
##ant
nêç
artêşa
dihat
layê
mih
##imî
çaw
piştev
sw
and
polîsên
##nas
aşt
##dêr
jun
xweş
tîr
aug
kol
##afa
petrolê
xist
kompan
yekbûyî
hezar
pl
##berê
leşkerên
derbarê
##çûn
parliyamentê
29
la
komîteya
bu
caran
##orm
##ond
dîroka
##tinê
rojnameya
şoreş
##ator
##şemê
##karê
neteweyên
serokwez
sa
bed
sam
bingeh
balyozê
kan
navdar
##nê
kons
kirina
aborî
##etan
kevn
##ike
##îzî
zêdetir
##rah
##ehê
##za
oper
##şt
hiş
##baz
##enî
nêçîr
man
##ord
##awî
pêkhat
ey
qeb
cej
jan
##ibûn
esed
##ich
cuda
rêxistina
##ireh
ol
##atê
2006
tund
##ibe
welatî
##xt
dec
rejîma
##alên
were
nîşan
leşker
malpera
##bend
partiya
##se
hêvî
vir
duyem
center
mij
bilinda
jêr
sîst
com
##êdayî
mala
##îj
dikare
sîya
hiz
##ogan
dol
taw
##kevtina
îran
rûp
##gan
dikeve
şan
nêçîrvan
ah
daxuyan
##çûk
##ler
##hên
çarç
##andinê
tirkîyê
konf
grêdayî
net
##hev
ref
hevkar
##îf
##gr
##ht
##uk
##bidest
zay
karên
karbidest
xwest
191
sil
koma
kombûnek
bend
çêkirin
pd
navn
vek
ht
nîv
sey
bay
##girt
tekezî
apr
##iyar
dewletê
xelata
hatibû
ka
şev
sedsala
pêşkêşî
##ahî
##mam
##ida
##kef
##zê
nem
qad
sit
şem
##ûmet
piştre
amerîkayî
oct
140
##bêj
xwez
arêş
parlam
arîş
bid
##ow
jiday
zanîngeha
pirsên
##wat
germ
##emed
xwedî
salê
maddeya
##tên
pirsgirê
hukûmetê
31
berfireh
nîne
rojava
zer
rex
kam
pêwîst
dirist
##fî
##bir
##yad
##sta
wêj
##ermend
şir
amerîkayê
sch
bavê
50
riz
aşkir
îngil
##hen
##ff
nêv
geng
##gera
##dîn
yekemîn
dikir
yekîtîya
tr
mon
hesen
mijar
nov
mêrd
serbi
gun
##oy
ewropa
destûra
ron
bajarên
##gen
ermen
nirx
##cê
hejmar
famîleya
tun
mîn
##wê
çareserkirina
met
jêderî
##îlê
##îkirina
derveyê
dîdarê
sînor
zû
dip
##emîn
daxuyanî
##girin
alb
tew
ciw
kurmanc
##ür
##şemb
##ox
pêşmerge
bik
serbixwe
selah
jidayîk
barên
doz
deverê
##ahiya
seb
ligel
##iyeke
nêzîk
parastina
dinê
pêdivê
sir
iraqa
##alan
gengeş
##bê
##land
ewên
wisa
destpêka
##ation
posta
tar
dîsa
peyv
ewledarîyê
siv
##aka
niştimanî
##ie
##imê
lat
##nan
pil
çavdêr
th
huseyn
peyam
bang
qebûl
##ehr
navdewl
keç
##îyek
mû
pas
kul
mill
rola
rojavayê
fermand
dîw
cî
##barî
rojnamevanî
sh
##bay
sekret
##kuj
islam
100
##ight
fr
gotinê
berpirsê
cara
##art
##dp
pdk
##lar
stran
##ans
##îsê
asayişa
siyaset
cor
##berên
sûriye
aşkira
feb
bas
wezîran
jidayîkbûn
cin
ram
hevpeyv
40
rastî
opoz
erdogan
##tern
##elî
dewletên
çareserkirin
eşîr
kil
tey
firr
çandî
ny
wên
##amê
gaz
##siv
haş
derdi
sedema
hebe
anî
##îyekî
demjim
##yona
##eyekî
berhemên
kurt
qon
qurb
http
##ess
##ikan
##ewend
hêla
nob
çiyayê
dane
heb
pirtûka
bij
##tine
armanca
##iyona
##heng
##eyekê
êz
berj
dawîyê
nah
##îkol
dor
##oma
rêvebir
dikarin
swêd
tevî
nek
çekdarên
##urg
nu
avakirin
hunermend
##ikên
rojê
kurê
îtil
rûnişt
mamost
##keve
vala
bad
##deyê
nûnerê
malbata
rawest
qu
##baran
atom
diçe
##qê
##ariya
dijîn
##axê
##inc
##ga
alîkarîya
##îrî
kurdistana
zimanên
mêrdînê
navçe
bon
rojan
erz
ps
silêmanîyê
lew
##ûst
derd
piştgir
têne
##irandin
cez
im
biçûk
str
wil
##ell
ta
aram
îl
rojên
îtal
##ide
mec
bergir
i̇
##ian
bil
must
##ph
dijwar
dîrokî
axaf
hêr
gelhen
gelhenasî
mas
operasyon
##ura
pesend
bernam
fu
tom
salî
şaristana
##wî
##ebûna
stenb
hîn
nêr
##deş
##andî
sos
ewropayê
şî
##wd
den
awayî
gundistana
rev
lîb
190
nabe
##îsan
hatina
brîtaniya
des
polîsan
bud
mihemed
jap
miz
yew
##çin
##qa
berjewend
##anîyê
şew
##ato
##amber
navên
birê
civakî
##ww
##ere
##iyek
beşar
##ace
meb
digire
##ewa
rewşenb
lêkolîn
##ca
##irî
har
hêza
çûn
gelekî
kemal
##adî
zîn
hol
##wa
2005
hevdu
beşdarîyê
heleb
fraksiyonên
îranî
axa
bdp
hwd
www
abor
afr
îsra
îtilafa
##brah
bim
##êran
telev
kiş
et
bersiv
##ale
rojhilatê
hebû
##ember
##ibin
tevlî
zêbarî
##ort
hikûmetê
##sef
##çî
##vin
##vanê
pêşket
##isê
şeş
##fa
radi
biwarê
parlem
bord
digel
ban
demokras
bis
beşdarî
silêman
sar
hebûn
desthilatdar
##ze
##onî
##tinên
misirê
beyan
##all
nex
rêvebirê
##ivî
eyad
wid
jiber
parlament
hevwelatîyên
mîna
cîhanî
rêj
isray
bêjedana
rûniş
##bsp
çînê
haşimî
çawa
kompanya
##bek
gundî
mebest
tend
beşa
polît
qedex
ferman
##ilman
felsef
maz
welatan
##col
2013
dewlet
mat
##warî
##okî
sekreterê
##parêz
tîrm
##garî
jinan
##eye
width
bes
mus
##weş
parêzgeh
aloz
dav
##anb
êv
gihij
2003
mek
nbsp
hemî
demokratîk
mînak
dinên
encamên
civata
çekdar
haw
dew
isbn
bûyer
border
##manê
##son
xwedê
ebdullah
gur
##tor
##evan
rojavaya
teb
##sin
hilwest
##ewl
hevdî
kontr
dadgeha
wateya
bêjedarê
selahed
karbidestên
##weya
dezgehên
siyasîya
rûsiya
dîya
serokwezîrê
##ayet
herêmên
##girtin
##ayan
vekirin
dihokê
piştevanîya
qasî
sî
çandin
roman
xebatên
girtî
##oman
##abin
nake
##eft
##uz
pêşîn
veb
##atî
pev
##weyê
fîlm
rûpela
îngilîzî
00
##eg
riw
##can
opozis
wanê
did
##îran
pêşn
2004
abdul
##êje
35
xelkên
paşê
sivîl
sînorê
##ral
can
##aye
##ite
razî
sol
dost
hav
##eteweyî
law
##ikin
ex
##bert
bingeha
temam
şerr
derveya
pis
##dara
xwediyê
kîm
sazkirin
hebûna
veguh
2000
sedr
komp
##las
hest
##nk
##yl
##deh
latînî
tekn
afgan
bigih
rapor
binav
ten
destûrê
duhokê
##yayî
pîkol
werger
zarokên
si
firrok
cureyên
meş
##me
rez
êrîşên
##girtî
##kevin
nekir
zax
diş
jiyan
pêj
mey
riya
beramber
pêşin
kêş
girê
mijarên
gotina
navdewletî
##her
##pên
##inî
turkiyeyê
hûn
##ii
bûyerên
vekiş
dihên
neteweyî
weşanên
##brahîm
##ou
niştî
dikim
mist
siz
##may
hîna
naskirin
org
##girên
otom
bex
##idae
warê
derveyî
sazdan
nivîskarên
eswat
şehîd
kurmancî
for
nor
sin
##ica
mak
damezrandin
biş
##mana
##uliraq
keş
rêkevtina
pêng
con
bic
fransî
nec
##ros
bêh
eswatuliraq
cot
##kere
diz
efr
xane
milyon
##endî
ell
##şa
##atîk
do
navneteweyî
dîn
##bîn
bûyerê
##tiya
##color
sêş
##ceya
hatîye
##karên
tirkiyê
siyasetmed
mûş
şerm
daxuyanîy
bêjedan
konferan
joh
kat
##sch
weşandin
şandeyeka
malbatên
deh
##okên
tariq
kand
##ry
encamdana
civaka
valakirin
bg
bihîne
siyaseta
dos
val
##dû
cîhan
dya
niz
##qu
pirtûkên
##ın
mela
nî
##mî
serkir
cihên
to
##atîya
ragihandiye
##obîl
gelên
kongireya
xirab
rol
hema
derbasbûyî
şêr
fîz
serî
ver
anat
del
bgcolor
bernameya
zanyar
rêk
##andiye
##berg
hevgirtina
ferheng
##werî
##par
dora
mor
elek
res
zarokan
tv
##çav
hî
##io
##omê
bibîne
alîyekî
paraz
nivîsandin
##exê
petrola
##enîş
giştîyê
misilman
kovara
pêjgeha
bat
dabeş
##yonê
konsul
sîstema
niştimanîya
##qînê
##ût
navxweyî
laş
##ru
##ün
rizgar
mit
ac
sef
barak
ciz
şad
bilî
##êrî
komis
##rast
##aceae
demekê
##êre
ynk
ken
soz
##irina
qir
deb
dîwana
hemberî
gener
cejna
him
bexd
pena
hevpiş
beşekî
avakirina
gotinên
mîl
##ius
deryaya
çêd
##danên
hûr
anîn
45
xizm
sip
bên
pej
qet
##co
bila
destên
islamîya
##edana
pevçûn
ge
ellawî
gal
##îdê
bandora
rojnamevan
on
pan
##bor
herdem
bazirganî
##aç
almaniya
dibistana
tes
sîyasî
siteya
veş
çir
dawîya
jîn
tim
teqîna
şoreşa
qey
##afir
fa
mix
sun
weşan
##pî
demên
ph
qas
##êt
##eku
hund
pîş
##ogra
paytexta
nakin
##gro
danûst
pel
ek
giran
bor
azer
mizg
32
##urî
bav
fest
##ys
gotiye
##lem
##ezar
seq
îslamî
##bekirê
vekir
##min
##to
pêşan
##olojî
##îyeka
kiribû
dît
pêşî
dîrokê
xwepêşandan
##ûnê
îd
##ron
nehatiye
kerkûk
aştî
kab
##çûna
zag
##gîr
##ûya
hezaran
cure
hoş
ley
sax
hukûmet
2001
ben
##zanîn
##jen
çem
##tiye
##ûsa
sûriyê
1991
gol
teqîn
siyasîyên
cer
##lom
digih
##edan
otomobîl
xaka
hen
wergirt
bandor
sen
189
sem
pîv
##hed
##ekên
êrîşa
kal
stenbolê
jor
holê
##yanê
hevbeş
lu
çekên
desteya
afganistanê
kew
ok
##dema
nebû
ragihandina
##sel
##îtî
danîn
sûd
tan
nehê
33
ha
##ern
kî
##evanên
dibîne
gotar
hac
2002
israyel
ham
radiy
ceng
dîl
mo
zew
encamê
xem
kongr
##andinên
wezîra
împer
37
dibînin
##zî
##ile
34
##yn
dêrs
êriş
erdê
##qî
beg
dok
und
zor
lez
çemê
bizav
peyamn
pa
çîn
çarçov
nif
##pe
peyda
##erîm
##set
##ork
repor
john
36
##ate
sibehê
berev
xet
1992
xwendina
bêtirî
zanistî
sc
çarçê
tû
sereke
##izê
nerazî
navxwey
##rû
alf
##isch
rêxistinên
serhildana
tor
##meh
##xw
back
jêderên
##yarên
adil
##ung
dinyayê
navçeyên
##ington
nim
##eger
bikeve
grû
gef
rih
gotara
ciwan
daxwazên
tevgera
teh
bingehîn
##berî
parç
##kurd
dom
serkef
qezaya
##ire
##vaj
adarê
60
şing
lî
êl
qurbanî
##şê
text
##êjin
yekîtiya
asta
xweku
parêzg
gava
##bî
ewleh
faris
##eriya
newro
telef
gew
##20
baştir
nayê
zir
##span
destûr
##vanan
mustefa
##mas
lîsteya
wex
jîyana
gil
38
kesekî
peyva
xebata
##çê
silêmaniyê
tah
nivîskarê
niv
##enda
##kevtî
##deyên
##ênî
girtina
##yo
ant
dayik
dawiya
fransayê
pêx
qanûnî
mistefa
bah
tiştekî
şermezar
ru
##esaz
##îlî
cal
pi
1998
qew
çaverê
prof
dilê
ho
dikirin
bur
tra
heval
mod
war
dagir
brîtan
rexne
##ground
right
san
##lû
derê
pirtûkê
daxuyannam
kompanyayên
îslamê
pişka
reh
xera
zin
îst
pêvaj
sedem
1999
pakistanê
kend
##sên
##sîn
##ont
##exan
navendî
##asê
##atoriya
taxa
xwenîş
zarav
dîsan
firok
koreya
background
naver
nûner
deveran
mirovên
##ding
azadî
şaredar
tomar
bî
##emen
serdema
şewit
radiyoya
sim
##eda
kirdarên
hal
rûyê
nêzî
bombeka
80
bra
teng
naz
was
##gî
pat
jos
key
##50
hatibûn
ewlekar
##ban
wal
##sk
enq
parêzgehên
plan
îbrahîm
derf
komarê
##ish
nato
rêberê
ceb
serxwe
almanî
muhr
anatol
elh
##iyekî
serbaz
erdnî
dek
şûn
bigirin
39
xizmet
97
##adem
osmanî
dîyala
mah
derman
dayîn
cam
hoz
karmend
daxwazê
xelîl
hevpeyvîn
nikare
piraniya
lîstik
mît
ebd
##olog
sêr
##êdî
azerbay
egerê
##ong
##akî
naxwaz
jinên
##bet
##ima
serdeş
##aza
bexdadê
1997
##mara
şirn
xez
zeh
eşkere
xwar
rewşenbîr
il
##helat
kirî
mol
sist
##lor
nahê
ray
##fê
##emêr
##aks
têkoş
gengeşe
yewn
kit
rij
destpêkê
cû
serjim
budceya
urd
tex
##istanî
##ity
bihînin
pêdivêyî
##îneya
##rên
elektr
##linton
nûçeyan
temenê
42
##gl
##enên
##ele
fermandarê
general
emîn
hij
peq
cejn
##heim
mem
dewlem
co
##eroj
damezrandina
dtp
komkuj
qay
##mîl
##dir
188
bersiva
dehan
nema
perg
ereban
fê
bidest
win
teqîya
mac
çim
mehê
sûrîya
mebesta
nebe
komeleya
cew
şik
fireh
hebin
41
km²
terorîstan
##bil
##ten
rec
kuştina
spî
sov
##ift
##kara
diyal
##ivîsa
sû
til
##iyayê
kirîye
##avî
##gere
demeke
kêmî
xalid
hêjayî
agahdar
danî
sad
nûçeyên
stranbêj
bey
1990
mixabin
akin
bul
##fir
##mayê
##efîl
1995
otomb
##taş
##kom
kesî
##îngê
boneya
psîk
46
tirkîye
almanya
pirranî
rûniştvanên
frans
topbaran
salve
1980
bizava
xo
##ozof
mûşê
yo
biparêz
bakûrê
rêjeya
xer
osmaniyan
left
deş
2014
pirsgirêka
pêwîste
300
bet
pad
##uya
ewî
dengên
dengbêj
tendir
pit
hilweş
peywendî
##canê
cil
##kerên
1994
iz
##gu
##ock
pal
48
##ijad
47
derbasî
zel
biyanî
jimar
hindek
festîv
##arîya
enf
sêyem
vedî
maweya
şerî
refer
zayîn
goman
##ium
atomî
dewlemend
dixwe
parêzgarê
bûyera
çanda
poz
##mên
piranî
avah
êrîşî
tawan
##maş
boy
stêr
##hej
tune
##gîn
derdikeve
birin
xêz
##anda
hevwelatîyan
tax
partî
serokwezîr
zil
##bur
cell
bala
ziv
##ris
rûsya
##xê
dayîk
fiz
fîlozof
girêdan
tiştên
colspan
52
naw
libn
robert
##çar
wik
##xaneyê
dixeb
58
est
##edîn
asî
şaş
49
nêvbera
##sal
##şî
1996
qes
##ır
pêzanîn
karî
sûriya
gihijt
so
##karî
merc
qada
bern
dîp
amadebûna
kandîd
qel
şamê
##les
malê
belavkirin
44
lond
olî
yaneya
##şembî
şirnexê
43
geh
##perest
felah
guneh
navçeyê
şîret
navnet
1993
beyannam
mos
nîs
reut
##ove
pîrozb
zana
##orn
kûr
##ken
pêşve
rêvebirîya
##anînê
peyman
dadgehê
70
nev
tîne
##pt
asteng
almanyayê
têkildar
51
şandin
##aa
die
kesê
mirina
xanî
bare
xwîn
55
ragihandinê
hêriş
54
kevir
sosyal
referand
ebû
##iyet
##rop
şerrê
xwendin
fraksiyona
cud
birayê
tirkan
alîkariya
demokrasîyê
##stît
va
##ekarî
gerd
rûniştina
53
ii
no
##uş
tîm
##cle
eve
xebit
tîma
ur
lewra
hêş
##iç
dêrend
56
zêr
berwarî
##erast
erzîr
nad
##enas
hilbijartina
kombûnekê
akp
şûna
jîy
yekgirtî
balafir
albûm
êvarê
dana
##uma
##îkayê
belg
nivîsîn
şehr
didom
##sen
kerkûkî
nasîn
##ien
diyalog
derhên
berdest
herêmî
televiz
by
lêkolînên
paytextê
500
rem
##ld
##etîya
##urê
2015
helwest
têkiliyên
hilwestê
pen
dig
xwenîşand
kin
lêger
##ice
digirin
abdullah
swêdê
alfab
leh
êş
asayişê
##xe
##artin
##ênê
edeb
doza
##ver
##avan
##iyanên
ala
rag
##ganî
bîne
##esê
wergirtina
bingehên
malan
##otam
helbestvan
59
deme
dadgeh
bicih
navnetewî
desthilata
komisiyona
dizan
ezm
polîsê
gulanê
aştîyê
serokatiya
selaheddîn
niştîmanî
goyên
pirranîya
buh
##eman
beşên
sedan
##8an
rêbaz
hevwelatî
sîr
peymana
bixw
badînan
bexdayê
hêdî
derya
##ive
wêran
anku
biden
##nivîs
hej
gelem
##îza
pirsê
kovar
dimîne
lo
neke
wa
##ein
##ner
kurs
kevin
mele
##ان
projeyê
dêrsimê
sovy
intern
dixw
hêvîdar
stir
eşîrên
kuwey
erdhej
dur
hersê
bibînin
nûneran
bikaranîna
dilov
binavkirin
ret
##car
serwer
##name
akadem
faun
##ts
tehr
##99
jiyanê
rojane
hevalên
bikevin
dîdara
pap
web
##îşk
goran
dara
bixwe
dawiyê
eslê
57
##do
##etiya
##orf
##ith
##awa
mazin
krîst
kontrol
nez
##ula
xistin
cîran
hok
oc
von
çin
##ue
mex
nivîsgeha
întern
paraztina
mijara
faunaya
kîl
vekirina
cihanîna
awayê
##îre
hatî
rengê
xizmeta
heşt
daxwazkirî
mayin
ara
diya
peyamnêr
naveroka
sl
##hê
##danî
berhev
mirî
kombûnên
rêzdar
ewledarîya
demîr
suriya
xaneqînê
bêd
feq
têgih
muzîkê
derdora
berjewendîya
kanî
xwînê
##opotam
##hol
##ies
##eno
arêşeyên
wash
reuters
dengan
awar
şeva
oz
çel
##nama
mezinên
186
##ira
##ilî
##ement
##oglu
prot
îtaliya
##ûne
rêberên
hikûmet
nobelê
##iana
##abê
cîgirê
term
bit
çendîn
187
aq
hak
span
##ekanî
##mah
pêy
##dama
jina
##umê
##xane
##res
##ary
##asîya
mid
yewnanî
tol
şeref
projeyên
ahmet
##uf
dengdanê
##ceae
agiriyê
##emêrgê
ener
navokî
derxistin
heyî
hejmarek
cê
lin
us
##lên
bigire
têde
xwarê
bûna
zank
xurtkirina
samî
parz
malper
nikarin
rexn
xwepêşanderan
##bas
basa
washington
welê
##ön
cihû
##ack
duyemîn
##bey
serans
rûsî
çêkirina
afganî
biryarê
ir
##ceyê
##ehman
##maz
##îyane
fut
çer
##lek
muzîka
hişyar
ni
dahat
##ure
sup
parêzgehan
serjimariya
kana
west
çil
##aj
##uc
bergirîya
##lîsê
hemwelat
urdun
##rata
##îzm
girtiye
netewî
evaya
neq
azadiya
alîkarî
rihayê
mezintirîn
tevger
##no
##1f
beşê
bedir
seqizê
bînin
##mîn
##ebû
nakok
qonaxa
##mehdî
berxwe
bax
nes
beriya
bêne
ris
##perî
##iyanê
vol
##hr
ola
qam
efrînê
alfabeya
koş
nerînên
press
goyan
çîrokên
televîz
fik
##´ê
##anin
aliyên
rûpel
ermenî
erdnîgarî
hed
##olî
dever
şêwey
pêşkêşkirin
pispor
pejirandin
derxist
##ingen
pesnê
90
po
serma
dêrika
hîngê
##up
##yek
kun
##urt
partîyên
çalakîyên
##îstan
ebdulmehdî
eşîra
##ensis
bb
##burg
##ullah
##ivîse
perwerdeh
çavdêrîya
tîrmehê
hoşyar
miş
##rad
##rayî
##engî
##gotin
mehab
dabû
bûş
1979
netew
york
serkevtin
##ekîm
emerîk
beşek
fêr
##êra
bihêz
dadwer
##lı
serdanê
nûjen
hevpişk
awist
romî
##aniyê
##eza
##bûrd
wêjeya
por
##ûgo
##one
endama
destwer
##gehan
destnîşankirin
qadir
radigih
##kes
nîşand
welêt
gl
##tîn
##ûnî
##ihê
helbestên
çiyayên
xwarinê
##stanê
##ivers
binpê
##afî
bajarokê
nexş
##sh
big
anko
bira
180
asyayê
xwepêşandanên
nekin
zaxo
qasim
erzîromê
cûr
neyn
îş
şa
##îdan
##izî
hevpeyman
arîşeyên
îz
##qel
##itz
şared
baybûrd
besra
gem
şîn
##ota
##atiya
pêşmerg
pêxember
##br
mezopotam
sk
karûb
hay
pûş
##tiyê
##34
##24
encûmenên
pişkin
kanûn
##ult
kesek
werin
mehmet
xwekuj
rêkevtinê
çînî
##tt
kongireyeka
demjimar
qedexe
rus
amadekirin
kerîm
çiq
bermîl
tundî
##ational
stranên
receb
otombîl
cîr
evd
gim
îsa
##ho
##tek
##ges
xelîf
pêncşemê
kompanyaya
pêkhatên
hevdîtin
kabîneya
deşta
ist
qos
##den
##ül
biçe
##ivin
serkevtî
##iyana
xaneyên
çarçêweyê
şam
##ial
##30
lidar
##azê
##andinan
çêbû
hewil
farisî
ewe
##big
##îstanê
erkê
##besta
serdeştê
fl
êrîşê
sûriyeyê
helebçe
ziyan
##êrin
1988
birêveb
##îknas
kongreya
##okan
2017
gelemperî
kap
xora
pîrozbay
balyozxaneya
daxuyanîyekê
nisê
##fer
##olojiya
rob
##îzan
mehan
winda
mane
sîne
şeq
radest
pêkanîn
parêzgehê
1989
projeya
hevkarîya
nenas
sum
yekşemê
hill
##hejm
teqiya
vedi
##iyanî
2016
karekî
guhertin
xwarinên
firrokeyên
##ewer
##uha
sîyas
kulîl
jo
##beran
qeza
axaftina
futb
xweda
rewand
misir
bl
##rin
diçin
##omet
kad
xew
yî
##85
##îyeke
perwerdeya
bism
temamî
##wanê
bext
rûsyayê
împeratoriya
gimg
gav
destûrî
1970
cûda
lad
rojhelat
postên
husên
fey
men
##fel
dis
##iştina
maye
pêşketina
##tal
##32
îsraîlê
newrozê
mot
wes
baxd
##iyekê
gotûb
best
bêje
aştiyê
##kel
serdan
##vest
taybetmend
bimîne
##cana
##ahiyê
sûrîye
axaftin
operas
gotûbêj
wel
xêr
##qet
##atên
birayên
dûv
xebatê
sibê
qonax
japon
şewitandin
um
##chen
navendiya
##bare
dûrî
yar
##ûsê
gulan
david
yêk
##tîv
namz
##mal
##tim
serbest
sînorên
##ûç
##ates
daray
bîra
##ux
##îkên
welatekî
ednan
kanala
dolar
##ci
##îzmê
paşî
civakê
libnanê
has
mi
şike
ال
rêbend
demek
nirxê
çarçoveya
herç
xwê
piştgirîya
zaxoyê
sêşemb
##êl
berz
hevpeyvîna
zaz
##bij
##reş
stemb
muhsin
tundû
id
##rasî
bawerî
rady
perwerde
geşt
şano
sipî
tûr
##36
demokrata
##guher
##iyane
kontrola
biy
kirdar
paşa
meriv
hefteya
dîk
gev
##cl
1987
sêrtê
his
##xa
stand
pêdivî
sîstem
stirat
bona
sêw
rêzefîl
kişand
matem
ca
##ier
biçin
neft
gelo
fermana
1960
dihatin
dizanin
##ame
ewa
derhe
dihate
izz
##je
##inên
##îlan
werz
tehranê
kuweytê
##35
ang
giştîya
îraqî
plana
vedîtin
berdin
enstît
1982
vekirî
##dd
##37
##andine
sêşemê
400
tarî
pêşxistina
kîmya
##istanên
gov
##ahn
1975
xwezt
##ürk
dîplom
##amen
serokên
##kevt
şandeyê
niştec
egera
aborîya
klas
nab
##îdî
##39
##işê
##eşop
elq
gerîl
adara
##ea
##îyeyê
nehatine
kanûna
sul
bihêt
baweriya
zagros
nat
tirs
ewrop
bingehê
esk
diax
##maya
nexwe
çimku
piranîya
##îtan
ahmed
kult
înternetê
baxdad
##tu
##weyî
##got
tevahiya
xwendek
##rich
dîyarbekirê
bedirxan
şiv
afir
rojnamevanên
nerm
##yeka
##bûne
150
dilgir
careke
1946
soranî
ebdur
jîyanên
kak
yeke
anîna
##karîyê
bihar
seîd
tûn
tij
##ereyê
serhed
##ebî
piros
dîm
jêderê
hindistanê
bixe
##rik
##42
goş
hunerî
polîtîk
karmendên
bîn
gar
zey
##rîn
dûn
mich
hukum
dezgeha
kevneşop
josef
##vanî
##derî
##edî
##îşê
lêpirs
nekiriye
##gil
bixwaz
##ada
komela
biryarên
parastinê
bêr
my
##lim
##ella
çarşemê
balkêş
diyarbekirê
mûsil
xalên
laşê
dêrendaz
nînin
##ly
bereya
1986
mizgef
bol
reft
dewletan
abd
rojnamevanan
pîşesaz
serxwebûna
ard
omer
##rehman
îsma
dîdarekê
ceh
erkên
hilbijartinê
efs
terorîstî
bixin
geor
gola
kos
##ebê
gelhe
##roc
xerab
borî
##idî
serhejm
karkerên
rengî
clinton
botan
##evê
##gerin
mûz
xaç
serokkom
1984
profes
tendirist
ec
turkman
paşeroj
ce
tam
##erd
##eve
biwarên
hevpeyvînekê
95
mîrê
##ekêş
bîranîna
şevê
birêve
siyasetmedar
şingalê
##tîya
##ûk
##ibandin
helwê
##iyonê
hewram
tîpên
cen
mazî
##hal
##emî
rah
stat
kob
##xaneyên
têkel
tiştê
pîkolan
anatoliya
kif
sab
ul
##ûyê
bakûr
biryare
milliyon
desthilatdarîya
vekişîna
zankoya
xat
##irên
cihekî
##cey
##10
rêyên
kod
hêsan
august
zex
##aria
##eba
komên
##îşa
paşîn
weşana
paytext
demar
rojnameyên
celewl
çawanîya
enfal
yanî
##ila
##îte
hilber
teor
şax
##bin
##bîr
##mad
##ore
derbaz
je
sy
tab
##îq
##ûrên
kujtina
rûniştvanan
zord
##bih
##iyard
##êjê
tewaf
kas
##îp
##47
rêkef
dijmin
asayî
rêveberiya
huner
çîroka
leyla
ewlekarîyê
75
kehr
##iss
dijwarî
nebin
armancên
bazirganîya
yas
mun
##ney
##hî
##qt
##çek
##aret
bida
##edanê
dihêt
hêjayê
benda
mana
##yarê
##25
1981
petrol
înîyê
agahî
keça
pêşîya
lêkolînan
avêtin
bêhtir
mêj
##bekir
berdan
pêşwazî
mûsa
##qas
##45
##ayetî
giravên
##engê
##oph
1983
dirêjîya
fre
##kt
##ji
yawer
girift
univers
wêjeyê
îlonê
konsulê
zehmet
het
om
tak
##gêr
çavkan
lîstên
rojname
xelk
##asyona
hizir
pêvajoya
gomanbar
jêrîn
bergirîyê
cema
fat
zemîn
pêşinyarên
cebar
form
mik
wind
rakirin
rageh
vekol
mur
mast
##40
serb
amer
pêşkevtin
hevpeymanî
derveyên
demokrasî
çûye
bikim
konferansa
yem
##iaceae
##lîn
##60
gelaw
pirtir
terorê
careka
guftûgo
maş
metir
##iran
##stan
wekhev
frank
hacî
pitir
eur
##etiyê
185
civîna
ewropî
agahiyên
kaz
nûçeyeka
girtine
muzîk
xwestin
##int
1985
xanim
##bach
dend
fet
nûr
##usa
##qîn
nebûye
keyan
swe
##itin
##ach
##11
##ill
baran
##usen
çalakiyên
dyayê
fol
rok
##cel
##perê
##xin
îsal
samer
serbixweya
veşar
siw
wîl
îmar
##onên
hikum
destpêkirin
ehmedê
fermangeha
hevalbend
mic
##bax
##ren
##xanê
pirsgirêkên
rewşenbîrî
##bel
##îyekê
##eva
nef
proses
roma
bexda
##ograf
biparêzin
îlan
##baş
aliyan
pêşiya
##lag
nivîsên
perç
gazê
xor
##lad
##ki
çep
îh
daxwazkirin
sebah
ceza
pesendkirin
sat
pêwend
##ender
boz
vex
barack
çaren
##pêç
çapkirin
bro
pez
##saz
##for
##iyeyê
parîsê
dikevin
mirinê
##inan
dewam
anîne
##itî
##kiriye
rewşê
dixe
stenbol
şadbûna
naxwazin
enerj
qamiş
##ceyfî
eg
tînin
serper
saliya
cîhana
kevt
berfanb
dosyaya
paul
laz
##fe
navî
all
komarî
veguhast
çiqas
hewramî
som
##geheke
polîtbur
##ebaran
elman
##raniya
endamekî
dewr
jam
çewl
##arîyê
##una
hevser
##otê
çekdarî
guhdar
perwerdeyê
##dayên
salox
wergirtin
nîşana
gulana
1977
hişk
çekdaran
brîtanya
riswa
don
pop
qal
îbn
##21
##înim
##iyeyî
fars
sermawez
gent
ki
pest
şiw
##yd
##adt
malên
bej
erk
tevl
spasîya
amadekar
muhemed
padding
cm
##tar
##dam
rûnê
desthilatê
##ensî
##edê
pêl
mag
978
öz
##vana
kêl
doll
neynewa
99
hir
hur
lîz
peh
kirdara
avrê
bajarekî
zerdeş
siyasetmedarên
##rist
##osa
##lum
##26
herdû
reg
##evî
binem
##perwer
berpirsyar
şehîdan
navxweyîya
sistema
xoras
xin
seret
##anîz
element
nûçe
peyvdarê
xes
ders
kesk
kombûnan
mijarê
reporta
qah
##oyên
##27
kerta
îtalî
çima
pîkolên
##îzê
pîrozkirin
zazakî
nih
qaz
xala
berg
##lap
carek
gunc
solid
piçûk
koşka
bbc
lîs
nekirin
ûd
##16
##stein
##îkan
komê
îtîl
kongireyê
bimînin
bexşa
karûbarên
##nasî
werbig
akincî
1em
gre
nan
##38
darayî
reşîd
##olojîk
şîretkarê
##oç
##ych
##ily
##îtiya
çavên
##ical
rêxistinê
şeqla
radestî
fe
##wir
##46
romana
nobel
pêzanînên
ruh
sind
##ster
##evanan
gora
kesayet
demjimêr
kete
loma
tran
##xur
##îneke
teqînê
65
waş
yil
##ti
dist
##aman
##amet
civînê
1974
xwendevanên
malbatê
dixebite
tewafu
hom
korê
##wanî
##ime
bûbû
hindê
swîs
ling
nîn
##riya
##ûz
##31
xweser
komar
giranî
##demîr
xwedayê
diplom
pêşinyar
gunehbar
bismilê
berçav
##îsyona
piroj
astron
cemal
serbazên
wor
##bs
##gin
diq
dif
##ede
dibê
firo
duhok
bernameyên
nîşandanê
niş
vi
##ann
ali
rêw
rêber
mirovî
astê
duhî
şemz
wêneyên
elhekîm
festîvala
ocalan
lêd
##sl
##şe
##eşê
çavan
duşemê
##îmî
1973
##ûşî
baybûrdê
nar
##vî
##cr
înê
bawerîyê
xul
##ory
tep
sedî
jinê
1976
colemêrgê
barê
heke
##29
##grin
xizmetg
##iel
navera
girava
kêmanî
serhildayên
riwek
cizîrê
demîrtaş
##gal
##amên
##êja
##cep
çapa
zayînê
cezayê
şêweyekî
carê
kut
gote
kuşt
çekan
##hatî
sedemên
celewla
gö
not
nîj
##bûr
##yara
anîye
ven
zoz
ûr
##jîn
bilê
rabi
bûd
bajarî
##îtiyê
piştrast
turkiyeyî
zêw
kehreb
neş
xûya
##hel
##way
dêra
şêwaz
##baj
tendur
##akir
##hema
çiriya
enstîtuya
bond
##44
liser
lihev
dabir
kiribûn
perl
împar
line
zeng
şi
##ketî
licê
hecî
pêşeng
nêzîka
koçber
peyvên
lîbya
riwekan
salvegera
mayinkirî
paq
sûm
##allah
kird
2019
lêbor
mezintir
bajêrên
farqînê
zewic
azerbaycanê
nisêb
##net
##şer
##kov
##xana
##iştin
##usê
##ick
1978
nexweşxaneya
krist
banga
nuceyfî
qala
bêyî
##ops
char
afrîkayê
gro
kö
uz
##let
##87
deq
height
rap
binêre
partiyê
alîkarîyê
niştîmanîya
##ografî
ga
strat
partiyên
weşanê
bîrd
komkujiya
naverasta
gend
##ça
##ık
prog
nasnameya
kêmtir
##ekirî
color
parastin
sekin
hevkarî
fîzîkê
saxlem
wêranş
##ua
##uch
##eddîn
binivîse
##ozê
temaş
terorane
news
collap
1928
derketin
felsefe
sems
sosyalîst
bw
alli
gundan
hukûm
swêdî
şaredariya
lêgerînê
çî
##ende
rêveber
##oci
genus
weşanxaneya
pêywîst
samerrayî
kef
yekser
asya
romê
gihişt
ut
##rew
encum
dinirx
dibistan
ketin
diristkirina
kewç
fak
ros
##awîst
leşkerê
##pag
heyderî
nîvroj
bijîşk
hunermendên
piştgiriya
willi
zelal
xeta
şeb
kop
mesîh
corc
ferhenga
port
##eç
##oq
serdest
ragihandibû
kurte
teqe
heyva
bawerîya
ketiye
peyama
xweztin
hijmar
goştê
##île
1971
nemir
berjewendîyên
yûs
##kera
##ftî
##keş
bikaribin
lêkolînê
tûj
semb
##istanan
##gerê
##îze
aramî
pêngav
gotarek
collapse
rav
##had
berhema
##ahîya
dibû
saziyên
##hausen
farsî
arêşe
serkirdeyên
daxuyannameyê
remez
urdunê
##edia
##îla
nasandin
1925
aştîyane
têkoşîna
eyal
rich
##´´
neçar
îsota
debbax
enqereyê
cap
##bikin
##77
nade
rêzê
valign
salveger
hêşta
izzat
qend
##ariyê
##înek
yasa
kirmanc
gotibû
axav
romanê
1966
bajêrî
##îje
gurc
hukûmeteka
klasîk
nabin
teş
##bînî
##ml
##ja
##80
##iyeta
##iyam
##keft
##îyî
encûmenê
ezîz
hunera
sept
silop
diparêz
îtalya
helwesta
gentiana
paqij
kîj
masî
##pr
##ebûn
##over
birçî
##izmê
##osê
1957
radigihîne
dollaran
son
##onan
recep
##îyanî
##karan
kêf
1972
ronahî
konsulxaneya
bîst
giya
çûna
şay
##pat
##çeyê
dida
##eks
hilawîst
##ûdê
firat
##barek
1967
heyder
1930
ragi
îtîlafa
##anal
##inde
awayekê
plat
derdikevin
kifş
polîtburoya
gün
roh
##lîs
##ustral
pirsgirêk
parlement
hîç
##çik
tête
dubare
##etîv
okyan
dekak
stiratec
seretayî
croc
liv
##illa
invest
##lîsa
##dayan
sîyaset
nemîne
çûne
pêngavên
derfet
sak
têr
şên
##wana
##ayekî
##olf
##bûma
polon
leşkeran
heyvê
baydemîr
tîrmeha
diyalogê
stembolê
gra
ney
##ham
##ekt
ass
mesr
arîşeya
dorpêç
pêşangeh
##dirêj
##enosî
sav
##istî
##omî
1969
hêja
meclîsa
çaverêkirin
william
fed
##kerîm
##dên
120
teqînên
qezafî
babê
çavdêrên
nifûsa
ave
len
sex
##qaş
##yeke
vexw
mehdî
xanedana
##ubl
nobela
##anbul
##firoş
derhêner
edebiya
seh
##hes
##dorf
veqet
rewa
chp
reşem
bazirganîyê
film
dabeşkirina
molek
sîrwan
folk
wîlay
darê
##betî
##pad
##olojiyê
guherandin
raport
serkeftî
pergala
##werê
##stin
##ander
das
rojekê
tix
îslamîya
1945
quş
bêjedaneka
tawanbar
protest
lît
##oger
##sanî
zanîngehê
hêl
dayika
sêdar
daxuy
1965
brîtanî
helebê
îsraîl
zêwye
allium
font
kl
nap
penc
ze
şemb
##dayê
serkevtina
##iman
kombesta
pirraniya
demist
##ekirinê
nerazîbûna
serperişt
qub
şil
##49
sern
##orên
bot
2018
##axt
koda
talîb
artêşê
meks
hozan
fac
mul
zind
çew
rej
##daran
##mann
mewl
hingê
navendên
1961
xelatgirên
norwê
naxwaze
demistura
dra
hişt
phil
##işîne
raya
##ling
peywendîya
teksta
rewandizî
radyoya
jac
ked
vet
xil
##stêr
##aba
hezîr
efser
dîyarkirin
daxuyannameya
brîtanyayê
dat
##rana
##48
tiştek
konfer
milliyard
operasyonên
james
norm
tez
##lat
bos
hevdû
xwîna
1963
medya
1958
international
gates
qut
îdî
##rayê
nêvdewl
cas
sîv
zem
##viya
bûbûn
berpirsekî
wezaretên
afirandin
##ûlê
perwerd
xurttir
wergirtiye
modern
hedba
cîranên
futbolê
derheqê
şeqlaweyê
bom
cîb
nep
mark
şahê
îngl
vegeriya
xwezayî
pu
nivîskarekî
cemîl
##lass
londonê
çewlî
nîvrojê
ragiahn
warên
##kenc
##22
##stit
hesa
##eber
amêd
zimanî
lîbyayê
pejir
şehristanî
lîm
sewa
xar
##33
##îrên
aliyekî
##ebar
arif
mezinê
hevpar
tevahî
##aca
berdewamî
hijmara
adar
comb
hon
qis
sm
wi
##tv
##rak
albûma
##unda
##ried
mamoste
dosya
penaberên
hundir
maşallah
gera
kaya
sent
##gor
##ald
##eyl
##ille
dîtina
hemûyan
xeter
neftê
fah
mend
pe
weh
zik
##işk
##ova
binçav
xirist
fîlmên
nîqaş
pevçûnên
jorîn
mosko
bixwîne
79
hot
sn
çol
destan
kursî
lîstikvan
nisêbînê
kîjan
les
ton
şop
bist
hêvîya
##ubey
êzîd
grûpa
nivis
bulgar
pozetîv
##hn
##15
dep
hatîne
goşt
##oza
propag
milyar
serkevtinê
lidarxistin
pehl
rên
zî
esmanî
aktîv
250
alîgirên
rêkevtinek
##luk
navdewletîya
rawestandin
tîrmeh
mexm
##qteda
1px
76
fon
max
sere
berd
##îyanê
elc
stock
zanko
kelh
nîvê
braz
îsmaîl
vexwend
nuha
var
yez
zîr
zev
dikê
bûya
binê
stew
hunerê
nexweşiyê
neda
vegerin
rezberê
keyaniya
lîn
sif
êla
firyad
gihîş
felest
##şembîyê
aboriya
bêjedanek
dîlokê
seranserî
niştecih
tet
xoş
hum
kesen
mut
mubarek
divêt
mîlyon
jînenî
qurbanîyên
mercên
midya
matematîk
##17
seran
##ediya
sedemê
##eynî
serhildan
kovarên
îngîl
cins
mustafa
klinton
pîl
qul
umer
##19
pêşhat
muftî
behr
êvarî
hemaheng
edî
pot
send
##cên
##yîya
##gol
##amî
##îkaya
nivîsandina
nûçeyê
bombbaran
proje
despê
london
kursîyên
bla
hên
zanî
##înanê
##ande
berdev
selîm
damezirandin
baweriyê
1950
ermeniyan
wergerandin
galerî
qor
yûn
##cer
##ps
serpê
serrast
bêjedanên
komput
rezber
size
cotm
kîlomet
world
september
hiq
pî
wiz
##cus
##iştî
nakokî
seyîd
şemîyê
felsefeya
tebaxê
danûstandinên
zemînler
dd
##bên
##ty
ewrû
engl
aktor
wate
necef
çêdibe
sing
zeyn
çet
##dînê
##gun
##înijad
##ehî
##akê
baştirîn
rojavayî
agirî
zaravayê
bêdeng
etr
fff
jenosî
sev
sof
yarî
##86
##irîne
pêr
demekî
dibistanê
erênî
##hatina
1964
yewnan
bidawî
600
ibrahîm
sîm
şandina
##amer
navdarên
##ole
ras
sale
bête
pênas
soran
serhildayan
##watal
ciwanên
serkird
çarçoveyê
biser
##ûmê
##gerî
standinên
sazkirina
arîşeyan
zindî
fo
qil
##mel
##oanal
##so
##şar
##atorê
##iyayî
avî
##idin
##acing
pileya
êzd
pesendkirina
kanada
kela
##urd
##ley
negih
bajaran
els
sazî
##iyonên
ebdulkerîm
039
##spacing
derketina
arîşe
revandin
cellspacing
nadin
uzun
##wataliraq
77
haz
##kanî
##kerê
##ım
##ales
karl
werdi
radyo
dollar
wêje
operasyona
hebûye
kompaniya
cellpad
cellpadding
cir
ep
sibe
terî
##herê
##vanîya
diç
erx
dîcle
amerîkaya
##last
behs
##omas
tebax
pêşveçûn
qamişlo
xort
seredana
dab
karb
piştgîr
##awer
peywendiyên
peywendîyan
şêxan
xwendinê
1968
1962
nikar
islamî
parlamenterê
yekema
mêz
##zt
##îsa
##yr
##girtû
##rov
kombûneka
berpirsiyar
axê
heyv
1955
nameya
derketiye
hêrîş
stockhol
66
ff
##ars
##esi
elşer
ebas
batmanê
penaber
kendava
tîmên
ein
usa
##kr
##don
rojî
##ahê
birît
pişta
tirş
mehên
awayeke
1956
hevdîtinê
tahir
cn
dal
##au
##zer
kujt
zimanan
mêrges
afrîka
konferans
kandîdê
##exaneya
gimgimê
berfanbarê
avesta
seranser
fay
şek
##rid
##ayide
avedan
leşkerîyên
sînorîyên
bisek
dun
feh
lev
sew
##keran
parçe
dîmen
ehmedînijad
ermenistanê
hundirê
pîrozbayî
serwerîya
emerîka
dinirxîne
cent
caf
lor
qeh
vekêş
zorê
##zay
##ath
##atan
wergera
asmanî
husey
têkiliya
hevkariya
qedexekirin
çandinî
mehabad
perliyament
kaniya
##tîk
elewî
standin
##ceol
1959
parlamenterên
f1f
tayî
##qad
##atîv
berda
##urn
##îtê
erê
derbi
prote
mesel
guman
maddeyên
arêşeya
cinsê
kurten
strana
konferansê
daxuyannameyek
##1f1
şaredarê
kirdareka
encumena
combret
f1f1f1
class
hor
hov
##wn
##çeya
jixwe
##elan
##girtinê
lêb
ingil
hingî
devê
fermîya
pkkê
agirbest
telefonê
fiş
ziyanên
berdem
raper
girs
herwekî
şaristan
piştevanî
demokrasiyê
meydana
dizane
elqayide
gû
zeb
##ym
iraqîyan
serokdewl
dixin
tîpa
zirav
combretum
türk
zinc
##sor
bip
deryayê
##dariya
##ewan
##nameyê
##enburg
fîlmê
dimeş
from
parçeyên
xwekujî
vedigere
reftar
yemenê
gab
iş
xeya
îde
##zanê
enwer
pira
##ican
##ibê
sub
alîkarê
atlan
genim
teyib
sizayên
navxweyîyê
window
xorasanê
wêranşarê
zal
##hk
##gur
kurda
navb
nave
herêman
destkev
hevdem
hêzeka
hinekî
helbestvanên
1947
krîza
koçî
tawanên
riwekên
pêşniyar
cengê
calceol
awistral
tundûtû
xwendekarên
mesrûr
qef
##hu
biq
req
##uth
nexweşiya
xelatên
razîbûna
teqînek
destwerdanê
pirosesa
bilêv
fîn
##zad
##oğ
dikuj
##îneyên
##omys
##ebo
##che
medyaya
îmza
cinsa
gaza
opozisyonê
##ische
wextê
mahm
dîmeş
çîya
##ric
##kek
##atiyê
##ûran
##use
##ifa
spanî
##şembê
bêhn
nivîsîngeha
otombîleka
mizgefta
hiqû
bun
dı
gom
mand
rind
herr
##oks
baq
seroka
komkara
sûre
##opt
balind
zimanekî
nebûn
nerîna
pêşangeha
parzem
bek
eyî
ziw
##iyetê
##masî
barzan
##ews
emê
dayikê
cureyan
kevnar
https
hawar
university
85
800
mêş
##rem
##yekê
##fan
##işî
başûra
beşdarbûna
azadiyê
helbestvanê
1920
qurban
teknîkî
meşhed
astronom
wef
##28
bernama
##edarên
desteser
dinivîs
##ument
êrîşan
rêvebirina
nexweşî
xwepêşandanê
elektron
george
mob
nw
sinc
##barê
##adan
##geheka
azadîya
1953
dimînin
kêşeya
gewr
ewropayî
##dik
##´an
##ör
bihêlin
rojnameger
dirust
##utsch
carekê
psych
opozisyona
##kurdistanê
seranserê
diaxivin
derbikevin
agirê
yen
##şem
here
madeya
diyarkirin
helbesta
1954
dîs
mî
semîn
wh
##oyî
##kot
##13
##anbar
yekgirtû
##geriya
##ozî
##leg
aşit
175
bizavên
postê
bidlîsê
parlemana
kehrebayê
cib
los
qazî
##bl
##gon
hert
destnîşankirina
biwaran
şirov
fîzîknas
hevpişka
birawest
##reyê
dabîn
angel
hevs
##bûye
diher
mehmed
xelas
misoger
okyanûsa
oder
zarê
##îda
##urk
##êdana
##axî
##ipp
july
##fff
sêyemîn
şivan
horm
kim
çom
##lik
##66
bihîst
pers
pirsan
disek
calceolaria
67
moh
##mat
kirmaş
gelh
parv
pere
damezir
bombebaran
hindik
verlag
çarçêweya
kendavê
beya
cum
gi
tiv
serd
##okrat
##kirinên
alik
##ewset
wergêr
çêkir
89
haya
îmam
##nes
##els
derûn
pêşeroj
dikev
##yarî
qanûnên
fermîyê
ferec
mêvan
çapamen
wêjeyî
##ayetiya
qesra
dilovan
rêbendanê
eskerî
zerdeşt
kêfxweş
lab
oton
weq
yus
##iyaye
##oker
##emer
##kariya
mezh
çêbûna
nexweşiyên
1949
1926
##ormato
raporta
kewçêrê
cîbic
fîr
iii
nur
pj
çên
##mos
##eket
bikir
##ilan
komek
salane
emîr
##kaya
nêzîkê
martin
xaneqîn
nekirine
69
wîkî
##înam
kiryarên
îroj
beşeke
helîk
kurtî
tekoş
axivî
tiştan
##ions
berfirehtir
##phyl
muhrkirin
eyaleta
lan
lav
##stadt
##enz
berlin
berbi
xwedan
baw
##adet
karkir
##igh
hesibandin
ketine
nemînin
biparêze
mezopotamyayê
vexwarin
ffffff
hekarî
şex
##12
##ار
biç
hec
##olên
hikûm
bazar
xwepêşandana
eyûb
masûl
veşartî
xizmetguz
stratej
lêbelê
rh
sine
##beya
bac
werbi
wezaretan
destpêkirina
bûyeran
asayîşa
krg
filist
nêrînên
bizavkarên
ewlehîyê
kulîlk
lang
şekir
##tator
##43
##ıl
digot
derxistina
nivîsand
beşdarîya
hefteyê
xwepêşanderên
vegere
brîtaniyayî
beramberî
akinc
hillarî
##feld
serbazî
fin
hekar
serdem
##anak
##girî
mej
##efan
teqand
birîndaran
komîteyên
1948
1918
hunermendê
atomîya
bicîh
xwepêşandanan
cerib
zu
salekê
##itiya
piştê
lawaz
germî
aqil
mehabadê
rêzefîlm
çerm
##yekî
##jad
dey
derkeve
##manên
demir
rojnameyê
kurid
franc
şoreşê
bişîne
qoserê
molekul
fad
qoç
sas
sît
mejî
xwer
##lingen
rastê
peter
qereb
teybetî
parlemanê
êlihê
perwerdehiya
dêrendazên
bus
leb
şeng
bûm
êrîşeke
şarez
xwendiye
şanoyê
pasevanên
##lary
selahedîn
şehîdên
rêkeftin
xûyakirin
mîk
ran
##cd
##dek
##pp
##xî
##elên
##endê
##igit
gotine
navendê
xaneya
gihîj
rejîmê
leşkerekî
parlamenter
bername
leheng
berxwedana
kür
xeynî
şab
##89
##üz
deriyê
kirinê
hilbij
aşkere
rêveberê
##eph
sebaret
standard
ragiahnd
700
##rêz
##neya
dicle
alan
##ita
demeka
##bûy
##danan
kêmkirina
seyda
piştgirî
lubn
digre
bixwaze
meşhedanî
cl
mîh
raz
xam
##ûdî
hevj
hevre
##îta
emr
dûçûna
şoreşger
raman
lîbiya
hilwestên
daxuyanîyeka
pişkinînê
pîrozbayîyê
metirs
gendel
fahm
keyê
koka
nun
##maran
##41
##erhên
##alis
raw
gelêrî
nûj
instit
avahiya
berhemanîna
misrê
off
şîrove
rûniştin
telefonî
peywendîdar
nîsanê
birçîbûnê
mêrê
##mij
##oo
##uel
##tel
##alay
alt
##dead
pêşveb
##ise
##yema
misirî
helbestan
##cleyê
çavkaniyên
ffdead
87
##67
deutsch
jiya
alaya
##iser
bêt
hindî
##umb
berhemê
nebaş
dihêle
atat
terorîstên
1937
îlona
kîmyayî
resûl
debax
dîtiye
##xwîn
darayîya
proseseka
cnn
lay
##rar
##meq
##yen
##ygo
##ict
cîhê
teqînan
##asyonê
nimûn
slov
pêşmergeyên
mina
yigit
##ford
##edarî
##ezîz
##evin
##êjên
belavbûna
meras
tiştî
medres
lewma
mecbûr
times
kitê
fîlozofên
it
pek
with
xoy
çak
##bun
##hi
##mo
##artina
diket
diçû
##irinê
##eme
##êrên
germah
diyarbekir
herwesa
mecîd
dabeşkirin
fizîknas
aaa
##tora
##iyo
##îyanên
anal
amûrên
##uss
hillary
dengî
musa
nedaye
sivik
cizîrî
doktor
texmîn
##mon
##yûm
##yane
##én
bap
endez
##line
christ
diristkirin
ronî
zîndanî
çandinîyê
misilmanan
sûdê
newroz
şayes
çomanê
gam
gum
hama
rot
tora
yun
çîna
##bic
##ûlî
##ini
giraniya
seds
îsk
dariz
pêkhatî
mêrdîn
sirû
azerbaycana
çewlîgê
propagand
qat
##ük
dagîr
##karîya
meq
dibêjit
saziya
gerîyeka
179
hevwelatîyek
hewayê
sirûş
ramanên
wênesaz
danûstandinan
taxên
didome
rêbaza
netewên
kirmanckî
serperiştîya
pêşhatên
werbigire
cat
city
lal
let
ziyar
serdar
heş
##îyana
neg
abûr
bikaribe
berdewamiya
ajansên
komîteyek
heyw
bajarok
1931
pakistan
papa
micha
tendurist
pjak
cr
fal
qa
sîl
##banî
##ns
##ence
##atîyê
hatîya
##ope
##oga
komîteyê
1952
1923
îngilîz
quant
pêşketin
afganîstanê
abdus
ferî
hadî
pent
tef
çaxê
##ee
##ved
##andanînê
##yeyê
##daw
inter
##opa
##yonên
derva
1940
temen
html
lawê
pîvaz
spanya
mezopotamya
etrûşî
giyanê
mîs
say
##arek
heq
real
weznê
##ics
serokatîyê
dixwazim
xaneyê
dirêjiya
family
dîdarek
hişmend
1919
girêbest
efrîna
împerator
serdeşt
sêwasê
sermawezê
mêrgesorê
ci
mens
##ref
##len
##kray
jîyan
##ayîya
alim
##evanî
sazûm
nerîn
koreyaya
nîsana
but
cend
carî
ober
tac
##sey
##skî
##ezr
##tepe
beşdariya
amadekirina
aydin
serhildanê
malbateke
çapemen
aştîya
bêjedanekê
nerazîbûn
bz
hr
mün
ubey
##îma
bikuj
##eyîya
girêdana
terxan
lêkolîna
efrî
1922
1924
xalan
malperên
pile
firrgeha
etn
pêşniy
qeyrana
nimûne
dilovaniya
nakokîyên
pûşperê
bûdceya
kürt
hhk
ted
warî
xid
##tînin
pêşkevtî
binema
endaz
rûx
derbix
kêmas
riza
êzdî
japonî
mebestê
veguhez
çinarê
helwêst
şiwanî
avrêlê
gurcistanê
fot
fried
jen
sez
yor
ziya
##pus
##f9
serxweş
yaz
##îyament
girû
##îtanên
helbijar
##bike
muham
nebûna
merasî
sînorî
zêdebûna
nirxandin
pasûrê
parlamentoya
muslim
dişîne
xwarina
danîmar
sêşembî
geverê
waşington
tixûb
kav
keb
nis
qum
##har
##meta
##det
##55
##aniyan
dereng
gelan
gellek
##isi
yêt
bihêle
esper
azadîyê
1943
paytaxt
saint
hizre
germiyan
tomarkirin
rays
sumer
yûsif
daxuyanîya
sîvîl
huseyîn
kay
##nên
##18
##ezê
biratîya
konser
##opter
kêşeyên
hasan
binemala
normal
vîd
##şad
##dayî
kurdiya
##eyd
##akt
demî
mezina
dîcleyê
murad
giştpirs
cureyekî
1941
##daye
serhildanên
leşkerîya
îzm
elşerqel
beha
lek
pab
syn
çaks
##69
zimên
##iba
giştiya
axif
xeber
gull
amadebû
1927
şahîn
1933
ciwanan
rawestandina
michael
abdusamet
danê
hy
çe
##ewe
##si
##cc
##far
##fal
##enan
##ahid
arş
##cht
##icus
muqteda
şanda
rêza
1932
buye
1000
bijîş
desthilatdariya
wexta
zivistanê
dadwerîyê
72
88
kok
wusa
##ranê
kuft
list
##elînin
##raw
##ikr
gelî
mezra
turkî
dayn
110
rastiyê
nehên
romanên
çalakvanên
guherîn
name
mêran
tawana
beyannameya
rêkxistina
çarenivîsa
saloxeger
quantum
danîna
ima
riha
zygo
şerên
##sar
deman
##etîk
ewil
20px
pêşkevtina
ingl
wezaretê
buy
samanên
şanoya
sark
bigihêje
bigihêjin
êrişên
patr
qoser
cul
fî
host
ih
şarî
##oyan
##pol
##fr
jimara
berpir
derkevin
yekalî
##îteya
mirovekî
nivîsbar
xwendevanan
romney
damezrên
pişik
awarte
##önig
kinc
ox
##var
##ız
ewru
##kirine
rahên
helbet
reform
budceyê
holland
kişandin
dîyal
çêdike
enqere
erdnîgar
urm
anatoliyaya
wana
xerî
##mir
##canî
##cih
##eki
##andar
evîn
parîs
hemîd
kerbor
nivîskî
##000
ayd
nîvgir
nirxên
zîndanê
bizavkar
jef
vo
çêr
##uyê
dex
derî
komeke
##ular
devkî
##able
şert
bakura
berdewamîya
##thus
1939
thomas
cezay
îtalyayê
pevçûnan
qewimî
ezmona
supas
hevserokê
qahîre
elşerqelewset
ageh
gavê
lam
nîsan
vat
îra
##bara
##tro
##keyên
dic
bibû
##eli
hêzan
mirovê
##ides
##xaneyan
destpêkir
maddeyê
madrid
1938
1934
saet
##benda
hebûne
rûniştinê
roleke
topbarankirina
zêrîn
spanyayê
têkeliyên
jean
swedê
oderno
awaz
bîl
mang
##niş
##onya
ankara
karsaz
demkî
begê
hêzê
parêzer
hêsanî
prosesê
bîranîn
koça
erzir
hevdîtina
xerc
amêdiyê
esperant
hola
kez
merî
nijad
##ês
##fên
##irîn
dah
dazanîn
hewlên
polit
zanîngehên
main
rêzên
cureyek
1936
sîstanî
êzîdî
atomê
##guman
rêbazên
çelebî
facebo
zygophyl
kü
pex
##bullah
##kal
##pin
ditir
liqa
serbaj
##iyeka
emmar
cihgir
hinekê
##gotina
##tîj
##îkirinê
rûber
##dide
ebbas
guherîna
qurbanê
israyelê
xemgîn
termên
tevgerên
jînenîgarî
hist
kaş
pra
##şan
bersî
##unc
parve
##ulus
star
##dike
##ique
##odon
pêwîstî
nirxand
album
derdor
pêngava
gelawêjê
investkarîyê
serexweş
78
ibn
kg
meke
zaf
##udi
##win
##jê
##14
amp
pars
##pêk
azerî
firoş
##port
1951
1944
mont
tebaxa
girtîgehê
pîvana
biyolojî
hikumeta
68
cad
hîl
sirg
##zin
##çer
##ediyê
##esazî
ent
##ovî
standinan
inf
160
margin
##ketina
nehiştina
xwendekar
035
filmê
140px
zûtirîn
mekanî
penaberan
seqiz
baregeha
pêşkevtinên
bondên
dînî
tib
##bol
##çi
deşt
##ebe
##ahîyê
tirsa
##ico
erebên
##utu
çûyî
tije
helwêsta
ragehand
hezîranê
piz
yay
ûêd
##bela
##my
##çîrok
##ano
##ero
daku
pêşbaz
rêkan
aswataliraq
hêmin
pêşkêşkirina
derketine
seyid
zîndana
forma
##kence
ceger
peş
payî
rî
def
##atus
##mayên
berl
rêka
##isî
##ulê
turkîya
##iforn
çandiniyê
tendiristîyê
destkevtên
tundûtûj
canê
ges
kn
king
lou
rolê
sand
vers
xê
##zên
digotin
neyê
birr
amerîkan
arn
başûrî
wergir
seddam
nasir
##ofer
##çûnê
qebûlkirin
zanyarîyên
enqerê
fêk
tolhil
dilgiran
profesor
xesro
utc
xilas
konferen
cd
fos
qayî
sik
tera
##bad
##eyand
##emanê
##ting
deryayî
aniye
binya
##ute
##kert
bizavê
guherînên
##ischen
nemaye
fransayî
sîyaseta
nêvdewletî
kra
qûr
you
zul
şadî
##fi
navberê
##ayek
##aze
##beyê
kong
sazdana
zanîna
muc
avakirinê
##iraqê
xwedîkirina
xwepêşander
şîrov
kanalên
şemr
sunnî
kitab
fizîkê
îmaratê
lêborînê
otonom
cab
nayên
##tîne
##aneya
##enberg
serbil
pêşkef
gotarên
dinya
super
dils
rêkevtinên
rêkevtinnameya
eynî
##bendî
pelên
mizgeft
tengava
namzed
paşeroja
jon
##tîyê
##65
herîrî
herkes
navkirin
##dep
##tîm
sûrîyeyê
miletê
çalakiya
fuad
necîb
dixwest
beyannameyekê
guncayî
werbigirin
windows
beng
haf
ri
##zx
##´î
para
karanîna
stefan
parlîyament
bibêje
bilindên
zanistê
bidom
çêdikin
mexmûrê
edîb
ged
qan
saya
hertim
##edînê
##olan
##ivîn
salnameya
##bec
çavê
cihan
kujtî
radig
berfirehî
weberhên
hukumeta
wîlayeta
gey
kawa
meng
##23
digere
kum
biguher
##geran
polîsek
talib
dimilî
prensî
june
bill
gefên
dewrîy
tevlîh
richard
hilawîstîyên
bîyanî
flor
xak
##xal
dibûn
lij
têg
karwan
armen
##ifol
paşxistina
celîl
xwendevan
medan
ayet
1921
dipey
axaftinên
1908
nexoş
sovyet
land
mayî
qiz
xey
yu
îcar
##nis
##ient
bijî
##ated
vegotin
karker
dibistanên
pirtûkan
zarokê
zanin
rastiya
bazara
heskî
amadeyî
giringîya
ronak
bijar
erzîng
doğ
awareyan
ebdurrehman
enfalkir
serpêhat
fab
gên
mü
##po
##pha
##yas
serv
##mayî
##esp
##işa
##ase
##evanê
rojnama
emer
turkiyê
behra
##ûsk
şerekî
çareserîya
siyasetê
brit
celadet
ebdulqad
unit
şahmaran
kongireyek
sibatê
çîrokan
konseya
##own
php
gerdûnê
termê
zewicî
reşemiyê
berdevkê
arast
keya
ment
milê
og
##pey
##ari
serk
goog
yekîneyên
pêşbir
##dafî
zanîngeh
zaniyar
atalay
bizanin
hewî
quranê
îsraîlî
pêşnîy
veşartin
referandumê
baxç
tepeser
zygophyllum
nanê
##pel
##ins
geliyê
##îsyonê
bindest
çarşembî
dijber
erebistana
qezenc
nêrîna
festiv
hoşdarî
fêm
betal
serokkomarê
herrif
ju
leş
moz
##ave
desthelat
rêve
elb
dum
belkî
çares
perest
leon
kevtin
qerek
milletê
cont
otomobîla
rijd
xelîfan
gelheya
kcd
xola
şaxa
##nivîsa
##nijad
##uer
##dig
##ino
##oke
##ezî
rakirina
hevalê
rûviya
##acî
xelf
tuneye
nêrwe
time
derfetên
televîzyonê
flora
nenaskirî
taybetmendiyên
niya
nivîsa
pûç
şov
##hof
##70
##inus
digeh
didan
bigrin
vej
##êziya
birîn
dinivîse
cihanê
kerem
şêw
çareseriya
husnî
wateyê
kanal
teyran
banka
şêrwan
sunn
##exaneyê
wikip
sovyetan
veguhastina
wîkîp
gram
könig
mh
##zeran
det
bert
berkel
ewqas
##endayê
derew
ann
binek
##ize
arg
avak
ajal
##rîg
rojnamevanîya
1929
kovarê
sibat
pakîstanê
nîvro
xwezayê
albuma
biken
japanê
şêrko
cenga
nifûs
baregehê
akademiya
teoriya
kurteçîrok
google
air
daran
darên
tat
##gus
##arekî
bipêş
berk
##emên
##esî
##îsên
##itt
tirkîyeyê
beşan
##dinî
bibîr
hesin
berfanbar
giringî
topbar
##nasiyê
kirîbû
nîjad
charles
midyadê
dîmeşqê
gurg
gîyanê
sec
toh
ça
##sîr
##dol
##arş
##evanîyê
navçeyeke
civîn
kevç
belavkirina
dadê
neteweya
mawey
nebûne
genc
guhertina
xistiye
dînar
pişkinînan
zeyt
werdigire
erzînganê
corê
qehr
êk
##derê
##encî
hatibe
duşembî
sedam
125
ajalan
ofîsa
hewa
koçer
grûp
californ
rexneyên
împaratoriya
black
suh
##mû
##75
##ste
serl
kurdê
##ikir
##îtîk
mehk
gotinan
##kujî
adiy
melayê
1935
bendên
dişibe
rewşenbîrên
çerç
binpêkirina
berbiçav
##zxormato
şunda
##uta
##pet
##stî
kurdi
kurdish
berder
##esar
pêç
dersên
##îtîya
kerest
##opol
##îvî
qedand
ketina
siltan
havêj
cotmeh
almaniyayî
lezgîn
serkeftin
taha
coun
biharbê
ûdîye
fc
sûn
tas
çay
##bat
##furt
##ón
digerin
jîyanê
bakû
##esco
alex
derw
yekitiya
heme
dîv
kot
bêjin
weşand
jêderek
serkeftina
nûneratîya
vedîtina
didomîne
erdhejê
nexwezt
cegerxwîn
few
love
national
ziyanê
##yt
##wo
##wal
##pl
##rama
##ista
berbij
baba
2020
dengdana
dengdan
balê
esîl
hejmarên
##hatinê
guhdarî
girîngî
geşkirina
xweşî
1917
kawe
ramana
katol
bexdad
televîzyona
lêpirsînê
niştecihên
balindeyên
gê
kiç
ktv
nus
wenda
berbijar
hata
##urus
park
hemdem
##inae
##idura
terorizmê
nexweşxaneyê
fîlma
1942
xweşik
kaniyê
##ikeve
1914
harry
bişînin
tehran
zaravayên
firehnijad
kandîdên
feqiyê
sultan
xiristiyan
kck
lem
las
##niya
##qolî
##dane
gundiyan
çarem
mehma
dilşad
ewledarî
pêşwaziya
melkert
rêkevtinekê
gengeşekirina
bijîn
i̇s
pêşinyara
qeter
arab
mişex
talîban
hewîce
bûrî
şef
##kiş
##yîn
##erekî
##etek
##iyarî
##edewl
##iler
destana
##îtal
belge
dawîn
##ott
amaje
helbestê
derbasbûna
##nasên
gengeşekirin
##îkolog
mekanîz
îdirê
nehêlin
psîkoanal
hilweşandina
şerîf
xebitî
televizyona
pisporên
şemzînanê
înglîzî
bre
eu
iv
zîyan
##rîs
##osî
##siya
##qe
##inia
jim
annan
gord
kares
peymanê
kerbela
gorran
xelef
abûrî
bru
gust
selam
îmze
bixeb
selahat
gotarekê
berevanîya
qewim
firotin
qendîl
teze
radigîh
aus
fez
kêr
kax
lut
mum
olê
pîk
##sun
##yc
##dikin
##üm
##êna
hesî
##mamê
aliya
##ural
duv
dirû
aşkera
rastîn
ferhad
eşker
dîtine
##bêra
##ları
veguhaz
report
macar
dîplo
kevneşopî
serokkomar
edebiyata
dîndar
fen
nic
ord
pît
png
rek
rim
sv
îna
şaxê
##ben
##reta
komun
mirg
bêhem
sedir
kevtine
nexweşîya
melediyê
çalakî
hêviya
1912
mongol
derdixe
efserên
crocidura
associ
yekgirtûya
çapameniyê
kh
taq
şe
diguh
##îstîk
bêy
polat
rasterast
ferz
nameyê
pres
bîrdoz
86
fist
giyanî
keh
qaç
tot
##su
##poş
berber
##ors
##uran
##devan
elawî
ern
spas
agahdarî
şirove
rêkxist
paraztin
wesif
angaş
quşxaneyê
îngîlîzî
stockholm
cey
hab
lar
tul
îdar
şid
##zel
##şîne
##yol
##yûs
bigeh
##ston
##kew
serokayetiya
##gerên
tec
dihew
lîste
naskirî
derbasê
herêmeke
suryanî
xistine
##zade
kişanak
qedexekirina
dewleteke
zanyarî
tesl
firokeyên
rageyand
pezmij
rabigih
pêşveçûnên
96
brah
gez
oh
pin
za
şey
##ikirin
##än
##ird
sermay
navbêra
reza
kiryar
##darîya
bihev
endaman
şêwe
atmos
kolon
pêşketinên
sîxur
north
şingal
peqîna
qayde
hokarê
sînemayê
cotmehê
wikipedia
bı
jeh
kema
pû
sah
##nav
##sit
##kanê
##dad
##gi
deyn
##elle
beraz
##îkarê
##onom
##îşt
karkeran
dibistanan
teqandin
ajans
bandorê
kolanan
metre
felsefeyê
sadiq
lady
cenabê
american
folkl
dosyayên
##oğlu
hekariyê
hevjîna
adiyemanê
für
gh
gavên
hit
mekan
tit
viya
##mek
##ois
##ward
##ور
##ênin
rep
##une
dern
dina
binêrin
##îzma
nivîsiye
march
kevirê
pêşwazîkirin
xelatê
armancê
rengên
##leri
hejmartin
berjewendiyên
youtu
kurtenavê
had
kît
od
zeha
##ake
##88
##öl
serek
##eban
##kariyê
gerîn
balef
bibêjin
dervey
selet
nedin
bedlîsê
kanton
kampa
trt
bijart
lewre
darayîyê
cehzeran
paşerojê
hevpeymanîyê
şêniyên
piştgîrîya
bisekinê
beyatî
xerîb
bez
miq
pîs
taxê
wend
îmad
##reyî
##uw
##ûyan
##erz
serfir
têt
##ewiyan
wezîf
welatparêz
##ose
dirûş
tevayî
wezaret
raste
zêdeyî
xira
kevnare
dolaran
tawanan
hevkarîyê
rizgarî
afrîkaya
organîz
şûnde
şikak
gehişt
namzedê
elmanya
ûrm
weqfa
gon
sant
virg
##ست
##iyarê
##îko
##eşt
##gihand
##ital
aslan
mutt
gerstêr
##ifra
marks
zanayên
##ther
alîkarîyên
efsan
şahid
nameyek
serekîyên
temo
##idea
resen
hevpeymanan
serhejmarîyê
zîrek
qoret
fadil
yorkê
california
1ê
cens
fi
giha
mc
xên
xûr
##bal
##mi
##tz
##şên
##con
##warên
naverast
##oran
##nak
dinav
bihorî
##utt
milên
130
edît
çalakvan
row
radio
katal
wext
çimkî
hilweşandin
diyaloga
istanbul
bixwazin
çaksaz
youtube
fas
hz
wolf
yks
##biya
##ayel
##îyo
1900
ankû
eliyê
rewşen
partîyan
##dia
firatê
gru
azadkirina
destpêk
vedike
komeleyê
mijûl
rêkxistin
hîp
dêrsim
beyannameyê
xwenîşanderan
usama
supasal
vîr
##yx
##gah
##gul
##îtîyê
hemu
##iza
##izma
stre
mezine
##icum
##îmet
##ketin
carna
rêzgirtina
federedewl
têkilî
siyasetmedarê
nizanin
debara
saxifra
moon
ewlehiyê
asîmîl
portû
diplomat
diparêze
alikariya
kuridstanê
francis
heywanan
64
ciyê
mov
memê
rûmet
##bb
##mus
##keya
##inin
##incî
sersin
jîr
##ese
alavên
##uri
##iver
girav
mirovahiyê
rûbir
perlem
dirûst
prob
bilindtir
madd
##eynê
civakên
federalî
ort
romayê
rengîn
piştevaniya
rêvebirên
meşandin
otomobîlên
nûnerîya
tûrk
matemat
austral
iro
lok
nig
vic
xalê
çiv
jidest
herçar
derûnî
pêşbînî
kese
bêî
##gos
beşîr
parliyam
rastîyê
berdewame
madeyên
egerên
girtîyên
mîranî
##mayîl
gewre
rayedarên
avahîya
usame
çêbûye
kobanê
birîtaniya
63
apê
auf
eta
gazî
jer
kêz
taş
vlad
##ûma
##asa
pêştir
hildan
asp
tevaya
rojnamevanê
taybetîya
dirêjahiya
babetên
hizbullah
psîkolog
operasyonekî
deniz
otomobîleka
simko
jimareka
bermîlên
şikeft
derwêş
dîye
roş
##ni
##sûn
##yanên
##dy
##án
bayê
##emenî
yekrêz
rêkê
eleq
##ume
sedê
derbikeve
##ife
miliyon
guhartin
ebdulrehman
bizan
bombên
desthilatdarên
xwedîyê
îmz
bendava
şemo
tewrat
##şemba
nahên
baregehên
rojhelata
dîplomatîk
şaxên
program
stewrê
manî
poş
qud
rist
vel
##meya
##zar
xweya
goma
destdirêj
cihekê
lîstika
nîştim
naskirina
têkçûna
hemberê
çiyayî
destnîşankirî
piştevanên
kolomb
canew
havînê
qurbanîyan
cewad
protok
nexwest
serhejmarîya
kristofer
sid
xîz
çile
şotê
##bu
##loyê
##vedana
##cîl
##jan
##ameya
navdarê
hatiya
kire
dergehê
##êdan
##ison
biray
##afê
avh
weku
eşref
##enbach
giringên
ayinde
pasdarên
##weşîne
phys
sûc
stranbêjên
cudayên
mêzgirê
ebdulqadir
muttekî
0px
dye
koz
soci
tav
up
uran
çekî
##red
##rom
##nos
##zem
##lis
##76
##fil
hein
##ayiya
##ayîyan
pêlên
komûn
malî
arj
başî
paşxistin
bêjeya
proseya
malperê
hiştin
zûtir
japonê
pisp
henry
tendirust
jimareke
diplomatîk
lîtvan
sernavê
pejirand
karkirên
91
fût
nal
pyd
ren
zah
##eth
alîyek
elkê
navendîya
ewlekarî
înstît
bombbar
biwarî
şanaz
silavên
mihemedê
alozî
havîn
sindî
nizm
padîş
dixebitin
şehrez
navbeyn
nivîsbariya
tevlîhev
eq
##lenda
##ws
##pen
##93
stûr
stûyê
zanînê
azar
170
kelar
eliraqîye
serekîya
1910
şems
tewaw
cizîra
navxweyîyên
lîceyê
balafirên
hejar
sovyetê
serkirdatîya
mensûr
nîvgirava
hand
miha
qeş
rock
##cew
##stem
##raf
##amîl
bers
navperê
pêda
xwandin
kondol
##etîf
carl
qereya
1913
lîber
krîstyan
xelîfe
tundûtîj
serhedê
veto
friedrich
ej
tikr
viyet
##vand
##qan
##yi
digrin
xwecih
evîna
neç
hevr
pêşkeş
##enga
çare
hinc
kerku
bihête
muş
awustral
##anûnî
polîsî
milaz
bikarhên
ebdulh
çandê
amadeye
##ense
##weys
arêşeyan
gihijtine
##ayetîya
vebik
sefîn
berevanî
grûpên
zilam
pêzanînan
##kevtîyên
census
98
pam
publ
run
rhe
sih
##bik
##zm
##km
##kayê
##ال
##ali
##okirina
herêmakurdistanê
rojek
##îse
belku
##chus
##goş
##abad
##taya
tayy
bikarh
##asîf
hezro
ebdulezîz
orş
##ffdd
haşim
êzid
gihijtin
vekişandina
online
mizgîn
joseph
pergal
şaşî
dixwin
sînema
operasiyona
ddffdd
serdemê
bawermend
jiyaye
atatürk
giyan
kı
sîna
wey
xanê
##ls
##74
##çeyên
bikê
##eniyê
##îner
##înana
##înerê
##ett
##ihev
enbar
##geriyê
standina
duyema
hing
çêbûn
##acan
birîndarên
muhir
##kson
carnan
##thera
##alîf
frac
ayind
zêdetirî
manev
pêkhateyên
arêşedar
fring
opozîsyonê
desthilatdarîyê
tour
paraztî
soza
rijê
texm
linux
radigihînin
nexşeya
lêpirsîn
zext
zindanê
wizeya
wefat
inglîzî
62
bûr
kîn
##ios
##sayî
##cu
##diz
##gey
##90
##çel
biket
##atîf
navnîş
altern
anad
pêşberî
##iter
standinê
tirkmen
aşûr
kuştî
spec
##ction
xwarineke
hizrên
konfran
huseynî
dîwarê
stranan
mamosteyê
dijwarîyê
1905
parlamentera
digihîje
bahoz
serxwebûnê
bixwînin
cêgirê
feylî
programa
binçavkirin
aşitiyê
lavrov
endezyar
darizandin
pentag
taliban
bêhempa
ford
hû
hek
jar
pul
tro
##rand
##rîk
##şîr
##fûr
bera
##îyona
##endan
têda
##isan
kart
duyê
daneyên
bikartînin
hesenê
rûsan
felek
hindistan
vegera
##îjin
april
wêneyê
operasyonê
bernameyê
pîşesazî
##ischer
##ology
festîvalê
dixwîne
image
berbijarê
cîn
ciya
hanî
lord
nay
tîk
şakir
##56
alfa
##ebûnê
deran
veq
pêşbîn
##ition
ragihan
##efer
dihok
10px
miss
bazarê
biryarek
tele
daxuyaniyek
refor
kamp
gunde
hevpeyvînê
opozisiyonê
raportên
keşt
hûrik
bandorek
wikile
trans
îdîa
##urnal
minaq
ziyaret
wîkîpediya
71
cct
qaf
rey
îdarî
##mes
##şîn
##kerî
##emberê
##old
anton
yeka
yekgirt
pêşxistin
##karîyên
welatiyên
dihîne
german
##îmên
civatê
nêzikî
bazarên
dihête
awayek
alîgir
xurek
otob
baban
derdorê
şadîm
henas
êrişî
kandîdkirina
pêşveçûna
buhayê
qonaxên
biharat
mikayel
agirbestê
berlînê
cctld
fêrî
piya
##rt
##hing
##îx
##keta
##urên
##ule
##ulu
elf
nûh
##teq
nebî
konsûl
refên
1915
hestên
êrişa
belgeyên
nisêbîn
robos
sîstematîk
pêşvebirina
74
dorê
kaw
klî
mox
siy
saf
sîd
##atorî
##mak
albert
aleks
kirde
##iva
##rog
##înejad
hêzeke
belgen
pêkve
tecr
rewşên
asê
parliyamentarên
gule
app
##off
hêjmara
paytextên
nemana
daxuyanîyên
sîx
çemên
azerbaycan
##emêrg
fêkî
pestoya
yasayê
botanê
lubnanê
##krayna
mekeyê
bekir
cidî
hid
veke
##hur
##udî
##lü
##vên
##şeh
dive
##ety
berb
derûd
##sayê
paris
yekbûna
##roz
##enta
##nameyên
hans
##opl
##îva
##iqê
bazîdê
çûy
qersê
nede
bazirganiyê
pirtûkek
dûre
sibehî
famîleyê
pêşnîyar
rolek
dîlok
tilb
albûmên
çinara
hevdîtinan
bextyar
dilgiranîya
tijî
feat
sembola
cûd
nax
vem
vide
şûr
##serî
##ariyan
##îneyê
hep
rabe
##dax
turkmanî
rewşeka
award
ajalên
##rêt
dûrxistin
şîrîn
zayînî
kurmanciya
hevdîtinên
bigihîne
hamid
zewac
semsûrê
terîq
serokdewletê
mîhrî
erziromê
zehawî
hic
ital
neyên
nord
qû
qab
rp
seke
wesa
##bola
##uj
##yp
##erzan
serw
sernivîs
navber
evsal
serokî
neur
##êda
kara
##tîf
##abî
##bia
rasteq
merd
eden
projeyî
mehmûdê
##pguh
geştên
pakistanî
bikelînin
corên
mamosta
kêşe
dokument
##sînor
hisên
freud
axavtin
##meqamê
bîng
marî
vît
##bayê
##koyê
##iro
##irînin
diçê
kirê
eles
binec
îrland
danan
jinû
alîkarîyan
unesco
##ubê
rawestîne
i̇n
1903
aboriyê
350
veşandî
oksî
gilî
kevirên
xebitiye
cihûyan
journal
kakeyî
şebek
remezan
çîyayê
diherike
dw
nekar
ost
pasîf
şuk
##biz
##hl
##lav
##vanîyê
##erin
##eteke
##esor
als
##gira
bardî
##ewar
devokên
nivîsandinê
partîyê
diyarkirina
gihand
qereq
wateyên
tîpguh
operasyonan
1906
dostên
caesar
dîplomat
kultur
sindoq
hijmarek
remezanê
hertimî
şengalê
kevçiyê
saxifraga
piyan
sond
wêr
##geya
dievê
##raman
herin
##îlên
xwand
duwe
##cher
rûer
rewşeke
hell
##etepe
bibê
pîran
spaniya
mayîn
alîkariyê
kelê
zêdekirina
##erson
farq
ragihandine
daxuyanîyan
rojnamevanîyê
masiyan
operasiyonên
stiratej
murat
hukûmî
pêşerojê
tenduristiyê
culemêrgê
content
bîz
gûn
tw
##oft
##sas
##83
bibûn
##stina
##alet
derx
amarên
human
elx
arm
xwûd
dihînin
##vanekî
peywendîyeka
zêdekirin
medyayê
dikişîne
##nasê
xwezaya
gotinêye
japan
girtîgeha
sozên
dokan
ewlehiya
##lûcî
şaredariyê
erdheja
îşkenc
serdaneka
werziş
kulturî
kazim
hêrîşên
helîkopt
louis
dînê
flo
larî
tin
xoz
##hin
##pera
##eton
serwerî
##amin
xwedanê
##îkal
derz
##ivîna
##îsî
##karîyan
bihata
stend
hewldanên
rûerd
lîstikên
seîdê
mart
lee
kêmbûna
biryaran
rêzim
dikarî
newzad
komelên
dezgeh
kolej
musilman
##anbolê
serkirdeyê
bandoreke
haco
hokarên
xwendekaran
enerjiya
lînka
avedankirina
offic
xidir
îzmîrê
çerçov
900
hoy
lû
nurî
tic
##zen
##zanên
##ğı
##mail
##andarê
##ûnên
karwanê
##îtên
emin
nûbih
##efef
##oth
##ingê
înkar
keleha
pişk
kamer
metal
que
makez
senator
luc
gilg
beyannameyek
putin
dikuje
daynin
fex
gefa
xef
##awe
##tik
##îmê
##dal
##84
##eter
##ehan
##amp
##ayeke
##oriya
têbîn
karak
binef
bei
xwandina
xwast
başe
lîstin
prov
teqemen
nasname
##ejirîne
neteweyîya
ebdulla
herême
efefef
bazirganiya
oldar
wilo
radiwest
meydan
roleka
golên
digihîne
cewher
bigre
futbol
stembol
kêleka
yilmaz
merasîma
dîvrîg
wikileaks
edu
hü
heng
kx
nîz
##nig
##metê
##wen
##82
##yaz
jibîr
dadi
pêşke
##ewerê
##ijî
erka
int
başur
cihgirên
rûda
lîstikê
muk
sêv
komîteyeka
mêh
hewar
efxan
rêxistineke
nehatîye
suryan
zayend
metr
çavdêriya
zîndan
delal
şingala
nahêlin
tewafuqa
semsûr
gihişte
komputer
perliyamentê
efrîq
muhammed
gordon
canewerên
dog
fit
kro
kbs
odeya
sö
sus
tok
##mit
##och
##qû
##xem
##xwer
##indeyê
##stra
##alya
##okhol
##aziya
##imin
##iket
destp
stan
belç
şêxanê
quran
mîrek
renge
eyn
ramanê
êzidî
cezayên
makk
necmed
dizeyî
kursîyan
hişyarî
dahatî
devereka
xaça
nihênî
firotina
groß
serbilind
viyetnam
aks
hop
nîk
trop
°c
çoman
##ajî
##del
##anya
bif
##iyî
##ons
komstêr
##ûman
têra
birîkarê
emir
kofî
##ester
çareseriyê
leg
berfê
qeretepe
sepandin
pirtûkxaneya
oldarî
mijaran
corane
1909
hole
şeşem
beyanam
pêşniya
dizew
jîngehê
danûstandin
wargehên
referandum
jîyane
pêwendiyên
diqew
êzîdiyan
serbajarê
xêncî
makezag
faş
hul
hekîm
kır
çun
şu
##nd
##mez
##şîd
##ûtê
serdarên
berdana
berlîn
yaşar
parka
hemko
erb
ars
nivîsandiye
asûr
##îvanê
lep
belavbûn
komîte
taybetîyê
projeyan
pêncşembî
gengeşeyê
##ianus
dostane
tesîra
pîvanên
hozên
referanduma
##ience
##999
neqanûnî
perwerdehiyê
karûbarê
gimgim
fakult
fonksiyon
ewrûpa
negatîv
berdereşê
bakûra
selahattîn
qereyaz
cast
yemen
şot
##rîna
##sîl
##eri
pêw
pêde
##evanîya
##ador
amûdê
aşûrî
supa
bazîda
dêrikê
agahîyan
geşep
tîp
plandanînê
konsol
comp
thumb
parlamentoyê
lawan
bexden
zehm
dêrendaza
helbestvanekî
hemwelatiyên
skot
welîd
kosret
swîsre
stratejîk
paz
tif
zw
##mond
##kiyê
##ûh
##etta
##avêje
##iyaya
##anîyên
##îkar
##olu
derkevtin
rojn
komkujî
salek
##îstên
##dae
stokhol
##awê
##îzin
lîstan
werdig
##other
cîhad
nîşanên
dayne
##ution
brîndar
diyarkirî
hewc
bajarek
edward
bîranînê
daxuyaniya
fermandeyê
eşîreke
teybet
rûsiyayî
johann
benz
tank
xwenîşandan
derfeta
stêrk
pîrozbah
xwînhên
nezah
zankoyê
yêkgirtî
rêbendana
vexwendin
##herêma
vekêşana
piştevanîkirina
rowspan
bîzan
cîkirina
cograf
hîd
nuh
vana
xab
xap
zend
îlam
##ous
##aneyên
##erîya
diçûn
##oli
##endorf
derkevt
##dariyê
amûr
##ism
mirîş
avabûna
greva
axayê
azadkirin
carina
sînora
hinekan
newy
kellat
kroker
pêdivîye
qere
desthilatdarî
babil
seyf
seydayê
show
davut
mekt
lawên
ekber
tengav
psîkolojîk
edebî
derheqa
sekinandin
stiratecîka
erxeniyê
dîsk
tivêj
mejiyê
pêşnîyara
gerînend
jinûve
kellaterzan
gluk
nel
sans
tine
çelê
##hh
##zdeh
##ûla
##71
##atum
ewq
neu
##êzê
malana
stêra
koban
##ection
awayên
jêderan
celeb
bilindbûna
medenî
pirtûkeke
geşta
mijdar
daxuyaniyê
sebebê
bangî
gihijtiye
keşf
batman
okto
elektrîkê
xwenîşanderên
giriftên
kutil
şembî
damezirandina
molekulên
parlîyamenta
bok
birina
gül
lind
remed
##lendî
##yg
##wig
sera
berû
beran
##anîk
##ezya
rabû
##ahan
binî
arî
parliyamenterên
tevli
hevpeymana
firokên
bilindahiya
maddî
cureyê
fîlman
kork
komele
zanistên
2006an
silav
millet
selahedînê
çandiniya
vebike
anatom
elektir
rizgariya
pêşangehê
brawn
camp
derhênerê
televiziyona
kîmyabaran
pîşesazîyê
mûzîkê
tevlihev
özg
tekoşîna
kincên
mhp
pp
çiyê
îlah
şke
##navê
##zi
##ln
##ûf
##des
##95
##makî
##okirin
##oksî
dabûn
hevrik
başurê
bêguman
girêday
kurên
12ê
esas
aşitî
marmar
nexweşxan
bomba
bîrên
xaleka
nakim
zanista
filest
pdf
kampên
bergiriya
tenahî
hîmê
berevajî
dagirker
betula
ezmûna
kanîreş
washingtonê
hilawîstî
norwêcî
jackson
hemahengîya
dilsoz
73
82
au
aut
cia
jı
ly
lud
tri
şal
##rum
##neyê
##hez
##ipa
##wên
##eyman
dada
amar
##îşan
kare
elm
elmanî
emrê
xwa
dîwan
asos
hêk
##oglû
carinan
romanî
hevwelatîyekî
taybetiyên
fîlîst
diken
krom
nediyar
xirbê
maneya
mijûlî
1911
ermenistan
dipeyî
keçên
febru
wilhel
veguhest
xizmetên
vekiriye
##exaneyên
fizîk
albûmê
serweriya
hemwelatîyên
hilberîna
system
parzemîna
gendelîyê
festival
bijarteya
clu
meta
sig
wall
çu
##ny
##lop
##sed
##sted
serxistina
##ungen
anc
anter
##akan
derbaza
perfor
hezexê
dilhê
jêhatî
ayindeyê
salihî
##nasiya
olên
leşkerek
bayram
peyamên
baskî
opozîsyona
##brahim
maked
zewaca
daxuyannameyekê
dermanên
kobanî
frankfurt
magn
hovane
binemayên
ihsan
lijneya
qizil
heskîfê
tepeserkirina
society
cla
eks
fes
just
lûl
sara
vil
êşa
şiyan
şiyanên
##81
##çikê
##ск
##ome
##unê
alp
serokom
##rosê
##îsta
ragihana
##aft
dijberên
dawûd
daniel
kevtiye
bron
dûyem
alîkarîkirina
komîta
înan
bombebar
rojhilatî
bedena
budce
polîtbor
dizî
zanyarên
qeterê
berdestkirina
pîşesazîya
moskow
tayîbet
sarkozî
çareserî
ykss
kondoleza
tayyip
84
bü
kah
nerast
pla
zaza
şîrê
##bon
##yahu
##iyen
pêre
aliye
alîyekê
##ebil
##ehab
destkeft
##êjî
pêşandan
stal
peywir
sêmê
##dibe
akt
bizane
bazirgan
kompanyayê
hînd
1902
aloztir
exla
efrîn
mitt
peyamner
dagirkirina
ewlekariyê
televîzyon
herçende
yasayî
roketên
yildiz
venez
jenosîda
zincîr
##eydak
esperanto
qûrbanî
qaçax
wilhelm
kîs
rum
rod
vas
yal
ypg
zur
##bînin
##mund
##our
##vîn
##elli
##andê
##iyal
evro
##işînin
pêve
##ever
##xwaza
arch
##îdên
abbas
daryûs
xanima
awayan
##low
dîyarkirina
vegerandina
##encanî
jidayik
kampan
mater
sizayê
rêkx
##sky
rewşenbîrîyê
georg
amadekarîyên
silopî
angeles
münchen
pêşkeşî
81
banê
dêrê
qij
##barên
##areya
ewna
kirman
##darîyê
birînên
hemed
beled
hilda
avahî
dengd
111
tekst
kevçî
grub
##înga
##ocar
coll
girînge
opera
rêxistinkarê
komeleyên
piştevanîyê
play
planên
pêkhateya
zayendî
germîyan
nêvxwe
rêvebiriya
##ideae
sefer
çêdibin
sunî
##ograph
mîtolojiya
avahiyên
white
sîlvana
pabend
şemrexê
lob
sana
tre
zum
çekê
##sg
##pişt
##fort
##çem
##ani
##atina
sererast
##iyeya
##anîye
##ili
bag
##endama
derec
komîsyona
##manan
##ije
bihurî
##bûyên
dijep
##eck
##oseyê
aware
civat
qanûnîya
15ê
paşve
berdewambûna
##oşî
şaristanên
talan
eşkê
dûzxormato
dikit
girtiyên
aşkirayî
dozê
sebrî
neket
panthera
xemil
lîw
975
danîye
dixwast
berxwedan
siyasetmedarekî
dijminên
omeran
gelawêj
zankoyên
erdnîgariya
qerekoseyê
supasalarê
kobaniyê
oktober
dîy
isa
kalîf
netan
tug
waran
##bes
##rok
##uşt
##kil
##gav
diguher
##andarên
##ilînin
##omên
yak
##keyê
##îyet
##eben
##aseb
amn
pêşketî
##maniya
birîna
biharê
test
diravî
ezê
pirseka
serokatî
dadwerî
peters
carekî
meletiyê
bedew
december
refs
aşkirakirin
demjimêran
opozisiyona
nizane
qeyd
reportê
##şêx
berzincî
tûnis
xarpê
cotmeha
pîvan
sincarî
radigîhîne
tilbiş
tîpguhêziya
83
ipa
kek
pav
qac
rö
rik
tînê
wo
yer
ûf
şim
##bul
##bîne
##rek
##zig
##ual
##xon
##atra
herik
rojevê
##îşkî
karîb
##îstê
gotî
ins
nivîsî
civake
siyasiya
##tep
grup
gula
maj
21ê
hefte
ewledarîyên
koçberî
zanistiyê
konsûlê
##girtiye
sitem
fîzîkî
xwepêşandanek
sci
walter
pûşpera
tendiristîya
##opsis
protesto
rasip
işik
kirmaşan
damezrênerê
binekoma
larîcanî
fakulteya
dijepeydak
qenc
xalî
zaw
îb
şera
##eus
##zon
##otî
##cin
##dînan
##73
##´yê
##هر
##ین
##ert
life
##ati
##eten
reb
recî
##işe
##ady
komkirina
dibînim
tirî
bela
goristana
rojnameyan
dirav
nêza
encûmen
grekî
nasandina
dilxweş
kêmkirin
tişta
dihêlin
##ugh
##agu
efendî
##mark
uns
xizan
diplo
nêzîkan
wêneyan
qonaxê
i̇st
parlemanî
kenala
kongreyê
doktora
pier
burhan
ewlekarîya
serxwebûn
asîda
afirand
turkmanan
tewafuq
mewlana
bombe
humsê
pêrta
pêşniyara
çepê
bîzans
özgür
loc
mîra
qaş
riyên
tena
xav
xec
##gîrî
diafir
biax
biyan
deqî
lib
berp
evînê
iraqeka
derg
enz
ens
rojekî
karin
dihêne
dibêjim
##kûpêk
derbazî
muwe
xelkî
11ê
şêweyî
çareserîyê
tekane
yekîtî
didine
##ations
demjimaran
lîbîya
music
vebikin
meysûn
nahêle
beyt
wikit
popul
pêywîste
##lîsî
folklor
kalîforn
refsencanî
61
dre
mîz
mîd
perê
tîl
wit
##bêz
##ning
##lendayê
##vi
##79
##ов
bidar
liber
##raz
##ayiyan
##tinan
kirbû
##adin
salv
##ûmî
##giran
hevzay
yekgirtina
hukmê
çaremîn
devok
nivîsîna
lîstê
asiya
civîneke
xelq
pîrosa
beşdarîkirina
guhar
petray
darxistin
036
tekezîyê
reşnivîsa
giringîyê
girîngiya
vediq
cemiyeta
bendera
birêxistin
teknîk
sinorê
otomobîlan
tankên
kîp
science
êlên
wargeha
rewşenbîrîya
keviran
parzûna
sînemaya
operasiyon
berzencî
dîktator
tablo
micros
diparêzin
stiratecîk
fedral
tolhildanê
enfalkirîyan
county
edeneyê
avest
bît
chil
che
hîm
qo
tap
îbr
##lay
##cem
##yet
##yib
##ûsî
##atir
kurdis
herek
eva
##iştine
yasîn
dergehên
ragirtina
antî
##adi
kirinên
##îşî
emro
peyvê
pêken
dijberî
##idê
şandiye
island
##board
akrê
bajêrvanîya
diktator
qered
guhertinên
sibata
çîrokê
komelgeha
aştiyane
eyl
ahûra
teyfûr
nym
1904
dewama
gurcî
bigihînin
gegen
nazim
enfalan
nadir
enerjî
ebdurehman
berfanbara
rapora
saxlemîyê
sofî
fehmî
qefq
endazyar
kerboranê
virginia
wikitable
aya
bêz
cûn
cind
dîr
etîm
gü
hîz
hênê
ja
mm
pag
tod
ust
werê
wêrê
çandinê
##out
##kîn
##kon
##ام
##fl
##ät
dikan
seraya
##asan
anjî
destî
##rot
bird
elew
arke
mest
##iyanan
bês
dijiyan
devoka
##abanî
##tac
##vaniya
kêfa
nûnera
jineke
şaristanî
pêncem
##nîgarî
hejmareka
generalê
ewlehîya
naverok
elhes
têgihiştina
flav
herçend
mûzîk
statîst
metirsî
hevseng
yusif
jefrî
îradeya
davutoglu
bînê
kaf
qirg
ré
ûn
##ilkirin
##ihat
##esan
##etah
##ikek
2018an
##itan
stev
dîdevan
gelekan
parêzgar
tayyî
derbeya
gercanê
hezkirin
têkîl
heftê
bombek
genet
şahî
namîne
filmên
pakij
1916
##oyek
will
1901
norwe
zanyarîyan
cizîr
benj
nehêle
tehsîn
şûnda
dermanan
libnan
internet
hetanî
veguhastin
korêya
xizmetgoz
sembol
sext
efserekî
hazir
fîzîknasê
saloxegerîya
wergirtine
berkelî
katolîk
matematîkê
navbeynkariya
aust
cim
kle
ped
pala
qar
rud
song
tîb
zûl
##bolê
##zo
##zim
##yth
##gela
##pîr
##ark
serf
##îyeta
alav
dera
bûk
têh
##akurd
karnameya
##its
beq
tirkiya
avad
peyvan
##lama
koord
perr
##têgih
paşkevtina
##tewe
dûbare
hefteyan
amadeyîya
hewayî
dimire
hizar
hejmareke
sirşî
nêrîn
lîbyayî
milyonan
serkirde
model
gerdûnî
xaçperest
zikmakî
jenosîd
dikujin
amadebûyan
dîyalog
agehdar
nijadperest
associated
awustraliya
february
idî
loz
pse
torê
uh
wis
şel
şib
##riyê
##cı
div
bigo
serdanên
##rab
heremê
goya
salix
yekalîkirin
kesekê
elçî
dikevê
sûryayê
##aban
##ûdeng
dayikên
girtinê
êrîşeka
mert
##anga
kron
tawûs
pasdaran
teyyib
hebîb
massa
2004an
teknolojî
fîzîka
ceribandin
hêvîdarim
##brid
feysel
polîtîkayên
çavkaniyan
xinûsê
nîjer
silopiyê
eyûbî
berpirsa
##amîleya
nen
pre
tayê
yanê
îc
##53
##ín
##eral
debê
##andayê
##tingen
##îyon
derk
amir
vêga
##gehek
nûdem
hilde
asmanîya
dayin
##hatin
maur
mercê
heftem
dirêjî
orhan
fraksiyonan
pêkhatina
jêre
aheng
mamosteyên
1907
havînan
katjim
hevbeşa
zinar
dadgehkirina
glob
istanbolê
talîbanê
filistînê
qoçg
derbixe
problem
hinceta
cid
gîl
hûrî
mim
prat
roya
tûşî
who
yed
zam
zîlan
şiyar
##turk
##kiya
##cîh
##erek
lig
lixwe
##avayê
heqê
##onia
pêla
bûyî
yekşembî
pêşiyê
rêç
##ovan
ele
rûdin
girêdayê
çêkiriye
##enau
şêweyê
şêwir
axiv
adem
rûnbir
agirbesta
qebul
cejnê
hizra
##îfa
##oyeke
peyamek
bank
exxon
xeterê
pêvajoyên
osmanîyan
ozçel
çileya
binpêkirin
hevpeymaniya
îsawî
herçendî
zozan
temaşe
rejima
casim
cîbicîkirina
masûlkeyên
bajarokekî
biharbêhn
pisporê
##oplaz
îbranî
rûnbirêş
blu
hall
ky
kiz
lur
perî
pinc
tov
viyana
##mil
##ober
##oda
##werên
##gez
##ات
##öy
serça
evana
##olas
destexaneyê
girj
karg
karîn
##îtanan
ste
hild
mezinahiya
kopê
rûbarê
asim
nîşandin
##aqa
milîtanên
neteweyan
rêzgirtin
avêt
xistina
mijdara
fermandarîya
kilam
##iano
demokrasiya
selaheddînê
afganistan
house
televizyon
efserê
enerjiyê
tewafuqê
serrastkirin
ziwa
merasîm
têgîna
dilhêsayî
bew
burg
cis
dogan
gn
hos
hûş
ib
night
yeh
über
بن
##bus
##hm
##zek
##cal
##cia
##piya
##ekarê
##str
jiyane
##eles
##wed
##iyarên
evîndar
##eşe
##asiya
gundikê
##giriyê
yekeyên
##bex
##nameyek
ergen
mezr
dijm
##gora
##igan
sazişê
gercana
109
seid
##ings
pîranê
##ters
akad
îndon
hewce
xebateke
giringîyek
kempa
suriye
##raham
##rahman
pêkhatiye
cinsî
çûnkî
vebir
bêhna
acc
mîlîtanên
herdemîya
ewlehî
naziyan
têkoşîn
xêzanên
balafirgeha
têgihiştin
ladin
profesyon
siwar
îlankirin
akincîbûnê
şemzînan
lêdana
birawestin
hişmendiya
mengur
doğan
şoven
zeytûn
dirûvê
##stedt
netanyahu
dé
iran
kîr
kast
nin
ov
temb
##tex
##xwar
##feq
diviya
kulî
##îranê
##olo
##eşî
##adar
##êjim
hugo
elez
demsala
##izm
arîst
dupat
peyker
mirovahî
nîşanî
mehser
mesud
neheq
aktr
xaneyan
organ
kovî
bazirganên
planê
hizr
bikêr
pilan
frensî
daxuyanîyek
fîzîk
sefera
erzîrom
berdestkirin
kovareke
emerîkî
geştevanîyê
cemawer
yemenî
datîne
deutschland
slovak
çapemeniyê
dexîl
bersîva
konferensê
ronakbîr
fewzî
cre
lap
nok
pep
##nik
##lov
##êk
##ştin
##yoyê
##jin
##ра
##ía
##înîyan
##eland
hebê
##iyye
herisê
pêv
##îyetê
rêkarên
kareb
amerîkayîyan
bihûrî
kont
çêbûne
awa
##iform
yekêtiya
erda
mislim
talabanî
##thur
medved
çûk
vedig
girtîyan
mîrên
babekir
##rass
kolanên
##see
çêkirine
pirsgirêkan
ronahiyê
derdiket
wilay
i̇l
bernameyeke
lêkolîneke
israyelî
solin
danûstandinê
ekrem
sûdanê
pêvajoyê
asîdên
danas
bermîleka
sêşembîyê
cezakirin
guhdarîya
werbigre
korêyê
rêberiya
lenîn
atlant
atlantîk
dinivîsîne
reformên
çêrmû
facebook
##ifolia
united
dumlûcî
pezmijoka
xûrt
medvedev
92
bd
lex
one
qers
rub
tof
way
yenîş
çeç
##çu
biguh
##stant
sert
##wext
##iyûm
berdide
dahên
20ê
pareyên
hevûd
hildi
##oss
##kirchen
asûrî
mudd
diran
##îme
tevdi
seit
şervanên
qanûnan
2012an
komîteyan
fermandariya
îlon
opozisyon
dişew
##sche
rizgarkirina
nerazîbûnê
modela
wald
pergalên
dadgehkirin
îtaliyayî
gemîyên
haydar
evdireh
îhsan
hevseroka
saloxandin
köy
girseyî
mahmud
germahiya
tefsîr
ewrupa
dewrîyey
tayyîp
faz
garan
kengî
maran
neha
##hard
##ude
##sia
##ké
##key
##keyan
##arch
kurde
##raya
berevan
bermah
pêşen
##aki
kariy
lêbih
##aşa
pêktê
##hagen
adam
dût
şêxo
038
serhildêr
nedane
pesna
famîleyeke
##ichte
kamil
şirket
november
boneyê
mînakên
bigihîje
siza
nizan
zewîl
traj
wiki
hêrişên
internetê
bitenê
rusiya
xorasana
napole
ewrûpayê
awistralya
sazûmaniya
##f9f9
tûrkiye
vîtam
ergenek
aqu
gasê
last
teha
şîd
##rib
##mun
##uman
##qol
##qanûn
##kez
##irkî
diger
komarên
pare
##îsyon
##ahr
##itor
##sîm
çarşembîyê
turkmen
##idîn
##rea
pola
taylor
esad
dîrokzan
miliyard
grîf
bakurî
eşîrê
merwan
kûba
îns
dikarê
dikane
sekinî
vedik
watch
agahiyan
suriştî
netkurd
pirsgirêkê
nuşt
aborîyê
aborîyên
hestî
teknoloj
nivîsandine
rojnamevanekî
berevanîyê
peqîn
kanadayî
tevgerê
xewn
axaftinek
kodeta
yasaya
rohn
history
serfiraz
rûbirû
official
750
f9
gard
mîm
riyan
xend
##beta
##lana
##ss
##îde
##wald
##pêr
##اد
##eron
##alus
##etz
hede
rab
raf
amêdî
##ull
##îstî
##îtir
ert
avakir
deved
##ider
##xistî
gorên
##igen
danana
##esta
115
##bibe
terr
marg
gulê
ebdulbarî
teroristî
federasyona
heywan
herêmek
ayetan
aysel
wirmê
rengekî
dimil
zanistvanên
mijdarê
schwar
opozisiyon
raportê
jiyaneke
bened
îstîx
textê
hêrişa
berhevkirin
şamp
afirandina
zeytê
distîne
nişkê
parlementoya
hesab
felestînî
mutleg
stockholmê
psychoanal
yusuf
##buntu
mehkûm
atmosf
parliyamn
lîtvanya
rhein
newyork
f9f9f9
coş
lı
lekî
nuk
pem
##rez
##tah
##jo
##stê
##ild
reaks
##îyonê
komst
##chi
hinard
##gotinê
##tîmal
##axta
navça
çavkaniya
xuş
werine
##ige
cîhanîya
muxt
##dust
êrîşek
make
dûgela
mêvand
astara
xebatan
xebatkarên
niştiman
ketel
geştir
koçbar
sade
october
meclîsê
bilez
bisep
kompanyayan
şerrekî
domin
bahse
young
êşkenc
awareyên
2017ê
gerîlayên
polîtîkaya
yildir
##ield
pehlewî
parvekirina
waşingtonê
mekanîka
yayın
sunneyî
portûg
dîskografî
microsoft
mengurrî
yenîşeh
dewrîyeyyeka
5px
94
cha
dt
ext
gok
gran
hîr
keda
pur
rîs
xij
zîl
zara
şaf
##ûde
##64
##وو
kup
aliyek
anna
destxweş
##ito
dibit
studi
ind
dewletî
##idan
dawet
diref
mesela
siyasetên
bikarin
##oba
jinek
guhê
care
##pêşx
zarokekî
newala
înî
gihaye
kelem
##ardo
artêşên
2007an
mamek
mihê
janu
pasîna
sosret
kateg
##que
pêxemberê
mîtra
sads
2014an
fîlozofê
xebitandin
perwerdehî
herçiq
dîkt
cemawerî
lazim
rave
kifşkirin
norwêc
kîlometre
aktorên
negihij
xizmetguzar
alimên
hafiz
weberhênanê
##wood
kantona
gruba
ciyawaz
club
performan
petrayus
5ê
dc
gît
gray
maya
moş
mûra
naq
rîş
ty
taz
xol
ûg
şin
şen
##bab
##say
##tem
##îvan
##ûc
##pak
##72
##63
jial
beravên
##îkir
dayê
derçû
gundiyên
gired
kartê
##îstanî
hemze
stein
stutt
indi
bell
##idel
daxwazkir
civiya
rastîya
brand
dadgehên
afret
zaroktiya
heftiya
colemêrg
damezrand
agahîyên
opec
##owa
fred
mamostayên
lêkolîner
nexw
alozîyên
hîc
aciz
rojnamevaniyê
panel
aştîxwaz
leyîst
1890
serkeftinê
komkujîya
cilên
peymangeha
lêgerîna
awistriya
destwerdana
şaweys
xwekujekî
wesay
qonaxeka
regez
bergên
kesayetiya
graf
nêvdewletîya
pejirandina
yûnan
serrastkirina
helîkopter
urmiyê
tohmet
dihewîne
pêwist
dawûdoglû
dot
lên
saw
xana
x20
yav
ûsiv
ûris
şed
şîl
##reb
##imay
##tanê
##val
##pek
##xo
dizanî
##elok
serhat
herif
##ils
##onyayê
##êrîn
rabin
destxistina
karkirina
binivîs
hukim
bejî
hewla
nivîsîne
##tain
denge
##tûk
##inga
1500
hejmarê
êrîşekî
diley
brun
pîrhes
destpêbûna
madde
diyarî
sepandina
dîyarbekir
çawan
tîrêj
tîrêjên
saudî
kaiser
##landê
berjewendiya
dewleteka
dişînin
bişk
traf
zilm
nawç
tehrîr
menû
tûnisê
bidaw
somal
pirojeyên
zêwyeê
hezîrana
despêka
meseleya
bihîstin
xwerû
kitêb
sirûştî
tixûbê
aydogan
qayîde
bijarte
rimond
nîştimanî
kerkukê
dizewice
pseud
stuttgar
7ê
bent
blo
golê
lon
rat
rost
rîb
roc
sod
tos
vav
xema
##êlê
##tion
##ûkê
##او
##fta
##areke
##eko
##als
serdarê
xweza
têbînî
yekemê
birad
kard
arma
çargo
navçê
xudan
polonî
##oto
ash
mukr
2010an
giştîyên
theod
kuştinê
medî
orient
farqîn
girîngîya
nedan
old
nîşaneya
konfeder
şîe
kîmyayê
jîngeh
hundurê
xerzan
malperra
neqş
evdil
kadro
xêrhatina
japonyayê
radyoyê
nabînin
profesorê
mêjû
hevalbendên
îhd
nişka
gihiştiye
pêngaveka
##press
platfor
crocus
sêdaredan
sêdaredanê
##ubeydî
stewr
felestînê
mîkro
xêv
gedeyê
billboard
victor
arjent
konsûlxaneya
tugluk
bêrî
coga
gîr
hîk
hûs
how
jûra
led
marê
xas
çiyan
##retê
##serê
##siyona
##vedan
##ky
##deb
##pi
##92
##ан
##ansa
##atiyên
##avêjin
kirîn
anth
enîya
karan
emar
sûrê
##ibînin
rojnameyeke
105
dayîka
şandeyeke
mary
zanyarê
dilîze
carol
ebdull
dûmah
mêvanê
balyozên
baweriyên
postan
nameyeka
navxweya
topxaneya
xweşt
xiste
bedfort
common
metran
pêşketinê
tesîr
1896
lîstikvanê
sêrt
birine
qesrê
##aaa
werzişê
xatûn
cemawerê
împarator
bombar
yezdanên
bilêvkirina
1758an
dabînkirina
aaaaaa
girêbestên
etnîkî
gulleyên
berkeliya
tulipa
lîberal
şadîmana
makkeyn
yildirim
cama
call
cefer
fan
hag
kûl
lt
lah
tara
veh
çolê
îf
##ven
##kay
##pît
##yay
navekî
ever
##esc
boya
ragirtin
eniya
karîk
stud
rewan
goreyê
##opî
gerr
kevne
bilindê
##kerd
derbaskirina
nikarî
mîran
esedî
##birî
gengeşeyan
nekarî
wilson
harûn
qirr
digihêje
simkoyê
ewlekariya
muhrkirina
gerdûn
kontrolkirina
feqîr
pêyws
fikrên
kaplan
joe
govend
drama
elcez
cibûrî
facebookê
kürd
ernst
brahîmî
hitler
ebdulhadî
rijêma
qereyaziyê
ludwig
derkete
napoleon
93
cun
dus
sü
seng
sard
çev
şak
şûş
##nell
##oqa
##kanên
##ûda
##gang
##78
##fet
##înit
##êrk
god
komî
amînî
##row
##ulî
##izin
stra
peyw
peres
perçe
mehemed
nêzik
paşayê
mesele
2008an
iso
##iqî
gulebaran
biryareka
spor
mirine
kelep
melzem
terorîstekî
demokratan
xirîst
seyran
peyvek
çavdêran
gazên
dewra
fîlmnîgarî
serkirday
gewirkî
çaverêyî
zindan
urdonê
psîkolojî
dengbêjan
lêgerîn
krîstyanên
misircê
qazan
##slav
bistîne
disekine
parvekirin
şexsî
îskender
bruks
stiratejîk
gilgam
i̇stanbul
nympha
koordîn
c3
hg
pale
rika
sîyan
unam
zamen
çwar
##bana
##eum
##ned
##layê
##gînî
##ück
##št
alê
##ebus
##ures
kiribe
##imezr
komkirin
##aha
##ozy
step
emîne
arthur
belûç
rewanê
xuyanî
##exane
pirse
bêjim
isra
milet
##iqandin
mûsewî
##tonê
bajêrokê
##rayîyên
berfirehkirina
pilandanînê
vebû
daxuyanîyekî
hundur
1898
nimêja
gefan
domand
topbarankirin
south
geheş
hêşîn
xwenîşander
hejand
gaveke
dîplomatên
ardê
europe
nefta
xortên
îhtîmal
qazax
lîseyê
swîsreyê
xetabar
maxim
dîmenên
dimeşîne
disekinê
texmînkirin
bikujin
##farbe
bîranînên
dipeyive
avhewa
mîrektiya
nezahe
korkmaz
zamenhof
cav
ced
fiq
gest
nine
şiyana
##uwe
##tec
##wîn
##gn
##pes
##çal
##62
##ış
##är
##هو
##ereb
serketî
berbil
navandin
xwep
xweyî
##ayi
##ayîyên
daxistin
alkan
amara
##giriya
##ewarî
bingih
stek
##aşê
##aşî
dua
kerbel
rûbûna
dihata
sazîyên
danez
mehekê
kombûneke
maria
amedî
gultan
rêkevtineka
demokratîka
temsîl
bixêr
karbidestan
sitran
germiya
nêzîkbûna
piştgiriyê
bergirî
denîz
lîbî
sima
komisiyonê
digihê
hamburg
peyamnêrê
dayikbûna
1998an
xizmetkirina
hoza
ebdil
qayide
bernav
ezmûn
supasîya
bihêztir
nîşandana
gemîya
pêşmergeyan
evdal
rahînanê
polonya
zeynel
mobil
akincîyên
abûrîyê
hrsg
street
kirdewe
benjamin
january
menûçê
##farbe1
aur
long
nell
pûl
sîb
zîv
##by
##rol
##zmê
##lekî
##leyê
##sol
##ville
##kun
##cak
##warê
biya
biqel
##iyaran
navdêr
##raqê
rapirs
rafi
giravê
biraş
kesane
demdirêj
emil
##goya
##kirdinî
1800
muamer
berdew
ajansê
made
zarokek
şêxbiz
nexweşxaneyên
federas
balyoza
media
seksî
xalkê
nehatin
##ffeq
islamê
eşîran
kilamên
nuj
demokrasîya
veber
##ski
elektrîk
1882
bicihkirin
demîrbaş
hikûmeteke
kanadayê
berxwedanê
nesr
fikr
nûredîn
avrêla
çîçek
bijîşkiya
serdemên
orşelî
pierre
muweffeq
ağ
ear
hîs
hong
hîvî
katî
qol
qib
çen
##new
##ode
##uyan
##êla
##teya
##yel
##ardi
diweşîne
serkêş
##oko
##ilis
evin
##emar
rest
pêyî
##îreyê
##enderê
##îsmê
##îstana
stekan
emru
inc
pêkanî
dijatîya
nivîsarên
##iden
##xistiye
##dank
çêl
awust
##dine
seg
14ê
evroja
îroyîn
sînem
dûgel
cureya
bajêrvanîyê
îslamiya
terorîstîya
mêrx
buch
sîstemê
dîwarên
bask
hawa
sunne
çemçem
1992an
şermezarkirina
waliyê
hevpeyvîneke
firehiya
moskov
peymanên
înternet
hişyarbûnê
rêbendan
çarenivîs
elementên
tetwanê
elektronîk
sumeriyan
dîplomas
krîstyanan
qirgiz
îstîxbar
unami
8ê
giz
hip
hyd
if
kis
mûl
och
rin
sot
sag
syl
tut
ubuntu
vac
xis
zikê
şet
şof
##nay
##pj
##part
##arat
##alem
hecê
berya
bacanê
alas
##ivê
##ivis
##king
##itim
binih
xwişk
##enge
beşîk
##ngil
kongirê
##idi
werina
##ication
çêtir
hêm
hilbijart
dayîna
##esty
berpirsîya
daxw
zimanek
zimanzan
##ceph
hunerên
heftîya
hefteyekê
keleh
kors
vedib
bandûra
silêmanîye
topan
hişê
tawanê
vekin
nemr
şemiyê
guneha
bikîn
##ieg
kişandî
havîna
hestê
keştî
##qube
farisan
80px
komkujiyê
2015an
hakim
bloka
gever
gerîla
mizgeftê
hilberîn
giriftan
zerdeştî
korêyî
mesîhî
zeit
rejîm
brazîl
brazîlê
propagandayên
ceyh
teslîm
poşman
padîşah
çêrmûgê
ces
dy
fort
giş
gut
gûl
hend
kş
mobîl
uk
xaz
##uda
##sm
##yîyên
##pon
##ای
##61
deye
##stinê
berbir
##omer
kiryara
##işta
hevtêgih
##ewerî
birûs
elect
binx
malm
##daş
##chn
piştîvanîya
nivîsê
##xistine
endamekê
##ogen
partisi
##dikeve
ismayîl
##iqa
ebdulm
gihandina
unter
gencan
vediş
guherandina
nedît
##nasan
plaz
xweztiye
hejmartina
siruş
mizûrî
mazlum
mistef
##ques
misilmanên
academ
hevpişkên
xizmên
danîne
alfred
şirnex
sistem
##efîlm
festîval
didomînin
çelîk
nieder
##lık
rewandizê
japonya
govara
bolanî
kosov
rêkeftina
guftûgoyan
xesx
pêşengiya
köln
êzdîyan
konferensa
namzedên
svg
komunîst
milazgirê
zûlfeq
royal
stuttgart
ema
fek
ferê
hena
mv
pij
set
teke
çat
çam
##sdorf
##ycl
##pora
##5f
##رد
##enn
sers
serç
sersa
##urs
dersa
eng
salim
têdik
##roş
baroya
birayetîya
hemo
lêv
bihêne
state
emper
dîwar
bûnê
##goyê
##ecus
##abadê
kongire
parliyamenteran
dirke
giştiyê
nehişt
##ejirînin
bilindkirina
bilindahî
biryareke
maweyê
romiyan
hevwelatiyên
kelandin
rûsîya
berfir
fîlîp
##demir
apwe
serhilda
qerem
xurtbûna
muhemmedê
dezgehê
kanalê
nemsa
ronahiya
metro
sînoran
peyameka
stranê
zînde
afrînê
tevlîbûna
dîyale
dostê
bêjedanekî
doskî
îdamê
1891
têkoşînê
referandûmê
gelemper
##mazda
rûpelên
sîyasetê
sabah
zordest
fatma
guhdarîkirina
deqe
qendîlê
smith
##eylanî
jînenîgar
despêkê
kompaniyayên
berpirsiyariya
bapîr
muslimanên
xakên
topbarana
berberis
mekanizma
fûtbola
belgenam
apple
kanîreşê
têdikoş
ecê
hard
hpg
jêrê
kalên
lêz
lot
mew
roz
rîp
ts
vul
varan
yıl
çor
çax
ûz
##ûq
##dil
##goz
##fur
##ér
dima
serkevtîyên
##radê
##eyi
herfa
##org
##îkayî
dag
##olution
yeş
derên
rama
##evskî
hevîrê
rêv
baranê
##karekî
hemd
##gehekê
meg
##afirê
dujm
dengekî
parliyamenterê
##vaniyê
îsot
##ifê
berpirsiyarê
marx
milan
berdewamin
ferq
biryarekê
madeyê
şêxê
colum
nûnerêniraqê
xwarinan
nameyên
xirokên
pêwîstiya
pêdivêyên
aramîyê
holly
felsefîkî
davêje
hawird
otomob
bişon
ferhengî
antîk
trak
otombêl
dizanim
dahatên
cûreyên
cîranê
gerîlla
formên
vekolîn
dendik
lêdan
hiştiye
bistînin
yewnanistan
bikuje
havêjtin
federedewleta
uraniy
census85
texmînî
##ebilind
yenîşehîrê
dirkepet
6ê
ada
high
jehr
kent
nr
rûmeta
rond
zek
zora
çarê
öc
##hou
##ll
##vent
##yu
##yewî
##wêr
##ée
##ān
##atîyên
##îklop
##esk
##oloc
dersînor
destpêşx
têhr
lêk
kerema
##ids
zanînên
asyaya
perava
kurm
kurrê
beheş
112
êrîvanê
erdnig
zêt
berheman
mercan
akreyî
nexweşîyên
mehmud
##agas
bombeyên
##oca
##ware
girtîye
##weyek
dîdareka
babet
surya
bendê
scho
anîbû
hêrs
revenda
desthilatdariyê
dewletek
davod
siûd
xirabtir
vert
komisyona
xizmetê
1991ê
1889
cewherê
şagirt
bolîv
feth
fettah
îmarat
##bsite
lêborîna
gendelî
norwêcê
lîmfê
karbon
bilêvkirin
yeni
fîzîknasekî
fosf
biguherîne
florida
pêşbirka
diguhere
total
rabigihîne
qoretû
bîzansê
ahûramazda
bigoşt
profesyonel
öcalan
fem
flast
hanê
hra
hanîn
hînî
jack
mera
mant
nazî
pc
xen
zengî
##ranî
##nîk
##huk
##miz
##otin
##uv
##deng
##gh
##gewer
##üş
##artû
dipirs
diva
serpir
navan
##ayekê
##imir
rakir
19ê
roje
girçin
birrîn
karab
kargêr
##itiyê
##itînin
belar
##yaran
welatek
dijiya
hêkan
civînên
10ê
kêber
şeran
millî
birîndarkirin
##iwan
bilindkirin
rêvebirin
darv
meryem
kûz
nexweşxane
037
însan
reşo
çiyayan
ketibû
nedikir
##ences
##rahiya
reflek
germyan
keçik
fermandarên
basket
aramîya
musilê
êvara
dostoy
bazirganîyên
ekonom
nehêlana
dîlan
zehf
saddam
xêzan
taxeke
nîsk
neviyê
astengên
televizyonê
xwenîşandanên
##ithecus
derxistiye
hevpeymanên
xêrxwaz
zehmetkêş
master
çepgir
yûsiv
moskowê
sendîkaya
##arslan
şeklê
mezheb
institute
sirûda
arşîv
mucahid
heinrich
bexdenûs
amnesty
xaçperestan
x2013
menûçêhr
xesxêrê
apwebsite
têhranê
550
doc
lov
out
qen
sora
sîra
tekî
ud
vak
xum
zeman
##eo
##ria
##sil
##qeya
##înîn
serû
##rac
herema
berît
kirdarê
##ash
ana
nest
##îştin
barî
birca
hembera
mezax
welatîyên
peyrew
kerd
##ido
goranî
esp
##ifer
legel
135
adolf
ajansî
madagas
sînan
nexweşên
heyvan
##kow
##weyekî
malbatan
babacan
nehate
kompaniyên
laj
olîm
##ukt
kiliç
wêneyek
kurtasî
nekeve
veguher
firrokeyan
nizîk
nizim
##ınar
îdam
1892
leza
bernard
xanîyan
ebûl
lehengê
##انی
nezan
fêrbûna
rusya
birêvebirin
birêvebirina
bismil
bextiyar
gotûbêjan
ahmedînejad
abdur
bozarslan
şiwan
##firoşe
mendelî
zemînlerza
bush
bapîrê
girûpa
pişikdarî
merîwan
serexweşîyê
gesch
vladîm
azarpêr
duwem
beyanameyekî
danasîna
karîkat
elcezîre
4ê
east
fû
gûr
geylanî
kerî
kre
soh
what
xay
yon
##bak
##ias
##şah
##kana
##dc
##xeb
kuta
litt
##eni
##îno
kurdîstanê
##iyat
dak
##ony
##eyat
##endeyên
derkev
rojeva
têl
yekpar
##êdanê
karibin
malik
stû
peyî
devrên
mirovek
behdînan
gerim
tevbi
fire
159
zarava
hezex
beşdarîkirin
ebdula
dard
civaknas
jêderekê
chry
ayeta
##rie
xwedîyên
27ê
geşbîn
koçberên
komelgehê
alban
holenda
radigeh
pêngavan
şêrîn
çirîya
bandorên
ill
cûdî
bidestxistin
tendirûst
zivistan
zivistanan
kuweyt
iranê
america
roketan
kehrebaya
##uage
savar
penceş
konferens
bulgaristanê
kîlometran
tayîp
proteîn
vexwarinên
kulîlkdar
rawêj
derbixin
bijîşkî
nîjadperest
sersinkê
xîzanê
veqetiya
hüsey
massachus
vediguh
zewîlerz
veberhem
5em
benî
cîl
cang
fun
gm
gîh
kiv
mb
meya
mord
rubey
xaş
xêra
yn
##nitz
##mûs
##uq
##leta
##tiyên
##şema
##xiyê
##jiyan
##çuk
##ère
##حم
##aro
##yat
##ettîn
sersala
kurdekî
herem
berek
veg
##aswataliraq
pirt
birî
birûsk
##izar
##afên
dîdarên
miriye
pêkan
cihêr
##êşê
konstan
##perwerî
##hemîd
daxûyan
neteweyê
hesp
dûra
heftiyê
gihandin
projeyekî
nikola
guhert
##ûbî
dîdaran
geşbûna
htm
mitîngê
îdrîs
grûba
parçeyek
telefon
firokexaneya
raymond
çerx
neqiş
şaredarî
pirojeya
wîlayetên
midyada
einstein
kurtenav
cumhur
istanbulê
terîqeta
asûriyan
remedanê
polîtboruya
lozanê
##ště
beşîkçî
3ê
9ê
cîv
cida
fîk
fetah
gib
nacî
osa
senter
tene
wol
yü
çik
##nek
##uyanî
##sûr
##sînê
##cik
##yer
##yeya
##yye
##ûta
##gay
##ند
##çeyan
##ст
##yakirin
herfê
##andibû
berna
hati
hatib
##ebah
dere
rojiya
rojeke
##itê
##izab
bef
##cha
peyivî
sûreya
çêkirî
##reich
dawid
muq
şeraf
peywendîyê
dadperwer
nebez
diyare
civaknasî
nivîskaran
bajarokên
##ixê
romay
kongiresa
pişikan
peyamê
laur
nemane
##cêfî
keçan
kurêt
2005an
romanya
dostanîya
tenik
phyl
borîya
bavêje
zagonên
1899
1897
newroza
lîstikvanên
pozît
birinc
êşkence
toleyên
şerefnameyê
nakokiyên
destwerdanên
şaredarên
robin
kulîlkên
serhejmarî
tendiristî
hêsantir
dabirrayîyên
şileya
english
nunerên
##mirov
çapê
qehrem
berazan
bikarhanîn
alfabe
sîdekan
farqînî
hewarhatinê
berbilavî
hoh
kandî
lü
nabê
ore
##buch
##vekêş
##dk
##deha
##gên
##çan
bikî
##ats
##aliya
##etîyê
##etten
##andîye
seroktîyê
racî
##dex
giranb
##gihandina
karger
##ität
male
sta
hatinê
tirkên
arvan
##chy
bibêjim
gotineke
marie
hezkirina
rêze
ajansaaswataliraq
tiştekê
selman
gencên
##jimar
oto
demokratî
28ê
26ê
open
bingeheka
daxuyaniyeke
metrop
pilem
shak
sekretêrê
##lari
ramyar
kilik
kilîsê
wêneyekê
reviya
deshilat
rêjîma
alozîya
wergerandina
firrokeya
veşart
enfalê
hokara
şêweyekê
qasimlo
şêwazê
axavtina
nepenî
zemînlerzê
ingilîzî
kirmaşanê
labor
bersîv
tundûtûjîya
lokman
pasîfîk
dîyalogê
berdewama
hüseyin
2px
asa
aras
eman
eug
gavan
lac
niq
pic
tinê
zevî
çesp
##birina
##ranên
##tayê
##kat
##fam
##fîl
##ος
ded
lian
##anderan
bere
basan
kirrîna
book
salona
##rod
karînên
emmer
bêkes
##kirna
kopa
dihes
##opên
##ibîne
polanda
##duyan
behsê
gerok
##aph
##diště
ebb
gulî
hefteyên
china
25ê
amadene
dêrik
melek
berfer
##ixbar
##erské
dikîn
yekîtîyê
radîkal
qurana
girtiyan
girtibû
build
##bendê
nîvk
arîşeyê
bidim
tuncel
core
eşîreta
biçûktir
îlaf
çûnê
zîndanên
##evanekî
şerrên
rezbera
nîgar
ferhengê
moqteda
rudaw
sûpayê
avahiyê
karîger
xanîyên
mûzîka
##ophyl
gelawêja
sindoqa
pêywîstî
axavtinên
silopiya
edebiyat
sifir
wizeyê
perliyamenta
raperîn
zebeş
abûrîya
vîdyo
endezyariya
##şehir
derûdora
zewacê
koleja
anatomiya
kromoz
statîstîkên
uherské
global
mehsertê
##iformes
lêbihor
herçiqas
mûrad
biqelînin
hêminî
hradiště
dostoyevskî
cro
ccc
doj
gerê
jak
lag
pana
qîm
relat
wet
xi
##beh
##rev
##sc
##sf
##şînin
##carî
##ûg
##xi
##اب
##üs
bigir
##elph
##etts
heqî
##rap
##ami
berdê
##emmed
##omp
derenc
bob
boş
bott
anarş
pêşde
##îşka
biratîyê
karkirinê
kesana
binax
ersel
##afîl
xwên
duqolî
##sîmê
navçeyek
hewldan
##ici
çêbikin
poly
aso
asan
nêzê
119
2009an
teqandinê
nakeve
nehrî
##uddîn
mabû
diyarbek
##arinc
##angê
gihêj
amadekarî
kele
reşemî
dirêjkirina
efû
rêkevtinan
komelgeh
29ê
##kefta
50px
nirxandina
nekev
hunermendekî
rûniştinên
math
keştiya
resul
qirkirina
hûrkirî
wextî
nazm
anatolyayê
peqînên
1885
bernivîsa
televiziyon
çinar
mayinek
sêşembê
sîstemên
niştecîh
xatirê
zextên
zengîn
honaka
language
medreseya
propagandaya
nerazîbûnên
alexander
navnîşana
rûerda
teqemenîyan
##asebeta
şêwirmend
hevûdu
ebdulletîf
nymphaea
vladîmîr
bn
bana
ewey
fur
giv
hît
nij
nera
past
pod
porn
qera
sîs
xîv
çob
şaw
##reh
##news
##hûr
##lib
##kut
##dr
##ен
##erat
dit
biçû
##sten
##alon
##avêj
serhad
##andra
berç
##eddafî
##orum
baek
yah
##imar
##dev
pirtu
encax
##ents
mezinbûna
hewldana
kord
derbendî
nîştec
civiyan
kêmasî
bakter
##iff
şandeke
grûb
rêveberên
1978an
heyeta
chi
amadebûn
tekezkirin
24ê
çûbû
dîdarekî
keman
vegeriyan
buwe
bingehekê
hevkariyê
##şembiyê
peyvekê
millkarî
fren
baskê
baskên
dijwartir
bernameyek
2013an
romannivîs
solo
wergerê
anatomî
qirt
qetilkirin
zagona
senar
şûnwarên
qaymeqamê
bidestxistina
şiklê
dewlemendiya
##basit
nesax
rûpelan
dadwerîya
sky
xewna
suleyman
piroses
euro
hikumetê
perçeyên
ruhê
kefer
sîyasetvanên
pehlew
vexwendina
gihîşt
yewnanistanê
kitêba
voa
qoretûya
hûrd
video
şukur
lyga
serokomarê
qeredaxî
kargêrî
hûşyar
yûnanistanê
benth
cry
dj
fus
gêr
gift
kalê
ml
olan
sr
soma
toy
zîyanên
şû
##iî
##iat
##iidae
##muş
##uye
##lon
##seng
##gîl
bider
hex
hegel
##ayn
##işîn
##unt
destbi
destnivîs
salar
salîya
##êze
##ewayê
elşêx
ragihandîye
erzan
mezre
bêg
turkiya
nivîsar
##ote
##lear
partiyan
##uter
leip
franç
serokatiyê
grand
vîde
nexweşîyê
federala
xaned
desthilatên
##guhêz
mîrza
têkilîyên
kolan
şanku
diristbûna
monarş
derdixin
dijwarîya
exp
##ross
rolên
pelhev
golan
senatorê
tankan
derfetê
hevpeyvînek
peqînê
1880
1881
dengbêjên
edebîya
fikir
ziyanek
pîrozbayîyên
nûçegih
green
##jînal
şêwaza
2019an
çewlîg
mexmûr
qurbaniyên
hikûmetên
institut
kerboran
ditirsin
mişext
pîkolê
folklorî
sûcdar
species
reforman
rojnem
dengderan
xarpêtê
dijminê
kadroyên
divabû
erselan
aa
giyanên
hana
jorî
mom
over
pîra
rike
sap
sob
yel
zekî
çayê
îx
îfa
şep
##bag
##reya
##ztin
##oi
##dîna
##és
##aroj
ligor
##att
##aven
##rag
##ayîyê
##emon
serokeş
##işte
enzî
goh
##êzên
gire
yekta
##beg
##mane
##aksî
rêyan
gotîye
##bûyan
##efil
xwera
çendî
koendama
konstant
rûv
çêbibe
civate
mehr
##pert
xelîlê
esil
sema
îsp
şertên
proton
berpirsyarê
##astî
şarist
kuştinên
nexweşan
chica
melik
##lie
sorex
pêncemîn
pêncşembîyê
temyî
mamostetiyê
sinorên
rolekî
delta
bateyî
teqîneka
senat
1893
1895
lîga
antolojiya
hook
şewitî
planek
nemaze
didomin
akademîya
çerxa
bermîlan
hewildanên
cenaz
rahînan
zozanên
zindanî
hemahengî
behskirin
dabimezr
ingilîzan
şabender
ragiahndiye
şemrex
qehreman
grûpeka
birayane
têbînîyên
necmedîn
zehmete
##otherium
yayınları
yavuz
platforma
tekesta
ecêb
lajwer
massachusetts
cand
cos
fri
gt
hap
iph
kind
lé
loj
pos
vinc
ün
##vat
##şel
##yemê
##ûv
##dim
##pik
##jenê
##fon
##fîz
dimê
digirt
##ekey
##enû
##atos
kurdo
##amed
##eşa
enter
nefel
##ado
koman
kargehên
hembêz
binavê
bea
##bûl
are
dengdêr
persan
ezirg
erdî
dildar
guhandarên
kûrd
rêziman
hespê
##arinê
ehmedî
newt
amadeb
herêmeka
##lich
dikşîne
koreyê
qert
bidine
babîl
tîmê
şîrket
oldarê
qadên
monde
ramyarî
helebce
tendûr
fermanberên
teknolog
pêngavê
teqînekê
wasit
stêrka
##burgê
astengan
şandine
ebûbekir
feqî
cûre
otombîlên
evdalê
xwedawend
nabîne
bozyel
berpirsyarîya
great
hukûmetî
bijîşkiyê
veqetandin
hesabê
avedankirinê
mahmut
##optera
sasaniyan
layen
sedsalên
ubeydî
cihgirîya
veguhaztin
balefir
sindoqên
röm
elezîzê
fazil
bermahiyên
mêvandarîya
stekana
beheşta
f4
keyên
nom
nawî
pont
qîr
ryan
rovî
sis
toz
tig
vis
wr
çeng
îtî
ûkrayna
şap
##bît
##beyên
##ring
##uy
##liyament
##dt
##giz
##ines
lil
jiy
serket
##weiler
rebî
##esh
anto
neçû
paran
pêşiyan
rêyê
##ulan
##ayêv
dine
binarê
##ente
çareyek
cihî
hinar
gorê
##oplast
werg
çêbike
redaks
direvin
##ogale
esmanê
145
navendeke
terk
##dullah
beşdarbûyên
rêvebirinê
înc
xanedan
mêvanên
chan
hewalî
obj
çalakvanê
bajêran
paytaxta
qerebû
qedeha
demokratên
arêşeyê
albanî
seba
sirûd
latîn
rêvebirîyê
mamostetiya
kompanyayeka
sîcîl
meşa
seferên
mîlyar
450
sipasîya
herdemî
xetera
bahsa
1999an
cewerî
boykot
estim
erdhejên
serwerîyê
1979an
awistir
gevera
rêzefîlmê
##îtanya
sabir
zordarî
prosesên
perçem
xweseriya
pêngaveke
snow
matematîkzan
heyvên
sîtoplaz
weznêê
rûxandin
serpêhatiyên
hesîçeyê
mirgewer
teslîmî
gehişte
yekrêzîya
destpêd
qacariyan
sirşîw
sadsale
binihêre
cihêreng
xîvet
clar
giw
gûz
kedî
miyan
mab
neder
rîya
rît
sund
sûs
sîng
weka
zaman
çeq
çaç
##rim
##haq
##i̇
##mn
##zayî
##liyê
##siyê
##şev
##waq
##fest
##eros
##irêj
dewa
kurdek
berbend
dagirtî
hatîn
ans
##bûnek
yekeya
elizab
hemedan
##usî
##efî
devî
navçeyan
##kira
hann
rûdaw
demax
perdeya
dans
mux
hêmanên
tevlê
aşk
abad
yang
kujer
adn
dadmend
berhemeke
kuştine
##koloj
##ipt
astana
bombeyeke
meda
under
ayîn
vedix
pêdiviya
qezayê
princ
filîst
filîp
bendî
kameran
##oxê
sirb
keçeke
cinsên
mecl
masiyên
şewata
dewrû
şermizar
rights
elheyat
dekat
penîr
pûşper
şikefta
ewropaya
cehzer
statûya
sermaweza
bejna
dabirrayî
rêveberîya
raperîna
bêhnvedana
mohr
îskenderê
ayetullah
psîkoanalîst
rabigihînin
ohio
pentagon
nêvxweyî
light
muddeta
direfş
orşelîmê
romayiyan
bamer
cîya
eth
halê
keft
lec
lîsan
maq
ple
vor
walî
zü
zad
şîra
şîlan
##reyan
##miş
##malî
##oidea
##uber
##şid
##qal
##ين
##err
##ereş
kud
##rawî
##mag
##ildan
reich
kirye
deste
##ivan
komsiyona
##ahiyên
##elata
##gerîne
dibih
dibare
arîk
dubar
başkirina
avên
avayî
parêzerên
##kevir
esman
bilindî
leop
grev
axên
daxaz
weşandina
nêw
daristan
daxuyakirin
pîrozkirina
hevwelatiyan
asayîşê
tux
##spî
mêrên
andr
bingeheke
leşkerîyê
rûpelê
xwestiye
pdkê
neman
sebeb
bangew
shar
rawestînin
wild
mecb
bilbil
japanî
kişandina
radibe
parêzgeheke
abdulla
sivîlên
hestiyên
dişibin
keşîş
efrînî
weşanxaneyê
semîr
pîvaza
kongresê
baştirkirina
îstgeha
azadîxwaz
anatoliyayê
record
1994an
libnanî
bixwin
kundir
sîyasîya
motor
sîstemeke
kultura
lingan
narîn
portug
sakson
meksîk
qismî
hiqûqê
pêşeroja
veguheztinê
danîmarka
giştpirsiyê
##nişîn
sirgûn
francisco
sersinka
xwecihî
werdigirin
gerînendeyê
##bridge
çemçemal
estimate
beta
dîyye
gang
klîn
nîkol
put
pant
sarî
wuz
xos
xetî
zo
îmamê
##qil
##wel
##ênên
kulu
jib
sergey
hejî
##eyîyê
berend
bast
bacan
##unî
##îyekan
alayên
##ikaya
rake
##iştê
hevxem
##akia
##îlk
karanîn
kargeha
binirx
dibine
bihayê
bihara
hêzek
xwîşk
peykerê
##erap
çende
koy
redkî
##ibûrî
polê
assan
helînê
perry
îsotê
2011an
prop
165
mars
polîsekî
milk
13ê
misrî
bilindtirîn
eşwaq
merkel
teroraneya
atol
newşîr
înter
xelatkirin
taybetiya
reşad
meletî
projeyek
giringiya
pêncşembê
xwedîya
##spar
komelgeheke
kolana
bingehî
schwe
cindî
reviyan
şewatê
riwekê
vekişand
sizadan
organên
sefewiyan
weşanxane
çeman
rehîm
sedeman
avahîyên
akademîk
hemwelatî
rojhelatê
rêzefîlma
angela
demarexaneyên
zordar
elmanyayê
xinûsa
guncavê
zewiciye
hijmareke
giyadînê
fedîle
xiristiyanî
elcibûrî
zeynikê
yarîgeha
elsebah
fehm
gihîjte
pîtandina
republ
kîtab
wolfgang
tîke
radiweste
stokholm
cindirê
flavius
katjimêr
wilayeta
rîpel
konstantin
leipzig
assange
bö
bem
cult
iris
khan
ler
pf
pac
qunc
rif
werên
wien
şit
##mîr
##metî
##abe
##terî
##ketê
##xanî
##jeyê
##çikan
##ekin
heram
berên
xwedi
baqube
##ezan
##azin
anafîl
destek
komane
##ewanê
karat
karakt
karvekêş
elz
##itîne
hêzdar
belam
cihwar
sûreyek
parêzerê
rûberê
xudê
sedat
##lege
129
101
balkiş
16ê
serokatîyên
dilîst
alîkarên
gihandinê
cham
nedi
##spora
avêtine
şîrketa
pakîstanî
tewawî
demjimêrî
hunermenda
i̇ngil
bûyereke
##ylvan
teknîka
pevçûnê
stranbêja
qelad
îşkence
çiqasî
kîmyawî
ebdureh
ragehandin
romayî
pêwendiya
farsiya
lingên
xulam
şêwazên
group
fakûl
mulk
hesaba
qilab
türkiye
filistîn
lehengên
sirûcê
falco
kezebê
##depend
gurgumê
şanazîyê
tikrîtê
fringî
alternatîv
dimilkî
schwarz
vedibêje
nîvkada
bam
femîn
fox
get
hêne
hipp
jorê
ll
nix
pri
trî
ukrayna
vîna
çandina
##ralî
##hata
##sat
##sazî
##şînê
##05
##kurt
##dûn
##xay
##را
##68
##ince
digirê
lis
##enivîs
heris
##okek
berguman
##enderan
##ojen
aliyekê
boston
raj
anim
gog
##berde
##ules
karek
##îteyê
dibir
##daşt
stadt
##aff
##aşimî
##cho
bêpar
##gog
diha
rewşek
polis
sedsal
tayîn
partiyeke
esker
qanûnek
##dixe
155
bêjeyên
êrîşekê
pîrên
guleyên
akyol
dawîbûna
kujtine
##ûşê
xaniyên
korbenda
otto
##eps
şorbeya
##dere
kemp
salihê
jung
##landa
pilana
hunermendan
kîmyewî
1894
##selam
kongresa
reportek
telefona
zirar
karmendan
fêhm
agahdarîya
stêrên
sound
sosa
gehîn
beyannameyeka
buhur
akademîs
##ebûyî
kund
kapîtal
1987an
sêwre
mikur
wekhevî
dendikî
lîzvanê
kesayetiyên
waşîng
bûdceyê
şikev
poloniya
sêdaredana
meksîkê
philip
piştgîriya
hormona
nimûneyên
christian
serxweşîyê
merasîmê
suheyl
biharbêh
roşan
komûnîst
hingiv
johannes
kariyera
destxweşî
trafîkê
bêrîvan
liangora
aẍ
cog
gama
hi
jong
soc
six
xaw
##rût
##liya
##qman
##kh
##yla
##yse
##çend
##ğlu
##eriyê
##iner
##indî
kuf
##eliya
##elîm
##rawe
##ayiyê
ald
##ury
derdê
nejad
desthil
komon
komelê
wêderê
##îska
##akar
birayan
hêzêt
bêkarîyê
peytex
hinde
##tirî
##laq
##lage
derbar
pereyên
daniş
sêyema
şerrî
firot
teqî
mareg
marcus
nûçeyeke
nasa
1988an
beşdariyê
gulistan
madî
çiçek
babîlê
rêxistinan
vegerîya
anders
xweşîyê
xweştir
hizrê
hizbî
parlamena
mijareke
daxuyanîyê
keçikê
nuke
mamostayê
baden
vekişandin
êlih
santa
rehman
1997an
300px
helwestên
rexneya
emerîkayê
pîrozbayînam
izzet
tûnd
lêpirsîna
pîşesaziya
sym
vekolînê
brown
rêwîtiya
polonyayê
jacques
depart
rojnamegeriya
birawestîne
şexs
demirtaş
nûjdarî
tixûbên
axiftin
hollanda
fêkiyên
binyat
armeniya
xelfetî
rasteqîne
elesed
bombebarana
materyal
rûnbirêşkê
accip
xijendeyên
otomobîlê
little
françois
îfade
dna
ful
klor
lama
mifa
now
rand
tox
vok
zuh
zava
çewa
##bit
##randin
##ues
##sheim
##tîyên
##şik
##kas
##kre
##wîr
##gum
##pal
##ка
liter
##ello
##eto
serg
pêz
pêrî
yaq
rakin
rabir
vegotina
salekî
gundek
parez
demû
##ihab
xwiş
duşembîyê
duşembê
inna
belaş
##kird
##kaiser
dihere
##iband
zanîngehan
asmanê
##leq
sêyê
baker
pirsek
teqîyan
herduyan
nûçeyek
bikartîne
##ibûye
##odont
sporê
derbaskirin
heften
astekî
asteke
payiz
medr
apec
çalakiyan
ayna
famil
prîn
têkiliyê
surî
kolikê
tundrê
germanî
nirxî
metod
çavdêrîkirina
aramiya
parlemant
teknîkên
firrokexaneya
daxuyanîyeke
ferhengên
morf
acon
pîşeyî
tanrik
nifşên
îbrahîmî
qayim
dixwestin
stêrkan
cudayî
kontrolkirin
1865
##ucc
bigh
birêvebir
sîyasîyên
yarsan
michel
ragehandina
lîse
greg
bîrdoza
platon
sîyasetvan
dragon
yûnis
##amerika
dunya
astronomên
dikevite
tedaw
inform
grammy
pîkola
reklam
vladimir
hezroyê
bawermendên
çûyîna
dîvrîgiyê
fîlîstînî
stalîn
berpis
kalîforniya
salvador
ozçelik
şovenîst
nukle
makeqanûn
school
tanrikulu
ciyên
dm
dod
gag
hetê
kengê
linc
nîl
naye
paya
paç
qîz
qata
rut
sic
sûra
zorî
ço
şûrê
##bidin
##oe
##tl
##jar
##üt
delî
##ettin
##rda
##amerîk
berîya
berzanî
##edîne
altan
kirch
##imedia
neguher
destkevt
##bûnî
giranîya
elam
tirsê
emîrê
arist
tema
persp
mud
direve
teva
balek
nagih
nach
mafî
france
bikare
rastîyan
zimannas
pêncî
xwende
selim
keleş
bizin
alîgirê
dêrx
dêrên
bajarvanê
çalakvanan
parastî
desthilatiya
malbatek
bikaranîne
hiştine
şaneyên
baykal
rexê
schw
tewer
bikit
peyveke
sher
axaftinê
fermanên
felsefî
dewsa
nekirîye
şêrp
mîlîtan
borîyên
saxt
benaz
digihe
otomobîlekî
gefê
keyban
mahabad
hêrişê
penns
digh
dadgehan
buha
aqilê
xewê
hevpeymanîyan
##rence
reşemiya
jacob
necefê
çeteyên
kujtîyan
şekirê
qefqas
hiqûq
bune
terxankirin
cezayir
berbijarên
qewimîn
kemaxê
seleteya
dîvrîgiya
efxanistanê
tropîk
exlaqî
nizanim
tohmetbar
dengeamerika
brukselê
ynkê
diyarbekrê
850
bîb
cy
dram
fant
gay
hîv
mr
mûn
pend
ryal
vii
wij
ypj
şiya
له
##neh
##netewe
##ić
##uç
##uke
##lot
##tra
##terê
##ces
##pas
##form
##ар
##ás
disa
diels
biv
depê
lit
##înk
serm
beroş
navûdeng
regel
deriyên
derxin
##asên
##asib
good
giravan
##beck
barîna
karekê
karibe
hemi
lêker
##ental
duba
bêb
pêkd
##tîfa
girêdanê
helep
##alaya
cîhekî
civatî
1200
balîy
naçe
mafekî
leo
##obî
bremen
bazîdî
jêra
chap
##agus
dirêjkirin
ayetên
aygun
dîtinên
dimirin
heyama
piştevan
bux
manch
gengaz
hesenqel
nirxa
gengeşeyên
##lands
##landî
fermandar
şîa
revandina
kompût
sêşem
împeratorê
grûpê
dilêmî
patnos
josé
peywendîdarên
asîmanî
1996an
qels
penîrê
1867
şerefxan
şagir
rusî
tabl
##belav
avrêl
transl
tenduristî
daxuyand
qutab
perwerdeyî
qise
çolemêrgê
pênasînê
nikaribin
asmanîyên
gabri
awistraliya
tundûtûjî
hiqûqa
şirovekirin
masûlkeyan
fezayê
folklora
derneket
nûbihar
pêşniyaz
glukoz
sigmund
grubên
populer
hevzayend
serferm
melzemeyê
awustriya
serçaw
bottom
accipiter
pennsylvan
2ê
cund
ic
jers
kişt
län
naş
oks
peng
qela
rel
taze
uefa
vah
xûm
xûl
xula
çan
çêj
ûm
ûs
şîyana
##riye
##hor
##uck
##lk
##vo
##vel
##çîn
##ıld
##irn
##iri
digê
difir
##înal
heryek
ewle
##iki
##asi
enbarê
komekê
##bûnên
##îşên
kari
beis
hêztir
bêx
hinda
beşdarê
dihund
xuda
##opîne
dawud
tayif
cîhên
behrê
hilbijartî
##wendîyên
mehane
128
esasê
çareserkirinê
margar
lema
lepus
erdîşê
nasnam
destpêkî
dadgah
şareza
rêzan
rêzeç
romaniya
pêşwazîkirina
heynî
keleman
dirêjtir
mediya
kort
mîro
xirap
têkildarî
tîrbûn
bedlîsî
saman
##ordar
oldarên
îraniyan
##uklu
karbidestekî
tewanbar
mûçeyên
i̇brahim
budc
harv
museum
##torên
##evaniyê
didim
lawrence
pisîka
teknolojiyê
bigihîjin
firrokevan
nîg
qirêj
jîngeha
##rûtê
domîn
##çêra
dagirkirin
kendav
tengas
elhaşimî
xeze
pergalê
deştê
hilweşand
cells
pîrozbahî
remzî
1878
rexneyan
bihêzkirina
pîrozbayîya
2016an
pêwendî
deqeyan
kewçêr
qubadî
efserek
zanîst
komputerê
##bicîh
heştê
pêşbaziya
cabir
zaningeha
herrifî
derewîn
maddeyeka
ortod
bardîzê
çerçoveya
major
deqîq
komstêra
academy
yılmaz
geschichte
##dc93
f4dc93
elizabeth
demûdest
bîh
bîlî
cig
cep
crist
down
gall
kdp
lyn
mûr
naf
rib
tür
vebûna
wah
xetên
xedî
xûla
zap
çîr
éd
îk
îma
şix
##uka
##lak
##ûj
##wil
##öz
##éd
##ич
diman
digo
lim
liq
serêdana
##weyên
kurdin
##iyatr
##edit
##anîyan
##ilên
daişê
pêgîr
##ebanê
dergeha
dertê
rabûn
angu
nej
goft
desteka
sallî
têxin
pirê
pirsî
kesayetî
elr
embar
welatiyan
##dîtin
avadan
##ece
##axan
##anewe
kerr
mirovatiyê
##îhatina
nivîskara
##ump
xurd
sazkarîya
##otis
asin
pereyan
hilbijardeya
##ogl
amaj
kombûnekî
esasî
fermîyên
nagire
şandeyên
mesaj
franz
##astin
zanebûn
siyasiyên
bikaranin
hezîran
brez
##xistinê
feras
petra
şareban
##ksel
neteweperwer
daristanên
kûbayê
tişteke
drêj
selc
artic
melan
orkê
krîz
xalis
mîrz
çîroknivîs
zanistiya
filehan
laud
eyîyan
oliv
leşkeriyê
schön
teyr
demjimêra
nekevin
nuqt
sosy
parlemena
bankên
fîlmekî
fîlmografî
conn
xirabê
elektro
cerde
kewçêra
reportên
360
gilînam
antar
keyf
serbazan
cameron
1888
3000
balafira
slavî
linum
gimgima
serdaneke
rêzefîlmên
kodet
elementek
akincîbûna
ûrartû
saxlemîya
sakik
lîmonê
hundirîn
nîqaşên
hilbijêrin
ataturk
wênesazên
##çerx
payîz
juan
gêxiyê
reporteka
suryaniyan
dipeyîve
kizil
portûgalî
rîboz
federasiyona
pelhevîr
iphone
act
bh
cah
eyan
fîş
hya
jr
kelat
letîf
neser
pall
tb
tûş
vatîk
zenc
çad
şîyanên
##non
##lora
##ses
##tman
##torê
##vedanê
##demê
##gayî
##ير
##ли
##erom
dianî
biafir
##enos
##enia
serp
serekê
herz
evr
##îker
daq
##omen
##işin
##ebendî
kirîne
kirîna
##ûre
##imez
ensar
destgîr
hevîr
karine
ela
##îtiyên
bing
biner
##entê
independ
bellam
hilarî
mirad
gelekên
##oslov
mirovanî
##ibî
demaxê
pert
danust
##wendî
dîrokeke
sudanê
marc
mafan
theory
ferdin
berhemhên
misso
gulebar
neteweperest
ebdulhemîd
merk
terorist
xanen
kelînê
kelha
30ê
paye
melîk
bombekirî
guherînê
23ê
water
tîgr
muzeya
famîle
sait
ciwaniya
milliyet
nucêfî
mustela
sosreta
lêkolînek
wergerandiye
bavêjin
gold
bandoreka
bizavkarê
xezalan
memo
psîkiyatr
dixwezin
hêrişeka
1876
parzûn
rexneyek
kadir
zordariya
europa
komarîyan
zengene
kirdkî
porto
tixubê
rênas
behreynê
êzdiyan
terîf
qehweyî
zutirîn
pêşvebirinê
cendekên
giştpirsîyê
##ovîç
şefaf
fistiq
atmosfer
kemaxa
çivîka
wêrek
rêzimana
blue
carolina
beryacî
berîtaniya
zürich
saksonya
xûmênî
ata
cit
dox
kîş
kalan
lane
plast
welî
yol
##banê
##badê
##ball
##rêj
##iß
##zanan
##oxan
##odi
##leya
##sînin
##sum
##êm
##top
##veya
##şun
##kekî
##dor
##derên
##gut
##هك
##irk
dikî
##alix
##alîzm
##iyel
##amezr
berîn
dap
daket
daxistina
##omon
##îrana
##oln
##êriya
gele
amst
##girit
wane
karkirin
karev
##itter
bint
##ijînin
stor
arjen
##chten
welatekê
bêç
pêkbînin
çareyekê
kercew
endon
##ople
çêx
cîhbicîh
xelet
îslama
17ê
149
produ
ebu
şêweya
sudan
teref
meselê
leag
zaro
yaneyeke
hezkir
merz
hinekên
curbec
##angh
space
nexweşxaneyan
artişa
heftane
sektora
roger
080
##asyonên
dezgehan
xweşkirina
bingehan
tundtir
virde
##idaceae
rawestand
kişandiye
conc
##schaft
delîl
qiral
digihên
605
xezn
sistemê
peqînan
1883
cild
bêdil
##önü
hemwelatiyan
birêvebirê
blog
kevneşopiya
amadekariyên
qahîreyê
ûdiye
şeqlawe
lingê
gunehbarkirin
göt
gök
sûmer
datînin
serkirdeyekî
biqij
rojnamegeriyê
mezheba
xizmetguzarî
fizîknasên
hîlmî
qayîdeyê
şideta
hîpot
perlemanê
kolombiya
yekgirtîya
aleksander
mîhrîcana
tokyo
venezu
collection
elhesanî
çeçen
biguhere
biradost
##cephalus
siruştî
anafîlaksî
jersey
league
cev
find
gaw
gast
kül
mog
nir
rid
river
sens
tud
tag
vîn
wata
work
xiş
xenc
xolên
îvan
##rec
##nosê
##tus
##wanên
##xel
##fireh
##ği
##areta
##weha
beresor
##iştinê
engel
##ûmena
pareyan
yekîn
##êdê
##îştina
bajer
dêv
karzay
kesû
encycl
##gehekî
##ush
erich
belj
bêst
cihanb
beşekê
encaman
##eneg
xeleka
about
paşnavê
şandewerê
franco
kevj
isp
erdên
erdoğ
137
jinekê
rêzgirtinê
şêxmûs
##îbê
nexweşxanê
##try
22ê
dixwend
qedeh
qedandiye
pişder
prol
têkiliyan
##encam
pêkhatan
eyşê
silo
zeravê
schm
tarih
pileyên
kildanî
teyrê
bernameyan
girtîgehan
##egîh
##dehem
teknolojiya
sift
meym
dînaran
phot
pêşangehên
peydakirina
nivês
pêxim
cambridge
cewh
##bilind
your
dengbêjê
zilamê
zivir
nawdeş
dilovanîya
reftarê
takek
brook
somer
savarê
sîvîlan
şopa
qehwe
laleş
heywanên
împeratorên
sarkozy
karsazên
albumên
sirgûnê
payîzê
sikildan
serpêhatiya
fabr
suhr
şêweyên
##sitanê
tecrub
bîngolê
bardîza
efrîqaya
diqewimin
eksport
doktoraya
dream
child
qoyona
steven
rikaber
sylv
dardekirin
antoine
newşîrwan
karvekêşana
lincoln
ferdinand
ath
flam
ip
lak
mif
nç
odê
pé
pist
pîz
rûmetê
sac
sisê
sokrat
tz
that
xiyan
zane
şarê
##bra
##bah
##bla
##neteweyî
##hêş
##tes
##tis
##şîna
##xaya
##fb
##fo
hef
##iyara
xwede
##edaran
##tinî
##îro
iraqîyye
derxe
anne
##ader
##girîya
girdek
hevbend
hevgirtî
##îşe
karwana
##itum
##itesi
hemedanê
piştguh
bihat
belek
dîj
##sîra
bêş
##engan
cihek
parêzî
koyê
18ê
##ogeton
civatên
107
sêwî
şervan
berpirsan
zargotina
kevirî
jinav
têkela
cardin
terorkirina
##thaceae
##kaniyan
hewal
taybetîyên
bombeya
xurtî
giringe
edhem
##kota
kore
krp
ayhan
muhemd
24px
damezrînerê
060
vegerandin
bedirx
navdara
bayiz
kambo
##oyo
dipara
##îyekanî
wêneyekî
qonyeyê
denmark
deshilata
desthilatdarîyên
mazda
musil
aloziyên
##ayetîyê
wergerandine
##pênc
neckar
nizîkî
more
keno
çira
kewê
hamîd
johnson
pêxamber
burma
rehma
nazik
patnosê
serjimara
1990î
psîkot
danasîn
ezmon
1869
dahatê
skand
kulîlka
الم
dêrendazan
mastê
1976an
neşter
kopît
sîyasetvanê
hotel
lîstikvanekî
bulgaristan
bombbarankirina
hêniyê
proteînên
çermê
germahî
kêmasiyên
sezona
îzmîr
bijîşkên
jeff
pexşan
ditirse
firoştina
kongra
serkut
desthelata
floraya
xirabe
ayindeya
anadolu
konfransa
nûbiharê
sêmêlê
pêrtagê
karebayî
gîtar
legell
yekparç
osama
hevxemîya
cindirêsê
aconitum
elrubey
biqijilînin
banî
bîrê
blan
ebe
firin
gw
gîyanî
ich
klu
map
pon
rho
xêrê
xetê
şemê
##nar
##mu
##uyên
##qam
##keke
##kiyan
##cas
##dey
##ية
##inda
diweş
dene
##elin
##aleya
##eti
##iste
##andana
##edi
##edes
baqî
dadî
##esen
##eze
salin
girl
##naw
rêb
biro
karîne
hemwar
piştiv
##dap
tirb
story
bikev
##usan
arc
bêm
pêkhata
dijeten
techn
##lac
kost
##yang
lîstiye
##otan
helo
muemer
kurşun
behram
diriş
tevkuj
106
firîn
nag
herwsia
nûçegîh
nêwan
netewey
kûçik
dûp
dikarim
nivîskareke
chen
champ
bajaroka
050
federalizmê
pêdiviyên
xizanî
xizaniyê
malbatî
mîredê
##sant
îmkanên
babeta
şîranî
vegerîne
##icht
daxuyaniyekê
dozên
dozger
çavdêrî
bernameyeka
holendî
pêşketine
qedexeya
hawrê
hilwestekî
dînam
hîwa
dabeşbûna
panetta
êrişê
lezê
nivîşkî
rehet
xwarû
illin
elektronan
1995an
hilweşîna
wikimedia
gerdûna
balafirgehên
nermîn
xortan
broad
difik
rêwiyan
caps
parlementerê
neyînî
raporteke
aktîvkirina
serpêhatî
analîz
çapemeniya
##falz
saloxegerîyê
awazên
desthelatê
keresteyên
bixebitin
portûgal
qabil
fexrî
elektirîkê
dijepeydaker
enzîm
atmosferê
performansa
sîbîr
mûlûl
abdurrahman
ünivers
pennsylvania
missouri
çêxov
abû
dob
eis
equ
jama
kerê
rûm
rules
seha
xûş
##rîz
##riyayê
##ms
##ukê
##sana
##kop
##cop
##yük
##dina
##wêran
##gg
##pf
##ço
##ەر
##هی
##arayê
##ette
##iyot
##eyy
herîr
hermann
bergê
navbirî
pês
##aziyê
##imên
##adîn
##ivînin
amr
barcel
dêl
dêûb
karay
karîna
stûd
hêzana
duz
dut
duzxormato
index
##dîq
çarşembê
hinter
dijin
daxwazeka
rûbera
hêwir
germa
108
117
encûmenî
abc
ezmên
first
siyasîyê
grek
##ksemb
îraqa
##serokê
almanan
balyozxaneyê
balyozxaneyên
koron
025
##ensch
nerînan
kovaran
pişkek
julius
suriyê
fileh
xweşhal
plandan
pêkhatibû
compan
şanon
daxuyaniyên
bendavê
nîva
nîvîs
seydo
baykot
kamiran
tewfî
pass
bilîze
îsraelê
tenaz
tenahîyê
bişew
qiralî
tesbît
qeydên
golden
haber
rihê
rup
nûnerekî
texas
1886
beyrûtê
jimare
zilamên
tîmeka
dêrendazê
şehreza
webs
1879
volume
2017an
pîşesaziyê
teoriyên
kazimî
roket
riwekek
kuştîyan
pêşengên
rêveberiyê
dinirxînin
edebiyatê
lîmf
singê
fişar
şoreşgerên
zîndanîyên
tenduristiya
dahata
bidomînin
gênc
##peyna
perestgeha
sûnd
gustav
dernek
ejdeha
kîmyabarankirina
##tepeyê
etîmolojî
parliyamnetê
anthony
boyax
european
varanus
columbia
kiliçdar
chicago
destpêdike
kercewsê
cant
dyayî
flag
hîş
hawî
jaz
jane
kej
sang
wen
şêrê
##birin
##rij
##rîne
##ness
##merî
##sîya
##tez
##diya
##gat
##xîne
##fat
##200
##çên
##ев
##ão
##iniya
##ekel
##ets
##etus
series
berdaye
bawerê
dawe
##onogeton
kurdistane
##olek
dereg
##ikdar
books
##ason
neol
##adana
têgîn
yekkirina
rêbîn
barandin
birastî
stad
##chin
##awan
##ermî
##axiv
kerdo
kongo
kontir
##ident
endamtiya
weki
##oteles
rojnamê
parliyamenter
hêkên
116
##ingan
ebadî
berpirsîyar
gris
132
oslo
##iqîn
daxû
bêjedara
akam
diyarname
kujtinê
terorkirin
##ipera
newton
034
îndust
zêdkanê
##ardeya
medal
bawerkirin
asayîya
aponogeton
giringa
çalakiyê
çalakîyan
220
qerej
qereç
pişav
270
prûs
çapkirî
suriyeyê
nêçîrê
dolarî
netewa
xwestina
mong
ermenîstanê
tunî
mînaka
bonn
take
operasyoneke
helebçeyê
rêje
hawarê
kompanîya
hestyar
tenahîya
wergerên
sizayan
necat
dînewerî
hemas
beno
digihînin
pîvanê
dêrsimî
pawl
zindana
pêvajo
komkujiyên
1887
estet
reuter
pîrozbahîya
5000
kevintirîn
dixwînin
daraa
kîlo
western
##ucus
mişel
destwerdan
##iales
birêveberê
taybetmendî
gotûbêjên
kirdaran
elqeddafî
turkmanên
têkelîyên
vekolîna
xweserîya
astronomî
saxlemî
richter
felestîn
îngîlîzan
hiqûqî
mobile
dikevine
bikira
eyûbiyan
sloven
sazûman
efrîqa
serxweşî
kaşîf
biguherînin
dirûşma
belçîka
viyetnamê
makezagona
îlahî
ketelanî
mukriyanî
hevtêgihînê
##hukûmeta
mezaxtin
##حمد
hûrdek
balekayetî
benazîr
bîlîcî
orkêstra
üniversitesi
cay
gin
gas
jay
kç
knk
lewend
lût
odeyên
pt
qiya
qolî
reyn
tavê
user
xwaz
xia
yurt
çiye
şangh
##rît
##nt
##hak
##marî
##mod
##civ
##yoya
##ێن
##erus
detek
##stetten
##înayê
##aletê
##etin
serh
serast
heart
herak
hatiyê
derîyê
neust
têgeha
gird
yekbûy
rêkûpêk
##isandin
birc
##itions
lêkerên
dems
##izan
bihuş
hêzekanî
eric
arx
##tîjî
turan
1847
##exana
##oper
werbikin
##ots
parliyamentaran
hês
hêst
121
104
114
##erans
pirsîn
##aqê
yaneyên
##ohîd
têkçû
ferh
gurd
ebdulah
##ips
artuklu
ehmedînejad
newal
chris
payebilind
project
farsê
krem
km2
serekîyê
pakê
##çûnên
bedel
refrand
##grund
##wate
îngilistanê
trav
shin
nahiye
derdorên
holand
holandî
##parêzî
bûyereka
firroke
sinet
necdet
dabeşandin
rizgarkirin
geomet
peydabûna
parçekirina
domandin
îstanbul
##exaneyan
tomarkirina
395
kirîbûn
yewnana
agahdarkirin
bulent
diyala
çelik
1863
1862
1870
şerefname
cihûtî
cihûyên
glover
hevdîtineke
biyolojîk
tarîxa
bêhtirî
##ktîk
guftûgoyên
enerjîya
werbigrin
raporê
ravekirin
şembiyê
şembîyê
şopandin
rênîş
proteînan
serokdewlet
ziwanê
mîxay
aşitîyê
ceribandina
pêşniyarên
danîmarkayê
urmiye
şadîman
dipeyivin
zaniyariyên
keresteyî
macaristan
quds
gûnd
metalek
xapandin
veguhestina
lexder
grîfon
ûgandayê
lîsansa
xedîce
laudakia
##oslovak
curbecur
cac
darî
dûrê
game
lîj
mike
non
noke
pun
qadê
rayan
tiz
yıld
êsta
##bibin
##naz
##hon
##mik
##oides
##sim
##ska
##kl
##kad
##ypt
##ène
##یر
##ор
##بو
##irt
bigerin
##atem
##atîkirina
hersal
##edr
##iland
##omat
20an
##urr
serokekî
kiri
##iko
bod
bota
bûbe
parek
##îsk
biratî
pişti
malekê
##dag
hukmeta
xwandinê
belc
bêl
kert
mirovahîyê
##fter
##rest
dawîyên
asur
helw
civînek
dayk
##oster
qanûneka
hevpeymanê
##kêşî
israr
fers
dibêjinê
merg
sînûrê
hesinî
##odot
cureyeke
kelehê
almanyaya
melê
##ocal
genosî
bajêrvanî
college
armancan
koriya
049
##rian
230
275
demokratik
rengan
mamê
koçê
andre
saetan
jêrî
bender
bayez
frekan
cezaya
etîyye
bersivê
2003an
dewrê
havî
temambûna
tenha
meydanê
riyaz
niştîmaniya
resmî
laşî
zagrosê
henin
hadep
##rûkê
parçebûna
lîwa
ruş
ruf
firokeya
naverokê
simon
braun
topbarankirinê
dixebitî
dadgeheka
hêvîdarin
çerkez
nakokîyan
poem
mişkê
glad
cûrbec
ladîn
welt
merivan
nature
hukumetê
dijminan
dendikên
##ografiya
dabirayî
##firoşin
people
pehlewan
sifre
karbona
biqasî
baqir
##ippi
serdoz
kuridts
##iction
gumgum
oxford
vateyî
pêşkeftina
serleşk
sûnda
ernest
sîxuriyê
tikrît
orşelîm
mississ
tecrûb
xozatê
xefur
efxanistan
efrîqayê
çunkî
geşepêdana
nelson
dagirkeriya
tilbişarê
sciences
kategor
jialîyekî
indiana
tekîd
konstantîn
leopard
beresori
erdoğan
cop
ero
hob
hart
juss
mok
porê
qem
qiş
she
tü
tort
ug
xandina
yane
yûgo
êlê
îdia
şehab
##oa
##tirin
##cul
##yin
##ûrd
##ûyî
##dro
##wor
##gov
##اس
##ль
death
live
##înas
##ely
##iyetên
navar
##îkast
##unde
##îyen
kira
rabig
##ası
anli
salîh
##bûneke
##nah
rêkên
rêyeke
birîf
gotarê
kesatîyên
##ija
biha
tirba
avayîya
##inaceae
##kirîya
##kirdin
rût
rûvî
endambûna
sazkir
çêke
##pirsî
123
balinde
##xaneyî
##xaneyeke
fermanê
şandeka
leuc
ajansan
darbeya
##ione
komîteyeke
hewraman
zêdegav
radik
qedra
nehatibû
vegeriyana
bingehek
zêdetirîn
xwesteka
tunis
sebeba
keçika
corn
mamosteyan
rawestan
tomet
tomatos
îsraêl
mebestên
alozîyan
didît
solana
pismamê
hemayê
morsî
himusê
tespît
zagon
bahç
kendal
xezze
qayil
stranbêjê
deştan
dixweztin
##perestî
astengî
derhêneriya
bêdawî
1874
supayî
vedigerin
serdanekê
taybetmendiya
sêwas
4000
pestan
wêranşar
gurcistan
sendîk
windowsê
hormon
deutsche
rûxandina
danîmarkî
giştpirsiya
hollande
esperantoyê
prensîpên
elbakê
niyasîn
maweyeka
zade
balefirên
miqdad
wextekê
kolombiyayê
êzidiyan
kartol
zawîteya
vediqete
qoçgîrê
ergenekonê
hollywood
kandîdan
çespandina
mecbûrî
amsterd
cûrbecûr
dayî
eine
eich
fifa
other
pût
qin
qîmet
teft
vand
şîm
##risê
##his
##ior
##iens
##ión
##zey
##lock
##sb
##tarî
##tîye
##vd
##kêr
##kod
##well
##fiz
##erra
##ekarên
lid
##atû
serra
##ister
##eyen
##iyayên
##ament
##amus
xweyê
##ûnan
##ayeka
##orex
##işên
##olar
derna
bog
vego
##asy
##êzî
gellekî
têm
hevra
##îser
yekşembê
##ewê
biriye
##yewe
elsa
biniv
##gehe
bec
bees
îrlendî
dîzay
bêmirov
peyîv
sûreyê
nivîsgehên
rûdan
##were
##taj
##exîr
sazkarîyên
sazkarîyan
derbir
person
##yong
behmen
hêlên
dira
##dinê
dayka
azarên
jêdera
rastiyên
beşdarên
berhemanînê
##bour
guleyan
şarişt
guardi
ebdulxal
daristanan
zaroka
nexweşiyeke
înf
heyran
gihiştina
zêdet
soranê
ragihandinên
vedibe
qedîm
nedihat
pirtûkeka
babetê
mihemmed
said
bedî
bingehekî
cudakirin
commun
tawanb
pêwîstîya
îngilistan
roniyê
derdikev
reviyane
bimeş
radike
mekkê
sîpan
exbar
acar
senger
erdêxanê
êleke
burkay
sankt
anatolya
mîtaniyan
rijênê
cilû
jimareya
festîvalên
peymanek
hêştir
1861
1871
1989an
şikestin
gerîll
natoyê
garis
kodên
free
kazax
qamişloyê
swîsrî
pêşinyaran
serdestiya
sonda
raporteka
qubad
boselê
zemînê
perwerdekirin
tony
qilebanê
karbohîd
hawarhatinê
astronomiyê
rawist
##meqam
ziyad
kebab
amadebûyên
vatikan
serbajar
terabl
herkesî
bibîranîn
mirgewerê
îdareya
şehrezayên
pamuk
manevraya
anadol
vemana
merdim
rûerdê
çerçoveyê
zwij
##hhhh
peywirdar
sêmêl
wood
avestayê
perrtû
tawûskerê
qoçgîra
yehya
mamekiyê
pîrhesinî
olîmp
gmt
neqişbendî
çoban
biderkevtin
ebdurehmanê
literat
dihundirîne
ebexê
illinois
mississippi
bayî
doş
doma
hisa
kid
lö
mult
py
pyr
qent
vart
wies
zi
zen
ziyana
îşt
##buna
##niyê
##mekî
##ade
##oen
##tanî
##the
##şew
##köy
##gran
##guz
##fried
##ét
##هن
##ур
##irand
##irandina
##arekê
##yav
digirtin
##ekîn
jihev
kurdit
##iyand
herb
##iyas
##okras
##ayetên
##illo
bagl
##essa
##işkî
derkirin
##ikîne
box
boye
destanên
têgeh
yeksan
##ewera
birayetî
eln
eli
eleg
##îter
##itis
hemê
ster
stady
##gehîn
befr
##nameyeka
belkû
bello
mezher
başbûna
peyivîna
çaran
hinartina
koam
##yanan
1848
##ophil
##icera
xuyakir
behis
nîşe
balkan
seet
bakterî
##aqî
paşaroj
hikmet
mint
ajot
hezoyê
dervayê
muhac
pîrê
guhartina
têkelî
ferhat
kêmek
celîlî
pênç
dare
romanan
spîr
alîkariyên
xaniyê
orig
berfîn
posteka
bajêroka
075
##load
ragihandineka
girîngtirîn
şahin
##rift
dîtinê
mîrniş
geştû
surişt
famîleyên
aştiya
mann
##birîn
şirna
peyvdar
çavdêrîyê
kull
i̇z
masiyê
şîeyan
holanda
polîtîkayê
fermanber
felsefê
felsefevan
pîkoleka
firrokeyeka
valen
bate
mîlîtanan
qeyran
radiyo
moun
berevaj
tore
tehl
rux
ruiz
trabl
zaravaya
zelalî
tawankar
zivistana
##verû
krîstiyanan
occ
diyaspora
1864
1875
westfal
mişk
binpêkirinên
zaxoyî
bextewer
operasiyonê
qonaxeke
şikest
idrîs
birêveçûna
zexm
mêjî
hevalbendîya
veguhastinê
hurr
##sterreich
zozanan
ross
qubînê
meksîko
çewt
propaganda
hênik
zemînlerzek
nikaribe
konferanseke
dîmenek
fişarên
cîbicîkirin
instituta
mîsal
110px
entabê
secret
mekanîzma
jehrî
rizgarîxwaza
pentagonê
##rogale
sernivîskarê
float
arslan
bazîdaxaya
dipeyîvin
qûrbanîyan
eylûlê
cûntaya
têhran
dûtaxê
şedad
lonicera
çargoşe
îfad
prînsî
information
barcelona
mîxayîl
kuridtsanê
650
aro
clear
geb
hib
hendê
lop
mola
mika
mül
oran
pter
qara
qot
sop
vey
wy
wunda
yû
çûm
şaq
şîv
عب
##nat
##hîd
##iew
##ain
##otina
##uyî
##uxê
##wênê
##paş
##fran
##çika
##aniye
##arîn
deg
##îniya
##alt
serkeft
kurdewarî
##iyer
herf
##andr
##amîn
berew
##edin
##ayîn
baya
##azên
iraqiye
kiroker
##ikçi
rabûye
##ass
negirt
goyê
hevêr
##ako
rêbert
barber
hud
elubeydî
hemdanî
##gers
binikên
##ozan
nûs
mexd
##efamîleya
welateke
wezîrî
mezinan
rûbar
helm
daniye
hêkê
hêlîn
awûst
geran
geriya
sêgoş
bibim
176
146
##die
navendeka
dîroknas
teqemenî
paşde
sudana
tergewer
minê
zargotin
afxan
bûyîna
gulle
##panya
zarokatiya
zaroktiyê
spe
pîroza
##kaniyê
oral
xebatek
giringtirîn
radibin
##zaniyê
prens
cems
koçberan
dîyarkirî
andro
bucak
beden
samuel
manç
dolarên
seyd
trib
dipejirîne
##oxî
dîwaran
freder
kilama
qonyayê
bergiriyê
bernamê
sosina
etiy
etîye
aloziya
gurê
sîp
tennes
##mayiyên
zanyariyên
sipasiya
danûstandina
born
azeriyan
hukûmetek
telefonên
zirarê
hoch
planeka
##ologie
dixweze
ester
kûrtir
noq
krîstîyan
slav
haymana
nermijî
îsmaîlê
munz
omerî
micro
egîdê
binemalên
view
kuştiyên
temaşevanan
pêngavek
parlementerên
livînê
hêlîna
çewrî
kelhûrî
elsexîr
fişarê
îdeolojiya
heciyê
sirûca
ubeyd
berpiris
arnold
tolhildan
berkeley
veguhaztina
bizanibe
helîkopterên
hîdroj
ensîklop
bêzar
dikanin
genetîkî
bruno
phylogen
berfereh
şaristaniya
çaçan
qilabanê
xanenişîn
piştivanîya
capsicum
zwijsen
beb
cond
dona
hanîna
horn
kerm
ketî
kız
lîv
manê
mîş
mig
mîq
num
nac
qe
qûn
sêz
shan
tang
wanî
zînê
zab
##bîk
##rîya
##nin
##mekê
##tür
##kend
##kale
##gb
##ول
dihil
kuwê
bigere
##eniya
##alîst
##alth
heil
##ramê
##eyo
##eylî
herdema
hereket
berêz
xweserî
##emilînin
##espe
yad
##olus
hatibin
##azad
##ûres
enks
saliyê
aman
hevberê
##îseya
rêbera
wanên
karzayî
elqa
hemrîn
##ijê
malek
##xwazên
steve
empt
##namê
mezrik
mirîşk
avan
cihkirina
turgut
devlet
##abidîn
beşî
kora
dibêjît
endametiya
##ûdên
wergirtî
asyayî
pereyê
hêlan
balkanî
party
113
abu
erebê
##ifera
marok
axte
139
guhaz
dadimez
celalî
rêveberî
gulên
guç
rêzkirin
##ration
aktaş
şêxên
selçû
mêtin
keltî
orke
045
vedat
pêncşemba
nedîyar
cup
qezayên
280
xurtkirin
koçberê
plak
##lerim
bendav
bidamezr
##şembîya
bikat
sebast
ebdullahê
girêbesta
organîk
sozan
borr
xwepêşandaneka
leyst
çemî
henri
page
nifûsê
scope
tehdî
houst
rexnegir
şewitandina
dermankirin
mîtanî
1860
malperan
rexnekirin
power
awistriyayê
nexşerê
russ
vediger
qonaxan
izzeddîn
werzîşê
ecem
kobrayê
demarera
somalî
binemal
gregor
viol
hukûmetên
dibistaneke
teşwî
didax
investkarîya
quşxane
bulgariya
zeviyên
xoşhal
potter
gûher
şirovekirina
kirmaşanî
cîbicî
fîrmayên
sumerîyan
serexweşî
payîza
versiyona
bidome
bidomîne
servîs
mongolan
mongolya
edîtorê
pêdawîst
bikarhêner
qafqas
binefamîleya
jibîrkirin
necmeddîn
derkevtine
şkestin
lûleyên
player
lîwaya
kîprosê
têkîlîyên
ciddî
##xwarina
slovakya
##qolîyên
şampiyon
konfederasyona
bixêrhatina
zîndewer
têdikoşe
fûad
sîcîlya
giwaş
serçaweke
suhrewer
fm
fis
goj
iyan
kant
lîsê
mp
none
qîza
ric
sz
vit
xest
xormato
yi
zak
şeha
şora
##bre
##bazî
##baba
##zburg
##oul
##sn
##sburg
##caran
##dînî
##wet
##work
##ая
deyan
##elek
serkom
head
herodot
##okîm
##okrasî
baha
basê
derdan
boh
rakêş
rabûne
aniha
rojbûna
##berhem
komxeb
amarê
pard
hevjîn
pêşwext
barist
barhil
##kind
##ovayê
##îtanî
malêt
##xwazî
##chan
welata
kerry
##rant
nivîsînê
endamî
sazîya
##ibi
aslê
##lema
barzanîyê
tevahîya
esch
encûmenan
abraham
##ifin
##diwe
##lîmê
dîroknasên
163
169
tercîh
mind
zaravên
bêjeyan
bikarbîne
erdeb
adnan
têkdana
mabûn
dark
rêzikên
hesan
##odend
newen
încîl
xaniyan
hevwelatîyê
gihiştine
chang
mediyan
xurtir
##ocene
asayîş
husein
rous
babanî
çîrokbêj
vegerînin
file
pakîstan
dihatina
konsep
eyy
##uki
seyr
albumê
thun
raweste
helebceyê
mînakî
hilwesta
vekirinê
##ylus
cotkar
konsulxaneyên
kenan
generalên
henek
berevaniya
ciwanekî
ciwantirîn
parêzgayî
zindanan
firoke
simp
mold
hilweşiya
avahiyan
birincê
cudatir
bicihanîna
berhevkirina
hakan
nesîr
nexşe
feyles
serbestî
1975an
michigan
bêrîtan
statuya
vekolînên
pêşkevtinê
enerjîyê
1977an
kurtejiyan
botanî
nepej
senterê
depres
behreyn
destkevtan
derûnnasiya
vexwarinê
bazarr
gumana
sedsalê
cigirê
butto
helbijartinên
kufteya
ewrupî
erdnîgariyê
aydın
kongrê
jones
##ifolium
gêncan
herrifîna
angaşta
sermayeyên
ghaf
ûrmiyê
edîtor
çaksazîyê
aspara
protokola
vebikişîne
zilamekî
oksîjen
eminem
nîkola
diqewime
stokholmê
mirîşkê
tabloyên
tawûskera
diviyabû
şafiî
koordînat
kerbelayê
uraniyumê
vertical
şagirtên
##family
beaut
nçm
qabilcew
hintergrund
guardian
empty
639
age
bîyo
cana
dün
fı
f16
gaf
ix
ivan
jîndar
nît
owl
qop
sên
ses
sîy
sehab
sieg
tîn
tiya
taniya
tob
vena
wu
word
xorm
zwe
ûkray
şama
##bis
##bata
##bawer
##rn
##rîyê
##iet
##marê
##ql
##yetê
##witz
##pınar
##لا
##aretê
diction
lihê
##andi
##andaran
bertek
##edarê
evdî
reya
reyal
##îyay
alîye
derketî
rasp
19an
##aser
goz
komand
gundik
yekcarî
karahan
elçi
amerîkîyan
hemiyan
arct
##aşver
xwiya
miradê
peywed
##xwepêş
##osan
dewle
koye
lîsteka
wekû
##kûkê
##bijartinan
perw
muj
rojnamenivîs
hêc
hêyav
tevdin
102
ess
aziz
##ûsan
erebistanê
qanûnekê
pirsyar
terc
franch
dilêr
bratîya
dervî
neber
kûçikê
##gelê
##serv
sînordar
##ody
dûpat
##iona
210
astên
amadeh
orij
edene
edition
çiyayekî
079
fraks
damezrandinê
xizîrana
hindirê
hindirên
îmral
geşkirin
vegerand
ahaşver
zayinê
xweztine
ermenîyan
hejmartinên
metta
bikşîne
passer
atomîyên
mazenderan
davêjin
pevçûna
opozisîyonê
riyad
sinor
keşe
diziv
mizgev
bavo
pîvazê
luqman
365
xetarî
scott
xerabê
cebil
kitabê
peqîneke
buldan
xerzanê
dengbêjiyê
qelew
zanayê
xebitandinê
kîlom
##holz
malpereke
ireland
wester
fikra
hevdîtinekê
guhertinan
şanoger
werzişî
tirsek
zordariyê
rêkeftinê
takson
hevserokên
home
berdidin
bipey
xeyal
xeyalî
awistralyayê
mandela
mêşhing
mîxa
semînarek
ziyatir
helbijartina
çaksazî
kezeb
politik
leşek
bihevre
ûrmiyeyê
efsaneya
dinavbera
eleqedar
bombbarana
bombbarkirî
alternatîf
şadîmanê
helîkopteran
flower
martes
rûdawê
kroat
tivêjeyî
##hezaran
justin
cimo
rêçika
serçaweyek
tembûr
devedorê
vavartina
hîkay
kürdistan
stephen
şêxbizinî
sotemen
malmîsan
xîvetgeheke
dewrûberê
records
##berdewam
yûgoslav
ebdulxaliq
tennessee
axtepî
guçlu
940
benîş
cra
eber
eee
fiction
gûran
jav
lîd
mişt
mora
our
pirin
qoş
qût
qiyam
riş
riv
sûl
taran
viva
xasî
zahid
şîle
##ei
##hir
##het
##leben
##sfeld
##teke
##tera
##kul
##cur
##ciyan
##cast
##yod
##yekan
##ûp
##diyan
##geş
##pelî
##ер
##antan
##inç
didê
dizê
kuçe
bitir
##ater
serayê
seredan
serpoş
##ragihand
##ehir
##eyîn
herbert
herreş
##amel
##îke
daxist
yadaşt
##îyayê
derkirina
derdana
derkevtina
nees
negro
rojeka
gundeki
têkeve
##girtine
barsel
##kins
##oven
huş
elem
dinêre
ragihanê
##dact
beck
hêze
##aşîn
duqolîyên
hilseng
çarema
cihanî
cihanînê
##ecî
##kirîye
hewlêra
rûbara
helkefta
danin
##dingen
amazon
127
126
103
ball
dayikan
esc
nêzikê
##estî
118
aşa
aşê
şande
##hemum
##iago
##astina
milkê
beşdaran
##oşa
guhdarên
##udê
hesanî
##ional
nexweşiyan
arts
##ûşa
mêhr
amadekir
bombeyan
meden
medîneyê
genimê
genetîk
coluber
brîtanîya
nikarê
perwerdê
pişikê
nedest
avêtina
mîrgeha
hindir
dûrxistina
mêrsînê
##mendê
vegerê
kolika
##ibûne
hizrî
zayenda
karbidestekê
bidina
monument
piling
this
banglad
bass
kilîn
rawestiya
bondan
##ianum
sosiyal
rewşenbîran
parlementer
polîtîka
siûdî
kêşa
organî
mûşekên
mitîng
leyist
lezgînî
antrop
modelên
sêrbaz
danîşt
stranbêjeke
bulgarî
pitirî
diyale
dahatû
xwekujîyê
otombîlekê
sumerî
futbola
diaxive
kifrî
augustus
1858
veşartina
îhtîm
satel
lîskev
piroje
diqedîne
şemzînana
kêmanîyên
dorpêçkirin
amêdîyê
şopên
brazil
yezdan
found
erxewanê
kujtîyên
balindeyan
parzemînên
biraweste
bikirre
cezayirê
dicivin
montene
mekanîk
pêşkeftin
digehe
topbaranê
country
karesat
karesata
association
deynên
bizanibin
manîfest
bikarhênerên
konfrans
pêşbînîkirin
xwûdayê
##mezin
tilbişara
unsurên
gilgamêş
alkanna
danezana
earth
berbira
ramazan
bernade
shakespe
waşîngtonê
gabriel
##oglob
tîgrîs
kültür
kesûkarên
tewfîq
shakespeare
785
beser
cîng
feran
graham
hö
ik
kên
lod
mı
nika
nihê
omar
pax
qun
squ
tad
tozê
tomas
waxt
xed
çînên
österreich
##ror
##hab
##hêzên
##uen
##06
##kîyê
##deyan
##wêj
##wanan
##geyên
##py
##jenî
##ла
##arn
disp
digeriya
biteq
dead
dehem
##eld
##anêt
herş
herpênc
xwemalî
##ilia
##iller
##oro
##ezyayê
ragirt
##êza
pêşengê
##aker
rêx
rêyek
birak
##wazî
elezîz
##anîne
lêkirin
dinivis
demezr
##ijin
malîkî
##dau
strî
beleng
peyiv
##êşe
##osc
turkey
##kau
nivîsîye
daxwazîyên
1850
wergirin
rewşan
çêkirinê
helîm
##yonan
behaneya
diranên
mehî
sêl
sea
bibir
gotinek
dîrokîyên
nakevin
##orado
sud
şandeyekê
##olagus
##teg
##inea
belavok
##iqe
##ûllah
bazîd
merge
kûrahiya
mayîna
heftîyê
mêvanan
xurr
dikiş
sektion
rosa
qerexan
kempeyna
şîraniyê
cemil
agirîyê
bedr
navdartirîn
duyemin
refîq
kadep
tunebûna
tewr
sirri
peyameke
dîwanên
demjimêrê
hêro
birêkûpêk
fermanberan
besre
kontrolê
dostanî
meşê
dişib
vekişîne
mûşekan
pankre
çirûsk
weşanger
îddî
2002an
şingalî
bursa
mercekî
1993an
##rops
slog
1868
1877
supaya
volkan
pûşkîn
windakirin
kulîlkan
wekheviya
swes
##başı
##formas
hurmet
şebekan
sakar
philos
kedkar
hotela
nivisandin
tetra
potans
sîmpt
kujtiyan
damezirand
kêfxweşiya
ceribandinên
sedsale
helwêstên
girûp
arşîva
dijberiya
arabk
radigîhînin
gerstêrk
hevrikê
milazgir
qabîl
dokumentên
queen
nexweşxaneyeke
filestînê
##ски
xemilandin
herikîna
biaxivin
bidarivînin
metirsîdar
williyam
merwaniyan
koçbarîya
bisepînin
afretan
xweştivî
mêrxas
berfireha
qeremez
traktor
derbendîxan
ezirganê
peytexta
ortodoks
website
kiliçdaroglu
kulltepe
etiyop
montenegro
adan
bane
cob
eke
feda
gîneya
gede
homa
hotê
iowa
jev
kenê
kenta
mara
maw
merm
meşk
mîsyona
pûr
pret
qaj
rü
rust
rick
spa
ulu
vid
xaf
çeka
çaxa
##reşk
##uan
##îg
##şin
##şêr
##cil
##ûbe
##dengî
##wara
##59
##çak
##ید
##ân
##ди
##erta
bifiroşe
##îname
##ethe
serge
serkot
kurdîya
kurdperwer
##aybetî
##ori
baas
bach
badîn
##ihe
rein
pêgîrî
alû
alem
alab
kirîza
enstit
komeka
amd
##nayê
pire
##aktor
rêûres
##isîn
##itandin
binkeyên
ark
dub
duyemê
avab
dije
dijet
dijatîkirina
##eca
devokan
##osh
turkîyê
mirova
##îha
konê
rûh
1821
gornên
werzê
##iga
saziyê
rojnameyek
kurmên
##acus
bale
balafirê
îsmet
##iflora
nast
mine
##iae
milkên
milîtanan
hezoya
grav
erdal
axift
138
##tere
afrî
petor
guang
kurdistanîyan
nebê
kûb
##serok
hessen
cureyekê
atlas
0387
hefteyî
teleg
medîne
postkod
##lidae
union
apo
099
ayînî
desthilatî
pişkên
namiq
cemiyet
##çûne
buenos
qadaxa
germtirîn
31ê
schott
trênê
metin
navdewletiya
##axêv
bonda
şîî
dennis
harris
holendayê
parlamento
qedexekirî
hawwil
##canth
pismam
2000î
kompanîyên
##mayil
valer
##ious
seferê
sefewî
keneda
îdir
senîd
kalikê
tehma
lîp
baştire
destûrên
ruyê
hogir
hevalekî
firokeyan
şûnên
mîtolojî
şikandin
fîlozofekî
never
cudahî
sovyeta
kuweytî
durmuş
hatîp
midd
energ
qamîş
hedîs
hewilên
radestkirina
motkiyê
yariyên
hisênê
vekolînan
mursî
somalê
erkekî
distînin
pêşinyarek
semsûra
derfetek
neyarên
klîk
mewlûd
vetokirina
boselî
berdane
gihîşte
diçine
erxewan
birîtanîya
cafer
xeyalên
mahmûd
wefata
çênabe
şarezayê
kavil
buyerê
damezrênerên
parlîyamentê
bixebite
şeytan
programên
tendirustîya
nalbend
havîngeha
henasedanê
siyûdî
glukozê
ewqafê
yalçin
dereceya
karîbîk
bîzansiyan
wiscon
gnu
ronakbîrên
dûtaxa
ergenekon
xizmetguzarîyên
daxwazkirîyan
zêtka
flastîn
zehmetkêşên
mucahidên
radigehîne
medaille
heftenameya
cephal
beljîka
siftê
neustadt
helwsê
geştûgoz
barbero
mezrikeke
houston
newengeran
bîy
bug
cc
coc
kla
katê
kêrî
kiyanên
mev
oy
pom
qaw
seya
tsun
upp
vin
wed
well
xus
yenî
zemb
zewî
şane
##rr
##rh
##retî
##meke
##oideae
##uit
##lend
##êkî
##vend
##qat
##01
##kanan
##civîna
##waran
##jiyana
##fen
##çeş
##ören
##inal
diaj
##stru
##eler
sered
serbor
hedî
##istên
##ehm
herh
herze
##ando
##amar
berx
berbelav
##iles
##orh
##oni
##omi
##endin
##îyayî
alev
kirîya
kirib
dermanê
radeya
##aspora
anê
anf
destn
desteyê
##berdana
bûka
bûme
têye
hevala
yeko
yekane
pêşd
pêşgotina
pirbûn
rêxist
bajara
kars
karol
huang
hucr
lêxweş
demsal
dibirin
bihavêje
be´
##bûs
ragihandibûn
eren
erkan
indon
hinart
koch
konv
gorn
##icul
çêk
dengûb
peravê
##wendiyên
124
esmer
şerq
##ifil
##xaneyeka
##amad
proc
paştir
terra
##hemed
miliband
##ketiya
gren
grîng
nehîne
amede
guhêziya
##iqandina
kêmnetewe
zimanekê
bêjedanê
aktîf
herêmekê
dirêje
balyozxana
##menfarbe1
wêneguh
##koy
koreyî
ayn
240
029
pêdivîya
qedr
qedandina
qeddafî
xwediyên
asayişî
mîrekt
##dewletî
temer
##antiya
##antiyê
pêkhatîye
nîvî
##keftî
bidet
bidlîs
şirketa
nêvneteweyî
##bêk
fritz
kilor
dore
bilb
bilîzin
şewat
çûnke
mînakek
##ayetiyê
002
sivîlan
kompît
bexş
keşfa
katy
şêro
veroj
dabeşî
çêdikirin
girantir
pêşangeheke
teqînekî
hevbeşên
kewan
sûdwer
cengî
nimêj
destûrîya
##çêker
halk
cebir
xelîlzade
winter
macîranê
neveger
şerefê
şerefxanê
otombîla
hewildan
eweyî
ziyaneke
1960an
kevneşopiyên
rahmenfarbe1
europ
1857
samerayî
##ografîk
allen
özal
hirç
xinûs
lingua
xulekan
lihevgihandina
lêborîn
lîtvanî
single
çetin
reqîb
dirustkirina
##matik
findî
fahmkirina
zîndanîyan
sedsalan
mîsoger
qummî
dîyalayê
şîrovekirin
bijartî
kurteçîrokan
i̇smail
eşkereyî
kehkeş
brahîm
wezîfeya
##ستان
tewratê
avhew
fûtbolê
keştiyên
derzîl
musilmanên
marmaroka
kampanya
kirmanş
tree
qaşo
biyaniyan
kodetayê
psychoanalyt
psychoanalyse
bisepîne
studies
şîleyê
nemrûd
davodoglu
veberhemanînê
toyota
bamernê
şêrpenc
independent
nawdeştî
hawîrd
binivsînin
hintergrundfarbe1
cîngîf
herzegov
ach
cic
cyr
gêj
güz
jîna
jora
jaba
jagu
kekê
llo
miç
parê
qaq
ss
sok
sül
vik
vekê
verên
xa
xendan
zerê
îdi
ûl
şîyan
##nen
##neyên
##sem
##sbach
##ves
##vis
##kkar
##dat
##gew
##paşa
##هد
##irmeya
##aris
##ardî
##yam
bipirs
liqê
##enç
##îneyan
##etal
serîl
hewe
heidel
##istê
navok
evolution
bacê
daqû
rejim
rese
alîya
boiss
vejîn
##iyêt
rojev
bûh
##ives
komedî
##ekewê
ame
rêkirina
karta
goteb
##ité
bine
binev
dibînê
stêran
miriyan
cihkirin
##ecan
rûhî
goristan
encamî
endameka
wergirên
##icî
##hea
dawa
##îdîn
perû
danayî
##vanek
xeldûn
dayîkê
azmay
##xaneyekê
pirsgir
marsh
minor
çekoslovak
hezkirî
nehuk
fern
kêmtirîn
zimannasî
bilindiya
şaristanê
mertal
rêzeya
teroraneyên
newê
mêra
2500
dirêjahîya
asayîkirina
giringê
090
dikişînin
koro
##wezîrê
##ensen
neraz
qedafî
terorîstê
##ûbê
mîrîtiya
260
vegerî
plural
saar
bedlîs
kansas
2006ê
hizba
ahmad
network
xwestine
şemdîn
kampê
schr
trên
metîna
bikişîne
siruşt
kilîs
wêneya
wêneyî
rêvebira
aramiyê
meclîs
bilaw
kemalîst
bersivên
bersivek
##eyewe
davûd
sîbera
meşrû
şehîdê
keştiyê
cons
##ında
misilmantiyê
mitter
ontar
##born
tesew
weşanxana
phoen
giraniyê
kals
bizavekê
moder
firokevan
walîtiya
planet
cildê
##gua
êşên
erdhejeke
##önung
irna
nakokîya
pisporan
kundê
evdile
gotûbêja
tundûtîjî
reftarên
##halt
munasebeta
munasib
vexwar
demjimêrên
diqede
rabigeh
dabirandî
##opsida
remezana
2018ê
xurttirkirina
##guneh
sevrê
hazim
fayla
persian
bombebarankirina
çapameniya
fîrmaya
rhin
metirsîyê
rûniştinekê
mîsyon
rahênanê
##ularis
zeytûnê
luther
macaristanê
habîl
katalanî
##files
special
berbang
oksîjenê
geşepêdanê
qûrbanîyên
##ocarpus
hîzbullah
kupaya
kartêkir
hîcab
##escens
kelepora
dirkepetikê
cumhuriyet
baekjeyê
sîtoplazmayê
meclisa
cehzeranê
arîkariya
balkişand
fakûlteya
rabirdû
connect
ûrartûyan
bhut
engels
reutersê
îştar
hendêk
wêneguhêzê
bé
cec
corî
dmit
eku
gah
gîyan
gîyanên
hare
jud
lolan
marên
noz
pelê
puk
pyong
rane
sart
vall
wür
zav
zed
zera
zubey
ûrû
##rey
##riyan
##hiş
##sam
##vus
##vekirin
##îç
##şek
##şim
##cz
##perm
##52
##fûn
##ılar
##örd
##arşî
dial
libr
##enheim
##eller
##eteka
sero
##iyeyên
##masê
##andor
##andibûn
navg
navbey
baweys
hatû
##kirinek
alara
alpar
kiriya
kirdiwe
##imi
##imon
derwaz
derînin
derzî
##asin
bûkê
saleke
saleka
gunda
amêr
amph
parad
yekbûn
rêgirtin
barkirin
##ewanî
huz
##izim
##ization
emel
îrfan
eref
eryth
duşem
##awiye
bêkarî
pêkir
pêktên
cihdi
##eragihand
deverî
turkish
siyah
konên
1844
1849
##ext
##opê
##opher
çêkin
dawê
##otopên
##pire
hêlê
gereke
nîştî
##tûra
îsf
îshaq
##xaneyek
peywendîyek
suc
terak
çekdarê
bikardi
rastgo
erdelan
nasnameyên
dadwerê
afp
##eje
darber
mergeya
kûştin
##westîne
akr
silêmanê
##ipes
atp
ateş
atîna
xaniqîn
chlor
##trol
kelemên
meletîyê
xurekan
egeran
##demokrat
felis
apol
serêk
krîzê
seks
şahiya
085
qedera
235
nedî
rengdêr
julian
çapkirina
geşkirinê
tîpan
anderson
bedenê
konsera
pêkhate
vira
şanazî
bayern
kaj
##keftin
site
mijareka
serbixweyîya
sebr
peyamhin
dîwanê
frens
review
harîk
matmayî
tebr
001
komplek
şehîdkirin
bişav
mitch
##ronn
leylan
2001ê
jorefamîleya
scor
##xwarinê
antalya
îstixbar
simbê
xezal
elektrîkî
xalidê
otombê
dixwezt
şaşîyên
bernivîs
balafiran
dadgeheke
durist
papayê
ozgur
devereke
şêweyeke
portr
bextiyarî
tûrîstîk
bedirxaniyan
piroseya
bêrec
xatemî
yasayên
serbistan
1859
1852
dendikê
qalikên
îbnî
bejn
amadekariya
kêlgehên
împaratorê
philipp
goştxwer
fonetîk
elcew
çetîn
jenosîdê
mêrgesor
faydeyê
vekêşan
huseyin
gûzê
##emerde
mezhebê
ceribandinê
sasanî
gihîjt
gumr
hrw
behaedîn
kufteyê
gurgum
tohmeta
break
eukar
jimêrk
##ycter
îdare
diplomatkarên
rûbirûyê
arjant
kerkuk
elfubê
qûbe
serwetên
duwemîn
twitter
karakter
faşîst
büyük
kekrûkê
xecê
today
salixdan
debêt
bdpê
evdirehmanê
xêveyî
victoria
arjentîn
hûsên
alaska
lêvek
sabahat
yeşil
xumênî
penceşêrê
laurent
nazmiyeyê
konstantinopol
maregîska
##odontidae
##amerîka
manchester
yekparçeyîya
company
ghafor
ûkraynî
xurrxur
jimêrkoya
adî
bj
db
dway
hd
hekî
hander
jana
joy
jahr
pict
qap
ruk
sût
tik
vag
xod
xêl
xamen
xls
ysk
yûh
zh
çok
çîk
êlî
şkeft
##rul
##iayê
##şen
##qer
##kk
##kok
##yk
##dêrê
##wang
##هت
##ик
##anna
##erzanê
##irme
##yaye
kuway
##ekek
##ekhev
biwar
deleg
like
##enst
##ensa
serketina
sercem
##ehar
berma
berşel
##ayej
baca
##emur
dağ
pêt
pêgeha
yaş
yaku
##unz
##ezên
##azar
##ojê
alk
kirkir
enan
desteber
##beriya
girik
hevkarê
yekxistina
##êder
##ahl
barana
binere
##bûra
tirki
xwere
hildana
bêv
çareya
hindu
##osus
##osum
##osof
kertê
mirovane
nivîsara
daxwaznameya
werne
##ree
##ible
hêlî
essay
bibit
##ific
ebasî
çareserîyek
suk
ismail
birîndarbûna
jineka
advent
fereh
dadger
merwanî
rêzik
kep
chir
lêkolînî
kelarê
xurekên
048
bîrewer
otor
qurey
##luce
nameyekê
watayê
prok
çapemenî
koçner
komelayetî
muzîkî
##aea
miho
mihy
bedîr
mans
qebîl
oltî
olym
konfiran
##watiya
kamkar
tril
novel
metîn
sekreter
gazan
demjimarên
kurtefîl
badiyekê
imp
revîn
şewket
african
îsrael
dewletekê
##uzî
fîlmî
veguhêz
raporên
binavûdeng
doç
nizar
xirabî
şêrwanê
sipîya
teslîmê
sung
320
325
hacîyên
cengiz
moda
##rûda
tahirê
nûnertiya
jose
plant
dekrêt
camî
firehtir
tiliya
beyanî
zelam
estê
kandîdekî
qelem
peymanan
cudahiya
parzemîn
çileyê
nesrîn
porsche
îşev
xorasan
الع
standart
1982an
natayej
1986an
1984an
hilberandin
takt
çarenûsa
bejayî
lîztinên
transpar
##anni
şiir
nisêbîna
portekî
gündem
sexte
##hesen
molekula
napol
meksîkî
zemanê
rênimay
zevîyên
matematîkzanên
bombbarankirin
kîlometreyan
pêşveçûnê
ebasiyan
faysal
gumanbar
fişara
îmzakirin
##dikir
whit
hormonan
giov
çênebû
deyne
leben
emrîkayê
kufte
mangî
erzirom
pêşbaziyê
serbilindî
dewrîyeyeka
arasteyî
aires
##walde
eşkerekirin
spasiya
angaştên
dihewînin
santiago
înstîtûta
moxê
mîhrîcanê
piyano
zehmetî
cografîk
magnoli
claude
pêrtaga
pêşengeha
benedict
hinardina
ceyhanê
##ponte
pozîtîv
niqaş
crypt
hexamen
îxwan
abadifil
social
dubai
kelaterzanê
neserkevtî
pêximber
userfiles
poems
tometbar
molau
marokoyê
didaxuyanî
suhrewerdî
negroponte
711
bm
bund
cîyê
cîkirin
cost
dul
dola
dînên
dall
hür
jûr
keta
leng
mg
nich
orî
rûr
reha
rio
rûmî
sür
srûda
tama
tûra
tow
vez
vîz
vene
xeş
zafir
çaq
şol
şema
şux
şihab
##beyan
##reng
##hanê
##iwe
##muz
##uge
##ştî
##kendî
##cy
##cell
##yus
##dom
##dît
##wînê
##gü
##رب
##6an
##ereke
kuvar
##eker
##ektîv
##stana
##înerên
##elt
##rax
##eyhî
herk
herisa
navik
xwey
##oria
##ihan
daîş
##onyx
pêyên
##unu
##azan
##eburg
##urch
##eştîya
##imbê
dersê
deraa
dersîm
botî
rabûna
gogur
gundekê
##îsm
rêwî
##ahîdên
##ulaceae
bara
##ovaj
kartac
##wazê
amerîke
##itîn
##itch
malta
îrlenda
çavmar
arktîk
dîoksî
##away
peyde
##tîz
daxwazan
daxwazîya
##opus
werd
##0000
asfal
perde
##duwe
parliyamentera
diroka
nîşa
civînan
xeletî
azîz
abram
îsray
şerek
naja
paşn
168
şandê
marqu
leq
yaney
milîtan
brus
muhleta
add
aden
celikan
mawe
ebdulbasit
madr
ako
diyarbak
spar
sport
xelatan
gihandiye
mêwe
melbenda
çift
bajareke
editor
##etirîn
047
046
026
ott
pêncê
pêncema
pêncşem
rox
qerexana
ketîye
pişkî
nedik
watson
avêtiye
juliyan
pesind
tîj
##mendên
bikaranînê
andrew
bayer
bidane
zeren
##oxlî
peyamekê
keçelok
mûçeya
pasûr
front
coraneyên
kildan
şewq
îranîyan
bersiveke
lawik
lawiran
foruma
norgehê
dînk
dosyayê
valens
serîhil
mitînga
sefîyye
panzdeh
azerbey
1991an
cerdevan
kalaş
lux
330
hamza
êrişeka
lezb
##ungs
bahoza
şaredarîya
##gîdan
keyanî
generalekî
stranbêjekî
xodan
dengbêjî
pozê
tawanbaran
fîlozofiya
gihijtîye
pîrozbahiyê
tîmeke
durch
##ements
1979ê
fêrkirina
kadirên
gavek
hilberînê
şaxeke
kehreba
1985an
swed
sebahat
brow
dewrêş
ruhayê
tendurust
sekinandina
dibistanek
paqijkirina
mullen
gihîştiye
four
elşerq
central
gomên
xizmetguzarîyê
lebîd
metirsîya
fahmkirin
ferîd
axifî
bijîşkê
ewrupayê
rahênan
pragê
tibbî
keyatiya
xelfetiyê
niyaz
##hofen
vejandina
serkeftineke
mirgewera
angaşt
bigehînin
australia
manevrayê
hicrî
i̇nönü
sanskr
qaçaxç
tekstîl
##rezaq
xuşk
niştimanperwer
xirîstiyanî
gestemerde
birûsken
binxetê
mistefayê
dipirse
mezhebên
niştecîhên
enzîma
republic
akademîsyen
xwişka
brezîl
stories
encyclop
diparast
fırat
mîxaîl
kilînton
organîze
research
berşelona
gogurye
bavên
bras
cross
gür
idp
iuc
jes
lol
menda
niye
oro
pb
poc
peşê
rt
rw
reragihand
tûm
tîs
une
viy
vom
witt
zep
êraq
##betê
##rus
##rut
##nîyên
##nayî
##mec
##zik
##lal
##lanî
##kd
##cir
##cix
##ûx
##df
##pûr
##ßen
##üh
##él
##هم
##ек
##ío
##erîn
##iness
##yak
##ekoma
lie
##enha
##înka
##atin
##atnê
##ather
##etekê
sereta
sermayê
kurdkî
##ists
##iyekan
berava
berga
berovaj
navîna
##orus
##emp
##emil
##omor
aloq
derekî
dertîne
nexist
komîs
##sau
amîda
##bej
bareg
dêw
elma
dinyê
wezarî
hêzkirina
nûbûn
nûceyfî
aran
ariz
arşî
belû
belaw
mezar
bêalî
hinartin
mirovatî
parêzgerê
rûxana
dihoka
werner
##icaceae
mudax
kurman
geriyaye
dirbê
balayî
erebîstana
##utz
147
pirseke
##olêra
teqandina
nagirin
çareseriyeke
şandibû
keve
rastnivîs
grevê
nasîna
dilop
dixwazê
136
guhên
guherî
dadnas
weşandiye
bilindbûnê
kuştinan
maç
guatem
nebîl
ehud
hesekê
##newey
drust
zêdebûnê
melle
bombaran
medîya
orth
orjînal
fîlimê
##ocol
edit
projeyeke
095
070
##ensel
seksê
qerzên
guherînan
girtibûn
guftûg
nedih
navxweyê
juli
baby
cemşîd
vegeryana
filip
##encûmena
sach
saîd
samb
jêrxaneya
bendan
pdkî
şemmerî
312
trip
albanya
ciwanî
dozgerê
kurteya
kurtefîlm
qonye
nucle
imper
mecbur
revî
desc
êvar
bûyerek
veberhên
kîmîya
raportan
raportek
##herine
norgeha
nîger
laşên
##ruck
mitir
qasê
çemekî
teqîneke
wergirtibû
zortir
çarçova
##atewe
xetereyê
gilover
şermezarkirin
trab
îstenb
brad
planeke
deken
yewnanan
peqand
çimkû
dengbêjekî
pozîs
tawankarên
zilmê
zilaman
##çareser
sour
gunehên
urs
lehî
deryayên
arag
##lıç
pêkanîne
blok
dûvre
natir
dilgiranî
efsane
statû
xatir
miksê
1854
qamişl
donald
pêlavên
magaz
region
feod
kesayetiyê
zengil
zeus
rayadarên
bosniya
niştecihan
mêze
dunyayê
meseleyê
serokdewletên
zincîre
xeyala
semînarê
zuwan
lubnan
xamûrê
rûniştineka
serexweşîyên
prensîbên
karwaneka
mentha
şêwekar
nusx
sermayedar
pûjan
deynin
gerstêrka
##mussen
yekrêzî
îmzekirin
senatorên
metreyan
mekteba
veguhestin
dûyemîn
kahraman
rêkxir
pabendbûna
lîwayên
petersburg
xarpêt
diplomasî
kîpros
gegenkaiser
nîjerya
pincar
##bexş
hedef
bombard
geheşte
vedişêre
kosovo
fekke
vulpes
dirkepetik
bolîvya
derkevtiye
hohen
xetîb
polêsan
éditions
alabama
ae
cord
ciyekî
dro
ekoloj
f5f
hiv
haq
mîzê
narinc
pn
pûn
qûç
rokê
sha
srî
them
trich
ware
xr
xing
zûr
zef
zirî
zuha
çuk
##nor
##mna
##zet
##zêr
##leyên
##sius
##tre
##şal
##ced
##cio
##dür
##geb
##paya
##´min
##он
##ин
##inet
##arte
##ario
dixist
dider
diduyan
lili
jiyê
##elia
herkî
##andaya
##amo
navek
navekê
bawe
daya
dagirtin
##işan
##ezer
hatim
bozan
##dew
bûwe
amîl
amêrên
girjî
pêşewa
pêşgotin
pêşdeb
pêşdikeve
rêgez
##ahîm
##ulên
##îştî
elt
elbeya
##iti
##itrî
bink
##înewe
##xwazan
erem
arz
dîx
başanê
avayîyên
çarşem
nivîsandî
183
182
1837
1843
##otra
hela
helik
dirûn
direv
mehname
balîsan
eslî
##estê
aşopî
îso
îsbat
##iyonal
156
berpirsatîya
##îvana
ajotin
grim
êrîşkirina
erdel
axivîn
dilîzin
1300
guhandar
ferda
daxaza
guz
romant
aktar
civakîya
dûbla
##thy
ofîsên
selete
selçuk
osmaniyeyê
0339
kelt
kelema
dirêjbûna
meledî
bombeyî
xurşîd
orn
xebatkar
doha
nikane
xaleke
pêdivîyên
guhertinê
mîrat
biwêj
prim
topa
muzexaneya
lake
kaniyên
konseran
oltiyê
tundu
hevkarên
qadan
sitranên
guney
albistanê
latinî
keçek
mût
shaw
basim
ramanan
kilas
neku
##gau
maseya
tomara
rewşenbîrê
afrîkî
şeşemîn
fermangehên
gihijte
kêşeyê
kêşeyan
keştîya
valahiya
ferhengoka
himber
hûriyan
teswîr
qaso
saxî
teqîneyê
henîn
semîs
gotareke
êrişan
nifşê
trad
îstifa
halil
şikakî
palpişt
xêza
estonya
qesr
##orno
belgiya
derhênerên
kovarek
1872
rexneyê
westanê
televîzyonên
sermaye
fêrkirinê
hevdîtinek
bextîyar
bextewar
ladana
ahmedê
kulturê
augusta
celewle
##bîrên
##ophus
hevalbenda
xores
egît
hirorî
dersim
göl
1967an
filmekî
mulen
1961ê
datab
lîmon
zemînlerz
avedankirin
bisekinin
girseyê
şaristaniyê
fromm
gabon
dinivîsin
mezhebî
biçuk
gihîjtiye
nunerê
##umbus
musliman
##frey
pexember
firoştin
şîroveyên
rixistina
british
binekom
topbaranên
çağ
125px
kotayî
kiçên
karesatê
ûrmiye
auflage
destdirêjîya
lîtvanyayê
înstîtuta
handana
publish
serwet
îrlandî
farqîna
mêhvan
fonksiyonên
kutilka
dengderên
sîlvanayê
diguherîne
hereketa
arkeolojîk
klein
nîjeryayê
maurice
köyü
parliyamneta
dîktatorê
xizmetguzarîyan
ashton
theodor
peywira
kerbelayî
hawaii
hydro
ûzbêk
illust
bersîvdana
televiziyonî
dabimezrîne
cosef
römischer
##liyamenta
hannover
wuzeya
i̇ngilîzan
hesenqelayê
tayifî
photos
kopîtka
tenazulê
##ekelênê
donau
feylesof
middle
iucn
sambucus
elbeyatî
730
ake
cora
dh
d8
direct
date
fall
fischer
fidel
gla
gala
jug
jub
log
leser
mete
mond
pîlan
qesta
rana
vîk
vent
verê
waz
xun
çala
çaxî
îbrah
ûnis
по
##nal
##hcr
##mand
##lük
##teng
##qawî
##kur
##dibin
##gra
##para
##ping
##يد
digir
kub
##eklî
##stîk
##enna
##elus
##alin
##aviya
kurds
kurden
herm
##amn
##ameyê
bermayiyên
navgîn
navhatî
##orik
##oniya
##endiyên
##ûriyan
dervê
##ikeke
neçin
destanê
destve
##adim
kombû
amîr
têdi
pargîdan
yekîneya
rêyeka
##roe
##ulusê
##îstik
##îtiyan
piştgîrî
dibêt
beij
emerê
##useyn
##aşînin
inst
mezrayê
bêser
bêguneh
pêktîne
çarş
##eraceae
##tire
##osius
##kirch
koal
konger
nivîskên
daxwazî
rûkeş
##opla
##icol
##icana
##igi
##heit
##req
##real
dawîhatina
muawiye
kurik
behroz
civîya
esmanîya
şerh
bibine
##uther
giştpirsî
141
peywendiya
firansa
1600
terik
ajel
miller
rastew
131
muhar
azada
berhemdar
weşandî
nebîne
eşkanî
eşkaniyan
merema
merhel
ehlê
##ratî
diyarkir
civakan
dûz
nivîskarî
newekhev
heyîn
heftema
gihande
chin
unhcr
giringtir
colorado
serêkaniyê
059
şorbe
terorîstek
sepand
namînin
celaluddîn
temend
komeleka
ahenga
karbidestê
rizê
îngilîzan
sebze
nêzîkatiya
##ieu
thal
cîwar
wênekêş
qurbana
##gabe
parleman
dewletekî
alozîyê
##uzz
##canthus
2000an
kompanî
weşandine
##quer
delaw
sefîrê
sozê
galer
çirm
sunney
kabîneyê
semp
pîvandin
împeratorî
erdêxan
##yotî
piç
burk
îstîfa
navendîa
nazmî
josh
walla
planck
mahabadê
1884
sadsala
1980î
palm
serokwezîrên
zilma
vaj
zêrevan
helwesteke
kursiyên
mexrib
heştem
ozturk
1873
hakimê
glîk
summer
xewnên
rojhelatî
şikestina
sêşemba
idûn
dîke
tarîx
nermal
hukumet
georges
zexta
enfalkirina
formula
amerika
franklin
1856
nûrsî
nûreddîn
lîztina
zozanê
koçberiya
nemirov
giyadîna
williams
derhênerekî
napejirîne
pencer
şembîya
perwerdekirina
dosyayan
şopandina
êzîdîtî
aktorekî
qilaban
nikarim
raperînê
zebz
îdeal
subfamily
bêhnvedanê
ranya
hilbijêre
##yenews
pekîn
endezyarî
hamamel
tefs
veguhezt
##polis
cezayîrê
tundûtûjîyan
birrgeha
yukar
servîsê
mentiq
xelfêt
bixebitînin
selahattin
nicolas
kehniya
gezika
rêkxistinên
asîmîlasyonê
pulurê
otobus
roboskê
videos
neyênî
sernivîserê
dwayî
hewceyî
pîrozbahiyên
zincîreka
georgia
dixwastin
isaac
tîleko
ozçelîk
hildib
vebirr
köylerim
maranta
pembû
mamekiya
derçûyên
xêvjim
commons
serkirdayetîya
qazaxistanê
fiqih
xwepara
pûlpelî
emperyal
madagaskar
giranbuha
ebbadî
lêbihorînê
temyîzê
gregorî
anguilla
skandîn
karayilan
daxûyanî
mongolî
şirnaxê
yûhen
qabilcewzê
wisconsin
heidelberg
giovanni
634
aç
bîya
bava
bînî
batê
bül
cf
cemb
fok
field
git
gond
glor
hof
hoff
koj
lorî
lurî
nation
pz
pucc
rix
renc
sirê
soy
sou
villa
wiss
yurd
zl
zing
zîyar
zîq
çeş
çanak
şûra
şub
به
محمد
##rel
##heb
##heta
##horn
##ui
##uzê
##law
##vir
##woo
##wahid
##peya
##pur
##post
##pûş
##57
##ری
##ña
##ḧê
##artî
bite
dewar
lic
##ative
##aldo
##etîyên
##etnam
##aviyê
serheng
sergî
server
##makov
berh
berbû
berberî
##edo
##edanî
baill
##îyonên
206
yev
alkol
serokan
kirêt
dereve
##evi
enk
goç
salah
##ekef
ambar
girên
paral
##naya
##nake
rêş
rêwe
barov
bareyewe
##gihandin
bajerê
dêm
birevin
gott
##itir
hemoglob
##ijan
bihil
bihîz
sten
stern
hêzekî
îrana
çavekî
dualî
dumah
welate
avkev
##engeyê
çarşemba
##tîx
kerist
kertên
##îzim
kofi
gore
##tail
endamek
polîsa
xuyaye
aspx
derbarî
##îdor
kurekî
nîşanê
##ogh
##ogue
122
şerekê
##utel
1700
1789
148
fermiya
yekêk
berpirsekê
naxwe
mari
minas
minnes
kevtina
zaniyarî
grîn
zêh
xwendevanê
##cea
daristanê
daristana
##weste
ehlî
033
pêşwazîyê
derbasdibe
heyşt
gihan
telebanî
bomban
##ofen
road
dixazin
hindistanî
pirtûkxane
bixaşînin
topên
komell
serokwezîra
cudabûna
şevên
tunebû
##şembiya
serbixwebûna
dozdeh
siryanî
thom
sekreterîya
##kujiya
straneke
corekî
bijardeya
rêvebirîyên
mamostetî
rawestin
import
strych
îtalyan
i̇raqê
axaft
hînbûna
deselat
pêşketiye
sarı
##ally
rêjeyê
##weşe
##anbol
mekke
girtîgehên
canis
meysan
sizaya
dehs
valah
komisiyon
kenya
mîlan
hûrbînî
galen
galile
panelê
pîşe
kalo
luis
sûdan
modê
xeml
toreya
##kurdî
warş
brîtanyayî
zaravayan
nûneratiya
tengavê
kitap
macro
macarî
danîş
1990an
astengiyên
xebitandina
ezmûnên
buhara
durust
feqe
tole
linuxê
usman
baxên
baxçe
îşaret
cîranan
##tekin
menz
gerîlayan
mysp
mizgeftan
veşargeheka
hişkkirî
pestanê
waşin
difikirin
rêberatîya
bondek
günd
parlementoyê
sîyasetmed
derfeteke
xetereya
komputera
zincîra
navborî
bektaş
mobay
##matû
gelheyê
##enzl
serdemî
rêkeftinekê
nuner
christopher
darizandina
##eee
temenekî
kêmasiya
muhammad
qumandarê
derengîya
##pinarê
fêkiyan
dilsozî
heskîf
britann
fêmkirin
kanaleke
firehnijadên
mişextî
jimmy
hesîçe
##kewt
dirûşmên
qudsê
şemsedîn
tundûtîjiya
neçarî
jaro
##office
dwênê
îşkenceyê
erbakan
castro
makedonî
aktorê
kîsikê
##ography
rasipartin
hevzayendan
stevens
yekalîkirina
debête
evdirehman
vîtamîn
garden
hedefa
kategoriya
bidawîkirina
blood
pêywsît
ceyhana
##5f5
sersax
hawirdorê
hezexa
pilemorê
millkarîa
explor
vincent
kundirê
metodên
dramatîk
relig
petraeus
concord
bêstûnê
bihatana
dêûbavên
##ksembûr
navaroka
lopez
borrîh
baristeya
malmîsanij
îhtîmala
swesra
arabkîrê
ontario
bhutto
navbeyna
tebrîzê
xameneyî
##unzaya
f5f5f5
strychnos
cuh
cef
düz
eya
ekin
fînî
fînan
gan
gara
henî
haç
ile
kahn
mé
mort
nîye
oman
pistî
qêr
riyê
sı
sult
tola
taca
two
ung
xama
yes
zih
zîm
zoo
çon
çors
êşê
îxan
şk
##rı
##retên
##rix
##hew
##marên
##ouse
##lava
##lînî
##silê
##soy
##tarê
##tab
##vers
##kor
##yed
##was
##garê
##giştî
##نا
##ون
##ат
##ία
diye
kuv
biber
lion
##enko
##elius
hebûnê
##ehe
##eyana
heri
##amend
berpr
bereket
##emi
##omanî
yap
##îyyenews
alma
alava
##urya
kiran
derpê
raberî
vegotinê
anhalt
neçe
rojnivîs
komandarê
gundeke
##êzn
param
hevalan
pêşîyê
##ision
##ahil
barbar
biratiya
karzan
kesayetên
wîf
elewiyan
##itik
dinêrin
##dawî
tirm
stras
stîla
##bûlî
nûkirin
arr
ararat
dukan
hilb
bêkê
peyivîn
cihanîn
zimane
turoyo
parêzvanên
koyî
hemûdî
girêda
saziyeke
sazkarîyê
##ibên
##pêtê
peri
peravên
perîşan
muey
eser
##pirsên
sêqolî
se´
##ûskê
171
##bigih
paşan
hikim
minak
miletên
bikarbînin
rastiyan
dilawer
osê
##hatiye
zimaneke
dary
merkez
##rîsa
sînûr
##eqa
hesas
teroristan
terorkirinê
curie
curbic
spin
##ipî
alîkarîyek
federe
0336
xanimê
chel
chev
church
kelek
zêdeb
bombeyek
genç
096
##koç
055
##olojîya
roy
kmm
kongireyekî
qedrî
nameyan
kemana
kember
geştirîn
şîretan
mamed
rêxistinek
nêçîra
dihatine
kolanê
kolêja
saḧê
manuel
tundrew
zayîna
xwestekên
sche
monster
monroe
mînor
##ieae
hebên
taj
##emberg
demokrasi
saray
sarah
rêvebirêtîya
parlamenteran
match
vekirine
romaneke
şerrek
sedrenc
sierra
doug
batt
oncu
panora
hundirî
leyîz
otomobîleke
cengîyên
moore
doktorê
##kurdê
380
îstgehên
halîl
şûnwar
şikandina
soft
kevirekî
cudah
birayêt
belgeyan
helwestê
xwenîşandana
rêbazê
stiran
dilovanî
krîstiyanên
pêşmergeyekî
zazaki
afirandinê
tûndî
mizgeftên
ecev
ragehandinê
murşid
hirçê
piçûktir
kesayetîyên
pirojeyê
xulek
riwekeke
zozana
##nett
rose
dasy
zindanên
çewanîya
1963an
medyayên
##eberg
peace
zankoyan
çeto
rasmussen
diçên
gomana
baqûbe
rojnamegerî
şekira
lubnanî
nuneran
nimûneya
ubeydullah
sezgîn
kebanê
politika
küç
montana
cadeya
ayetula
1921ê
arasteya
festivala
##opolîtîk
şefîq
bruce
kaxiz
bîrdozeka
##ورد
marksîst
şahidên
edîtoriya
supasalarîya
physics
kînanî
ragihaneka
antonio
roboskî
sindoqan
derxîne
louisiana
belçîkayê
kırşehir
karîbê
gotîbû
televizyonî
tevdigerin
vîtamîna
kodetaya
çargoşê
kentuck
azarpêrtê
tevbigerin
rawêjkarê
mbc
lêbihorîna
panama
qîmeta
giftûgo
nûçegihanê
teknologîya
aşkra
grevên
nîkolay
sarîqam
vatîkanê
karevayî
xeznewî
workş
cihanbeyl
pawlos
tüb
ubeydela
dadimezirîne
teşwîq
irelandaya
herşeş
philosoph
indones
jaguar
lloyd
yûhena
bedîrxan
delaware
nemirovane
curbicur
auth
audi
acanth
cı
chem
dorm
durî
edi
fîd
flu
glo
giyana
güm
lîr
most
meye
nl
pub
sorê
semed
uc
vie
wur
xof
xrist
çîm
îman
##bînê
##rînê
##rîsê
##miya
##zawî
##zell
##leyî
##lûl
##êv
##tyl
##vekirina
##şo
##qur
##04
##kö
##kûn
##ûzê
##pos
##xx
##ania
##inar
##atas
jih
##elo
##aly
##avi
##avend
serer
serde
hesê
herfên
##andîyên
berva
berxê
evren
##orie
bağ
bawanî
##olîn
ewçend
##keit
##îyara
##endam
##êrek
almanîya
iraqîyên
##uridae
rojda
komîsyon
##saw
girls
##akom
##akis
rêkirin
rêgir
rêxistî
##ewîne
bire
karyar
hut
elif
elella
elereb
##itn
dink
binerin
democ
dibît
malezya
stûn
stûnên
arinç
dubey
hinarê
teorî
##axên
##hilwest
kerc
##îhê
endulusê
konan
nivîsan
##idt
1831
encamek
dikine
##opan
##icut
##icebus
sazbend
##recht
hello
##ected
derbirî
dengdar
dengder
##îdeya
persî
danp
muxal
rojnameyeka
diravê
diranan
taybete
##pere
xelek
##estes
wekîl
ezmana
şêl
berpirsîy
167
suwey
sudanî
şandekî
teksas
wezaretî
zaroyên
milî
hezo
granî
grande
naskir
nasnavê
birîndarbûn
bret
zêwe
ferd
berhemkirin
celîlê
zimannasên
misira
maine
darm
##dêra
ehrar
##gelek
akpê
civaknasiyê
dikaribû
silêvanî
sele
newa
##ûşên
mediyaya
bajarekê
again
dikt
hêviyên
çûkan
##olojîyê
guherand
damezrînin
xwedayî
nedîm
qezay
rengek
##ekariya
##ekarîyê
babetan
tîgran
opt
temir
vegeriyane
filmî
tîrêjê
bingehîna
bingehînê
pêkhatine
eylo
dolm
dolarê
şaneya
xwestibû
arîşeyeka
bidûv
dipsa
tewrî
tewrêz
qebûlkirina
sekretrê
bijartin
naha
rêvebirî
îtilafên
piştgirên
tomarên
zîndanan
afretên
afrika
banks
nexas
mazender
alozbûna
selahedîna
abdula
havel
hestiyê
binavkirina
vekişînê
conf
conan
zanyaran
qirkirin
otomobîlek
tûk
tahîr
qewmî
buroya
xerabe
pêvajoyeke
firokxaneya
simîlan
##skr
frans24
jimartin
stêrkên
asîml
şîretkara
neviyên
hêşin
bicihkirina
hakpar
urdunî
fikarên
##burgh
bigrê
pêşmergeyê
pişkinîn
hevdîtinekî
ziyanan
menûç
kîmyager
klasîkên
##eau
diaxife
efseran
teorîk
kaseta
1981ê
swedî
îmaratî
pauli
pêlav
pêlîst
akincîbûn
rabibe
##bajar
şiî
newsmatik
rohelat
1945ê
îdîayên
kelheyên
hums
hormonên
beyaz
lanius
##اری
demirbaş
standardên
office
medrese
pekînê
yunanî
hişmendiyê
împeratoriyê
oberp
çapemenîyê
veguheztina
girûpên
1941ê
pişikdar
lamium
info
pizîşk
weberhênan
xeyrî
oglu
##pelin
mehkem
kiça
i̇slam
gustîl
mekaniz
ykssê
australian
destdirêjî
kozm
public
rasteqîn
fexr
xwînhênera
ewqaf
sererastkirin
eşkêla
rudolf
tîbetê
sirşîwê
mertalê
luristan
aktrîs
rûbirûbûna
vavartin
sersalê
belgenameyên
zekeriya
belarûs
chrysant
mordek
##üssel
tigris
awistirya
biharbêhnê
materyalên
xurdemen
antarkt
dapîra
endonezya
göttingen
technology
nûçegîhanê
ejdehayê
griseb
slovenya
amsterdam
##odendron
orijînal
foundation
sergei
vekêşa
connecticut
cihdigire
konstantinopolis
elellaq
b1
blas
clo
df
hasî
hûk
jur
kena
lîl
nîr
nerên
netir
nou
nils
oğ
rend
sîrê
sbs
tl
tîra
tram
tonên
veder
woman
xişt
xazî
yok
yuk
zirx
çete
şav
şênî
şino
##ruz
##nma
##neb
##mün
##zhou
##leh
##leb
##tas
##tara
##qiyan
##kaz
##kiye
##kent
##cot
##get
##pil
##xir
##ju
##54
##´a
##f0
##çir
##çiya
##üc
##erto
##aray
##yayan
bikirin
bicî
##aton
##eleya
##alar
serber
serbî
##rdî
##raîl
##ehmed
##eyer
hera
##okeke
berm
berazê
##işandin
pêyan
##unus
##unia
ewr
##iyev
kirbûn
deram
dergeh
##evo
neut
destlên
komgir
amûra
amîrên
girar
girif
paras
wêst
hevbîr
pêşverû
##akirî
##aho
##uld
birç
bircan
bireve
kartên
gotaran
keska
elş
##ities
hemsl
demarên
demare
bihavêjin
states
emn
emînê
nûk
##nameyeke
##usalem
xwen
dudu
mezûn
dîde
hilmê
hildaye
çardeh
##xwest
çendan
piştîvanî
turkan
##lach
dewlete
kof
nivîsbarî
1845
1846
dihele
##tag
asman
tayland
perwe
barzanîyan
balî
eskerên
abidîn
142
144
##ifi
##ification
martîn
franca
zanebûna
rasti
hezan
kujêr
nasyon
##barzanî
nehiştin
bremer
##hatine
zêra
ferat
ferqa
ferset
herîra
berhemek
##iwanê
misil
guide
eşq
##rîman
kûş
rojnamevana
##odelph
dame
nexweşîyan
xanedanê
weil
weiß
kell
reşîdê
bawerînam
041
ayşe
##dayîna
##olojîkî
şahban
roava
kovan
qezenç
hêjî
derketîye
derketibû
pesin
mêrekî
şîrketê
tememî
topal
toprak
filman
tîroj
şoreşgerî
##atory
hizaran
silîvan
bendavan
nemanê
zerîşka
tewereyê
##oxa
pasevanekî
shah
##essanî
hebî
##barankirina
impat
îlham
biley
africa
rêjima
mazdek
davis
dostekî
lawikê
temamkirina
hestiyar
teknîkê
binavdikin
dişopîne
jiyanek
##mayîyên
norşînê
cotyar
result
dabeşandina
##ûtiyê
kenned
sipas
galîs
sûdmend
cengîz
scr
##rûz
gefe
parçeyan
şaredariyên
nazê
karmendekî
têkoşer
rijandin
sadak
psîkolojiya
palo
##ırın
gunehkar
peymaneke
belgefîl
belgefîlm
buhurî
akademî
krîstyanî
1866
voldem
fikrê
deverekê
##itzer
##fels
taybetmendîyên
##reşkê
hispan
ewropayiyan
eskerê
reftara
universität
fatih
perçeyek
laziq
lazime
dersdariyê
guncaw
ûdîyye
1974an
homos
dabirandîyên
rêveberiyên
tûjîya
sembolên
diparêzê
platform
rohnî
120px
sehwe
raportekê
kedkarên
small
sentez
bistrên
singap
pênase
foot
terîqet
meseleyên
bipejirîne
dimeşînin
baqilan
barzaniyan
otonomî
bikire
lanka
stratejîya
bicîhkirin
şengal
xamûr
hişmendî
girêbestan
münch
kürtçe
binemayê
veguheztin
nisbeta
patrolê
cihgira
kraenzl
şadîmanên
qanuna
têgînên
britanî
zaniyarîyên
i̇smet
şikeftên
##buyî
physical
şanaziyê
ejdeh
kılıç
ticaran
stanford
xwenîşandanan
beranberî
serokomar
destkeftên
destkeftiyên
nêvxweyîya
qefqazê
endazyariya
alaveke
départ
kastro
terror
xweştiv
sardîn
serkirdayetiya
dîplomasiya
ebdulmutel
pijandin
jînenîgariya
##nîkov
kûzeyê
fîkrî
şankuşê
aachen
rikeber
perçemka
vedixw
filîpînê
culture
şikeva
elamirî
keybanû
domînîk
francois
dîjîtal
bedirxanî
neşterger
neteweyiya
yurtdaş
bayezîd
tawanbarên
kurditanê
baglarê
عبد
xoşhalîya
dictionary
barselona
hawwilat
avhewaya
library
arizona
minnesota
wîfaqa
küçük
kentucky
chrysanthemum
777
aud
bran
ble
cya
canî
cru
cenosî
felat
gîra
hig
jess
jup
kokên
lom
loh
manên
mona
mrov
nîlê
nahiya
orak
perên
pid
qewl
rov
sé
sene
senc
tiş
tha
toc
ves
viv
verm
xve
çîkê
ül
şanî
##band
##reyên
##nîs
##niz
##nûs
##mm
##uca
##lîl
##sos
##sson
##tok
##teyê
##vre
##kem
##yera
##ûdar
##gem
##jên
##نی
##ís
##ны
##ия
##ance
##ineyî
diavêje
diafirê
difiroşin
biyê
liver
##enasî
##elis
hebeş
kurdische
##madî
##mayan
##eyme
herd
##andro
##oki
##eden
##ilagus
evên
##îkirî
##ihî
##ihên
daily
##onc
##esip
##oming
##unn
##îreya
##ezin
years
##ojî
kirdin
##evaniya
destkevtîyên
##bern
komîn
##sawî
girekî
girikê
paragu
##nau
pêşbi
##îlar
rêde
rêça
rêhes
##ahar
##ulah
bart
karad
kartal
keskes
##bûtî
emp
nûtirîn
çavî
erban
mein
ing
##engên
çarşembiyê
##erab
##tîfên
devokê
##hilbijar
kota
nivîseke
1842
encamp
wekalet
##igma
##hein
poland
##otek
helmet
##îdeyên
behîv
civatan
baldar
xelif
azm
see
##diq
navendek
##bian
firînê
dîroknasê
166
suzan
maroko
lept
kevan
bêja
##ketinê
rastgir
##ohn
dilên
diljen
dilpak
dilgeş
134
pîrmam
advan
guhûş
guhart
##îngradê
biryardanê
merlin
kûvî
maden
hespan
##neg
self
selul
##iph
216
0399
0367
##lahoma
xanth
xwepêşandinên
heyna
heyfa
heftan
chann
dirêjahî
mell
melevan
bombekê
bajare
##ocî
bawerim
agadar
felluce
edaletê
bajêrvan
yekîtiyê
076
qerqel
##asyonan
##zanist
namûsê
nedibû
salaneya
pron
prince
şîretên
çîrokek
buck
oliver
bendavên
kurmancan
dozdarê
pilanên
caracal
basirmeya
anîbûn
nahîne
nahêt
rojêva
mamostayan
îleyhî
bilûrê
##phrops
sosin
vebi
meşhûr
formê
bêhêz
dizanîn
pîştî
hoşdar
digihêjin
kalkan
okt
alfaya
torr
nimêjê
bahr
nûnertîya
brachy
anatolî
xezalî
xwarz
yewnaniya
agahdarîyên
izady
zelanda
zivinga
şîretkarên
pîrozbahîyê
xwenîşandêr
wêrankirin
retkirina
berhevoka
têgihînê
ozal
lindau
volta
derxistine
kunth
neynikê
îzolî
şaredara
ident
statu
ulus
syd
zordarîyê
kasa
hetta
demokrasîxwaz
hevalbendiya
micahîdên
çewlikê
magnet
región
transk
nişan
gör
deqên
temaşevan
mesîhiyên
1971ê
1957an
pêşangeheka
protestokirina
lîterat
meksîka
tezker
afirandine
250px
kelhûr
zeviya
mutleq
1964an
radyoîz
xortekî
hêrîşî
birîtanî
konferanseka
horo
gûh
dîmeşq
parzemînan
ziwan
dinivîsand
hertişt
karkiran
##bûyîna
gendelîya
fizîknasekî
zîndanîkirin
catal
catherine
ziyareta
heşîn
##pinar
defin
tundûtûjîyê
bengal
biguherin
tevlîhevî
civînekê
maweyek
gêlê
kêrhatî
bîrdozek
kolonyal
temoẍ
federedewletên
jerusalem
upload
padîşahê
##bikar
hekarê
reformê
kawayê
awards
italien
kirêkar
binecur
nekarîn
stendin
educ
dadikeve
werdigre
pîrozbahîyên
kutilk
rikber
diafirêne
bewin
diranfîl
sody
xwepîş
bingihîn
nellên
nellêna
pckurd
kivşe
dadperwerîyê
metropol
eugen
vîdyoyên
senaryo
rûviyê
redaksiyona
komonîsta
departement
evrensel
venezuela
şîmon
sehabeyên
nedestûrî
marshall
alarabiya
dawêrd
##ycteris
magnoliopsida
diyarbakır
dûblaj
köylerimizin
##woodê
oberpfalz
kennedy
760
950
akar
ate
aich
brass
cûm
dür
dvd
edin
fara
fig
gat
glas
gût
gbag
hîst
hînê
hrant
ibrahim
jag
jord
kera
ms
mhn
nerî
nîh
nîm
nekirina
ou
omanê
qand
sarin
tût
vital
wanderan
xml
yoz
yaman
zîyanê
zubeydî
çêjên
ét
ême
şîf
پێ
##bronn
##rit
##nûn
##nad
##niv
##itina
##iensis
##metên
##zew
##udan
##ujî
##upt
##lyn
##sok
##sûs
##êma
##vandar
##şûr
##kı
##kum
##yûn
##yne
##gû
##genî
##سی
##çim
##ەی
##öm
##لَ
##مان
##ål
##ρα
##ον
##eroman
##irc
dicer
diaspora
kuç
kuwan
kuderê
##ektîf
dehên
##stä
##îneka
##înekê
##îniyan
##atîst
##alı
serên
serkevt
##eyiya
##andanên
beram
xweyên
##ilo
##oriyan
reco
rept
pêtir
pêlê
##îyeyî
202
year
allah
alimê
##urp
##anas
kirrîn
kirawe
derne
##under
##asayî
destkarî
destdane
##berger
salam
gundi
girîn
parsa
##îsor
##isand
barbara
##ewarên
biramber
##kêfê
hume
kesa
elg
##kariyên
##karane
demarî
dibim
malt
##daxê
emb
eme
erş
##aşan
duwê
duşemba
inn
inqil
mezaxt
wehajî
başb
bêq
avaniya
dijberê
teatra
##ecik
sûrya
beşeka
##îzekirin
nivîserên
##idium
1814
##opithecus
wergire
çêker
çêlek
helen
muda
gerdî
##apîne
amas
1100
aşûra
sêva
peywendîyeke
##bie
firgeha
firef
157
paşi
162
şandîye
terek
mesaf
erdem
##baranê
nehem
oscar
azadiyên
adet
adlari
##xistinên
pêndro
##ksek
ebdulx
##rîpt
##westin
rêzber
tişte
nivîskarek
##kers
gihandine
astero
reşî
reşan
##lanzen
dêrîn
dêrel
telîf
telesk
berfa
edenê
##wart
çalakîya
koroya
058
tuber
224
şehrî
##ûbayê
çîrokeke
muzik
##ency
##encia
dihatibûye
tîror
kolles
xistibû
buc
konserê
leşkerkêş
konfaran
##zêm
##zêde
schl
kurmanckî
sebra
bangê
shad
islamiya
corpor
gazella
nahînin
rûniştî
lewis
imf
##ellschaft
îtalîya
masiya
şîayan
2005ê
lawo
lawirên
exell
afgansitanê
pîkolek
pêşinyarê
##mayeke
organa
concer
cotkaran
xaneqa
mûşek
##ını
xirabkaran
şêrwana
delîlên
komisîyona
veşarî
faber
323
bavan
seqayê
okum
oklahoma
372
zoro
scient
gewer
rehmet
tomarkirî
simo
serbazîyên
##ological
xwariye
rayedar
423
cejnên
firehî
sûzan
1980ê
1980an
yoon
jimarey
kandîdkirin
hêrişan
##iyeted
urart
retkirin
têgiha
dadwerane
##ship
kapital
disc
axaftinan
umum
darayîyên
berdinê
eskender
afirandiye
îsmail
xaço
zextê
demareko
pêşkevtinek
wîlayet
egîd
elmaniya
hurmiz
swîsreyî
assos
tawanbarkirin
sifreyê
cinsekî
berdevkekî
elsomer
işık
atlanta
hawarçûnê
qurbaniyan
şiroveyên
bikirana
tekoşînê
gihîjtine
##ephone
xamineyî
fizîknasê
yunis
letonya
tefsîra
fotograf
hyper
çepg
patrick
berpirsî
manga
sandy
pêşkeftinên
armenîyan
müdür
elbaka
şêwekarî
katolîkî
dîplomasî
rêkxistiya
serfirazî
##îmetre
asîmîlasyona
ebdulhuseyn
publication
pergaleke
manevray
veqetîya
roboskiyê
sîxurî
##şehirê
bîngol
şukrî
söder
legend
amûreke
kampanyaya
diguherin
enzîmên
##view
elhesenî
perrtûk
arîstoteles
neheqî
misliman
şîdetê
negihijtine
binivîsin
theodosius
dûmahî
nikarîbû
qazaxistan
bernavka
şêxbizin
kongirêsê
ferêt
##roşin
adapt
fethullah
tevbigere
pirtuk
şerafettîn
giranbiha
openoffice
keferdî
edebîyatê
şîrketên
portugal
yaqûb
payizavayê
pêkdihat
balîyoz
tabloya
children
dûpişk
lewendî
bahçelî
gerîllayên
sêgoşeya
cemsera
lihêbî
pretty
lêxweşbûna
davûdoglu
zeraq
bombardiman
zirîpoş
avkevirê
bêkêmasî
gbagbo
780
930
aeg
aids
bub
bokan
böl
cut
cox
cou
cyn
data
eus
jmar
jale
keşk
kafir
khal
lgb
ns
nînan
oda
pand
panî
qîn
qev
qûb
ral
tih
tîna
tazî
tîlê
tnt
vên
wim
wax
weyn
wag
wisan
xewa
xate
zîya
zib
zeger
zuc
çı
êran
şara
نه
##baya
##meka
##ming
##ai
##zêrîn
##liy
##kim
##db
##didin
##wera
##gs
##gas
##ود
##بن
##но
##eras
##irek
##yayên
dianîn
diaf
didî
diyarê
##ekeyî
##ener
##athan
##alyayê
serx
serjê
##rade
##rach
navpen
##ayiyên
##ileya
##ildest
##omo
##îriya
ewana
##eziya
##azi
##azim
kirn
kiribin
##imer
##aslan
anq
anak
negot
salman
##girêdayî
##girtinên
giravî
##îsar
yeketiya
##êdeya
pirç
piroz
##îlana
200px
##ović
kargeh
elîş
elkî
ellah
##iteya
##gerd
demildest
malay
beat
arîn
arkan
arsen
xwûdê
duduyan
##ches
##chos
başbûnê
hildide
bêxin
bêgiriyê
avûh
pêkut
çarşema
devrim
##osent
kerk
mirovatîyê
endulus
daxwazek
rûdanên
184
1829
1819
endamîtîya
##igne
##etîx
##otes
##otti
danişt
danimar
diruş
##oglo
baltîk
partîyeka
partayetî
esma
esna
îsmayîl
bibih
baku
##dikevin
proto
ebul
ebbû
ezmanê
pirsekê
151
152
naîr
marmas
minasebeta
êrîşkar
erdeş
erdîş
##haus
nehêş
muher
beşdarbûyî
azadiyan
admir
ferho
afg
gulten
ebdulc
kût
romîkî
romeo
civakeke
##thes
jêkirin
##ipe
215
kurdistaniyan
komîteyekê
##kerkûkê
helbestek
0337
xwepêşandin
xelatî
##lêk
gihiştin
cho
keleyê
bizew
taybetiyeke
medyayî
çalê
bawerîyên
##ixî
apap
edwin
çalakvana
hêvîye
056
##wezareta
pêdv
225
girîngtir
federalîyê
nerînê
veda
##eptî
dixuye
##ries
##rida
kongireyeke
nameyeke
nedir
hêjmar
cemid
cemser
andrea
plato
##ondo
pêkhatin
nîşaneyên
comm
dolmeh
qado
sitrana
310
##birîndar
şirîn
gunehê
##oyun
##oyekî
metris
##iegel
pillay
bangkirin
banghêş
keçikan
baskan
kilora
kilomet
teym
îtilaf
rawestiyan
piştgirîyê
i̇ş
denez
##acea
afrîkayî
hebûya
şeşema
hawara
hawêlê
sîqal
çandinîya
pêşnîya
##ylon
teknoloc
meşand
şehîdbûna
norşîn
makîneya
della
zanyariyê
only
danûstend
ekv
bavyera
dîtbar
otomobîlekê
hawl
zorava
parçeya
serkeftinên
gilîyên
nivêja
bahs
bahama
hoyî
hous
burmayê
zinaran
sedemek
firokeyeke
lîstikvana
sêrtî
co2
cook
nemabûyî
sûda
till
dixwezê
fizîkî
fizîka
pîrozbahiya
xwîndina
nader
nivîsîngehên
pennell
buharê
westen
##ajansa
neqil
tevgereke
##shire
1809
##tekîn
sîyasetên
joan
laden
bestekar
biyokîm
şivanê
eciqandin
milliyonek
demarexaneyan
syri
1983an
fatim
1855
roketa
roksana
nefret
nefermî
##kiirn
dewrêşê
lîztin
lîzgeha
elementa
lîseya
difin
temaşevanên
1972an
stiratecîya
1969an
darêj
pencşemê
rejîmên
nepal
kayapinarê
sentera
wehde
yezdanê
pîlana
edîp
sendîkayê
sewalan
centre
dimeşe
zalim
çîyayên
moham
hayat
1918ê
rûniştinek
medreseyên
rott
tacîk
etnîk
buyerên
dîyaloga
dahûr
zulm
ronakb
doğu
pêşbirkê
leşkirî
hesîb
pûj
şahidê
çaksazîya
rûmetiya
hizbullaha
şikeftê
eleqeyeke
tendirustî
bikarhanîna
fringiyê
felekeddîn
ragihanek
derûdorê
binecih
nekariye
nîzam
mukurr
teybetmend
xabûr
marmarayê
filestînî
##ско
aktrîsa
doktorayê
biaxive
population
kalîforniyayê
guhartinên
pêkenokên
islands
birds
xizmetgozar
pedag
tîbetî
mezreyên
aktrîsên
tevdigere
##hardt
giredanên
awistriyayî
arjentînê
fanta
xirîstiyan
##çalak
dûgelên
dynam
lotkeya
erdnigariya
veqetiyayî
xanedanên
##efilm
dabimezrînin
îtîraf
helepçeyê
translation
lynx
article
keyfxweş
wataya
sylvilagus
tzp
cilûberg
bayîz
##gehînke
mountain
afxanistanê
gojmeya
ahaşveroşî
taksonomî
sîmptomên
hotêla
kentaurî
afrîqa
cemiyeti
katêk
bilbilê
süleyman
##kkarîd
danayîfer
berovajîyê
guftûgokirin
qamişlokê
hildibij
zîqar
çorsane
impatiens
ebdulmutelib
mhnt
müdürlü
640
680
934
awe
bekar
betan
betîx
cografî
ekî
gak
gînê
glu
giyayê
gym
jal
kib
klam
kix
lêj
lef
lerz
mn
nil
ole
qatên
sow
té
tum
teyî
torî
timî
vêd
viyan
wiş
wekê
xemê
xakê
yj
êst
şon
кур
##ejî
##rina
##nus
##ieh
##iber
##zu
##led
##leke
##letê
##sefa
##sberg
##qew
##kekê
##yîna
##ûtan
##deyeke
##waya
##gara
##parê
##از
##field
##çı
##ەک
##ès
##°c
##ekiş
deve
jiwan
##elîk
##elop
##weg
hesta
berazî
berko
navincî
evqas
bacel
rezê
##oment
208
##îyaye
##êroj
alayê
seroktîya
kiryarê
##eşan
dert
dersîmê
bost
##undî
desta
##adelph
##berekî
sall
serokêherêma
amb
ambul
girî
parkê
yekşem
pêşiyên
pêşandana
##ahk
##rof
##royê
##roma
##roşe
##ulis
dêla
##eweran
kargehan
kareba
##îto
demdir
##dağ
emma
tirkîya
erg
aryan
##efeld
##afra
xwo
xwûda
duk
dud
indust
##chinus
hilbi
çareyeka
çarçû
çarqolî
çargoş
##xwed
##êşan
turner
turîstîk
devrê
##abet
rewayên
endust
1830
1835
werqan
##hewl
sazkarî
redkirin
redkirina
redîf
##reib
dawetan
dibejin
heli
tayib
perist
parliyamentar
parliyamentarî
parliyamenterekî
behî
##ogram
sequ
2011ê
143
ebo
##bixwe
şêst
teqiyan
çareserîyeke
paşgira
marm
nûçeyekê
bikaranî
##obus
kujerên
dixwazî
osloyê
beşdarbûn
destpêkiriye
##iwar
pênûs
tênin
guş
##rîb
akadî
hesinê
hesse
dûşemê
spek
##îba
nivîskariyê
kurdistantv
0349
çandên
heftiyan
cher
##trîn
252
hewenge
hewengeyê
##ugu
payîn
efend
##ixw
xebatkarê
unic
apahk
edgar
dikelînin
aywal
pêdiviye
guherto
nedikirin
malbatekê
dimey
paytextî
çapkirinê
sibeha
rêxistinî
koçka
heyat
##hant
##nasa
290
budap
şoreşên
navdare
tundîyê
leşkeriya
##sea
kabûl
qadirî
bidlîsî
schne
îngilizî
ronah
metelok
kurmanci
çavdêriyê
shi
short
##artes
stranek
eşîrî
gaze
tapir
berjewendî
lêkolînerên
##wain
mussol
parêzgehekê
davîd
davud
sîwan
##ralya
rezewî
vekişiya
sizadana
norman
makeyn
##schen
reso
himbêz
hûrbikin
bênê
qeyser
qeyranê
ekrad
bavî
zagro
henase
kewt
gotareka
hamp
pawe
peydakirin
scre
tûjî
parçeyê
gilbert
nivê
qewmên
îstîq
şewitand
mahir
camus
rijde
rijênên
elektronî
peqandin
memor
memdû
qaydê
cewer
##tenberg
tilî
akinci
fransiyan
xoç
480
xêzana
esto
##salane
mercedes
beyannameyekî
referandûma
retîk
mexico
têgihiştinê
ozdemîr
hişyarîya
deverek
şêweyek
nexşebendî
pêşmergeya
bermîla
teqiyaye
bestekarê
merivên
enstîtuyê
##dd77
nexwez
serhedî
garc
hêsankarîyan
demarexaneya
derbazbûna
frankfur
1853
muzîkvan
muzîkjen
fethî
îlankirina
satell
allay
polîtburoyên
qalind
pehn
guncav
fear
kutayî
hijmartina
okyanûs
mesref
veqetand
napejirînin
qubîna
perwerdekirinê
hesabên
amêdiya
pear
nîqaşkirin
zîrekî
gihîştin
xoşnaw
îngîlîz
despêkirin
ddkd
bêdengiya
yarîzan
77dd77
1959an
fînala
mandat
diherikin
persiya
xaneqîn´ê
stratejiya
nûjên
nûjdar
##ictis
merasim
roth
##bicê
1919ê
##ikrêj
images
rahênana
nîvgirav
xerckirin
160px
fêkiya
ebdulqadirê
oguz
avakerê
serlêdana
2020an
reportekê
kolonel
northern
jehrê
seleteyên
asîmîle
jerry
eleqeya
muşekên
rijêmê
terîqetê
osten
söz
xwînhênerên
mirîşka
tivêjeyîyê
celebên
bokm
systemat
makedonya
exlaq
vediqet
xizmetgozarî
perîdank
viyanayê
seidîyye
berevaniyê
portûgalê
purp
zîlanê
xoleka
nawçeyî
mukriyan
howard
pêywsîte
dîplomasiyê
îstîxbarata
vedişêrin
destpêşxerîya
darvekirin
basketbol
têlef
tendirûstî
robinson
ebbawî
nijadî
pirosesên
mlm
bêgoman
serokeşîrên
xwedawenda
wergêrê
ansîklop
şîrazî
propog
derbareyê
makeqanûna
oksîtanî
hyaen
hîpotal
cewherî
tirbesp
mûlûleyên
bihuştê
teftîşê
derbirîna
koamrê
sêzdeh
guhaztin
barhilgir
peywednîyên
mêşhingiv
uppsala
mîrektiyên
ûrûgu
serêkanîyê
mitchell
essays
encyclopedia
zeppelin
guatemala
pozîsiyon
xrîst
##otragus
database
puccinia
tübingen
jiholêra
girifta
kuwant
mudaxal
assosiyeted
demdirêja
520
aubl
bp
bîs
bîd
cbs
dl
dorî
dînan
fbi
fob
foka
gap
gros
gêl
hêd
hûd
jû
job
kane
kenî
lakt
mia
nara
nina
nos
pä
pip
qoz
rêd
río
sá
sarê
sêd
seza
teşk
toma
vog
xoya
yara
yêrê
yariya
zeft
şîna
##bc
##bêr
##bot
##betên
##bihê
##ejm
##rig
##ress
##rîtî
##ribê
##nêr
##niç
##ningen
##hik
##ief
##uct
##lenburg
##sir
##sik
##sûl
##shausen
##tia
##kob
##yîyê
##wi
##pîk
##pîş
##ەت
##ەو
##äu
##ре
##ۆش
##ār
##erk
##inz
##areyê
##yah
diy
bivê
bieber
##enat
##enstein
##îni
##înok
##atu
##elf
##avaya
seredanê
serhel
kurdbûna
kurdolog
##radî
##mac
##eyîyan
##andanê
bermayî
evînî
##ores
##oris
##orkê
##oriyên
baasê
bapt
daç
daîşê
alm
alên
##ebûne
kiraw
dersan
derçûna
derewan
##ikekî
radeyê
rabîn
neguh
goethe
rojîn
rojîya
desteyeka
##addafî
komkar
kombenda
##dare
salname
hevin
hevber
##êdanên
pirên
##îli
##ulata
barn
barzanê
##ewîst
biraw
birahîm
##kariyan
##ites
##enthal
maleke
stem
standiye
beeth
tirka
meis
intro
bêkariyê
bêsînor
avkevir
çareyên
cihgîr
##êşî
##êşin
##kiribû
##laceae
keremê
mirovanîyê
koc
kosta
nivîser
nivîsaran
daxwaznameyek
girêdaye
endametîya
##exe
##icola
##kevê
zanîngeheke
asy
asif
pertû
perdeyên
kurek
##îyewe
tevê
esîr
kêlê
kêste
azîm
aşîtî
##ostî
abx
##iflor
êrîvan
ezman
hevpeyivîna
firan
firro
158
şêwez
##îvers
şandeyek
herwek
marmara
zaravê
isk
mile
axil
dilket
133
##kuş
belavbûyî
adîl
guhêr
guhandaran
feratê
dadg
berhemanîn
yekemin
tales
ebdulrezaq
darb
mers
kûçikan
ehrîman
rêzbûna
sînûrên
diyardeya
##mert
dres
nivîskariya
arten
kurdistaneke
osmanan
0369
chal
chama
keliya
hewaya
dêrsîmê
bombrêj
medi
orta
edison
gencê
bajêrekî
##ctor
hêvîyên
korta
071
051
çûkên
vedît
vedide
şahan
xale
##rium
guherînek
qedir
272
malbateka
dimêne
geşbûn
temena
temîm
##nasir
lago
many
eyşe
şans
şaneyan
hevkarîyên
siltanê
sillayê
arîşeyek
germiyanê
nêvî
ronaldo
sirûdê
peyvendiyên
thy
three
huseynê
paspor
cinaw
gazin
avakirine
qumaş
img
##ellus
îtalyanî
sosretên
revolution
haris
harita
hawêl
didina
abdulbasit
havbeş
dizîn
valahîya
şêrzad
##partî
galeriya
borîs
dîtî
dîtîye
zagonan
senary
antio
bahozê
santî
rehên
rehetî
zaraveyê
hatibûne
wales
urdon
şiko
şikand
##bilî
sûcê
beyrût
xoyan
xêzanan
##burger
şaşîyek
##ırım
soul
astengîyan
gerdenz
zêrevanî
balafireke
têgihîştina
cêbe
baxçeyê
nesîf
volkanî
poet
nûjenkirina
nexşeyên
1803
1806
xelîfetî
motkiya
hassan
tarîxê
natural
kakilê
myr
bolşev
îmaratên
pezê
allg
regg
kêmanîyan
neşiya
koçberiyê
deqs
saxlemiyê
encumenê
##eçîna
hijmartin
eyaletên
1966an
puerto
niviskar
kelhurî
lînc
mîlyonan
serhildanan
englîzî
bisekine
##qadir
pêşniyarkirin
fînlendayê
semînara
bombebarankirin
tekoşîn
hikûmî
akincîyê
deynê
francesco
molekulan
hevjînê
emrîka
cnnturk
pîvazan
gulleyan
damezrêner
îrakê
diclê
xercîyên
prag
deştên
kongre
baxçevaniyê
perestgehê
digehine
bibîranîna
maweyekê
xiristiyaniyê
ordî
##kewtinî
şeyh
ghost
federedewletê
matematîkî
birîtaniyayî
kêzik
vebikişînin
tirkmenan
konfransê
rêzimanî
lûksembûr
provok
mukrî
susan
hewcedar
benzînê
îlamê
lindl
bombebaranê
venezuw
îbadet
şerab
diplomas
operasiyoneka
kurdisanê
elewîtî
îndonezya
atlantîkê
tofîq
tefsîrkirin
şirketên
##babwe
brandenburg
tesîreke
süd
hundurîn
cedv
restor
çarenivîssaz
vulgar
dujmin
serpireştîya
vaku
şerafettin
pozîtîf
oregon
##revayî
piroseseka
vîdeo
kinder
entertain
sunday
andré
kufra
harvard
feraseta
brooklyn
sikildanokên
broadcast
##enschaft
herakl
##bourne
spîrêz
kızıl
russell
qafqasya
simpson
manîfestoya
hêlîpan
magazine
egîtîm
berprisê
mazenderanî
radyoîzotopên
lgbt
gerdenzerî
725
aar
cans
dí
dyar
düssel
eye
glî
hdp
hût
jew
lîk
memed
mift
mîyanê
narin
nub
nwê
nrt
pok
tonî
teza
ugur
vaye
vipera
wetan
xiya
xûn
xandinê
xiyar
îberî
ûrd
şîz
şuna
##ble
##back
##rara
##rane
##nekirina
##hanî
##iger
##zîk
##ukî
##lîk
##sûd
##veş
##qên
##07
##kp
##cow
##ûy
##ûyên
##ûkî
##jiya
##çay
##τα
##anek
##irq
##irna
##arma
##yada
dick
difiroşe
bidan
bidê
liz
liu
##enk
##înar
jiyanên
serketin
hemam
##eyr
##eyîyên
jîyanî
##okirinê
berwar
xwedana
xwedayan
##emy
daxwe
dapoş
rezan
reben
##ebi
##uru
bostan
rax
rain
goga
rojh
##adok
salîyê
gundem
gundistanên
gelerî
girew
parzê
##îsît
##bext
pirî
pirtirîn
rêg
##isk
wan´ê
##îşte
birra
kardî
kardîn
karebê
kesey
eld
elka
##itîya
dinar
dinyaya
piştra
##izyona
dibareya
bihin
bihûş
vêca
##bûlê
nûvedan
erc
erît
xwîşka
##înaya
hilbir
pêktînin
pêkbîne
dijwarên
tewl
sûrên
##lain
kereng
parêzê
##îzenê
##idus
rûya
rûdaye
1839
1827
1841
##umi
encameke
girêdide
xudayê
##lind
lîsteyê
##opînin
werîs
dawetê
##ibana
##iburg
##otrop
sedîq
behane
awat
gerîya
geryan
tevbidin
##perist
partiyek
aşp
aşît
seat
seine
erebiye
şertê
bibli
173
178
172
ebî
firqeya
terema
mesopotam
tekûz
ismayil
yanjî
milya
milano
kujtiye
nasnameyê
diltez
nehênî
brev
zêyê
ferensa
##ûler
rêvebri
şare
şarevanî
cart
maça
nebatan
ebdulselam
ehl
rojnamevaniya
sperm
spehî
spring
hunerm
elîsawî
0360
0338
însiya
heysem
chu
astî
255
##aga
##agram
zêdebûn
oremar
##yemîn
##liche
wênegir
giringiyê
çalakiyeke
dikele
îslamiyetê
parastiye
##ensee
şahên
roos
damezrandiye
şorbeyê
qedrê
rêkevtinnameyê
namî
ewledariyê
##spot
cuma
watedar
##ekariyê
çapxaneya
filma
buş
qebareya
ahengê
##girtiya
kaç
şevan
şevekê
##ows
germê
monosa
hesenan
dipejirînin
albistan
peyvdara
millîyon
fermandarekî
dîwanî
cîbûtî
siyaseteka
ramî
kilaman
îtilafê
##deşt
denis
revand
lêkolînerê
nexwend
besê
çekdarekî
hilwestî
didet
canpol
dosta
pisîk
kîmiya
##ylem
kêşebar
girêvên
sozial
xwepêşandaneke
aştîparêz
kabulê
digihîjin
lupin
tanzan
370
340
bizavkaran
çarçêweyî
nimre
ziryan
nivîst
antalyayê
qewm
çaverêya
profess
simîlana
elhessanî
dermankirinê
zehra
xwarez
molla
##lorîd
memost
code
bidestve
psîkolojiyê
xerbî
xêzanê
estetîk
asîman
bernadin
mosk
540
tîmora
belgeya
digimon
nezanî
çeleng
hikûmeteka
cêwî
link
parzûnê
hemwelatiyê
îzedîn
xelîfeyê
sînemayî
qonaxek
japonan
şikestî
dîkeş
xerabtir
heter
wekheviyê
pêwendîyên
paulo
pestanên
homs
firotinê
pêşengîya
##kovskî
bîrdozê
güney
savaş
klik
marksî
##gorît
nîqaşan
brazîlî
zeviyê
gihîştine
felestînîyan
sendîka
yûnanî
sîmbola
biserket
food
werdigerîne
fehîm
fişaran
girseya
fînalê
misogerkirina
persephone
wergêrên
dikevîte
busele
hilbijat
merasima
germahiyê
yunan
jîyaneka
yazı
arşak
listeya
pizîşkî
sandikaya
pêşkeftî
mizgeftekê
karwanekî
ogg
baxçeyên
baxçeyan
betalkirin
mozart
leonardo
pûçkirin
argent
nîjadkujiya
qaçaxî
pezmijokan
bihevra
titûn
zahîrî
keştiyan
sîdo
italya
elesedî
pasîfîkê
spaniyayî
derxînin
elxeber
ticarî
susur
aksoy
bifik
makezagonê
konsolxaneya
##ская
##ocarp
hereketên
mestir
hevsengîya
kleop
##zimanî
problemên
derdiketin
hildiber
adams
rîşalên
navdêrên
zûlfeqar
hemdîya
otombêleke
rondikrêj
siûdîyye
##aphus
şankuşa
giregirên
lillah
filîstînê
cîyawaz
primakov
jêrazî
##horst
digotê
beryacîa
ispaniya
schmidt
gûndeke
tizb
birîfkanî
radikal
suriştîyên
geranium
tiyatro
feranse
waxtekî
kurmênc
qamîşlo
geştûgozara
klaus
cryptotis
bundes
kalaşnîkov
xoresanê
muharrem
mekanizmek
senegal
channel
corporation
demarekoendama
müdürlügü
курд
garcía
beethoven
612
bengî
cov
cix
fk
fund
fid
fast
fatê
frîg
gayê
gene
giç
hog
irak
jü
kala
kest
kip
kasê
kisan
lug
low
mcc
nd
owen
pha
qing
rîf
spir
twain
uca
vate
won
wad
weyl
wör
xp
yüz
zhu
zhou
çola
çesip
îq
îyonên
öl
şaz
şend
بۆ
##rewî
##rhein
##nu
##nanê
##nana
##neke
##hra
##mîrê
##siyan
##tekî
##vey
##vol
##qes
##kis
##krin
##cs
##carê
##cim
##ûka
##ûhî
##wich
##jet
##1an
##اش
##2o
##4an
##çiyan
##üler
##وان
##ına
##ík
##areka
diwan
bitinê
dewe
##stad
lichten
##enîn
##alak
##etekî
##etic
serinc
seraa
serwerê
##rdad
kurdew
##rada
herka
##okond
berve
##edon
##ayeta
##ilandin
##iliyan
dager
##onek
##onuk
##işkê
##îrvan
##azeyê
20emîn
alba
##ebel
kirim
kirduwe
##ikayê
##ikînin
boc
boch
##asp
nefî
gogol
desteyên
##ivîne
gundîyên
##sab
##saya
##ûmar
gelekê
gelale
amin
amîdî
têş
girte
hevkêş
yekşembîyê
yekşemba
yekdeng
pêşîlê
pêşkevt
rêberan
##isar
##iskî
##ished
##ahiyan
##rox
##uler
barth
karas
##îstekî
keseke
hemen
lêkera
lêkeran
dinerin
bihes
biharî
biharan
bihuşt
malika
stu
stol
îrlendayê
erbey
xwûde
mezun
##awat
avust
avru
avşar
hinik
##goslav
##êşa
sûrye
##oslav
##kirîyên
##kiraw
mezinahî
keran
keram
keriyên
miroveke
##îhe
konya
daxwazeke
rûdanê
1833
encamekî
encamdarên
dihiz
xudanê
##opha
##rema
asia
helawa
taywan
##media
perin
muft
awakî
dirê
##oge
amaz
##aco
##este
abid
şerker
baksî
174
1770
1400
peywendiyan
pirsana
hevpeyiv
firoka
dîrokzanê
çareserîyên
şandîya
keviya
çeko
bêjeyeke
isma
##ohl
grund
erdevan
nehînin
##oşe
##oşîma
têkbirina
##iqin
yekemîne
zimanzanên
niştîm
carr
mao
##avêtin
kûrah
hesib
hesreta
dûşem
dikarit
zarokî
spon
sprin
21´ê
pêşwaziyê
heftemîn
mêvandar
##trum
reşê
##menler
agend
projeyeka
oblast
091
diki
077
027
bîran
federalizma
qediya
xwedîkirin
rêkevtinîyê
nediz
xizanan
mêro
mêrg
mêrsîn
opar
cemîlê
topê
##antha
mihr
andor
budî
mano
manewî
nîşankirin
jêrxana
daxuyaniyekî
qaddafî
arêşeyeka
317
trin
tunene
bikşînin
sebz
pasap
siyasetvan
basrayê
ramanî
demjimara
qurbanên
nobedar
rawestandî
atomên
##ianthus
nêrîneke
şeşê
radixe
teber
pêşîneya
firrokeyê
kêşan
forum
nîgeran
fîzy
rizgarbûna
mittel
mîlîş
mîladê
hûrgil
qetil
seqet
dîtir
kabul
haus
torên
torra
domdar
tahranê
pêxem
çaverêkirî
xerabî
zaraveyên
patîle
keyîtiya
xizmeteke
rewşenbîrîyên
têkoşerên
rijandina
pergale
bettîx
padiş
pitik
##gurd
470
sêyemin
avahîs
tawankaran
stêrnasî
londonî
moscow
nevada
diego
zêrka
alfabeyên
ragîh
buhayên
deryayan
erdhejek
papua
feqê
midûrê
malperek
nimay
volks
poç
pour
netewan
emerîkaya
dadweriyê
cûrên
cûreyê
besrayê
##brück
##hoo
istixbar
qosera
birêveber
kapas
robîn
robot
xewnan
1970an
feyl
motora
şikestinê
xwêya
tirsnak
michelle
eceman
ceneral
auguste
dijwarîperest
fattal
formul
nansî
gökal
vened
temaşekirin
temaşekirina
tûjîyê
qendehar
livîn
dorpêçkirina
savara
protestoyên
hêlîlar
îdîaya
yezîd
serhildanek
zanîstî
wize
zeyneb
biserdikeve
0390
konferansek
türkçe
zalimay
elektroneg
disekinin
alikariyê
lavlav
langu
qerebaş
qerebalix
şarezayên
rêkeftineke
merasîmên
medreseyan
bapîrên
propagandayê
1790
cruz
alimekî
helbijartin
hostayê
dexîlê
mucîz
jonathan
mühl
behramê
qewimiye
dîploma
tecrî
şikakan
gondê
katalonyayê
hîpof
xîzana
rené
zahir
vebikişin
cînav
roboskîyê
qûantan
wêrekî
rêzimanê
musilmanan
queens
mêhvand
fonksiyona
konsolos
gerînendetiya
##êzêde
fîlîstînîyan
metafîz
jidayikbûn
zummar
dîyarî
locke
##oplazmî
merasîmeke
hizreke
avakiriye
komstêrê
hinardeya
muxtar
dtk
naqab
neqşbendî
taraf
nesredîn
çeney
ochot
nedîtiye
sistemeka
sersaxî
davodoglo
dipirsin
kêberîyên
dakok
meyafar
daxûyaniya
yüksel
deshilatê
laboratû
dojehê
nazmiye
pirtuka
îspaniya
neçûye
dubarekirin
jibona
##erapie
qeladize
birêvebiriya
gaga
mudah
balîyozê
kompûterê
şixul
bêçare
deregez
îndustrî
kertwênê
fersend
konstantînopol
uganda
elegezê
westfalen
frederick
munzur
bidamezrînin
xestiya
pardus
eeeeee
qiyametê
pyongyang
terakki
luxemb
descartes
dîxorê
îbrahîmê
temendirêj
yûhenna
britannica
hasîp
nerênî
sydney
okumuş
entertainment
broadcasting
diltezîn
2x
5emîn
610
724
735
745
985
aha
after
bîm
benê
cz
cayê
caw
dü
dûm
ddd
eco
egî
gana
gij
imad
jason
keyn
lûr
lyon
loph
mayê
mena
mîka
müz
nm
ngo
nut
ozan
piy
qûl
rund
rip
raza
sina
sûsê
sarinc
tond
waq
wess
wadî
xe
yola
zerî
îpek
şat
şow
##bf
##bikê
##has
##haw
##ians
##ugo
##uşa
##uşê
##lz
##lig
##sad
##sîne
##salî
##kam
##kîne
##kaş
##cor
##com
##cad
##yolî
##yurt
##ûtî
##ûle
##ûqî
##ds
##dogan
##geyî
##pia
##xor
##ähl
##له
##لی
##لي
##āb
##──
##ան
##iriya
##arya
##arov
##ardê
dikol
kux
kuran
kubayê
deft
##star
##stal
libaj
##înîyê
##înskî
##atre
##eln
##elereb
##avik
sereder
##istiya
##iyare
##eyar
##amon
bereb
berbest
bergan
naveb
##ayo
##ayîna
##orius
##emerî
dabe
##onomî
kurdista
pêdana
yahoo
ewrên
##kirinan
##ebin
##urkê
##eşkê
##eştê
derengî
##ikiyan
##evara
negirtiye
destura
komarîya
gundistan
hevd
hevokên
##nawî
yekcar
pêşesaz
pirbûnê
##isîne
##iscus
##ulla
##ovo
##ewîlk
birev
birîtan
kesin
elbe
elamê
##îtar
##îtirîn
hemz
bihelînin
##entan
stone
emek
nûkirina
nûve
îraniya
çavpê
erol
ariyan
avd
avayekî
peykerên
ciheke
##goşî
##abar
kox
siyabend
nivîsarê
daxwazkirina
rûbarên
xuy
endamtîya
lîstina
##ices
çêbe
##ibir
##otewe
sedhezaran
##legal
##yoneke
behîya
hêêzn
nîşane
balkanê
esen
espa
kêbir
azmana
aşîtîyê
sein
search
erebîye
şern
şerif
bibî
##ify
gotinaka
##dixin
##girêk
yekêtî
firokê
dîroke
dîrokeka
153
teqîne
##oras
subsp
marif
marley
legal
serokatîyan
bêjenasî
yanzdeh
hejmaran
rasta
hezarî
grey
êrîşbir
erdîşa
nasr
nasnama
##hain
##hilatê
nehiye
brian
pîre
azadîyan
dadperwerî
kêmberan
petunia
zimanzanî
##ksê
mail
mach
ebdulwe
darxist
heso
hess
dûkan
spot
212
arteşa
0334
hefteyek
lêkoler
reşik
meles
bajarvanîya
´´em
unix
094
##koma
fariz
ayla
052
çûbûn
##ofîl
girîngên
bandûr
qerfî
qederê
239
067
062
bazirganan
fraksiyonek
prem
dezg
surîyê
mihan
planan
##çûnî
##ondiss
şoreşgerê
serokwezir
##zaî
oldarîya
hevkarîkirina
şemî
##watir
berfirehbûna
zerav
##birr
trent
##oyekê
tunebe
biki
dozgerên
sirke
pila
mûçeyê
kultepeyê
##arten
cinsan
gazind
dorhê
bonap
bonnê
lewan
operasyoneka
nêrgiz
şîvê
denmar
mizur
şewt
lêkolîneran
holandê
bimire
televz
bersivdana
matth
besch
hawenan
tebeq
lawekî
hestan
vekişiyan
otomatîk
sinan
sincî
milyonek
dînarên
konferansên
nizam
xirabkar
hemasê
morris
qirika
geis
galaks
galatas
panz
henan
taner
331
parçeyekî
domîz
domandiye
##lûla
zinarê
îstîs
sedeme
walîyê
plants
cebel
dermankirina
xezel
peqî
cooper
qayem
fêde
sûîkast
avahîyê
fîlozofiyê
521
astengkirin
cudatî
digrê
binavkirinên
krîstofer
occo
midyad
usurp
westana
1804
demjimarekê
hewildana
1988ê
kapadok
vedigire
blume
motleg
gotûbêjê
الق
1960î
enstîtûya
natanya
1946an
ecibandin
şaxek
taku
wekhevîyê
##başî
bozkurt
difirin
viberhem
lêdanê
kuştiyan
sosyalîsta
quşxaneya
çews
zemt
milyard
qulp
hemahengiya
sîmbol
bisekin
dunyê
ingilîz
zincîrên
bipijînin
fînland
parzemînê
bacon
filistînî
qerebokirina
qerebokirin
şaban
deutschen
nimûneyî
doktorên
tedbîrên
foto
axiftinê
saloxegerî
buyer
hollandî
pexş
prakt
##uncu
hîlarî
tibabê
fosîl
fosfor
geyişte
gêncên
müsl
arasteyê
wîkîped
königskr
kurteçîrokên
bipêşxistina
second
tohmetên
berdereş
euph
kêrbar
ferzkirin
kantonên
##uwel
psîkologîk
pisporî
tendirustîyê
zilamek
muhirkirin
reforma
hepsê
îrlanda
derziya
cografiya
diguherînin
şerabê
diafirîne
pêkenok
etîmolojiya
sextekarî
beqûbayê
luristanê
merasîmekê
giredayê
wesayîtên
herifîna
pîrhesiniya
maryland
callicebus
peresanê
qirgizistanê
gizêr
korsîka
electron
zûlfeqarê
zûlfeqara
darvekirinê
azarpêrta
konferensek
heqîqî
##alonîkî
fusion
xanedaniya
friend
wuzeyê
kempeyn
jongkind
dodo
xwendegeha
saxtekar
saxtekarî
qefqasyayê
nuqteyên
binerdê
berîtaniyayê
sokrates
serkutkirina
champions
pişavtina
detektîv
kazaxistanê
berevajiya
îfadeya
mîşêl
orkestra
mp3
rousse
kroatya
etiyopya
serkotkirina
herzegovîna
güzel
nehukûmî
kuwaytê
didaxuyanîyeka
asfalt
goguryeoyê
julianî
cembelî
rixter
arrondiss
mueyed
ecevit
##odelphis
nerîman
elsomerîyyenews
manevrayeka
afghan
##adelphia
mussolini
davudoglu
160pxala
introdu
cêbecê
şîzof
gökalp
usurpator
960
bîstan
c4
ciy
ciyan
carên
candan
fev
fîs
fax
full
gy
gä
gind
gje
hûm
harî
hond
hênî
hahn
iq
jol
jum
kêrê
kiyan
kia
kiss
kedê
lîkê
lomê
mînî
mys
moza
nv
oğlu
puma
qec
qell
ruha
rekef
sess
safî
toş
tato
tır
ukray
uçer
veng
völ
xox
xvi
yong
zet
zîra
îxt
üç
şerîk
أبو
دە
##birê
##rück
##neş
##nberg
##hd
##ixan
##meyê
##mûd
##zat
##oon
##obi
##oire
##leka
##loya
##skê
##slan
##singen
##êy
##taz
##tiyan
##îc
##cre
##cou
##yiyan
##ûber
##dîr
##waş
##gûn
##gaceae
##piştî
##ري
##̇t
##çêr
##çikên
##ğan
##äng
##ées
##دا
##íg
##ər
##μα
##ου
##anthus
##eren
##aretên
##yab
dipê
dixistin
digr
diqel
digirî
biger
bigirê
biker
değ
lip
##îniyê
##elm
kurdîyên
herman
##okrata
navi
evil
bafûn
##emend
dabi
dakeve
##ones
##onto
reveb
hatime
alusî
algorît
##uren
##imînin
derkir
##ikim
body
anan
##evana
newe
nego
rojaw
destx
komal
komala
têlî
têgehên
têbigih
girng
##andinî
hevgirtin
hevokan
hevtayê
##îslam
yekdengî
##manuel
##akanî
rêbi
##ahirî
bariyaye
##ovê
dêya
##ewn
biratiyê
karû
kariye
kardane
huqû
elê
##îtîkê
dinih
binkeya
##izi
dibî
tirbeya
stas
befir
##bûyê
nûya
çavez
erik
##efir
dura
mezarê
dîz
başar
başiyê
başdar
mirazê
aviyan
peyx
pêka
pêkol
pêkbih
##goyên
tepê
turîzmê
##osay
##kirê
nivîsgeheka
daxwaziyên
rûyên
1832
1825
1838
1812
dihavêje
dibêjê
##exta
##fte
##iban
##otor
helwîst
perisîn
danaye
kurk
kurrên
gerra
gerns
taybeta
##anûnerên
##perwerên
kêval
azir
sêlê
îspat
##uto
ezmanî
##aqil
berpirsyarên
paşe
mess
##kêşana
franko
franken
##astan
ismet
berêwe
hezkirinê
hezretî
grün
êrîşber
erdoxan
##barak
brent
dervayî
beşdarin
afro
kême
##iwa
gulber
şarlo
şarevanîya
carcaran
xwendine
guevara
nebat
ebdulwahid
eşir
eşira
##welatî
##rated
##eqê
##odes
1968an
##ûşk
înt
mêtr
wein
week
305
reşandin
##ards
xurekê
berfî
husênî
projek
092
dikşînin
soriç
fras
247
##dayîn
şahiyê
##eppe
##ridae
desthilatiyê
236
cudî
mîrîtiyên
289
fraksiyonê
dûrbûna
babkê
şîran
tems
temîn
temel
bixemilînin
##cken
filan
mihên
##ichi
tundût
dolemerî
##hênana
xwestek
nîvekî
kauf
şemal
arêşedarên
parlamen
zerayî
kamb
kamûran
wêjevan
schle
monarşî
ronesan
kurmancên
sirt
gengeşeya
niştimanîyê
##ansu
siyasetmendê
basil
eşîrek
dorsey
mamosteya
zînd
zîndî
îsraêlê
hebûnên
nexuya
rêjeyeke
polîtbûr
besam
gurr
gurz
sîber
exzer
pisîkan
bigihîj
hûnermend
makûyê
necmet
##roskop
milyonî
dîno
kate
dehl
dehap
batîfa
rizgarîya
cizîre
şadlû
kenişta
çirayê
qeys
fao
faîlê
senatê
semîtîk
hevbeşî
haîtî
##isches
gilîname
caly
daxuyannameyeka
pêvajoyek
patri
xelîla
ebdus
ebdûl
##ologê
memlû
dewlemendî
firehbûna
fransizî
şerîet
gomanbaran
dewlemendan
xêzên
nawendî
karîgerî
souther
albûmeke
##îzade
dureyd
nezîkî
mexribê
aramê
ozsok
nakokiyan
fêrbûnê
gemî
pişkinînên
kanûnê
evdila
lidardixe
bismila
1970î
feyz
serbestberdana
geştiyar
nişteciyên
natur
ewropiyan
xwendekarê
botany
eciqandina
paşerojeke
cenev
têkeliyan
teorîya
##472
rêkeftinên
rakirine
murray
keyaniyê
##illus
siwêr
guhdariya
amadekarîya
amadekarîyan
dersimê
qahîrê
nihên
nihêr
rêberekî
notes
notron
charlot
portal
sony
güneş
lenaw
molekûl
philadelphia
normand
xeterek
humus
potîn
hêrîşan
einer
dimeşin
biqew
1920ê
670
dikevit
nursel
bazareka
demirel
christmas
sirûştîyên
ziyaretê
crit
cendekê
efrîqî
yazdeh
muhamed
niseyy
amadebûyî
çepa
evîndarê
kezeba
zafer
şîrovekirina
otonomiya
mizgefteke
zîyaneka
lutra
mumkin
rêkxistîya
larix
şidetê
##onomy
seleteyê
welatparêzên
movie
perlemana
perlemant
taştê
bersû
bawermendan
##atîfî
aşûrîyan
berbangê
vemirandin
hellûşên
elxeyme
dikarîbû
legle
benzîn
xwînhêner
babiliyan
mekteb
ancama
makedonyayê
claudi
operaya
hîmalaya
qefqazî
ustral
avadanî
nenivîs
gîlanî
garantî
trajediya
ertoşî
margîs
atmosfera
reaksiyonên
hague
bernavk
çarenivîsîyê
şetelereb
şofêrê
daxwiyan
whatsa
radigehînin
zewîlerzeyê
derenceya
neragih
yahud
grûbên
xweragir
esilkurd
senatoya
dighêje
serfermand
serfermandarê
liqên
rîbozom
herzog
rikaberîya
îndustriya
şanghay
yıldırım
belcîka
asuriyan
pehlewanistanê
tecrûbeya
hurriyet
veysel
ensîklopediya
phylogeny
konsepta
kongrêsa
komandoyên
perwêz
javier
danîştu
kênge
belengaz
potansiy
tsunamî
viktor
daqûq
elfubêy
bermaber
kirkirag
zerenikê
tendurustî
rêgezên
##uzzeman
zlín
tûkila
derametên
erbaneyê
başbug
xwûdaya
retîkûl
allgäu
roosev
ochotona
königskrönung
southern
ozsokmenler
niseyyif
786
824
ai
bum
bîj
cêr
cris
dz
een
ege
fêd
fisch
gad
gle
gîlan
grass
hanên
hîrê
hör
ide
its
kûs
ktê
kokê
kaka
kewa
kafê
kyi
lazî
lub
mö
mlad
miyand
ng
ning
niw
ness
nîyeta
piyên
pisa
qom
qencî
sanî
sign
than
tavî
tûne
uzêm
wl
wf
xanîyê
xûz
ytl
îht
îbad
ûran
##baw
##rä
##rer
##rînin
##nic
##nefîl
##mala
##zz
##los
##lîm
##sı
##tekê
##trop
##table
##qela
##03
##kîs
##cida
##yeta
##yenê
##data
##dihê
##wayê
##wane
##wick
##gund
##gent
##graf
##pez
##94
##fol
##çeyî
##ühl
##وس
##وم
##ет
##ко
##anus
##irov
##arus
diana
diber
dilî
kura
kutan
biter
dewê
lieb
libert
##enhe
##îngeha
##ating
serdê
heaven
##istin
##iyumê
##eyyan
herroj
beranê
##edanên
##ayb
##ayen
##illes
evra
bafê
##ihin
dakevtina
##olom
hatê
##imîn
##imet
##imler
##deq
##deg
vec
enlîl
negeh
nefer
##addîn
bûbê
komb
komir
komîş
salt
##sak
kirinî
girara
hevnas
##nab
yekal
##begî
pêşkevtîyên
##îlenda
##ahev
baron
birûn
biraz
kargerî
yêkê
hube
##gerîya
dinere
bineb
diblo
bihtirî
malx
malav
stelli
bikevê
erj
ertu
arar
megal
xware
dual
duet
##ching
bûnî
hille
hilcivîna
hukûmetaherêma
mirafra
avra
pêkanînê
çarser
##tîzm
##ecîd
beşikçi
hewler
nivîserê
nivîskêr
##idad
##idge
1820
1828
xut
##lines
lîstikan
weris
##iceps
##igon
daweta
dibeje
ase
asian
##pêkirî
##îdû
perûyê
murd
kurwatiya
behan
hêman
direng
diravên
hevparîya
##ogon
tevde
##apra
1780
##ifan
bilinî
##girêka
ebub
fermi
nawe
paşmayên
mindal
minogue
##hemû
bêjîn
bikaraniye
rastîyên
hezên
dilş
dilx
##barana
##kuf
brok
##oşin
belavkirinê
belavkiriye
azadbûna
têkçûn
kêmzêde
magî
nebînin
nebras
dareke
darwin
merr
bêjedanan
bêjedarekî
##rath
ofîs
spr
nexweşxana
selm
atl
helbesteke
0366
xanika
##lêkirî
251
weg
kelandî
kelhê
kelûp
301
melayên
melbourne
teleb
medînê
xurxur
##ixa
felsefa
##lien
##lichen
uni
edena
097
cole
hêvîyê
korp
ayîna
028
tuwana
228
welatêt
nerînek
radîk
radeyekê
radigh
kongiresê
terorîstîyên
061
cuinet
xizîran
wira
dims
agahiya
mafêt
dûrin
mêranî
çapxana
##ubî
naket
##mendî
filtman
xistîye
##atorên
konsolê
eybî
eylûla
şaneder
##lery
silla
şevket
schul
dikire
##oyeka
ermenan
metranê
tarhan
cîgirên
siyasetek
ramîn
bijare
nuçeyan
valakirina
quin
strukt
hêrîşa
nexin
nexuyanî
bese
dewrî
bûyerekê
teberî
354
hûnandin
kenyayê
kenalên
sipil
onca
phas
ekter
boris
azeri
##ysis
zagonî
cerc
337
xembar
375
##ynch
nifş
##xwarin
teham
##şêwe
gewrî
antolojî
dayikbûn
piçek
trapp
simbil
8084
campan
karmendê
ebdo
##beth
xwarine
komkuji
415
tiliyên
beyar
otombîlê
bettel
hilweşîne
cilda
475
pozîsyona
580
estonî
cudatiya
belgaş
596
mayinên
ozel
bitaybetî
spanish
çerk
bedirhan
fikrî
mişkan
hevpişkîya
birêveberiya
pîrozbayîyek
radestê
sumeran
kulîlkê
##ometre
dûvçûna
umêd
umran
sîstemeka
##427
kosed
demarexane
yasna
hevpeymanîyên
guftûgoyê
hevalbendan
##ografiyê
xorşîd
kêlgeha
##evîç
##166
gunehbarîyên
pirojeyan
difil
##jînenî
koçberkirin
bîrdozî
rohat
living
neyar
##ektorê
dorpêça
reşemeha
1965an
çewaniya
kelhasan
gihîştina
pênasîn
661
tirşoya
vekêşin
gabonê
1947an
îmzakirina
mandra
mêşa
elektronîkî
gewretirîn
1954an
hevsengî
kimsor
rêzefîlmekî
rêkeftinek
mîhrda
xoybûnê
doktoriya
gamma
games
sirûştê
muslimîn
muslimanan
vîdyoyê
pabendî
kincan
hemîdiye
bîlge
mainz
cadeyan
mekanîkî
yayo
terapiya
gedo
weberhênana
pêşnîyarên
avaker
grûpek
havêjtine
berbijarîya
euras
qewimîne
fenom
ceylan
pink
sahara
wezîfe
wezîfedar
rastexwe
faso
rêkxistinê
vîrûs
##bbit
maddeyan
parliyamnet
aufl
urany
##km²
tayyib
lordi
aleksandr
naxe
xwandevanên
stiratejîka
senatoran
hopê
komstêrên
pêşniyazên
comput
linden
alpes
polîtboruyên
jidayikbûna
rasipar
mîdya
avestayî
pages
tîbet
têhna
kronos
tovê
serçawe
gnome
kontra
tevdiger
dişewite
digeriyan
grîfonê
pembo
muxtarê
neqşebendî
şakelî
bruksel
zeynelabidîn
qibrisê
moskova
cesaret
meraq
document
karîkatur
xayîn
bereketê
pêkaniye
dojeh
derencamên
##rehîm
vinci
ezirgan
adnyê
cehzerana
schweiz
pîrozbayînameyek
nowrap
tewereyên
qutabîyên
deqîqeyan
sûmeriyan
kevjal
takekesî
##bahçe
kluba
difikire
stûdyoyê
xiaomi
şanghayê
mokevan
vegotinên
bedîuzzeman
müller
negirtîye
bohtî
hêceta
sotemenîyê
lîskevan
pankreasê
alûgor
schrö
vexwarina
alparslan
nicholas
orîjînal
marquand
[...]
