<unk>	0
<s>	0
</s>	0
.	-3.44297
,	-3.50305
▁û	-3.79808
a	-4.16383
▁ku	-4.33145
ê	-4.34892
▁li	-4.35013
▁de	-4.37528
▁bi	-4.37849
▁ji	-4.53664
▁di	-4.55583
n	-4.78671
▁jî	-4.90353
î	-4.92224
ên	-5.02976
)	-5.11532
▁(	-5.1306
▁==	-5.14468
an	-5.15315
▁xwe	-5.21691
e	-5.24482
▁	-5.26991
▁ya	-5.29851
▁ser	-5.4131
▁ye	-5.41828
:	-5.51096
▁re	-5.66914
▁ve	-5.68842
▁Iraqê	-5.7004
▁e	-5.75323
▁da	-5.78281
▁bo	-5.79656
▁Di	-5.81639
▁Kurdistanê	-5.9423
▁herêma	-5.96718
▁kir	-5.97879
▁ew	-5.97969
▁a	-5.9981
-	-6.00669
▁wê	-6.01038
▁evê	-6.01823
ya	-6.07133
▁ne	-6.0822
yê	-6.13461
▁kirin	-6.13641
▁ber	-6.14164
▁–	-6.14458
▁wan	-6.15097
▁Li	-6.17366
s	-6.19425
▁tê	-6.22317
▁bû	-6.28835
▁wî	-6.30725
▁dê	-6.31834
▁yên	-6.34417
▁yê	-6.35599
▁ev	-6.36315
t	-6.39494
▁-	-6.39663
▁PNA	-6.41545
A	-6.41939
▁got	-6.43307
▁serokê	-6.4363
▁kurdistanê	-6.47979
iya	-6.5025
▁vê	-6.53599
▁sala	-6.56796
ek	-6.65446
▁ragihand	-6.662
▁dike	-6.66717
'	-6.67235
▁|	-6.6845
in	-6.6895
k	-6.69016
▁hat	-6.69529
i	-6.70446
▁bike	-6.70823
y	-6.72665
z	-6.72774
▁Ji	-6.74547
▁din	-6.767
▁navê	-6.76736
▁dest	-6.76845
▁her	-6.77217
▁weha	-6.79633
▁Amerîka	-6.80202
▁navbera	-6.81365
d	-6.81455
▁hukûmeta	-6.83337
▁Bi	-6.85927
▁nav	-6.86065
eke	-6.874
▁hatiye	-6.88339
▁kurd	-6.88448
▁bikin	-6.8898
"	-6.89226
▁*	-6.90695
▁me	-6.91131
▁gelek	-6.91513
▁be	-6.91567
▁Gundên	-6.94609
yên	-6.94819
▁Îranê	-6.94834
yan	-6.94994
▁gundekî	-6.96579
m	-6.96579
▁yek	-6.9695
▁han	-6.97207
▁===	-6.97406
o	-6.98263
▁hêzên	-6.99367
▁in	-7.00087
iyê	-7.00229
kirin	-7.01041
▁kar	-7.01072
▁niha	-7.01477
▁Serokê	-7.02672
ne	-7.03443
h	-7.05172
▁lê	-7.05972
ekî	-7.07778
▁"	-7.08965
▁an	-7.09162
▁hemû	-7.12741
▁bûn	-7.13185
;	-7.14054
▁Çavkanî	-7.14057
▁S	-7.1436
de	-7.15048
▁dikin	-7.15634
▁mezin	-7.16083
bi	-7.16186
▁Kurd	-7.16424
▁́	-7.16685
▁du	-7.16893
▁BER	-7.17069
r	-7.17195
▁bajêrê	-7.17897
▁kes	-7.18213
kirina	-7.19927
▁Ev	-7.2067
l	-7.2132
▁bê	-7.21916
▁dibe	-7.22709
▁wek	-7.23287
▁xuyakirin	-7.23844
▁çend	-7.24051
▁em	-7.25239
▁navçeya	-7.25561
`	-7.25635
▁pê	-7.25777
▁pêk	-7.25968
▁heta	-7.2663
▁nû	-7.27181
▁A	-7.27482
▁aliyê	-7.27957
ALÎKIRIN	-7.28065
▁ê	-7.30901
▁bihê	-7.31513
’	-7.31658
îya	-7.31685
g	-7.32166
▁piştî	-7.35256
▁bin	-7.35271
▁dema	-7.37593
yî	-7.3764
▁dijî	-7.37857
re	-7.38949
▁kurdî	-7.39131
/	-7.40364
▁roja	-7.40405
▁Barzanî	-7.40868
f	-7.42296
di	-7.42787
▁Ew	-7.43415
da	-7.4387
▁hene	-7.44503
▁hatin	-7.44763
▁Turkiye	-7.44952
▁bûye	-7.45056
b	-7.45425
▁hev	-7.45506
ye	-7.45753
iyan	-7.46216
▁hatine	-7.47307
▁El	-7.47527
▁angora	-7.47645
▁bajarê	-7.47945
▁parêzgeha	-7.49178
Ê	-7.4962
K	-7.49838
N	-7.50183
▁hate	-7.51219
▁zanîn	-7.52055
...	-7.52753
ş	-7.53403
▁kiriye	-7.53857
er	-7.54537
▁ên	-7.55268
ta	-7.55605
▁/	-7.56961
ra	-7.57704
u	-7.57753
▁|-	-7.58676
▁nava	-7.59063
x	-7.59455
▁rewşa	-7.59528
▁heye	-7.59793
▁wekî	-7.59954
▁REDIRECT	-7.61222
▁mirov	-7.61535
▁Û	-7.6161
▁lîsta	-7.61631
p	-7.61865
▁yekê	-7.62019
ma	-7.62039
S	-7.62057
▁dan	-7.62117
▁serdana	-7.62181
E	-7.62252
▁E	-7.62683
▁ti	-7.62714
man	-7.63164
c	-7.63356
▁Her	-7.6365
▁behsa	-7.63695
▁M	-7.64024
ekê	-7.64777
li	-7.64989
▁18	-7.65527
te	-7.66351
▁gel	-7.67097
▁gor	-7.67219
dî	-7.67638
rî	-7.6773
▁derve	-7.67763
▁herdu	-7.68456
le	-7.68676
kî	-7.68845
ka	-7.68864
▁girêdayî	-7.6904
în	-7.69195
▁K	-7.69261
eka	-7.6927
▁bibe	-7.69715
C	-7.69862
bûna	-7.71459
us	-7.71694
▁bareya	-7.71739
▁ewê	-7.72027
="	-7.72762
),	-7.72864
▁C	-7.72874
▁divê	-7.73266
▁||	-7.73711
iye	-7.74178
▁dibêje	-7.74829
▁zimanê	-7.7491
==	-7.75238
v	-7.75284
▁le	-7.75938
▁Hewlêrê	-7.76276
▁Kurdî	-7.76732
▁çê	-7.77003
▁Lê	-7.77199
ÊN	-7.77769
▁2	-7.78196
ke	-7.78437
▁LI	-7.78447
▁P	-7.7853
▁2009/	-7.79304
▁der	-7.79332
û	-7.80169
▁rê	-7.80413
Î	-7.80737
▁Hewlêr	-7.80774
F	-7.81
▁encûmena	-7.81286
▁3	-7.81576
tî	-7.8176
j	-7.81861
▁belê	-7.82053
▁encam	-7.82081
en	-7.82585
dar	-7.82899
▁saz	-7.83027
▁siyasî	-7.8345
▁evroj	-7.83685
▁pir	-7.8376
▁1	-7.83877
▁parliyamenta	-7.84053
▁pêş	-7.84054
iyên	-7.84251
▁2008/	-7.84297
▁berê	-7.84349
st	-7.84526
▁weke	-7.84893
▁herêmê	-7.85473
▁herî	-7.86147
▁Malikî	-7.86298
▁Piştî	-7.86315
▁kurdan	-7.86561
▁girtin	-7.87234
T	-7.87463
▁bareyê	-7.8757
P	-7.88004
▁birîndar	-7.88217
▁2010/	-7.88244
▁G	-7.88911
▁evan	-7.89091
▁“	-7.89193
▁van	-7.89382
▁taybetî	-7.89484
▁vî	-7.89533
2	-7.89819
al	-7.90201
tir	-7.90578
▁alîyê	-7.90586
lî	-7.90865
1	-7.90866
is	-7.91037
▁daxwaz	-7.92188
▁tenê	-7.92296
w	-7.92755
▁amade	-7.92835
▁ra	-7.92856
▁dibêjin	-7.93241
we	-7.93447
▁berdewam	-7.93942
0	-7.93951
la	-7.94033
▁demê	-7.94085
q	-7.941
ro	-7.94131
▁tên	-7.94318
H	-7.9451
▁wezîrê	-7.94612
B	-7.94744
▁sê	-7.95248
▁peywendîyên	-7.96545
be	-7.97089
ber	-7.97311
D	-7.97484
▁dawî	-7.97741
▁nîşandan	-7.9813
ve	-7.99
em	-7.99042
▁5	-7.99314
it	-7.99488
▁cih	-7.99732
▁BI	-8.00044
▁dide	-8.00577
▁4	-8.00689
PNA	-8.01075
▁B	-8.01383
▁kuştin	-8.01688
▁kirine	-8.0205
▁serokatîya	-8.02179
▁ko	-8.02253
M	-8.03022
ran	-8.03233
▁bihên	-8.03526
▁min	-8.03587
▁kesên	-8.04062
▁I	-8.04596
me	-8.04907
▁Mesûd	-8.05356
▁ewan	-8.0542
▁gelê	-8.06008
▁fermî	-8.06351
▁yan	-8.06357
za	-8.06568
▁Herêma	-8.06861
▁te	-8.07112
rê	-8.07376
▁gundê	-8.07419
im	-8.07582
▁Sûrîyê	-8.07766
▁we	-8.07823
▁gotin	-8.07832
▁îro	-8.08281
▁bilind	-8.08335
▁Elî	-8.0903
▁wezareta	-8.09073
▁hin	-8.09624
▁Amedê	-8.0995
▁baş	-8.10186
▁T	-8.10626
▁kû	-8.10641
▁7	-8.10708
▁belav	-8.10797
▁Kerkûkê	-8.11211
▁giştî	-8.1124
ha	-8.11299
▁ava	-8.11604
▁Be	-8.11611
ar	-8.11821
dan	-8.11834
▁hinek	-8.12114
▁H	-8.12387
▁10	-8.13001
▁gund	-8.13174
▁endamên	-8.1333
▁alîyan	-8.13585
ce	-8.13808
▁Dr	-8.13863
▁kombûnê	-8.14093
▁ke	-8.15216
ik	-8.1528
▁na	-8.15347
▁welatên	-8.15442
▁jê	-8.15442
ger	-8.15453
▁dewleta	-8.15456
▁wezîrên	-8.15494
ç	-8.15846
kê	-8.16059
▁wiha	-8.1608
▁pirsa	-8.16159
▁jibo	-8.16363
lo	-8.16416
▁deverên	-8.16419
îne	-8.16631
▁Ne	-8.16719
▁Se	-8.16883
▁6	-8.16996
▁Nûrî	-8.1715
▁Baxdadê	-8.17522
îyê	-8.17711
▁Kurdistan	-8.17779
▁bibin	-8.17872
▁KURDISTANÊ	-8.181
sa	-8.1818
▁bûne	-8.18351
▁of	-8.18378
van	-8.18795
▁JI	-8.18907
▁12	-8.19051
▁cîhanê	-8.19222
▁kom	-8.19288
▁kujtin	-8.20107
▁supayê	-8.20486
(	-8.20613
ze	-8.20976
▁ajansa	-8.21095
▁ziman	-8.21699
der	-8.217
|	-8.21929
▁Ehmed	-8.22046
▁nêzîkî	-8.22083
se	-8.22963
▁m	-8.23106
kan	-8.23258
▁Bo	-8.23285
bûn	-8.23337
▁şer	-8.23379
▁Ser	-8.23703
at	-8.2398
▁Şêx	-8.24364
▁berî	-8.24471
um	-8.24862
▁Sûrî	-8.25032
▁O	-8.25136
▁Girêdanên	-8.2526
▁IRAQÊ	-8.25749
il	-8.26057
▁komara	-8.26101
▁dibin	-8.26139
▁Le	-8.26365
▁Ber	-8.26372
▁Iraqî	-8.26946
ter	-8.26994
on	-8.27126
▁F	-8.27463
▁**	-8.27641
ad	-8.27849
el	-8.27976
ga	-8.28289
G	-8.28443
▁gorî	-8.28539
▁devera	-8.29025
kar	-8.29588
▁HERÊMA	-8.30581
▁11	-8.30858
ba	-8.31165
▁tirk	-8.31223
▁kêm	-8.31252
▁Re	-8.31254
▁çi	-8.31332
▁alîyên	-8.31358
▁Wêne	-8.31416
▁kombûna	-8.32101
eya	-8.32449
es	-8.32659
▁zêde	-8.32728
Z	-8.3335
▁15	-8.33528
▁Îraqê	-8.33714
▁Mûsilê	-8.33858
▁gerek	-8.33949
▁leşkerî	-8.34071
▁salên	-8.34243
lê	-8.34248
îna	-8.34541
▁2011/	-8.3462
ir	-8.34907
sî	-8.35046
▁DI	-8.35081
O	-8.35463
to	-8.35599
▁daye	-8.35679
kir	-8.36002
nî	-8.36332
ur	-8.36394
▁daxwaza	-8.36681
▁KIR	-8.36703
ul	-8.36992
▁êdî	-8.37057
▁The	-8.37107
5	-8.37214
ge	-8.375
”	-8.37653
AN	-8.37796
▁Mehmûd	-8.37862
▁8	-8.38365
bû	-8.38438
R	-8.38658
▁çar	-8.38696
▁hejmara	-8.39187
▁SEROKÊ	-8.39679
▁redirect	-8.39719
▁Osman	-8.39982
▁sal	-8.40122
▁(19	-8.40224
os	-8.40244
▁kesan	-8.40627
▁biryar	-8.41144
▁La	-8.41159
▁nûçeya	-8.4134
▁yekem	-8.4136
L	-8.41416
▁DE	-8.41566
▁ma	-8.42191
ko	-8.42496
▁bide	-8.42557
▁evî	-8.42715
▁17	-8.42796
▁ez	-8.42856
▁Kurdan	-8.42882
▁20	-8.42955
▁Ar	-8.43092
3	-8.431
andin	-8.43241
▁serok	-8.43252
▁Em	-8.43435
îye	-8.43516
▁u	-8.43865
▁heman	-8.44307
▁roj	-8.44339
do	-8.4439
▁şandeya	-8.44611
▁2012/	-8.44779
ri	-8.44837
▁Talebanî	-8.44889
▁Me	-8.4507
or	-8.45088
▁[	-8.45296
ch	-8.45513
ser	-8.45584
wan	-8.4568
mer	-8.45709
▁hilbijartinên	-8.45945
▁Al	-8.46017
ok	-8.46128
▁Ba	-8.46328
▁Te	-8.46338
▁Obama	-8.46589
▁heger	-8.46646
03	-8.48138
▁9	-8.48348
▁Wezîrê	-8.48414
▁Endamê	-8.48704
▁doh	-8.48718
▁W	-8.48926
▁rêya	-8.49068
mar	-8.491
ca	-8.49179
▁R	-8.49225
▁L	-8.49668
yek	-8.49775
▁cihê	-8.49892
▁Serok	-8.50044
et	-8.50163
▁mirovan	-8.50448
I	-8.50478
kirî	-8.50653
va	-8.50655
▁PKK	-8.50753
▁km	-8.51194
▁hilbijartinan	-8.51465
▁jiyana	-8.51613
▁dihê	-8.51971
▁Na	-8.5223
▁destê	-8.52255
▁welatê	-8.52263
▁16	-8.52678
▁federal	-8.52713
dê	-8.52832
▁dirêj	-8.53179
▁wir	-8.53196
▁Ha	-8.53197
▁welat	-8.53212
▁Ş	-8.53241
▁navdar	-8.53322
▁Amerîkî	-8.5349
▁:	-8.53519
▁se	-8.53543
▁diyar	-8.53544
▁Muhemmed	-8.53562
▁bikaranîn	-8.53706
px	-8.53765
▁cuda	-8.53792
▁berpirsên	-8.53892
▁bidin	-8.53993
wa	-8.54002
▁(),	-8.54035
▁encamdan	-8.54047
▁karê	-8.54108
îyên	-8.54253
▁ka	-8.54337
ti	-8.54537
▁nûnerên	-8.54583
▁hevpeymanîya	-8.54715
▁girîng	-8.54729
▁Î	-8.54836
▁kerkûkê	-8.5499
▁13	-8.55579
▁dixwazin	-8.55739
zî	-8.56007
tan	-8.56017
▁başûrê	-8.56017
4	-8.56115
▁N	-8.56253
▁D	-8.56678
Ş	-8.56707
ker	-8.56787
▁Tirkiyeyê	-8.56876
▁taybet	-8.56886
é	-8.56914
▁zarok	-8.57044
▁dîtin	-8.5708
▁layê	-8.57228
▁nîşan	-8.57247
X	-8.57344
▁Celal	-8.58069
▁Eliraqîyye	-8.58292
ng	-8.58599
▁awayekî	-8.59486
▁prosesa	-8.60095
▁De	-8.60114
▁didin	-8.60188
▁encama	-8.60236
tê	-8.60537
înin	-8.60557
nas	-8.60573
▁pêkanîna	-8.60674
▁Z	-8.60781
▁X	-8.61044
▁Salih	-8.61163
▁ta	-8.61273
Mar	-8.6137
1]	-8.61466
▁tirkî	-8.61601
▁Mar	-8.61762
?	-8.6196
ing	-8.61981
as	-8.62129
▁salan	-8.624
▁14	-8.62408
bî	-8.62474
▁DÊ	-8.625
4]	-8.62544
align	-8.62585
zan	-8.62616
▁giring	-8.62761
id	-8.62786
||	-8.62788
2]	-8.63478
6]	-8.63587
3]	-8.63821
8]	-8.64148
▁qanûna	-8.64253
îk	-8.64344
▁Ra	-8.64378
▁the	-8.64565
=	-8.64663
▁Yekbûyî	-8.64705
jpg	-8.64951
5]	-8.65343
▁welatî	-8.65424
▁dûr	-8.65549
9	-8.65552
▁Du	-8.65668
▁caran	-8.65692
▁ba	-8.65786
no	-8.65813
▁alî	-8.65882
▁xelkê	-8.66065
ed	-8.66234
wer	-8.6628
7]	-8.6633
0]	-8.66347
gu	-8.66351
▁mafên	-8.66357
▁derbas	-8.66419
mê	-8.66544
▁hem	-8.66671
9]	-8.66784
bar	-8.66995
center	-8.67137
▁Der	-8.67165
▁meha	-8.67231
eyên	-8.67234
▁tu	-8.67293
▁grêdayî	-8.67342
▁polîsên	-8.67421
▁Tirk	-8.67567
▁çendê	-8.67596
geha	-8.67977
lan	-8.68064
anî	-8.68228
iz	-8.68453
▁Kurdistanî	-8.68542
eyê	-8.68569
ku	-8.68854
▁Ho	-8.68894
per	-8.68899
▁Esed	-8.69077
ine	-8.69203
▁Si	-8.69277
▁cihgirê	-8.69359
si	-8.69363
sê	-8.69399
tin	-8.69435
▁dikeve	-8.69787
han	-8.69792
▁biryara	-8.69893
▁hezar	-8.69989
▁aborî	-8.70055
▁hember	-8.70234
▁hê	-8.7024
▁deng	-8.70414
▁go	-8.70442
▁Da	-8.70661
tiya	-8.7079
Jul	-8.70869
çe	-8.70876
▁RE	-8.70915
V	-8.71085
▁parliyamentê	-8.71202
▁hikûmeta	-8.71226
den	-8.71249
J	-8.71302
▁Tirkîyê	-8.71424
▁pêşkêş	-8.71452
▁Sa	-8.71556
▁Herweha	-8.71567
jî	-8.71641
▁ragihandin	-8.71686
▁heya	-8.71773
▁dixwaze	-8.72089
▁hatibû	-8.72187
6	-8.72207
▁mafê	-8.72233
▁kurdistanî	-8.72283
▁Er	-8.72672
ci	-8.72791
ji	-8.72796
▁Dewleta	-8.72865
ia	-8.72881
▁tekezî	-8.73053
▁guft	-8.73066
!	-8.73104
W	-8.73331
▁J	-8.7357
▁()	-8.73645
▁were	-8.73704
▁KU	-8.73741
▁çareser	-8.73927
go	-8.74171
şa	-8.74302
Dec	-8.74333
▁Navê	-8.74618
▁bakurê	-8.74644
▁dikare	-8.74833
▁Hesen	-8.74887
▁Îran	-8.75056
▁Neteweyên	-8.7532
▁derbarê	-8.75553
fa	-8.75629
▁dû	-8.75831
îyan	-8.75893
Sep	-8.76143
▁pêşwazîya	-8.76222
▁dî	-8.76505
▁vir	-8.76535
▁çêkirin	-8.76589
Jun	-8.76621
▁sedsala	-8.76635
▁Mirin	-8.76665
▁Wî	-8.76688
May	-8.76899
▁xwedî	-8.76906
▁s	-8.76943
un	-8.77226
▁Evroj	-8.77327
▁nivîskar	-8.77388
din	-8.77395
bo	-8.77509
he	-8.77809
▁şerê	-8.77818
eyî	-8.77931
bê	-8.77994
▁leşkerên	-8.78531
▁navenda	-8.78558
▁dîdarê	-8.78768
Y	-8.78953
▁endamê	-8.79098
▁b	-8.79369
Oct	-8.79558
▁rast	-8.7966
yo	-8.7967
▁jêderî	-8.79786
▁Partîya	-8.79876
▁petrolê	-8.80059
▁serê	-8.8011
▁rû	-8.80131
fer	-8.80191
ü	-8.8021
mî	-8.80256
▁Ku	-8.80626
Aug	-8.80726
▁Kar	-8.80901
ew	-8.80921
▁Jêderekî	-8.81182
Apr	-8.81547
▁Şî	-8.81757
▁zêdetir	-8.81979
▁komîteya	-8.82095
▁paş	-8.82106
▁p	-8.82206
▁pêşkêşî	-8.82296
yar	-8.82868
▁bajêr	-8.82895
▁&	-8.82932
▁Amerîkayê	-8.8303
▁Kurdên	-8.83106
▁30	-8.83422
▁Amerîkayî	-8.83638
ic	-8.83701
▁al	-8.83805
▁Nivîskar	-8.83865
▁Weha	-8.83926
▁salê	-8.84004
je	-8.84112
hî	-8.84519
▁rejîma	-8.84579
▁rojnameya	-8.84652
gi	-8.84668
ut	-8.84835
▁Tê	-8.84836
▁Ko	-8.85081
▁dem	-8.85099
7	-8.85118
▁avê	-8.85203
▁kombûnek	-8.85383
▁Ma	-8.85416
▁2011	-8.85425
▁Ta	-8.85432
▁Ewropa	-8.85603
înê	-8.85781
ol	-8.86341
ey	-8.86394
▁Dengê	-8.86453
▁pirsên	-8.86611
Jan	-8.86649
ton	-8.86675
th	-8.86704
▁dikir	-8.8675
▁Roj	-8.8705
xwe	-8.87093
şe	-8.87157
▁ewledarîyê	-8.8734
gen	-8.87371
▁style	-8.87508
▁Başûr	-8.87734
▁dane	-8.87739
▁Ro	-8.87824
dana	-8.87945
▁dewletê	-8.88076
yeke	-8.88242
▁hêz	-8.88315
zê	-8.88405
men	-8.88468
▁Berhem	-8.88688
gir	-8.88861
▁bêtir	-8.88884
am	-8.88896
▁Ni	-8.88946
▁Iraqa	-8.89144
▁erebî	-8.8927
ler	-8.89289
▁nîne	-8.894
mo	-8.89509
▁PDK	-8.89689
▁Jidayîkbûn	-8.89753
geh	-8.89768
▁Fransa	-8.89927
▁He	-8.90019
pa	-8.90044
and	-8.90099
▁Yek	-8.90108
.”	-8.90212
vî	-8.90224
▁gundên	-8.9047
▁posta	-8.90475
▁barên	-8.9056
▁karên	-8.90747
▁bu	-8.90837
ot	-8.91011
▁rastî	-8.911
▁Mo	-8.91273
▁Ereb	-8.91436
▁ligel	-8.92041
▁‘	-8.92147
–	-8.92212
ner	-8.92213
▁Ya	-8.92337
▁Başûrê	-8.92427
▁dinê	-8.92548
▁hêla	-8.92615
U	-8.92652
▁Huseyn	-8.92695
▁maddeya	-8.92728
ris	-8.92803
▁wisa	-8.92924
ı	-8.92962
▁hukûmetê	-8.93014
fe	-8.9305
▁çû	-8.93053
▁deverê	-8.93101
▁artêşa	-8.9316
▁herwisa	-8.9316
▁kirina	-8.93189
▁î	-8.93238
▁bîr	-8.93723
▁pêşmerge	-8.93736
nd	-8.93741
qa	-8.93744
▁çareserkirina	-8.93815
▁derveyê	-8.93889
du	-8.93901
bûnê	-8.94044
son	-8.94227
andina	-8.94243
▁si	-8.94252
kirinê	-8.94283
ak	-8.94303
▁25	-8.94534
tal	-8.94861
▁çareserkirin	-8.94969
tar	-8.94973
▁Nêçîrvan	-8.94976
▁destûra	-8.95005
Nov	-8.95076
▁Gel	-8.95297
▁U	-8.95358
8	-8.95483
▁Erebî	-8.95519
▁pirs	-8.95575
▁yekemîn	-8.95815
▁XWE	-8.96032
▁140	-8.9608
▁An	-8.96159
▁avakirin	-8.96351
▁gir	-8.96559
▁çandî	-8.96665
îd	-8.96672
pê	-8.96786
ina	-8.96814
▁herwiha	-8.96963
▁Dema	-8.97076
▁Mêrdînê	-8.97171
▁Evî	-8.97202
▁rola	-8.97252
▁bilinda	-8.97286
▁dawîyê	-8.97303
▁Mu	-8.97346
▁align	-8.974
▁destpêka	-8.97669
://	-8.97868
ist	-8.97888
ll	-8.97909
war	-8.97933
Feb	-8.98129
tiyê	-8.98148
▁V	-8.98247
Gelhenasî	-8.98624
▁and	-8.98657
▁Gul	-8.98899
▁rojnamevanî	-8.99164
▁Komara	-8.99324
]	-8.99524
Başûrê	-8.99623
▁Erdogan	-8.99629
▁Sala	-8.99663
ûn	-8.99695
▁alîkarîya	-8.99714
▁sedema	-8.99993
ck	-9.0005
Çavkanî	-9.00484
▁kurdên	-9.00499
▁d	-9.00831
▁Hin	-9.01204
▁Navîn	-9.01268
▁gotinê	-9.01446
her	-9.01466
▁NE	-9.01484
▁Per	-9.0161
cî	-9.01659
yekî	-9.01698
IN	-9.01734
hr	-9.01971
îl	-9.02051
▁duyem	-9.02075
lu	-9.02162
▁navçe	-9.02388
▁dîrokî	-9.02391
com	-9.02392
▁asayişa	-9.02488
▁el	-9.02616
▁====	-9.02888
▁New	-9.03135
▁Ce	-9.03309
om	-9.03341
19	-9.03405
zar	-9.03458
▁aşkira	-9.03484
▁In	-9.03803
▁la	-9.0381
▁bavê	-9.03854
▁Zimanê	-9.0389
tirîn	-9.03998
▁pîroz	-9.0405
▁balyozê	-9.04219
_	-9.04285
▁As	-9.04339
▁Bê	-9.04478
ver	-9.04508
▁rêxistina	-9.04582
▁pey	-9.0485
▁Mihemed	-9.04885
▁19	-9.04988
▁têne	-9.05043
▁nêzîk	-9.05047
▁Ewropayê	-9.05083
co	-9.05179
▁diçe	-9.05468
▁dijîn	-9.05529
▁hwd	-9.05561
▁salî	-9.05691
▁başûr	-9.05764
▁Beşar	-9.05767
şt	-9.05891
▁Partiya	-9.05934
▁Birêz	-9.05969
▁çekdarên	-9.0597
ja	-9.05995
▁rojhilata	-9.05998
▁21	-9.06055
▁dikarin	-9.06093
gan	-9.06099
▁hebe	-9.06224
▁destnîşan	-9.06296
▁Mezin	-9.06299
met	-9.06347
▁heft	-9.06495
rû	-9.06515
▁Fu	-9.06561
▁digire	-9.06577
▁xurt	-9.06625
şî	-9.06656
dîn	-9.06677
ö	-9.06791
ika	-9.06918
▁wezîran	-9.07078
▁pirr	-9.07104
▁dar	-9.07402
▁Go	-9.0791
▁bikar	-9.08034
▁xweş	-9.08072
▁bêjedana	-9.08147
▁destpê	-9.08229
▁NY	-9.08358
bsp	-9.08363
▁Xwe	-9.08582
▁biçûk	-9.08615
▁Xelata	-9.08647
rîn	-9.08874
▁ango	-9.08892
ki	-9.08963
▁derket	-9.0904
ûr	-9.09252
▁We	-9.0931
▁bar	-9.09326
▁%	-9.0943
▁Ke	-9.09738
▁nas	-9.09842
sch	-9.09966
▁tev	-9.10005
▁berfireh	-9.10048
▁Silêmanîyê	-9.10092
▁En	-9.10126
▁rojê	-9.10142
▁dîroka	-9.10145
car	-9.10175
▁parastina	-9.10245
mi	-9.1039
ent	-9.10413
▁naskirin	-9.10469
ez	-9.10516
&	-9.1056
KIRIN	-9.1064
▁cara	-9.10694
▁Kom	-9.11015
qe	-9.11129
▁polîsan	-9.11143
▁Amed	-9.11206
▁Îtilafa	-9.11286
▁beşdarî	-9.1151
▁Kesên	-9.11513
▁hêvî	-9.1155
ev	-9.1163
▁Kir	-9.11703
so	-9.11884
▁24	-9.11904
▁biwarê	-9.12045
▁Herwiha	-9.12108
▁awayî	-9.12395
ه	-9.12417
▁ni	-9.12495
ho	-9.12538
▁mal	-9.12578
▁Misirê	-9.12611
▁rojan	-9.12736
▁0	-9.1278
▁Sal	-9.12821
▁Mîr	-9.12822
tor	-9.12877
ni	-9.12914
▁Yekîtîya	-9.12931
wî	-9.13173
▁Ri	-9.13202
===	-9.13238
▁hikûmetê	-9.13298
▁Famîleya	-9.13353
▁rojên	-9.13426
san	-9.13463
▁Qanûnê	-9.13527
▁he	-9.13565
▁HATIN	-9.13579
}	-9.13894
▁2009	-9.13951
▁!	-9.13998
▁pe	-9.14095
yayê	-9.14169
▁f	-9.14229
land	-9.14494
▁welatan	-9.14541
▁pênc	-9.14826
▁tevî	-9.14959
▁mala	-9.14975
▁civakî	-9.15038
▁ISBN	-9.15071
▁Dihokê	-9.15089
sen	-9.1526
ayî	-9.15347
hê	-9.15376
▁c	-9.1538
▁zû	-9.15409
▁Çînê	-9.15447
şê	-9.15523
▁tekez	-9.15568
▁beşdarîyê	-9.15575
▁sazdan	-9.1562
pi	-9.15677
ru	-9.1569
rên	-9.15769
▁SER	-9.15829
▁Ve	-9.15905
emîn	-9.15972
îr	-9.16032
qî	-9.16357
▁Kemal	-9.16481
bir	-9.16507
▁gr	-9.1672
▁hatina	-9.17004
tîk	-9.17006
▁hîn	-9.17055
▁Malpera	-9.1706
▁qasî	-9.17088
▁Îro	-9.17093
▁ewên	-9.17115
▁Ez	-9.17132
ten	-9.17159
▁girt	-9.17209
▁Iraq	-9.17231
wê	-9.17263
▁jêr	-9.17279
▁Koma	-9.17282
▁qebûl	-9.17377
▁http	-9.17421
▁hevwelatîyên	-9.1745
▁nivîsandin	-9.17581
fî	-9.17689
op	-9.17761
▁2006	-9.17779
▁BO	-9.1786
▁weşandin	-9.17998
▁22	-9.18233
gel	-9.18304
▁Y	-9.18322
▁gundî	-9.18422
▁Zanîngeha	-9.18492
▁pêşîn	-9.18493
nivîs	-9.18532
▁tevlî	-9.18583
▁xwediyê	-9.18632
▁Mi	-9.18684
▁anî	-9.18861
gî	-9.18903
gê	-9.18989
▁mîna	-9.19025
▁o	-9.19054
▁xo	-9.1912
Ç	-9.19303
▁gelekî	-9.1948
▁armanca	-9.19493
▁nabe	-9.19642
stan	-9.1966
▁BDP	-9.19719
▁Zêbarî	-9.19807
iyeke	-9.19899
▁Kurdistana	-9.19966
▁AMERÎKA	-9.20152
▁azad	-9.20218
▁Za	-9.20248
▁Herwisa	-9.2027
▁Ka	-9.20306
▁So	-9.20401
can	-9.20445
▁Lo	-9.20594
▁nake	-9.20705
if	-9.20762
▁kurê	-9.20803
▁bawer	-9.21019
▁Hêzên	-9.21096
▁sor	-9.21139
▁Ze	-9.21154
▁2007/	-9.2122
▁dihên	-9.21237
▁cî	-9.21259
▁Wanê	-9.21264
▁Derve	-9.21268
▁Haşimî	-9.21375
ava	-9.21376
▁valakirin	-9.21376
▁Şah	-9.21546
▁per	-9.21668
▁Qe	-9.21723
▁Ebdullah	-9.21784
tu	-9.21809
ay	-9.21898
kin	-9.22052
▁Eyad	-9.22111
▁malbata	-9.22138
▁beşdar	-9.22171
▁dil	-9.2248
xwaz	-9.22503
▁Ge	-9.22555
sta	-9.22678
20	-9.22682
▁car	-9.22725
▁Çiyayê	-9.22738
▁Fa	-9.22752
▁cure	-9.22773
▁dîsa	-9.22817
▁çawa	-9.22904
▁Kor	-9.22942
▁bûyerê	-9.22979
▁Turkiyeyê	-9.23028
▁siyasîya	-9.23065
▁bajar	-9.23282
▁pirtûka	-9.23427
▁kevn	-9.23466
▁wateya	-9.2358
vi	-9.23797
▁Ger	-9.2386
▁par	-9.23877
▁to	-9.23882
ban	-9.24029
lam	-9.24079
▁bakur	-9.24085
▁Eswatuliraq	-9.24163
▁Q	-9.24183
▁dijwar	-9.24275
▁Karbidest	-9.24345
▁hevdu	-9.24426
lar	-9.24492
▁hemî	-9.24545
▁2007	-9.2465
▁Ç	-9.24754
idae	-9.24854
▁Navenda	-9.2493
▁eger	-9.24963
xe	-9.25048
lû	-9.25218
ane	-9.25231
▁do	-9.25328
Q	-9.25329
aceae	-9.25366
▁sazkirin	-9.25434
ov	-9.25452
▁2010	-9.25463
▁Qa	-9.25549
▁damezrandin	-9.2557
▁derveya	-9.25612
▁av	-9.25661
▁HAT	-9.25815
xa	-9.25856
îst	-9.25874
▁SEREKÎ	-9.25911
▁Ga	-9.25959
▁sivîl	-9.25997
50	-9.26052
▁BIKE	-9.26094
▁digel	-9.26209
▁hêza	-9.26231
▁nexweş	-9.2631
▁Dike	-9.26322
▁dihat	-9.26365
▁şerr	-9.2638
▁Gelek	-9.26578
-19	-9.26617
▁xwest	-9.26622
04	-9.26693
xan	-9.26762
ft	-9.26777
YA	-9.27015
▁Duhokê	-9.27049
▁reş	-9.27141
▁Su	-9.27152
▁navîn	-9.27232
▁YA	-9.27256
▁Tirkiyê	-9.27286
ی	-9.27359
karî	-9.27373
▁rojavayê	-9.27427
▁piştevanîya	-9.27433
▁bajarên	-9.27455
▁nivîs	-9.27477
▁dinên	-9.27506
tr	-9.27748
▁KIRIN	-9.27834
▁50	-9.27864
ah	-9.28071
▁dezgehên	-9.28115
▁RÛPEL	-9.28243
har	-9.28296
▁ger	-9.283
▁Nû	-9.28314
▁Azad	-9.28728
▁Bakur	-9.2881
▁Bar	-9.28861
▁sînorê	-9.28886
▁ragihandiye	-9.29031
eta	-9.29115
hi	-9.29134
▁wa	-9.29141
▁23	-9.29162
▁Fer	-9.29216
▁'	-9.29242
▁derbasbûyî	-9.29302
▁bilî	-9.2933
▁Heta	-9.29414
▁Do	-9.29476
▁Şerê	-9.29501
alî	-9.29664
mon	-9.29744
iş	-9.29925
%	-9.30012
▁derveyî	-9.30047
▁Es	-9.30104
02	-9.30135
tina	-9.30168
▁hîna	-9.30179
▁giştîyê	-9.30228
▁hatîye	-9.3029
▁DYA	-9.30408
pî	-9.30408
istan	-9.30554
▁serbixwe	-9.30578
▁Sedr	-9.30626
bin	-9.30747
05	-9.30758
ikê	-9.30777
▁Kes	-9.30921
▁vekirin	-9.31049
gar	-9.31104
▁2003	-9.31284
▁hebûn	-9.31314
"|	-9.31402
▁rojava	-9.31545
▁To	-9.31557
▁şi	-9.3162
09	-9.31727
▁dîyar	-9.31892
▁YNK	-9.31907
10	-9.31927
rin	-9.31971
kû	-9.32087
▁YE	-9.32115
www	-9.32189
▁dirist	-9.32232
▁xwarin	-9.32291
au	-9.32302
▁Îranî	-9.32306
▁lêkolîn	-9.32371
pe	-9.32435
tur	-9.32526
▁Bin	-9.32622
▁xelkên	-9.32689
▁polîs	-9.32893
▁milyon	-9.32898
▁hil	-9.3299
▁alîyekî	-9.33025
▁sa	-9.33045
▁Wekî	-9.33167
▁hebûna	-9.33239
▁partîya	-9.33257
▁jiber	-9.33476
▁Dê	-9.33551
▁Wezareta	-9.3359
▁Ê	-9.33594
▁am	-9.33673
▁berhemên	-9.33674
ret	-9.33719
▁)	-9.33727
▁kon	-9.33796
▁dewletên	-9.33798
▁fraksiyonên	-9.33817
vê	-9.33984
Di	-9.34063
ley	-9.34084
mîn	-9.34159
▁sîyasî	-9.34191
nc	-9.34298
▁Ca	-9.3439
ster	-9.34501
▁nîv	-9.34514
▁Ak	-9.34661
av	-9.34688
▁malbatên	-9.34698
▁cîran	-9.34865
▁Şe	-9.34881
▁border	-9.34928
▁encamên	-9.34937
▁encamdana	-9.3496
▁Şa	-9.35014
po	-9.35445
▁latînî	-9.35506
▁gotina	-9.35525
▁Nav	-9.35596
lek	-9.35741
▁cem	-9.3575
▁bal	-9.35842
▁Brîtaniya	-9.35845
▁xebatên	-9.35847
▁bingeha	-9.35902
ib	-9.3596
tû	-9.35969
▁Or	-9.35974
▁dora	-9.36071
▁piştre	-9.36098
▁êrîşên	-9.36108
▁2008	-9.36111
▁Tariq	-9.3612
les	-9.36125
▁anîn	-9.36231
▁Man	-9.36288
▁bihîne	-9.36352
hev	-9.36493
▁stran	-9.36522
▁Sê	-9.36578
▁berpirsê	-9.36583
í	-9.36631
▁Turk	-9.36636
▁rêkevtina	-9.36824
▁êrîş	-9.36826
▁27	-9.36849
▁Xwedê	-9.36865
▁nûnerê	-9.36897
▁g	-9.36996
▁ket	-9.37006
▁Sûriye	-9.37047
▁kiribû	-9.37139
▁Roja	-9.37301
ûl	-9.37303
▁Islamîya	-9.37346
="#	-9.37366
▁rexne	-9.37413
▁hewl	-9.37539
lik	-9.37557
▁Am	-9.37708
▁Wê	-9.37713
ud	-9.37732
▁=	-9.37861
▁man	-9.37951
▁axa	-9.37958
şk	-9.37965
12	-9.38021
▁îngilîzî	-9.38035
▁z	-9.38141
▁navdewletî	-9.38165
▁Pa	-9.38166
med	-9.38202
▁hilbijartin	-9.38269
▁Sch	-9.38285
▁Cîhan	-9.38295
iyek	-9.38333
▁giran	-9.38346
▁2005	-9.38361
fi	-9.38469
îm	-9.38511
sel	-9.38727
▁beşekî	-9.38777
▁Rûsiya	-9.38917
▁ro	-9.38941
zi	-9.38997
▁warê	-9.39047
eh	-9.39069
▁tune	-9.3938
▁Po	-9.39392
▁dengê	-9.39467
xt	-9.39473
▁100	-9.39511
▁Mêr	-9.39575
▁herêmên	-9.39617
▁Can	-9.39679
EK	-9.3976
▁dev	-9.39829
uk	-9.39881
ît	-9.39921
▁Tu	-9.40039
rik	-9.4008
▁Med	-9.401
hat	-9.4022
▁gotiye	-9.40297
▁bernameya	-9.40306
▁und	-9.40444
▁Ajansa	-9.40461
▁zarokan	-9.40552
00	-9.40555
od	-9.40572
▁demekê	-9.40574
▁Bu	-9.40599
tik	-9.40609
▁dîrokê	-9.40617
▁xirab	-9.40637
dir	-9.40813
▁neteweyî	-9.40904
▁Mer	-9.41021
▁im	-9.41035
tîya	-9.41234
▁Mela	-9.41296
▁berhem	-9.41367
▁cureyên	-9.41606
▁Qu	-9.41723
▁nehatiye	-9.41745
▁hebû	-9.41775
▁Encûmena	-9.41915
▁Stenbolê	-9.41936
▁kî	-9.41938
ÎYA	-9.42028
▁zimanên	-9.4211
▁mu	-9.42201
▁dawîya	-9.42281
▁jinan	-9.42329
▁mînak	-9.42417
▁Israyel	-9.426
▁Nî	-9.42722
▁cîhanî	-9.42733
Bi	-9.42821
▁Jêder	-9.42918
▁sînor	-9.42921
.000	-9.4302
▁Gir	-9.43254
▁çek	-9.43283
;"|	-9.43337
▁şeş	-9.43418
▁navxweyî	-9.43477
▁DA	-9.43493
▁Ker	-9.43494
▁Wa	-9.43512
▁Dî	-9.43553
▁dayîn	-9.43599
▁xuya	-9.43653
▁Hu	-9.43662
▁zor	-9.4367
▁hemberî	-9.43673
▁beşa	-9.43784
▁Reş	-9.43869
07	-9.44036
hu	-9.44065
yn	-9.4415
▁Bel	-9.44168
▁herweha	-9.4422
îş	-9.44226
▁Şer	-9.4424
▁Barak	-9.44361
▁28	-9.44368
▁kel	-9.44424
▁siyasîyên	-9.44489
▁xist	-9.44556
▁Co	-9.44851
mend	-9.44958
▁Hem	-9.45024
▁Jo	-9.45091
▁hel	-9.45093
vanê	-9.45118
bet	-9.45138
▁Hevpeymanîy	-9.45244
▁pêşî	-9.45367
▁qe	-9.45417
yl	-9.45461
▁cihên	-9.45462
▁asta	-9.4558
ر	-9.45592
▁koma	-9.45677
▁dor	-9.45813
/20	-9.45817
01	-9.45965
▁cîh	-9.46047
yekê	-9.46051
ahî	-9.46055
▁Mistefa	-9.46239
80	-9.46294
▁dibîne	-9.46315
mal	-9.46415
30	-9.46421
▁Av	-9.46514
▁bang	-9.46603
▁Pe	-9.46681
▁petrola	-9.46702
ğ	-9.46724
▁Hes	-9.46776
▁26	-9.46826
▁Deryaya	-9.469
92	-9.47015
▁avakirina	-9.47176
▁hezaran	-9.47179
▁Rojhilata	-9.472
▁va	-9.47227
ie	-9.4724
▁JÎ	-9.47298
▁k	-9.47318
▁Fe	-9.47368
▁Ja	-9.47389
▁holê	-9.47408
yeka	-9.47432
êt	-9.47457
▁Hukûmeta	-9.47498
ER	-9.47527
▁Mirov	-9.47713
erê	-9.47727
▁40	-9.4773
qu	-9.47761
▁demên	-9.4783
▁zanistî	-9.47861
▁hest	-9.47947
▁Afganistanê	-9.4807
▁Xelîl	-9.48095
▁çe	-9.48249
▁lî	-9.484
▁Pîr	-9.48581
▁çiyayê	-9.48589
▁sereke	-9.4859
▁Bûyer	-9.48699
▁rêkevtin	-9.48731
▁birêz	-9.48731
kol	-9.48775
▁kongireya	-9.48809
▁peyda	-9.48868
▁Ellawî	-9.4888
▁Jin	-9.49009
lin	-9.4901
bêj	-9.49042
lat	-9.49094
▁nerîn	-9.49109
▁Dîrok	-9.49164
▁as	-9.49198
▁Welat	-9.49273
▁rojavaya	-9.49275
▁tişt	-9.4929
▁teqîna	-9.49301
ica	-9.49481
tîn	-9.49508
dem	-9.49587
ata	-9.4962
▁xaka	-9.4973
▁qezaya	-9.4981
▁germ	-9.4986
08	-9.49883
▁John	-9.49934
▁Har	-9.49967
▁fe	-9.49971
▁derxistin	-9.50025
xê	-9.50086
▁Hikûmeta	-9.50177
▁hevbeş	-9.50202
oz	-9.50226
ich	-9.50234
min	-9.50241
/12	-9.50305
▁Çend	-9.50323
▁standin	-9.50393
▁encamê	-9.50413
ry	-9.50419
▁Fransayê	-9.50452
▁siyaseta	-9.50485
right	-9.5051
▁HUKÛMET	-9.50522
▁sibehê	-9.50526
▁ragihandina	-9.50545
▁riya	-9.50561
▁Xan	-9.50579
▁Tirkiye	-9.50709
25	-9.50726
end	-9.50743
▁2012	-9.50863
YÊN	-9.50894
▁dayîk	-9.509
▁bandora	-9.51037
▁Pêş	-9.511
ss	-9.51253
▁destûrê	-9.51255
▁Dar	-9.51286
▁paytexta	-9.5129
navend	-9.51345
▁dîdar	-9.51467
▁KUJTIN	-9.51474
bat	-9.51511
▁Sûriyê	-9.51512
▁dinyayê	-9.51543
ket	-9.51585
▁teqîya	-9.51656
▁eşkere	-9.51712
ibû	-9.51786
rd	-9.51797
▁çav	-9.51937
▁bingehîn	-9.52002
▁gelên	-9.52012
▁Ad	-9.52044
▁Belê	-9.52144
▁TURKIYE	-9.52192
şem	-9.52195
ste	-9.52376
▁herdem	-9.5241
▁Bêjedarê	-9.52686
lav	-9.52717
▁Silêmaniyê	-9.52729
▁şand	-9.52739
▁dikim	-9.52753
çik	-9.52978
▁Mustefa	-9.53037
▁Car	-9.53153
▁çekên	-9.53297
▁gotinên	-9.53313
▁danîn	-9.53334
▁Gu	-9.53378
▁Mala	-9.53424
▁fir	-9.53431
hem	-9.53432
▁bombeka	-9.53489
net	-9.53589
▁Mele	-9.5363
▁San	-9.53685
▁qanûnê	-9.53818
▁•	-9.53894
▁Rojava	-9.53939
▁pirtûkê	-9.53981
ab	-9.54113
wi	-9.54171
▁so	-9.54206
▁Hê	-9.54215
▁ÎRANÊ	-9.54267
▁nakin	-9.54298
yi	-9.54317
11	-9.54357
▁bazirganî	-9.54357
▁siteya	-9.54386
/19	-9.54436
▁2004	-9.54475
▁deveran	-9.54484
▁destên	-9.54561
▁mêr	-9.54591
▁Qo	-9.54628
darê	-9.54706
▁Niha	-9.54834
▁niştimanî	-9.54861
▁Îbrahîm	-9.54873
▁dîwana	-9.5492
▁pişt	-9.54929
17	-9.54992
▁egerê	-9.5502
ron	-9.55058
▁guhertin	-9.55092
▁malpera	-9.55106
▁nivîskarê	-9.55108
▁leşker	-9.55121
▁bira	-9.5515
▁çand	-9.55178
bel	-9.55307
▁Vi	-9.55449
stî	-9.55453
Û	-9.5552
eb	-9.5558
▁dayik	-9.5567
▁Pirtûk	-9.55694
▁Hel	-9.55733
▁(*	-9.55777
▁ca	-9.55778
▁Ti	-9.55852
▁serekî	-9.55854
▁x	-9.55902
▁paşê	-9.55944
darên	-9.5605
ius	-9.5625
▁hûr	-9.56254
ts	-9.56273
▁çap	-9.5634
xaneya	-9.56344
و	-9.56431
▁razî	-9.56444
93	-9.5645
▁rojnamevan	-9.56475
roj	-9.56506
▁beramber	-9.56579
▁În	-9.56662
▁Beg	-9.56689
eyan	-9.56781
çî	-9.56806
▁2000	-9.56815
siyon	-9.56816
▁Civata	-9.56884
▁Pakistanê	-9.56904
▁karbidest	-9.56996
nav	-9.57006
▁Hejmara	-9.57022
▁Çîn	-9.57183
yon	-9.57245
▁{|	-9.57253
▁soz	-9.57288
▁Ebdul	-9.57335
darî	-9.57364
▁xwendina	-9.57438
▁hatibûn	-9.57464
ard	-9.5751
▁qanûnî	-9.57606
▁Sor	-9.57672
▁Piştre	-9.57684
ix	-9.57721
▁31	-9.57734
▁kirdarên	-9.5777
ä	-9.57804
yet	-9.57963
iv	-9.57977
14	-9.57999
▁Dest	-9.58123
▁Alî	-9.58195
▁TV	-9.58204
▁bêtirî	-9.58238
▁hi	-9.58328
▁1.	-9.58328
15	-9.58328
▁bikeve	-9.58359
▁v	-9.58475
▁taxa	-9.58494
▁Gi	-9.58539
▁dibînin	-9.58601
ff	-9.58607
13	-9.58616
▁NATO	-9.58651
mp	-9.58671
▁bêjedanek	-9.58671
▁mi	-9.58671
▁1991	-9.58699
▁Min	-9.58847
▁29	-9.58896
ung	-9.58908
zer	-9.58932
▁kompanyayên	-9.58941
▁dadgeha	-9.58966
▁Kon	-9.59035
mil	-9.59056
▁dawiya	-9.59122
/11	-9.59204
▁malan	-9.59216
▁pêşinyar	-9.59255
▁sîstema	-9.5929
▁Nobel	-9.59303
io	-9.59363
sor	-9.5938
ara	-9.59412
işt	-9.59425
▁sî	-9.59438
org	-9.59489
▁çûn	-9.59493
▁navên	-9.59549
▁endam	-9.59559
▁mir	-9.59561
/10	-9.59573
▁êrîşa	-9.59616
left	-9.59702
sal	-9.5986
▁Weşanên	-9.59861
▁Is	-9.59878
▁Sî	-9.5993
▁),	-9.5995
▁BÛN	-9.59955
tel	-9.59961
sk	-9.6003
par	-9.60061
▁Adil	-9.60146
▁fîlm	-9.60157
▁Pi	-9.60164
▁bigirin	-9.602
▁cejna	-9.60253
ation	-9.60389
▁rûyê	-9.60458
▁rêz	-9.60539
▁hilwestê	-9.60564
▁tund	-9.60643
text	-9.60748
06	-9.60804
▁Îslamî	-9.60813
▁terorîst	-9.60946
şan	-9.60966
▁Serokwezîrê	-9.60982
▁şaristana	-9.6099
▁Mûşê	-9.61019
▁St	-9.61077
▁Cihgirê	-9.6112
▁wer	-9.6116
bu	-9.6118
▁Sar	-9.61236
▁radiyoya	-9.61249
ي	-9.61257
▁kesekî	-9.61308
ks	-9.61316
▁xebata	-9.61367
ikan	-9.6138
res	-9.61488
▁Bû	-9.61507
ig	-9.61514
▁peyva	-9.61521
gal	-9.61567
zin	-9.61641
▁Pir	-9.61831
mas	-9.61922
ion	-9.61986
24	-9.62165
kêş	-9.62204
▁nêzî	-9.62397
▁navneteweyî	-9.62441
▁him	-9.62471
▁Tirkîye	-9.62478
▁Qere	-9.62588
▁pêdivê	-9.62604
▁gotara	-9.62627
▁Bexdadê	-9.6263
▁kevir	-9.62656
▁Ed	-9.62786
▁hejmarek	-9.62981
▁demjimar	-9.62983
mir	-9.63072
▁SAZ	-9.63107
▁gengeşe	-9.63107
▁duh	-9.6329
▁Ol	-9.63292
▁civaka	-9.63299
zo	-9.63391
bey	-9.63488
▁rojhilatê	-9.63491
danê	-9.6354
▁pîkol	-9.63558
style	-9.63564
▁Kara	-9.63574
fir	-9.63656
etê	-9.63692
▁kirîye	-9.63695
74	-9.63705
▁destpêkê	-9.63717
▁Pê	-9.63767
gîr	-9.63839
▁No	-9.63843
97	-9.63893
▁agir	-9.63954
▁Yekîtiy	-9.64093
sh	-9.64103
▁temenê	-9.64187
▁Kuştin	-9.64199
▁Lu	-9.64284
tes	-9.64294
▁Navçeya	-9.64383
75	-9.6439
rs	-9.64405
Li	-9.64485
▁BIHÊ	-9.64488
▁daxwazên	-9.64492
mên	-9.64577
▁Wek	-9.64581
▁têkildar	-9.64596
He	-9.64634
padding	-9.64733
▁rûniştvanên	-9.64735
▁xizmet	-9.64735
îs	-9.6482
▁Roman	-9.64859
▁nikare	-9.64872
▁2001	-9.64882
▁Xalid	-9.64889
▁bêje	-9.64944
▁Selaheddîn	-9.65006
guh	-9.65059
▁mo	-9.65085
;"	-9.65106
▁şermezar	-9.65142
colspan	-9.65144
▁kêmî	-9.6521
▁DEST	-9.65241
▁birin	-9.65281
Ba	-9.65282
▁SERDAN	-9.65284
▁2002	-9.65373
▁Dem	-9.65384
ewe	-9.6541
istanê	-9.65413
jo	-9.65423
▁hez	-9.65434
tra	-9.65461
▁bgcolor	-9.65528
arê	-9.65644
tt	-9.65705
▁Almanya	-9.65715
▁şa	-9.65774
ا	-9.6579
▁İ	-9.6581
▁Kerkûk	-9.6589
▁Hev	-9.65891
▁Ru	-9.65903
▁Ju	-9.65948
77	-9.65991
▁Ben	-9.66036
85	-9.66108
▁Rûsya	-9.66134
reş	-9.66159
oyê	-9.66193
dest	-9.66195
▁baştir	-9.66233
▁dewlemend	-9.66243
▁kurmancî	-9.66256
▁1992	-9.66257
▁KURD	-9.66273
▁1998	-9.66297
▁Gund	-9.66299
▁Berî	-9.66309
eş	-9.66377
▁Silêmanî	-9.66379
bend	-9.66487
▁plan	-9.66511
▁(18	-9.66557
hil	-9.66603
wey	-9.66627
karê	-9.66697
▁jêderên	-9.66759
▁Wan	-9.66773
▁erdê	-9.66818
▁nayê	-9.66847
▁Fi	-9.6686
▁parêzgehên	-9.66962
▁sekreterê	-9.67017
▁Rê	-9.67029
▁dikirin	-9.67145
ys	-9.67161
deya	-9.67169
▁Hevgirtin	-9.67197
ûs	-9.67213
▁Zayîn	-9.67223
▁Ye	-9.67229
▁width	-9.67335
▁mîr	-9.67367
76	-9.67374
iq	-9.6738
▁girtî	-9.67383
▁ereb	-9.67465
▁ker	-9.675
▁jîyana	-9.67584
bûyî	-9.67591
▁ten	-9.67597
ment	-9.67708
▁ferman	-9.67717
tek	-9.67902
▁nasîn	-9.6792
▁dewlet	-9.67961
▁mehê	-9.68027
Me	-9.6806
stin	-9.68083
▁belavkirin	-9.68091
▁boneya	-9.68097
▁Ay	-9.68215
▁Almaniya	-9.6822
▁navendî	-9.68291
60	-9.68297
▁Bakurê	-9.68352
▁şandeyeka	-9.68392
▁atomî	-9.68395
▁nebe	-9.68446
▁Dîyala	-9.68483
78	-9.68494
lên	-9.68549
▁ge	-9.68569
▁Bal	-9.68613
▁bihînin	-9.68628
▁Şirnexê	-9.68774
name	-9.68778
ken	-9.68782
▁terorîstan	-9.68853
▁zer	-9.6888
▁maweya	-9.68909
▁Kî	-9.6904
▁bir	-9.69118
îz	-9.69118
▁malê	-9.69161
▁fraksiyona	-9.69203
▁Xa	-9.69233
▁ciwan	-9.69267
▁Pla	-9.69359
▁rêxistinên	-9.69361
▁derdikeve	-9.69378
▁dîsan	-9.69432
▁Mon	-9.6944
▁êriş	-9.69463
background	-9.69546
▁veger	-9.69596
▁DTP	-9.69664
▁Îs	-9.69733
▁ha	-9.69735
jen	-9.69746
▁MALIKÎ	-9.69765
pan	-9.69768
lk	-9.69789
ÎN	-9.69915
▁çîrok	-9.69921
▁piranî	-9.69941
د	-9.6995
aw	-9.70022
83	-9.70084
/16	-9.70122
▁Almanyayê	-9.70142
▁bên	-9.70161
ham	-9.70161
18	-9.70164
▁daxwazê	-9.70174
▁bûyerên	-9.70249
▁hebin	-9.70308
vo	-9.70326
▁derbasî	-9.70394
▁mebesta	-9.70447
▁Ki	-9.70473
êr	-9.70482
▁derbaz	-9.70559
▁qa	-9.7057
gehên	-9.70584
nda	-9.70706
/02	-9.70866
▁dagir	-9.70877
▁red	-9.70905
▁awayê	-9.70922
▁bî	-9.70925
/24	-9.70986
▁Bir	-9.71003
▁Mor	-9.71016
gîn	-9.71026
▁PÊŞWAZÎY	-9.7103
ın	-9.71134
şîn	-9.71146
▁Gundistan	-9.71153
▁Şamê	-9.71286
▁nûçeyên	-9.71353
çê	-9.71413
/01	-9.71419
îzm	-9.71484
EKÎ	-9.71544
67	-9.71573
rk	-9.71586
▁xistin	-9.71588
▁no	-9.71591
▁neke	-9.71624
▁Dîroka	-9.717
▁binavkirin	-9.71721
▁qada	-9.71725
▁tiştekî	-9.71743
ox	-9.71791
ac	-9.71812
▁demeke	-9.71848
▁budceya	-9.71858
▁1999	-9.71871
var	-9.71874
▁pirtûk	-9.71881
manî	-9.71996
/04	-9.72037
vanên	-9.72045
sar	-9.72131
▁KES	-9.72167
▁r	-9.72277
▁w	-9.72376
/14	-9.7245
▁pejirandin	-9.72469
▁pa	-9.72483
▁pirsgirêka	-9.7249
▁BIRÎNDAR	-9.72527
/26	-9.72583
и	-9.72672
▁GIRTIN	-9.72676
▁navçeyê	-9.72709
▁desteya	-9.7271
sp	-9.72711
dû	-9.72715
/07	-9.72758
▁Reuters	-9.72822
xane	-9.72846
top	-9.7285
▁Niştimanîya	-9.7289
▁tîne	-9.72904
▁qedexe	-9.72928
▁damezrandina	-9.72963
▁Bas	-9.72973
▁Dil	-9.72991
▁werin	-9.73042
▁rêvebirê	-9.73165
▁Ban	-9.73166
/22	-9.73175
▁hevwelatîyan	-9.73205
tên	-9.73226
▁komarê	-9.73365
▁bersiva	-9.73436
îka	-9.73607
/09	-9.73641
▁Robert	-9.73719
YÊ	-9.73754
EKA	-9.73772
▁2013	-9.73802
▁pro	-9.73804
▁KERKÛKÊ	-9.73883
66	-9.73884
▁nûçeyan	-9.7401
82	-9.74048
▁şandin	-9.74071
/17	-9.74084
▁Navend	-9.74111
▁êvarê	-9.74163
bra	-9.74183
/18	-9.74258
ven	-9.74311
▁ci	-9.74311
▁i	-9.74324
vîn	-9.74326
/15	-9.7435
▁alîkariya	-9.74381
hel	-9.74386
lı	-9.74452
▁lo	-9.74479
ow	-9.74486
zir	-9.74501
ach	-9.74522
/13	-9.74649
▁Rû	-9.74674
▁gef	-9.74685
Badînan	-9.74698
su	-9.747
/05	-9.74709
/08	-9.74711
▁rizgar	-9.74764
ren	-9.7478
▁nu	-9.74847
dûn	-9.74908
cu	-9.74987
▁Şaristana	-9.75217
▁Giştî	-9.75222
▁têk	-9.75268
ih	-9.75331
▁BE	-9.75417
est	-9.75536
21	-9.75572
▁zanîngeha	-9.75639
▁girtina	-9.75653
ingen	-9.75702
ly	-9.75716
rt	-9.75721
/23	-9.75731
94	-9.75733
▁olî	-9.75761
fê	-9.75783
▁Axa	-9.75797
▁agahdar	-9.75855
87	-9.75883
berg	-9.75893
▁kurt	-9.75902
let	-9.75948
▁Bad	-9.75955
▁fransî	-9.75994
▁mê	-9.76041
/06	-9.76049
▁demek	-9.76062
▁çekdar	-9.7611
▁Sûrîya	-9.76144
înî	-9.76165
▁dibistana	-9.76202
▁kesî	-9.76287
qê	-9.76326
▁sed	-9.76381
edîn	-9.76398
▁Hî	-9.764
▁neh	-9.76411
▁Kur	-9.76422
und	-9.76434
wend	-9.76436
45	-9.76467
▁Ça	-9.76482
ras	-9.76582
▁dehan	-9.76617
▁II	-9.76625
len	-9.76649
/03	-9.76695
▁bîne	-9.76716
▁Mil	-9.7678
▁Tor	-9.76789
95	-9.76845
▁bingeh	-9.76878
xist	-9.76905
▁kan	-9.76912
▁êrîşî	-9.76921
kên	-9.77041
▁Sel	-9.77045
▁Dêrsimê	-9.77051
▁nêvbera	-9.77052
way	-9.77104
23	-9.77142
▁Faunay	-9.77203
ax	-9.7725
/25	-9.77283
▁alîkarî	-9.77301
oc	-9.77351
▁Berwarî	-9.77366
▁demokratîk	-9.77391
▁rêjeya	-9.7742
16	-9.77484
▁Felah	-9.77525
▁xwendin	-9.7758
0.000	-9.77583
▁Zer	-9.77586
90	-9.77689
▁gu	-9.77837
▁geş	-9.77865
م	-9.77889
▁ho	-9.7799
baz	-9.77991
▁derê	-9.7802
IYA	-9.78129
▁Pêjgeh	-9.78135
/27	-9.78196
▁VE	-9.78213
/28	-9.78224
tro	-9.78245
▁amadebûna	-9.78265
▁çalak	-9.78295
▁hevpişk	-9.78364
▁Dad	-9.78414
ST	-9.78421
▁cell	-9.78436
27	-9.78438
del	-9.78492
▁Gelê	-9.78497
▁mazin	-9.78509
▁pel	-9.78541
atî	-9.78554
▁guh	-9.78614
▁Hêjayî	-9.78632
▁digirin	-9.78682
▁bûyera	-9.78716
▁asayî	-9.7876
▁Abdullah	-9.78764
▁Seîd	-9.78844
ec	-9.78881
▁rûpel	-9.78929
▁kişand	-9.79036
jar	-9.79124
▁biyanî	-9.7922
▁Mal	-9.79268
68	-9.79298
gh	-9.7932
pêş	-9.79436
▁wergirt	-9.79503
▁mirovên	-9.7956
▁în	-9.79598
▁ziyan	-9.79671
▁mirî	-9.79678
▁ragihandinê	-9.79684
▁rûniştina	-9.79713
▁dimîne	-9.79722
22	-9.79724
▁dengên	-9.79815
hl	-9.79851
îf	-9.79893
▁hevpeyvînek	-9.79904
▁dîrok	-9.79924
/29	-9.79925
▁hindek	-9.79941
RA	-9.79979
▁kombûn	-9.80019
ens	-9.80172
kiş	-9.80186
▁j	-9.80252
▁YÊ	-9.80253
▁bikevin	-9.80272
▁serî	-9.80312
▁serdanê	-9.80332
70	-9.80489
47	-9.80519
▁Kerkûkî	-9.80596
▁gihijt	-9.80617
▁h	-9.80637
▁ter	-9.80641
▁dilê	-9.80799
Ma	-9.80851
▁destpêkirin	-9.80933
▁Suriya	-9.80955
▁dîdara	-9.80986
tîyê	-9.81048
cer	-9.81068
▁temam	-9.81116
▁1994	-9.81153
kil	-9.81264
▁mijarên	-9.81267
35	-9.81315
▁dadgehê	-9.81319
▁serdema	-9.81332
▁paytextê	-9.8135
▁heyî	-9.81438
▁Agiriyê	-9.81487
▁Sûriya	-9.81606
▁nûçeyek	-9.81645
ل	-9.81648
▁asayişê	-9.81679
xistina	-9.81686
▁girê	-9.81741
▁nivîsîn	-9.81775
:#	-9.81792
▁Endamên	-9.8183
og	-9.81861
ûd	-9.81922
▁Par	-9.81972
▁perwerde	-9.82014
▁serbaz	-9.82074
▁rêvebirîya	-9.82144
84	-9.82165
26	-9.82201
bîn	-9.82223
Ji	-9.82245
37	-9.82249
▁şerrê	-9.82408
53	-9.82505
girê	-9.82508
▁Divê	-9.82544
îtî	-9.8257
62	-9.82624
▁t	-9.82638
▁lîst	-9.82657
▁maf	-9.82659
▁Nobelê	-9.82758
▁Niştimanî	-9.82766
▁Swêdê	-9.82828
ن	-9.82863
▁mar	-9.82922
▁***	-9.82936
▁Qadir	-9.82939
▁Botan	-9.82969
az	-9.82993
".	-9.83038
kom	-9.83054
▁demjimêr	-9.83093
▁şehîd	-9.8314
▁pirtûkên	-9.83201
lay	-9.83362
▁DIKE	-9.83423
59	-9.83458
▁07	-9.83544
65	-9.83616
ahiya	-9.83622
86	-9.83627
▁arêşeyê	-9.8364
dor	-9.83648
▁rêkevtinê	-9.83692
▁Xaneqînê	-9.83699
▁goyên	-9.8372
dayî	-9.83733
lîs	-9.8377
▁2014	-9.83773
ex	-9.83819
ça	-9.83923
▁Artêşa	-9.83924
▁1997	-9.83924
LA	-9.84019
▁xal	-9.84066
mel	-9.84073
▁Peyamnêr	-9.84076
▁#	-9.84124
▁anku	-9.84193
▁dabû	-9.84245
▁Rêvebirê	-9.8428
▁bixwe	-9.84305
73	-9.84319
îb	-9.84319
▁vedîtin	-9.84337
40	-9.84342
▁gundistana	-9.84418
▁şûna	-9.8445
heim	-9.84475
▁derman	-9.84503
▁dengan	-9.84571
▁WEZÎRÊ	-9.84573
▁sedan	-9.84681
▁serkevtî	-9.84739
▁pêwîst	-9.84888
▁kûr	-9.84893
▁bila	-9.84901
lem	-9.8492
ell	-9.85025
▁Çar	-9.85058
39	-9.85138
▁Rihayê	-9.85154
▁partiya	-9.85187
▁Seqizê	-9.85218
▁hevwelatî	-9.85225
girt	-9.85235
▁asteng	-9.85243
▁adarê	-9.8528
/21	-9.85308
▁Bexdayê	-9.85385
▁rojhilat	-9.85456
▁misilman	-9.85486
cê	-9.85528
▁Dan	-9.85555
▁hêdî	-9.85564
▁Ey	-9.85573
▁xwînê	-9.85588
▁derdora	-9.8584
▁York	-9.85974
awî	-9.86047
▁dît	-9.86058
▁deh	-9.86059
▁borî	-9.86068
▁Mirovan	-9.8611
oya	-9.86114
▁kuştina	-9.86131
▁ar	-9.86131
▁tiştên	-9.86158
▁jiyan	-9.86189
89	-9.86206
pl	-9.8623
manê	-9.86231
▁cûda	-9.86315
çi	-9.86384
▁eslê	-9.86565
▁Lî	-9.86639
zik	-9.86686
sîn	-9.86743
▁Washington	-9.86757
xistin	-9.86758
▁1995	-9.86828
▁Ala	-9.86837
▁bajarokê	-9.8687
ە	-9.8688
girtin	-9.86921
Be	-9.86939
ram	-9.8695
▁Hat	-9.87
▁Dêrika	-9.87036
▁mirina	-9.87131
▁jiyanê	-9.87136
▁von	-9.87139
▁pirranî	-9.87208
▁heşt	-9.87215
▁pispor	-9.87271
▁wergirtina	-9.87272
▁Pro	-9.87336
▁herêmî	-9.874
▁nî	-9.87602
▁hûn	-9.87636
▁BÛ	-9.87647
▁aloz	-9.87658
▁ze	-9.87673
000	-9.8772
▁têde	-9.8773
▁key	-9.87731
▁60	-9.87867
▁hukûmet	-9.8788
▁Efrînê	-9.87896
/30	-9.87898
olojî	-9.87928
▁pirranîya	-9.87934
▁general	-9.87954
▁beşek	-9.87982
▁Ziman	-9.87992
▁ewledarîya	-9.88029
▁Jiyan	-9.88088
▁pi	-9.88112
34	-9.88124
▁girtiye	-9.88125
▁Fo	-9.88185
ef	-9.88188
44	-9.88192
▁Gundê	-9.88202
▁hunermend	-9.8822
88	-9.88294
▁roman	-9.88301
▁radi	-9.8832
▁rojane	-9.88384
32	-9.88445
▁dawiyê	-9.88475
▁Koreya	-9.88558
▁xebat	-9.88562
96	-9.88662
▁hersê	-9.88918
ensis	-9.8903
don	-9.89032
е	-9.89043
▁mane	-9.89064
nameya	-9.89156
69	-9.89195
▁fa	-9.89285
▁zanist	-9.89291
ala	-9.89294
▁projeyê	-9.89336
nis	-9.89381
▁Osmaniyan	-9.89427
▁Tele	-9.89509
▁Erzîromê	-9.89603
▁polîsê	-9.89632
rek	-9.89712
▁serjimariy	-9.89716
kurd	-9.89725
▁Paşa	-9.89754
ikên	-9.89774
▁Press	-9.89793
▁Va	-9.89865
▁jêderekî	-9.89913
▁Zagros	-9.90039
▁Pişka	-9.9004
IR	-9.90046
ang	-9.90047
▁doz	-9.90055
▁Mas	-9.90073
▁Ahmet	-9.90075
▁lêkolînên	-9.90091
▁pêwîste	-9.901
▁KOMBÛNEK	-9.90114
▁pirsê	-9.90153
dr	-9.9019
▁dihatin	-9.90196
▁Kerîm	-9.90234
▁bibînin	-9.90237
îzmê	-9.90242
▁zîndan	-9.90316
hir	-9.90365
▁Sen	-9.90406
▁1993	-9.90407
ip	-9.90492
▁kombûnekê	-9.90602
33	-9.90628
era	-9.90673
▁mirin	-9.90676
▁Asyayê	-9.90701
▁werger	-9.90738
99	-9.90845
54	-9.90851
▁dad	-9.90884
▁dengdanê	-9.90917
▁Un	-9.90948
log	-9.91006
▁Goran	-9.91007
▁Mafên	-9.91072
▁tomar	-9.91087
▁komisiyona	-9.91098
▁Ebû	-9.91111
64	-9.91118
width	-9.91127
▁co	-9.91165
line	-9.91182
42	-9.91216
▁Ter	-9.91298
ther	-9.91304
ان	-9.91352
▁şoreşa	-9.91415
31	-9.91481
▁şewitandin	-9.91484
▁sar	-9.91512
sin	-9.91534
▁KAR	-9.91586
▁Şi	-9.91603
▁Osmanî	-9.91618
▁xurtkirina	-9.91631
28	-9.91636
▁xeter	-9.9164
▁06	-9.91736
▁bêne	-9.91751
gehê	-9.91767
dal	-9.91856
mb	-9.91859
eyek	-9.91862
▁Con	-9.91878
▁fî	-9.91936
▁Rêxistina	-9.91972
bîr	-9.91986
AL	-9.92008
▁pêşkêşkirin	-9.92014
west	-9.92034
▁kovara	-9.92048
▁Sil	-9.92061
▁AKP	-9.92073
81	-9.92115
▁Demokratîk	-9.92214
keft	-9.92243
71	-9.92263
▁pêdivî	-9.92274
vanî	-9.92286
▁berjewendîya	-9.92348
▁efser	-9.92351
▁teqiya	-9.92398
olog	-9.92414
▁2006'	-9.92435
sim	-9.92471
fr	-9.92476
▁avêtin	-9.92507
▁EM	-9.92556
▁su	-9.92583
br	-9.92648
ub	-9.9266
▁Husên	-9.92736
▁1996	-9.92787
▁cihanîna	-9.92803
▁muzîkê	-9.9283
63	-9.92852
▁xaneyê	-9.92857
▁nema	-9.92858
48	-9.92913
▁2015	-9.9292
▁Cîhanê	-9.92945
▁Berpirsê	-9.92951
zanî	-9.92961
56	-9.93018
▁rêberê	-9.93064
ā	-9.9307
▁welêt	-9.9307
▁Ali	-9.93255
▁şandeyê	-9.93255
▁xwendekar	-9.93256
▁parlamenter	-9.93268
▁çendîn	-9.9328
bil	-9.93331
xî	-9.93368
▁Serdeştê	-9.9339
▁Çe	-9.93431
pp	-9.93439
="2"	-9.93442
55	-9.93466
▁xwîn	-9.93526
sil	-9.93553
▁xwendevan	-9.93567
▁Ango	-9.9357
▁Bajarê	-9.9365
▁tîma	-9.93695
▁Pol	-9.9377
ium	-9.93786
▁kompanyaya	-9.93795
▁piraniya	-9.93809
▁Demokrat	-9.93827
▁wi	-9.9385
▁tundî	-9.9386
aş	-9.93878
36	-9.93968
á	-9.93974
61	-9.93981
ney	-9.94012
▁fermandarê	-9.94027
▁bingehên	-9.94053
▁birayê	-9.94067
kanî	-9.94126
▁bigire	-9.94209
▁bergirîya	-9.94218
▁Kal	-9.94248
▁Biryar	-9.94309
▁Baş	-9.94327
▁vi	-9.94374
▁rewş	-9.94437
▁hilbijartina	-9.94518
▁Emîn	-9.94575
▁daxuyanîyekê	-9.94597
▁bav	-9.94599
kuj	-9.94712
▁hêriş	-9.94718
▁reng	-9.9475
▁Xal	-9.9476
▁Sp	-9.94802
▁Herêmê	-9.94822
▁ol	-9.94884
▁diçin	-9.94913
▁projeyên	-9.94941
waz	-9.94944
▁çalakîyên	-9.94968
▁Bajar	-9.94968
▁Nu	-9.9497
▁xelata	-9.95014
▁Gur	-9.95072
▁pesnê	-9.95086
awa	-9.95159
▁yaneya	-9.95271
43	-9.95286
▁bakûrê	-9.9529
▁ola	-9.95509
▁ME	-9.95514
▁çemê	-9.9557
▁destûr	-9.95588
▁Pêdivêy	-9.95636
▁duyemîn	-9.95646
▁Balyozê	-9.95712
▁Han	-9.95747
▁helbest	-9.95757
▁kevin	-9.9578
▁civakê	-9.9579
▁200	-9.95809
▁pesend	-9.95813
▁vekirina	-9.95832
▁Th	-9.95834
▁winda	-9.95834
▁tirs	-9.95837
▁Ava	-9.95864
▁dolar	-9.95911
▁dîn	-9.95922
▁tîp	-9.95934
▁bidest	-9.95949
▁nirxê	-9.95961
▁goyan	-9.9598
▁ex	-9.96
berî	-9.96002
▁deme	-9.96024
▁desthilata	-9.96167
▁navçeyên	-9.96211
79	-9.96285
▁Helebçe	-9.96397
rast	-9.96415
▁xwarinê	-9.96467
▁kongireyeka	-9.96483
▁hey	-9.96497
▁qonaxa	-9.96551
niya	-9.9657
▁za	-9.96575
▁anko	-9.96606
▁Çi	-9.96666
▁Dêr	-9.96689
▁ga	-9.96744
▁kesek	-9.96768
“	-9.96816
▁Rûsyayê	-9.96873
ür	-9.96906
▁komel	-9.96915
▁hevalên	-9.96921
98	-9.96961
▁mehan	-9.97016
▁bibîne	-9.97016
welat	-9.97017
▁berdan	-9.97025
▁Rojhilat	-9.97084
▁Zaxo	-9.97111
▁Xebat	-9.97138
EM	-9.97141
▁navokî	-9.97142
▁05	-9.97144
jin	-9.97166
▁Sûrîye	-9.97179
▁heb	-9.97253
▁Aştî	-9.9726
▁mil	-9.97282
▁ferheng	-9.97324
▁nehê	-9.97415
▁hîngê	-9.97536
ştin	-9.97547
▁Kam	-9.97615
▁bikaranîna	-9.97671
wir	-9.97747
▁beşên	-9.97785
▁destnîşankirin	-9.97989
46	-9.98011
▁şev	-9.98014
navê	-9.98036
▁Samî	-9.98051
▁lez	-9.98065
bîl	-9.98083
▁Civak	-9.98088
▁Mehmet	-9.98102
▁bixe	-9.98111
▁xizmeta	-9.98115
dek	-9.98119
▁1990	-9.98158
▁qeza	-9.98166
▁ru	-9.98171
▁basa	-9.98189
▁xwepêşanderan	-9.98269
▁Bedirxan	-9.98274
▁Wer	-9.98304
▁tevger	-9.98331
▁nekir	-9.98344
▁biryarê	-9.98369
▁mijara	-9.98425
▁Cejn	-9.98442
▁BAJÊRÊ	-9.98461
▁êrîşê	-9.98468
▁mer	-9.98468
ou	-9.98484
▁nêv	-9.98487
▁bînin	-9.98534
▁Îsraîlê	-9.98535
▁pêkhat	-9.98597
▁bandor	-9.98679
▁08	-9.98749
▁Wezîra	-9.9875
▁Biden	-9.98765
▁Sur	-9.98771
▁01	-9.98831
tion	-9.98834
▁nikarin	-9.98842
▁Receb	-9.98844
▁mezinên	-9.98915
▁1980	-9.9893
▁xe	-9.98963
▁Rojnameya	-9.9903
▁kê	-9.9906
▁†	-9.99083
lt	-9.99103
▁nûjen	-9.99131
▁Fir	-9.99132
▁09	-9.9917
EL	-9.99177
şar	-9.99231
set	-9.99266
▁Bajarên	-9.99305
bor	-9.994
▁stranbêj	-9.99435
▁aram	-9.99473
rus	-9.99557
▁Pêncşemê	-9.99614
▁Paytext	-9.99616
▁Zana	-9.9962
dike	-9.99655
▁Kil	-9.99684
▁Tr	-9.99718
ps	-9.9976
▁Ab	-9.99796
▁romî	-9.99843
inc	-9.99963
▁daxwazkirî	-10.0001
▁Dîsa	-10.0008
ian	-10.0009
▁gelemperî	-10.0015
gor	-10.0015
▁Dû	-10.0016
che	-10.0018
dy	-10.0019
▁Mijarê	-10.0021
▁parêzgarê	-10.0023
ling	-10.0029
▁hejmar	-10.0038
▁Zaxoyê	-10.0042
▁geşt	-10.0046
▁Tirkî	-10.0048
▁or	-10.005
baş	-10.005
AR	-10.0052
▁çarçêweyê	-10.0055
ence	-10.0056
▁koçber	-10.0058
49	-10.0061
tic	-10.0072
▁teqe	-10.0077
bol	-10.0081
xw	-10.0081
▁nivîsgeha	-10.0082
rak	-10.0082
▁Dara	-10.0084
▁xwestin	-10.0087
nin	-10.0094
è	-10.0098
nak	-10.0101
▁Gorî	-10.0101
▁aştîyê	-10.0115
▁paraztina	-10.0117
▁zî	-10.0122
burg	-10.0123
▁pêkanîn	-10.0126
▁laş	-10.0128
kel	-10.0132
▁wergirtin	-10.0136
▁terorîstî	-10.0136
▁çanda	-10.0143
▁bizava	-10.0146
ON	-10.015
▁mêvan	-10.0152
▁Hatin	-10.0153
▁hefteya	-10.0158
▁pîr	-10.0168
sey	-10.0176
sala	-10.0184
▁bawerî	-10.0186
jan	-10.0187
▁evaya	-10.0191
▁hatî	-10.0191
af	-10.0195
▁Ax	-10.0205
▁Ur	-10.0208
▁Ereban	-10.0214
29	-10.0215
▁mezintirîn	-10.022
▁Tû	-10.0221
▁dewam	-10.0221
eyeke	-10.0222
▁arîşeyên	-10.0224
38	-10.0224
▁kal	-10.023
▁Omer	-10.0232
▁ال	-10.0232
▁çimk	-10.0233
▁NAVBER	-10.0236
▁Silêman	-10.0238
▁Tan	-10.0244
▁parêzgehê	-10.0245
uc	-10.0257
ale	-10.0261
▁Cu	-10.0263
▁Lîsteya	-10.0263
▁spî	-10.0265
▁Baz	-10.0268
▁parçe	-10.0273
lon	-10.0276
▁serokatiya	-10.0277
57	-10.0289
ibe	-10.0289
▁Hoşyar	-10.0295
▁Komeleya	-10.0297
▁meh	-10.0299
▁berpirs	-10.0305
▁pêşketina	-10.0306
▁gul	-10.0308
▁Ciwan	-10.0319
▁Key	-10.0326
▁xa	-10.0331
▁02	-10.0331
▁rengê	-10.0333
▁desthilatdar	-10.0334
tol	-10.0335
▁DAN	-10.0335
▁David	-10.0335
▁nik	-10.0336
▁erd	-10.0337
▁tevgera	-10.0342
▁Îslam	-10.035
ştî	-10.0351
EYA	-10.0352
▁biçe	-10.0354
▁Bîr	-10.0358
▁kor	-10.0362
pen	-10.037
▁nûneran	-10.0373
▁Yekgirtî	-10.0377
▁dost	-10.0377
AT	-10.0384
▁nekin	-10.0388
▁q	-10.039
-3	-10.039
▁pere	-10.0391
▁xwarê	-10.0399
▁Sêrtê	-10.041
▁Ken	-10.0411
ph	-10.0414
▁beşê	-10.0421
rat	-10.0434
о	-10.0436
▁demokrat	-10.0438
▁Sûriyeyê	-10.0439
▁aş	-10.044
▁muzîka	-10.0449
▁sûd	-10.0451
xin	-10.0452
▁Xel	-10.0453
▁Rojhilatê	-10.0453
▁maye	-10.0455
chi	-10.046
58	-10.046
riya	-10.0463
▁temamî	-10.0464
▁rêzdar	-10.0468
▁1988	-10.0469
pt	-10.047
▁Hey	-10.047
▁Sir	-10.0472
ewî	-10.0472
▁armanc	-10.0476
▁wêne	-10.0478
▁partîyên	-10.0489
arî	-10.0496
▁amadekirin	-10.0498
gil	-10.0502
fan	-10.0504
km	-10.0514
▁Sekreterê	-10.0515
▁gol	-10.0516
▁şîr	-10.0519
▁Hacî	-10.0524
▁qet	-10.0526
▁çêkirina	-10.0527
▁hêvîdar	-10.0532
şi	-10.0535
rab	-10.0537
▁Kel	-10.0537
▁çarçoveya	-10.0539
▁alîgir	-10.0545
▁fireh	-10.0552
pel	-10.0555
ût	-10.0555
karên	-10.0557
▁şeva	-10.0567
▁hevkarîya	-10.0572
▁ders	-10.0573
▁3-	-10.0573
▁04	-10.0573
ır	-10.0583
▁Bûş	-10.0584
▁Hil	-10.0586
▁Îraqî	-10.0589
GIR	-10.0594
▁jîyanê	-10.0601
rom	-10.0606
tre	-10.0618
▁Ebdulmehdî	-10.062
ap	-10.0621
ii	-10.0623
▁Besra	-10.0629
▁nêzîka	-10.0632
ena	-10.0635
▁lîstikvan	-10.0641
▁Yekşemê	-10.0641
▁gulanê	-10.0646
bûr	-10.0647
▁doza	-10.0651
▁jor	-10.0653
▁xi	-10.0662
▁l	-10.0666
▁hevpeyvîna	-10.0666
▁şî	-10.0667
day	-10.0676
▁şax	-10.0678
las	-10.0685
▁naveroka	-10.0686
▁peyv	-10.0701
▁Şem	-10.0702
cus	-10.0702
▁peywendî	-10.0707
▁Libnanê	-10.0709
",	-10.0714
mana	-10.0714
▁tek	-10.0716
ranî	-10.0719
▁Helbest	-10.072
liya	-10.072
▁70	-10.0723
▁1979	-10.0725
şik	-10.0726
ayetî	-10.0731
RO	-10.0732
rok	-10.0732
▁xwezt	-10.0733
▁Gr	-10.0735
beş	-10.0738
▁80	-10.0738
ros	-10.074
mu	-10.0744
â	-10.0745
▁Hinek	-10.0751
▁Kan	-10.0756
Al	-10.0759
▁şano	-10.0763
parêz	-10.0767
yen	-10.0768
kt	-10.0769
▁dûrî	-10.077
ella	-10.0772
▁Hindistanê	-10.0774
aq	-10.0774
▁dixe	-10.0782
▁----	-10.0787
-1	-10.0788
▁sêyem	-10.0791
▁Meh	-10.0802
îyye	-10.0805
▁Qasim	-10.0806
evan	-10.0807
°	-10.0808
▁balafir	-10.0809
▁bimîne	-10.081
▁DU	-10.0811
yr	-10.0811
▁Gor	-10.0812
uş	-10.0814
▁destûrî	-10.0819
▁dikevin	-10.0825
▁Tehranê	-10.0839
▁pêkhatên	-10.0839
nû	-10.0841
▁vekirî	-10.0844
▁jina	-10.0847
▁berdin	-10.0849
52	-10.085
▁nebû	-10.0851
jîn	-10.0852
▁nahê	-10.0859
azî	-10.0871
▁Clinton	-10.0871
▁pêşniyar	-10.0871
ûrî	-10.0872
sû	-10.0882
▁Îtaliya	-10.0886
▁karî	-10.0886
▁Dewletê	-10.0887
ekan	-10.089
▁bend	-10.0894
▁serhildana	-10.0896
nam	-10.0901
▁eşîra	-10.0901
hur	-10.0903
▁dihate	-10.0908
▁nehatine	-10.0913
====	-10.0916
▁pîrozkirin	-10.0918
▁xelat	-10.092
ekanî	-10.092
▁Nûnerê	-10.0921
▁şîn	-10.0925
▁înternetê	-10.0932
▁35	-10.0934
OR	-10.0939
▁çapkirin	-10.0942
ire	-10.0945
▁xwê	-10.0947
▁postên	-10.0949
ben	-10.095
▁Fransî	-10.0952
▁HEV	-10.0958
AD	-10.0959
yayî	-10.0967
▁kin	-10.0968
72	-10.0969
▁alman	-10.097
nde	-10.0971
▁paşîn	-10.0972
▁kandîd	-10.0974
▁welatekî	-10.0975
▁ENCÛMEN	-10.0978
▁Leyla	-10.0979
gon	-10.0981
nasî	-10.0985
saz	-10.0986
▁Frans	-10.099
▁gava	-10.0996
cih	-10.0998
▁birêve	-10.1017
bit	-10.1021
the	-10.1021
▁Kovara	-10.1027
▁hêj	-10.1038
▁mez	-10.104
▁kontrola	-10.1045
▁Doh	-10.1045
hes	-10.1046
▁NÛ	-10.1047
ûb	-10.105
▁dîdarekê	-10.1051
dêr	-10.1057
▁yewnanî	-10.1058
hm	-10.1063
asî	-10.1064
▁dijwarî	-10.1068
▁jinên	-10.1072
sti	-10.1073
▁erk	-10.1073
▁Men	-10.1074
▁Îsa	-10.108
inî	-10.1081
▁êş	-10.1082
▁Ste	-10.1083
▁BARZANÎ	-10.1085
▁kovar	-10.1086
▁BAXDADÊ	-10.1088
siya	-10.1088
▁giştîya	-10.1089
▁qir	-10.109
lla	-10.1093
diya	-10.1096
▁fi	-10.1099
▁Dibe	-10.11
of	-10.1106
▁Siyasetmedar	-10.1107
▁Muhsin	-10.1107
HE	-10.1109
▁pevçûn	-10.1112
cht	-10.1121
art	-10.1129
▁alîkarîyê	-10.1138
▁egera	-10.114
▁Sta	-10.114
▁fo	-10.1141
▁topbaran	-10.1142
▁qu	-10.1144
▁Yo	-10.1145
▁kontrol	-10.1149
▁afirandin	-10.115
▁navnetewî	-10.115
▁Ednan	-10.1151
▁dijmin	-10.1151
▁ken	-10.1156
▁zanyar	-10.1158
▁Bibîne	-10.1158
qi	-10.116
▁Pas	-10.1168
▁xelk	-10.117
▁Çand	-10.1173
mîr	-10.1174
▁merc	-10.1181
atê	-10.1183
dil	-10.1187
bas	-10.1196
qet	-10.1198
▁Gol	-10.1199
▁Înîyê	-10.1199
ona	-10.12
▁laşê	-10.1208
▁perwerdeya	-10.1215
▁Ch	-10.1216
▁1970	-10.1217
ب	-10.1217
▁rojname	-10.1219
gre	-10.1222
▁Hi	-10.1224
▁parêzgehan	-10.1225
pirs	-10.1226
▁çiya	-10.1235
▁Ci	-10.1238
▁rûniştvanan	-10.1238
WE	-10.1241
îng	-10.1244
▁dengbêj	-10.1263
▁2016	-10.1263
lîn	-10.1263
hal	-10.1275
▁bîn	-10.1283
port	-10.1296
▁daxuyannameyek	-10.1304
▁xort	-10.1307
▁Bay	-10.1308
▁berde	-10.1312
ele	-10.1313
▁Xelat	-10.132
jê	-10.1326
▁terorane	-10.1328
eg	-10.1329
▁sibê	-10.1331
▁Diyarbekirê	-10.1334
▁Gal	-10.1339
▁pitir	-10.1341
▁ki	-10.1342
Re	-10.1345
▁biwarên	-10.1347
▁for	-10.1349
▁tîrmehê	-10.1349
▁dij	-10.1349
▁At	-10.1361
▁Mazî	-10.1361
▁rêxistin	-10.1363
▁pêjgeha	-10.137
▁damezirandin	-10.138
birin	-10.1381
▁PARLIYAMENTA	-10.1383
zel	-10.1383
▁ron	-10.1386
andî	-10.1392
val	-10.1394
▁2017	-10.1396
▁alfabeya	-10.14
▁dewletan	-10.14
▁keç	-10.14
▁Nivîs	-10.1403
▁çandin	-10.1407
lim	-10.1408
kur	-10.1408
▁03	-10.141
up	-10.1414
sto	-10.1418
▁Pey	-10.1419
▁belge	-10.1422
▁biçin	-10.1427
▁aramî	-10.1429
xi	-10.143
▁nedi	-10.1432
▁karekî	-10.1432
▁fermana	-10.1434
▁çawanîya	-10.1437
▁erkê	-10.1445
girtina	-10.1449
iaceae	-10.1449
2011	-10.1451
ûm	-10.1463
form	-10.1469
▁çem	-10.1472
tiye	-10.1473
▁pêşxistina	-10.1476
▁pêxember	-10.1482
▁gotûbêj	-10.1482
▁xêr	-10.1502
▁kabîneya	-10.1505
▁kanûna	-10.1505
EY	-10.1508
ral	-10.1509
▁pêşwazî	-10.1509
▁guherandin	-10.1512
karîyê	-10.1513
kes	-10.1518
▁Mem	-10.1523
▁karûbarê	-10.1527
▁civînê	-10.1536
▁axaftina	-10.1538
-2	-10.1541
▁beş	-10.1553
▁Dîyarbekirê	-10.1553
▁Kol	-10.1553
▁aliyên	-10.1557
▁Kuweytê	-10.1565
▁rewa	-10.1565
▁xerab	-10.1583
▁Hal	-10.1588
▁kem	-10.1589
▁girêdan	-10.1589
▁Helbestvan	-10.1591
▁kete	-10.1593
lah	-10.1593
çek	-10.1604
▁mih	-10.1606
▁encûmenên	-10.1608
91	-10.161
uf	-10.1611
▁August	-10.1618
▁Brîtanya	-10.1624
▁DYAyê	-10.1624
▁Îslamê	-10.1625
bal	-10.1629
lîst	-10.163
▁Pişt	-10.1636
raq	-10.1637
▁Hemû	-10.1641
▁ce	-10.1641
▁Çemê	-10.1645
▁Bavê	-10.1651
▁rewşenbîrî	-10.1655
▁Şingalê	-10.1659
▁Zi	-10.1659
▁xwar	-10.166
▁Sêşemê	-10.1664
▁hizir	-10.1665
▁tevahiya	-10.1665
gr	-10.1672
▁azadî	-10.1673
ate	-10.1677
▁bihêt	-10.1682
det	-10.1684
▁rengî	-10.1684
▁hunerî	-10.1685
ij	-10.1685
▁Hen	-10.1686
▁meriv	-10.1688
yanî	-10.1691
▁malbat	-10.1691
firoş	-10.1692
raz	-10.1695
eng	-10.1699
▁tû	-10.1705
îkî	-10.171
▁Êrîş	-10.171
▁serokwezîrê	-10.1715
2010	-10.1718
▁Girav	-10.172
▁xem	-10.1721
▁Tebax	-10.1733
▁1960	-10.1735
▁Reşîd	-10.1738
▁şe	-10.1739
▁firrokeyên	-10.174
▁helbestvan	-10.1749
▁ri	-10.1755
▁civata	-10.1757
▁Împeratoriy	-10.1757
▁partî	-10.1763
▁dihêt	-10.1763
▁xwepêşandanên	-10.1772
DAR	-10.1774
▁BIKIN	-10.1779
▁famîleya	-10.1779
▁balyozxaneya	-10.178
▁naw	-10.179
▁kesê	-10.1793
▁Çek	-10.1793
▁pol	-10.1794
▁şevê	-10.1796
▁çekdaran	-10.1797
oka	-10.1798
rew	-10.18
▁herêm	-10.1802
▁mixabin	-10.1802
▁Kendav	-10.1802
▁bixin	-10.1804
▁anîna	-10.1812
ibûn	-10.1815
▁Bra	-10.1819
▁çiqas	-10.1827
▁Xu	-10.1828
▁hevpeyman	-10.1829
▁cihekî	-10.1831
▁Bî	-10.1833
▁şah	-10.1843
dik	-10.1844
ere	-10.1853
▁Xi	-10.1854
tz	-10.1857
▁tirkan	-10.1857
lis	-10.1859
▁daxwazkirin	-10.1859
DÎ	-10.1859
▁top	-10.1862
ish	-10.1864
erî	-10.1866
▁Parîsê	-10.1868
îrê	-10.1868
▁Rojavayê	-10.1871
hin	-10.1871
▁2.	-10.1874
andinê	-10.188
▁pîkolan	-10.1881
ers	-10.1884
▁nasandin	-10.1887
ty	-10.1888
▁girift	-10.1895
▁1987	-10.1897
▁binav	-10.1902
▁Mir	-10.1903
zen	-10.1905
▁nînin	-10.1907
▁dîyarkirin	-10.1908
▁kirdara	-10.1909
▁Kanî	-10.191
51	-10.1914
▁mî	-10.1933
▁Abd	-10.1934
▁mû	-10.1938
▁Barac	-10.1939
▁dadwer	-10.1941
▁bêhtir	-10.1943
êl	-10.1945
41	-10.1946
▁Fîlm	-10.1948
▁projeya	-10.195
▁teqîn	-10.1955
▁Tîrmeh	-10.1966
▁derfet	-10.197
▁Abdul	-10.1972
nes	-10.1972
▁ÇÊ	-10.1974
▁bingehê	-10.1977
▁komek	-10.1979
▁hişk	-10.198
▁nê	-10.1982
▁Mûsa	-10.1984
▁on	-10.1987
▁çûye	-10.1987
▁Huner	-10.1989
▁Selahedîn	-10.199
Mi	-10.1992
▁arêşe	-10.1996
▁gur	-10.1997
▁aborîya	-10.1999
▁piştgirîya	-10.2007
:00	-10.2014
▁Îraq	-10.2015
▁Çarşemê	-10.2016
▁wezîra	-10.2024
▁hikûmet	-10.2024
▁Saz	-10.2025
▁Zu	-10.2026
▁qanûn	-10.2027
El	-10.2028
ray	-10.2036
▁po	-10.2037
▁1989	-10.2039
▁Rêberê	-10.2043
▁parastinê	-10.2045
▁sta	-10.2046
▁Xanim	-10.2048
▁desthilatdarîya	-10.2052
▁xalên	-10.2063
▁bala	-10.2065
bera	-10.2066
▁xan	-10.2067
xo	-10.2069
▁text	-10.2073
▁pirtir	-10.2074
▁fêr	-10.2074
▁jêderê	-10.208
îstan	-10.2081
mam	-10.2086
nder	-10.2086
color	-10.2096
▁rakirin	-10.21
▁boy	-10.2108
▁[18:0	-10.2109
ien	-10.2117
▁rêk	-10.2119
▁Bilind	-10.2122
rem	-10.2136
▁kirî	-10.2138
▁balkêş	-10.2138
daran	-10.214
▁Ver	-10.2148
▁1975	-10.2159
ndî	-10.216
▁şadbûna	-10.2161
▁plana	-10.2161
▁dixwe	-10.2162
▁Qur	-10.2162
▁raman	-10.2163
▁500	-10.2173
▁Gaz	-10.2174
▁Roma	-10.2175
▁xebatê	-10.2178
▁hî	-10.2179
▁karmendên	-10.218
▁Tur	-10.2181
▁1982	-10.2183
ep	-10.2184
▁nekiriye	-10.2184
▁Ac	-10.2184
▁bona	-10.2186
gin	-10.2188
▁giranî	-10.2193
▁wêjeya	-10.2196
wal	-10.2206
▁Neu	-10.2206
nar	-10.2209
▁pirsgirêk	-10.2218
wanî	-10.2223
▁Girêdan	-10.2223
▁bûna	-10.2225
▁komîteyek	-10.2226
▁Gen	-10.2231
pir	-10.2235
▁Pirtûkên	-10.2237
▁Van	-10.2238
ble	-10.2239
▁navxwe	-10.224
ier	-10.2241
▁qer	-10.2242
▁lêkolînan	-10.2242
а	-10.2243
▁rêyên	-10.2243
leh	-10.2249
▁beh	-10.2255
▁pêşîya	-10.2255
rar	-10.2261
▁Del	-10.2268
▁nêz	-10.2271
▁weşana	-10.2272
gire	-10.2276
▁Şam	-10.2277
▁perçe	-10.2278
▁Komîteya	-10.2278
▁Vî	-10.2286
▁Gava	-10.2288
raw	-10.2293
▁Cebar	-10.2294
▁amerîkî	-10.2302
danî	-10.231
mat	-10.2311
▁tim	-10.2318
ûz	-10.2318
▁Demokrata	-10.2319
▁Sha	-10.232
▁Mel	-10.2333
▁carek	-10.2333
▁nakokî	-10.2334
▁rojnamevanan	-10.2343
▁Cîhanî	-10.2344
▁pêşiya	-10.2349
▁ragihandibû	-10.235
▁sînorên	-10.235
▁Hêjayê	-10.2351
ço	-10.2353
▁gotarek	-10.2358
▁qel	-10.2362
▁Bor	-10.2363
EN	-10.2365
▁têkiliyên	-10.2366
▁kongireyê	-10.2367
▁Eger	-10.2368
▁pî	-10.2368
▁ewî	-10.2371
▁Rûsî	-10.2373
▁Azadî	-10.2373
▁şîrove	-10.2376
▁Muhemed	-10.2376
▁derxist	-10.2378
▁Sebah	-10.2381
▁weşan	-10.2383
▁bihêz	-10.2383
▁300	-10.2385
tim	-10.2388
kevin	-10.2388
▁Misir	-10.2392
▁helbestên	-10.2397
▁erkên	-10.2398
▁milliyon	-10.24
keve	-10.2404
okê	-10.2413
ant	-10.2413
▁Ocalan	-10.2425
▁bêjedan	-10.2428
tis	-10.2435
heng	-10.2443
zîr	-10.2443
erên	-10.2445
▁Paul	-10.2448
▁axaftin	-10.2448
▁Je	-10.2449
▁aliyan	-10.2449
pirtûk	-10.2449
ör	-10.245
▁[18:2	-10.245
▁HEWLÊRÊ	-10.245
ranê	-10.2451
▁vala	-10.2462
▁Af	-10.2464
▁wergerandin	-10.247
▁nebin	-10.2473
▁saliya	-10.2473
▁Welatê	-10.2474
▁vekişîna	-10.2475
▁teqînê	-10.2475
▁Dadgeha	-10.2477
nûs	-10.2485
ls	-10.2486
▁xweztin	-10.249
▁bicih	-10.2494
▁demokrasîyê	-10.2495
one	-10.2497
▁rêberên	-10.2498
-8	-10.2499
▁Gra	-10.2502
fil	-10.2504
▁hu	-10.2505
▁çî	-10.2507
▁dosyaya	-10.2514
▁serbixweya	-10.2515
ide	-10.2519
perwer	-10.2523
▁baweriya	-10.2523
α	-10.2524
▁Josef	-10.2524
▁solid	-10.2524
sit	-10.2526
▁careke	-10.2532
▁Stenbol	-10.2545
▁Spî	-10.2545
▁desthilatê	-10.2546
DE	-10.2547
▁îslamê	-10.2547
gur	-10.2551
▁muhr	-10.2553
riyan	-10.2568
▁Cîgirê	-10.2575
sed	-10.2584
▁Rewşa	-10.2584
dim	-10.2585
▁rêveber	-10.2585
▁Bismilê	-10.2586
▁eşîrên	-10.2588
▁fîlozof	-10.259
fon	-10.2591
▁Asya	-10.2592
▁çêbû	-10.2596
▁Kû	-10.2599
▁[17:2	-10.26
▁[18:1	-10.26
▁stêr	-10.2604
▁Baybûrdê	-10.2606
▁Gar	-10.261
▁Newrozê	-10.2614
illa	-10.2616
▁Bexda	-10.2619
▁arîşe	-10.2622
▁bidawî	-10.2633
ün	-10.2633
▁bermîl	-10.2636
▁xwepêşandan	-10.2638
▁Şar	-10.2638
▁aştî	-10.2638
▁Sû	-10.2639
▁girtine	-10.2646
kiriye	-10.2646
▁serxwebûna	-10.265
▁artêşê	-10.265
▁gunehbar	-10.2655
▁Kê	-10.2656
▁şew	-10.266
▁NAV	-10.2663
iyo	-10.2669
▁hevkarî	-10.2671
▁derveyên	-10.2673
▁dixebite	-10.2675
rm	-10.2676
▁1978	-10.2677
▁berdest	-10.2679
wanê	-10.2682
▁civîna	-10.2683
▁mirinê	-10.2688
▁pesendkirin	-10.2688
▁Mam	-10.2697
▁nirx	-10.2698
▁و	-10.2698
▁kursî	-10.2701
AS	-10.2702
▁tînin	-10.2705
rît	-10.2709
▁spasîy	-10.2713
▁Yu	-10.2714
▁Bala	-10.2715
▁Til	-10.2725
▁dezgeha	-10.2725
hausen	-10.2726
▁bazirganîya	-10.2728
▁hew	-10.2728
▁cezayê	-10.2728
+	-10.273
▁çekdarî	-10.2733
perest	-10.2737
bun	-10.2744
▁Aş	-10.2745
▁Deng	-10.2746
▁bûbû	-10.275
RAN	-10.275
▁lîstên	-10.2751
▁Japon	-10.2751
▁Qamişlo	-10.2752
▁BBC	-10.2752
▁Hunermend	-10.2753
▁fermangeha	-10.2755
▁anîne	-10.2756
▁\	-10.2759
▁dibê	-10.2759
lor	-10.2763
▁hevpar	-10.2763
▁piranîya	-10.2772
hêner	-10.2776
▁Serê	-10.2778
▁1984	-10.2779
ت	-10.2782
▁tawanbar	-10.2782
yûm	-10.2782
▁sûr	-10.2786
▁lêgerînê	-10.2787
▁eşîr	-10.2787
xanê	-10.28
▁Mes	-10.2801
▁Bilinda	-10.2803
▁dizanin	-10.2804
▁bêjedarê	-10.2805
▁proje	-10.281
▁şik	-10.2811
▁bergirîyê	-10.2813
mêr	-10.2815
▁darayî	-10.2816
▁ermenî	-10.2818
▁birîn	-10.2824
▁nebûye	-10.283
▁berpirsiyar	-10.2832
▁bajarekî	-10.2832
▁Sam	-10.2839
▁Jêr	-10.2845
▁armancên	-10.2845
MA	-10.2846
▁rêvebirin	-10.2849
qil	-10.285
YÎ	-10.2851
des	-10.2857
▁For	-10.2869
▁Fel	-10.287
▁Bre	-10.2873
▁bomb	-10.2875
▁zanîngehê	-10.2875
▁biparêzin	-10.288
▁Emerîka	-10.2881
dom	-10.2885
▁Et	-10.2889
may	-10.2895
înan	-10.2895
UN	-10.2895
▁sp	-10.2902
▁Komarî	-10.2904
▁Vê	-10.2905
▁[17:3	-10.2906
▁Dor	-10.2906
▁pêşketin	-10.2908
▁2018	-10.291
*	-10.2911
-20	-10.2915
▁hema	-10.2916
▁Bur	-10.2917
avên	-10.2917
▁koç	-10.2919
▁kurdistan	-10.292
tus	-10.2925
▁xwend	-10.2926
▁dîdarek	-10.2928
lle	-10.2932
▁reporta	-10.2934
yd	-10.2936
▁şaredar	-10.2937
Mu	-10.2937
▁netewî	-10.2938
chen	-10.2939
▁serbest	-10.2942
rîk	-10.2943
▁îs	-10.2944
▁tiştek	-10.2947
▁neçar	-10.2947
▁Ex	-10.2954
▁şerî	-10.2958
▁Îbn	-10.2959
▁hevdîtinê	-10.2959
▁pêzanînên	-10.296
▁çalakiyên	-10.2965
gêr	-10.2966
▁[17:4	-10.2984
▁riwekan	-10.299
▁Ef	-10.2993
▁rêkevtinek	-10.2994
win	-10.2994
ova	-10.2996
rîna	-10.3001
▁ewlekarîyê	-10.3001
▁mayinkirî	-10.3011
▁1946	-10.3012
pey	-10.3015
▁Îtalya	-10.3015
xur	-10.3015
banê	-10.3017
▁Yawer	-10.3017
▁Beş	-10.302
▁fil	-10.3023
▁My	-10.3024
▁War	-10.3028
▁kombûnan	-10.3028
dariya	-10.303
IL	-10.303
▁et	-10.3035
▁Os	-10.3035
▁Enstîtuy	-10.3037
▁Lêkolîn	-10.3037
▁Gulan	-10.3037
▁1986	-10.3039
Girêdanên	-10.3039
▁biryarên	-10.3039
ator	-10.304
fet	-10.304
▁Azerbaycanê	-10.3042
▁bel	-10.3044
▁Colemêrgê	-10.3044
▁berçav	-10.3048
▁Berhemên	-10.3048
bay	-10.305
▁perwerdeyê	-10.3057
▁mijarê	-10.3057
▁herdû	-10.3057
▁xw	-10.3058
▁pal	-10.3064
▁Xo	-10.3066
▁bazirganîyê	-10.3075
▁rêxistinê	-10.3075
▁ب	-10.3076
▁May	-10.3076
▁Sin	-10.3076
▁hilbijartinê	-10.3077
xweş	-10.3079
ans	-10.3079
deh	-10.308
▁komên	-10.3086
▁piçûk	-10.309
▁alîkar	-10.309
▁DAXWAZ	-10.31
▁Heger	-10.3101
ene	-10.3104
▁Berê	-10.3106
▁[19:0	-10.3116
▁Îsmaîl	-10.3116
▁Bil	-10.3116
▁meş	-10.3117
▁Cemîl	-10.3121
▁Cemal	-10.3123
▁Erdnîgarî	-10.3132
▁Hecî	-10.3132
▁Afrîkayê	-10.3134
▁şad	-10.3135
▁TALEBANÎ	-10.3142
▁[17:0	-10.3142
·	-10.3142
▁binivîse	-10.3144
▁Aborî	-10.3146
Her	-10.315
▁Cem	-10.3151
amp	-10.3155
▁parliyamenter	-10.3161
OL	-10.3162
▁bajarî	-10.3163
▁wate	-10.3165
▁amûr	-10.3167
▁Cihê	-10.3172
rr	-10.3173
▁naverasta	-10.3175
▁farisî	-10.3175
▁çavan	-10.3178
ketin	-10.3181
▁tûj	-10.3181
YAN	-10.3183
▁heyva	-10.3183
▁kamp	-10.3186
▁Tek	-10.3187
▁ey	-10.319
▁bombe	-10.3192
▁tr	-10.3205
height	-10.3206
▁zayînê	-10.3207
bara	-10.3209
yal	-10.3212
nik	-10.3213
▁pêl	-10.3216
▁bakûr	-10.3219
▁heval	-10.3221
▁[18:5	-10.3222
Izz	-10.3223
▁1981	-10.3224
nal	-10.3231
▁Cizîrê	-10.3233
▁Hor	-10.3236
▁Parêzgeha	-10.3242
▁gotibû	-10.3245
▁astê	-10.3247
▁Lîbya	-10.3248
▁cihû	-10.3248
▁Neynewa	-10.3249
▁Duşemê	-10.3249
tinê	-10.3253
feld	-10.3257
▁pile	-10.326
far	-10.3262
TA	-10.3265
▁çep	-10.3267
▁terorê	-10.3267
syon	-10.327
til	-10.3272
▁Ahmed	-10.3276
▁+	-10.3278
▁navxweyîya	-10.3279
▁demokrasî	-10.3281
ANÎ	-10.3282
▁desthilat	-10.3282
▁KURDISTANÎ	-10.3282
▁Herdu	-10.3296
mez	-10.3296
▁diyarkirin	-10.3296
jimar	-10.33
DU	-10.33
We	-10.33
▁bersiv	-10.3302
▁daxuyannameyê	-10.3303
▁Demîrtaş	-10.3303
ld	-10.3304
▁xu	-10.3304
tom	-10.3305
▁nivîsên	-10.3305
▁Şingal	-10.3309
▁”	-10.3309
ێ	-10.3313
▁mamoste	-10.3314
▁zankoya	-10.3317
▁Met	-10.332
▁derketin	-10.3322
▁bîranîna	-10.3322
▁Dîn	-10.3325
îv	-10.3325
▁Mak	-10.3326
▁ketin	-10.3327
îq	-10.3329
hor	-10.333
▁ayinde	-10.333
▁zehmet	-10.333
▁Serhildana	-10.3337
▁Licê	-10.334
▁bîra	-10.334
ug	-10.3347
▁keça	-10.3349
ux	-10.3351
▁Farqînê	-10.3354
▁[16:5	-10.3357
▁Tenê	-10.3366
▁bawerîyê	-10.3367
▁rewşê	-10.3372
▁Heft	-10.3375
):	-10.3377
▁Ham	-10.3377
▁sû	-10.3379
▁Tar	-10.338
wat	-10.338
▁Hay	-10.3386
LE	-10.3393
rêz	-10.3394
tay	-10.3399
▁baran	-10.3402
▁mor	-10.3405
tîne	-10.3407
▁General	-10.3412
▁sistema	-10.3412
▁Pîroz	-10.3413
▁Niştîmanî	-10.3415
▁Şêr	-10.3416
mad	-10.3418
ect	-10.3418
▁salveger	-10.342
▁hiş	-10.3421
▁revandin	-10.3421
▁dahat	-10.3426
say	-10.3426
zîn	-10.3426
▁şêweyekî	-10.3427
▁gazê	-10.3429
▁komê	-10.343
▁malbatê	-10.343
êkî	-10.3432
▁almanî	-10.3433
ile	-10.3437
▁[18:3	-10.3439
key	-10.344
▁kêmanî	-10.3442
▁Federal	-10.3445
▁HER	-10.3447
▁Sey	-10.3449
▁yî	-10.3452
▁kevt	-10.3456
girî	-10.346
▁rolek	-10.346
▁Malbata	-10.3468
▁90	-10.3472
Ber	-10.3473
▁Çîrok	-10.3476
tab	-10.3476
La	-10.3481
▁birayên	-10.3482
▁guneh	-10.3489
▁Str	-10.3493
▁destkevt	-10.3494
xaneyên	-10.3495
▁1983	-10.3496
uz	-10.35
Genus	-10.35
▁Mû	-10.3504
▁tî	-10.3508
▁Cha	-10.3513
ûya	-10.3513
▁wekhev	-10.3513
▁otombîlek	-10.3521
taş	-10.3522
▁derdikevin	-10.3525
part	-10.3531
▁organ	-10.3532
▁berhev	-10.3532
▁baz	-10.3534
axiv	-10.3535
ûnê	-10.3539
îyek	-10.3541
▁pirsgirêkên	-10.3542
▁pêvajoya	-10.3549
▁Xweda	-10.3555
▁dubare	-10.3556
▁malên	-10.356
▁Sewa	-10.3561
bach	-10.3569
sûr	-10.3571
▁pan	-10.3578
▁Aram	-10.3579
▁BA	-10.3582
kev	-10.3583
▁Tem	-10.3584
▁dûv	-10.3584
▁bas	-10.3586
▁Fî	-10.3587
▁lewra	-10.3587
▁HÊZÊ	-10.359
▁şêx	-10.3599
▁pas	-10.36
▁babet	-10.3603
▁naxwazin	-10.3604
▁weşanê	-10.3607
▁mezintir	-10.3607
▁sizayê	-10.3609
bgcolor	-10.361
ÎR	-10.3612
▁gi	-10.3615
gul	-10.3617
▁Enqereyê	-10.3617
▁gişt	-10.3621
▁gihişt	-10.3621
▁Naz	-10.3629
▁zelal	-10.3633
▁nehat	-10.3633
▁nexweşxaneya	-10.3634
ûk	-10.3635
riyê	-10.3636
▁Dewlet	-10.3637
ش	-10.3637
tum	-10.364
▁war	-10.3641
▁kanala	-10.3648
▁Hate	-10.3648
▁م	-10.3663
▁adara	-10.3666
▁kiribûn	-10.3669
tîf	-10.3672
▁tir	-10.3675
wo	-10.3684
Nav	-10.3686
deng	-10.3687
▁klasîk	-10.3688
َ	-10.3688
▁nimûne	-10.3688
▁str	-10.3689
stadt	-10.3689
▁ceng	-10.369
▁Pan	-10.3693
ure	-10.3702
▁rûnê	-10.3712
ز	-10.3716
▁[19:2	-10.3716
▁dana	-10.3717
kr	-10.3723
▁para	-10.373
▁baweriyê	-10.3736
sir	-10.3738
parêzgeh	-10.3741
▁Hewramî	-10.3744
▁[17:1	-10.3744
▁[17:5	-10.3744
▁[18:4	-10.3744
▁Kanada	-10.3747
▁qewimî	-10.3747
▁lîsteya	-10.3754
andiye	-10.3764
▁Ten	-10.3767
JPG	-10.3773
▁radestî	-10.3773
▁Hez	-10.3774
▁1977	-10.3775
▁Nîsan	-10.3777
▁zarav	-10.3782
/31	-10.3782
zay	-10.3784
▁benda	-10.3787
-6	-10.3787
yona	-10.3791
▁rabi	-10.3793
▁kujtina	-10.3793
▁fer	-10.3795
▁anîye	-10.3798
▁Au	-10.38
▁veguhastin	-10.3801
▁rojhelat	-10.3801
▁tevahî	-10.3804
▁ketiye	-10.3805
▁1985	-10.3805
▁Bizavkar	-10.3807
hen	-10.3807
▁parastin	-10.3808
▁Evê	-10.381
bus	-10.3811
▁Romê	-10.3816
▁akincî	-10.3819
▁Stembolê	-10.3824
zdeh	-10.3826
kov	-10.3826
▁Pirtûka	-10.3827
▁Turkman	-10.3829
▁Tevger	-10.3831
▁Tahir	-10.3833
▁gomanbar	-10.3834
▁Serokatîy	-10.3835
▁Deşta	-10.3836
▁„	-10.3836
▁Rojnamevan	-10.3838
RÎ	-10.3838
▁hes	-10.384
▁rewşenbîr	-10.384
▁firotin	-10.3841
▁Zar	-10.3843
▁Herêm	-10.3847
▁ceza	-10.385
ction	-10.3851
▁Çav	-10.3854
▁berpirsyar	-10.3856
ora	-10.3858
▁dorpêç	-10.3858
▁fîzîkê	-10.3863
enberg	-10.3863
▁SE	-10.3864
▁Jibo	-10.3866
▁çaverêkirin	-10.3869
▁Wo	-10.3869
berê	-10.3872
▁gundan	-10.3873
▁guftûgo	-10.3877
bîne	-10.3877
▁yekser	-10.3881
pol	-10.3892
▁Girê	-10.3895
▁kirdarek	-10.39
▁Far	-10.3907
▁nîşandanê	-10.3908
row	-10.3908
▁xwandin	-10.391
▁Gelhe	-10.3911
▁Mih	-10.3913
▁Qezafî	-10.3915
▁bimînin	-10.3916
▁Zêwye	-10.3918
sîr	-10.3918
▁carê	-10.3921
ill	-10.3922
س	-10.3928
▁devok	-10.3929
banî	-10.3936
▁firroke	-10.3938
▁Ö	-10.3939
▁Celewla	-10.3944
▁Nuceyfî	-10.3944
▁xwekuj	-10.3947
abad	-10.3948
▁oto	-10.3948
▁Turkiyeyî	-10.395
▁paşî	-10.3953
▁qala	-10.3955
ikî	-10.3956
VAN	-10.3956
▁Dikin	-10.3956
▁Êdî	-10.3958
▁dom	-10.3966
▁niştîmanî	-10.3973
▁radigihîne	-10.3973
kum	-10.3974
Te	-10.3975
▁Val	-10.398
▁cins	-10.3998
،	-10.4002
▁piştrast	-10.4003
▁bombebaran	-10.4003
▁niştimanîya	-10.4004
▁Bab	-10.4008
▁rûn	-10.4012
ong	-10.4012
ym	-10.4016
▁Îl	-10.4019
▁Adar	-10.4021
rim	-10.4021
▁pergal	-10.4023
▁êl	-10.4023
pin	-10.4025
KAR	-10.4028
▁Afganî	-10.403
▁Avesta	-10.4031
▁Xelatgirê	-10.4032
▁şor	-10.4039
▁sin	-10.4052
▁can	-10.4053
▁Koç	-10.4056
▁Gentiana	-10.406
IM	-10.4061
▁Muzîk	-10.4061
-5	-10.4063
MAN	-10.4064
▁sedem	-10.4069
▁Qi	-10.407
▁Dev	-10.4072
▁William	-10.4089
ihê	-10.409
▁sîyaset	-10.4095
bek	-10.4098
wêr	-10.4099
▁Cor	-10.4101
▁Swêd	-10.4101
▁serdest	-10.4101
▁Heyder	-10.4102
▁Nêzîk	-10.4104
gah	-10.4108
▁Navneteweyî	-10.4118
▁daxuyaniyek	-10.4118
▁wezîr	-10.4121
▁berdewamî	-10.4124
Kesên	-10.4127
▁Gre	-10.4128
vin	-10.4136
▁Ram	-10.4145
▁rêveberiya	-10.4146
▁seretayî	-10.4148
Mo	-10.4149
kat	-10.4151
▁Kirin	-10.4156
▁Îsraîl	-10.4162
Em	-10.4162
▁çîrokên	-10.4165
▁Dekak	-10.4177
Ne	-10.4177
▁HEVPEYMANÎYA	-10.4177
nîşan	-10.4178
mik	-10.4179
▁hevalbend	-10.418
▁pîrozbayî	-10.418
▁Şeqlaweyê	-10.4181
▁awayekê	-10.4181
ales	-10.4181
▁careka	-10.4191
ÎYÊ	-10.4192
Ev	-10.4192
DA	-10.4194
▁hêja	-10.42
ula	-10.4201
dad	-10.4203
▁derhêner	-10.4204
rîş	-10.4205
▁Îtîlafa	-10.4206
▁riswa	-10.4206
▁destan	-10.4207
▁pêşeng	-10.4208
▁1974	-10.4209
col	-10.4212
▁NA	-10.4213
▁mela	-10.4221
tera	-10.4229
ore	-10.4229
▁Brîtanyayê	-10.4235
▁hewil	-10.4235
kal	-10.4236
▁[16:4	-10.4236
▁[19:1	-10.4236
▁Recep	-10.4236
leya	-10.4237
kaya	-10.4239
yu	-10.4249
END	-10.4255
=2	-10.4256
vel	-10.4259
kim	-10.4261
dikin	-10.4265
▁Baydemîr	-10.4266
▁abûrî	-10.427
▁bajêrî	-10.4272
0%;	-10.4273
mus	-10.4275
▁Erd	-10.4276
▁Helebê	-10.4276
▁teng	-10.4279
▁kerta	-10.428
▁rawestandin	-10.4283
lal	-10.4293
nu	-10.4294
▁[16:2	-10.4295
▁nîvrojê	-10.4296
▁Zerdeşt	-10.4296
▁êvarî	-10.4296
▁bikaribin	-10.4296
span	-10.4297
▁1973	-10.4297
▁Weke	-10.43
▁bûyer	-10.4303
▁aştîyane	-10.4303
fo	-10.4304
▁îsal	-10.4305
▁Mez	-10.4306
▁Corc	-10.4306
zad	-10.4308
▁çûne	-10.4309
▁George	-10.431
▁Keç	-10.4313
▁çekan	-10.4316
bûye	-10.4319
▁neda	-10.4321
all	-10.4323
BW	-10.4323
eva	-10.4324
▁liser	-10.4324
▁hêrîş	-10.4327
▁temen	-10.4327
rayê	-10.4331
eddîn	-10.4331
▁Urdunê	-10.4346
weş	-10.4351
ibin	-10.4351
▁kêmtir	-10.4352
▁berjewendîyê	-10.4355
▁45	-10.4357
ira	-10.4358
İ	-10.4364
iyekî	-10.4367
▁kat	-10.4368
▁DIN	-10.437
▁Um	-10.4373
▁1-	-10.4377
Ha	-10.4383
wana	-10.4404
▁malbatek	-10.4406
baran	-10.4407
▁Heyderî	-10.4407
ses	-10.4412
▁Jiyana	-10.4413
▁Debbax	-10.4415
▁ala	-10.4416
▁şêwaz	-10.4417
▁Cî	-10.442
▁LEŞKER	-10.4421
")	-10.4422
▁huner	-10.4425
rop	-10.4427
ola	-10.4429
▁Karkerên	-10.4436
▁leşkeran	-10.4438
▁çavên	-10.4442
okên	-10.4443
▁lidarxistin	-10.4446
▁NÛRÎ	-10.4446
onî	-10.4447
ric	-10.4447
▁Duhok	-10.4448
▁nade	-10.445
▁dibû	-10.4454
▁Yekem	-10.4454
sul	-10.4456
▁Soran	-10.4456
rov	-10.4458
wis	-10.4459
▁cor	-10.446
lok	-10.4462
ms	-10.4465
▁Nor	-10.4475
▁peyman	-10.4481
▁hukûmeteka	-10.4484
▁...	-10.4485
▁rêber	-10.4495
▁London	-10.4499
The	-10.4504
▁keş	-10.4504
▁yekîtîya	-10.4507
▁roket	-10.451
▁mana	-10.4512
▁civak	-10.4514
▁32	-10.4514
▁Heya	-10.4519
▁kl	-10.4523
▁berf	-10.4527
▁nasnameya	-10.4529
Kurd	-10.4532
▁Sîrwan	-10.4538
los	-10.4544
▁nexweşî	-10.4547
▁ret	-10.4547
▁muhrkirin	-10.455
▁çaverê	-10.4551
-4	-10.4551
▁tiştê	-10.4557
▁kişandin	-10.4559
eri	-10.4562
▁çiriy	-10.4563
▁operasyonê	-10.4563
▁Elhekîm	-10.4567
▁[16:3	-10.4567
▁agahiyên	-10.4567
▁peyvên	-10.457
mû	-10.4571
▁cil	-10.4573
▁sipî	-10.4575
▁Ebas	-10.4583
RE	-10.4585
atiya	-10.4586
zim	-10.4595
▁Şoreşa	-10.4596
ice	-10.4596
▁guman	-10.4596
LÎ	-10.4597
▁petrol	-10.4597
с	-10.4598
▁tank	-10.4603
qo	-10.4603
bab	-10.4604
▁şaş	-10.4605
▁Sûr	-10.4607
▁wergirtiye	-10.4607
size	-10.4615
▁barê	-10.4626
BY	-10.4627
▁Art	-10.4632
▁150	-10.4639
▁felsefe	-10.4643
▁nameyek	-10.4645
▁nerazîbûna	-10.4647
▁RÊ	-10.4647
▁Kop	-10.4649
▁bernameyên	-10.4655
▁dabeş	-10.4657
▁sir	-10.4659
▁tem	-10.466
▁gav	-10.4661
dur	-10.4663
bon	-10.4664
▁des	-10.4665
▁Duh	-10.4671
▁Day	-10.4671
▁ça	-10.4676
▁Bro	-10.4677
▁Oz	-10.468
▁News	-10.4684
▁bûbûn	-10.4684
▁vegotin	-10.4687
▁diristkirina	-10.4688
▁Rojavay	-10.4692
▁Dibistana	-10.4693
▁Dihê	-10.4696
▁nexweşiyê	-10.4698
▁tîr	-10.4699
▁têkel	-10.4699
sy	-10.47
▁tomarkirin	-10.47
▁Xwarin	-10.4702
▁hundir	-10.4708
Bûyerê	-10.4708
cû	-10.472
▁Talîban	-10.4722
▁Serokwezîr	-10.4723
▁serkeftî	-10.4723
▁Ezîz	-10.4725
▁hindê	-10.4728
▁piştgiriya	-10.4728
meş	-10.4729
▁Ana	-10.4733
▁Xur	-10.4734
▁mirovî	-10.4736
▁Paşê	-10.4738
▁malper	-10.474
▁kev	-10.474
▁sedemên	-10.4743
▁1,	-10.4743
rîya	-10.4747
mayî	-10.4751
bikin	-10.4752
▁Dîlokê	-10.4764
kon	-10.4768
xana	-10.477
mos	-10.4772
▁EW	-10.4773
▁qedand	-10.4774
▁zîyan	-10.4775
tiyên	-10.478
vis	-10.478
▁nûçeyê	-10.4781
▁[19:4	-10.4784
▁axavtin	-10.4784
▁vekolîn	-10.4785
▁Sol	-10.4785
rie	-10.4786
meta	-10.4792
bul	-10.4793
▁mit	-10.4799
▁kîlo	-10.48
leri	-10.4802
ary	-10.4802
▁DAXWAZA	-10.4803
▁Tir	-10.4805
▁Mus	-10.4807
▁bawerîya	-10.4807
▁haw	-10.4809
▁Rast	-10.481
▁SEROKATÎYA	-10.4815
▁hevdû	-10.4828
bur	-10.4828
▁form	-10.4829
▁rawest	-10.483
▁Lîbyayê	-10.4841
▁rewşek	-10.4843
▁Hol	-10.4844
▁Pu	-10.4844
iyar	-10.4847
▁Seyîd	-10.4849
barî	-10.485
yeyê	-10.485
Kom	-10.4851
▁serkevtinê	-10.4853
▁paşxistin	-10.4853
▁Mehdî	-10.4854
▁hêl	-10.4856
▁Beh	-10.486
▁Mac	-10.4863
bare	-10.4866
▁er	-10.4866
к	-10.4867
▁siyasetmedar	-10.4872
▁LÎSTA	-10.4878
▁diyalogê	-10.4879
▁netew	-10.4879
▁hejmartin	-10.4882
sûm	-10.4883
▁Selîm	-10.4884
▁Ros	-10.4897
Galerî	-10.4898
çîn	-10.4903
▁romanê	-10.4904
zanê	-10.4909
▁Samerrayî	-10.491
▁James	-10.4912
▁1976	-10.4913
rêj	-10.4918
▁Londonê	-10.4918
yîn	-10.492
▁agahî	-10.4922
îla	-10.4923
▁nirxandin	-10.4924
▁hefteyê	-10.4927
▁Nisêbînê	-10.493
wendî	-10.4937
▁Mubarek	-10.4942
▁1971	-10.4944
▁mas	-10.4944
▁Jan	-10.4954
▁cîhana	-10.4954
syona	-10.4958
▁qû	-10.4965
▁dı	-10.4968
qam	-10.4969
▁tarî	-10.497
over	-10.4972
ف	-10.4973
▁pêşnîyar	-10.4974
▁nemîne	-10.4974
▁Gerek	-10.4975
rg	-10.4981
▁navî	-10.4987
St	-10.4991
▁Zarok	-10.4992
▁RA	-10.4998
▁çûna	-10.5
rawe	-10.5002
▁art	-10.5005
▁Maşallah	-10.5005
▁[19:5	-10.5005
▁hêşta	-10.5006
dra	-10.5006
▁biryare	-10.5006
wl	-10.5012
▁cur	-10.5021
▁Kaya	-10.5022
şew	-10.5025
best	-10.5026
▁nîn	-10.5026
▁Sim	-10.5027
▁gulana	-10.5028
Do	-10.5029
spacing	-10.5038
▁encûmenê	-10.5039
▁axivî	-10.504
▁destwerdanê	-10.5042
▁heyvê	-10.5047
ws	-10.5048
▁Firat	-10.5052
▁Alman	-10.5057
▁çavdêrîya	-10.5058
▁telefonê	-10.5061
▁Kurt	-10.5064
dd	-10.5064
▁nêr	-10.5069
▁Albûm	-10.507
▁Çem	-10.5078
▁qat	-10.5078
gû	-10.5079
▁SA	-10.5079
▁peywendîdar	-10.5081
▁Frank	-10.5082
alis	-10.5082
▁xurttir	-10.5084
TO	-10.5088
▁law	-10.509
cin	-10.5091
îkê	-10.5096
▁Mustafa	-10.5102
š	-10.5102
▁Tel	-10.5106
▁paytext	-10.511
▁guherîn	-10.5112
▁EL	-10.5117
▁Eş	-10.5119
yt	-10.5121
ische	-10.5122
hûr	-10.5125
▁wateyê	-10.5126
ska	-10.5129
▁Pen	-10.513
▁Law	-10.5134
▁[19:3	-10.5134
▁Riya	-10.5137
▁is	-10.5139
▁xaneya	-10.5141
▁Rizgar	-10.5142
▁goştê	-10.5142
eran	-10.5143
▁soranî	-10.5143
▁beriya	-10.5145
avê	-10.5145
▁Fars	-10.5146
▁rî	-10.515
▁nivîskarekî	-10.5151
▁Hema	-10.5152
▁Afrîka	-10.5154
▁cê	-10.5159
NA	-10.5165
▁paqij	-10.5167
▁paytaxt	-10.5167
▁çarçoveyê	-10.5168
▁mey	-10.5172
▁nabin	-10.5177
▁ban	-10.5179
▁cot	-10.5182
▁Top	-10.5183
▁peymana	-10.5185
▁reform	-10.5185
▁êrîşek	-10.5187
▁navend	-10.5188
▁şehîdan	-10.5188
▁hizr	-10.5189
▁azadiya	-10.5191
▁kur	-10.5193
Kese	-10.5193
▁33	-10.5198
rûn	-10.5199
▁ŞANDEYEK	-10.5199
▁konsulxaneya	-10.52
▁derva	-10.5201
amî	-10.5201
▁1972	-10.5201
▁sale	-10.5205
pîr	-10.5213
TE	-10.5215
tos	-10.5217
▁peyam	-10.5229
beya	-10.523
ziya	-10.5231
▁Lewra	-10.5232
dûr	-10.5233
▁koşka	-10.5233
▁rêzê	-10.5235
▁1925	-10.5235
▁On	-10.5237
▁Tî	-10.5238
girtî	-10.5238
got	-10.5238
hol	-10.5244
çan	-10.5245
ك	-10.5246
▁gihijtin	-10.5247
Cejn	-10.5247
▁Mek	-10.5253
oglu	-10.5257
▁Agirî	-10.5259
▁berhema	-10.526
▁Peter	-10.5262
▁SUPAYÊ	-10.5265
▁pîvaz	-10.5265
▁serkirdeyên	-10.5266
▁firok	-10.5266
▁Amade	-10.5266
▁esmanî	-10.5266
ight	-10.5267
▁1967	-10.5267
▁ax	-10.5268
▁gule	-10.5268
▁made	-10.5271
▁hen	-10.5272
▁bijîşk	-10.5278
▁biryarek	-10.5279
▁deryayê	-10.528
▁cm	-10.5281
1"|	-10.5282
▁hav	-10.5283
yer	-10.5284
▁hatîne	-10.5285
ite	-10.529
▁fîlmê	-10.5291
ela	-10.5291
▁şûn	-10.5295
▁Rewandizî	-10.5298
▁qed	-10.5301
VA	-10.5301
▁International	-10.5302
▁civ	-10.5303
mann	-10.5304
▁36	-10.5309
▁lêkolînê	-10.5311
▁pr	-10.5312
tun	-10.5313
▁pak	-10.5314
dewlet	-10.5314
iyayê	-10.5315
rand	-10.5328
▁hind	-10.533
▁je	-10.5333
▁1969	-10.5333
▁çîn	-10.5333
▁Îmam	-10.5334
▁Tri	-10.5336
▁genc	-10.5336
êk	-10.5337
▁aliyekî	-10.534
Roj	-10.5341
stem	-10.5344
ME	-10.5345
▁HÊZ	-10.5347
Se	-10.5353
▁muzîk	-10.5354
nia	-10.5357
tirs	-10.5361
▁şert	-10.5362
ق	-10.5364
▁Ebdulkerîm	-10.5364
▁Pêşangeh	-10.5364
stra	-10.5369
▁hêzeka	-10.5375
gerî	-10.5377
teya	-10.5381
kariyê	-10.5382
▁34	-10.5383
▁vegeriya	-10.5383
ANA	-10.5383
▁BIN	-10.5383
▁Navçeyê	-10.5384
▁hokarê	-10.5385
▁3.	-10.5387
ndin	-10.5388
ÎNE	-10.539
▁kandîdê	-10.539
▁partiyê	-10.5391
▁yo	-10.5393
▁nerm	-10.5397
▁September	-10.5397
▁daxuyannameya	-10.5397
▁[20:0	-10.5397
▁rezberê	-10.5397
▁mûzîk	-10.5397
▁çêdibe	-10.5401
▁20'	-10.5402
▁hîç	-10.5402
▁mizgeft	-10.5404
▁Cel	-10.5409
▁eve	-10.5414
Sa	-10.5422
shi	-10.5423
▁Rûs	-10.5425
▁bîst	-10.5429
▁Bat	-10.5443
▁netewe	-10.5444
▁د	-10.5446
tem	-10.5446
▁babê	-10.5446
▁(2	-10.5447
▁Umer	-10.545
:20	-10.5451
rêjîya	-10.5454
▁teqandin	-10.5454
▁dewr	-10.5457
şo	-10.5459
stro	-10.5463
▁album	-10.5464
▁hilberîn	-10.5464
▁aqil	-10.5464
▁Mînak	-10.5464
▁Riwek	-10.5465
▁Kr	-10.5466
yne	-10.5471
▁Ele	-10.5472
▁xwarinên	-10.5473
▁Xe	-10.5476
▁karmend	-10.5476
▁Karl	-10.5478
▁arîşeya	-10.548
mber	-10.5481
▁jinê	-10.5481
▁derketiye	-10.5484
WAN	-10.5488
▁avahî	-10.5494
▁Gimgimê	-10.5497
▁Gola	-10.5499
▁rûmet	-10.5499
▁teksta	-10.55
▁rapor	-10.5503
çeya	-10.5504
▁Peymana	-10.5507
▁Ek	-10.5507
▁CHP	-10.5509
▁konser	-10.5511
▁wêneyên	-10.5517
zên	-10.5525
▁Niştîmanîya	-10.5526
▁wêjeyê	-10.5526
ted	-10.5528
bih	-10.5528
çû	-10.5529
▁Türk	-10.5531
▁têkiliya	-10.5532
▁Şehîd	-10.5533
▁çûyî	-10.5533
▁HILBIJARTINAN	-10.5534
▁1966	-10.5534
▁Die	-10.5539
▁gote	-10.554
rey	-10.5542
▁tor	-10.5545
▁Çî	-10.5555
ullah	-10.5556
▁serokwezîr	-10.5557
for	-10.5558
▁Il	-10.556
▁pîvan	-10.5561
▁Jor	-10.5565
▁1945	-10.5568
▁girava	-10.5571
▁Den	-10.5577
▁Cal	-10.5581
▁Red	-10.5584
etên	-10.5584
▁nivîsand	-10.5588
▁Barzan	-10.5589
▁seranserî	-10.5591
NI	-10.5592
▁gotar	-10.5596
д	-10.5599
rif	-10.5599
▁Komela	-10.5601
▁film	-10.5601
▁rûniştinê	-10.5602
▁dever	-10.5602
▁Keş	-10.5602
▁Cin	-10.5605
▁Mehabad	-10.5606
ett	-10.5612
▁berhemanîn	-10.5615
▁zu	-10.562
mor	-10.5625
▁Derya	-10.5626
▁Wel	-10.5627
▁Qahîre	-10.5633
▁[20:1	-10.5633
▁mîlyon	-10.5633
lîk	-10.5635
▁genim	-10.5636
▁dêrendazê	-10.5636
▁Lîsta	-10.5639
▁pîrozbayîyê	-10.564
▁Serhed	-10.5643
▁2-	-10.5644
▁Şaredariya	-10.5651
▁Kat	-10.5654
▁Hedba	-10.5668
▁rêzgirtin	-10.5672
gehek	-10.5679
▁bikim	-10.5679
н	-10.5682
omys	-10.5684
mes	-10.5686
▁gî	-10.5687
▁Az	-10.5687
▁Çînî	-10.5688
orê	-10.5692
▁banga	-10.5696
▁hevwelatîyek	-10.5698
▁zi	-10.5698
▁Fîlozof	-10.5701
▁POLÎS	-10.5701
▁mecbûr	-10.5701
▁îmza	-10.5701
▁Kongreya	-10.5701
▁çare	-10.5703
YE	-10.5703
▁têkoşîna	-10.5709
▁Chi	-10.5709
▁Eb	-10.5709
▁romana	-10.5714
▁helwesta	-10.5714
▁peywendîya	-10.5715
jer	-10.5717
yîya	-10.5717
▁qurbanî	-10.5721
stê	-10.5722
▁xizan	-10.5726
▁opozisyon	-10.5727
▁piştgirî	-10.5727
Der	-10.5727
oy	-10.5729
▁Combretum	-10.5735
▁Misilman	-10.5735
▁[20:2	-10.5735
ī	-10.5735
▁prosesê	-10.5736
▁Zanist	-10.5736
▁dibistanê	-10.5736
▁kongireyek	-10.5738
axa	-10.5739
▁Malper	-10.574
▁Şemîyê	-10.574
▁parêz	-10.574
▁wezaretên	-10.5741
▁nameya	-10.5743
îlî	-10.5743
▁fikr	-10.5744
▁Wal	-10.5745
▁serkevtina	-10.5745
▁rêzefîlm	-10.5749
▁Batmanê	-10.5752
▁bûya	-10.5752
ura	-10.5752
▁kesk	-10.5754
cel	-10.5756
▁salvegera	-10.5761
sco	-10.5765
▁Ibrahîm	-10.577
▁pozetîv	-10.577
▁zindî	-10.5771
▁hevkar	-10.5772
iyon	-10.5772
que	-10.5776
▁leheng	-10.5776
▁fermîyê	-10.578
▁teqînek	-10.5784
▁Şêrwan	-10.5785
▁warên	-10.5789
dam	-10.5792
▁rojnameyên	-10.5792
▁Dijî	-10.5795
▁parêzer	-10.58
pik	-10.5803
▁kîjan	-10.5806
▁mercên	-10.5806
▁karker	-10.5808
▁çêkir	-10.5814
▁Eh	-10.5815
▁yekî	-10.5817
tepe	-10.5821
▁bingehek	-10.5821
▁All	-10.5821
▁peqîn	-10.5822
▁şirove	-10.5824
▁cureyek	-10.5825
Par	-10.5826
▁Komel	-10.5826
▁mêj	-10.5829
▁Nas	-10.5832
▁saziyên	-10.5833
▁bej	-10.5839
▁Meksîk	-10.584
▁ÇEND	-10.584
▁1968	-10.5842
▁serhildayan	-10.5843
▁Kêm	-10.5844
▁dijber	-10.5846
ies	-10.5847
▁37	-10.5847
▁Bah	-10.5849
ngilîz	-10.5849
▁metre	-10.5851
şiya	-10.5858
▁hildi	-10.5862
enê	-10.5868
▁tew	-10.5869
tewe	-10.5874
▁[11:1	-10.5874
▁Şehristanî	-10.5874
zade	-10.5876
iana	-10.5876
▁Gates	-10.5877
karan	-10.5878
▁navdewletîya	-10.5882
▁1930	-10.5885
viya	-10.5885
▁masî	-10.5892
ûrê	-10.5892
▁Vo	-10.5894
înên	-10.5898
▁Yemenê	-10.5898
▁Ermenistanê	-10.5899
fel	-10.59
şîr	-10.5902
▁Mark	-10.5903
▁berfanbarê	-10.5909
▁nîqaş	-10.5909
▁grûpa	-10.5909
tûn	-10.5912
▁siyaset	-10.5913
▁dixin	-10.5915
▁pla	-10.5916
rsîyên	-10.5916
▁Kurmancî	-10.5919
eyn	-10.5919
şin	-10.5919
▁nûçe	-10.5922
KA	-10.5923
▁xêzan	-10.5926
▁hebûye	-10.5929
▁Hec	-10.5936
▁rojekê	-10.5937
yin	-10.5937
▁xwezayî	-10.5943
▁rûnişt	-10.5943
▁axê	-10.5946
gehîn	-10.5952
▁aktîv	-10.5956
enburg	-10.5957
▁deşta	-10.5957
lend	-10.5959
rad	-10.5961
▁xwekujî	-10.5963
▁hêvîya	-10.5964
▁zaravayê	-10.5965
▁BALYOZÊ	-10.5965
sebeb	-10.5966
skî	-10.5971
▁zindan	-10.5973
▁hunera	-10.5977
▁sedî	-10.5979
▁Necef	-10.5979
▁font	-10.598
▁1965	-10.5982
▁PIRSA	-10.5985
kor	-10.5989
sten	-10.5995
▁bername	-10.5996
▁Tal	-10.5997
▁nenas	-10.5998
▁endama	-10.6001
▁seranser	-10.6003
rekî	-10.6004
NE	-10.6009
▁Ag	-10.6012
▁çavdêr	-10.6013
▁sedemê	-10.6015
▁[11:3	-10.6015
="0"	-10.6015
▁Peyvdarê	-10.6015
▁Nexweş	-10.6017
rîka	-10.6019
▁Enwer	-10.6023
▁tête	-10.6025
▁Fil	-10.6025
Ko	-10.6032
inê	-10.6038
ül	-10.6039
р	-10.6041
▁kolan	-10.6047
▁YEK	-10.6048
pr	-10.6048
almanî	-10.6049
▁Sîstema	-10.6049
▁Stockholm	-10.605
▁naxwaze	-10.605
▁Bidlîsê	-10.6053
▁zirav	-10.6053
▁hişyar	-10.6056
TIR	-10.6058
▁hevgirtina	-10.606
▁Celîl	-10.6063
▁pişkinînê	-10.6064
menî	-10.6065
BÛNA	-10.6066
▁Bey	-10.6066
▁Emîr	-10.6066
dey	-10.6068
teq	-10.6072
EW	-10.6077
▁Tom	-10.6077
ó	-10.6082
▁Remezan	-10.6086
▁Rezber	-10.609
▁cureyan	-10.609
dev	-10.6091
▁Xanî	-10.6091
▁Polîs	-10.6095
▁Baxdad	-10.61
▁Arif	-10.6102
▁texmîn	-10.6103
sip	-10.6104
–19	-10.6106
▁çandinî	-10.6107
gey	-10.6107
▁erdhej	-10.611
▁digot	-10.6111
▁bes	-10.6111
▁kevnar	-10.6113
▁teqand	-10.6113
▁polîtîk	-10.6115
▁leşkerîyên	-10.6115
▁awayeke	-10.6119
▁qedexekirin	-10.6121
▁DeMistura	-10.6121
▁[11:2	-10.6121
▁[20:4	-10.6121
▁molekul	-10.6121
▁Firyad	-10.6122
▁xebitî	-10.6122
▁hêk	-10.6125
▁Alîkar	-10.6137
bl	-10.6139
▁goşt	-10.6148
▁kew	-10.6149
▁zana	-10.615
▁sur	-10.6152
▁pêşve	-10.6154
ndo	-10.6155
▁Calceolaria	-10.6157
▁Supayê	-10.6157
▁University	-10.6157
▁sîvîl	-10.6157
▁hesibandin	-10.6157
▁1958	-10.6159
tter	-10.6162
▁«	-10.6162
bb	-10.6163
▁250	-10.6165
▁2019	-10.6168
vend	-10.6172
NW	-10.6173
▁Islamî	-10.6176
Cinsa	-10.6179
▁1'	-10.6181
sm	-10.6182
▁Nîşan	-10.6184
cia	-10.6184
▁arîşeyan	-10.6187
▁Nûner	-10.6188
▁zimanan	-10.6188
▁nexweşiya	-10.6192
ł	-10.6193
▁Muftî	-10.6193
▁Teyib	-10.6194
ZA	-10.6198
▁peyama	-10.6201
çer	-10.6201
▁gen	-10.6206
▁Allium	-10.6207
daye	-10.6211
▁navçeyek	-10.6213
▁rind	-10.6216
▁Qoser	-10.6218
▁nebûn	-10.6219
▁alav	-10.6219
▁derheqê	-10.6223
▁kujtî	-10.6224
▁TA	-10.6224
▁Col	-10.6229
▁qurban	-10.6234
▁erênî	-10.6235
▁peywendîyan	-10.6236
rum	-10.6239
hmet	-10.6242
▁Çê	-10.6245
▁SÊ	-10.6245
bûne	-10.6247
▁fars	-10.6249
▁konsulê	-10.6249
▁Beşa	-10.6256
▁ço	-10.626
▁hijmara	-10.6261
▁ELIRAQÎYYE	-10.6266
▁xêz	-10.6266
▁1957	-10.6268
”.	-10.627
▁teror	-10.6274
500	-10.628
▁Dollar	-10.628
▁hingê	-10.628
▁Dîcle	-10.6281
▁avî	-10.6281
▁demekî	-10.6287
▁bajaran	-10.6289
▁rêkeftin	-10.6291
▁y	-10.6292
▁pirosesa	-10.6294
▁sibe	-10.6298
iyet	-10.6301
▁|-----	-10.6302
,000	-10.6303
▁Amerîkaya	-10.6303
▁dimînin	-10.6303
▁Rêz	-10.6304
▁1963	-10.6304
▁xwendinê	-10.6304
▁Simko	-10.6305
ûş	-10.6308
▁fr	-10.6308
randin	-10.631
▁albûma	-10.6319
▁zarê	-10.6319
▁kird	-10.6322
▁Aw	-10.6323
▁xwîna	-10.6325
▁kil	-10.6325
▁pileya	-10.6328
▁gora	-10.6329
lag	-10.6329
ical	-10.6336
▁diaxivin	-10.6339
▁zilam	-10.634
▁hesab	-10.6342
derê	-10.6343
▁çil	-10.6346
▁pêşhat	-10.6349
afir	-10.6353
▁Eu	-10.6357
▁nadin	-10.6358
▁berda	-10.636
▁You	-10.6363
▁by	-10.6368
bana	-10.6369
▁Bes	-10.6369
▁Neteweyî	-10.6375
▁MEZIN	-10.6375
▁dikê	-10.6375
▁têgihiştin	-10.6375
krî	-10.6375
▁xelas	-10.6378
Ar	-10.6385
▁bajêrên	-10.6389
cc	-10.6391
▁cûr	-10.6396
▁Hum	-10.64
dayê	-10.6401
▁Anatoliyay	-10.6403
▁vedigere	-10.6403
▁mebestê	-10.6413
wet	-10.6414
rav	-10.6414
▁pevçûnên	-10.6414
▁pêşkeş	-10.6415
▁avahiya	-10.6416
▁zemîn	-10.642
▁Film	-10.6423
lingen	-10.6425
▁biser	-10.6426
etî	-10.6432
Ez	-10.6433
▁danûstandin	-10.6434
lip	-10.6434
IŞT	-10.6435
wên	-10.6437
odon	-10.6439
nameyek	-10.6439
▁Mis	-10.6445
EV	-10.6446
▁weşand	-10.6446
▁[11:4	-10.6449
▁PÊ	-10.6449
▁Erebistan	-10.6449
DIVÊ	-10.645
▁leşkerê	-10.6451
tîv	-10.6452
▁tîrmeha	-10.6458
TÎ	-10.6461
pat	-10.6462
sam	-10.6466
sazî	-10.6471
tûr	-10.6471
▁Dollaran	-10.6472
bijar	-10.6473
▁Nûr	-10.6474
uch	-10.6475
vedan	-10.6479
▁Şoreş	-10.6484
▁navendên	-10.6486
▁****	-10.6486
▁1961	-10.6488
▁Okyanûsa	-10.6489
▁400	-10.6491
kariya	-10.6494
are	-10.6494
▁Cihû	-10.6497
ÛN	-10.6497
▁Pel	-10.6502
▁sos	-10.6504
▁dabeşkirina	-10.6505
▁Mah	-10.6511
▁at	-10.6516
▁îlan	-10.6517
gun	-10.6522
▁DIXWAZ	-10.6523
ẍ	-10.6523
ú	-10.6523
▁Klinton	-10.6523
▁milliyard	-10.6523
▁bûdcey	-10.6523
▁aşkere	-10.6523
▁Ermenî	-10.6524
ctor	-10.6524
▁xanî	-10.6526
▁rêvebir	-10.6526
ori	-10.6527
▁heq	-10.6529
▁Fat	-10.6533
oph	-10.6535
iss	-10.6535
▁razîbûna	-10.6536
▁mehên	-10.654
▁Zir	-10.6549
hatin	-10.6555
▁kulîlk	-10.6555
hed	-10.6558
▁nivîsandina	-10.6559
cor	-10.6563
▁1950	-10.6565
▁Baba	-10.6566
▁Sûre	-10.657
sun	-10.6572
▁West	-10.6572
▁sînorîyên	-10.6575
▁pare	-10.6577
▁hundirê	-10.6577
▁sey	-10.6578
▁Dicle	-10.6582
▁gellek	-10.6583
▁Mûsil	-10.6583
▁Ebd	-10.6585
▁navxweyîyê	-10.6587
▁weşanên	-10.6587
gg	-10.6588
▁vegerin	-10.6592
leg	-10.6594
▁mejî	-10.6594
▁Us	-10.6595
▁BILIND	-10.6598
▁PÊŞ	-10.66
▁sivik	-10.6601
▁xweser	-10.6603
▁Rêxistin	-10.6604
▁WEZARETA	-10.6607
▁mît	-10.6607
▁Şêxan	-10.6608
▁derdor	-10.6612
▁pişka	-10.6613
▁Dolar	-10.6615
▁teknîk	-10.6619
▁Qazî	-10.6619
▁pêngav	-10.6621
▁pêkhatî	-10.6622
▁Taybet	-10.6623
▁38	-10.6624
▁rêbendanê	-10.6624
▁rêve	-10.6628
▁Xaç	-10.663
▁Paş	-10.6632
▁polîtburoya	-10.6636
▁zext	-10.6637
▁ezmûn	-10.6637
▁daxuyanîyeka	-10.6639
xu	-10.664
ketî	-10.664
▁Hew	-10.6642
▁Anatoliya	-10.6644
▁Lor	-10.6646
▁Sun	-10.6647
kot	-10.6648
laq	-10.6652
▁dadgeh	-10.6653
şop	-10.6655
▁zimanî	-10.6657
sna	-10.6658
▁hêsan	-10.666
cho	-10.666
▁bask	-10.6663
▁EVROJ	-10.6673
▁HERÊMÊ	-10.6673
▁World	-10.6673
▁peywendiyên	-10.6673
▁Parastina	-10.6673
▁îtalî	-10.6673
▁serhildayên	-10.6677
▁têr	-10.6687
▁Cent	-10.6688
▁Yekemîn	-10.6689
▁Serdana	-10.669
▁Tîm	-10.669
▁Zeng	-10.6692
vik	-10.6696
▁bihêlin	-10.6697
▁çalakvan	-10.6697
cik	-10.6697
▁seranserê	-10.6698
ûf	-10.6698
▁duhî	-10.6701
▁nave	-10.6702
▁HILBIJARTIN	-10.6708
▁[16:1	-10.6711
▁niştecih	-10.6711
▁îmze	-10.6711
▁serokatîyê	-10.6711
▁reftar	-10.6713
sse	-10.6713
IŞ	-10.6716
iy	-10.6719
reng	-10.6723
▁ziyanê	-10.6723
▁nivîsar	-10.6727
▁kêşe	-10.6728
▁bizavkar	-10.6732
▁teybetî	-10.6733
▁dayikê	-10.6734
çar	-10.6735
ess	-10.6735
▁qo	-10.6736
▁Cizîr	-10.6738
îde	-10.6741
▁WELAT	-10.6749
▁ref	-10.675
▁berdem	-10.6751
şand	-10.6751
▁biwaran	-10.6753
▁ceribandin	-10.6754
geriya	-10.6755
ار	-10.6758
îzma	-10.6759
▁Riza	-10.676
dane	-10.676
qas	-10.6762
▁Çir	-10.6762
çin	-10.6764
▁qas	-10.6767
▁dayika	-10.6767
danên	-10.6768
▁kêşeya	-10.6768
▁kovarê	-10.6769
▁penaberên	-10.6773
çûna	-10.6774
▁bête	-10.6774
ED	-10.6777
▁Bingeh	-10.6787
▁AMADE	-10.6787
▁Brîtanî	-10.6787
▁pêşkevtî	-10.6787
▁Mat	-10.6788
och	-10.6789
▁hindik	-10.6791
▁xwendiye	-10.6794
▁75	-10.6796
BER	-10.6798
cem	-10.6804
▁Qir	-10.6804
▁Martin	-10.6804
▁Öz	-10.6807
▁PÊK	-10.6808
▁Qoserê	-10.681
▁Endama	-10.6811
▁serwerîya	-10.6811
▁con	-10.6811
-18	-10.6811
▁Gû	-10.6813
▁beyannameyek	-10.6813
US	-10.6814
dibe	-10.6815
▁Êzdî	-10.6815
▁çavdêrên	-10.682
▁part	-10.6821
▁Partî	-10.6823
▁helbestvanê	-10.6824
asyon	-10.6825
▁Kirmaşan	-10.6825
▁TERORÎST	-10.6825
▁kompaniya	-10.6826
▁futbolê	-10.6826
▁Mecîd	-10.6827
▁dûçûna	-10.6827
▁pat	-10.6829
lum	-10.6831
▁dizane	-10.6832
▁wêjeyî	-10.6832
▁bac	-10.6833
▁daxuyanîyek	-10.6837
▁Dom	-10.6839
▁cengê	-10.6841
▁dîl	-10.6841
▁Îz	-10.6842
age	-10.6844
ketina	-10.6845
▁Şîr	-10.6848
▁Ner	-10.6852
zîk	-10.6852
kul	-10.6853
▁konferansê	-10.6854
▁şekir	-10.6857
karîya	-10.6857
▁MEHMÛD	-10.6864
▁kewçêrê	-10.6864
▁=====	-10.6866
▁1964	-10.6867
▁derketina	-10.6867
▁Iraqîyan	-10.6868
dawî	-10.6869
rich	-10.6869
avî	-10.687
▁jêrîn	-10.687
▁kîmya	-10.6872
▁çalakî	-10.6873
llah	-10.6874
▁Xet	-10.6874
▁veşartin	-10.6876
140	-10.6878
▁pesendkirina	-10.6885
▁Sem	-10.6886
▁Wi	-10.6886
▁êrîşan	-10.6887
▁kirîbû	-10.6889
▁partiyên	-10.689
evê	-10.6892
dat	-10.6893
border	-10.6896
▁bomba	-10.6898
▁BAREY	-10.6899
oksî	-10.6901
▁OSMAN	-10.6903
▁Keyaniya	-10.6903
ûyê	-10.6905
▁Gercan	-10.6907
▁Armanca	-10.6909
▁sax	-10.6911
ım	-10.6913
▁ch	-10.6913
▁tîmên	-10.6915
▁asmanî	-10.6916
▁Mezopotamyayê	-10.6922
Da	-10.693
);	-10.6935
rag	-10.694
▁goman	-10.694
▁Kerbela	-10.6941
▁por	-10.6943
▁ard	-10.6945
▁tesîr	-10.6947
nişîn	-10.6948
▁dixwest	-10.6948
▁felsefeya	-10.6949
▁êla	-10.6951
▁daristan	-10.6952
▁Br	-10.6953
▁PKKê	-10.6955
oş	-10.696
▁parçeyên	-10.696
#	-10.6962
hîd	-10.6964
▁Gl	-10.6965
▁Heval	-10.6966
▁Bike	-10.6966
▁39	-10.6968
my	-10.6971
▁Mehabadê	-10.6972
▁matematîk	-10.6973
▁Şaredarê	-10.6976
▁serhildan	-10.6978
▁Elqayide	-10.698
▁proseseka	-10.698
▁îsota	-10.698
DD	-10.6982
▁pêşbînî	-10.6983
▁Fermandarê	-10.6984
▁girav	-10.6985
sur	-10.6986
▁gû	-10.6986
şên	-10.6986
şandin	-10.6991
▁Vol	-10.6991
▁ajans	-10.7
▁kêl	-10.7003
▁raya	-10.7003
▁Parlamenter	-10.7007
▁agahdarî	-10.7011
▁maddeyên	-10.7013
▁şandina	-10.7014
deyên	-10.7015
şer	-10.7016
▁Hill	-10.7018
▁Mol	-10.7019
ons	-10.7025
▁III	-10.703
▁br	-10.7032
▁Sine	-10.7032
▁koçî	-10.7034
îyeka	-10.7044
rev	-10.7044
▁xurek	-10.705
▁danûstandinên	-10.705
▁ketine	-10.7051
▁Cih	-10.7052
▁rojnameyê	-10.7054
▁KOM	-10.7054
DP	-10.7055
▁Krîstyan	-10.7058
▁jenosîd	-10.7058
oğlu	-10.7059
▁bîrdoz	-10.7059
▁Teqîn	-10.7059
ida	-10.7062
ski	-10.7062
▁Petrol	-10.7062
ds	-10.7065
▁opozisyonê	-10.7069
▁Bul	-10.707
▁Kela	-10.7071
ini	-10.7076
xte	-10.7078
▁cîhan	-10.708
▁kurtî	-10.7081
▁Diyar	-10.7081
vil	-10.7083
▁Mur	-10.7084
▁sedsal	-10.7086
vak	-10.7088
▁aware	-10.7089
wîn	-10.7089
▁Ap	-10.7091
eyeka	-10.7091
rz	-10.7095
DAN	-10.7096
▁Sosyalîst	-10.71
▁aştiyê	-10.7101
▁BIBE	-10.7101
wiyan	-10.7102
▁Gil	-10.7106
gotin	-10.7109
▁rûsî	-10.7113
▁seredana	-10.7115
▁Azadiya	-10.7116
hêz	-10.7116
▁pişta	-10.7116
▁Parliyamenta	-10.7117
hatina	-10.7122
mit	-10.7123
kara	-10.7125
▁destnîşankirina	-10.7126
▁Tay	-10.7128
▁postê	-10.7128
▁BIHÊN	-10.7129
tanê	-10.7131
▁hevkariya	-10.7133
▁12'	-10.7137
▁xeynî	-10.7137
▁diçû	-10.7138
▁Xinûs	-10.7138
▁Germiyan	-10.7141
▁Sibat	-10.7143
▁derkeve	-10.7144
▁nekirine	-10.7146
▁şaşî	-10.7147
ila	-10.7148
▁hewa	-10.7148
▁Newroz	-10.7155
stor	-10.7163
3%	-10.7164
collapse	-10.7166
ک	-10.7166
\	-10.7166
▁oldar	-10.7166
▁wêran	-10.7167
ost	-10.7172
▁KOMBÛNA	-10.7172
▁stiratecîk	-10.7177
▁zozan	-10.7177
▁Cara	-10.7177
▁werziş	-10.7178
▁Lîbiya	-10.7178
▁zagon	-10.7178
▁Aştiyê	-10.7179
▁Adarê	-10.718
▁milyar	-10.7182
nêr	-10.7183
▁Hekarî	-10.7185
▁kr	-10.7186
▁heyv	-10.7187
qui	-10.7188
Le	-10.7189
▁operasyonek	-10.7194
çûn	-10.7194
▁dezgeh	-10.7195
ano	-10.7197
▁Sef	-10.7199
▁Got	-10.7201
yle	-10.7201
▁çîroka	-10.7204
ûna	-10.7204
▁pilan	-10.7206
şey	-10.721
ick	-10.7212
ges	-10.7212
▁TI	-10.7213
▁Rojname	-10.7215
▁[11:0	-10.7217
kerê	-10.7217
▁CNN	-10.7217
▁Mesîh	-10.7218
jiya	-10.7218
ûç	-10.7218
▁Murad	-10.7223
▁saet	-10.7229
tha	-10.7229
▁zimanekî	-10.7237
fîlm	-10.7241
▁hevpişka	-10.7241
▁arêşeya	-10.7242
▁dirav	-10.7243
▁termê	-10.7245
yna	-10.7246
bînin	-10.7249
▁KERKÛK	-10.7251
iyekê	-10.7252
AY	-10.7254
ografî	-10.7254
▁Mamoste	-10.7257
▁Elmanya	-10.7259
▁tiştan	-10.726
▁xûyakirin	-10.7262
▁darê	-10.7265
▁neftê	-10.7265
▁Gö	-10.727
kiyan	-10.7274
▁beşdarbûna	-10.7277
▁Deh	-10.728
IYE	-10.7286
[	-10.7287
http	-10.7287
▁keçik	-10.7289
▁hêzan	-10.7291
▁kuşt	-10.7293
SA	-10.7293
▁Papa	-10.7297
dîye	-10.7297
▁eyaleta	-10.7297
▁Ewropî	-10.7297
▁dibêjit	-10.7297
▁Hillary	-10.7297
▁Piraniya	-10.7298
▁biparêze	-10.7298
▁mêran	-10.7299
qûb	-10.7299
▁1956	-10.73
▁fîzîk	-10.7301
our	-10.7301
▁rol	-10.7301
▁telefonî	-10.7302
reya	-10.7303
▁Cureyê	-10.7307
▁pêngava	-10.731
▁pêngavê	-10.7316
▁behs	-10.7318
▁Mad	-10.7318
▁parve	-10.732
▁stêrk	-10.7322
▁nemir	-10.7322
▁bûyeran	-10.7334
▁modern	-10.7338
▁42	-10.7338
▁Çewlîgê	-10.7339
sîm	-10.7341
▁têkilî	-10.7343
▁Para	-10.7343
▁guhartin	-10.7346
▁cu	-10.7347
lûl	-10.7349
dere	-10.7352
liyê	-10.7353
▁peyamek	-10.7357
▁împerator	-10.7357
tîye	-10.736
▁hunermendên	-10.736
:1	-10.736
▁Çomanê	-10.7368
ûp	-10.7373
rma	-10.7374
tanî	-10.7376
▁xwepêşandanê	-10.7377
▁[16:0	-10.7378
▁îdîa	-10.7379
▁gerîyeka	-10.7379
▁Mehmed	-10.738
VE	-10.7383
bike	-10.7388
ahiyê	-10.7389
zeya	-10.739
▁gihandin	-10.739
▁Haw	-10.7396
▁giyanê	-10.7397
olojiyê	-10.7398
▁Kurê	-10.7402
mîl	-10.7402
▁Mîrê	-10.7405
▁Azerbaycana	-10.7405
▁Rejîma	-10.7408
cı	-10.741
▁çarçêweya	-10.741
ık	-10.7412
▁devê	-10.7416
▁Eşîrên	-10.7416
▁[11:5	-10.7419
▁protesto	-10.7419
▁Mixabin	-10.7419
▁Weznê	-10.7419
▁desteser	-10.7419
▁Tûnis	-10.742
▁kole	-10.742
tayê	-10.7422
▁dendik	-10.7426
▁germî	-10.7427
▁teqînên	-10.7428
▁carna	-10.743
ico	-10.7431
êrê	-10.7432
▁dida	-10.7433
▁Rojnamevanên	-10.7434
nax	-10.7434
usamet	-10.7436
▁bela	-10.7445
▁giha	-10.7446
▁pêşwazîkirin	-10.7448
şte	-10.745
hênan	-10.7451
▁Sêwasê	-10.7451
▁Êl	-10.7455
▁penaber	-10.7455
diyan	-10.7457
▁Xwedayê	-10.7459
▁derbikevin	-10.7459
▁Têkiliyê	-10.746
▁Stranbêj	-10.746
▁Rom	-10.7461
▁metirsî	-10.7461
▁hevdîtin	-10.7461
▁Ferheng	-10.7463
▁Ferec	-10.7464
▁rejîmê	-10.7469
ÛR	-10.7472
▁salane	-10.7472
ET	-10.7476
▁Stran	-10.7476
▁Îlonê	-10.7478
▁operasyon	-10.7481
eye	-10.7482
▁Mêrgesorê	-10.7485
-9	-10.7485
girêk	-10.7486
▁geşkirin	-10.7487
De	-10.749
▁pêdivêyî	-10.7491
▁baştirîn	-10.7492
spor	-10.7496
▁Rus	-10.7498
▁kombûneka	-10.75
▁fişar	-10.7501
▁nîvê	-10.7504
▁1918	-10.7504
▁ver	-10.7506
▁niv	-10.7509
qel	-10.7513
▁pergala	-10.7515
vir	-10.7515
mûr	-10.7517
▁Misrê	-10.752
zu	-10.7523
▁berfirehtir	-10.7524
seya	-10.7526
UR	-10.753
▁hevre	-10.753
▁girtîgehê	-10.7532
ح	-10.7532
pho	-10.7532
elî	-10.7532
▁Xor	-10.7539
▁piş	-10.7539
▁nexweşxaneyê	-10.754
▁Qendîl	-10.7542
▁Resûl	-10.7542
▁Kurmanc	-10.7543
▁Xorasanê	-10.7543
▁1947	-10.7545
▁divêt	-10.7546
▁girîngî	-10.7549
▁serbazî	-10.755
▁Efrîna	-10.7551
▁bêdeng	-10.7552
raf	-10.7556
▁gl	-10.7556
▁referandum	-10.7557
▁Parlamenterê	-10.7558
▁zik	-10.7561
bak	-10.7562
▁kelem	-10.7566
▁Şaredar	-10.7566
▁dîtina	-10.7567
▁Bru	-10.7568
BI	-10.7572
▁zorê	-10.7573
▁sen	-10.7573
▁ragiahnd	-10.7578
barê	-10.7581
т	-10.7583
ique	-10.7583
▁kesayet	-10.7584
▁1948	-10.7586
▁1962	-10.7586
▁Navdar	-10.7589
▁serdemê	-10.7591
pes	-10.7593
law	-10.7598
rûd	-10.7602
iba	-10.7605
▁bazirgan	-10.7607
▁Maz	-10.761
▁Şano	-10.7611
▁şan	-10.7618
ewar	-10.7618
▁Mag	-10.7618
tta	-10.7619
▁Sêşembî	-10.7624
▁HHK	-10.7624
▁gotine	-10.7624
▁nemînin	-10.7625
▁Pasûrê	-10.7625
▁Enfal	-10.7625
▁dihêle	-10.7626
▁1955	-10.7627
▁Mun	-10.7627
▁Port	-10.7629
▁Cam	-10.7632
▁vexwendin	-10.7635
▁pirsan	-10.7636
▁Elewî	-10.7639
wen	-10.764
▁hingî	-10.764
▁Times	-10.7644
oni	-10.7645
.):	-10.7645
▁deryayî	-10.7645
şêr	-10.7648
▁loma	-10.765
▁dîmen	-10.7652
Er	-10.7654
▁rijd	-10.7656
▁Che	-10.7657
asyona	-10.7665
dorf	-10.7665
▁Çal	-10.7666
▁nexwezt	-10.7666
▁proteîn	-10.7666
▁parlamentoy	-10.7666
stîk	-10.7669
▁sazkirina	-10.7669
▁kêr	-10.767
▁Çinarê	-10.767
▁Berlin	-10.7671
▁Êlihê	-10.7671
▁Kawa	-10.7672
▁rêbazê	-10.7674
▁kehrebayê	-10.7674
ÎYÊN	-10.7676
▁ALÎYÊ	-10.7677
▁bizavên	-10.7693
pre	-10.7693
▁Brîtaniyayî	-10.7694
▁çêbûna	-10.7697
▁Ant	-10.7705
▁sêdaredan	-10.7708
▁Bexşa	-10.7708
▁[20:3	-10.7708
▁zaniyar	-10.7708
▁Tengav	-10.7708
▁pasevanê	-10.7709
Ser	-10.7709
▁Kas	-10.7711
▁Raport	-10.7711
▁başûra	-10.7711
▁Zî	-10.7712
▁îngilîz	-10.7713
rac	-10.7714
▁model	-10.7716
▁Sovyet	-10.7717
wek	-10.7719
▁komeleya	-10.7724
lm	-10.7724
▁xwedan	-10.7731
▁Fr	-10.7735
▁Dêra	-10.7735
▁Kaniya	-10.7743
▁çapa	-10.7744
▁şar	-10.7746
vanan	-10.7749
▁[10:5	-10.775
▁[12:1	-10.775
▁profesor	-10.775
▁Uzun	-10.775
▁Tax	-10.775
▁bixwaze	-10.7753
IH	-10.7753
cum	-10.7754
▁MÛSILÊ	-10.7755
cro	-10.7757
▁Hêvî	-10.7757
hatî	-10.7759
▁Son	-10.7762
zur	-10.7762
▁dîtiye	-10.7764
▁mast	-10.7765
▁sazî	-10.7768
▁hiştin	-10.7769
▁teq	-10.7771
▁jîngeh	-10.7774
▁ROJ	-10.7779
mayê	-10.778
▁Park	-10.7784
▁Rûber	-10.7784
lü	-10.7785
▁Caf	-10.7791
▁1959	-10.7795
▁wêje	-10.7797
▁çêbûn	-10.7797
▁derew	-10.7804
▁nikari	-10.7804
ej	-10.7806
▁çalakiya	-10.7808
eder	-10.7809
ima	-10.7812
▁Yên	-10.7813
▁Geverê	-10.7813
▁Çavdêrîy	-10.7823
nîş	-10.7823
▁têgih	-10.7824
bert	-10.7832
▁zankoyê	-10.7833
ziman	-10.7833
▁cîhê	-10.7833
▁Mesrûr	-10.7834
▁[10:4	-10.7834
▁Dengbêj	-10.7836
ende	-10.7836
▁Bax	-10.7837
▁1920	-10.784
▁kilam	-10.7842
▁hêzê	-10.7842
▁dewletek	-10.7843
▁hatîya	-10.7846
▁bab	-10.7847
▁Berg	-10.7848
tral	-10.7852
▁teknîkî	-10.7854
▁parast	-10.7861
▁digre	-10.7861
▁Hir	-10.7862
▁bandorek	-10.7864
ous	-10.7867
birî	-10.7868
▁neteweyê	-10.787
▁Fre	-10.7873
▁hemûyan	-10.7876
▁Ron	-10.7876
▁Ehmedînijad	-10.7877
▁siza	-10.7877
IST	-10.7878
▁qurbanîyê	-10.7878
▁Mafê	-10.7879
▁hilwest	-10.788
▁Sîna	-10.7883
▁lawaz	-10.7883
Ro	-10.7891
yp	-10.7892
▁Ü	-10.7895
ß	-10.7898
▁tawan	-10.79
▁reviya	-10.7901
▁tawanên	-10.7901
▁س	-10.7902
▁cen	-10.7905
deşt	-10.7907
▁Das	-10.7908
tri	-10.7917
Ra	-10.7919
▁Xwepêşandan	-10.792
▁Huseyîn	-10.792
▁kongreya	-10.792
▁Dêrsim	-10.792
▁Hillarî	-10.792
▁Bakûr	-10.7921
▁bikaribe	-10.7922
atîya	-10.7923
▁July	-10.7923
▁vekir	-10.7925
▁rastiyê	-10.7926
por	-10.7929
▁piya	-10.793
▁dilovaniya	-10.7931
RP	-10.7931
▁Hilbijartin	-10.7934
▁xir	-10.7937
▁zîndanê	-10.7939
▁mijar	-10.7941
▁çima	-10.7942
tayî	-10.7944
gerê	-10.7944
▁kod	-10.7946
▁helwest	-10.7948
▁19'	-10.795
▁gera	-10.7955
▁veşartî	-10.7956
pro	-10.7957
▁Pirs	-10.7959
▁tra	-10.7961
ο	-10.7963
▁sermawezê	-10.7963
▁Bîzans	-10.7963
▁mezheb	-10.7963
▁Romney	-10.7963
▁birçîbûnê	-10.7963
▁pu	-10.7964
▁tûr	-10.7967
▁Mêrdîn	-10.7968
▁Seyda	-10.7968
▁derkevin	-10.797
okan	-10.7971
▁darayîya	-10.7972
▁nuha	-10.7972
▁cîgirê	-10.7975
▁bêjedanekê	-10.7976
▁madeya	-10.7977
▁wêneyek	-10.7977
▁xel	-10.7979
ise	-10.798
▁zanî	-10.798
stanê	-10.7987
phi	-10.799
▁atomê	-10.7991
▁beşdarîya	-10.7992
▁ewe	-10.7993
▁48	-10.7993
IV	-10.8003
▁Yûsif	-10.8006
▁[12:0	-10.8006
▁deverek	-10.8006
▁Pêşmerge	-10.8006
▁Quran	-10.8007
sing	-10.8007
▁bax	-10.8008
▁bicîh	-10.8015
▁Bak	-10.8016
girin	-10.8016
▁tay	-10.8016
▁yekgirtî	-10.8019
▁Pênc	-10.8022
▁farsî	-10.8028
con	-10.8029
▁Dîcleyê	-10.8032
▁helbestan	-10.8032
by	-10.8036
▁operasyona	-10.804
▁ereban	-10.8043
▁nîşana	-10.8044
▁Qû	-10.8048
enî	-10.8049
/2011	-10.8049
м	-10.8049
▁DEVERÊ	-10.8049
So	-10.8049
▁sepandin	-10.8049
▁Parleman	-10.8049
▁Gimgim	-10.805
▁xwepêşandanan	-10.8051
▁Çiya	-10.8051
html	-10.8052
▁Ceng	-10.8061
▁birîndaran	-10.8062
▁swêdî	-10.8063
tine	-10.8064
▁komîteyê	-10.8065
-7	-10.8065
▁Miş	-10.8066
▁Alt	-10.8067
olojiya	-10.8072
▁peyvek	-10.8073
▁vegere	-10.8074
▁Erdê	-10.8079
▁lawê	-10.8081
▁ragehand	-10.8085
tho	-10.8086
▁dilgiran	-10.809
▁firoke	-10.8092
lak	-10.8092
▁PÊŞKÊŞ	-10.8092
▁xwenîşandan	-10.8093
▁Afganîstanê	-10.8093
▁hewayê	-10.8093
▁1954	-10.8095
▁siya	-10.8096
▁îslamî	-10.8097
▁hewce	-10.8098
▁krîza	-10.8101
xaneyê	-10.8102
▁65	-10.8107
yarê	-10.8107
▁Mezopotamya	-10.8114
▁Werger	-10.8116
▁şîretkarê	-10.8116
▁serdan	-10.8118
▁Şivan	-10.8118
▁danî	-10.8119
istana	-10.8119
qan	-10.8123
ring	-10.8124
▁Love	-10.8125
▁Alan	-10.8127
xwarin	-10.8128
▁sêyemîn	-10.8128
▁un	-10.8131
▁nerîna	-10.8132
▁Leon	-10.8133
▁[21:0	-10.8136
▁Felsefe	-10.8136
▁kiryarên	-10.8138
rge	-10.8138
▁navendê	-10.8139
lus	-10.814
▁Navendî	-10.814
▁www	-10.8142
▁nebaş	-10.8144
▁Fra	-10.8148
▁Hemîd	-10.8149
▁ROJA	-10.815
▁Sed	-10.815
AM	-10.8155
pal	-10.8165
mak	-10.8167
mark	-10.8167
▁çandinîyê	-10.8169
▁Jean	-10.8172
▁dereng	-10.8176
▁milê	-10.8179
bad	-10.8181
▁1953	-10.8183
▁Nêrwe	-10.8184
trop	-10.8184
▁City	-10.8186
ory	-10.8186
mek	-10.8187
wu	-10.819
▁tam	-10.8192
▁beramberî	-10.8194
▁sûdê	-10.8197
Bo	-10.8197
▁sîr	-10.8197
▁15'	-10.82
YAR	-10.82
▁malperê	-10.8201
▁xew	-10.8201
▁Cer	-10.8202
▁salekê	-10.8205
▁berdewamiya	-10.8206
▁danûstandinan	-10.8207
▁Kûr	-10.8212
▁Sedem	-10.8215
aran	-10.8216
▁hal	-10.8216
▁Ok	-10.8218
şah	-10.822
▁43	-10.8224
ۆ	-10.8224
▁GIHIJT	-10.8224
▁diyalog	-10.8224
▁Debax	-10.8226
▁qeyd	-10.8226
▁Hadî	-10.8227
▁Farqîn	-10.8229
▁Sunnî	-10.823
sik	-10.8231
▁Gün	-10.8232
stein	-10.8233
▁post	-10.8234
▁cureyekî	-10.8235
▁bişîne	-10.8237
▁stand	-10.8237
▁ton	-10.824
▁rastê	-10.8242
evî	-10.8245
▁nivîskî	-10.8246
▁dazanîn	-10.8248
▁Rî	-10.8248
▁hinar	-10.825
kra	-10.8251
▁nêzîkê	-10.8258
▁tije	-10.8261
▁nedaye	-10.8262
▁Şu	-10.8264
▁serwerî	-10.8266
▁Sudan	-10.8268
▁PJAK	-10.8268
▁avrêlê	-10.8268
▁serperiştîya	-10.8268
▁gihîjt	-10.8268
▁Bajêr	-10.827
▁1949	-10.8271
én	-10.8273
▁Mill	-10.8274
▁nêrînên	-10.8274
IS	-10.8275
▁îranî	-10.8278
▁şêr	-10.8281
▁kifş	-10.8283
▁yekalî	-10.8285
▁nivis	-10.8286
hey	-10.8287
▁Hozan	-10.8288
▁forma	-10.8291
asyonê	-10.8292
▁çol	-10.8292
▁Spanyayê	-10.8295
yarî	-10.8296
▁têkoşîn	-10.8303
▁pûşperê	-10.8306
▁KO	-10.8307
▁Şahîn	-10.8309
kerên	-10.8309
▁(17	-10.8311
▁gihand	-10.8312
▁[20:5	-10.8313
▁hundur	-10.8313
▁grûpê	-10.8313
▁desthilatdariya	-10.8314
▁Kovar	-10.8314
▁wergêr	-10.8314
nameyê	-10.8319
▁yekema	-10.8319
▁cer	-10.8321
▁Desteya	-10.8322
▁Zîn	-10.8326
▁Sto	-10.8328
▁Fraksiyonên	-10.8329
▁bombbaran	-10.8331
inde	-10.8331
▁Spanya	-10.8331
rit	-10.8337
▁şo	-10.8338
▁siyasetê	-10.8347
▁Moskow	-10.8349
WER	-10.8349
{	-10.835
▁İs	-10.8351
▁Xer	-10.8351
:18	-10.8352
▁Îmaratê	-10.8356
▁Alîyê	-10.8357
.08.2011	-10.8357
▁Encam	-10.8358
▁Endam	-10.836
sia	-10.8362
▁cam	-10.8362
▁Dew	-10.8367
erebî	-10.8368
nîs	-10.8374
▁Eyn	-10.8375
▁dergehê	-10.8378
elle	-10.8378
netew	-10.8379
margin	-10.8379
▁zêdekirin	-10.8381
▁ENCAM	-10.8381
alîzm	-10.839
▁Kos	-10.8391
şir	-10.8392
▁BAXDAD	-10.8397
▁Cizîrî	-10.8398
▁Meşhedanî	-10.8402
▁astronom	-10.8402
▁DIKIN	-10.8402
▁Mezra	-10.8404
mis	-10.8406
▁Seqiz	-10.8408
▁rolê	-10.8411
kter	-10.8412
▁ewil	-10.8413
miş	-10.8415
▁Bang	-10.8417
îtiya	-10.842
▁Mit	-10.8421
▁Amêdiyê	-10.8425
erd	-10.8425
▁Nam	-10.8427
▁mayîn	-10.8428
▁Behr	-10.8432
▁Zanîngeh	-10.8434
▁qanûnên	-10.8436
▁sek	-10.8437
bendî	-10.844
▁Main	-10.8443
hing	-10.8445
▁xet	-10.8445
▁xwedê	-10.8445
▁[15:5	-10.8447
▁Xelîfan	-10.8447
▁girêbest	-10.8448
mûn	-10.8452
luk	-10.8452
vîs	-10.8454
▁kevneşopî	-10.8458
▁gerdûn	-10.8463
▁nehên	-10.8464
▁dur	-10.8465
▁Engl	-10.8467
▁Riha	-10.8472
SN	-10.8472
100	-10.8474
yaz	-10.8475
▁lêpirsîn	-10.8478
▁koka	-10.8479
▁Boz	-10.8479
▁beşeke	-10.8483
ÎK	-10.8484
BB	-10.8487
▁vekişandin	-10.8489
▁guhdar	-10.8489
▁Bawer	-10.849
▁Ferhenga	-10.849
▁[13:3	-10.8493
▁[14:0	-10.8493
▁werbigire	-10.8493
▁firrgeha	-10.8493
▁Ebbas	-10.8493
▁pirraniya	-10.8494
▁Xwarinên	-10.8499
▁mamosta	-10.85
ombesta	-10.8501
warê	-10.8502
▁Qer	-10.8503
▁Kin	-10.8504
▁Beha	-10.8505
▁fermandar	-10.8508
cher	-10.8508
▁Muh	-10.8512
▁esas	-10.8512
▁Kl	-10.8512
▁kol	-10.8514
iyetê	-10.8519
▁Emer	-10.8522
▁(3	-10.8523
▁tewaw	-10.8524
▁Don	-10.8532
▁MÛSIL	-10.8532
tirkî	-10.8536
▁Aswataliraq	-10.8538
▁Necîb	-10.8538
▁wusa	-10.8538
▁Ferhad	-10.8539
hû	-10.8539
▁didome	-10.854
▁Weşanxaneya	-10.854
▁Derbarê	-10.854
▁pay	-10.8541
▁1926	-10.8541
▁komîteyên	-10.8543
▁nivîsîngeha	-10.8543
▁Aydin	-10.8543
rîs	-10.8544
dis	-10.8544
▁Hevserokê	-10.8545
yaya	-10.8548
▁And	-10.8549
▁nîvro	-10.855
▁hinekî	-10.855
▁Windows	-10.855
▁hej	-10.8559
ragihand	-10.856
▁lihev	-10.8561
▁rûs	-10.8562
▁Rêkan	-10.8563
▁êrîşeke	-10.8565
▁hola	-10.8567
▁zir	-10.8571
mey	-10.8577
▁Pri	-10.8578
pişt	-10.8582
▁Mü	-10.8583
▁ÊRÎŞ	-10.8584
▁Pêxember	-10.8584
▁Yigit	-10.8584
▁mîlîtan	-10.8584
▁Kîmya	-10.8585
▁Saint	-10.8586
▁destpêkir	-10.8592
▁bêhn	-10.8595
▁Misirî	-10.8595
sanî	-10.8595
▁Parîs	-10.8596
▁zivistanê	-10.8596
▁Verlag	-10.8597
▁çerm	-10.86
▁giştiya	-10.8609
▁sil	-10.861
▁pêngavek	-10.8611
fre	-10.8615
▁çir	-10.8617
▁şu	-10.8619
▁sel	-10.862
▁hijmarek	-10.8625
▁ÇAR	-10.8626
▁term	-10.8628
ι	-10.863
▁Şayes	-10.863
▁amaje	-10.863
▁dirust	-10.8634
▁xweşî	-10.8634
▁xwepêşanderên	-10.8634
▁hesin	-10.8635
Ew	-10.8636
▁Los	-10.8639
qar	-10.8639
▁−	-10.8639
▁zanistê	-10.8639
▁çêdike	-10.864
▁rêze	-10.8641
ÎM	-10.8643
sol	-10.8643
▁Phil	-10.8653
▁ûêd	-10.8655
▁navberê	-10.8661
▁Gurcistanê	-10.8663
▁nûner	-10.8665
▁xalan	-10.8666
▁kanal	-10.8667
▁Pil	-10.8668
▁pêşveçûn	-10.867
pêk	-10.8672
▁kêmkirina	-10.8672
anthus	-10.8673
آ	-10.8676
▁Thomas	-10.8676
▁misoger	-10.8676
ρ	-10.8676
▁Filistîn	-10.8676
▁serokên	-10.8676
▁xilas	-10.8677
▁ewlehîyê	-10.8683
teyên	-10.8684
oyî	-10.8684
▁lu	-10.8687
bre	-10.8688
▁Çû	-10.8689
▁4-	-10.8694
▁hildan	-10.8696
▁devkî	-10.8698
ilî	-10.87
opo	-10.8701
poş	-10.8702
meh	-10.8704
▁Şiwanî	-10.8705
▁şiyan	-10.8705
▁Taha	-10.8705
▁stû	-10.8706
▁qeyrana	-10.8706
▁silav	-10.8712
Co	-10.8713
▁Gotar	-10.8717
Mal	-10.8719
▁Nan	-10.8724
▁IRAQÎ	-10.8725
▁Ran	-10.8726
▁ewlekarî	-10.8728
▁carî	-10.8729
▁Seyid	-10.8729
▁asayîşa	-10.873
▁Sînor	-10.8731
▁Prof	-10.8735
Kurdistan	-10.8735
▁qebûlkirin	-10.8736
▁mele	-10.8736
▁Hasan	-10.8738
▁pirtûkek	-10.8739
pis	-10.874
▁bihêle	-10.8741
▁rij	-10.8743
gez	-10.8744
lli	-10.8745
zû	-10.8748
fin	-10.8749
▁qad	-10.8754
▁Tev	-10.8758
çu	-10.8759
▁pêşangeha	-10.876
TIN	-10.8763
▁tal	-10.8767
▁[13:4	-10.8768
▁Norwêc	-10.8768
maya	-10.877
▁Ankara	-10.877
WA	-10.8771
▁jehr	-10.8771
serê	-10.8776
▁xerc	-10.8779
▁yanî	-10.878
▁Demokrasîyê	-10.8781
▁peyker	-10.8781
▁gaz	-10.8781
▁Serdeşt	-10.8782
▁Hisên	-10.8783
▁zazakî	-10.8784
EST	-10.8785
stên	-10.8785
▁Sipî	-10.8786
▁Şo	-10.8787
cy	-10.8787
▁Teh	-10.8787
hab	-10.8788
dirêj	-10.8789
▁Xey	-10.8789
▁bigih	-10.879
▁Nur	-10.8793
▁wezaretê	-10.8793
▁nirxand	-10.88
▁pişk	-10.8801
▁komar	-10.8802
▁şareza	-10.8803
▁MU	-10.8804
▁proto	-10.8805
▁mus	-10.8809
▁berdestkirin	-10.881
▁aştîya	-10.8815
▁[12:2	-10.8815
▁darizandin	-10.8815
▁hebûne	-10.8816
▁komî	-10.8817
▁ronahî	-10.8817
▁gelawêjê	-10.8817
ity	-10.8821
▁herçend	-10.8822
▁SIYASÎ	-10.8832
▁hêsanî	-10.8835
▁tele	-10.8842
▁rojî	-10.8848
▁Kim	-10.8848
▁Xen	-10.885
cal	-10.8857
darîya	-10.8859
▁saxlem	-10.886
▁çarem	-10.886
yiyan	-10.886
▁împarator	-10.8862
ν	-10.8862
▁Enqerê	-10.8862
▁DIJÎ	-10.8862
▁Eskerî	-10.8862
▁Kürt	-10.8862
▁Pr	-10.8867
▁1919	-10.887
▁Nasir	-10.887
▁Girtin	-10.8871
▁KOMAR	-10.8878
ref	-10.8879
▁Sev	-10.8881
uer	-10.8884
îte	-10.8886
▁jinek	-10.8896
▁ruh	-10.8896
▁hişt	-10.8896
ting	-10.8902
nama	-10.8902
ewle	-10.8905
havêj	-10.8909
▁NIŞTIMANÎ	-10.8909
▁Waşington	-10.8909
▁pêvajoyê	-10.8909
▁[13:1	-10.8909
▁teslîm	-10.8909
▁serrastkirin	-10.8912
▁PETROLÊ	-10.8912
MAR	-10.8916
▁Xaneqîn	-10.8922
rap	-10.8923
▁dagîr	-10.8923
xwîn	-10.893
EB	-10.8936
▁raporta	-10.894
▁gehişt	-10.8941
▁Serdar	-10.8946
endam	-10.8947
▁giyan	-10.8952
▁Web	-10.8952
ع	-10.8954
▁beşdariya	-10.8955
▁Siya	-10.8955
tas	-10.8956
inus	-10.8956
▁rêza	-10.8957
▁Atalay	-10.8957
▁ziwa	-10.8957
▁Rûerd	-10.8957
▁Komkara	-10.8958
у	-10.8959
▁şêwe	-10.8959
geheka	-10.896
▁1924	-10.8961
▁tiştî	-10.8968
▁Reza	-10.897
▁yêk	-10.8971
mail	-10.8971
▁xwendevanan	-10.8971
▁komeleyê	-10.8972
oj	-10.8974
▁beyannameyekê	-10.8974
fu	-10.8975
civîn	-10.8975
▁gîyanê	-10.8977
dl	-10.898
▁Enqere	-10.8982
▁Kul	-10.8988
▁Zo	-10.8988
opter	-10.899
▁pevçûnan	-10.8991
▁Ferman	-10.8993
▁mirovekî	-10.8994
jimêr	-10.8994
▁Îtalyayê	-10.8996
ÎNA	-10.9
mok	-10.9002
▁Etrûşî	-10.9004
▁parzûn	-10.9004
EYÊN	-10.9005
▁Richard	-10.9005
sax	-10.9005
▁Şandeya	-10.9007
▁Meş	-10.9008
▁120	-10.9009
▁kîmyayî	-10.9013
EVÊ	-10.9016
▁Hak	-10.9016
▁lîz	-10.9017
▁Urdun	-10.9019
bûl	-10.9019
roz	-10.9023
▁wezaretan	-10.9026
▁Kap	-10.9026
▁Bet	-10.9027
▁1000	-10.9027
▁teqînan	-10.903
▁Cû	-10.9031
sheim	-10.9034
▁derketine	-10.9035
▁ramanên	-10.9038
▁Yar	-10.9043
τ	-10.9052
▁[14:1	-10.9052
▁[14:3	-10.9052
▁Pirranî	-10.9054
▁1938	-10.9055
▁1937	-10.9056
KIR	-10.9056
ife	-10.9057
▁awa	-10.9059
▁peymanê	-10.906
▁BÊ	-10.9061
▁pêşkevtinên	-10.9062
osa	-10.9067
▁daxuyanî	-10.9069
▁aniye	-10.9069
▁cihan	-10.9071
▁nakokîyên	-10.9072
bînê	-10.9075
▁riwek	-10.9076
▁Beriya	-10.9076
ob	-10.9077
cha	-10.9079
▁şoreşê	-10.9083
▁rojavayî	-10.9084
▁Baran	-10.9087
▁navkirin	-10.9092
birîn	-10.9094
▁bigihêjin	-10.9097
serî	-10.9098
▁GENGEŞE	-10.91
▁perwerdehiya	-10.91
▁Madrid	-10.91
▁Charles	-10.9101
▁Bla	-10.9103
▁wefat	-10.9103
▁Harry	-10.9104
▁spanî	-10.9105
–20	-10.9105
▁Sîn	-10.9106
▁çêdikin	-10.9107
▁55	-10.9108
▁vexwarin	-10.9108
▁amadeyî	-10.9108
▁Berey	-10.9112
▁projeyek	-10.9112
▁Mît	-10.9116
tiv	-10.9118
girên	-10.9118
▁Ajans	-10.9125
▁hevrik	-10.9128
anîna	-10.913
▁gavê	-10.9132
het	-10.9133
▁giravên	-10.9133
▁Zor	-10.9135
▁Leşker	-10.9136
stri	-10.9137
▁roleke	-10.9139
tia	-10.9142
▁olê	-10.9146
▁zêr	-10.9147
.08.2012	-10.9149
▁[12:4	-10.9149
▁zimên	-10.915
▁Şikak	-10.9151
▁Ewropayî	-10.9155
▁41	-10.9156
▁Efrîn	-10.9156
newey	-10.916
▁şê	-10.916
Po	-10.9162
▁kêf	-10.9163
siv	-10.9164
▁rex	-10.9166
▁gaza	-10.917
▁nêvdewletî	-10.9179
▁Husn	-10.9183
:10	-10.9191
▁nameyê	-10.9195
▁Muqted	-10.9197
▁Zygophyllum	-10.9197
▁[10:3	-10.9197
▁[14:4	-10.9197
▁tebaxê	-10.9197
kêşan	-10.9198
▁amerîkan	-10.9199
▁Les	-10.9199
KE	-10.92
rêvebir	-10.9201
▁1927	-10.9201
▁alim	-10.9201
maz	-10.9202
▁Şew	-10.9204
▁zêdebûna	-10.9208
▁televîzyonê	-10.921
şaristan	-10.9211
daw	-10.9215
▁endamekî	-10.9217
▁digotin	-10.9217
▁Xesr	-10.9218
ğı	-10.9222
vaniya	-10.9224
şkê	-10.9227
meya	-10.9232
îra	-10.9233
▁deyn	-10.924
berên	-10.9241
ÊR	-10.9243
lov	-10.9245
▁Celadet	-10.9246
▁Meclîsa	-10.9246
▁[13:0	-10.9246
▁KRG	-10.9246
▁Çelebî	-10.9246
▁zewicî	-10.9246
▁DAXWAZKIRÎ	-10.9246
▁Çarşembî	-10.9247
AYÎ	-10.9247
▁çaxê	-10.9249
▁1923	-10.925
ón	-10.925
▁PARLIYAMENTÊ	-10.925
▁hilawîstîyên	-10.9251
yonê	-10.9252
▁SI	-10.926
ulus	-10.9265
▁rojek	-10.9269
riye	-10.9271
▁maddeyê	-10.9271
▁serhildanê	-10.9271
▁daku	-10.9275
▁kêfxweş	-10.9276
▁ragirtin	-10.9277
icus	-10.9278
▁Doz	-10.928
▁carekê	-10.9282
▁Herîrî	-10.9284
fte	-10.9286
▁tendiristîyê	-10.9289
▁Evan	-10.9293
▁serkevtin	-10.9295
.02.2013	-10.9295
▁xebitandin	-10.9295
▁reşemiyê	-10.9295
▁ezmona	-10.9295
▁(10	-10.9296
▁terorîstên	-10.9296
.09.2012	-10.9297
▁Şêrko	-10.9299
girav	-10.9301
▁June	-10.9301
▁Bern	-10.9301
rêt	-10.9304
▁dengî	-10.9306
▁Duyem	-10.9306
idî	-10.9309
▁hizre	-10.931
▁pêşkevtina	-10.9311
▁Nisêbîn	-10.9313
▁serkirde	-10.9314
wêj	-10.9316
bah	-10.9317
▁Baban	-10.932
▁Konferansa	-10.9322
aria	-10.9329
▁ن	-10.933
▁Bizava	-10.9332
▁Hun	-10.9334
iyeta	-10.9335
naz	-10.9335
mur	-10.9336
▁Tirkan	-10.9339
pos	-10.9341
گ	-10.9344
▁[14:5	-10.9344
▁AMERÎKAYÎ	-10.9346
▁1940	-10.9348
▁Kazim	-10.9348
▁derûnî	-10.9353
▁Michael	-10.9353
▁Sitey	-10.9356
▁King	-10.9357
▁diçê	-10.9357
▁kêşeyên	-10.9358
▁Serdem	-10.936
▁het	-10.936
▁sînorî	-10.9361
çûnê	-10.9361
▁Wêje	-10.9362
▁xwedîkirina	-10.9362
▁Çil	-10.9369
▁berfirehî	-10.9369
esi	-10.9372
▁Nêr	-10.9373
▁Peyv	-10.9375
▁taxên	-10.9375
▁yew	-10.938
▁Mc	-10.9381
▁diristkirin	-10.9381
îstîk	-10.9383
▁inter	-10.9384
▁nayên	-10.9385
▁mêrê	-10.9392
▁guncayî	-10.9394
▁Family	-10.9394
▁rahînan	-10.9394
▁Şahmaran	-10.9394
▁awarte	-10.9394
▁DER	-10.9395
▁rêbaza	-10.9395
''	-10.9397
▁Musa	-10.9397
▁Şerîf	-10.9397
tions	-10.9397
▁Îsraîlî	-10.94
izm	-10.94
▁Mont	-10.9402
sha	-10.9405
BE	-10.9406
ford	-10.9409
▁hezkirin	-10.941
EP	-10.9416
▁bernama	-10.9418
vat	-10.9422
Si	-10.9423
▁Cla	-10.9426
▁lêgerîn	-10.9426
▁herêmek	-10.9426
▁LE	-10.9429
▁televîzyon	-10.943
vanîya	-10.9431
gol	-10.9434
▁here	-10.9434
▁Mexmûrê	-10.944
▁çandiniyê	-10.9441
sep	-10.9443
.07.2012	-10.9443
▁Ebdurrehman	-10.9443
▁Erzînganê	-10.9443
▁[13:2	-10.9443
▁quantum	-10.9443
▁hoşdarî	-10.9443
▁sindoq	-10.9443
hişt	-10.9444
▁wîlayeta	-10.9444
▁Wêranşarê	-10.9445
▁xemgîn	-10.9445
л	-10.9446
▁Dûr	-10.9446
▁hunerê	-10.9449
biya	-10.9459
▁bizavê	-10.946
▁strana	-10.9462
▁rih	-10.9462
eşîr	-10.9463
▁krî	-10.9465
▁Hêza	-10.9466
▁Hawar	-10.9469
low	-10.9473
▁rêwî	-10.9476
▁kevneşop	-10.9482
▁nerazî	-10.9486
▁kevtin	-10.9486
▁Pira	-10.9487
▁dişîne	-10.9489
▁Ebdulqadir	-10.9493
▁folklor	-10.9493
▁komputer	-10.9493
▁[12:3	-10.9493
▁[12:5	-10.9493
▁Brazîl	-10.9493
▁operasiyonê	-10.9494
▁Komkujiy	-10.9494
hid	-10.9494
▁wextê	-10.9494
▁Mîl	-10.9495
▁Duşembî	-10.9495
▁sosret	-10.9496
▁1941	-10.9496
▁ajalan	-10.95
▁pez	-10.9503
▁digere	-10.9504
▁wergir	-10.9504
▁budceyê	-10.9506
▁Ir	-10.9506
▁zar	-10.9507
▁pişkinînan	-10.9513
▁hozan	-10.9514
▁azadîya	-10.9515
▁xeta	-10.9516
▁pêşmergeyên	-10.9517
▁Best	-10.9518
fal	-10.9525
300	-10.9528
girtinê	-10.9528
Kurdistanê	-10.9533
sko	-10.9533
▁tîpa	-10.9535
▁Jen	-10.9536
sat	-10.9539
=1	-10.954
gay	-10.9541
.02.2012	-10.9544
▁WEZÎRA	-10.9544
▁edebiyat	-10.9544
▁helîkopter	-10.9544
▁çavkaniyên	-10.9544
▁bigihêje	-10.9544
▁GEREK	-10.9544
▁îlona	-10.9544
▁Stefan	-10.9545
▁Swedê	-10.9547
wîs	-10.9548
leq	-10.9549
koş	-10.9553
pejir	-10.9555
▁zûtirîn	-10.9555
▁Bac	-10.9556
▁Turkîya	-10.9558
▁xala	-10.956
▁gihîşt	-10.9561
▁Fuad	-10.9562
rojava	-10.9563
bajar	-10.9568
▁72	-10.957
▁Çêkirin	-10.9572
▁nan	-10.9572
sem	-10.9575
kut	-10.9578
▁AK	-10.9583
iyayî	-10.9583
ischen	-10.9584
guherîn	-10.9585
eno	-10.9586
▁;	-10.9587
zil	-10.9588
▁Heme	-10.9588
şîd	-10.9589
▁pêwîstî	-10.9589
nema	-10.9592
▁QANÛNA	-10.9594
▁televiziyon	-10.9594
▁zincîr	-10.9594
Îraqê	-10.9594
▁DIBE	-10.9597
▁Quranê	-10.9598
pus	-10.9599
rûs	-10.9607
dus	-10.9608
işk	-10.9615
ncî	-10.9616
▁xewn	-10.9623
▁Midyadê	-10.9625
warî	-10.9628
▁xez	-10.9628
▁şarî	-10.963
▁ronî	-10.9632
Kar	-10.9643
▁KURDÎ	-10.9644
▁ŞANDEYA	-10.9645
ج	-10.9645
▁fizîk	-10.9645
▁tawana	-10.9646
▁Kra	-10.9648
▁şane	-10.965
▁Arî	-10.9652
▁Şor	-10.9653
▁amadekirina	-10.9653
▁hefte	-10.9654
llo	-10.9655
▁Var	-10.966
▁azadiyê	-10.9661
▁His	-10.9662
▁gewr	-10.9668
▁Xw	-10.9673
▁11'	-10.9673
▁Gun	-10.9673
îma	-10.9676
▁Dînar	-10.9677
▁Islam	-10.9678
▁îroj	-10.9678
▁PEYWENDÎYÊ	-10.9681
▁Somal	-10.9682
ism	-10.9682
kiribû	-10.9684
▁enfal	-10.9686
▁Koreyaya	-10.9688
▁Almanî	-10.9693
▁[10:2	-10.9696
▁[15:0	-10.9696
▁[15:2	-10.9696
▁ÇEKDAR	-10.9696
xaz	-10.9698
▁civatê	-10.9698
▁Fadil	-10.9698
▁1933	-10.9699
nos	-10.9702
▁Xez	-10.9705
▁polîsek	-10.9715
▁qut	-10.9718
▁Mend	-10.9719
terê	-10.9727
▁nifûsa	-10.973
▁Çanda	-10.9732
▁girêdana	-10.9732
▁sad	-10.9732
▁hole	-10.9732
▁Israyelê	-10.9732
▁ewqas	-10.9733
▁şanoyê	-10.9734
▁çavdêrî	-10.9739
▁16'	-10.974
dora	-10.974
▁kuştî	-10.9742
▁Fl	-10.9745
▁element	-10.9746
▁9'	-10.9747
▁Berdewam	-10.9747
▁[15:4	-10.9747
▁rageyand	-10.9747
▁beyannameya	-10.9748
▁famîleyê	-10.9748
leb	-10.9749
▁Kombûn	-10.975
▁1944	-10.9751
▁dinivîse	-10.9751
▁1922	-10.9751
▁tevlîhev	-10.9752
▁from	-10.9753
gihînin	-10.9754
▁rojnamevanên	-10.9761
▁mijdar	-10.9762
ûdîye	-10.9763
▁dibistan	-10.9764
▁ragih	-10.9765
yum	-10.9765
▁ك	-10.9767
▁xwarina	-10.9769
▁reportê	-10.977
▁opozisiyon	-10.977
▁xwepêşandana	-10.977
▁Semsûr	-10.9773
▁Japan	-10.9776
stik	-10.9777
▁Pakîstanê	-10.978
▁Gever	-10.978
▁52	-10.9785
▁nexweşîya	-10.9785
▁dîwar	-10.9788
îlê	-10.9792
▁qur	-10.9792
▁Kelh	-10.9796
▁derb	-10.9796
▁hiqûq	-10.9799
▁[13:5	-10.9799
▁qonax	-10.9799
▁gil	-10.9799
▁Bakûrê	-10.98
▁tîrêj	-10.98
▁standinan	-10.98
▁(1928	-10.9805
▁Pers	-10.9806
▁dadwerîyê	-10.9808
▁kef	-10.9808
▁berhemê	-10.9811
▁Sûrîyeyê	-10.9812
▁REWŞA	-10.9813
▁sermaye	-10.9814
▁guher	-10.9815
▁Selah	-10.9815
▁ALÎ	-10.9819
▁resen	-10.982
▁Begê	-10.982
▁gal	-10.9821
▁Inter	-10.9824
▁Medya	-10.9826
▁giya	-10.9827
▁binçavkirin	-10.983
▁Evdil	-10.983
▁Sad	-10.9833
▁quşxaneyê	-10.9834
▁zanyarî	-10.9836
▁Leşkerî	-10.9837
Ho	-10.9838
▁agirbest	-10.9839
▁parvekirin	-10.9841
▁bazara	-10.9841
▁şahê	-10.9841
▁warî	-10.9842
:30	-10.9849
rix	-10.9849
▁Lîs	-10.985
▁ja	-10.985
.01.2012	-10.9851
▁daxuyaniyê	-10.9851
▁qezenc	-10.9851
▁rûviya	-10.9853
▁1943	-10.9854
▁otomobîla	-10.9855
▁Daxwaza	-10.9863
▁helbesta	-10.9866
▁tîm	-10.9868
▁sîn	-10.9869
dank	-10.9872
▁Sovyetan	-10.9872
▁Taw	-10.9884
▁fraksiyon	-10.9885
▁Xanedana	-10.9886
▁bı	-10.9886
▁neteweya	-10.9891
▁Dal	-10.9891
▁qal	-10.9891
▁gelêrî	-10.9896
▁digerin	-10.9897
▁nasname	-10.9898
.12.2012	-10.9903
▁Şîretkarê	-10.9903
▁HUKÛMETÊ	-10.9903
▁aboriya	-10.9903
▁Şeref	-10.9908
sîl	-10.9912
▁keşf	-10.9913
▁Rew	-10.9914
▁Part	-10.9915
▁Rh	-10.992
▁zanîngeh	-10.9921
gav	-10.9922
▁baregehê	-10.9922
ARÎ	-10.9925
▁Yan	-10.9926
▁Sak	-10.9929
▁raport	-10.9929
▁misilmanan	-10.993
îşk	-10.9931
▁digihê	-10.9932
▁herkes	-10.9933
▁Dihok	-10.9934
pas	-10.9935
▁Angel	-10.9936
▁komkujiya	-10.9939
▁Hezar	-10.994
DER	-10.9944
▁Zêr	-10.9944
ÎNÊ	-10.9945
▁Holand	-10.9947
▁Post	-10.9948
▁heke	-10.9948
tam	-10.9949
▁ewle	-10.9955
.07.2011	-10.9955
.10.2012	-10.9955
▁UTC	-10.9955
▁Sultan	-10.9955
▁pîrozbahî	-10.9955
▁Seddam	-10.9955
▁cotmeh	-10.9955
▁şunda	-10.9956
▁komkujî	-10.9956
▁sîxur	-10.9956
▁1952	-10.9958
int	-10.996
▁bexşa	-10.9965
naw	-10.9966
gram	-10.9966
▁Siltan	-10.9967
▁Xwar	-10.9968
▁nemaye	-10.9973
pûr	-10.9973
▁Kerem	-10.9976
ware	-10.998
▁şûr	-10.9981
-10	-10.9981
▁Uni	-10.9984
▁gola	-10.9984
▁bondê	-10.9989
▁ajal	-10.9989
▁Tehran	-10.999
▁rawestandina	-10.9999
riş	-11.0002
Crocidura	-11.0008
▁[15:3	-11.0008
▁Navnetewî	-11.0008
▁hormon	-11.0008
▁berbiçav	-11.0008
▁otonom	-11.0008
▁Melediyê	-11.0008
▁Îdirê	-11.0008
▁Mehma	-11.0009
▁Xelef	-11.0009
▁danîna	-11.001
▁bîyanî	-11.001
▁hertim	-11.0012
▁Max	-11.0013
▁xoy	-11.0015
▁mesele	-11.0016
▁dadgehkirin	-11.0017
▁hevdîtina	-11.0017
▁otomobîl	-11.0017
▁Sc	-11.0018
dew	-11.0018
xor	-11.0019
ole	-11.002
New	-11.0021
▁supa	-11.0022
DIN	-11.0025
▁xanim	-11.0028
ding	-11.0032
▁Rays	-11.0033
▁Neh	-11.0035
▁siyasetmedarê	-11.0037
▁bibû	-11.0038
▁şerekî	-11.0038
▁600	-11.0039
▁axaftinên	-11.0044
▁xwa	-11.0046
▁Xem	-11.0048
▁rêka	-11.0052
▁tak	-11.0052
▁Qeter	-11.0052
▁Turkiyê	-11.0054
▁hunermendê	-11.0057
ș	-11.0061
▁CELAL	-11.0061
▁Efrîqa	-11.0061
▁Mirgewer	-11.0061
▁NÊÇÎR	-11.0061
▁osmaniyan	-11.0061
▁tekoşîn	-11.0061
▁gelhe	-11.0063
▁Annan	-11.0064
▁leş	-11.0064
▁Perwer	-11.0066
çav	-11.0067
▁Kawe	-11.0072
zam	-11.0076
olojîk	-11.0079
▁pêve	-11.0082
uck	-11.0082
▁dabeşkirin	-11.0086
dax	-11.0088
▁Dawî	-11.0088
400	-11.0089
▁karanîna	-11.009
▁endaman	-11.0091
▁Nê	-11.0092
▁albûm	-11.0092
▁alîkarê	-11.0093
ér	-11.0097
▁mîn	-11.0098
▁giringîya	-11.01
▁zew	-11.0104
▁rêzên	-11.0105
▁Xirab	-11.0106
▁Netewî	-11.0108
EYÎ	-11.0108
▁tirş	-11.0108
▁IN	-11.0109
▁gilî	-11.0109
▁GO	-11.0109
в	-11.0113
.11.2012	-11.0114
▁Oderno	-11.0114
▁Çalakvan	-11.0114
▁milîtan	-11.0114
▁Binêre	-11.0114
▁GEL	-11.0116
▁nenaskirî	-11.0117
▁guherînên	-11.0117
▁1932	-11.0117
▁elektron	-11.0119
▁pêşkêşkirina	-11.012
nayê	-11.0121
▁Reh	-11.0122
▁Wext	-11.0124
▁46	-11.0124
qed	-11.0124
▁TEQÎNEK	-11.0126
▁wezaret	-11.0129
cle	-11.0132
)===	-11.0135
▁desthilatdarîyê	-11.0137
TV	-11.0137
▁Mitt	-11.0138
▁Kele	-11.0141
uri	-11.0145
WAR	-11.0147
xir	-11.0149
▁bîranînê	-11.0155
ÎYE	-11.0157
▁Hatine	-11.0158
▁topbarankirina	-11.0166
.06.2011	-11.0167
▁Facebook	-11.0167
▁[14:2	-11.0167
▁Bijîşk	-11.0167
▁semînar	-11.0167
▁Sîstanî	-11.0167
▁Xelkê	-11.0168
▁1908	-11.0173
ppe	-11.0173
ÎYAN	-11.0173
▁beşdarîkirin	-11.0175
▁temaşe	-11.0177
▁Festîvala	-11.0177
bes	-11.0178
▁Hur	-11.0179
▁Şû	-11.0179
▁Şemzînanê	-11.0179
eda	-11.0182
▁af	-11.0188
tax	-11.0193
▁ewledarî	-11.0194
fat	-11.0196
▁çarenivîsa	-11.0196
▁naskirî	-11.0196
▁Nîv	-11.0201
▁vekêşan	-11.0202
▁rêkxistina	-11.0204
▁Tîr	-11.0204
▁zivistan	-11.0207
png	-11.0208
▁xwepêşandanek	-11.0214
▁BAR	-11.0216
▁Sûdan	-11.0217
▁ELÎ	-11.0217
ū	-11.0221
▁PARÊZGEHA	-11.0221
▁werbigirin	-11.0221
▁nexwest	-11.0222
▁rêkevtinnameya	-11.0223
▁1939	-11.0225
gos	-11.0227
▁Turkî	-11.023
▁kompanya	-11.0232
Tu	-11.0234
veger	-11.0236
Bar	-11.024
▁Çîrokên	-11.0243
▁wenda	-11.0244
▁xwedîyê	-11.0247
▁Hû	-11.0253
▁Mec	-11.0254
▁Hindistan	-11.0256
Go	-11.0256
▁mijûl	-11.0257
▁carina	-11.0261
Yewnan	-11.0266
▁Diyarbekir	-11.0267
xuya	-11.027
▁aktor	-11.0271
▁Camp	-11.0272
▁zayend	-11.0275
▁Adiyemanê	-11.0275
▁çapameniyê	-11.0275
▁bakura	-11.0284
▁qay	-11.0285
ré	-11.0295
▁şoreş	-11.0295
▁çak	-11.03
hez	-11.0301
ة	-11.0303
MEN	-11.0304
▁şîyan	-11.0305
mêj	-11.0307
▁kujt	-11.0307
▁Band	-11.0308
▁dûrxistin	-11.0308
▁parlemanê	-11.0308
▁zanyarîyê	-11.0312
ju	-11.0312
▁corê	-11.0312
RI	-11.0313
0,000	-11.0322
▁xola	-11.0323
▁Goma	-11.0325
▁Kong	-11.0327
▁akademî	-11.033
▁standard	-11.033
án	-11.0331
ست	-11.0333
▁1931	-11.0333
▁Herwekî	-11.0334
▁xwezayê	-11.0334
▁Hekariyê	-11.0336
ANDIN	-11.0337
▁xweda	-11.0338
inae	-11.0339
▁agirê	-11.034
▁Kelar	-11.0342
▁raste	-11.0346
▁çîrokan	-11.0346
▁erdhejê	-11.0347
▁Boy	-11.0353
▁şên	-11.0362
▁Şand	-11.0365
▁xera	-11.0366
▁înê	-11.0367
▁derya	-11.0374
▁destwerdan	-11.0377
▁şîret	-11.0381
tidae	-11.0384
▁Kûba	-11.0384
.01.2013	-11.0384
▁didomîne	-11.0384
▁BIRYAR	-11.0384
▁nehiştina	-11.0384
▁Tre	-11.0386
vîzyon	-11.0387
▁bibêje	-11.0387
▁ل	-11.039
▁Destpêk	-11.039
▁pîşe	-11.0392
phyll	-11.0395
▁Beşdar	-11.0395
rme	-11.04
▁(11	-11.0401
▁başur	-11.0403
▁sekinandin	-11.0404
▁44	-11.0406
wîst	-11.0409
ista	-11.0411
▁têbînî	-11.0411
ograf	-11.0415
herêma	-11.0416
▁Heleb	-11.0417
▁Rêveber	-11.0418
▁Qesra	-11.0425
▁Karê	-11.0427
▁Aus	-11.0427
▁şeşem	-11.043
▁sînema	-11.0431
▁gundiyan	-11.0437
▁Bedlîsê	-11.0439
▁ZÊBARÎ	-11.0439
▁ر	-11.0439
▁paraztin	-11.044
hna	-11.0441
▁Hejmar	-11.0443
GEH	-11.0446
▁xak	-11.0446
▁corane	-11.0447
zêr	-11.0452
▁şoreşger	-11.0453
▁Shi	-11.0454
▁nexşe	-11.0454
▁Çavdêr	-11.0455
▁komela	-11.0455
lûk	-11.0456
geş	-11.0458
reşk	-11.0464
▁nivîsiye	-11.0464
urus	-11.0466
▁saya	-11.0468
▁lêdan	-11.0471
▁şem	-11.0471
RT	-11.0472
▁Dîmeşqê	-11.0475
▁with	-11.0477
zêde	-11.0481
▁Şan	-11.049
▁Bexdad	-11.0491
tinên	-11.0493
▁ت	-11.0493
▁aşkera	-11.0494
▁Biyolojî	-11.0495
▁Kay	-11.0496
▁bigrin	-11.0496
▁Edîb	-11.0497
▁Şebek	-11.0497
▁filmê	-11.05
▁koda	-11.0501
kit	-11.0502
▁balyoz	-11.0504
YAD	-11.0506
▁alozî	-11.0506
omat	-11.0509
ops	-11.051
▁mîrê	-11.0511
▁Polat	-11.0512
vaniyê	-11.0515
▁Demir	-11.0518
▁Cil	-11.052
had	-11.052
grê	-11.0521
▁penaberan	-11.0521
mîna	-11.0522
▁Teyran	-11.0522
▁DO	-11.0522
▁pêşkevtin	-11.0522
cl	-11.0523
▁Hind	-11.0525
▁hatibe	-11.0528
▁hilbijart	-11.0532
▁xweşik	-11.0534
EKÊ	-11.0536
öl	-11.0538
▁doktor	-11.0538
▁lîstin	-11.0541
▁xistiye	-11.0541
▁mis	-11.0546
▁darayîyê	-11.0547
▁Qey	-11.0548
▁Malbat	-11.055
▁BRÎTANIYA	-11.055
▁Kişanak	-11.055
▁perliyament	-11.055
▁Îtalî	-11.0551
pha	-11.0551
▁Flora	-11.0551
▁mekanîk	-11.0551
▁balinde	-11.0552
ode	-11.0553
▁1936	-11.0553
▁1928	-11.0554
fl	-11.0554
▁binê	-11.0556
▁DIHÊ	-11.0559
▁gengeşekirin	-11.056
▁Sumer	-11.0563
▁nîşt	-11.0565
▁hay	-11.0573
sci	-11.0574
oto	-11.0574
▁serkeftin	-11.0575
▁Por	-11.0576
PAR	-11.0578
▁beşan	-11.0585
▁Dost	-11.0587
Ch	-11.0588
▁sent	-11.0589
▁alîkariyê	-11.0591
▁kam	-11.0594
graf	-11.06
▁koça	-11.0601
▁xwenîşander	-11.0602
FF	-11.0604
his	-11.0605
▁dîktator	-11.0606
▁zilm	-11.0607
▁hun	-11.0608
▁aheng	-11.0608
▁afirand	-11.061
▁Lady	-11.0613
▁têkeliyên	-11.0613
▁nexweşiyên	-11.0615
BDP	-11.0616
▁10'	-11.0619
▁kele	-11.0622
bêt	-11.0624
▁hilweşandin	-11.0625
▁bisekinê	-11.0627
▁parlemana	-11.0637
GER	-11.0642
▁taybetmend	-11.0644
▁Cotmeh	-11.0645
▁Libnan	-11.0645
mond	-11.0648
ters	-11.0648
▁Kad	-11.0648
▁Şev	-11.0652
▁Ober	-11.0659
ewr	-11.0661
demî	-11.0662
λ	-11.0662
▁Qoretû	-11.0662
▁Erdhej	-11.0662
▁Siyaset	-11.0663
▁1951	-11.0665
ları	-11.0665
stiyan	-11.0666
▁êşkence	-11.0666
▁avahîya	-11.0667
▁festîvalê	-11.0668
▁lêkolîna	-11.0669
▁hevkarîyê	-11.0671
▁Endamekî	-11.0672
UH	-11.0673
▁Tah	-11.0673
▁Jêrîn	-11.0674
200	-11.0678
▁Wie	-11.0682
▁kolon	-11.0687
▁Ton	-11.0691
▁hevpeymanîyê	-11.0692
▁tuneye	-11.0693
▁cin	-11.0695
cîh	-11.0699
▁bêt	-11.0702
▁4'	-11.0706
▁civaknas	-11.0706
▁helwêsta	-11.0708
▁rojnamevanîya	-11.0709
cke	-11.071
▁dînî	-11.071
sum	-11.0712
▁cemawer	-11.0718
▁ElşerqElewset	-11.0718
▁FRAKSIYON	-11.0718
▁[15:1	-11.0718
▁werdigire	-11.0718
ə	-11.0718
▁baregeha	-11.0718
▁kîlometre	-11.0719
▁nebûne	-11.0719
▁cihanê	-11.0719
roka	-11.0719
▁DESTÛR	-11.0719
▁fêm	-11.0719
▁Feqiy	-11.072
▁bizanin	-11.072
▁dîplomat	-11.072
▁nerazîbûn	-11.0721
▁xeyal	-11.0722
BAR	-11.0722
▁Derhêner	-11.0722
▁Sedam	-11.0726
nameyên	-11.0729
dide	-11.073
▁felsef	-11.073
dag	-11.073
▁Aslan	-11.0731
mun	-11.0733
▁berxwedan	-11.0735
omb	-11.0737
▁7'	-11.0737
▁?	-11.0737
▁Sedir	-11.0739
HO	-11.074
KÎ	-11.0742
uq	-11.0742
ith	-11.0742
▁dagirker	-11.0743
engî	-11.0745
▁çay	-11.0745
▁meşandin	-11.0748
▁çareyek	-11.0749
▁Pakistan	-11.0758
▁rêveberê	-11.0759
Gu	-11.0761
siyan	-11.0762
▁vegerandin	-11.0763
▁Air	-11.0763
▁Tevî	-11.0766
▁havîna	-11.0766
▁mamosteyê	-11.0767
▁Polîsên	-11.0767
avêj	-11.0768
▁seh	-11.0769
▁Xezal	-11.077
uv	-11.0774
▁Rewşen	-11.0775
▁nebûna	-11.0775
▁Îskender	-11.0775
▁Parêzgarê	-11.0775
▁îlonê	-11.0775
▁dişibe	-11.0775
▁Polonya	-11.0775
▁Mensûr	-11.0776
▁festîvala	-11.0777
▁Netew	-11.0777
▁dêrendaza	-11.0778
▁derdixe	-11.0778
▁DAWÎ	-11.0779
▁felsefeyê	-11.0782
▁Jîn	-11.0782
2009	-11.0783
▁esman	-11.0784
▁bandorê	-11.0785
▁Biçûk	-11.0785
▁qew	-11.0786
rij	-11.0786
▁Ref	-11.0787
▁Tewafuq	-11.079
▁pêşinyara	-11.0792
birr	-11.0796
▁bihata	-11.0797
▁pejirand	-11.0798
▁name	-11.08
▁jêder	-11.0803
▁betal	-11.0803
▁gotarekê	-11.0804
▁Paris	-11.0808
▁avakirinê	-11.0816
▁hevdîtinek	-11.0821
ici	-11.0822
▁pis	-11.0824
▁bernameyek	-11.0826
kurdistan	-11.0827
▁Jixwe	-11.0827
▁Xwê	-11.0828
▁qanûnek	-11.0828
.12.2011	-11.0832
▁xiristiyan	-11.0832
▁Danîmark	-11.0832
▁daxuyanîya	-11.0832
şme	-11.0832
▁Sersink	-11.0833
▁ÇARESERKIRIN	-11.0833
▁investkarîyê	-11.0834
▁beyannameyê	-11.0834
▁pûç	-11.0834
▁47	-11.0835
uwe	-11.0836
▁Peyva	-11.0836
xwer	-11.0838
rojhilat	-11.084
▁xebatkar	-11.0841
▁bajarok	-11.0842
▁şûnde	-11.0848
▁bêjin	-11.0857
▁Japanê	-11.0861
▁mebest	-11.0863
▁xane	-11.0865
▁yarî	-11.0865
rahîm	-11.0866
sdorf	-11.0867
▁pêncem	-11.0868
▁ayîn	-11.0868
KO	-11.087
▁Afrîkaya	-11.0874
▁Land	-11.0876
▁Baybûrd	-11.0876
bawer	-11.0876
CE	-11.0877
▁``	-11.0879
▁derkevt	-11.0879
▁Germ	-11.088
▁Tew	-11.088
▁diket	-11.0881
sky	-11.0889
.04.2012	-11.089
.05.2012	-11.089
▁berjewendiyê	-11.089
▁alikariya	-11.089
▁Zanyar	-11.0891
IYAN	-11.0891
▁bişînin	-11.0891
▁şehîdên	-11.0893
▁mayî	-11.0895
▁Him	-11.0895
▁Qayde	-11.0897
▁bendên	-11.09
irin	-11.0901
xal	-11.0903
▁8'	-11.0908
IK	-11.0912
▁pêşangehê	-11.0916
▁Şemo	-11.0919
▁Evdal	-11.0919
(19	-11.0923
▁14'	-11.0924
Lo	-11.0928
▁Des	-11.093
▁gerdûnê	-11.0931
hîne	-11.0936
gerin	-11.0936
▁rastîn	-11.0937
tok	-11.0938
▁Yê	-11.094
▁Hy	-11.0941
-12	-11.0942
rid	-11.0943
▁Kamer	-11.0944
▁derkevtin	-11.0946
▁Bri	-11.0947
.05.2011	-11.0948
▁Awistralya	-11.0948
▁Ebdurehman	-11.0948
▁[21:2	-11.0948
▁CIHGIRÊ	-11.0948
▁sebaret	-11.0948
▁Hewîce	-11.0948
▁Bêr	-11.0949
▁radyoya	-11.095
▁Şeh	-11.095
▁deryaya	-11.0951
▁1929	-11.0951
▁ewropa	-11.0951
▁1921	-11.0952
Dem	-11.0954
▁dawet	-11.0955
▁Evîn	-11.0956
▁baxçe	-11.0956
▁Hikûmet	-11.096
▁kiç	-11.0962
▁rêkê	-11.0964
şîne	-11.0965
▁Nifûs	-11.0965
ille	-11.0966
▁televizyon	-11.0966
▁Sindî	-11.0966
▁qurbanîyan	-11.0968
▁Bekir	-11.0968
▁rêkevtinekê	-11.0969
ient	-11.0973
Kur	-11.0975
▁leşkerekî	-11.098
▁ketina	-11.0982
▁tax	-11.0984
▁Hemedan	-11.0984
▁Mot	-11.0985
▁Êzîdî	-11.0986
DI	-11.0987
▁jorîn	-11.0987
▁Çapa	-11.0989
qat	-11.0989
▁Win	-11.099
ston	-11.099
▁bûrî	-11.0992
▁Şemzînan	-11.0993
şen	-11.0995
▁jîyane	-11.0995
ning	-11.0997
bayê	-11.0998
▁şop	-11.0998
pur	-11.0998
▁qonaxek	-11.1
▁Çel	-11.1004
bînî	-11.1005
▁Mêzgirê	-11.1006
▁dinirxîne	-11.1006
▁POSTA	-11.1006
▁terorizmê	-11.1006
yun	-11.1009
▁DYE	-11.1009
▁Kevir	-11.101
▁Heke	-11.1012
▁Azerbaycan	-11.1012
ARÊ	-11.1014
▁Mûş	-11.1014
▁Netewên	-11.1016
▁Hei	-11.1018
▁giyanî	-11.1019
▁fermanber	-11.1023
ense	-11.1025
▁gengeşekirina	-11.1027
▁peqîna	-11.1036
▁piştê	-11.1037
▁Bask	-11.1039
tirk	-11.1041
▁poz	-11.1041
ifer	-11.1043
▁Yorkê	-11.1044
▁nişt	-11.1045
beg	-11.1054
teyê	-11.1063
▁dewleteke	-11.1064
▁YKSS	-11.1064
▁National	-11.1064
▁nîsana	-11.1064
▁Yewnanistan	-11.1064
▁Belavbûn	-11.1064
▁Dezgeh	-11.1066
▁Krist	-11.1066
▁nehêlin	-11.1067
▁Carl	-11.1067
xaneyek	-11.1068
▁demarexane	-11.1069
▁Çol	-11.107
▁jimara	-11.107
▁buye	-11.1071
krat	-11.1072
▁bihorî	-11.1073
▁17'	-11.1073
▁hêmin	-11.1073
▁har	-11.1075
▁gelo	-11.1076
▁xû	-11.1078
▁Gam	-11.1079
sîp	-11.1084
▁tora	-11.1085
▁tevayî	-11.1087
▁guhdarî	-11.1088
▁gulan	-11.1088
▁zaravayên	-11.1089
bla	-11.1089
roman	-11.1089
▁Ph	-11.1089
▁guherîna	-11.1089
▁Almaniyayî	-11.1091
▁Rez	-11.1096
jna	-11.1097
▁bazar	-11.1097
▁Şir	-11.1098
▁Îslamîya	-11.1101
▁siwar	-11.1102
▁Hîn	-11.1103
▁mak	-11.1104
▁berxwedana	-11.1106
▁liqa	-11.1106
▁rabû	-11.1106
▁dibistanên	-11.1109
▁nêrîn	-11.1109
▁heywanan	-11.111
▁tengav	-11.1111
▁derbasbûna	-11.1116
▁stûyê	-11.1116
▁çareserîya	-11.1118
▁Şotê	-11.1119
▁taxê	-11.1122
▁(2012)	-11.1123
▁Cegerxwîn	-11.1123
▁OBAMA	-11.1123
▁Serokkomar	-11.1123
▁wesif	-11.1123
▁ramyar	-11.1124
îstanê	-11.1125
▁Navbera	-11.1125
bax	-11.1128
▁helwêst	-11.1134
▁cudayên	-11.1134
▁kêş	-11.1134
Elî	-11.1136
▁namzedê	-11.114
▁lêpirsînê	-11.1142
▁xur	-11.1145
=0	-11.1145
▁Mul	-11.1146
ves	-11.1146
bît	-11.1153
▁hoz	-11.1154
sans	-11.1154
▁Xerab	-11.1158
▁bindest	-11.1158
▁Jiber	-11.1159
dikeve	-11.1159
▁xistine	-11.116
keş	-11.1161
hew	-11.1162
▁Dana	-11.1162
▁Aktor	-11.1163
▁dilovan	-11.1166
lig	-11.1168
▁dîtine	-11.1172
▁faris	-11.1173
▁ramana	-11.1176
▁sosyal	-11.1177
mendî	-11.1177
▁Romayê	-11.1179
PA	-11.1182
▁Lîceyê	-11.1182
▁Penaber	-11.1183
▁dixwin	-11.1183
▁Xoş	-11.1184
.09.2011	-11.1185
▁Pala	-11.1185
▁Deniz	-11.1185
▁parzemîna	-11.1186
▁bilindên	-11.1188
▁navperê	-11.1189
▁viya	-11.1189
▁dosyayên	-11.119
Hu	-11.1193
▁Beşîr	-11.1195
▁nêzik	-11.1197
▁salek	-11.1201
▁Hus	-11.1202
▁Time	-11.1207
zayî	-11.1211
rator	-11.1212
▁Pre	-11.1213
mirov	-11.1213
dariyê	-11.1214
▁dibûn	-11.1214
lly	-11.1214
▁neft	-11.1215
▁herêmeke	-11.1217
▁serbilind	-11.1222
▁konferansa	-11.1227
▁rastiya	-11.1228
xîne	-11.1232
▁awaz	-11.1236
▁belavbûn	-11.1237
frac	-11.1238
▁bûyerek	-11.1238
à	-11.1242
▁Berfanbar	-11.1242
▁Cehzeran	-11.1242
▁Atlantîk	-11.1242
▁navbêra	-11.1242
▁ewropî	-11.1242
▁rasterast	-11.1242
▁teqemenî	-11.1243
▁Xidir	-11.1244
▁dilgiranîy	-11.1245
▁otomobîlek	-11.1246
▁bilindtir	-11.1247
▁Bila	-11.1247
▁1914	-11.1247
▁1917	-11.1247
▁mat	-11.1248
▁CIH	-11.1248
▁kevtine	-11.1249
xer	-11.1249
▁Enbar	-11.1249
çir	-11.1251
diye	-11.1251
▁Cinsê	-11.1251
rûş	-11.1253
▁Felestîn	-11.1255
▁Dur	-11.1255
▁şervan	-11.1259
▁Stewrê	-11.1278
▁bereya	-11.1281
▁daran	-11.1283
▁lew	-11.1285
yû	-11.1287
▁keyê	-11.1297
▁Elkê	-11.1298
olo	-11.1299
▁Kaniyê	-11.13
UL	-11.1301
dak	-11.1301
▁Atatürk	-11.1302
▁firehnijad	-11.1302
▁Album	-11.1302
▁henase	-11.1302
▁Sadiq	-11.1303
ÎNIN	-11.1304
▁Fransayî	-11.1305
▁Îmad	-11.1306
▁lîstikê	-11.1309
NO	-11.131
▁otomobîleka	-11.1312
zanîn	-11.1314
▁Jorîn	-11.1318
atus	-11.132
sı	-11.1323
Tirkiyeyê	-11.1327
▁pêşveçûnên	-11.1327
▁Şehr	-11.1332
▁wênesaz	-11.1334
didin	-11.1334
▁gewre	-11.1336
▁kurte	-11.134
▁Wei	-11.1341
▁ciwanên	-11.1342
▁18'	-11.1345
bayî	-11.1348
biharat	-11.1351
▁stûr	-11.1357
▁awayek	-11.1357
▁xwepêşander	-11.1359
▁[10:1	-11.1362
▁HEMÛ	-11.1362
▁diplomatîk	-11.1362
▁weberhênan	-11.1362
▁Melkert	-11.1362
▁tebaxa	-11.1362
3.2012	-11.1362
▁Mijdar	-11.1362
▁samanên	-11.1362
▁şexs	-11.1362
▁Lêbelê	-11.1362
▁dervey	-11.1363
▁diparêze	-11.1363
▁Cewad	-11.1364
ferî	-11.1365
▁hesp	-11.1367
▁Konsey	-11.1371
▁cinsê	-11.1371
PKK	-11.1372
▁azadîyê	-11.1372
▁Bêje	-11.1372
eni	-11.1372
ûq	-11.1373
▁qaz	-11.1373
▁binpê	-11.1375
té	-11.1379
▁dol	-11.1382
çûk	-11.1382
itz	-11.1386
dîtin	-11.1388
zeyê	-11.139
▁Alban	-11.139
diz	-11.1391
▁PAR	-11.1391
spî	-11.1394
▁Hama	-11.1395
TH	-11.1401
▁bajarek	-11.1402
▁hûrik	-11.1404
▁kolanan	-11.1404
act	-11.1405
▁jidest	-11.1406
▁derfetên	-11.1408
▁Çekdar	-11.1409
DC	-11.1411
▁raportek	-11.1411
ال	-11.1416
▁56	-11.1419
▁binemala	-11.1419
▁Qanûna	-11.1421
▁Cho	-11.1422
EVAN	-11.1422
▁Kuridstanê	-11.1422
▁operasiyona	-11.1422
▁karsaz	-11.1423
▁peyamnêr	-11.1423
▁(2011)	-11.1424
▁asayiş	-11.1424
▁bersîv	-11.1426
▁şare	-11.1426
viyê	-11.1427
▁dîplomatîk	-11.1429
BÛ	-11.1433
▁wesa	-11.1437
▁Mîranî	-11.1438
vanekî	-11.144
▁lînk	-11.144
cad	-11.144
▁3-4	-11.1441
▁Fizîkê	-11.1441
▁Birayê	-11.1442
▁çînî	-11.1443
▁pîvana	-11.1444
▁Mey	-11.1447
gas	-11.1452
▁Meys	-11.1453
▁Şakir	-11.1454
▁lêker	-11.1454
ÎL	-11.1462
▁deriyê	-11.1463
wiki	-11.1463
▁şeh	-11.1464
▁Pis	-11.1464
cam	-11.1465
▁Seb	-11.1465
▁Erk	-11.1465
▁Zêde	-11.147
▁hilda	-11.1476
zey	-11.1477
▁turk	-11.1481
▁[10:0	-11.1483
▁[21:1	-11.1483
▁biharbêhn	-11.1483
▁mişext	-11.1483
▁Google	-11.1483
▁*****	-11.1484
▁Ebdulezîz	-11.1484
▁Biratîya	-11.1484
▁îdam	-11.1487
▁taybetmendiyên	-11.1488
rayî	-11.1491
▁telefon	-11.1491
▁Gül	-11.1492
▁Gewr	-11.1493
▁jiyaye	-11.1494
▁Gorran	-11.1495
▁Dü	-11.1498
miz	-11.1506
▁tirsa	-11.1511
▁riwekê	-11.1511
çiya	-11.1512
▁Dîwana	-11.1515
▁Medyay	-11.1517
▁Nar	-11.1528
▁koman	-11.1531
▁Rob	-11.1531
▁çaw	-11.1533
▁gotinan	-11.1533
▁American	-11.1535
▁astek	-11.1535
ewan	-11.1537
sburg	-11.1541
▁îslamîya	-11.1542
▁Milazgir	-11.1545
▁bikartînin	-11.1545
▁xelîfe	-11.1545
▁dixwazim	-11.1545
▁enzîm	-11.1545
▁azerî	-11.1546
ojen	-11.1548
▁Nebî	-11.1548
▁haya	-11.155
▁nuner	-11.1553
▁band	-11.1555
bixwîne	-11.1556
▁binêre	-11.1557
▁Xerzan	-11.1562
▁49	-11.1563
▁|1	-11.1568
▁çêbûye	-11.1568
▁Ruh	-11.157
▁gefên	-11.1571
▁Tro	-11.1573
▁binpêkirina	-11.1574
▁mirovahî	-11.1575
▁keştî	-11.1576
▁Andre	-11.1578
▁qey	-11.1581
bêl	-11.1588
▁tine	-11.159
▁Jînenîgarî	-11.1591
▁demî	-11.1597
▁dengdan	-11.16
TINA	-11.1604
▁Ray	-11.1606
cm	-11.1606
▁NÊZÎK	-11.1606
▁Futbol	-11.1606
▁Linux	-11.1607
▁Rûpel	-11.1608
▁birêvebirin	-11.1608
▁armancê	-11.1609
▁şil	-11.1611
dyo	-11.1619
▁hoy	-11.1621
▁Hej	-11.1625
köy	-11.1631
▁hewldan	-11.1633
▁tevay	-11.1634
▁Sefer	-11.1635
enbach	-11.1641
▁nahiy	-11.1642
▁zûtir	-11.1644
▁atomîy	-11.1644
▁goristan	-11.1646
▁belavkirina	-11.1647
▁Muk	-11.1647
▁radyo	-11.1648
▁pîs	-11.1648
▁gîyan	-11.1648
▁Berpirs	-11.1649
▁dibistanan	-11.165
▁Jêderek	-11.1653
▁bidestxistin	-11.1656
▁»	-11.1656
▁demkî	-11.1658
▁lîstik	-11.1659
▁Destûr	-11.166
▁şêweyek	-11.1661
▁Iran	-11.1661
▁Pars	-11.1663
wel	-11.1665
▁ELLAWÎ	-11.1669
▁Orşelîm	-11.1669
▁PÊKANÎNA	-11.1669
▁Hizbullah	-11.1669
▁Yezdan	-11.1669
▁Ebdulrehman	-11.1669
▁famîleyek	-11.167
▁Fizîknas	-11.167
Per	-11.1671
▁nûjdar	-11.1671
▁TRT	-11.1672
▁6'	-11.1673
▁Cir	-11.1673
XAN	-11.1676
wekî	-11.1677
xwa	-11.1677
▁hewildan	-11.1682
▁zindanê	-11.1682
FER	-11.1683
▁rêje	-11.1686
▁Deme	-11.1687
▁Bîl	-11.1688
oq	-11.1688
ville	-11.1689
▁serhejmarîyê	-11.1689
liyan	-11.169
▁rewşenbîrên	-11.169
hej	-11.1693
▁normal	-11.1695
esor	-11.1696
▁Wall	-11.1696
▁hevalê	-11.1697
▁Ang	-11.1697
▁derdorê	-11.1697
▁mîl	-11.1698
▁Înê	-11.1698
▁Bend	-11.1704
▁rastîyê	-11.1705
▁21'	-11.1711
hîşt	-11.1713
▁zêdeyî	-11.1715
▁It	-11.1716
▁berevanî	-11.1717
îstî	-11.1717
ID	-11.1723
▁Brit	-11.1723
hîn	-11.1723
▁Com	-11.1723
▁kontrolkirin	-11.1725
▁PEN	-11.1725
▁tijî	-11.1727
▁pêzanînan	-11.1728
ccTLD	-11.1731
ddffdd	-11.1731
я	-11.1731
▁Istanbul	-11.1731
▁bêhempa	-11.1731
▁Friedrich	-11.1731
▁Serxwebûn	-11.1731
▁buhayê	-11.1732
▁Kujtin	-11.1732
▁rojnameyek	-11.1732
▁Beyatî	-11.1732
▁2004'	-11.1733
▁têkçûna	-11.1734
▁RÊKEVTINA	-11.1735
▁pêzanîn	-11.1739
▁California	-11.174
▁Memê	-11.1742
şûr	-11.1742
»	-11.1743
▁şahî	-11.1744
Ziman	-11.1744
▁North	-11.1748
▁dahatî	-11.1748
▁sekin	-11.1749
▁Temo	-11.1749
▁his	-11.1752
▁Hans	-11.1752
▁bijîn	-11.1752
Kurdî	-11.1755
▁Usam	-11.1755
▁Pra	-11.1756
▁Dol	-11.1757
▁çiyayî	-11.1759
▁63	-11.1759
▁balê	-11.176
▁Xuda	-11.176
▁DEWLETA	-11.1763
▁Leşkerê	-11.1764
▁pêşketinên	-11.1765
▁karkir	-11.1766
▁—	-11.1775
▁zaro	-11.1779
cot	-11.1783
ور	-11.1784
▁Usame	-11.1784
tive	-11.1784
bro	-11.1786
å	-11.1789
▁girêda	-11.1789
▁Xorasan	-11.1791
▁Jimar	-11.1792
▁çavê	-11.1794
ffffff	-11.1794
▁PÊŞMERGE	-11.1794
▁hukum	-11.1794
▁nexoş	-11.1794
▁nûneratîya	-11.1795
▁selete	-11.1796
▁Radyoy	-11.1797
▁Dîwan	-11.1797
▁milletê	-11.1798
▁Mekeyê	-11.1798
▁mirovahiyê	-11.1802
▁sumer	-11.1802
▁raportê	-11.1802
▁girtîgeha	-11.1804
▁aliyek	-11.1805
▁canê	-11.1806
▁Esîl	-11.181
bînim	-11.1811
▁peş	-11.1812
wayî	-11.1812
▁budce	-11.1813
▁keleh	-11.1814
▁rêkxistin	-11.1817
ort	-11.1821
▁pop	-11.1821
▁Cure	-11.1827
▁alaya	-11.1827
▁nedin	-11.1828
salî	-11.1833
ango	-11.1836
▁pêncşemb	-11.1838
▁rakirina	-11.1838
▁namzed	-11.1839
▁bank	-11.184
thi	-11.1848
▁hişyarî	-11.1851
iştin	-11.1855
▁navendek	-11.1856
п	-11.1857
▁Daryûs	-11.1857
▁HEGER	-11.1857
▁dixebitin	-11.1857
▁veguhaztin	-11.1857
voka	-11.1858
▁dixwîne	-11.1858
▁şikeft	-11.186
▁ermeniyan	-11.1861
zor	-11.1863
▁lêkolîner	-11.1866
▁hukûmî	-11.1869
malî	-11.187
In	-11.1871
old	-11.1875
kewt	-11.1875
▁Stêr	-11.1875
rban	-11.1878
▁Koda	-11.188
▁Bank	-11.1882
▁topbarankirin	-11.1885
▁pers	-11.1895
▁lêborînê	-11.1896
ive	-11.1898
Bu	-11.1902
▁Qez	-11.1904
▁heftem	-11.1907
olîtîk	-11.1908
▁bixwîne	-11.1911
▁Seyf	-11.1916
▁dîwarê	-11.1918
▁arêşedar	-11.1919
▁digihîje	-11.1921
.99%	-11.1921
▁König	-11.1921
▁Rexne	-11.1921
IT	-11.1921
▁Tewrat	-11.1922
▁Surya	-11.1922
▁Ronahî	-11.1922
▁Freud	-11.1922
kevçiyê	-11.1923
▁64	-11.1926
bang	-11.1928
▁tol	-11.1929
şim	-11.1933
▁serhejmarîya	-11.1943
media	-11.1944
▁57	-11.1946
cell	-11.195
hêl	-11.1952
▁zirar	-11.1955
▁Seray	-11.1957
▁Çinara	-11.1957
▁Babîl	-11.1958
▁referandumê	-11.196
şû	-11.1962
999	-11.1962
kı	-11.1963
▁Tirkîyeyê	-11.1963
▁yasayê	-11.197
ÇE	-11.1972
▁giringî	-11.1975
▁cihekê	-11.1979
▁Aj	-11.198
▁Japonê	-11.1983
▁Pin	-11.1983
▁avêt	-11.1983
▁Berlînê	-11.1984
▁qurbanê	-11.1984
▁Astronom	-11.1985
▁Lîtvanya	-11.1985
▁Frankfurt	-11.1985
▁(2009)	-11.1985
▁nizm	-11.1986
▁digrin	-11.1987
▁Henry	-11.1987
▁pêşandan	-11.1989
▁Albert	-11.199
▁havînê	-11.199
leman	-11.1992
▁CE	-11.1992
ces	-11.1993
▁Hezro	-11.1993
▁gulebaran	-11.1994
▁navxweyîyên	-11.1995
▁pêr	-11.1999
▁ENDAM	-11.2002
▁bergiriy	-11.2005
▁herçar	-11.2005
▁albûmê	-11.2005
▁gerîla	-11.2005
▁Heyv	-11.2005
tv	-11.2008
▁banka	-11.2011
▁destnîşankirî	-11.2013
▁Seh	-11.2014
▁xwedayê	-11.2021
▁hefteyek	-11.2025
▁îranê	-11.2027
▁Ziya	-11.2029
▁gengeşeyê	-11.2033
▁duv	-11.2035
▁oldarî	-11.2042
▁op	-11.2042
ë	-11.205
▁Wîkîpediya	-11.205
▁KCD	-11.205
▁Çareser	-11.205
▁BEHS	-11.205
▁bikelînin	-11.205
▁2'	-11.205
▁Kemax	-11.205
▁Êzid	-11.205
▁Qayîde	-11.205
▁veşandî	-11.205
▁radigihînin	-11.2051
▁serekîya	-11.2051
▁pirtûkan	-11.2052
▁Tayyi	-11.2053
▁Ermeniyan	-11.2053
▁Zarokên	-11.2055
▁rahênan	-11.2055
▁Award	-11.2056
▁1912	-11.2057
baba	-11.2057
lke	-11.2059
▁ragehandin	-11.2061
▁Kitab	-11.2062
oides	-11.2062
▁Ast	-11.2063
şev	-11.2068
▁madeyên	-11.2073
pak	-11.2074
▁planek	-11.2075
mah	-11.2075
▁dax	-11.2076
▁geh	-11.2081
▁tewer	-11.2082
▁bihîstin	-11.2082
▁background	-11.2084
▁Wezîr	-11.2087
wald	-11.2088
▁hevjîna	-11.2088
▁Ewrûpa	-11.2093
▁ajansên	-11.2095
▁sist	-11.2095
ries	-11.2098
onia	-11.21
▁IRAQ	-11.2105
▁nekarî	-11.2105
``	-11.2106
▁Lîste	-11.2106
μ	-11.2114
▁ASAYIŞ	-11.2114
▁Berdevkê	-11.2114
▁Lavrov	-11.2114
▁Taliban	-11.2115
▁şehreza	-11.2115
▁êzîdî	-11.2115
ZAN	-11.2115
▁Bardîz	-11.2115
▁Pêwîst	-11.2115
▁agehdar	-11.2116
▁maweyek	-11.2116
▁Îmarat	-11.2116
▁rohn	-11.2116
▁Kesk	-11.2117
▁zaf	-11.2117
▁Kristof	-11.2118
ign	-11.2123
▁êk	-11.2124
▁şêniyê	-11.2125
▁komkujiyê	-11.2125
▁Berlîn	-11.2127
Amerîka	-11.2129
hejmar	-11.213
▁ab	-11.213
▁Qersê	-11.2133
izmê	-11.2135
▁Hz	-11.2137
▁sibatê	-11.2146
▁xeber	-11.2147
îteya	-11.2149
▁qezay	-11.2155
kirîye	-11.2156
▁serekîyê	-11.2156
▁opozîsyonê	-11.216
▁Nifûsa	-11.216
▁Not	-11.216
▁Ço	-11.216
▁Nûçe	-11.2164
▁13'	-11.2164
darîyê	-11.2166
▁Hewa	-11.2166
▁qul	-11.217
▁Selam	-11.217
GEHA	-11.2172
xel	-11.2174
qewim	-11.2177
▁Kolik	-11.2177
▁53	-11.2179
▁Bextyar	-11.218
▁demokrasiyê	-11.218
▁tenduristiy	-11.218
▁medrese	-11.218
▁mîkro	-11.218
▁angaşt	-11.218
ük	-11.218
▁Dilovan	-11.2181
▁lîmf	-11.2181
▁Yaney	-11.2181
▁Gulanê	-11.2182
▁reportek	-11.2182
▁March	-11.2183
▁Hevdem	-11.2183
▁1942	-11.2184
▁zevî	-11.2188
▁Haşim	-11.2189
▁sond	-11.219
▁hewal	-11.219
Sûr	-11.2191
cas	-11.2191
▁Tam	-11.2194
▁(12	-11.2195
▁Derman	-11.2202
▁berevanîya	-11.2205
endorf	-11.2205
TER	-11.2208
▁serhildanên	-11.2209
▁Merwan	-11.221
tero	-11.2212
▁Semsûrê	-11.2213
▁Lubnanê	-11.2214
▁EWLEDARÎYÊ	-11.2216
▁romanên	-11.2216
riyên	-11.2222
▁giraniya	-11.2222
grad	-11.2223
▁Swîsre	-11.2224
▁nizanin	-11.2225
▁Çile	-11.223
▁sîyasetvan	-11.2232
▁Star	-11.2238
▁hevpeyvînê	-11.2241
iç	-11.2243
▁Atl	-11.2245
.11.2011	-11.2246
▁Culemêrgê	-11.2246
▁encumena	-11.2246
▁otombêl	-11.2246
▁tundûtîj	-11.2246
▁Rojhelat	-11.2246
▁kurtenavê	-11.2246
▁xwûda	-11.2246
▁(2010)	-11.2247
▁helbestê	-11.2247
▁weşanxaneya	-11.2248
▁Hot	-11.2248
▁diherike	-11.2248
▁savar	-11.2251
▁1935	-11.2251
gorî	-11.2251
▁Girtî	-11.2254
▁Pat	-11.2256
▁Anton	-11.2261
▁pêşberî	-11.2261
▁nêzikî	-11.2262
▁projeyî	-11.2262
▁Kak	-11.2262
▁Akademiya	-11.2266
▁polîsî	-11.2266
▁Bihar	-11.2267
▁zêdetirî	-11.2267
▁paşve	-11.2268
▁Peyam	-11.227
▁Real	-11.2271
▁peyvdar	-11.2271
tûk	-11.2272
▁rûdan	-11.2272
▁Wit	-11.2273
gov	-11.2281
tîl	-11.2283
tif	-11.2284
▁bûyî	-11.2284
rşî	-11.2286
▁daxuyanîyan	-11.2291
▁Lau	-11.2293
▁Berpirsên	-11.2296
pêç	-11.2296
KS	-11.2296
▁Om	-11.2297
▁binpêkirin	-11.2302
▁Jinan	-11.2305
▁BZ	-11.2306
▁Comm	-11.231
▁tefsîr	-11.2312
.04.2011	-11.2312
.08.2010	-11.2312
ы	-11.2312
▁sirgûn	-11.2312
▁Derwêş	-11.2312
▁Kulîlk	-11.2312
▁Naverok	-11.2312
▁April	-11.2312
▁mûşek	-11.2312
▁teoriya	-11.2312
▁hilbijêr	-11.2313
▁Reftar	-11.2313
▁jimareke	-11.2314
▁serkeftina	-11.2314
▁trans	-11.2316
oidea	-11.2323
▁veguheztin	-11.2328
▁qedexekirina	-11.2331
▁mezre	-11.2331
▁[]	-11.2332
▁Bazirgan	-11.2333
▁Tour	-11.2333
▁Elawî	-11.2336
▁Ford	-11.2337
nirx	-11.2339
▁bombek	-11.2342
▁Qay	-11.2343
omet	-11.2345
IYÊ	-11.2349
bilind	-11.2353
▁Bulgar	-11.2353
▁Cur	-11.2357
▁çîna	-11.2358
▁arêşeyan	-11.2362
▁Guh	-11.2362
zûr	-11.2364
▁Erziromê	-11.2364
▁Mizgefta	-11.2364
cet	-11.2367
▁5'	-11.2367
▁Faris	-11.2374
▁fam	-11.2376
▁helbijartin	-11.2379
י	-11.2379
content	-11.2379
▁BERHEM	-11.2379
▁Hêriş	-11.238
▁BÛYE	-11.238
▁Latînî	-11.2381
dibin	-11.2381
cre	-11.2383
▁1900	-11.2386
▁xul	-11.2386
▁papa	-11.2388
Tirk	-11.2393
▁komarî	-11.2399
▁Haco	-11.2399
▁bazarên	-11.2403
▁Sefîn	-11.2405
solin	-11.2405
▁ajot	-11.2406
yiya	-11.2409
▁Bag	-11.241
▁Qesr	-11.241
▁otomobîlê	-11.2413
▁Melayê	-11.2415
YEK	-11.2416
▁karwanê	-11.2419
▁başûrî	-11.2423
▁1980'	-11.2423
▁alîyek	-11.2427
▁Paşî	-11.2431
▁Agir	-11.2432
▁hilweşandina	-11.2432
▁şandeyek	-11.2433
çem	-11.2435
dol	-11.2438
▁Rey	-11.2439
▁dijberî	-11.2442
▁Dîvrîgiy	-11.2446
▁Joseph	-11.2446
▁KCK	-11.2446
▁damezrênerê	-11.2446
▁kezeb	-11.2446
▁wexta	-11.2448
▁Şembî	-11.2452
▁lewma	-11.2453
▁91	-11.2455
▁dostane	-11.2455
▁ciwanan	-11.2456
▁MI	-11.2457
▁2005'	-11.246
▁herrifî	-11.246
▁Hêj	-11.2462
▁zimannas	-11.2465
▁Lang	-11.2465
▁Lîstik	-11.2471
▁pêşketî	-11.2471
▁Kew	-11.2476
für	-11.2479
▁sernavê	-11.2481
▁Radio	-11.2487
▁Suriye	-11.249
▁pêşxistin	-11.2496
▁Cap	-11.2499
▁çalakvanên	-11.25
▁azadkirina	-11.2501
▁ciyê	-11.2502
▁berev	-11.2503
▁parêzgar	-11.2505
paş	-11.2505
Gir	-11.2506
▁cotkar	-11.2509
▁sim	-11.251
▁kevnare	-11.2511
▁Ubeyd	-11.2513
▁MADDEYA	-11.2513
▁kirmanckî	-11.2513
▁paraztî	-11.2513
▁Xar	-11.2514
▁pêşbirk	-11.2514
▁tevlihev	-11.2514
▁bibêjin	-11.2514
▁bixwazin	-11.2514
▁taybetîya	-11.2516
▁Berpirsek	-11.2516
▁Aboriy	-11.2517
▁Bell	-11.2517
▁xwenîşanderan	-11.2517
▁sekinî	-11.2519
▁28'	-11.2524
▁Ebdulla	-11.2526
▁şêweyê	-11.2528
▁She	-11.2531
Dîrok	-11.2532
lîm	-11.2535
▁(16	-11.2535
▁Qum	-11.2536
▁Sovyetê	-11.2539
SÎ	-11.2539
xem	-11.2541
▁hejmarên	-11.2542
qîq	-11.2543
▁Reng	-11.2543
▁nûnera	-11.2543
▁hejar	-11.2544
vtin	-11.2549
qal	-11.2551
▁Wu	-11.2553
▁pestan	-11.256
xar	-11.2564
▁Wêjeyê	-11.2566
▁talan	-11.2566
▁bicihkirin	-11.2567
▁vegeriyan	-11.2568
▁ش	-11.2568
▁berhevkirin	-11.2569
▁nahên	-11.2572
▁komîte	-11.2572
▁gotinêye	-11.2572
▁civiya	-11.2573
▁Çer	-11.2577
▁kurmanc	-11.2577
▁Eliraqîye	-11.2581
▁GOMANBAR	-11.2581
▁Mikayel	-11.2581
▁hikumeta	-11.2581
▁xebitiye	-11.2581
▁NIHA	-11.2581
▁derbikeve	-11.2581
▁Anatolya	-11.2581
▁Muttekî	-11.2581
▁pêşwaziya	-11.2581
▁efsane	-11.2581
▁Bazîdê	-11.2581
▁Anadol	-11.2582
▁jimareka	-11.2584
rîz	-11.2585
▁çavkanî	-11.2585
▁çareseriya	-11.2587
▁Hamid	-11.2587
▁XE	-11.2589
▁şûnwar	-11.259
▁Hemko	-11.2594
▁awareyan	-11.2598
▁Kanala	-11.2603
▁karbon	-11.2604
▁nêrîna	-11.2607
ql	-11.2614
▁22'	-11.2614
▁var	-11.2615
▁nerazîbûnê	-11.2618
▁Şot	-11.262
▁baregehên	-11.2624
▁kujer	-11.2627
▁Wes	-11.2627
rup	-11.2634
▁Zaza	-11.2638
▁nar	-11.2641
▁Xwîn	-11.2642
qedeh	-11.2644
▁KX	-11.265
▁Birîtaniya	-11.265
▁atmosfer	-11.265
▁înglîzî	-11.265
▁Science	-11.265
▁terîqet	-11.265
▁Dibêjin	-11.265
▁bixwînin	-11.265
▁Hezîran	-11.265
▁Xelîfe	-11.2651
▁Kanal	-11.2651
▁fel	-11.2651
▁kitêb	-11.2651
▁kompanî	-11.2652
▁nizîk	-11.2653
▁ibn	-11.2653
▁gotarên	-11.2653
▁ceh	-11.2654
▁xwarineke	-11.2656
▁bazarê	-11.2658
▁nûnerîya	-11.2662
▁rejim	-11.2663
▁700	-11.2663
famîle	-11.2668
‘	-11.2668
▁ک	-11.2669
▁Biryare	-11.2673
▁parliyament	-11.2676
▁tawankar	-11.2678
news	-11.2679
KER	-11.2681
▁îlankirin	-11.2686
Sal	-11.2687
▁hevpeymanan	-11.2687
▁gelheya	-11.2689
▁خ	-11.2692
qer	-11.2692
▁kg	-11.2693
▁biwarî	-11.2695
▁sembol	-11.2695
▁medyaya	-11.2696
▁sinorê	-11.2699
▁Eta	-11.2699
▁58	-11.27
cir	-11.2706
▁piştevaniy	-11.2709
▁vediger	-11.2709
▁riz	-11.2712
▁Penc	-11.2716
ō	-11.2719
▁Dexîl	-11.2719
▁dilsoz	-11.2719
▁Peqîn	-11.2719
ianus	-11.272
▁Agahî	-11.2721
kend	-11.2722
▁ع	-11.2723
▁1934	-11.2724
▁esker	-11.2726
▁Tey	-11.2728
▁gulle	-11.2729
▁aliya	-11.2736
▁Tru	-11.274
▁FC	-11.2742
▁Miss	-11.2744
▁Of	-11.2746
mirî	-11.275
▁karîn	-11.2751
▁jimarey	-11.2754
▁Sid	-11.2755
▁program	-11.2759
▁gavek	-11.2761
jêr	-11.2773
▁vedike	-11.2774
▁hemdem	-11.2777
▁yekşemb	-11.2779
▁Has	-11.278
▁girtîyên	-11.2785
matîk	-11.2785
ـ	-11.2788
▁UNESCO	-11.2788
▁Viyetnam	-11.2788
▁[9:4	-11.2788
▁Nûbihar	-11.2788
▁şirket	-11.2788
▁Louis	-11.2788
▁rûbirû	-11.2788
▁dikişîne	-11.2788
fîl	-11.2791
▁meydana	-11.2792
elli	-11.2792
▁Putin	-11.2792
▁hevdîtinan	-11.2792
sîyan	-11.2796
▁Tv	-11.2797
▁pûşper	-11.2799
dok	-11.2801
▁Euro	-11.2801
▁parêzgehek	-11.2803
▁êrişî	-11.2806
▁polîtîkayê	-11.281
▁(15	-11.2811
▁derd	-11.2813
stêrk	-11.2814
▁Mex	-11.2815
hilat	-11.2815
▁mirîşk	-11.2816
▁teybet	-11.2818
▁CD	-11.2821
diger	-11.2825
▁Qaz	-11.2833
heb	-11.2834
▁800	-11.2834
Ku	-11.2835
polis	-11.284
▁Fet	-11.2841
Pro	-11.2842
▁bizav	-11.2843
▁bandoreke	-11.2843
▁Parêzgeh	-11.2844
▁taxek	-11.2844
▁gavên	-11.2858
ENG	-11.2858
▁fahm	-11.2858
▁Berdereşê	-11.2858
▁Institut	-11.2858
▁Îzmîrê	-11.2858
▁hêjmara	-11.2858
▁raperîn	-11.2859
ubl	-11.2859
▁Internet	-11.2859
▁sibehî	-11.2861
▁Will	-11.2862
▁amadekarî	-11.2862
▁Herçend	-11.2862
qeya	-11.2864
▁(?)	-11.2864
▁Qil	-11.287
▁çûk	-11.2872
cid	-11.2873
recî	-11.2873
▁Pap	-11.2878
▁milk	-11.2879
▁fra	-11.2881
▁zêrîn	-11.2883
▁eşîret	-11.2885
▁HEVWELATÎ	-11.2887
▁Bûn	-11.2888
▁seke	-11.2889
▁ju	-11.2891
Iraq	-11.2896
▁kerd	-11.2904
▁Cum	-11.2907
▁mamostetiy	-11.2911
▁spor	-11.2911
ple	-11.2914
▁Firok	-11.2914
▁Armanc	-11.2916
▁herême	-11.2919
▁damezrand	-11.2922
▁bêjeya	-11.2924
;&	-11.2925
▁Eşîr	-11.2927
hewa	-11.2928
▁HAŞIMÎ	-11.2928
▁Kellaterzan	-11.2928
▁QANÛNÊ	-11.2928
▁RÛSIYA	-11.2928
г	-11.2929
▁nihênî	-11.2929
▁Ewrupa	-11.2929
▁Holenda	-11.2929
▁çaksazî	-11.2929
▁serfiraz	-11.2929
▁rûniştinek	-11.293
▁lezgîn	-11.2931
▁Xwendin	-11.2931
▁Angeles	-11.2932
ios	-11.2932
▁hizar	-11.2935
▁HIL	-11.2937
▁firokeyên	-11.2947
▁agahîyan	-11.295
▁nêçîr	-11.2953
dead	-11.2958
fik	-11.2958
gü	-11.2964
dîyye	-11.2966
nig	-11.2968
Br	-11.297
▁dijwarîyê	-11.2974
▁rewşenbîrîyê	-11.2974
▁Şêxanê	-11.2977
Sp	-11.2977
▁Beyan	-11.2978
▁nanê	-11.2979
uth	-11.2981
▁çareseriyê	-11.2984
▁renge	-11.2992
▁bernameyê	-11.2993
▁DERVEYÊ	-11.2994
▁Kevn	-11.2996
▁civake	-11.2996
▁dabirrayî	-11.2999
▁Erxeniyê	-11.2999
▁GUFT	-11.2999
▁Pêncşembî	-11.2999
▁ziyaret	-11.2999
▁serxwebûnê	-11.2999
▁MAFÊ	-11.3
▁aboriyê	-11.3
▁Xirbê	-11.3001
▁qesr	-11.3003
▁Helebce	-11.3003
▁tawanan	-11.3004
▁Sunneyî	-11.3006
▁Navçe	-11.301
▁rabe	-11.3011
▁kêleka	-11.3011
têr	-11.3011
▁KURDAN	-11.3011
▁Stembol	-11.3013
xwar	-11.3013
▁Rol	-11.3014
stat	-11.3015
▁binemayê	-11.3016
▁bigihîne	-11.3017
▁nim	-11.3019
▁Kurdish	-11.3023
▁kandîdkirina	-11.3025
▁rûber	-11.3025
▁berpirsekî	-11.303
sît	-11.3032
▁pil	-11.3035
rol	-11.3036
▁Hînd	-11.3039
EKE	-11.3044
▁Ah	-11.3044
▁tav	-11.3046
▁peywendîyeka	-11.3047
▁serokatî	-11.3052
▁Meydana	-11.3054
rec	-11.3059
niha	-11.306
▁dihîne	-11.3065
▁cîbicîkirin	-11.3068
▁DIRIST	-11.3071
▁Kolombiya	-11.3071
wikipedia	-11.3071
▁München	-11.3071
▁Weqfa	-11.3071
▁pêşvebirina	-11.3071
▁CEJN	-11.3071
▁Sîyaset	-11.3071
▁Kompanya	-11.3071
▁qehwe	-11.3071
▁germahiy	-11.3071
▁Patnos	-11.3071
▁(2005)	-11.3071
▁psîkolog	-11.3071
▁celeb	-11.3072
▁Newzad	-11.3074
▁Weşan	-11.3076
▁çerx	-11.3077
DO	-11.3078
▁pîşesazîyê	-11.3078
▁çu	-11.308
▁1905	-11.308
lax	-11.3082
▁Çimk	-11.3083
▁piştgîrîy	-11.3085
▁Zîlan	-11.3086
▁Rêk	-11.3088
▁gundek	-11.3094
▁Eşîra	-11.3094
▁Rêzdar	-11.3095
▁pes	-11.3096
bexş	-11.3097
▁hertimî	-11.3099
▁eşîreke	-11.31
serokê	-11.3104
▁Pirsa	-11.3107
jne	-11.3109
▁opozisiyonê	-11.3111
Ger	-11.3116
▁televizyona	-11.3119
metre	-11.312
▁160	-11.3121
▁Fred	-11.3121
▁2020	-11.3121
▁IV	-11.3128
▁înkar	-11.3131
▁Kö	-11.3132
▁pirtûkxane	-11.3135
▁rengên	-11.3137
▁rêvebirên	-11.3138
▁Eyûb	-11.3139
▁ج	-11.3142
▁DÎYALA	-11.3143
▁Qoçgîr	-11.3143
^	-11.3143
▁serkirdatîy	-11.3143
▁aşitiyê	-11.3143
▁Dilşad	-11.3143
rı	-11.3143
▁neqanûnî	-11.3143
▁Rewşenbîr	-11.3144
paşeroj	-11.3144
▁Mongol	-11.3144
&#	-11.3144
▁îşkence	-11.3144
▁sitem	-11.3146
=2|	-11.3149
▁bawermend	-11.3152
Qe	-11.3155
▁Bandor	-11.3155
▁Yewnanî	-11.3155
▁axiftin	-11.3155
▁BERPIRS	-11.3155
ror	-11.3157
▁qonaxên	-11.3157
▁dengdana	-11.3161
gri	-11.317
▁BEŞDARÎY	-11.3171
▁rengîn	-11.3173
▁Kı	-11.3174
liq	-11.3179
▁kultur	-11.3181
▁bihête	-11.3184
▁Name	-11.3184
encam	-11.3185
▁class	-11.3185
borî	-11.3187
▁hêzeke	-11.319
▁Netewey	-11.319
▁mon	-11.3191
▁nok	-11.3193
ped	-11.3195
▁bra	-11.3195
▁piştevanên	-11.3195
Or	-11.3195
0%"	-11.3198
▁Zal	-11.3202
▁Wil	-11.3206
▁miletê	-11.321
▁Mid	-11.321
▁Loma	-11.3214
.07.2010	-11.3215
▁FRANSA	-11.3215
▁[21:3	-11.3215
▁dokument	-11.3215
▁endazyar	-11.3215
▁SEDR	-11.3215
▁ewlehiyê	-11.3215
▁fîzîknasê	-11.3216
▁deshilat	-11.3216
▁wizeya	-11.3216
census	-11.3216
▁arastey	-11.3217
▁belku	-11.322
▁pêkhateyên	-11.3222
▁Kemp	-11.3224
▁binemal	-11.3226
▁wilo	-11.3227
▁nivîsandiye	-11.3227
▁Şoreşger	-11.3227
▁serxweşî	-11.323
ezîz	-11.3231
▁enerjî	-11.3234
▁Dîndar	-11.3234
kurdî	-11.3238
▁Rengê	-11.3239
▁Farisî	-11.3242
▁dihête	-11.3242
▁Bulgaristan	-11.3245
UK	-11.3247
Ph	-11.3248
▁zimanzan	-11.3248
▁parçeyek	-11.3249
▁stranan	-11.325
▁Hed	-11.3251
▁Pay	-11.3254
▁Lam	-11.3257
▁zanistiyê	-11.3258
▁tixûbê	-11.3258
rûsk	-11.3258
▁51	-11.3262
▁kifşkirin	-11.3264
▁Poland	-11.3269
▁bazirganiyê	-11.3269
▁core	-11.3273
▁navber	-11.3274
▁piroje	-11.3275
▁TEROR	-11.3288
▁Xwepêşander	-11.3288
▁Yilmaz	-11.3288
▁Împaratoriy	-11.3288
▁Selahattî	-11.3288
▁Giyadîn	-11.3288
▁Cîhad	-11.3289
▁Cewher	-11.3289
▁Firatê	-11.3292
▁Pakistanî	-11.3292
▁rewşên	-11.3293
▁ÎRAN	-11.3293
▁fîl	-11.3293
▁muhir	-11.3294
mij	-11.3294
▁Xaney	-11.3294
▁geriya	-11.3294
▁Musil	-11.3294
▁Balafirgeh	-11.3295
▁sîstemê	-11.3298
▁berbijar	-11.3304
▁park	-11.3305
▁teorî	-11.3305
▁Sînem	-11.331
▁Çoman	-11.3312
▁Dêrikê	-11.3314
çax	-11.3316
▁Emr	-11.3319
▁sêşemb	-11.3323
▁hîs	-11.3323
/2010	-11.3324
▁yekîtiy	-11.3325
▁xwedanê	-11.3329
view	-11.333
▁rojnamevanîyê	-11.334
▁Nesr	-11.3342
▁Medan	-11.3342
▁Serhedê	-11.3346
▁buyer	-11.3349
▁karger	-11.335
▁mamostayê	-11.335
▁corên	-11.3351
pişk	-11.3354
▁axaftinek	-11.3356
▁evsal	-11.3357
jiyan	-11.336
▁54	-11.3361
▁psîko	-11.3361
▁Muhammed	-11.3362
▁brîndar	-11.3362
▁suriştî	-11.3362
▁Luc	-11.3362
▁nifş	-11.3362
▁2000'	-11.3362
▁Kongirey	-11.3362
▁Damezr	-11.3362
▁kevçî	-11.3364
▁HETA	-11.3364
▁Welîd	-11.3365
▁German	-11.3366
zewice	-11.3366
▁gênc	-11.3367
▁nehatîye	-11.3368
▁rawestîne	-11.337
▁dayin	-11.337
▁stend	-11.337
iyye	-11.3371
▁pêktê	-11.3374
▁sînemayê	-11.3376
▁NAVA	-11.3378
req	-11.3379
▁Sîr	-11.3379
▁mayin	-11.3385
▁pêşde	-11.3386
▁Dokan	-11.3386
▁qewm	-11.3388
▁operasyonan	-11.3391
enter	-11.3393
▁Watey	-11.3404
qanûn	-11.3407
▁Koçer	-11.3407
▁Bomb	-11.3409
▁Stu	-11.3411
kurt	-11.3417
▁Maria	-11.342
▁Pêşî	-11.3423
teng	-11.3424
zem	-11.3427
▁Bud	-11.3429
▁çewa	-11.3431
tev	-11.3432
▁digihîne	-11.3435
.10.2011	-11.3436
▁Awistriya	-11.3436
▁Pentagon	-11.3436
▁XWEPÊŞANDAN	-11.3436
▁çerçovey	-11.3436
▁Yekgirtûy	-11.3436
▁nîsanê	-11.3436
▁Birîndar	-11.3436
▁kurteçîrok	-11.3436
▁Opera	-11.3436
▁sitran	-11.3436
▁daynin	-11.3436
▁Behreyn	-11.3436
▁Amêdî	-11.3438
▁siyasiya	-11.3441
▁Sebrî	-11.3444
▁encûmen	-11.3447
▁Şaxê	-11.3449
▁daxuyanîyên	-11.3451
+1	-11.3455
mûd	-11.3458
▁piştevanî	-11.3462
▁amadeye	-11.3467
Sch	-11.3469
▁KESAN	-11.3469
ungen	-11.3471
▁Rap	-11.3479
DYA	-11.3481
▁Op	-11.3484
▁medyayê	-11.3486
▁mizgefta	-11.3495
▁Partiyê	-11.3495
▁avedankirina	-11.3496
▁Masî	-11.35
ئ	-11.3501
▁25'	-11.3502
▁parlamen	-11.3503
▁gelawêj	-11.3507
▁2008:	-11.3508
▁projeyan	-11.3509
ḧ	-11.351
ژ	-11.351
efefef	-11.351
▁[9:5	-11.351
▁heremê	-11.351
▁psîkolojîk	-11.3511
▁tayîbet	-11.3511
▁serokdewletê	-11.3511
▁(2004)	-11.3511
▁Têhran	-11.3511
▁Jackson	-11.3511
▁senator	-11.3511
ograph	-11.3512
▁Germîyan	-11.3513
▁sûc	-11.3513
▁Berevanî	-11.3513
▁bikarhêner	-11.3514
▁jêhatî	-11.3516
▁Fri	-11.3518
▁1758	-11.3519
▁Nûh	-11.352
Iraqê	-11.352
▁Kev	-11.3522
▁Murat	-11.3523
▁bajarokek	-11.3523
xil	-11.3524
▁Alp	-11.3527
▁mêş	-11.3529
▁agirbestê	-11.3529
▁Rêber	-11.3533
—	-11.3533
▁rabûn	-11.3534
▁elektronîk	-11.3534
▁sembola	-11.3536
2006	-11.3536
▁Şeva	-11.3536
▁Sêrt	-11.3538
▁2007'	-11.354
ness	-11.354
▁însan	-11.3541
▁koçberî	-11.3545
gihand	-11.3547
▁Ekber	-11.3548
ettin	-11.3549
▁KON	-11.3553
▁Rojnameyê	-11.3557
chin	-11.3562
▁hevdem	-11.3563
5%	-11.3566
enstein	-11.3566
▁nêw	-11.3566
▁weku	-11.3567
▁Petr	-11.3568
▁TÊ	-11.3568
EYEK	-11.3569
ûtê	-11.3571
▁ziyanek	-11.3573
▁Kit	-11.3574
▁Gundî	-11.3579
▁partîyê	-11.3582
▁mux	-11.3582
ص	-11.3586
▁AFGANISTAN	-11.3586
▁PIŞTEVANÎY	-11.3586
▁Sîlvana	-11.3586
▁Zehawî	-11.3586
▁fûtbol	-11.3586
▁îhtîmal	-11.3586
▁Efxanistan	-11.3586
▁gerîlla	-11.3586
▁aliye	-11.3586
▁Berxwedan	-11.3586
▁Yêkgirtî	-11.3586
▁(2000)	-11.3586
▁hovane	-11.3587
▁Kakeyî	-11.3588
▁DIXWAZIN	-11.3588
▁jêderan	-11.3589
▁Alfabey	-11.3589
▁Casim	-11.359
▁Rehîm	-11.359
▁Hewl	-11.359
▁reşnivîs	-11.3594
▁mijarek	-11.3595
▁xwast	-11.3596
▁serdaneka	-11.3597
trum	-11.3598
▁parêzgeh	-11.3598
▁şahid	-11.3598
▁Malî	-11.3601
▁mijaran	-11.3603
▁yewnan	-11.3605
▁Ot	-11.3605
▁ajalên	-11.3606
kop	-11.3606
ablo	-11.3614
▁DEMA	-11.3617
▁kanalên	-11.3618
▁hemahengîya	-11.3618
▁mij	-11.3627
▁heywan	-11.3631
▁Fîl	-11.3633
gli	-11.3634
▁karkeran	-11.3642
ktîv	-11.3652
pil	-11.3657
▁Civîn	-11.3658
▁terxan	-11.366
▁BUDCEY	-11.3661
▁Qerekoseyê	-11.3661
▁plandanînê	-11.3661
з	-11.3661
▁Mizgîn	-11.3661
б	-11.3661
▁dîyalog	-11.3661
▁pêşkeftin	-11.3661
▁pêşniyaz	-11.3662
▁Xir	-11.3662
▁karesat	-11.3662
▁Daniel	-11.3662
▁ofîsa	-11.3663
▁DENG	-11.3663
▁Aşûrî	-11.3665
▁îslam	-11.3666
/2012	-11.3667
▁Şemrexê	-11.3668
▁1915	-11.3669
▁Hezexê	-11.367
▁rêziman	-11.367
kişînin	-11.367
▁Yemen	-11.3672
tac	-11.3674
▁kêmbûna	-11.3681
▁dosya	-11.3687
▁maneya	-11.3688
ız	-11.3689
ifolia	-11.3691
▁kursîyan	-11.3691
▁Olî	-11.3697
▁Keleh	-11.3698
▁iro	-11.3698
▁Ragihandin	-11.3701
şehir	-11.3702
▁Anter	-11.3704
gund	-11.3707
Îran	-11.3713
▁azar	-11.3716
▁rave	-11.3718
▁Tewafuqa	-11.3718
▁Nurî	-11.3724
kovar	-11.3725
▁PIRS	-11.3725
hiş	-11.3726
▁serweriy	-11.3727
▁DEM	-11.3728
▁cîkirina	-11.3728
▁xizm	-11.3732
tten	-11.3734
▁Hukûmet	-11.3735
▁medya	-11.3738
أ	-11.3738
▁PÎROZ	-11.3738
κ	-11.3738
▁Kobaniyê	-11.3738
▁Wilhelm	-11.3738
▁Filestîn	-11.3738
▁enerjiya	-11.3738
▁Pirraniya	-11.3738
▁Mewlana	-11.3738
▁(2006)	-11.3738
▁Eşref	-11.3738
Panthera	-11.3739
▁Kongres	-11.3739
▁Dizeyî	-11.3739
▁Gordon	-11.374
▁dirûst	-11.374
▁mod	-11.3741
▁hizrên	-11.3741
▁Erdîş	-11.3742
▁Helbet	-11.3743
zanist	-11.3743
laş	-11.3744
▁SALA	-11.3745
▁dabîn	-11.3748
▁paye	-11.375
▁bergirî	-11.375
▁Aşûr	-11.375
hij	-11.3751
▁masiyan	-11.3755
▁panel	-11.3757
▁darxistin	-11.3759
▁Ermenistan	-11.3762
▁tînê	-11.3763
▁berbijarê	-11.3766
gaz	-11.3767
cil	-11.3768
▁serdanek	-11.3773
▁zîrek	-11.3775
muz	-11.3781
▁pîşesazî	-11.3784
rehman	-11.3795
dı	-11.3799
▁naverast	-11.3799
roş	-11.3811
▁gazin	-11.3812
▁serexweşîyê	-11.3813
چ	-11.3815
▁(2013)	-11.3815
▁MESÛD	-11.3815
▁NewYork	-11.3815
▁Society	-11.3815
▁Tilbişar	-11.3815
▁BARAK	-11.3815
▁tendirust	-11.3815
▁Kondole	-11.3815
▁duqolî	-11.3815
▁rûxandin	-11.3815
▁Balindeyê	-11.3815
▁Edward	-11.3815
▁Silopî	-11.3815
▁SAZDAN	-11.3816
▁kovarek	-11.3816
▁AMEDÊ	-11.3816
stedt	-11.3817
▁Spaniya	-11.3817
▁JÎYANÊ	-11.3818
▁payîz	-11.3818
▁îdare	-11.3819
ktora	-11.3822
▁Devera	-11.3822
▁sosyalîst	-11.3824
▁1910	-11.3824
▁xelatên	-11.3824
▁Rot	-11.3833
▁bihurî	-11.3835
▁Cotmehê	-11.3838
▁cild	-11.3838
jîk	-11.384
ereb	-11.3843
▁welatek	-11.3846
▁Hûr	-11.3848
▁Radyo	-11.3849
▁Spi	-11.3849
▁hemwelatî	-11.385
▁mex	-11.3852
▁Qela	-11.3855
▁Mîs	-11.3858
▁maz	-11.3859
▁Şems	-11.3861
▁Maf	-11.3861
▁qenc	-11.3861
▁Xwedî	-11.3863
▁domand	-11.3872
▁xûya	-11.3872
▁diyarkirî	-11.3873
▁Mîtra	-11.3873
▁Ul	-11.3874
▁atom	-11.3877
itin	-11.3883
▁pars	-11.3891
ô	-11.3892
þ	-11.3892
▁Cezayir	-11.3892
▁EWROPA	-11.3892
▁Serhildayê	-11.3892
▁brîtanî	-11.3892
▁stratejîk	-11.3892
ْ	-11.3892
▁Pêrtag	-11.3892
▁havêjtin	-11.3892
▁SILÊMANÎYÊ	-11.3892
ANDINA	-11.3893
.09.201	-11.3893
▁dihînin	-11.3894
▁Sind	-11.3895
▁Atomî	-11.3895
▁Humsê	-11.3896
▁kok	-11.3896
îngl	-11.3897
▁vîdyo	-11.3897
▁IPA	-11.3897
▁bajer	-11.3898
▁yasayî	-11.3898
▁:*	-11.3899
▁spas	-11.3899
▁1913	-11.3899
▁{	-11.39
▁hewldanên	-11.39
ış	-11.3903
▁Işik	-11.3904
▁Ebdulba	-11.3905
▁kevtiye	-11.3906
▁Kü	-11.3913
▁kompanyayê	-11.3917
Min	-11.3918
▁Ked	-11.3919
▁Kuweyt	-11.3919
▁dîrokzan	-11.3921
▁Laz	-11.3924
▁sub	-11.3925
▁serokkomar	-11.393
▁kulturî	-11.393
▁serokkomarê	-11.3933
▁Turkmanî	-11.3936
▁perde	-11.3938
▁şêw	-11.3939
sûd	-11.3948
▁Dûv	-11.395
▁xaleka	-11.395
▁Felestînî	-11.3953
▁rêzik	-11.3955
▁cezakirin	-11.3956
▁LEŞKERÎ	-11.3963
▁Balafir	-11.3967
ς	-11.397
▁koçer	-11.397
й	-11.397
▁(2001)	-11.397
▁Yildiz	-11.397
▁meclîsa	-11.397
ε	-11.397
▁bikarhanîn	-11.397
▁edîtor	-11.397
▁zayendî	-11.3971
pet	-11.3971
▁mejiyê	-11.3971
▁Abbas	-11.3972
▁hazir	-11.3974
▁hêviya	-11.3974
▁Omeran	-11.3977
▁welatparêz	-11.3978
▁1906	-11.3978
▁Yal	-11.398
▁Xeber	-11.3982
mol	-11.3983
▁Demîr	-11.3988
▁27'	-11.3989
▁xatir	-11.3991
-16	-11.3994
▁Asos	-11.3994
▁birêxistin	-11.3994
▁mijûlî	-11.3998
▁gazî	-11.3999
▁Kok	-11.3999
▁helbestvanekî	-11.4
Gundistan	-11.4008
▁lîwa	-11.4008
]]	-11.4009
▁Parliyament	-11.4011
▁Şaxa	-11.4017
NAN	-11.4024
اب	-11.403
▁Bav	-11.4044
▁millet	-11.4047
▁ÇARESER	-11.4048
▁cihgir	-11.4048
▁Oktober	-11.4049
▁SALIH	-11.4049
▁tîpguhêziy	-11.4049
ِ	-11.4049
▁dikit	-11.405
▁kîmyabaran	-11.4051
▁Dinirxîn	-11.4051
AWÎ	-11.4052
▁dikuje	-11.4052
▁Yaşar	-11.4055
▁xwezaya	-11.406
▁Kofî	-11.4063
▁Super	-11.4063
▁Zû	-11.4065
ği	-11.4067
▁Nadir	-11.4067
▁KEVT	-11.407
▁kelandin	-11.407
▁rêyek	-11.4074
▁hereket	-11.4074
▁pêştir	-11.4076
▁Comp	-11.4076
▁Çelê	-11.4076
▁tepeserkirin	-11.4077
Çîrok	-11.4078
▁Pakîstan	-11.4079
▁programa	-11.4083
▁Qeterê	-11.4086
▁xûrt	-11.409
▁cûre	-11.4093
Roman	-11.4093
sberg	-11.41
▁parliyamentar	-11.4103
▁japonî	-11.4104
-15	-11.4112
oideae	-11.4112
▁Fey	-11.4113
▁nedît	-11.4119
2000	-11.4119
▁derbaskirin	-11.412
xiz	-11.4121
▁Aq	-11.4127
▁edebî	-11.4128
▁mabû	-11.4128
wikitable	-11.4128
▁esperanto	-11.4128
▁hemwelatiyên	-11.4128
▁radigîhîne	-11.4128
▁thumb	-11.4128
▁enerjiyê	-11.4128
▁Xarpêt	-11.4128
▁Edeneyê	-11.4128
▁balefir	-11.4128
▁Caesar	-11.4128
▁Amûdê	-11.4129
▁Brawn	-11.4129
▁tablo	-11.4129
▁gerstêrk	-11.413
▁Pîrosa	-11.413
▁bajêrvanîya	-11.4131
▁afret	-11.4132
▁Kobanî	-11.4133
▁çêdibin	-11.4134
▁teze	-11.4138
▁zanebûn	-11.4148
mezin	-11.4156
▁nemana	-11.4157
▁pîl	-11.4157
îngilîzî	-11.4159
▁Midyad	-11.416
▁Mut	-11.4164
▁rêxistineke	-11.4166
stûr	-11.4167
▁diçûn	-11.4167
▁Burma	-11.4168
▁birr	-11.4168
was	-11.4169
▁hemwelatîyê	-11.4173
▁Zend	-11.4175
▁jêderek	-11.4177
▁mîz	-11.4178
▁1990'	-11.4182
▁Yêk	-11.4188
▁tri	-11.4189
▁xanedana	-11.4194
▁zayînî	-11.4199
▁aşkirakirin	-11.4204
▁Pho	-11.4204
▁Journal	-11.4208
▁Stokholm	-11.4208
▁konfrans	-11.4208
▁ronakbîr	-11.4208
▁Îngîlîz	-11.4208
▁negatîv	-11.4208
▁Sêmêl	-11.4209
▁rasteqîn	-11.4209
▁bêhnvedan	-11.4209
▁Nikola	-11.4209
▁Soz	-11.4209
▁Daw	-11.421
▁penîr	-11.4211
▁demdirêj	-11.4211
▁amarên	-11.4212
▁Hall	-11.4214
▁bombbarankirin	-11.4214
▁Serokatiya	-11.4215
▁alîyekê	-11.4216
▁kesayetî	-11.4216
▁Sab	-11.4217
▁nediyar	-11.4218
är	-11.422
▁Tol	-11.4222
▁şûnda	-11.4224
▁bilêvkirin	-11.4224
▁bizane	-11.4224
▁bedew	-11.4225
▁Kevin	-11.4226
▁awayan	-11.4226
▁2008'	-11.4228
▁azadkirin	-11.4228
Kaiser	-11.4228
▁îdarî	-11.423
▁kendavê	-11.4231
▁Veto	-11.4231
▁Kerboranê	-11.4233
▁پ	-11.4234
▁fu	-11.4235
ivers	-11.4237
▁Kent	-11.4238
▁elektrîkê	-11.4239
▁lêborîn	-11.4241
▁Stewr	-11.4241
▁şirovekirin	-11.4245
kirdinî	-11.4245
Ereb	-11.4248
▁24'	-11.4255
▁zane	-11.4256
▁Rûsiyayî	-11.4258
▁çareserîyê	-11.4263
▁tevli	-11.4264
▁qere	-11.4269
▁pêşket	-11.4272
▁BIR	-11.4274
▁negih	-11.4276
▁rêbendana	-11.4278
▁Serhildan	-11.428
▁welatiyên	-11.4281
tı	-11.4281
▁malik	-11.4284
▁Daxwaz	-11.4285
▁bombeyek	-11.4285
▁otomobîlan	-11.4287
▁TURK	-11.4288
ñ	-11.4289
▁Davutoglu	-11.4289
▁Tolhildan	-11.4289
▁fonksiyon	-11.4289
ա	-11.4289
▁Tikrît	-11.4289
▁giştpirsî	-11.4289
▁ewlehiya	-11.4289
▁ph	-11.4289
▁Nîkola	-11.429
▁Dixwaze	-11.4291
▁HAK	-11.4291
▁Gotinên	-11.4291
Yek	-11.4293
▁Dirêjiy	-11.4297
▁şêweyî	-11.4301
▁belkî	-11.4304
▁Sax	-11.4305
▁Kut	-11.4306
Gel	-11.4307
▁Çap	-11.4311
mûs	-11.4312
▁pîşesazîya	-11.4314
▁konferansek	-11.4314
▁duşemb	-11.4319
▁civînek	-11.4321
▁End	-11.433
off	-11.4335
çîrok	-11.4336
hud	-11.4341
▁xebatek	-11.4341
▁Sho	-11.4344
jor	-11.4349
ender	-11.4352
serok	-11.4353
▁dîwan	-11.4354
▁Form	-11.4359
▁çandiniya	-11.4359
▁derdan	-11.4363
press	-11.4365
▁frans	-11.4366
▁hindî	-11.4366
▁rexneyê	-11.4367
fîk	-11.4368
▁xulek	-11.437
cap	-11.437
.06.2012	-11.437
▁Awustraliya	-11.437
▁MUHR	-11.437
▁merasîma	-11.437
▁qehreman	-11.437
▁Sirşîw	-11.437
▁Serbixwe	-11.437
▁îfade	-11.4371
▁Canewer	-11.4371
▁xwişk	-11.4371
▁hilweşîn	-11.4371
▁SEROK	-11.4374
xim	-11.4374
▁navbeynkariya	-11.4374
▁elewî	-11.4376
▁civate	-11.4377
▁Mobil	-11.4379
nivîskar	-11.4381
▁125	-11.4382
▁tundûtûjî	-11.4386
▁îcar	-11.4388
▁Nexweşxaney	-11.4392
▁collapse	-11.4393
kirna	-11.4397
giha	-11.4404
▁Swêdî	-11.4411
▁Heman	-11.4412
▁nor	-11.4413
▁Rock	-11.4416
▁Şandeyek	-11.4416
▁dayikbûn	-11.4417
▁dînar	-11.4417
▁zaroktiy	-11.4417
▁zordarî	-11.4417
▁Soranî	-11.442
▁Yeni	-11.4421
▁xar	-11.4422
▁Stranên	-11.4423
▁dijiyan	-11.4436
▁fikir	-11.4439
▁girtibû	-11.4446
▁Lev	-11.4447
▁hikûm	-11.4447
▁îran	-11.4449
Syn	-11.4449
îngîlîzî	-11.4452
▁Associate	-11.4452
▁ISRAYEL	-11.4452
▁Sarkozî	-11.4452
▁Siûdî	-11.4452
▁Özgür	-11.4452
č	-11.4452
▁kongreyê	-11.4452
▁jinûve	-11.4452
▁(2007)	-11.4453
▁nişka	-11.4453
▁Feysel	-11.4453
▁paşerojê	-11.4453
▁qism	-11.4454
▁BIBIN	-11.4455
▁zinar	-11.4455
▁veqetiya	-11.4456
▁Feylî	-11.4456
▁ob	-11.4457
▁destdirêjî	-11.4458
▁çîyayê	-11.4458
▁Siyasî	-11.4459
▁Yasîn	-11.446
▁Frens	-11.4461
▁qanûnîya	-11.4463
▁Havîn	-11.4464
▁wêneyê	-11.4465
▁derheq	-11.4468
▁bikêr	-11.4471
lık	-11.4472
▁Wald	-11.4473
▁firîn	-11.4473
STAN	-11.4473
▁Îlam	-11.4477
▁dirêjiya	-11.4481
▁hec	-11.4481
buch	-11.4482
▁nîşandin	-11.4482
Su	-11.4488
▁Pop	-11.4489
=4	-11.449
peyive	-11.4493
▁mol	-11.4495
▁Lû	-11.4496
▁Sinc	-11.4498
▁EREB	-11.4499
bot	-11.4501
sûn	-11.4502
▁hîmê	-11.4505
▁alozîya	-11.4512
wêne	-11.4514
▁Gro	-11.4514
▁tûnd	-11.4519
▁pirtûkeke	-11.4524
▁Ox	-11.4531
▁milet	-11.4532
Serokê	-11.4532
.11.2010	-11.4535
▁NAVDEWLETÎ	-11.4535
▁endezyar	-11.4535
▁konferensê	-11.4535
▁Silopiyê	-11.4535
▁Qilaban	-11.4535
▁diparêzin	-11.4536
▁Sincarî	-11.4536
▁destexaneyê	-11.4536
▁lîstika	-11.4536
▁Element	-11.4537
▁nahêlin	-11.4538
▁sh	-11.4539
▁rojnama	-11.4539
▁dimire	-11.454
▁şivan	-11.4541
php	-11.4543
▁piştevanîkirina	-11.4544
▁Meletiyê	-11.4544
well	-11.4546
▁fîzîkî	-11.4547
▁nîsk	-11.4548
▁Fermî	-11.455
senter	-11.455
▁Lîbyayî	-11.4555
▁Semîr	-11.4556
Xwe	-11.4561
▁komkirina	-11.4564
▁Qar	-11.4565
fikir	-11.4566
▁Hênê	-11.4566
خ	-11.4568
xet	-11.4568
▁nerast	-11.4569
▁zimanek	-11.4573
çal	-11.4578
▁çavkaniyan	-11.4583
▁Marks	-11.4588
sad	-11.459
▁Deşt	-11.459
▁Hindî	-11.4591
▁Zîndan	-11.4594
▁dibistanek	-11.4595
▁mayinek	-11.4598
▁gendelîyê	-11.4605
=====	-11.4605
▁dîplom	-11.4606
▁perwerdekirin	-11.4608
ual	-11.4615
▁County	-11.4618
▁Tawûsker	-11.4618
▁daxuyaniya	-11.4618
▁Image	-11.4619
▁Sîyasî	-11.4619
▁jidayîk	-11.4619
▁Peyamner	-11.462
▁South	-11.4622
▁feqîr	-11.4622
▁ketibû	-11.4623
▁Yanî	-11.4624
▁rijêm	-11.4624
▁Island	-11.4626
▁Yekîney	-11.4626
▁salnameya	-11.4629
▁şaristanî	-11.463
▁balyozxaneyê	-11.4631
▁dûyem	-11.4635
▁derçû	-11.4639
▁hilde	-11.4642
را	-11.4646
▁Cre	-11.4649
▁pabend	-11.4651
Erdnîgarî	-11.4652
▁giringîyek	-11.4655
▁Bedr	-11.4661
▁Lord	-11.4664
▁Demek	-11.4667
▁elektrîk	-11.467
▁gih	-11.4679
▁cejnê	-11.468
▁Demokrasî	-11.4681
▁ÇÛ	-11.4683
▁Spe	-11.4684
▁Zem	-11.4686
▁cinsî	-11.469
▁Kaz	-11.4692
dixe	-11.4692
η	-11.4702
▁February	-11.4702
▁Virginia	-11.4702
▁parliyamnet	-11.4702
▁veguhestin	-11.4702
▁wezîfe	-11.4702
▁nêvxweyî	-11.4702
▁Xwendekar	-11.4702
▁Kroker	-11.4702
▁bahoz	-11.4703
▁ENCAMDAN	-11.4703
▁proseya	-11.4704
▁Cezayê	-11.4704
▁House	-11.4704
▁Sîstematîk	-11.4705
ADIL	-11.4706
▁makîne	-11.4708
▁pev	-11.4708
▁Burhan	-11.4708
▁vebikin	-11.471
▁Hebîb	-11.4714
▁Orhan	-11.4717
▁Xin	-11.4719
fireh	-11.4722
▁Şerefxan	-11.4723
▁tendiristîya	-11.4726
▁cêgir	-11.4727
fus	-11.4729
hak	-11.4731
Berhem	-11.4739
▁nam	-11.4739
▁hewayî	-11.4741
▁Hûn	-11.4741
ین	-11.4745
▁çareserîyek	-11.4752
▁leşkerek	-11.4752
ving	-11.4755
▁civîneke	-11.4758
riz	-11.476
▁avahiyên	-11.4762
girtiye	-11.4762
kirchen	-11.4763
▁sîstem	-11.4765
▁Zel	-11.4771
▁tirb	-11.4779
hesen	-11.4779
▁350	-11.478
▁Rem	-11.4781
slav	-11.4782
▁Emil	-11.4783
▁Akad	-11.4784
▁Hevpeyvîn	-11.4787
▁KONGIREY	-11.4787
▁MHP	-11.4787
▁nizane	-11.4787
▁SIBE	-11.4787
▁Tayî	-11.4788
▁Berkelî	-11.4788
▁Michel	-11.4788
▁Tehsîn	-11.4788
▁Black	-11.4789
▁guhandar	-11.479
▁dixwast	-11.479
▁Sûryayê	-11.479
▁Betula	-11.4791
▁Korêya	-11.4791
îzasyon	-11.4792
▁dimilî	-11.4794
▁1911	-11.4795
▁Weşanxan	-11.4796
▁xênc	-11.4799
▁karwanek	-11.48
▁dihêlin	-11.4803
▁hov	-11.4808
hiştin	-11.4811
xul	-11.4815
flor	-11.482
▁Şêxo	-11.4821
▁Cefer	-11.4823
▁şiyanên	-11.4825
▁rawestiya	-11.4826
▁terorkirin	-11.4826
▁Schwa	-11.4827
▁çaremîn	-11.4827
▁Erzîrom	-11.4829
▁|+	-11.4829
▁kincên	-11.4833
▁bendava	-11.4834
▁Mîrza	-11.4837
▁şû	-11.4838
weşîn	-11.4844
▁Heskîfê	-11.4845
▁Ket	-11.4849
▁Karzay	-11.485
▁anîbû	-11.4851
Ru	-11.4871
futbol	-11.4872
Deutschland	-11.4873
▁Netanyahu	-11.4873
▁parlîyamenta	-11.4873
▁Îngilistan	-11.4873
▁Ihsan	-11.4873
▁بن	-11.4874
}{	-11.4875
▁Bayram	-11.4875
▁bajêrokê	-11.4876
▁aşitî	-11.4876
▁Rev	-11.4877
▁Asiya	-11.4878
▁Eyûbî	-11.4879
▁asîman	-11.488
▁26'	-11.4883
▁Hugo	-11.4886
▁hozên	-11.4886
▁dîroknas	-11.4888
▁Char	-11.489
Tirkiye	-11.4892
▁1903	-11.4897
▁pişikdarî	-11.4899
▁amadekarîyê	-11.4903
qandin	-11.4907
lock	-11.4912
▁nîgar	-11.4913
▁Xeze	-11.4914
▁Anna	-11.4917
▁kerem	-11.492
▁serxistina	-11.4933
pîk	-11.4933
class	-11.4938
fûr	-11.4941
▁Say	-11.4941
▁kêmkirin	-11.4943
▁birrîn	-11.495
▁partiyek	-11.4951
cio	-11.4952
▁İl	-11.4957
▁Dadgehê	-11.4958
▁29'	-11.4958
▁TOPBARAN	-11.4959
▁ALMANIYA	-11.4959
▁dijepeydaker	-11.4959
▁Berzencî	-11.4959
▁Opozisyon	-11.4959
▁Teyyib	-11.4959
▁Yekşembî	-11.4959
▁pêşerojê	-11.4959
▁referandûm	-11.4959
▁saloxandin	-11.4959
▁Kurtenav	-11.4959
▁Qizil	-11.4959
▁temsîl	-11.4959
▁pakij	-11.496
RIQ	-11.496
▁binêrin	-11.4962
▁derdiket	-11.4962
2008	-11.4964
▁Feqî	-11.4968
▁Doktor	-11.497
▁fêrbûn	-11.4974
▁avedankirin	-11.4976
▁Walter	-11.4977
▁Groß	-11.4977
وو	-11.4978
lêdan	-11.4978
▁Senat	-11.4979
▁zanyarîyan	-11.4982
▁dikevê	-11.4992
▁şikestin	-11.4994
▁vekiriye	-11.4998
▁kongires	-11.5004
▁Find	-11.5005
bijêr	-11.5007
▁sibat	-11.5014
▁siyasetmedarek	-11.5016
▁hawar	-11.5018
▁rêvebiriya	-11.5018
▁sazûman	-11.5019
ktorê	-11.503
▁firrokevan	-11.5033
▁aşkirayî	-11.5035
▁978-3	-11.5035
▁bijarteya	-11.5036
lé	-11.5038
▁pîlan	-11.5039
▁daxistin	-11.5041
enau	-11.5043
▁Şik	-11.5044
▁şandiye	-11.5045
dewrîyeyy	-11.5046
▁PÎROZBAYÎ	-11.5046
▁Rêzefîlm	-11.5046
▁Xiristiyan	-11.5046
▁YPG	-11.5046
▁stiratejîk	-11.5046
′′	-11.5046
▁fedral	-11.5046
▁hezîranê	-11.5046
▁genetîk	-11.5046
▁KBS	-11.5046
▁Köln	-11.5046
▁qiral	-11.5046
▁KÊM	-11.5047
▁ragihana	-11.5048
▁Korêyê	-11.5049
▁şewitî	-11.5049
çend	-11.5049
▁hemu	-11.505
II	-11.505
▁bedena	-11.5051
▁Gundikê	-11.5052
▁Adem	-11.5055
▁Mosko	-11.5058
▁gendelî	-11.506
▁jı	-11.506
hatiye	-11.5068
▁Saxifraga	-11.507
▁Goşt	-11.5072
▁nehêle	-11.5072
▁pêkhatiye	-11.5073
▁Kab	-11.5073
▁Cri	-11.5074
▁anjî	-11.5075
▁Musliman	-11.5076
▁duwem	-11.5077
▁bizavek	-11.5078
▁fermandeyê	-11.5079
▁hak	-11.5079
▁Zozan	-11.5082
Helbest	-11.5083
poz	-11.5083
▁ENCAMA	-11.5086
▁Rusiya	-11.5086
hilbijar	-11.5091
▁Perwerdey	-11.5091
▁Bismil	-11.5092
▁stekan	-11.5095
▁Georg	-11.5098
▁amadeyîya	-11.5098
ital	-11.5102
▁rûbar	-11.5103
▁Adam	-11.5104
nitz	-11.5107
▁serhilda	-11.511
▁sizadan	-11.5111
▁gihaye	-11.5115
▁hevok	-11.5116
▁tundûtûjîya	-11.5117
▁regez	-11.5118
▁vebike	-11.5121
ayetiya	-11.5122
▁Rêvebir	-11.5126
▁damezr	-11.5126
▁pît	-11.5126
Ebdu	-11.5128
▁lingê	-11.5131
▁dayne	-11.5133
▁DESTNÎŞAN	-11.5133
NIVÎS	-11.5133
σ	-11.5133
▁(2002)	-11.5133
FFDEAD	-11.5133
▁aştiyane	-11.5133
muddet	-11.5133
▁pestoya	-11.5133
▁Fehmî	-11.5134
▁Efendî	-11.5134
▁(1997)	-11.5134
▁Navokî	-11.5134
▁(2008)	-11.5134
▁Cemiyeta	-11.5134
▁Mahabad	-11.5134
▁Dûtax	-11.5134
▁paşeroja	-11.5134
▁Hekîm	-11.5135
▁konsol	-11.5136
▁Bahoz	-11.5136
▁bihûrî	-11.5137
▁opera	-11.5139
▁Hêmin	-11.5139
▁Operasyon	-11.514
▁gûz	-11.514
▁Dawid	-11.5141
▁Beled	-11.5143
▁30'	-11.5143
▁Nazim	-11.5149
▁Sofî	-11.5153
▁Sav	-11.5154
▁veqetandin	-11.5158
▁çêkiriye	-11.5159
▁EZ	-11.5162
▁23'	-11.5163
▁rayedarên	-11.5163
ketiye	-11.5164
▁Sand	-11.5165
▁madde	-11.5167
▁pêywîst	-11.5171
Almanya	-11.5171
▁Yer	-11.5185
▁Pak	-11.5191
cula	-11.5195
▁Nûçeyan	-11.5199
▁xat	-11.5205
▁temaşevan	-11.5206
wate	-11.521
beh	-11.5215
▁Komelgeh	-11.5215
▁naverok	-11.5217
▁Batman	-11.5219
FFFFFF	-11.5222
▁Berzincî	-11.5222
▁EHMED	-11.5222
▁Napoleon	-11.5222
▁YEKÎTÎY	-11.5222
▁glukoz	-11.5222
▁Îdrîs	-11.5222
γ	-11.5222
▁Îrland	-11.5222
▁Îsrael	-11.5222
▁Doğan	-11.5222
▁zeytê	-11.5222
▁Mengurr	-11.5222
▁grûpek	-11.5222
▁Teyfûr	-11.5222
▁boneyê	-11.5223
▁geheşt	-11.5223
▁zêrevan	-11.5223
▁Hamburg	-11.5223
▁Vil	-11.5223
▁heftiya	-11.5225
▁dilxweş	-11.5226
▁rojevê	-11.5228
▁motor	-11.5229
ncax	-11.5231
▁Trans	-11.5232
▁sc	-11.5232
opsis	-11.5232
▁Qan	-11.5237
▁É	-11.5238
▁Serbaz	-11.5238
▁birc	-11.5239
▁nahêle	-11.5241
▁Ebu	-11.5242
ology	-11.5243
▁Îlon	-11.5246
▁teyr	-11.525
▁Destpê	-11.5251
▁gûnd	-11.5255
▁sirûştî	-11.5258
▁Balkan	-11.5261
leşker	-11.5261
Pir	-11.5262
▁wêneyan	-11.527
emmer	-11.527
▁riyên	-11.5271
ward	-11.5272
▁Hemo	-11.5272
▁xaç	-11.5275
▁Req	-11.528
zona	-11.5281
▁xalkê	-11.5285
▁ticar	-11.5285
▁asmanîya	-11.5288
600	-11.5292
▁Rêya	-11.5306
vor	-11.5308
▁tîmek	-11.5311
▁Dûzxormato	-11.5311
▁KANDÎD	-11.5311
▁ÎTILAFA	-11.5311
▁guncav	-11.5311
▁Jefrî	-11.5311
▁Wirmê	-11.5311
▁dirûvê	-11.5311
▁BAŞÛR	-11.5311
▁France	-11.5312
▁Qeretepe	-11.5313
▁Pispor	-11.5313
▁Qubad	-11.5314
▁2011'	-11.5316
▁herisê	-11.5317
▁asîdê	-11.532
▁belavok	-11.5324
▁ÇEK	-11.5325
▁nawçey	-11.5328
▁Anders	-11.5329
▁Meydan	-11.5342
şkence	-11.5342
▁Hîl	-11.5343
ка	-11.5344
▁pêdivîye	-11.5348
▁xelet	-11.5356
icum	-11.5361
▁behane	-11.5361
▁hemahengî	-11.5362
gno	-11.5363
▁bijîşkiy	-11.5365
▁navça	-11.5372
▁peymanek	-11.5376
▁aloztir	-11.538
▁hilawîstî	-11.5391
sbach	-11.5392
▁Apo	-11.5399
▁Parlemen	-11.54
▁December	-11.5401
▁Larîcanî	-11.5401
▁Yusif	-11.5401
▁wilayet	-11.5401
▁hinceta	-11.5402
▁dinivîsîne	-11.5402
▁firoştin	-11.5402
▁VEGER	-11.5402
▁ayetan	-11.5403
▁Astara	-11.5403
▁Bernard	-11.5403
▁sêşembîyê	-11.5405
▁tûşî	-11.5406
▁dûbare	-11.5406
▁1902	-11.5413
▁1909	-11.5413
▁Syn	-11.5414
▁Amir	-11.5416
▁PARTÎYA	-11.5416
osret	-11.5417
▁alozîyê	-11.5418
pûş	-11.5425
çim	-11.5425
▁Yemenî	-11.5427
▁şagirt	-11.5427
▁muh	-11.5433
▁biharê	-11.5435
▁berdide	-11.5437
zîm	-11.544
Piştî	-11.5442
▁zanko	-11.5449
ühl	-11.5454
▁Song	-11.5458
▁Feder	-11.5458
▁dikane	-11.5465
▁TEN	-11.5466
▁devrê	-11.5467
NAMEYA	-11.5475
▁qaçax	-11.5478
▁şaredariyê	-11.5482
▁tac	-11.5486
▁piştevan	-11.5489
▁HEFT	-11.5492
▁Fîlîstînî	-11.5492
▁PROSESA	-11.5492
▁bexdenûs	-11.5492
Dîskografî	-11.5492
▁agahiyan	-11.5492
▁giştpirsiy	-11.5492
▁CIA	-11.5492
▁erdnîgarî	-11.5493
▁rehet	-11.5493
▁miliyon	-11.5494
="4"	-11.5494
▁Lenîn	-11.5495
▁Minaq	-11.5496
▁geştir	-11.55
▁Zil	-11.5503
▁dirêjahiya	-11.5503
▁greva	-11.5505
▁Deverê	-11.5507
▁Hemed	-11.5508
▁çepgir	-11.551
rojname	-11.551
▁rêvebirîyê	-11.5512
▁RÛ	-11.5513
▁95%;	-11.5515
▁Bedir	-11.5517
▁Sü	-11.5521
sifre	-11.5524
▁Ladin	-11.553
▁danîye	-11.5532
▁propagandayê	-11.5534
▁Bernameya	-11.5535
▁girêdayê	-11.5537
▁guhar	-11.5542
▁herdemîya	-11.5544
ibandin	-11.5547
▁Wis	-11.5548
▁Lîbîya	-11.5555
ball	-11.5556
jtin	-11.5557
sînor	-11.5558
▁sûnd	-11.5562
wil	-11.5571
Arma	-11.5581
▁nexş	-11.5583
▁Kalîforniya	-11.5584
ُ	-11.5584
▁Demokrasiyê	-11.5584
▁Portûgal	-11.5584
▁Fewzî	-11.5584
▁Talabanî	-11.5584
▁Hitler	-11.5584
▁amadebûyan	-11.5584
▁PÊNC	-11.5584
▁osmanî	-11.5584
▁tewr	-11.5584
▁herwesa	-11.5584
▁Remedan	-11.5585
▁perestgeh	-11.5585
▁mono	-11.5586
▁ragihanek	-11.5588
▁Hizr	-11.559
▁Hişyar	-11.559
▁sifir	-11.5593
▁masûlkeyê	-11.5595
▁bernameyeke	-11.5596
▁hêrs	-11.5596
▁çêj	-11.5598
▁eynî	-11.5598
▁Mist	-11.56
▁konferans	-11.5601
▁ferq	-11.5603
▁rûbarê	-11.5604
▁xav	-11.5604
▁dupat	-11.5604
▁birçî	-11.5606
▁pêwendî	-11.5608
▁Babil	-11.5616
▁karîger	-11.5617
▁bazirganiya	-11.5617
îyetê	-11.5627
▁medenî	-11.563
▁saloxegerîya	-11.5631
▁xanedan	-11.5634
▁beraz	-11.5634
▁binçav	-11.5635
Herêm	-11.5637
nîgarî	-11.5637
▁sêv	-11.5646
▁werz	-11.5647
▁Stein	-11.5661
>	-11.5677
▁Bîngol	-11.5677
▁CÎHANÊ	-11.5677
▁otombîlê	-11.5677
▁Mahmud	-11.5677
▁Tayyîp	-11.5677
▁berfanbara	-11.5677
▁Îhsan	-11.5677
▁Ceyhan	-11.5677
▁Urmiyê	-11.5677
▁Binekom	-11.5677
▁jidayik	-11.5677
▁Saudî	-11.5677
▁prensîp	-11.5677
▁piştgir	-11.5677
▁katjimêr	-11.5677
▁dixebitî	-11.5677
▁zivir	-11.5677
▁Merîwan	-11.5677
▁Meryem	-11.5678
▁Ekrem	-11.5678
▁Nûredîn	-11.5678
▁GIRT	-11.5679
▁Zinar	-11.5679
▁Mamekiy	-11.5681
▁KIRIYE	-11.5682
▁Night	-11.5682
▁kirdewe	-11.5682
▁saxlemîyê	-11.5682
▁Zazakî	-11.5683
▁BIDE	-11.5685
▁Rusya	-11.5685
▁Dogan	-11.5688
▁dikevit	-11.5689
▁110	-11.5692
مه	-11.5693
▁rêkarên	-11.5698
▁evîndar	-11.57
▁supay	-11.5705
▁Cham	-11.5705
▁sazûmaniya	-11.5705
▁Akrê	-11.5705
hemed	-11.5708
▁Jîyan	-11.5708
oloji	-11.5709
▁Oto	-11.571
▁Patri	-11.5719
▁têkçû	-11.5722
▁Yû	-11.5723
▁Bird	-11.5723
▁împeratoriya	-11.5724
llus	-11.5724
1988	-11.5724
▁Heq	-11.5725
▁Sirb	-11.5726
▁şopandin	-11.5728
▁Muam	-11.5743
▁bisekin	-11.5744
seki	-11.5746
▁rawestand	-11.5747
▁germiya	-11.5754
▁Cot	-11.5755
▁Cib	-11.5759
Împerator	-11.5765
▁bahs	-11.5768
▁cidî	-11.5769
▁nedane	-11.5769
Serok	-11.577
ř	-11.577
▁Encumena	-11.577
▁Medvedev	-11.577
▁PAKISTAN	-11.577
С	-11.577
▁ARÊŞE	-11.577
▁Pasîfîk	-11.577
▁Refsencanî	-11.577
▁[9:3	-11.577
▁zikmakî	-11.577
▁System	-11.577
▁birawestin	-11.577
▁dihewîne	-11.577
▁hukmê	-11.577
▁Gewirk	-11.577
▁Xozat	-11.577
▁United	-11.5771
▁şekl	-11.5771
▁YEKEM	-11.5771
çı	-11.5772
▁parlementer	-11.5773
▁qise	-11.5774
▁fêkî	-11.5775
▁GOT	-11.5775
▁hîvî	-11.5776
▁parlemanî	-11.5781
▁hîm	-11.5782
▁Dam	-11.5787
▁PYD	-11.5791
▁Beraz	-11.5796
▁Parêzer	-11.5802
▁Rafi	-11.5804
▁Pale	-11.5809
▁DERVEY	-11.5809
Turk	-11.5812
parastin	-11.5814
BÛN	-11.5815
▁nehatin	-11.5818
▁şaristanê	-11.582
saziyê	-11.5822
▁State	-11.5822
▁xelek	-11.583
▁Xaz	-11.583
▁neviyê	-11.5832
▁FU	-11.5836
▁Sunne	-11.5837
▁Pêk	-11.5837
▁tore	-11.5846
▁Kum	-11.5849
▁rexnegir	-11.5854
▁Dîlok	-11.5857
▁Sosyal	-11.586
.06.2010	-11.5864
▁Bedfort	-11.5864
▁KOMÎTEYA	-11.5864
▁OPEC	-11.5864
▁hevzayend	-11.5864
▁padîşah	-11.5864
▁Pevçûn	-11.5864
aaaaaa	-11.5864
▁Psycho	-11.5864
▁sendîka	-11.5864
▁behra	-11.5865
▁ewlekariyê	-11.5865
▁dikujin	-11.5865
▁Komîsyon	-11.5866
▁suryanî	-11.5866
▁hûner	-11.5868
▁Piştevan	-11.5868
▁pîşesaziy	-11.5871
▁bahse	-11.5871
▁VEKIRIN	-11.5871
▁Romanya	-11.5873
▁êvara	-11.5873
▁978-	-11.5874
▁lawir	-11.5879
▁Metîn	-11.5881
▁herwekî	-11.5883
xtiyar	-11.5885
▁ح	-11.5886
▁Îtaliyayî	-11.5893
▁Psîko	-11.5894
▁cû	-11.5894
▁Ewrûpayê	-11.5896
▁belgename	-11.5897
▁Meletî	-11.5897
▁çûnkî	-11.59
▁dermankirin	-11.5902
ografiya	-11.5902
▁Misr	-11.5903
KIRÎ	-11.5904
▁cew	-11.5905
▁guhert	-11.5906
▁Dîyar	-11.5907
▁radyoyê	-11.5907
▁hû	-11.5912
▁Sînemay	-11.5912
▁serkeftinê	-11.5915
▁rengekî	-11.5916
▁Pasîn	-11.5916
▁laz	-11.5916
▁pêywîste	-11.5921
▁DR	-11.5924
▁cir	-11.5928
▁Qul	-11.5928
اد	-11.5928
▁yekbûyî	-11.5929
▁daxaz	-11.593
▁Hemze	-11.5932
▁sûreyek	-11.5941
kevtina	-11.5942
▁feq	-11.5948
▁PAŞ	-11.5948
5.000	-11.5948
▁Pehle	-11.5959
▁Microsoft	-11.596
▁November	-11.596
▁Tugluk	-11.596
▁Zankoya	-11.596
▁çarşembîyê	-11.596
▁Makedon	-11.596
▁oksîjen	-11.596
▁ciyawaz	-11.596
▁pêwendiyên	-11.596
▁Brahîmî	-11.596
▁tropîk	-11.596
▁nijad	-11.596
▁Îngilîzî	-11.596
▁Rhein	-11.596
▁teknolojî	-11.596
▁Nivîsbariy	-11.596
▁Taylor	-11.5961
▁cemawerî	-11.5961
▁nexweşxaneyek	-11.5961
▁gedeyê	-11.5962
▁xerîb	-11.5962
▁Japonyayê	-11.5964
MER	-11.5966
▁drama	-11.5967
peyv	-11.5967
▁1901	-11.597
▁sîstemek	-11.5976
▁bermîleka	-11.5978
▁şeref	-11.5983
▁Pres	-11.5985
▁Tirş	-11.5988
▁opozîsyon	-11.5989
▁giringîyê	-11.5991
▁şîretkar	-11.5992
pîv	-11.5993
▁FIRROKEY	-11.5993
▁Rêveberiya	-11.5996
▁Gui	-11.5996
▁mag	-11.6003
▁alîkarîkirin	-11.6003
▁teroristî	-11.6007
rîb	-11.6008
▁Lîbî	-11.6017
▁Çu	-11.602
▁xwestek	-11.6023
▁zeman	-11.6026
▁belgeyê	-11.6043
▁Mix	-11.6046
▁zanayê	-11.6049
▁hikûmetek	-11.6049
oîd	-11.605
▁ERDOGAN	-11.6056
▁Qereyaziyê	-11.6056
▁werbigre	-11.6056
▁FEDERAL	-11.6056
▁DEVERA	-11.6056
▁Kîpros	-11.6056
▁Yusuf	-11.6056
▁Konsulê	-11.6056
▁girseyî	-11.6056
▁qîmet	-11.6056
▁Tak	-11.6057
▁namîne	-11.606
▁Aysel	-11.6062
DIR	-11.6062
▁Yekitiy	-11.6063
▁amînî	-11.6064
▁Federasyon	-11.607
▁Mirad	-11.6083
▁Parêz	-11.6083
xam	-11.6086
navçe	-11.6088
▁hokara	-11.6089
▁rojnameger	-11.609
▁Xec	-11.6093
▁Bö	-11.6098
berhemanîn	-11.6102
▁bikira	-11.6107
▁Bonn	-11.6107
2007	-11.611
▁destpêbûna	-11.6112
▁Mûs	-11.6113
▁Music	-11.6115
▁merge	-11.6116
ای	-11.612
▁hinartin	-11.6123
ental	-11.6124
▁kit	-11.6131
▁pêlav	-11.6132
ات	-11.6132
▁Belge	-11.6134
▁çûbû	-11.6143
▁girtîyan	-11.6144
▁Taş	-11.6145
▁not	-11.6149
▁bihêztir	-11.615
▁Anti	-11.615
▁pêywîstî	-11.6151
▁Hêz	-11.6153
ط	-11.6153
.05.2010	-11.6153
×	-11.6153
▁Ergenekon	-11.6153
ו	-11.6153
▁mehkûm	-11.6153
▁berevajî	-11.6153
▁Herwesa	-11.6153
▁Mijara	-11.6153
▁Nîvgirav	-11.6153
▁(1995)	-11.6153
▁Dîplomat	-11.6155
▁Wêjey	-11.6155
▁Şeş	-11.6156
▁Kaplan	-11.6156
▁hotel	-11.6158
▁Kobanê	-11.6158
▁blok	-11.6159
MV	-11.616
ischer	-11.616
▁bergên	-11.6168
▁Senator	-11.6169
▁guhdarîkirin	-11.6173
▁polit	-11.6174
▁Herîr	-11.6177
Deng	-11.6177
▁sunî	-11.6177
ام	-11.6181
▁Hiş	-11.6188
▁Elçî	-11.6199
▁kovî	-11.6206
▁Gundek	-11.6213
▁Şûr	-11.6219
▁weş	-11.6223
▁çavdêriya	-11.6225
▁TEQÎN	-11.6225
▁Cat	-11.6227
amîk	-11.6234
▁mix	-11.6234
▁cida	-11.6238
▁navçê	-11.6239
▁gam	-11.6243
▁Zew	-11.6244
▁Osmanîyan	-11.625
moon	-11.6251
Nymphaea	-11.6251
▁Belçîka	-11.6251
▁Istanbolê	-11.6251
▁Perliyament	-11.6251
▁PÊŞINYAR	-11.6251
▁Stuttgart	-11.6251
▁norwêcî	-11.6251
π	-11.6251
ר	-11.6251
▁bigihîje	-11.6251
▁disekinê	-11.6251
oplast	-11.6252
▁Navdewletî	-11.6252
▁Arthur	-11.6252
▁Fexr	-11.6253
▁Misircê	-11.6253
▁distîne	-11.6254
▁Norşîn	-11.6254
▁Mesud	-11.6254
▁mertal	-11.6258
▁Tevlî	-11.6259
▁amede	-11.626
▁perwerdehî	-11.6264
▁Def	-11.6269
Mîrektiy	-11.6272
▁giş	-11.6272
▁piroses	-11.6272
▁endamek	-11.6274
▁God	-11.6279
▁agahîyên	-11.6282
▁Swîsreyê	-11.6284
▁Vel	-11.6284
Edit	-11.6285
▁komelgehê	-11.6289
▁vol	-11.629
▁behskirin	-11.6293
▁yekgirtina	-11.6294
▁Memo	-11.6295
▁karnameya	-11.6302
▁navdêr	-11.6304
▁Iraqeka	-11.6307
=300	-11.6309
▁danana	-11.631
▁Lîstikvan	-11.6316
▁Book	-11.6317
▁Kerboran	-11.632
▁Fizîk	-11.632
▁Seydayê	-11.6323
▁Saf	-11.6326
▁Dêrik	-11.633
▁herfê	-11.6332
▁pêkhateya	-11.6335
▁paşkevtin	-11.6344
XWAZ	-11.6347
ć	-11.635
ά	-11.635
▁Bruksel	-11.635
▁rûnbirêşk	-11.635
▁Îrlenda	-11.635
▁[9:2	-11.635
▁Behdînan	-11.635
▁Erxewan	-11.635
▁AZAD	-11.635
▁Parlamentoy	-11.635
▁fermandarîy	-11.635
▁dilîze	-11.6351
▁îdia	-11.6352
▁Viyana	-11.6354
▁qebîl	-11.6355
▁Îsawî	-11.6359
▁Pêr	-11.636
▁nakim	-11.636
▁Ûsiv	-11.6361
Şer	-11.6362
rêxistin	-11.637
▁polît	-11.6375
▁ewlehîya	-11.6379
▁Amar	-11.6382
cîl	-11.6384
▁Esad	-11.6386
▁Sabah	-11.6387
▁Qew	-11.6389
▁ermen	-11.6391
Kel	-11.6394
▁sinor	-11.6402
▁bihîst	-11.6404
▁qeyran	-11.6406
او	-11.6407
▁Reşo	-11.641
IKA	-11.6415
▁Colemêrg	-11.6421
▁peywirdar	-11.6422
▁yekalîkirin	-11.6434
▁cûreyê	-11.6445
▁Christ	-11.645
hesanî	-11.645
<	-11.645
▁Billboard	-11.645
▁DIJWAR	-11.645
▁Dumlûcî	-11.645
▁aktrîs	-11.645
▁Öcalan	-11.645
▁Lezgîn	-11.645
▁gemîyên	-11.645
▁Hafiz	-11.645
▁dayk	-11.645
▁NAKE	-11.645
▁Wolf	-11.645
▁gemîya	-11.6451
▁Sedsala	-11.6451
▁Avhewa	-11.6451
▁Online	-11.6452
▁Agahiyê	-11.6452
▁geştevanîyê	-11.6453
▁NÛNERÊN	-11.6455
▁Serbajar	-11.6455
▁bendera	-11.6456
▁pirojeya	-11.6457
▁BAŞ	-11.6457
▁Bapîr	-11.6457
▁Ktv	-11.6458
▁Tiştê	-11.6459
▁Raf	-11.6461
▁hêşîn	-11.6462
▁Wind	-11.6463
▁nexşeya	-11.6466
▁Sêyem	-11.6467
▁bilez	-11.6471
▁nakok	-11.6474
▁pêkhatina	-11.6476
▁Xelq	-11.648
▁akincîyê	-11.6482
▁gihiştiye	-11.6485
▁Plant	-11.6486
▁geşbîn	-11.6494
Pirtûk	-11.65
BIN	-11.6502
▁Salim	-11.6503
▁Phys	-11.6508
دا	-11.6509
▁heftîya	-11.6509
85/	-11.651
▁kaş	-11.6523
▁Sov	-11.6523
xl	-11.6526
▁ferz	-11.6528
▁Emar	-11.6533
▁Selman	-11.6537
▁Benjamin	-11.6551
▁Dawûdoglû	-11.6551
▁EBDULMEHDÎ	-11.6551
▁Festival	-11.6551
▁enfalkirîyan	-11.6551
▁profesyonel	-11.6551
▁Çêrmûgê	-11.6551
ž	-11.6551
▁EBDUL	-11.6551
▁Ûrmiye	-11.6551
▁etnîkî	-11.6551
▁Babekir	-11.6551
▁Beyrût	-11.6551
▁Dîdevan	-11.6551
▁disekine	-11.6551
public	-11.6551
▁maddî	-11.6551
▁arşîv	-11.6551
▁fîzîknasek	-11.6551
▁toz	-11.6552
▁îsotê	-11.6552
▁Berkeliy	-11.6553
▁rêjîm	-11.6553
▁govend	-11.6556
▁lewre	-11.6561
▁1907	-11.6562
▁sazkarîya	-11.6565
▁gasê	-11.6568
▁Alex	-11.6571
▁derbeya	-11.6574
▁Tîl	-11.6583
▁Sip	-11.6595
▁Tim	-11.6597
▁saloxegerî	-11.6601
▁DERVE	-11.6619
▁alfabe	-11.662
▁sew	-11.6622
▁Qerexan	-11.6624
▁gengeşeyan	-11.6625
▁Ermen	-11.6626
▁tarîx	-11.6627
girit	-11.6633
▁Heb	-11.6638
▁Hevserok	-11.6638
▁Amerîk	-11.6638
cri	-11.6643
▁kongire	-11.6644
▁PETROL	-11.6647
▁Cew	-11.6651
▁Bername	-11.6651
غ	-11.6653
▁(2003)	-11.6653
▁GIRING	-11.6653
▁Korkmaz	-11.6653
▁October	-11.6653
▁Zûlfeqar	-11.6653
▁festival	-11.6653
▁geşepêdan	-11.6653
▁meclîsê	-11.6653
▁Suleyman	-11.6653
▁Exxon	-11.6653
▁zemînlerza	-11.6653
▁problem	-11.6653
▁Lewma	-11.6653
▁cewherê	-11.6653
▁daxuyand	-11.6653
▁Mutleg	-11.6653
▁Sendîka	-11.6653
▁BOMB	-11.6654
▁perleman	-11.6655
▁Kultur	-11.6655
▁sazişê	-11.6655
▁MIL	-11.6655
▁Mehemed	-11.6655
▁qebul	-11.6656
▁digihêje	-11.6656
SAL	-11.6656
▁fahmkirin	-11.6656
▁Bextiyar	-11.6656
▁kenala	-11.6656
AMÎ	-11.6657
▁USA	-11.6657
نا	-11.6658
▁Kanadayê	-11.666
▁qalik	-11.666
ranşarê	-11.6661
▁Tîpa	-11.6665
▁Brand	-11.6673
▁bingih	-11.6675
▁diafirê	-11.6677
▁Zim	-11.6679
▁Fatma	-11.6684
▁xwekujekî	-11.6684
▁Pîvan	-11.6685
▁keçek	-11.6687
Benda	-11.6696
▁bît	-11.6714
▁serkirdeyê	-11.6717
▁coga	-11.6722
▁Jam	-11.6733
▁zayîn	-11.6735
▁Zêw	-11.6736
ETA	-11.6738
▁xam	-11.674
witz	-11.674
▁Nord	-11.6741
▁Kaş	-11.6742
festîval	-11.6743
▁Karker	-11.6745
ûşk	-11.6747
▁KONSUL	-11.6756
▁Kerkukê	-11.6756
▁Rewandizê	-11.6756
▁Tûrkiye	-11.6756
▁dilhêsayî	-11.6756
▁diplomatkar	-11.6756
▁çapemeniyê	-11.6756
▁Mizûrî	-11.6756
▁Kanîreşê	-11.6756
▁despêka	-11.6756
▁şadîmana	-11.6756
▁Apple	-11.6756
▁Bikaranîn	-11.6757
svg	-11.6757
▁xwîşk	-11.6757
ов	-11.6757
▁geştevan	-11.6758
▁Şikeft	-11.6759
▁Ofîs	-11.6759
▁nuşt	-11.676
▁bistîne	-11.676
▁xetabar	-11.676
▁aştîxwaz	-11.676
Grup	-11.6761
Berberis	-11.6762
ibu	-11.6763
▁Wargeha	-11.6763
▁Musilman	-11.6764
▁Nûçey	-11.6768
▁îroyîn	-11.6768
herêm	-11.6769
▁dostanîy	-11.6769
▁1904	-11.677
▁bombeya	-11.6773
▁Esp	-11.6774
▁Başur	-11.6774
îsmê	-11.6778
▁neçû	-11.6781
▁Qal	-11.6784
hezar	-11.6795
▁Gom	-11.6805
▁Qers	-11.6813
tevlî	-11.6815
▁bîranîn	-11.6817
▁piştevanîyê	-11.6823
▁Burg	-11.6823
▁rojnamevanekî	-11.6827
▁Çep	-11.6833
▁diheri	-11.6833
▁Rich	-11.6847
▁Green	-11.685
iyûm	-11.6852
nivis	-11.6854
ø	-11.686
▁Danûstandin	-11.686
▁Xwenîşander	-11.686
▁statîstîk	-11.686
melzemeyê	-11.686
▁Crocus	-11.686
▁merasîmê	-11.686
▁Şaweys	-11.686
▁diktator	-11.686
▁Street	-11.686
▁zehf	-11.686
Hrsg	-11.6861
▁zewaca	-11.6861
▁Ernst	-11.6861
▁felsefîkî	-11.6861
▁Ziyaret	-11.6862
▁nûnerênIraq	-11.6862
▁nişkê	-11.6863
▁leyîst	-11.6867
▁mifa	-11.6875
▁kombest	-11.6875
kır	-11.689
▁Norgeh	-11.6892
▁Oliv	-11.6898
mêş	-11.6902
ан	-11.6903
▁akad	-11.6904
▁Karwan	-11.6906
▁pût	-11.6911
▁pêşengiya	-11.6914
▁qerebû	-11.6914
helbest	-11.6917
2013;	-11.6921
pirtuk	-11.6922
▁elektro	-11.6922
Dest	-11.694
▁BERPIRSÊ	-11.6947
▁riwekek	-11.6951
▁peqand	-11.6953
rendaz	-11.6957
▁port	-11.6959
▁Ahûramazda	-11.6965
▁Florida	-11.6965
▁erdnîgariy	-11.6965
▁makezagon	-11.6965
▁pêywsît	-11.6965
ί	-11.6965
▁Evdirehman	-11.6965
▁PIŞTÎ	-11.6965
▁Urdonê	-11.6966
▁Alfred	-11.6966
▁bigoşt	-11.6966
▁HINEK	-11.6966
▁cûnta	-11.6966
▁nijadperest	-11.6966
▁diweşîne	-11.6966
▁rîpel	-11.6967
TIRÎN	-11.6967
▁zewacê	-11.6968
▁dişînin	-11.6968
▁Çor	-11.6969
▁miz	-11.697
▁serbajarê	-11.697
▁volkan	-11.6972
▁Zanistvanê	-11.6973
▁kitab	-11.6973
▁1916	-11.6974
sperm	-11.6976
▁Kav	-11.6978
▁Mîd	-11.698
▁Stêrk	-11.6982
انی	-11.6984
▁goreyê	-11.6985
▁Veger	-11.699
▁desthilatdariyê	-11.699
▁Frei	-11.6991
▁kûçik	-11.6993
▁xelatkirin	-11.6996
▁xer	-11.6998
▁rêkeftinek	-11.6998
▁japon	-11.6999
▁Beyt	-11.7005
kirdin	-11.7008
▁sekreter	-11.7011
▁teknol	-11.702
Fransa	-11.7021
2.5	-11.7022
navbera	-11.7025
Partiya	-11.7026
dîrok	-11.7038
▁koro	-11.7039
dihê	-11.7041
▁rojnamegeriy	-11.7041
▁gulleyê	-11.7046
▁Ebdil	-11.7049
▁1/2	-11.705
pûl	-11.705
▁Proto	-11.7064
▁ŞAND	-11.7064
▁investkar	-11.7069
gihîne	-11.7071
▁Awistraliya	-11.7072
▁şkestin	-11.7072
▁Fakulteya	-11.7072
▁Xesxêrê	-11.7072
▁ZAROK	-11.7072
▁Zamenhof	-11.7072
▁Gelawêj	-11.7072
▁grîfon	-11.7072
▁derbixe	-11.7072
▁mêhvan	-11.7072
▁bajêrvanîyê	-11.7072
▁dimeşîne	-11.7072
ст	-11.7073
▁hukim	-11.7073
▁Elesed	-11.7073
▁Stalîn	-11.7074
▁mesîh	-11.7075
▁Girl	-11.7075
Wiki	-11.7075
andibû	-11.7078
▁Çelîk	-11.7078
▁xirok	-11.7079
▁layen	-11.708
▁Oslo	-11.7084
▁bijarte	-11.7085
xêr	-11.7088
▁seferê	-11.7088
▁bitenê	-11.7094
ilia	-11.71
▁Bîranîn	-11.7104
▁Heşt	-11.7105
▁serhejmarî	-11.7109
▁Nemir	-11.7114
▁Poz	-11.7118
▁doktoray	-11.7121
▁Lubnan	-11.7123
Qu	-11.7126
▁Wargehê	-11.7146
▁Zeit	-11.7154
stic	-11.7167
arvan	-11.7168
▁nîjad	-11.7179
konsûlxaneya	-11.7179
▁APWebsite	-11.7179
▁Ahmedînejad	-11.7179
▁Ismayîl	-11.7179
▁Yildirim	-11.7179
▁pezmijok	-11.7179
▁HEYE	-11.7179
▁Pierre	-11.7179
▁têkoşer	-11.718
▁Pergala	-11.718
▁dijeten	-11.718
▁Cibûrî	-11.718
▁zargotin	-11.718
▁Çîçek	-11.7181
▁Hollanda	-11.7181
▁Quds	-11.7183
▁polîtîkaya	-11.7184
▁akincîbûnê	-11.7185
▁bişon	-11.7185
▁Hekar	-11.7185
="3"	-11.7187
▁Moskov	-11.7189
▁Rewanê	-11.7192
▁Salnamey	-11.7193
▁Desthilat	-11.7193
gihandina	-11.7194
▁kulîlkdar	-11.7194
Falco	-11.7195
▁Behram	-11.7198
▁Tîpê	-11.7198
▁Sabir	-11.7198
▁xeml	-11.7201
▁Hindir	-11.7202
▁derfetek	-11.7206
▁berpirsîya	-11.7206
▁birrgeh	-11.7211
▁Xanedan	-11.7215
▁kesayetiya	-11.7216
▁komîta	-11.7229
▁Lü	-11.7242
▁Buch	-11.7257
▁hevjîn	-11.7257
▁kehrebay	-11.7268
М	-11.7288
▁Asayiş	-11.7288
▁Azarpêrt	-11.7288
▁HUSEYN	-11.7288
▁Standard	-11.7288
▁Yenîşehîrê	-11.7288
▁[21:4	-11.7288
▁[9:1	-11.7288
▁beyanameyekî	-11.7288
▁zemînlerzê	-11.7288
▁İstanbul	-11.7288
▁Şengalê	-11.7288
К	-11.7288
▁Macaristan	-11.7288
▁berguman	-11.7289
▁Yûnis	-11.7289
▁SÛRÎY	-11.7289
▁Francisco	-11.7289
▁xêrhatina	-11.7289
▁bistînin	-11.7289
▁Xamûr	-11.729
▁serokayetiya	-11.7291
▁pesna	-11.7294
▁efû	-11.7295
▁Mauri	-11.7296
▁Royal	-11.7296
▁10.000	-11.7296
▁BÛŞ	-11.73
▁Miks	-11.7301
▁Birc	-11.7301
▁Wild	-11.7304
▁Yur	-11.7314
gihişt	-11.7317
▁lawik	-11.7317
▁bikuje	-11.7323
▁Silo	-11.7325
▁avabûn	-11.7332
▁Dozger	-11.7333
bêr	-11.7343
▁tenahîy	-11.7348
▁domandin	-11.735
axêv	-11.7351
amerika	-11.7352
▁Kron	-11.7353
▁hevkariyê	-11.7359
▁gihîştin	-11.7361
▁Terr	-11.7363
ough	-11.7364
▁lîstek	-11.7368
xistiye	-11.7375
▁dabînkirin	-11.7381
ular	-11.7385
htm	-11.7387
Official	-11.7398
ל	-11.7398
▁Bozarslan	-11.7398
▁Edebiyat	-11.7398
▁Ludwig	-11.7398
▁UNAMI	-11.7398
▁katolîk	-11.7398
▁Ebdulhadî	-11.7398
▁Krîstiyan	-11.7398
▁Zivistan	-11.7398
▁şadîmanê	-11.7398
▁lîseyê	-11.7398
▁supasîya	-11.7398
▁feat	-11.7399
▁pêwist	-11.7399
▁pişikan	-11.74
%20	-11.74
▁birayane	-11.74
▁Doskî	-11.7401
▁Koşka	-11.7402
▁Fetah	-11.7403
PDF	-11.7403
▁hiştiye	-11.741
▁kundir	-11.7413
▁Qasimlo	-11.7413
▁Merc	-11.7415
ра	-11.7417
▁terk	-11.7418
heşt	-11.742
▁damezrîn	-11.7423
▁1898	-11.7426
▁Pav	-11.7426
▁rejîm	-11.7426
▁mehekê	-11.7427
700	-11.743
▁Nacî	-11.743
▁hêjayî	-11.7433
▁parêzvan	-11.7434
▁Hejar	-11.7436
▁zev	-11.7439
äu	-11.7449
▁Mew	-11.745
▁texmînkirin	-11.7455
▁dîke	-11.7458
▁stu	-11.7461
▁keştiyê	-11.7465
2005	-11.7467
çîr	-11.7479
▁100.000	-11.7482
▁Çima	-11.7489
▁piştîvanîy	-11.7493
beck	-11.7493
▁hilgir	-11.7497
▁pêşangeh	-11.7503
▁WEK	-11.7505
2004	-11.7506
х	-11.7509
▁Arjentîn	-11.7509
▁Beşîkçî	-11.7509
▁HEJMAR	-11.7509
▁Qefqas	-11.7509
▁mekanîzma	-11.7509
▁XURT	-11.7509
▁Yûsiv	-11.7509
▁karakter	-11.751
qeza	-11.751
▁mûçeyê	-11.751
▁Moqt	-11.7511
▁destxweşî	-11.7511
▁aciz	-11.7512
▁zayin	-11.7512
▁vekişiya	-11.7516
▁zordest	-11.7516
DEM	-11.7516
▁bavêjin	-11.7517
▁900	-11.7517
▁Letîf	-11.752
▁pêşgotin	-11.7521
▁kaset	-11.7524
ské	-11.7526
▁hikm	-11.7527
▁cihanîn	-11.7529
▁Zêd	-11.7531
▁xweztiye	-11.7533
▁hîdr	-11.7538
▁Kongo	-11.7539
▁konsul	-11.7539
show	-11.7539
▁seredan	-11.7545
mento	-11.7546
▁Media	-11.7547
▁guftûgoyan	-11.7548
▁peywir	-11.7548
▁kurrê	-11.7552
▁hindir	-11.7561
▁zîv	-11.7561
ceae	-11.7576
Divê	-11.7582
▁hêsankarî	-11.7583
▁Hindek	-11.7584
▁Tund	-11.7586
▁Mêş	-11.7586
▁ENDAMÊ	-11.7592
▁Dîyarbekir	-11.7605
▁Gef	-11.7611
SEN	-11.7613
▁beste	-11.7618
▁gilîname	-11.7619
▁BELAV	-11.7621
▁Salvador	-11.7621
jansaAswataliraq	-11.7621
▁Petrayus	-11.7621
▁Vladîmîr	-11.7621
▁materyal	-11.7621
▁diguhere	-11.7621
▁perwerdehiyê	-11.7622
▁bibîranîn	-11.7622
▁mongol	-11.7622
▁(1999)	-11.7622
▁unsur	-11.7622
▁çewt	-11.7623
▁dûgela	-11.7623
▁hukumeta	-11.7623
▁xwînhêner	-11.7624
▁wextek	-11.7624
▁Xatûn	-11.7624
▁Cûdî	-11.7633
▁Mehr	-11.7637
▁sûcdar	-11.7642
▁zaravaya	-11.7656
▁tenik	-11.7659
leben	-11.7663
▁şikandin	-11.7682
hukûmeta	-11.7685
froş	-11.7689
Meh	-11.7694
▁Fêr	-11.77
▁miriye	-11.7703
▁ravekirin	-11.7708
Gund	-11.7715
▁fêrkirin	-11.7723
▁perwerd	-11.7723
▁fikar	-11.7727
▁Dibistan	-11.7728
▁Gulistan	-11.7732
▁tohmet	-11.7734
▁Pîşe	-11.7735
▁DOLLAR	-11.7735
▁Geylanî	-11.7735
▁Hollywood	-11.7735
▁Hradiště	-11.7735
▁ROJNAMEVAN	-11.7735
▁federedewleta	-11.7735
▁pilandanînê	-11.7735
υ	-11.7735
▁serhildêr	-11.7735
▁vavartin	-11.7735
▁Alexander	-11.7735
▁Silopiya	-11.7735
▁qetilkirin	-11.7735
▁biqelînin	-11.7735
▁davêje	-11.7735
ος	-11.7735
otherium	-11.7735
▁Profesor	-11.7735
▁Îsota	-11.7736
▁Demîrbaş	-11.7736
iformes	-11.7736
▁bikujin	-11.7736
▁sînûrê	-11.7736
▁Îlaf	-11.7737
▁Motkiy	-11.7738
▁kampanya	-11.7739
hofen	-11.7739
▁High	-11.7739
ری	-11.774
▁cihêreng	-11.7741
▁BIDEN	-11.7742
▁şidet	-11.7742
▁Nûdem	-11.7744
Direfş	-11.7751
▁Dîk	-11.7752
▁Şerefnameyê	-11.7753
▁America	-11.7754
▁matematîkzan	-11.7755
.000.000	-11.7758
▁rêberiy	-11.776
▁çaverêyî	-11.7761
▁piştgiriyê	-11.7765
▁quşxane	-11.7772
▁Benth	-11.7781
litz	-11.779
▁ewlehî	-11.7803
▁Çay	-11.7807
▁Rij	-11.7811
dalet	-11.7813
▁Debar	-11.7813
giştî	-11.7816
▁tendiristî	-11.7831
▁Êlih	-11.7839
▁Çarşem	-11.784
▁Karkir	-11.7844
▁RÊKEVTIN	-11.7848
▁FERMAN	-11.785
▁Australia	-11.785
▁Necmedîn	-11.785
▁mekanizma	-11.785
▁pizîşk	-11.785
▁Fettah	-11.785
▁Îsraêl	-11.785
А	-11.785
▁Katolîk	-11.785
Berbilavî	-11.785
▁hevûdu	-11.785
▁Partisi	-11.785
▁Sîdekan	-11.785
▁Akreyî	-11.785
▁Smith	-11.785
▁Serokomar	-11.785
▁Adolf	-11.785
▁RAGIHANDIN	-11.7851
▁0.00	-11.7851
▁Încîl	-11.7851
▁metod	-11.7855
▁fermiy	-11.7856
▁Boston	-11.7856
▁seksî	-11.7857
▁nabînin	-11.7858
▁mohr	-11.7861
spekt	-11.7871
▁Yuk	-11.7872
▁Êzdîyan	-11.7882
furt	-11.7889
▁xuyanî	-11.7896
▁şam	-11.7907
kurmancî	-11.7916
Weşanên	-11.7916
8%	-11.7932
▁firokeya	-11.7934
kişandin	-11.7948
▁cejn	-11.7956
▁Hezex	-11.7957
kûr	-11.7958
rêveberê	-11.7966
▁Erdnîgariya	-11.7966
▁Mehsertê	-11.7966
▁RISWA	-11.7966
ό	-11.7966
ה	-11.7966
▁Navxweyî	-11.7966
▁ŞEŞ	-11.7966
▁despêkê	-11.7966
▁Perwerdehiy	-11.7966
▁lyga	-11.7966
▁poşman	-11.7966
▁Poloniya	-11.7966
▁Parlementoy	-11.7967
weiler	-11.7967
▁bapîrê	-11.7968
▁Millkarî	-11.7969
▁TEQÎNA	-11.7969
▁sistemê	-11.7969
▁karanîn	-11.797
▁metran	-11.797
▁Arab	-11.7971
▁Grub	-11.7971
▁Milyon	-11.7972
▁prens	-11.7972
şeng	-11.7974
fayde	-11.7974
▁GUL	-11.7974
▁kengî	-11.7975
▁komelgeha	-11.7977
▁Nehrî	-11.7977
▁Serhad	-11.7979
serperişt	-11.7981
hop	-11.7985
▁xwepêşandin	-11.7987
hişmendiya	-11.7988
▁MED	-11.7989
▁Balyoz	-11.7991
▁derxistiye	-11.7992
▁RÊXISTINA	-11.7996
▁pisîk	-11.7996
▁Racî	-11.7996
▁propagandaya	-11.8006
▁bersivek	-11.801
▁Zêrîn	-11.8011
▁Zanîn	-11.8017
▁Kamil	-11.8021
▁Endezyar	-11.8024
▁Qedr	-11.8034
▁hişmend	-11.8034
bajêr	-11.8038
Turkiye	-11.8039
▁parleman	-11.805
▁bendavê	-11.805
▁1500	-11.8069
П	-11.8084
ڵ	-11.8084
▁DAMEZRANDIN	-11.8084
▁Dostoyevskî	-11.8084
▁FERMÎ	-11.8084
▁Hevpeymaniya	-11.8084
▁Pezmijok	-11.8084
▁perrtûk	-11.8084
▁xizmetguzarîyê	-11.8084
▁Çemçemal	-11.8084
▁Radiyoy	-11.8084
▁Zeytûn	-11.8084
▁derdixin	-11.8084
▁Mehmud	-11.8084
▁Şankuş	-11.8084
▁DÎSA	-11.8084
▁Lokman	-11.8084
▁Nebez	-11.8084
▁vîtamîn	-11.8084
▁yekîneyên	-11.8085
▁Denmark	-11.8085
▁Maroko	-11.8085
▁Blue	-11.8086
▁Zîrek	-11.8086
▁kurtasî	-11.8087
▁elementek	-11.8088
▁Tunis	-11.809
▁rûerd	-11.8091
▁berpirsîyar	-11.8095
▁(1946	-11.8098
▁mezinahiy	-11.8102
▁paşgir	-11.8107
▁Cîran	-11.8117
▁1890	-11.812
▁kurmanciy	-11.8132
▁vekişand	-11.8135
▁maç	-11.8141
▁Eşkê	-11.8142
▁Şiwan	-11.8144
KARÎ	-11.8147
NAMEYEK	-11.8151
Ü	-11.8152
xebat	-11.8164
ен	-11.8168
▁gerîlayê	-11.8171
▁ŞERR	-11.8174
▁pirsyar	-11.8184
▁Şemrex	-11.8193
wergir	-11.8198
.04.2010	-11.8203
dirkepetik	-11.8203
Б	-11.8203
▁Aydogan	-11.8203
▁Hüseyin	-11.8203
▁January	-11.8203
▁Komputer	-11.8203
▁Muweffeq	-11.8203
▁Psîkolojî	-11.8203
stixbarat	-11.8203
▁kadroyê	-11.8203
▁NÛNERA	-11.8203
▁derûdora	-11.8203
▁êzidî	-11.8203
▁Build	-11.8203
▁Birîtanî	-11.8203
▁îmkan	-11.8203
▁Erdelan	-11.8203
▁wesayît	-11.8203
▁Bêjedar	-11.8203
▁hedef	-11.8204
▁PESENDKIRIN	-11.8204
▁pêwendiya	-11.8204
▁Pehlewî	-11.8204
▁nepenî	-11.8205
▁Denîz	-11.8206
▁BÊTIRÎ	-11.8206
▁Hember	-11.8207
▁nizim	-11.8207
▁Sirûd	-11.8212
▁Maxim	-11.8214
▁Young	-11.8216
▁pasdarê	-11.8218
▁pişkek	-11.8219
▁hûrkirî	-11.8223
▁parzemînê	-11.8224
ccc	-11.8237
▁Thu	-11.8244
▁Çinar	-11.8246
▁Hong	-11.8268
▁Hilbijartinê	-11.8284
▁Daxuyanî	-11.8285
▁delîl	-11.8295
▁pêşangehek	-11.8306
▁Emru	-11.8311
▁Bidlîs	-11.8316
MAY	-11.8322
ч	-11.8323
▁BESRA	-11.8323
▁HELEBÇE	-11.8323
▁HILWESTÊ	-11.8323
▁Menûçêhr	-11.8323
▁Sermawez	-11.8323
▁Ukrayna	-11.8323
▁Wikileaks	-11.8323
▁Chicago	-11.8323
▁Heinrich	-11.8323
▁Makkeyn	-11.8323
▁avrêla	-11.8323
▁merasîmek	-11.8323
▁afrînê	-11.8324
▁rikaber	-11.8324
▁rabigihîne	-11.8324
▁Prince	-11.8324
▁Bolanî	-11.8324
▁mîtolojiya	-11.8324
▁Nemsa	-11.8324
▁Brown	-11.8324
▁cendekê	-11.8324
▁lêbelê	-11.8325
▁otobus	-11.8325
▁tivêjeyî	-11.8325
▁Rêziman	-11.8326
field	-11.8326
▁Xerîb	-11.8328
▁Bush	-11.8332
▁lazim	-11.8333
▁Otto	-11.8335
Sorex	-11.8336
▁Milliyet	-11.8336
▁kilik	-11.8338
▁kutilk	-11.834
uddîn	-11.8341
Şah	-11.8342
▁Bajarok	-11.8343
▁Swed	-11.8345
▁Kurdîstanê	-11.8353
▁DADGEHA	-11.8354
▁gerr	-11.8356
▁Bingehîn	-11.836
▁gerok	-11.836
▁avahiyê	-11.8363
▁Dayika	-11.8383
▁çarenivîs	-11.8384
▁balyozxan	-11.8387
▁hêsantir	-11.8388
▁Kund	-11.839
Kerkûk	-11.8395
civin	-11.8396
normal	-11.84
▁şikest	-11.8401
▁şîrîn	-11.8411
▁Schl	-11.8414
▁dozger	-11.8416
▁peywendîyek	-11.8418
▁nîşa	-11.8426
▁pareyê	-11.8427
▁Şirnex	-11.8439
şehr	-11.844
▁Flastîn	-11.8445
▁History	-11.8445
▁SÛRIYA	-11.8445
▁elektirîk	-11.8445
▁estimate	-11.8445
▁kromozom	-11.8445
▁Einstein	-11.8445
▁Ezirgan	-11.8445
▁Komunîst	-11.8445
▁teknolojiyê	-11.8445
▁navûdeng	-11.8445
▁Tokyo	-11.8445
▁Xelfetî	-11.8445
▁didomînin	-11.8446
▁GEF	-11.8446
▁tekesta	-11.8446
▁şanazîy	-11.8446
▁Armeniya	-11.8446
▁Dîyale	-11.8446
▁bixwin	-11.8447
▁yekrêzîy	-11.8447
▁Wilson	-11.8448
▁Babacan	-11.8449
▁girçin	-11.845
▁pîvandin	-11.8452
▁Dersîm	-11.8452
▁Bernama	-11.8453
guhêr	-11.8456
▁pirojeyên	-11.8462
▁sewal	-11.8465
▁Germyan	-11.8469
▁sûreya	-11.8474
ettîn	-11.8476
▁malperra	-11.848
wergirtin	-11.8481
ßen	-11.8483
page	-11.8486
LAND	-11.8487
▁Civ	-11.8492
▁nizani	-11.8492
▁sebr	-11.8499
stekana	-11.85
▁nehatibû	-11.8502
▁hestiyê	-11.851
▁River	-11.851
▁Muş	-11.8513
́	-11.8518
▁Turkmen	-11.8521
▁SIYASÎY	-11.8524
▁bombbar	-11.8526
▁tîrmeh	-11.8532
وه	-11.8538
▁NABE	-11.8543
kerdiş	-11.8552
▁Ulu	-11.8559
Abdulla	-11.856
▁Çewlîg	-11.8564
▁amerîka	-11.8565
▁Francis	-11.8568
ڤ	-11.8569
ė	-11.8569
▁ATOMÎ	-11.8569
▁NIRXÊ	-11.8569
▁ZÊDE	-11.8569
▁hawirdor	-11.8569
▁Şermezar	-11.8569
▁daxuyakirin	-11.8569
▁xapandin	-11.8569
▁Erselan	-11.8569
▁dişibin	-11.8569
▁Avrêl	-11.8569
▁Schön	-11.857
▁wizeyê	-11.857
▁ronahiyê	-11.857
▁dijatîya	-11.857
▁Tîrêj	-11.8571
▁Teknîk	-11.8571
▁Bendava	-11.8571
▁versiyon	-11.8571
▁Hundir	-11.8572
▁kargêrî	-11.8573
Pseudo	-11.8574
▁Sîpan	-11.8576
▁Sosin	-11.858
▁NEHÊ	-11.8581
▁rock	-11.8584
▁Organ	-11.8585
▁terxankirin	-11.8594
▁Mizgeft	-11.8595
gûr	-11.8597
▁kinc	-11.86
▁turkman	-11.8608
fend	-11.8614
▁Taybetiy	-11.8614
▁xanîyê	-11.8624
▁arîşeyek	-11.8626
▁zal	-11.863
▁tenahî	-11.8633
▁nêçîrvan	-11.8651
▁Babet	-11.8652
▁KURDISTAN	-11.8659
▁Jung	-11.8665
▁maddeyek	-11.8665
▁çarçov	-11.8687
▁halet	-11.8692
Š	-11.8694
▁BERDEWAM	-11.8694
▁Elheyat	-11.8694
▁Elsebah	-11.8694
▁Grammy	-11.8694
▁HOŞ	-11.8694
▁Mucahid	-11.8694
▁asîmîlasyon	-11.8694
▁kompûter	-11.8694
æ	-11.8694
▁Yayınları	-11.8694
▁xizîran	-11.8694
▁çargoşe	-11.8694
▁HPG	-11.8694
▁ÎHD	-11.8694
▁Pilemor	-11.8694
▁Pişder	-11.8694
▁operasiyonek	-11.8694
▁Hip	-11.8694
▁Elezîzê	-11.8694
▁Abid	-11.8695
▁dêrendazek	-11.8695
▁boykot	-11.8695
▁Rûdaw	-11.8696
▁Zimannas	-11.8696
▁Fazil	-11.8697
▁NAHÊ	-11.8697
▁nellên	-11.8697
▁bihayê	-11.8698
▁honak	-11.8698
▁Lozanê	-11.8698
▁nakokiyên	-11.8699
▁valahiy	-11.8699
▁Bateyî	-11.87
▁tehrî	-11.8702
▁gihijtiy	-11.8703
▁SAZKIRIN	-11.8704
▁Rawest	-11.8706
▁ragiahndiye	-11.8707
▁Ensar	-11.8707
▁Model	-11.8711
▁Grand	-11.8712
peyman	-11.8727
▁bondek	-11.8727
kevir	-11.873
▁nifûs	-11.8736
▁berpirsyarîy	-11.8738
▁yasaya	-11.8741
▁mişk	-11.8749
▁Bilindahiy	-11.8749
▁Tav	-11.875
▁Yûna	-11.8761
▁Qanûn	-11.8764
letîf	-11.8766
bilêvkirin	-11.877
▁Pêşeng	-11.8772
fîzîk	-11.8774
çareser	-11.8777
▁REWŞ	-11.8786
▁Yekîtî	-11.8818
▁Wêranşar	-11.8819
▁Vir	-11.8819
▁Afganistan	-11.8819
▁DERBAS	-11.882
Jacques	-11.882
▁Esperanto	-11.882
▁JOSE	-11.882
▁Qazaxistan	-11.882
▁Yavuz	-11.882
▁xîvetgehe	-11.882
▁Ûkrayna	-11.882
В	-11.882
▁tolhildan	-11.882
▁Qeredaxî	-11.882
▁pêdiviya	-11.882
▁îşaret	-11.882
▁Terorîst	-11.882
▁Zêtka	-11.882
▁sadsale	-11.882
▁Nazmiye	-11.8821
▁Projeya	-11.8821
▁beheşta	-11.8821
▁Derheq	-11.8821
$	-11.8821
▁gengaz	-11.8821
▁Diyalog	-11.8821
▁Albistan	-11.8821
▁Qayide	-11.8821
▁ditirsin	-11.8821
▁darvekirin	-11.8821
▁Şukur	-11.8822
▁pexş	-11.8822
▁firokexaneya	-11.8822
▁له	-11.8823
▁zebeş	-11.8824
▁Êzîdiyan	-11.8824
▁bernavk	-11.8824
▁Tîbet	-11.8824
▁leyîz	-11.8824
▁Tenahî	-11.8825
▁komelgehek	-11.8825
▁Jeff	-11.8826
▁Şedad	-11.8827
▁Bremen	-11.8827
▁peyrew	-11.8828
▁KTV	-11.8832
▁çetey	-11.8834
▁hejand	-11.884
▁erzan	-11.885
▁rêxistinkarê	-11.885
▁yarîzan	-11.8852
▁Xêr	-11.8853
▁paşmay	-11.8856
▁Dayikê	-11.8861
▁kilor	-11.8862
на	-11.8877
fermandar	-11.8896
▁Geliy	-11.8898
rêzefîlm	-11.8898
▁Baroy	-11.8901
Flaviu	-11.8916
▁QURBAN	-11.8922
▁firot	-11.8924
1999	-11.8932
Col	-11.8942
▁Europa	-11.8948
δ	-11.8949
▁Geschichte	-11.8949
▁NAVXWEYÎ	-11.8949
▁Nemrûd	-11.8949
▁PÊWÎST	-11.8949
▁Wolfgang	-11.8949
▁hewarhatinê	-11.8949
▁BIHÎNE	-11.8949
▁hezîrana	-11.8949
▁sîtoplazma	-11.8949
ˈ	-11.8949
▁Bozyel	-11.8949
▁White	-11.8949
▁derbixin	-11.8949
▁Hewraman	-11.8949
▁mitîngê	-11.8949
▁Urmiye	-11.8949
▁NÊV	-11.8949
▁nivîsbariya	-11.8949
▁Çeçen	-11.8949
▁Raymond	-11.8949
▁(1991)	-11.8949
▁dengderan	-11.8949
▁Birayetîy	-11.8949
ELAH	-11.8949
▁supasalarê	-11.895
▁Antalya	-11.895
▁Piranîya	-11.895
▁Çavkaniy	-11.895
▁Aşitî	-11.895
▁Gîlan	-11.8951
▁xwand	-11.8952
▁merdim	-11.8954
▁pêncşembîyê	-11.8955
▁Rubey	-11.8955
▁esl	-11.8956
▁Çoban	-11.8956
▁marks	-11.8957
▁Sergey	-11.8959
▁Pekîn	-11.8962
▁çêbike	-11.8963
▁guhêz	-11.8965
▁helînê	-11.8966
▁Keleş	-11.897
▁Şiyar	-11.8975
▁neguher	-11.8975
▁Fried	-11.8983
▁radibe	-11.8986
▁herema	-11.9
▁bereket	-11.9015
▁şêwekar	-11.9027
▁seyda	-11.9037
vexwarin	-11.9038
Şêx	-11.9039
▁kendav	-11.9044
kîmya	-11.9054
AKP	-11.9055
morph	-11.9057
▁qedr	-11.9058
▁Şîrîn	-11.9066
youtube	-11.9078
▁zewîlerze	-11.9079
▁Ebûbekir	-11.9079
▁Sirûcê	-11.9079
▁konferensa	-11.9079
▁HEVGIRTIN	-11.9079
▁hevwelatiyên	-11.9079
▁îradeya	-11.9079
▁Tuncel	-11.9079
▁Hevpeymana	-11.9079
▁PHP	-11.9079
▁zengîn	-11.9079
▁tewanbar	-11.9079
zewiciye	-11.9079
▁ARN	-11.9079
▁nîjadperest	-11.9079
▁lîberal	-11.9079
▁ecêb	-11.9079
▁Egîd	-11.908
▁biguherîne	-11.908
▁analîz	-11.908
▁HEVWELATÎYEK	-11.9084
▁serokeşîr	-11.9084
▁Rêbaz	-11.9084
▁polês	-11.9089
▁Perry	-11.9093
كه	-11.9102
▁QURBANÎ	-11.9105
▁rojeva	-11.9107
▁Tirb	-11.911
▁gelemper	-11.9112
▁stiran	-11.9115
peyîve	-11.9118
▁Andro	-11.9122
▁pêkhatibû	-11.9142
sakkarîd	-11.9156
▁yekitiy	-11.9157
▁Konferans	-11.9158
▁Kanûn	-11.9169
▁organîze	-11.9172
اس	-11.9195
▁Parlamen	-11.9198
ڕ	-11.921
▁[9:0	-11.921
ã	-11.921
▁ANGO	-11.921
▁Amnesty	-11.921
▁Ataturk	-11.921
▁xaçperestan	-11.921
▁ingilîzan	-11.921
▁xemilandin	-11.921
institut	-11.921
▁AŞTÎ	-11.921
▁Xwendevan	-11.921
▁pîrozbahiyê	-11.921
▁(1996)	-11.9211
▁Club	-11.9211
▁Mûsewî	-11.9211
▁Christian	-11.9211
▁dardekirin	-11.9211
▁Mendelî	-11.9211
▁komisyon	-11.9211
▁rabigihînin	-11.9211
▁Avkevir	-11.9211
▁direvin	-11.9211
▁êzdî	-11.9211
▁serçawe	-11.9211
▁şîdet	-11.9214
▁Rojnama	-11.9214
▁Nieder	-11.9215
Helwêst	-11.9215
▁Jack	-11.9224
▁wîlayetê	-11.923
▁çunk	-11.9231
▁GELEK	-11.9231
[...]
