<unk>	0
<s>	0
</s>	0
an	-0
▁d	-1
er	-2
▁b	-3
in	-4
▁k	-5
ir	-6
ar	-7
ên	-8
ya	-9
▁h	-10
ek	-11
▁û	-12
▁di	-13
▁j	-14
▁bi	-15
st	-16
▁de	-17
▁n	-18
▁ku	-19
li	-20
▁s	-21
▁p	-22
en	-23
▁r	-24
we	-25
yê	-26
în	-27
▁e	-28
▁g	-29
at	-30
▁li	-31
av	-32
ye	-33
▁K	-34
▁B	-35
al	-36
▁x	-37
▁ji	-38
▁t	-39
et	-40
▁D	-41
▁S	-42
▁w	-43
el	-44
rd	-45
▁m	-46
am	-47
irin	-48
em	-49
▁ser	-50
▁M	-51
▁E	-52
anê	-53
▁H	-54
ra	-55
▁A	-56
ist	-57
ey	-58
▁P	-59
==	-60
and	-61
▁jî	-62
eh	-63
▁v	-64
ok	-65
ev	-66
▁(	-67
▁==	-68
▁a	-69
anî	-70
ûn	-71
or	-72
il	-73
▁xwe	-74
ed	-75
iya	-76
▁nav	-77
▁ç	-78
ay	-79
erê	-80
▁1	-81
ih	-82
on	-83
es	-84
▁T	-85
om	-86
eya	-87
▁da	-88
ew	-89
îk	-90
▁I	-91
îr	-92
un	-93
yên	-94
şt	-95
▁N	-96
▁Ku	-97
▁ev	-98
▁R	-99
end	-100
▁2	-101
▁G	-102
▁c	-103
▁L	-104
êr	-105
ol	-106
ma	-107
rdist	-108
▁ya	-109
▁ber	-110
az	-111
eb	-112
ekî	-113
kirin	-114
tin	-115
▁z	-116
▁pê	-117
▁hat	-118
▁ye	-119
ad	-120
oj	-121
arê	-122
îya	-123
raq	-124
▁l	-125
rdistanê	-126
ez	-127
yan	-128
iye	-129
▁we	-130
ur	-131
▁re	-132
▁Iraq	-133
▁ew	-134
as	-135
ûr	-136
▁ş	-137
im	-138
▁ba	-139
und	-140
▁20	-141
eta	-142
▁C	-143
ik	-144
işt	-145
▁kir	-146
ana	-147
▁ve	-148
ot	-149
▁Iraqê	-150
eş	-151
▁Î	-152
▁J	-153
▁herê	-154
êd	-155
▁f	-156
▁Di	-157
▁der	-158
▁bo	-159
ke	-160
iv	-161
okê	-162
▁W	-163
▁ra	-164
îs	-165
▁F	-166
dar	-167
êz	-168
geh	-169
yek	-170
ala	-171
ber	-172
êj	-173
▁bû	-174
▁dest	-175
▁Ş	-176
ûm	-177
îyê	-178
▁19	-179
▁her	-180
▁kirin	-181
is	-182
▁Kurdistanê	-183
NA	-184
ER	-185
▁Ç	-186
gir	-187
▁herêma	-188
iyê	-189
andin	-190
▁X	-191
▁evê	-192
▁kom	-193
ara	-194
eke	-195
îl	-196
bûn	-197
▁wê	-198
▁roj	-199
▁tê	-200
▁ne	-201
ah	-202
be	-203
IR	-204
▁Am	-205
ak	-206
▁|	-207
▁q	-208
man	-209
ayê	-210
ov	-211
gih	-212
ul	-213
▁kurd	-214
▁–	-215
▁pêş	-216
▁Y	-217
▁gel	-218
▁wan	-219
▁al	-220
▁Li	-221
îş	-222
▁hev	-223
eyê	-224
îst	-225
▁gir	-226
kin	-227
sa	-228
▁pir	-229
▁Z	-230
▁[	-231
▁yek	-232
▁baj	-233
▁got	-234
anîn	-235
▁200	-236
▁gund	-237
bi	-238
▁Ser	-239
de	-240
kê	-241
▁rê	-242
ha	-243
enc	-244
▁wî	-245
kar	-246
waz	-247
▁yên	-248
erîk	-249
ît	-250
uk	-251
▁dê	-252
▁yê	-253
yar	-254
▁ragih	-255
AN	-256
▁-	-257
ayî	-258
aş	-259
ro	-260
▁an	-261
ef	-262
îyên	-263
▁hem	-264
it	-265
iz	-266
▁Q	-267
us	-268
ax	-269
▁PNA	-270
▁Amerîk	-271
▁din	-272
oz	-273
IN	-274
▁kes	-275
▁serokê	-276
iha	-277
ent	-278
▁Kurd	-279
▁O	-280
iştî	-281
▁bir	-282
anên	-283
iş	-284
ger	-285
▁enc	-286
îne	-287
▁kurdistanê	-288
ewl	-289
eyên	-290
▁par	-291
▁dib	-292
▁kar	-293
▁bih	-294
lat	-295
eka	-296
▁bin	-297
da	-298
geha	-299
ex	-300
irk	-301
ina	-302
▁201	-303
▁[1	-304
▁vê	-305
▁Ji	-306
nam	-307
ûmeta	-308
▁El	-309
uh	-310
▁ragihand	-311
êrê	-312
▁sala	-313
20	-314
eng	-315
kirina	-316
yî	-317
▁he	-318
aw	-319
▁*	-320
ekê	-321
▁huk	-322
bû	-323
erî	-324
erên	-325
iyan	-326
xwaz	-327
mê	-328
ab	-329
ec	-330
yon	-331
ali	-332
▁dike	-333
▁Îr	-334
▁wez	-335
bera	-336
▁hêz	-337
sî	-338
înê	-339
op	-340
▁nû	-341
▁lê	-342
eq	-343
▁bike	-344
..	-345
îna	-346
erm	-347
ch	-348
af	-349
▁Gund	-350
os	-351
▁bar	-352
êş	-353
ivîs	-354
▁navê	-355
ora	-356
▁hatin	-357
▁Ev	-358
▁bûn	-359
ava	-360
▁Amerîka	-361
îd	-362
▁weha	-363
▁pêk	-364
era	-365
jî	-366
arêz	-367
arî	-368
▁navbera	-369
▁xw	-370
▁sal	-371
▁hukûmeta	-372
xwe	-373
kî	-374
kev	-375
ind	-376
jar	-377
▁welat	-378
YA	-379
▁Bi	-380
îz	-381
▁encam	-382
irov	-383
hil	-384
▁hatiye	-385
avk	-386
çeya	-387
▁bikin	-388
ezin	-389
est	-390
▁pey	-391
▁Sûr	-392
tî	-393
▁ali	-394
ata	-395
▁hil	-396
▁du	-397
ran	-398
▁bê	-399
▁cih	-400
▁3	-401
▁dev	-402
tina	-403
▁çar	-404
▁gelek	-405
▁in	-406
AL	-407
▁bel	-408
kir	-409
la	-410
▁Gundên	-411
▁Îranê	-412
ka	-413
um	-414
urk	-415
▁gundekî	-416
AR	-417
îh	-418
▁Ew	-419
▁Her	-420
▁===	-421
iyên	-422
▁çend	-423
ûd	-424
avkanî	-425
▁dem	-426
),	-427
▁hêzên	-428
▁go	-429
▁Ber	-430
bûna	-431
▁zim	-432
îrê	-433
KIR	-434
manî	-435
▁niha	-436
roj	-437
▁han	-438
ve	-439
tir	-440
▁mezin	-441
▁Serokê	-442
dana	-443
liya	-444
▁Turk	-445
uya	-446
▁V	-447
▁ê	-448
îm	-449
00	-450
xist	-451
▁parêz	-452
înin	-453
ûs	-454
▁Hewl	-455
id	-456
▁Al	-457
▁"	-458
▁am	-459
▁Tirk	-460
▁BER	-461
▁dew	-462
▁dibêj	-463
▁mirov	-464
îyan	-465
ing	-466
▁hemû	-467
▁dî	-468
ane	-469
▁En	-470
ewş	-471
he	-472
erk	-473
▁daxwaz	-474
bet	-475
art	-476
▁Çavkanî	-477
▁xuya	-478
▁siya	-479
▁be	-480
re	-481
19	-482
ic	-483
aran	-484
▁dikin	-485
▁serok	-486
▁beş	-487
KIRIN	-488
ÊN	-489
▁́	-490
▁Nav	-491
▁Er	-492
wer	-493
ta	-494
ena	-495
▁bajêrê	-496
▁Bar	-497
▁st	-498
▁wek	-499
ng	-500
etê	-501
▁bihê	-502
le	-503
med	-504
ST	-505
▁nivîs	-506
▁gor	-507
▁çê	-508
ema	-509
pê	-510
ûrê	-511
ment	-512
▁me	-513
eyan	-514
▁dibe	-515
▁dewl	-516
ac	-517
▁rewş	-518
dan	-519
▁lîst	-520
ib	-521
▁xuyakirin	-522
ap	-523
irs	-524
og	-525
▁em	-526
▁Turkiye	-527
ilê	-528
ij	-529
▁RE	-530
▁saz	-531
▁wer	-532
▁navçeya	-533
ALÎ	-534
▁ang	-535
201	-536
ep	-537
ene	-538
▁daw	-539
tû	-540
▁dih	-541
êv	-542
bijar	-543
▁mal	-544
ALÎKIRIN	-545
▁BERALÎKIRIN	-546
▁heta	-547
▁Roj	-548
ûna	-549
▁aliyê	-550
liyament	-551
dî	-552
wend	-553
du	-554
îrok	-555
îv	-556
▁KU	-557
enê	-558
eşk	-559
▁baş	-560
EK	-561
ut	-562
▁hin	-563
aybet	-564
▁derb	-565
▁Kom	-566
▁zanîn	-567
▁BI	-568
▁piştî	-569
▁kon	-570
▁4	-571
zanî	-572
êdayî	-573
îye	-574
arên	-575
▁end	-576
="	-577
erkû	-578
▁bil	-579
eran	-580
amê	-581
▁St	-582
▁kurdî	-583
avê	-584
▁parliyament	-585
▁dijî	-586
if	-587
▁dema	-588
▁dan	-589
▁U	-590
▁5	-591
▁taybet	-592
yayê	-593
▁Barzanî	-594
ost	-595
▁hilbijar	-596
▁nîş	-597
andina	-598
vê	-599
▁roja	-600
▁kombûn	-601
▁pol	-602
ekirin	-603
jm	-604
▁beh	-605
pirs	-606
bd	-607
▁nêz	-608
▁bûye	-609
...	-610
ete	-611
▁hene	-612
▁199	-613
pey	-614
/1	-615
of	-616
▁dir	-617
din	-618
▁leşk	-619
▁hatine	-620
xan	-621
▁rojnam	-622
▁angora	-623
▁ên	-624
▁SER	-625
▁bajarê	-626
eyî	-627
îng	-628
▁tev	-629
eser	-630
▁gotin	-631
▁amad	-632
▁Kurdist	-633
▁parêzgeha	-634
tê	-635
▁hate	-636
irê	-637
van	-638
aya	-639
ûrî	-640
aq	-641
anîya	-642
girê	-643
ob	-644
▁ar	-645
▁0	-646
/0	-647
▁Û	-648
▁|-	-649
▁kê	-650
▁kiriye	-651
▁aw	-652
▁heb	-653
▁hilbijartin	-654
/2	-655
ine	-656
olê	-657
lam	-658
▁sed	-659
EC	-660
▁pişt	-661
up	-662
▁peywend	-663
▁2009	-664
▁/	-665
ola	-666
.201	-667
▁nava	-668
rê	-669
▁cîh	-670
êne	-671
▁18	-672
DIR	-673
▁wekî	-674
▁deng	-675
▁yekê	-676
îy	-677
▁heye	-678
▁2008	-679
▁er	-680
▁rewşa	-681
erkûkê	-682
▁êr	-683
ECT	-684
▁REDIR	-685
▁REDIRECT	-686
ig	-687
îkî	-688
asî	-689
çe	-690
▁ferm	-691
hem	-692
▁serdana	-693
▁bib	-694
▁xel	-695
ûmena	-696
▁civ	-697
▁per	-698
ud	-699
jan	-700
▁berd	-701
ket	-702
oh	-703
▁behsa	-704
▁lîsta	-705
▁pirs	-706
kêş	-707
ag	-708
▁Yek	-709
atê	-710
▁Gir	-711
▁2010	-712
oş	-713
▁ewê	-714
emê	-715
▁teq	-716
anîna	-717
iyon	-718
▁Meh	-719
etewe	-720
▁Ar	-721
aniya	-722
▁Lê	-723
▁ger	-724
▁tirk	-725
îndar	-726
▁bikar	-727
▁ava	-728
ku	-729
▁zêd	-730
od	-731
▁çareser	-732
▁7	-733
bdul	-734
ia	-735
▁divê	-736
▁herdu	-737
orê	-738
▁6	-739
andan	-740
▁bibe	-741
▁derve	-742
▁girêdayî	-743
AT	-744
inê	-745
▁Der	-746
rop	-747
▁polîs	-748
RD	-749
.0	-750
ama	-751
eha	-752
▁şer	-753
atîya	-754
îrên	-755
best	-756
▁bareya	-757
zad	-758
▁DI	-759
▁DE	-760
bo	-761
adê	-762
ibû	-763
▁||	-764
▁An	-765
orî	-766
▁şand	-767
▁zimanê	-768
▁dibêje	-769
▁Hewlêrê	-770
▁ti	-771
înî	-772
▁Gel	-773
▁dij	-774
bar	-775
▁tek	-776
▁kuşt	-777
▁Es	-778
eft	-779
▁Kurdî	-780
ewam	-781
ANÊ	-782
eg	-783
▁ter	-784
manc	-785
▁berê	-786
▁LI	-787
iy	-788
IST	-789
per	-790
ej	-791
ûl	-792
▁çek	-793
▁Amed	-794
▁rast	-795
▁berpirs	-796
▁hê	-797
▁KURD	-798
▁kev	-799
▁êrîş	-800
RA	-801
▁Îs	-802
▁qan	-803
▁2009/	-804
▁girtin	-805
ter	-806
▁hel	-807
▁as	-808
▁endam	-809
▁yan	-810
êx	-811
▁Mes	-812
▁derv	-813
omb	-814
istanê	-815
▁zar	-816
▁Fran	-817
areta	-818
▁sê	-819
hat	-820
enda	-821
na	-822
▁belê	-823
▁nûn	-824
▁berdewam	-825
▁encûmena	-826
▁ko	-827
▁Hewlêr	-828
▁birîndar	-829
iw	-830
▁evroj	-831
▁hevpey	-832
isa	-833
▁Mali	-834
▁belav	-835
▁Herê	-836
▁beşdar	-837
oya	-838
▁2008/	-839
▁weke	-840
azî	-841
▁neh	-842
▁maf	-843
▁2011	-844
▁siyasî	-845
▁Mu	-846
▁herî	-847
▁nas	-848
▁kurdan	-849
istana	-850
▁zan	-851
▁îr	-852
dest	-853
lê	-854
▁Xel	-855
▁siyas	-856
▁Os	-857
▁Wez	-858
▁Piştî	-859
▁herêmê	-860
▁parliyamenta	-861
▁Em	-862
▁Malikî	-863
▁bêj	-864
▁hejm	-865
ang	-866
kên	-867
▁dixwaz	-868
▁bareyê	-869
▁198	-870
▁dax	-871
▁destpê	-872
▁Serok	-873
▁2010/	-874
▁pêşkêş	-875
▁evan	-876
fir	-877
pan	-878
ros	-879
gehên	-880
▁paş	-881
▁“	-882
MA	-883
▁Bir	-884
▁hik	-885
▁kuj	-886
▁tên	-887
ebî	-888
lî	-889
dê	-890
▁kur	-891
▁9	-892
▁fir	-893
ayên	-894
rî	-895
war	-896
▁alîyê	-897
iq	-898
jansa	-899
ela	-900
▁tenê	-901
▁kêm	-902
▁van	-903
▁bal	-904
ser	-905
▁(19	-906
▁rû	-907
▁End	-908
▁8	-909
▁alîk	-910
▁taybetî	-911
emb	-912
▁demê	-913
▁Br	-914
aye	-915
dadê	-916
anan	-917
▁ewl	-918
▁guh	-919
▁Dem	-920
▁dibêjin	-921
▁wezîrê	-922
▁bak	-923
▁gr	-924
▁av	-925
▁*0	-926
xweş	-927
ME	-928
xistin	-929
▁peywendîyên	-930
▁hez	-931
▁**	-932
▁Ebdul	-933
hmed	-934
ûnê	-935
▁jêd	-936
etr	-937
▁xeb	-938
sê	-939
▁vî	-940
ÎYA	-941
tr	-942
▁pirtû	-943
▁day	-944
▁kirine	-945
▁yekem	-946
eder	-947
west	-948
▁Kar	-949
pêş	-950
iraq	-951
ne	-952
welat	-953
▁bilind	-954
darên	-955
êdî	-956
▁KIR	-957
ion	-958
OK	-959
▁dide	-960
ûş	-961
▁têk	-962
:1	-963
▁14	-964
▁,	-965
ÎY	-966
▁xwend	-967
▁ax	-968
eyn	-969
PNA	-970
AZ	-971
xistina	-972
▁10	-973
▁nîşandan	-974
mer	-975
▁197	-976
▁ewan	-977
gehê	-978
▁Bax	-979
manîya	-980
ge	-981
▁kesên	-982
▁Baş	-983
▁sup	-984
▁Par	-985
▁serokatîya	-986
rat	-987
gn	-988
▁daxu	-989
edar	-990
▁bihên	-991
te	-992
▁KURDIST	-993
▁Muh	-994
▁Îraq	-995
veb	-996
ug	-997
kol	-998
▁gelê	-999
bûyî	-1000
▁Mesûd	-1001
▁dawî	-1002
atên	-1003
ekir	-1004
▁rad	-1005
▁îro	-1006
EY	-1007
ub	-1008
▁ziman	-1009
▁Herêma	-1010
alî	-1011
ers	-1012
▁gundê	-1013
:3	-1014
).	-1015
yana	-1016
etên	-1017
edir	-1018
▁Part	-1019
▁kuştin	-1020
▁biryar	-1021
th	-1022
▁Sûrîyê	-1023
ks	-1024
▁Ê	-1025
eyek	-1026
▁dîrok	-1027
▁12	-1028
enb	-1029
îra	-1030
▁As	-1031
▁Hev	-1032
▁amade	-1033
▁min	-1034
▁Is	-1035
▁sîn	-1036
▁Amedê	-1037
EL	-1038
gel	-1039
▁kû	-1040
kevtin	-1041
▁Silê	-1042
▁dikar	-1043
▁wezareta	-1044
▁15	-1045
▁HER	-1046
▁Ewrop	-1047
uz	-1048
înên	-1049
:4	-1050
▁çav	-1051
ili	-1052
uf	-1053
▁Pir	-1054
▁neb	-1055
êdanên	-1056
▁Kerkûkê	-1057
▁mil	-1058
▁bûy	-1059
▁jê	-1060
urê	-1061
▁Şêx	-1062
▁ke	-1063
yanî	-1064
▁Ehmed	-1065
oc	-1066
▁le	-1067
aj	-1068
▁giştî	-1069
▁endamên	-1070
:5	-1071
▁Elî	-1072
▁dad	-1073
▁teror	-1074
îka	-1075
iyek	-1076
▁alîyan	-1077
▁IRA	-1078
lah	-1079
irina	-1080
ip	-1081
▁IRAQ	-1082
▁of	-1083
000	-1084
▁wezîrên	-1085
▁welatên	-1086
▁ab	-1087
:2	-1088
▁na	-1089
▁jin	-1090
nameya	-1091
▁derbas	-1092
▁2012	-1093
▁malb	-1094
ÎN	-1095
▁rêveb	-1096
▁pîr	-1097
▁Dr	-1098
met	-1099
▁deverên	-1100
elê	-1101
ect	-1102
▁dewleta	-1103
oyê	-1104
ker	-1105
▁dam	-1106
▁rojnamev	-1107
▁Cel	-1108
iyeyê	-1109
▁wiha	-1110
▁jibo	-1111
▁Hel	-1112
▁pirsa	-1113
irg	-1114
kan	-1115
▁cur	-1116
▁Xwe	-1117
▁bûne	-1118
fr	-1119
▁fermî	-1120
▁Nûrî	-1121
▁Baxdadê	-1122
kirî	-1123
▁op	-1124
înan	-1125
▁Mûs	-1126
di	-1127
▁herw	-1128
▁KURDISTANÊ	-1129
▁weş	-1130
:0	-1131
▁11	-1132
▁HE	-1133
tîya	-1134
ika	-1135
▁hinek	-1136
îkê	-1137
▁cîhanê	-1138
▁dihê	-1139
▁bibin	-1140
▁bêjed	-1141
eyeka	-1142
▁pên	-1143
▁baz	-1144
hilat	-1145
▁mad	-1146
▁ajansa	-1147
▁Osman	-1148
▁Ît	-1149
▁HERÊ	-1150
▁zarok	-1151
ûb	-1152
ûra	-1153
▁JI	-1154
▁supayê	-1155
▁tişt	-1156
keve	-1157
▁Mis	-1158
▁ez	-1159
tex	-1160
▁nexweş	-1161
▁kujtin	-1162
engê	-1163
▁rêz	-1164
▁nêzîkî	-1165
ce	-1166
▁berî	-1167
▁alîkar	-1168
ike	-1169
▁rûn	-1170
▁Erd	-1171
▁away	-1172
▁tekez	-1173
yem	-1174
▁SEROK	-1175
▁Kurdistan	-1176
ort	-1177
îb	-1178
▁civak	-1179
alê	-1180
▁tem	-1181
arast	-1182
▁Mar	-1183
▁196	-1184
ton	-1185
▁Girêdanên	-1186
urt	-1187
▁damez	-1188
îran	-1189
▁aş	-1190
andî	-1191
▁dil	-1192
▁IRAQÊ	-1193
▁hevwelat	-1194
▁dar	-1195
weha	-1196
▁Sûrî	-1197
mar	-1198
▁komara	-1199
▁petr	-1200
hilata	-1201
mên	-1202
200	-1203
▁Hes	-1204
ûmetê	-1205
yoz	-1206
êb	-1207
▁17	-1208
ust	-1209
etî	-1210
▁bomb	-1211
erekî	-1212
▁pros	-1213
tiya	-1214
▁gorî	-1215
▁Sel	-1216
ûk	-1217
▁dibin	-1218
▁car	-1219
▁Iraqî	-1220
▁pîroz	-1221
▁xwepêş	-1222
▁el	-1223
dem	-1224
▁devera	-1225
esa	-1226
▁alîyên	-1227
▁gih	-1228
▁dirêj	-1229
gire	-1230
▁komît	-1231
▁Mal	-1232
istan	-1233
▁Hem	-1234
KK	-1235
ikê	-1236
▁kombûnê	-1237
▁HERÊMA	-1238
nî	-1239
yaya	-1240
WE	-1241
enî	-1242
ens	-1243
▁Jêd	-1244
▁lêkol	-1245
▁Hus	-1246
▁diyar	-1247
▁kombûna	-1248
sp	-1249
▁eş	-1250
▁Dewl	-1251
▁salên	-1252
ehê	-1253
▁azad	-1254
jim	-1255
mûd	-1256
▁Îraqê	-1257
ast	-1258
▁Tal	-1259
▁Mûsilê	-1260
ko	-1261
wan	-1262
▁Muhem	-1263
▁Rûs	-1264
▁heft	-1265
lan	-1266
▁2011/	-1267
ri	-1268
▁daye	-1269
DA	-1270
oloj	-1271
▁16	-1272
iring	-1273
▁daxwaza	-1274
alak	-1275
▁bajêr	-1276
ell	-1277
KE	-1278
▁gerek	-1279
▁pêşwaz	-1280
ct	-1281
▁New	-1282
▁êdî	-1283
îşan	-1284
danê	-1285
▁alî	-1286
▁Herw	-1287
▁asay	-1288
iştim	-1289
deya	-1290
▁Mehmûd	-1291
▁xwar	-1292
ret	-1293
▁Alman	-1294
ehr	-1295
îyye	-1296
▁Kon	-1297
wez	-1298
▁feder	-1299
▁Bak	-1300
▁Bex	-1301
▁dû	-1302
▁The	-1303
ht	-1304
▁:	-1305
ewî	-1306
▁redir	-1307
▁hejmara	-1308
▁PKK	-1309
▁hember	-1310
▁redirect	-1311
▁giring	-1312
endî	-1313
gah	-1314
inda	-1315
▁Wêne	-1316
▁evî	-1317
▁SEROKÊ	-1318
zan	-1319
▁Se	-1320
▁ragihandin	-1321
ebanî	-1322
IL	-1323
▁bawer	-1324
pr	-1325
▁Ob	-1326
▁Kurdan	-1327
▁He	-1328
irî	-1329
asyon	-1330
▁bide	-1331
▁13	-1332
▁rûnişt	-1333
▁nûçeya	-1334
▁ast	-1335
amîl	-1336
▁post	-1337
enter	-1338
▁bajar	-1339
▁DA	-1340
ix	-1341
▁leşkerî	-1342
▁zêde	-1343
yle	-1344
alên	-1345
▁pirr	-1346
▁proj	-1347
ANÎ	-1348
▁girîng	-1349
▁Beş	-1350
îp	-1351
▁heman	-1352
▁berhem	-1353
okrat	-1354
▁2012/	-1355
▁Talebanî	-1356
▁şandeya	-1357
day	-1358
▁hun	-1359
▁biry	-1360
▁Kes	-1361
darê	-1362
xaneya	-1363
▁derd	-1364
▁hilbijartinên	-1365
INA	-1366
▁dix	-1367
▁destn	-1368
IYA	-1369
amî	-1370
▁ot	-1371
▁destê	-1372
▁195	-1373
▁KO	-1374
▁kesan	-1375
▁PÊ	-1376
▁heger	-1377
▁Obama	-1378
va	-1379
▁Xan	-1380
girtina	-1381
▁Ereb	-1382
îsa	-1383
▁nûç	-1384
ate	-1385
▁gişt	-1386
▁2007	-1387
ksiyon	-1388
êşa	-1389
▁mer	-1390
"|	-1391
▁bêtir	-1392
aytex	-1393
▁194	-1394
▁helbest	-1395
avên	-1396
ord	-1397
eyeke	-1398
▁karê	-1399
oka	-1400
▁cihê	-1401
▁Endamê	-1402
▁[18	-1403
ekirina	-1404
axa	-1405
▁(),	-1406
ard	-1407
▁Eliraq	-1408
▁derket	-1409
▁nûnerên	-1410
ill	-1411
▁doh	-1412
▁art	-1413
ÛN	-1414
TIN	-1415
▁HAT	-1416
▁ved	-1417
▁çû	-1418
▁avê	-1419
▁Netewe	-1420
TA	-1421
▁Rom	-1422
uda	-1423
▁dîtin	-1424
▁guf	-1425
▁km	-1426
▁damezr	-1427
gera	-1428
▁ket	-1429
lem	-1430
han	-1431
▁dîdar	-1432
sala	-1433
▁.	-1434
▁rêya	-1435
▁parast	-1436
.1	-1437
▁Brît	-1438
▁jiyana	-1439
▁welatê	-1440
▁hilbijartinan	-1441
▁serê	-1442
uc	-1443
▁(1	-1444
iyar	-1445
yekî	-1446
▁[17	-1447
▁kurdist	-1448
▁Dêr	-1449
▁rêkevtin	-1450
gar	-1451
ona	-1452
lin	-1453
▁Wezîrê	-1454
▁hêv	-1455
▁Nivîs	-1456
▁ma	-1457
onê	-1458
.2012	-1459
▁berpirsên	-1460
ae	-1461
▁kongir	-1462
▁dig	-1463
▁ewledar	-1464
▁çi	-1465
pera	-1466
▁Muhemmed	-1467
▁destnîşan	-1468
awî	-1469
ekar	-1470
▁wir	-1471
▁ner	-1472
▁şar	-1473
darî	-1474
▁Sali	-1475
▁dik	-1476
▁fer	-1477
px	-1478
karên	-1479
▁çalak	-1480
▁rom	-1481
nas	-1482
▁biw	-1483
▁kerkûkê	-1484
dewl	-1485
EH	-1486
▁armanc	-1487
YE	-1488
▁()	-1489
emîn	-1490
▁bikaranîn	-1491
der	-1492
▁salan	-1493
▁bidin	-1494
WAZ	-1495
raksiyon	-1496
▁başûrê	-1497
▁dixwazin	-1498
▁mirovan	-1499
▁terorîst	-1500
eşt	-1501
▁u	-1502
vanên	-1503
are	-1504
▁guher	-1505
iyayê	-1506
▁Tirkiyeyê	-1507
▁balyoz	-1508
ES	-1509
▁gul	-1510
ans	-1511
▁In	-1512
▁asayiş	-1513
▁layê	-1514
etir	-1515
ow	-1516
▁encamdan	-1517
EKÎ	-1518
▁Amerîkî	-1519
▁hevpeymanîya	-1520
▁band	-1521
▁Rê	-1522
▁nik	-1523
nê	-1524
▁Eliraqîyye	-1525
▁xurt	-1526
EN	-1527
▁encama	-1528
▁Cîh	-1529
▁navxwe	-1530
irx	-1531
kirinê	-1532
▁NA	-1533
eli	-1534
▁Ch	-1535
▁Zim	-1536
▁Yekî	-1537
▁awayekî	-1538
oli	-1539
▁ned	-1540
tan	-1541
▁DÊ	-1542
ras	-1543
▁Ad	-1544
▁bazirg	-1545
AND	-1546
▁prosesa	-1547
▁perwer	-1548
▁pêkanîna	-1549
▁Mel	-1550
▁xwed	-1551
▁didin	-1552
dêr	-1553
şemê	-1554
êwe	-1555
bûnê	-1556
col	-1557
▁Sed	-1558
▁tirkî	-1559
îzî	-1560
ÎK	-1561
▁Celal	-1562
▁Salih	-1563
▁girt	-1564
30	-1565
▁Per	-1566
1]	-1567
.000	-1568
4]	-1569
▁[19	-1570
▁çendê	-1571
KÛ	-1572
align	-1573
efa	-1574
▁Silêmanî	-1575
afa	-1576
▁aşt	-1577
2]	-1578
6]	-1579
||	-1580
bêj	-1581
3]	-1582
hev	-1583
▁biç	-1584
▁dûr	-1585
kef	-1586
ator	-1587
jp	-1588
avayê	-1589
ekan	-1590
8]	-1591
▁biz	-1592
imî	-1593
▁tel	-1594
▁agah	-1595
wîst	-1596
▁nehat	-1597
▁xiz	-1598
Mar	-1599
▁îs	-1600
▁caran	-1601
îf	-1602
jpg	-1603
5]	-1604
▁nak	-1605
ond	-1606
▁25	-1607
els	-1608
▁rejî	-1609
▁mafên	-1610
▁Yekbûyî	-1611
erb	-1612
ivê	-1613
weş	-1614
alan	-1615
gr	-1616
ikev	-1617
cî	-1618
▁navdar	-1619
▁pes	-1620
san	-1621
▁Bin	-1622
21	-1623
yal	-1624
▁xist	-1625
lo	-1626
▁the	-1627
7]	-1628
▁hew	-1629
▁xelkê	-1630
eteweyî	-1631
▁Du	-1632
ibûn	-1633
▁polîsên	-1634
▁Kurdistanî	-1635
ahî	-1636
▁Gul	-1637
▁Kur	-1638
▁Af	-1639
.2011	-1640
ibe	-1641
EYA	-1642
rah	-1643
beş	-1644
▁federal	-1645
▁grêdayî	-1646
oreş	-1647
▁Tê	-1648
center	-1649
▁Ba	-1650
karê	-1651
▁pêd	-1652
mend	-1653
▁Şar	-1654
▁bîr	-1655
▁dim	-1656
RÊ	-1657
gê	-1658
▁kirina	-1659
▁Esed	-1660
bidest	-1661
▁xan	-1662
▁es	-1663
emal	-1664
▁meha	-1665
▁welatî	-1666
▁dikeve	-1667
DAR	-1668
êç	-1669
▁qanûna	-1670
▁fraksiyon	-1671
▁Berhem	-1672
03	-1673
baz	-1674
▁[16	-1675
▁çap	-1676
▁kevn	-1677
▁Fer	-1678
▁xwepêşand	-1679
ant	-1680
▁navç	-1681
▁Tirkîyê	-1682
▁nîv	-1683
▁Mê	-1684
aka	-1685
▁Kor	-1686
▁Pêş	-1687
▁biryara	-1688
▁hikûmeta	-1689
▁heya	-1690
amîleya	-1691
▁serhil	-1692
▁parliyamentê	-1693
▁sp	-1694
se	-1695
tirîn	-1696
▁dixwaze	-1697
▁Herweha	-1698
▁BA	-1699
▁kurdistanî	-1700
▁qed	-1701
andinê	-1702
ox	-1703
▁rojava	-1704
wat	-1705
▁Dî	-1706
▁mafê	-1707
▁qanûn	-1708
▁Dewleta	-1709
▁bix	-1710
▁at	-1711
▁kompan	-1712
awa	-1713
emed	-1714
▁daxuyan	-1715
▁30	-1716
▁hatibû	-1717
▁guft	-1718
▁piştev	-1719
▁hezar	-1720
▁Dih	-1721
wê	-1722
yeka	-1723
▁were	-1724
Jul	-1725
orm	-1726
▁nivîskar	-1727
▁Bal	-1728
▁bakurê	-1729
fer	-1730
▁dez	-1731
hên	-1732
▁bingeh	-1733
▁dikare	-1734
nan	-1735
▁sib	-1736
hen	-1737
parêz	-1738
▁Re	-1739
▁qez	-1740
▁Neteweyên	-1741
▁cuda	-1742
===	-1743
▁derbarê	-1744
men	-1745
▁Ger	-1746
▁paytex	-1747
▁Qer	-1748
▁zanist	-1749
▁cihgirê	-1750
▁hey	-1751
▁çarç	-1752
hilatê	-1753
▁pêşwazîya	-1754
DK	-1755
▁dîd	-1756
Dec	-1757
▁desthilat	-1758
mî	-1759
ogan	-1760
▁nîşan	-1761
▁berfir	-1762
bê	-1763
▁&	-1764
jarên	-1765
▁Evroj	-1766
May	-1767
▁vir	-1768
ida	-1769
ener	-1770
▁pêşmer	-1771
ich	-1772
▁sek	-1773
Sep	-1774
inên	-1775
-1	-1776
go	-1777
▁leşkerên	-1778
▁hind	-1779
▁pêkhat	-1780
▁Duh	-1781
Jun	-1782
▁nam	-1783
▁tekezî	-1784
tên	-1785
▁2006	-1786
▁xwest	-1787
EZ	-1788
▁Mih	-1789
dîn	-1790
▁oper	-1791
▁sedsala	-1792
▁192	-1793
▁xwez	-1794
▁endamê	-1795
▁duyem	-1796
▁Pr	-1797
▁anî	-1798
AY	-1799
çûn	-1800
evan	-1801
▁Kurdên	-1802
▁jêderî	-1803
▁navenda	-1804
▁XWE	-1805
▁Azad	-1806
▁Partîya	-1807
▁Cih	-1808
▁petrolê	-1809
▁çêkirin	-1810
▁te	-1811
▁şerê	-1812
▁xweş	-1813
▁tund	-1814
lu	-1815
▁ol	-1816
▁Mirin	-1817
▁Med	-1818
por	-1819
îlê	-1820
ür	-1821
▁Jêderekî	-1822
▁Mêrd	-1823
▁Ed	-1824
▁Amerîkayê	-1825
berê	-1826
▁Civ	-1827
▁dîdarê	-1828
▁piş	-1829
Aug	-1830
ewa	-1831
MER	-1832
Apr	-1833
▁zêdetir	-1834
ler	-1835
land	-1836
▁qeb	-1837
dayîk	-1838
▁pêşkêşî	-1839
Oct	-1840
ûp	-1841
▁Îran	-1842
ba	-1843
▁193	-1844
▁veger	-1845
▁reş	-1846
ûmet	-1847
org	-1848
.)	-1849
▁koç	-1850
girtin	-1851
ada	-1852
▁salê	-1853
▁Dest	-1854
▁berfireh	-1855
▁Wel	-1856
kevtina	-1857
▁Ak	-1858
tt	-1859
▁Amerîkayî	-1860
guh	-1861
îsê	-1862
yona	-1863
▁Hin	-1864
her	-1865
▁fîl	-1866
îrvan	-1867
▁Pirtû	-1868
urg	-1869
▁Av	-1870
êveb	-1871
▁wat	-1872
▁dikir	-1873
9]	-1874
▁tu	-1875
▁Navê	-1876
▁Hesen	-1877
▁[20	-1878
▁rejîma	-1879
▁Şem	-1880
▁karên	-1881
▁aşkir	-1882
▁Afg	-1883
▁[11	-1884
ahiya	-1885
▁Ez	-1886
▁aborî	-1887
▁dihat	-1888
▁hevkar	-1889
▁pirsên	-1890
▁21	-1891
îkirina	-1892
RO	-1893
▁Bo	-1894
▁Kir	-1895
▁arê	-1896
▁hêvî	-1897
.”	-1898
▁vek	-1899
▁Weha	-1900
▁part	-1901
▁pênc	-1902
▁vala	-1903
▁Le	-1904
ation	-1905
şemb	-1906
▁meh	-1907
bixwe	-1908
IŞ	-1909
Jan	-1910
▁arêş	-1911
ermend	-1912
▁gundên	-1913
▁Bel	-1914
▁style	-1915
êw	-1916
inc	-1917
▁arîş	-1918
▁xwedî	-1919
ess	-1920
▁Dengê	-1921
▁Bil	-1922
▁Wî	-1923
▁Sw	-1924
DP	-1925
îj	-1926
êran	-1927
▁KOM	-1928
▁komîteya	-1929
▁dewletê	-1930
ikin	-1931
▁nêv	-1932
▁Iraqa	-1933
▁daxuyanî	-1934
dayîkbûn	-1935
RÎ	-1936
▁gotinê	-1937
fî	-1938
▁kov	-1939
▁nîne	-1940
▁dinê	-1941
▁Be	-1942
▁Pak	-1943
▁kan	-1944
net	-1945
▁Qan	-1946
▁erebî	-1947
50	-1948
▁PDK	-1949
▁PÊŞ	-1950
▁mij	-1951
▁barên	-1952
▁Bay	-1953
▁rojnamevanî	-1954
▁Jidayîkbûn	-1955
▁IS	-1956
▁îng	-1957
ight	-1958
▁Fransa	-1959
yad	-1960
êçîrvan	-1961
▁dirist	-1962
îrî	-1963
▁Başûrê	-1964
DE	-1965
▁muz	-1966
axê	-1967
onî	-1968
▁ligel	-1969
▁Pol	-1970
▁Selah	-1971
▁pr	-1972
▁sîya	-1973
▁rojnameya	-1974
▁Şah	-1975
▁‘	-1976
▁zû	-1977
▁Far	-1978
▁xir	-1979
▁çareserkirina	-1980
▁Fir	-1981
▁Dîrok	-1982
▁reng	-1983
▁Ewropa	-1984
▁Nû	-1985
▁Huseyn	-1986
êje	-1987
imê	-1988
ehîd	-1989
girt	-1990
ide	-1991
▁herwisa	-1992
//	-1993
berên	-1994
▁Enc	-1995
iyeke	-1996
etan	-1997
▁geng	-1998
kuj	-1999
▁deverê	-2000
▁Sur	-2001
▁derveyê	-2002
▁Pey	-2003
▁Başûr	-2004
EŞ	-2005
▁artêşa	-2006
▁Evî	-2007
▁maddeya	-2008
yekê	-2009
▁destûra	-2010
UR	-2011
▁kel	-2012
▁Frans	-2013
zê	-2014
▁DYA	-2015
atî	-2016
▁24	-2017
▁şîr	-2018
color	-2019
ewr	-2020
▁hukûmetê	-2021
▁Kr	-2022
▁kurdên	-2023
▁hejmar	-2024
▁Nêçîrvan	-2025
eyam	-2026
▁Sp	-2027
▁and	-2028
▁ewledarîyê	-2029
▁rex	-2030
▁wisa	-2031
▁ker	-2032
▁nêzîk	-2033
▁Mirov	-2034
▁Mîr	-2035
MAN	-2036
anda	-2037
▁pirsgirê	-2038
▁aşkira	-2039
▁140	-2040
▁Sch	-2041
▁leşker	-2042
Baş	-2043
ont	-2044
îrm	-2045
▁Zanîn	-2046
▁align	-2047
▁Hêz	-2048
pl	-2049
ûy	-2050
▁nirx	-2051
▁dîyar	-2052
▁Mêrdînê	-2053
▁çandî	-2054
▁herwiha	-2055
▁At	-2056
▁Reş	-2057
▁taw	-2058
ştir	-2059
▁hêla	-2060
▁bilinda	-2061
par	-2062
oran	-2063
://	-2064
▁Nob	-2065
iştimanî	-2066
▁(200	-2067
▁serbixwe	-2068
▁Az	-2069
▁posta	-2070
▁kombûnek	-2071
nd	-2072
▁rola	-2073
▁Îslam	-2074
Nov	-2075
eyekê	-2076
henasî	-2077
▁îm	-2078
▁siv	-2079
▁yekemîn	-2080
▁destpêka	-2081
▁Çar	-2082
▁Pişt	-2083
ÎYÊ	-2084
za	-2085
Feb	-2086
▁avakirin	-2087
manê	-2088
▁şev	-2089
▁ewên	-2090
▁BO	-2091
▁Komara	-2092
bir	-2093
adî	-2094
▁====	-2095
▁dane	-2096
amost	-2097
ie	-2098
iyona	-2099
▁dawîyê	-2100
set	-2101
XWAZ	-2102
▁gengeş	-2103
▁bik	-2104
Başûrê	-2105
▁çareserkirin	-2106
▁rêxistin	-2107
▁Erebî	-2108
EB	-2109
işk	-2110
▁Kan	-2111
yo	-2112
ûst	-2113
orên	-2114
▁qebûl	-2115
wey	-2116
▁Sey	-2117
MERÎK	-2118
▁Erdogan	-2119
une	-2120
▁în	-2121
Çavkanî	-2122
▁î	-2123
▁dijîn	-2124
eyekî	-2125
▁bernam	-2126
▁Dema	-2127
▁rastî	-2128
ck	-2129
wd	-2130
amp	-2131
nb	-2132
îyekî	-2133
▁nem	-2134
ûsa	-2135
▁anîn	-2136
ET	-2137
îlan	-2138
me	-2139
▁demjim	-2140
ban	-2141
▁asayişa	-2142
ale	-2143
▁pêwîst	-2144
▁têne	-2145
▁Navîn	-2146
bend	-2147
îkol	-2148
▁hes	-2149
▁Kel	-2150
▁Erz	-2151
▁Kerkû	-2152
▁22	-2153
▁EN	-2154
▁191	-2155
▁Bab	-2156
▁hiz	-2157
▁Islam	-2158
▁PAR	-2159
▁kons	-2160
▁AMERÎK	-2161
ebûna	-2162
▁sit	-2163
▁çîrok	-2164
deşt	-2165
tinê	-2166
sta	-2167
ember	-2168
▁hevpeyv	-2169
tinên	-2170
▁sor	-2171
îsan	-2172
▁Sal	-2173
▁Bara	-2174
den	-2175
oma	-2176
▁Hat	-2177
IH	-2178
elî	-2179
▁pêşket	-2180
êjeya	-2181
▁Îtil	-2182
80	-2183
kevin	-2184
▁Haş	-2185
▁Îsra	-2186
▁sedema	-2187
▁Mihemed	-2188
▁Ewropayê	-2189
ff	-2190
▁qur	-2191
ere	-2192
hel	-2193
▁Ab	-2194
yarb	-2195
uş	-2196
▁Stenb	-2197
▁hwd	-2198
▁rojhilata	-2199
cê	-2200
▁çekdarên	-2201
▁diçe	-2202
ace	-2203
▁Beşar	-2204
êk	-2205
▁Birêz	-2206
▁mi	-2207
0]	-2208
▁top	-2209
▁dikarin	-2210
▁HEV	-2211
▁jêr	-2212
▁De	-2213
▁Îb	-2214
▁digire	-2215
ura	-2216
▁%	-2217
▁mez	-2218
▁firr	-2219
▁Partiya	-2220
rder	-2221
ELA	-2222
omê	-2223
ilîzî	-2224
êl	-2225
tern	-2226
▁Mezin	-2227
anb	-2228
▁navdewl	-2229
eza	-2230
yn	-2231
ilman	-2232
▁dîrokî	-2233
çî	-2234
▁Paş	-2235
BN	-2236
êt	-2237
▁RÛ	-2238
▁rojan	-2239
▁Gr	-2240
îkirin	-2241
oll	-2242
ga	-2243
▁navçe	-2244
inî	-2245
▁Lîb	-2246
▁hebe	-2247
▁Xelata	-2248
▁[12	-2249
▁başûr	-2250
▁rêxistina	-2251
▁Gelhenasî	-2252
▁NY	-2253
elsef	-2254
▁Ax	-2255
▁Şer	-2256
▁berj	-2257
siv	-2258
▁wezîran	-2259
▁Weş	-2260
rahîm	-2261
▁hatina	-2262
wana	-2263
gerê	-2264
▁Sala	-2265
idth	-2266
yl	-2267
▁rawest	-2268
▁alîkarîya	-2269
okên	-2270
▁bêjedana	-2271
ariya	-2272
▁dîroka	-2273
▁ak	-2274
ayan	-2275
▁pêşmerge	-2276
amên	-2277
IYE	-2278
▁balyozê	-2279
▁Silêmanîyê	-2280
▁İ	-2281
▁Mer	-2282
▁mis	-2283
all	-2284
▁nek	-2285
nbsp	-2286
▁parastina	-2287
ikan	-2288
ûz	-2289
▁cara	-2290
oy	-2291
ung	-2292
ikên	-2293
▁ango	-2294
okî	-2295
▁polîsan	-2296
garî	-2297
▁Fel	-2298
▁Kesên	-2299
ewend	-2300
ÊZ	-2301
ût	-2302
▁Tar	-2303
▁hewl	-2304
▁salî	-2305
▁rojên	-2306
anîyê	-2307
amber	-2308
ebest	-2309
▁[13	-2310
▁opoz	-2311
▁Silêman	-2312
▁rojê	-2313
com	-2314
▁bavê	-2315
lament	-2316
ayîn	-2317
▁Misirê	-2318
▁Herwiha	-2319
▁Hevpey	-2320
▁gelekî	-2321
înak	-2322
▁awayî	-2323
▁)	-2324
bidestên	-2325
▁Îtilafa	-2326
▁NAV	-2327
▁[14	-2328
io	-2329
▁Lîst	-2330
▁biwarê	-2331
▁bergir	-2332
▁Yekîtîya	-2333
▁girtî	-2334
▁bang	-2335
wezîrê	-2336
▁!	-2337
▁23	-2338
heng	-2339
▁big	-2340
▁Famîleya	-2341
▁Must	-2342
▁HU	-2343
reterê	-2344
▁biçûk	-2345
▁dijwar	-2346
nav	-2347
▁piştgir	-2348
▁gun	-2349
warî	-2350
▁bas	-2351
▁Qanûnê	-2352
ejir	-2353
▁Hind	-2354
▁Isra	-2355
yayî	-2356
▁axaf	-2357
-19	-2358
▁tevî	-2359
▁beşdarî	-2360
▁Dihokê	-2361
▁[10	-2362
▁Çînê	-2363
▁Ay	-2364
▁ISBN	-2365
▁DEST	-2366
pir	-2367
▁În	-2368
▁Brîtaniya	-2369
▁rêvebir	-2370
▁beşdarîyê	-2371
ênc	-2372
▁Pîr	-2373
baran	-2374
deh	-2375
ian	-2376
▁27	-2377
▁Sil	-2378
▁HATIN	-2379
▁hebûn	-2380
vanê	-2381
▁Hêj	-2382
▁welatan	-2383
▁Kurdistana	-2384
▁**03	-2385
▁cem	-2386
girtî	-2387
okras	-2388
▁hebû	-2389
▁Hey	-2390
▁Ro	-2391
iç	-2392
evanên	-2393
▁Heleb	-2394
▁pesend	-2395
▁operasyon	-2396
banî	-2397
▁nah	-2398
atiya	-2399
▁Hik	-2400
▁med	-2401
aç	-2402
oza	-2403
▁Malpera	-2404
▁Or	-2405
EKA	-2406
▁êv	-2407
ttp	-2408
dara	-2409
▁http	-2410
▁hevwelatîyên	-2411
▁Îm	-2412
▁[15	-2413
▁mala	-2414
.2010	-2415
▁eger	-2416
▁hikûmetê	-2417
▁keç	-2418
▁qasî	-2419
▁dinên	-2420
ile	-2421
las	-2422
ong	-2423
▁cî	-2424
▁kurê	-2425
edarê	-2426
ji	-2427
▁Zêb	-2428
▁diç	-2429
▁Zanîngeha	-2430
ern	-2431
▁Mêr	-2432
▁kol	-2433
neteweyî	-2434
oman	-2435
axwaz	-2436
mancî	-2437
▁Kemal	-2438
▁pêşîn	-2439
▁Selahed	-2440
ca	-2441
êre	-2442
omar	-2443
▁Ne	-2444
yeke	-2445
▁Me	-2446
▁çûn	-2447
ibin	-2448
▁sîst	-2449
▁BDP	-2450
▁Fu	-2451
▁bim	-2452
▁Zêbarî	-2453
▁Eswat	-2454
ry	-2455
▁Un	-2456
▁BIH	-2457
▁gundî	-2458
▁serekî	-2459
▁desthilatdar	-2460
wî	-2461
▁Herwisa	-2462
▁'	-2463
▁wên	-2464
ou	-2465
▁Wanê	-2466
▁berjewend	-2467
ten	-2468
▁Huk	-2469
▁mebest	-2470
▁civakî	-2471
atînî	-2472
▁hevdî	-2473
yonê	-2474
▁Fîl	-2475
▁far	-2476
▁şoreş	-2477
▁Hêzên	-2478
▁navend	-2479
▁Eswatul	-2480
NK	-2481
2)	-2482
▁2007/	-2483
▁Îro	-2484
▁mîna	-2485
▁komel	-2486
▁Haşimî	-2487
5)	-2488
ite	-2489
girên	-2490
okratîk	-2491
▁28	-2492
▁tevlî	-2493
▁çavdêr	-2494
▁Ebdullah	-2495
▁Turkiyeyê	-2496
WL	-2497
▁en	-2498
▁bajarên	-2499
▁50	-2500
▁Sa	-2501
▁WEZ	-2502
▁pirtûk	-2503
wa	-2504
▁Eyad	-2505
▁xwarin	-2506
yayên	-2507
▁kontr	-2508
▁Dê	-2509
▁beyan	-2510
▁armanca	-2511
▁xwediyê	-2512
▁siyasîya	-2513
son	-2514
gehan	-2515
fa	-2516
omî	-2517
78	-2518
berg	-2519
▁nabe	-2520
▁Eb	-2521
▁qedex	-2522
▁Israye	-2523
▁bûyerê	-2524
▁AMERÎKA	-2525
▁NE	-2526
▁hêr	-2527
▁Mez	-2528
▁Hez	-2529
▁BIKE	-2530
▁derdikev	-2531
▁şan	-2532
sin	-2533
mana	-2534
▁çandin	-2535
atîk	-2536
▁rewşenb	-2537
31	-2538
aza	-2539
urî	-2540
▁rev	-2541
▁stran	-2542
▁Navenda	-2543
▁Aw	-2544
▁Abdul	-2545
▁bêjedan	-2546
▁pirtûka	-2547
▁naskirin	-2548
▁Eswatuliraq	-2549
40	-2550
ilî	-2551
îrokê	-2552
▁dîsa	-2553
▁derveya	-2554
▁Ko	-2555
▁bud	-2556
▁valakirin	-2557
▁bu	-2558
iwan	-2559
▁şew	-2560
▁26	-2561
▁mir	-2562
▁binav	-2563
▁ferman	-2564
ın	-2565
▁hevdu	-2566
▁Efr	-2567
▁fermand	-2568
▁Art	-2569
▁wateya	-2570
▁Rû	-2571
▁Ang	-2572
▁hêza	-2573
▁digel	-2574
îşt	-2575
idae	-2576
▁şeş	-2577
ary	-2578
▁aloz	-2579
gcolor	-2580
▁100	-2581
▁Rec	-2582
▁peyv	-2583
ato	-2584
bert	-2585
▁Agir	-2586
▁Eş	-2587
▁did	-2588
sîk	-2589
▁weşandin	-2590
▁hemî	-2591
KÛME	-2592
▁Dad	-2593
▁şehîd	-2594
▁des	-2595
▁Afr	-2596
▁Zax	-2597
▁Rojnam	-2598
for	-2599
▁lêkolîn	-2600
▁bersiv	-2601
qa	-2602
▁hilwest	-2603
--	-2604
IK	-2605
▁Duhokê	-2606
irn	-2607
▁EL	-2608
adir	-2609
▁otom	-2610
exê	-2611
êde	-2612
▁Dil	-2613
SA	-2614
▁dihên	-2615
▁Tirkiyê	-2616
▁rojavayê	-2617
▁erd	-2618
▁vekirin	-2619
abin	-2620
▁pev	-2621
▁Rêveb	-2622
▁piştevanîya	-2623
▁SEREKÎ	-2624
▁qon	-2625
▁Dike	-2626
▁agir	-2627
▁KIRIN	-2628
dayê	-2629
▁BIR	-2630
▁RÛP	-2631
▁sazkirin	-2632
ze	-2633
▁dezgehên	-2634
60	-2635
ohn	-2636
▁YA	-2637
kere	-2638
▁GIR	-2639
▁malbata	-2640
▁ram	-2641
▁veb	-2642
▁mamost	-2643
▁ragihandiye	-2644
25	-2645
zî	-2646
▁diş	-2647
êrî	-2648
▁Zimanê	-2649
aliya	-2650
▁bigih	-2651
▁RÛPELA	-2652
▁sînorê	-2653
▁BAR	-2654
▁2005	-2655
▁çekdar	-2656
ron	-2657
▁hîn	-2658
▁Rûsiya	-2659
▁kiş	-2660
▁abor	-2661
▁hîna	-2662
▁geş	-2663
▁muh	-2664
ux	-2665
▁***	-2666
AK	-2667
▁Har	-2668
▁germ	-2669
▁jiber	-2670
îq	-2671
▁hêj	-2672
▁Rojava	-2673
andiye	-2674
▁pîkol	-2675
▁Îranî	-2676
KÊ	-2677
OL	-2678
eter	-2679
ekirê	-2680
▁pîrozb	-2681
▁derbasbûyî	-2682
dû	-2683
▁hevp	-2684
▁Gelek	-2685
▁HUKÛME	-2686
▁hatîye	-2687
▁derveyî	-2688
feran	-2689
▁Şerê	-2690
▁pêşin	-2691
▁Bêj	-2692
▁bon	-2693
▁xelkên	-2694
▁duh	-2695
▁şerr	-2696
▁sivîl	-2697
▁Jap	-2698
iştimanîya	-2699
to	-2700
ww	-2701
▁encamên	-2702
izg	-2703
▁2003	-2704
▁nekir	-2705
anistanê	-2706
▁Mist	-2707
▁razî	-2708
▁encamdana	-2709
▁nivîsandin	-2710
URK	-2711
▁Şî	-2712
awer	-2713
▁Derve	-2714
deyê	-2715
▁YNK	-2716
▁dor	-2717
▁Wekî	-2718
sch	-2719
uha	-2720
▁190	-2721
▁bakur	-2722
▁dewletên	-2723
▁damezrandin	-2724
▁Nec	-2725
▁Heta	-2726
▁Sedr	-2727
▁mawe	-2728
▁nake	-2729
▁polît	-2730
işka	-2731
▁bic	-2732
yarên	-2733
▁hebûna	-2734
▁KER	-2735
▁cej	-2736
▁gihij	-2737
▁TURK	-2738
www	-2739
▁girêd	-2740
▁YE	-2741
▁otomob	-2742
▁alîyekî	-2743
▁berhemên	-2744
aceae	-2745
▁navîn	-2746
▁fîz	-2747
▁hest	-2748
▁felsef	-2749
▁sazdan	-2750
▁man	-2751
▁Beg	-2752
ÎR	-2753
ekên	-2754
lamê	-2755
▁met	-2756
▁fraksiyonên	-2757
▁pl	-2758
▁Hun	-2759
▁beramber	-2760
▁dewlet	-2761
▁gotina	-2762
olojî	-2763
▁milyon	-2764
▁malbatên	-2765
azê	-2766
▁Wezareta	-2767
urd	-2768
▁Ma	-2769
edana	-2770
▁bend	-2771
▁pêdivê	-2772
▁vekiş	-2773
MEN	-2774
▁Ker	-2775
ekanî	-2776
▁border	-2777
▁pêng	-2778
▁telev	-2779
▁êrîşên	-2780
ade	-2781
▁xebatên	-2782
yanê	-2783
can	-2784
tor	-2785
▁Go	-2786
▁herêmên	-2787
▁(201	-2788
▁dora	-2789
zanîn	-2790
▁zimanên	-2791
amer	-2792
▁hiş	-2793
▁çawa	-2794
▁şêwe	-2795
îdê	-2796
▁zîn	-2797
ack	-2798
▁29	-2799
▁zay	-2800
▁Hejm	-2801
▁Siya	-2802
IJ	-2803
▁Tariq	-2804
▁bihîne	-2805
qê	-2806
ceya	-2807
▁Bakur	-2808
".	-2809
asê	-2810
▁latînî	-2811
3)	-2812
▁Sh	-2813
enîş	-2814
▁Col	-2815
▁2004	-2816
▁bilî	-2817
▁=	-2818
▁opozis	-2819
▁laş	-2820
▁giştîyê	-2821
ext	-2822
▁Tel	-2823
▁çêd	-2824
▁encûm	-2825
▁firrok	-2826
îtî	-2827
▁piştre	-2828
GIR	-2829
hed	-2830
uj	-2831
ork	-2832
ûya	-2833
TINA	-2834
▁Dav	-2835
ys	-2836
="#	-2837
▁yekî	-2838
▁navên	-2839
nivîs	-2840
▁nûnerê	-2841
▁berpirsê	-2842
▁Berpirs	-2843
qu	-2844
gen	-2845
ogra	-2846
▁bêh	-2847
▁kiribû	-2848
▁Islamîya	-2849
▁tend	-2850
▁mirin	-2851
▁Sûriye	-2852
ph	-2853
plom	-2854
▁serd	-2855
eger	-2856
▁nex	-2857
▁ÎR	-2858
izgar	-2859
▁Xwedê	-2860
▁Bê	-2861
▁îngilîzî	-2862
gro	-2863
▁SAZ	-2864
▁biş	-2865
▁beşekî	-2866
▁baştir	-2867
28	-2868
▁ereb	-2869
▁çiya	-2870
▁wezar	-2871
ivî	-2872
çav	-2873
▁Th	-2874
▁ENC	-2875
▁dengê	-2876
▁hunermend	-2877
ERA	-2878
şar	-2879
ebar	-2880
▁Swêd	-2881
▁Car	-2882
▁40	-2883
▁serî	-2884
▁warê	-2885
▁Mil	-2886
▁gotiye	-2887
izê	-2888
▁und	-2889
çeyên	-2890
▁demekê	-2891
▁tir	-2892
▁bingeha	-2893
▁Ah	-2894
▁ef	-2895
eyamn	-2896
▁netewe	-2897
24	-2898
▁Maf	-2899
▁Ajansa	-2900
2.	-2901
tine	-2902
▁aj	-2903
▁Mûş	-2904
▁cihên	-2905
ezar	-2906
AD	-2907
▁kul	-2908
▁pil	-2909
▁rêk	-2910
ün	-2911
ÎYÊN	-2912
ica	-2913
sel	-2914
▁navdewletî	-2915
6)	-2916
▁{	-2917
▁2000	-2918
75	-2919
▁Baz	-2920
ÊRÊ	-2921
çûna	-2922
▁KUJ	-2923
▁Zan	-2924
▁cureyên	-2925
▁Stenbolê	-2926
▁rêkevtina	-2927
akî	-2928
rên	-2929
▁Çiyayê	-2930
34	-2931
îma	-2932
▁La	-2933
▁Sir	-2934
▁demên	-2935
▁dîrokê	-2936
▁KOMB	-2937
▁KERKÛ	-2938
▁dawîya	-2939
▁nehatiye	-2940
▁destên	-2941
▁Helbest	-2942
▁Encûmena	-2943
▁Bas	-2944
▁siyaset	-2945
▁zarokan	-2946
▁im	-2947
berî	-2948
▁col	-2949
▁digih	-2950
dir	-2951
ştî	-2952
ingen	-2953
▁Roja	-2954
▁hemberî	-2955
▁Wê	-2956
▁Ell	-2957
▁Sor	-2958
emp	-2959
jen	-2960
▁Tey	-2961
edan	-2962
▁(199	-2963
andinên	-2964
▁ka	-2965
DANA	-2966
▁Mus	-2967
▁pro	-2968
YO	-2969
şa	-2970
;"|	-2971
▁31	-2972
▁jinan	-2973
7)	-2974
add	-2975
▁II	-2976
▁str	-2977
▁tekn	-2978
▁xebat	-2979
▁kand	-2980
89	-2981
ft	-2982
ima	-2983
▁Tirkîye	-2984
▁Dêrs	-2985
▁peywendî	-2986
ius	-2987
▁sînor	-2988
85	-2989
LA	-2990
▁Parêz	-2991
▁DAXWAZ	-2992
▁navxweyî	-2993
▁siyasîyên	-2994
74	-2995
▁geşt	-2996
werî	-2997
▁Komel	-2998
▁Sê	-2999
span	-3000
▁Ciz	-3001
▁gelên	-3002
▁avakirina	-3003
▁Tev	-3004
▁Barak	-3005
yarbekirê	-3006
eman	-3007
▁herweha	-3008
▁pis	-3009
▁Qur	-3010
▁kêş	-3011
▁beşa	-3012
▁zarokên	-3013
▁Zer	-3014
▁encamê	-3015
▁Hevpeymanîya	-3016
ED	-3017
port	-3018
▁herdem	-3019
our	-3020
isch	-3021
ştin	-3022
îç	-3023
gîr	-3024
▁dibîne	-3025
▁bazirganî	-3026
▁pîv	-3027
▁sereke	-3028
▁petrola	-3029
ire	-3030
▁riw	-3031
▁cure	-3032
▁hezaran	-3033
erîm	-3034
uli	-3035
▁bala	-3036
▁Rojhilata	-3037
îlî	-3038
▁Pênc	-3039
▁pêşn	-3040
isî	-3041
▁Koma	-3042
▁têkil	-3043
avî	-3044
▁pejir	-3045
▁çarçov	-3046
▁hûr	-3047
▁mînak	-3048
▁paraz	-3049
▁Deryaya	-3050
▁bernameya	-3051
▁Bûy	-3052
ington	-3053
ektr	-3054
▁Hil	-3055
1)	-3056
ash	-3057
▁Nor	-3058
▁rol	-3059
KIRINA	-3060
▁Hukûmeta	-3061
uman	-3062
▁Êz	-3063
▁wergirt	-3064
10	-3065
▁Seq	-3066
▁Wil	-3067
▁Xaneq	-3068
fê	-3069
▁Afganistanê	-3070
olar	-3071
▁Ham	-3072
ground	-3073
▁vekir	-3074
▁partîya	-3075
hê	-3076
îdî	-3077
▁birêz	-3078
26	-3079
39	-3080
ore	-3081
▁Cem	-3082
▁dêr	-3083
▁mêr	-3084
▁şad	-3085
▁Xali	-3086
lar	-3087
▁Fa	-3088
▁ron	-3089
▁holê	-3090
▁Şirn	-3091
▁Almaniya	-3092
▁fran	-3093
▁kurt	-3094
▁şerm	-3095
▁Ellawî	-3096
▁rojavaya	-3097
▁HIL	-3098
▁gotinên	-3099
enas	-3100
▁dît	-3101
;"	-3102
▁may	-3103
▁danûst	-3104
▁ragihandina	-3105
▁Azerb	-3106
▁giran	-3107
▁teqîna	-3108
atoriya	-3109
iyoya	-3110
▁pêşî	-3111
▁peyda	-3112
▁sîyasî	-3113
▁Hikûmeta	-3114
70	-3115
yarî	-3116
eriya	-3117
▁Fransayê	-3118
ATO	-3119
ira	-3120
▁hevbeş	-3121
erd	-3122
▁hund	-3123
▁danîn	-3124
▁kongireya	-3125
▁xaka	-3126
▁siyaseta	-3127
▁Tirkiye	-3128
▁bandora	-3129
▁daxuyannam	-3130
enên	-3131
▁sibehê	-3132
ci	-3133
▁JÎ	-3134
▁John	-3135
▁net	-3136
▁red	-3137
▁koma	-3138
emên	-3139
▁Şing	-3140
▁paytexta	-3141
olog	-3142
▁Bat	-3143
▁ziyan	-3144
▁serkir	-3145
▁dinyayê	-3146
▁Baj	-3147
▁nebû	-3148
▁êriş	-3149
▁Sûriyê	-3150
▁),	-3151
▁Belê	-3152
▁qezaya	-3153
TP	-3154
▁Bed	-3155
▁nêr	-3156
wn	-3157
meh	-3158
▁BÛ	-3159
▁Ey	-3160
▁Ö	-3161
▁ed	-3162
▁dikim	-3163
",	-3164
/19	-3165
IŞT	-3166
▁Rad	-3167
▁bên	-3168
▁Dîya	-3169
▁riya	-3170
▁cîhanî	-3171
▁zanistî	-3172
▁Nivîskarên	-3173
▁Ef	-3174
▁şah	-3175
▁tune	-3176
▁Çend	-3177
▁çekên	-3178
▁Bêjedarê	-3179
▁axa	-3180
▁niz	-3181
▁Silêmaniyê	-3182
▁[21	-3183
danên	-3184
eneral	-3185
▁gotar	-3186
▁pevçûn	-3187
▁navxwey	-3188
8)	-3189
▁xirab	-3190
▁bombeka	-3191
▁dikirin	-3192
▁hukûmet	-3193
▁komp	-3194
▁dayik	-3195
▁nerazî	-3196
99	-3197
DÊ	-3198
exan	-3199
▁Hac	-3200
▁paşê	-3201
▁destûrê	-3202
▁Mustefa	-3203
eda	-3204
▁Pirtûk	-3205
▁•	-3206
▁ta	-3207
emen	-3208
▁pirtûkê	-3209
▁RÊ	-3210
▁KES	-3211
▁Cîhan	-3212
▁qanûnê	-3213
▁deveran	-3214
▁pêv	-3215
▁ÎRANÊ	-3216
ekt	-3217
ota	-3218
▁Can	-3219
▁lew	-3220
adem	-3221
tiye	-3222
▁kîm	-3223
▁nakin	-3224
êra	-3225
▁radi	-3226
▁TURKIYE	-3227
ûç	-3228
▁NÛ	-3229
▁Dan	-3230
▁siteya	-3231
▁hatibûn	-3232
▁çarçêwe	-3233
▁niştimanî	-3234
îla	-3235
rast	-3236
▁Bes	-3237
▁Jêder	-3238
EM	-3239
▁(*	-3240
▁hav	-3241
▁dîwana	-3242
84	-3243
▁Min	-3244
▁Zar	-3245
▁tîrm	-3246
▁dagir	-3247
▁komis	-3248
▁dos	-3249
ûda	-3250
▁Ter	-3251
▁tew	-3252
▁Ermen	-3253
ue	-3254
sên	-3255
ÛNA	-3256
heim	-3257
kevtî	-3258
▁herêm	-3259
▁Brîtan	-3260
▁KUJTIN	-3261
▁serkef	-3262
▁Azerbay	-3263
/12	-3264
asim	-3265
engî	-3266
▁Dir	-3267
▁Mela	-3268
▁Israyel	-3269
▁xwendina	-3270
---	-3271
GEH	-3272
ikî	-3273
▁MAL	-3274
▁Şêr	-3275
▁Pakistanê	-3276
▁xwepêşandan	-3277
23	-3278
okan	-3279
▁Enq	-3280
▁Pas	-3281
▁tomar	-3282
▁Hejmara	-3283
▁Mistefa	-3284
meta	-3285
▁tîp	-3286
▁afir	-3287
▁Civata	-3288
▁prot	-3289
îşk	-3290
azin	-3291
êjin	-3292
▁Hol	-3293
▁tes	-3294
eç	-3295
▁{|	-3296
emend	-3297
right	-3298
▁bêtirî	-3299
▁werger	-3300
▁kirdarên	-3301
OR	-3302
eno	-3303
yet	-3304
▁|}	-3305
▁Wer	-3306
▁şik	-3307
▁çand	-3308
▁dayîn	-3309
▁bikeve	-3310
▁asta	-3311
▁Bot	-3312
▁Seb	-3313
▁neteweyî	-3314
▁TV	-3315
▁nikar	-3316
esaz	-3317
▁Niha	-3318
▁dibînin	-3319
▁kirî	-3320
▁Piştre	-3321
▁bandor	-3322
▁1.	-3323
▁NATO	-3324
navend	-3325
sh	-3326
uma	-3327
▁mas	-3328
▁dabeş	-3329
▁kompanyayên	-3330
/10	-3331
▁Lib	-3332
▁êrîşa	-3333
▁nehê	-3334
▁Îbrahîm	-3335
/11	-3336
▁Fr	-3337
▁HUKÛMETA	-3338
aman	-3339
▁Koreya	-3340
▁malpera	-3341
▁Bad	-3342
▁Weşanên	-3343
bîn	-3344
pel	-3345
mara	-3346
▁zind	-3347
▁şewit	-3348
▁kesekî	-3349
▁derê	-3350
▁dawiya	-3351
ozof	-3352
▁BÛN	-3353
▁1991	-3354
▁xwek	-3355
▁teqîya	-3356
▁bigirin	-3357
▁daxwazên	-3358
LIYA	-3359
deyên	-3360
co	-3361
name	-3362
▁telef	-3363
▁parlem	-3364
64	-3365
▁AK	-3366
▁Mi	-3367
aniyê	-3368
▁Serdeşt	-3369
▁Tah	-3370
29	-3371
eyr	-3372
ûnî	-3373
kara	-3374
▁Kov	-3375
▁Mûşê	-3376
sk	-3377
ism	-3378
▁AL	-3379
▁Biz	-3380
▁DER	-3381
▁Fil	-3382
▁cin	-3383
ein	-3384
vanan	-3385
▁çaverê	-3386
▁radiyoya	-3387
▁Adil	-3388
sek	-3389
left	-3390
▁misilman	-3391
:00	-3392
▁mîl	-3393
îneya	-3394
▁Cihgirê	-3395
xw	-3396
şta	-3397
▁malbat	-3398
▁Dar	-3399
▁him	-3400
BE	-3401
karî	-3402
▁Mon	-3403
orf	-3404
▁Nûn	-3405
▁taxa	-3406
▁cejna	-3407
▁Bexdadê	-3408
▁şaristana	-3409
▁Si	-3410
▁law	-3411
▁Mala	-3412
▁Ra	-3413
▁navneteweyî	-3414
alya	-3415
▁rûyê	-3416
▁qanûnî	-3417
▁rojhilatê	-3418
hej	-3419
▁la	-3420
▁dost	-3421
linton	-3422
▁PÊŞWAZ	-3423
▁kirîye	-3424
lû	-3425
▁Ebd	-3426
▁egerê	-3427
▁bingehîn	-3428
ock	-3429
emêr	-3430
ele	-3431
exm	-3432
ekarî	-3433
▁Niştî	-3434
▁Man	-3435
KIN	-3436
▁Sêş	-3437
▁erk	-3438
▁zer	-3439
▁konsul	-3440
▁Serokwezîrê	-3441
▁Sar	-3442
▁Rewş	-3443
abê	-3444
ame	-3445
ris	-3446
▁Îslamî	-3447
ity	-3448
▁Ol	-3449
▁Deb	-3450
▁daxwazê	-3451
gere	-3452
ır	-3453
inan	-3454
▁3-	-3455
▁Jos	-3456
▁Sek	-3457
style	-3458
▁kêmî	-3459
adding	-3460
car	-3461
ehman	-3462
▁nêzî	-3463
▁Şoreş	-3464
▁rûniştvanên	-3465
▁Tr	-3466
▁kr	-3467
▁Rew	-3468
▁Navçeya	-3469
35	-3470
lor	-3471
▁şûn	-3472
▁nikare	-3473
eroj	-3474
▁Sem	-3475
▁BIHÊ	-3476
▁Nex	-3477
▁alîkarî	-3478
▁bgcolor	-3479
XDA	-3480
ure	-3481
back	-3482
▁fil	-3483
▁for	-3484
▁Peyamn	-3485
▁temenê	-3486
▁destpêkê	-3487
êm	-3488
79	-3489
▁gef	-3490
▁qir	-3491
▁gotara	-3492
garê	-3493
▁siz	-3494
▁sos	-3495
▁Bûyer	-3496
▁Sûrîye	-3497
▁jêderên	-3498
îx	-3499
efîl	-3500
▁Xelîl	-3501
▁parêzgehên	-3502
▁dadgeha	-3503
▁girtina	-3504
▁hevwelatî	-3505
▁deh	-3506
▁otomb	-3507
▁nivîskarê	-3508
eyd	-3509
▁Îl	-3510
▁Wek	-3511
bûm	-3512
▁width	-3513
aks	-3514
▁RO	-3515
nîgarî	-3516
▁Bakurê	-3517
▁Yekîtiya	-3518
▁qer	-3519
▁dayîk	-3520
ejn	-3521
istanî	-3522
▁sekreterê	-3523
76	-3524
bil	-3525
canê	-3526
îngê	-3527
▁Ban	-3528
▁xer	-3529
▁nayê	-3530
bin	-3531
eva	-3532
▁veguh	-3533
2,	-3534
▁mehê	-3535
▁Kerkûk	-3536
▁eşkere	-3537
▁jîyana	-3538
oph	-3539
▁agahdar	-3540
▁sîstema	-3541
ach	-3542
▁bidest	-3543
▁şermezar	-3544
VAN	-3545
mad	-3546
çar	-3547
şembî	-3548
▁amerîk	-3549
▁serjim	-3550
▁şandeyeka	-3551
▁pîş	-3552
▁çaw	-3553
▁pena	-3554
▁pêvaj	-3555
padding	-3556
▁bûyerên	-3557
▁derbasî	-3558
▁Hevgirtina	-3559
▁VE	-3560
▁Reut	-3561
xaneyê	-3562
▁dîsan	-3563
▁SERDANA	-3564
▁bihînin	-3565
▁Şirnexê	-3566
▁demokras	-3567
▁kurmancî	-3568
IKÎ	-3569
▁Aş	-3570
▁Dev	-3571
▁qew	-3572
▁rêxistinên	-3573
BAR	-3574
▁kesî	-3575
▁Xw	-3576
▁Urd	-3577
▁maweya	-3578
▁Sim	-3579
▁2001	-3580
▁civaka	-3581
▁derdikeve	-3582
iliyên	-3583
LIYAMEN	-3584
▁xebata	-3585
▁colspan	-3586
86	-3587
orn	-3588
nanê	-3589
▁DTP	-3590
▁Hill	-3591
▁Balyoz	-3592
▁boneya	-3593
▁hevpeyvîn	-3594
ÎNDAR	-3595
▁1998	-3596
▁Dîroka	-3597
▁MALIKÎ	-3598
ii	-3599
▁Mec	-3600
estîv	-3601
▁Rûsya	-3602
▁karmend	-3603
▁Almanyayê	-3604
gîn	-3605
kerên	-3606
▁xizmet	-3607
background	-3608
▁Gu	-3609
▁hebin	-3610
▁Serhil	-3611
▁terorîstan	-3612
▁Net	-3613
▁Sêr	-3614
▁piranî	-3615
.:	-3616
0'	-3617
▁Hec	-3618
▁Şamê	-3619
▁dixwe	-3620
▁beyannam	-3621
▁nebe	-3622
▁Karbidestên	-3623
▁damezrandina	-3624
/02	-3625
/16	-3626
ence	-3627
▁jiyan	-3628
ال	-3629
/24	-3630
▁Erzîr	-3631
▁dixeb	-3632
▁milli	-3633
▁nûçeyên	-3634
▁PÊŞWAZÎYA	-3635
▁bav	-3636
▁erdê	-3637
▁muhr	-3638
▁qurbanî	-3639
▁dewlemend	-3640
-3	-3641
ray	-3642
îza	-3643
▁zew	-3644
▁demeke	-3645
▁nûçeyan	-3646
▁tiştekî	-3647
/01	-3648
▁Sun	-3649
▁Çav	-3650
▁peyva	-3651
END	-3652
bas	-3653
ozan	-3654
arîya	-3655
▁derf	-3656
▁BAXDA	-3657
▁Osmanî	-3658
▁Ge	-3659
esen	-3660
▁Sov	-3661
▁sist	-3662
▁Tay	-3663
▁sûd	-3664
▁1999	-3665
▁pêzanîn	-3666
/04	-3667
▁Xwar	-3668
▁biparêz	-3669
▁mebesta	-3670
▁parlament	-3671
.,	-3672
▁budceya	-3673
/14	-3674
fab	-3675
ştê	-3676
▁Xir	-3677
▁xem	-3678
manên	-3679
▁ewleh	-3680
▁jîyan	-3681
▁PARLIYAMEN	-3682
▁(,	-3683
▁Zag	-3684
▁rexne	-3685
enîşand	-3686
▁BIRÎNDAR	-3687
/07	-3688
/26	-3689
▁hij	-3690
▁Niştimanîya	-3691
Al	-3692
awe	-3693
hr	-3694
oq	-3695
▁desteya	-3696
▁belavkirin	-3697
4)	-3698
▁kî	-3699
▁dehan	-3700
▁navçeyê	-3701
▁Gundistana	-3702
▁hevwelatîyan	-3703
ان	-3704
stît	-3705
/09	-3706
ett	-3707
▁Êr	-3708
▁Rih	-3709
▁hûn	-3710
▁ten	-3711
rad	-3712
▁tîne	-3713
edîn	-3714
▁Kam	-3715
▁Xeb	-3716
▁naxwaz	-3717
▁rêvebirê	-3718
/22	-3719
ceae	-3720
▁nim	-3721
▁wêj	-3722
manan	-3723
▁KERKÛKÊ	-3724
▁mirovên	-3725
2'	-3726
45	-3727
hî	-3728
esê	-3729
ver	-3730
▁pas	-3731
/15	-3732
dad	-3733
▁diz	-3734
▁têkoş	-3735
AM	-3736
netewî	-3737
▁Zayîn	-3738
▁kandîd	-3739
xe	-3740
ERÊN	-3741
▁Alî	-3742
▁doz	-3743
▁mec	-3744
▁Çîn	-3745
îteya	-3746
▁nahê	-3747
▁êvarê	-3748
▁Robert	-3749
▁hilweş	-3750
/05	-3751
/08	-3752
/17	-3753
/20	-3754
▁Ok	-3755
▁îl	-3756
▁Lond	-3757
▁nasîn	-3758
▁xebit	-3759
▁Nivîskar	-3760
otam	-3761
▁HÊZ	-3762
▁Sîn	-3763
▁zor	-3764
▁malê	-3765
IM	-3766
/13	-3767
/18	-3768
ive	-3769
▁Ali	-3770
▁mes	-3771
▁rez	-3772
▁soz	-3773
▁hing	-3774
▁salve	-3775
▁konferan	-3776
▁têkildar	-3777
ewer	-3778
▁bij	-3779
▁Şaristana	-3780
ND	-3781
les	-3782
▁[9	-3783
▁Ebû	-3784
▁Mah	-3785
▁Berî	-3786
▁firok	-3787
▁Dîyala	-3788
▁bersiva	-3789
/23	-3790
sal	-3791
kurd	-3792
▁erm	-3793
ixabin	-3794
▁Navend	-3795
UL	-3796
▁189	-3797
▁komarê	-3798
▁Almanya	-3799
▁y	-3800
/06	-3801
▁cot	-3802
▁niv	-3803
erast	-3804
▁Xalid	-3805
▁êrîşî	-3806
▁serbaz	-3807
27	-3808
▁xo	-3809
▁Sûrîya	-3810
.08	-3811
avan	-3812
anînê	-3813
▁Sîst	-3814
▁serma	-3815
▁fransî	-3816
▁gengeşe	-3817
▁malan	-3818
▁dengên	-3819
▁şandin	-3820
▁Dêrsimê	-3821
▁dibistana	-3822
/03	-3823
▁mat	-3824
perest	-3825
Di	-3826
enn	-3827
▁ay	-3828
▁Elh	-3829
îkayê	-3830
▁Faun	-3831
▁Newro	-3832
▁fireh	-3833
axên	-3834
ijad	-3835
▁birê	-3836
▁nêvbera	-3837
/25	-3838
▁girê	-3839
ium	-3840
ula	-3841
▁Pêj	-3842
▁San	-3843
▁Berwarî	-3844
ice	-3845
▁Felah	-3846
▁rêjeya	-3847
îzm	-3848
▁meş	-3849
▁GIRTIN	-3850
▁elektr	-3851
▁Faunaya	-3852
▁alîkariya	-3853
▁Germ	-3854
▁bare	-3855
▁binavkirin	-3856
▁guneh	-3857
▁sax	-3858
▁biyanî	-3859
▁kuştina	-3860
▁topbaran	-3861
▁cell	-3862
▁bûyera	-3863
▁digirin	-3864
ish	-3865
ole	-3866
▁rizgar	-3867
▁Endamên	-3868
5'	-3869
zm	-3870
▁Mad	-3871
▁Ferm	-3872
▁Hêjayî	-3873
▁ragihandinê	-3874
▁o	-3875
/28	-3876
sîn	-3877
îtan	-3878
▁Abdullah	-3879
Bad	-3880
ith	-3881
▁Nis	-3882
▁Pêjgeha	-3883
▁amadebûna	-3884
/27	-3885
▁fr	-3886
▁avah	-3887
▁Giştî	-3888
ement	-3889
▁bila	-3890
▁rag	-3891
."	-3892
bî	-3893
▁Gur	-3894
▁ewlekar	-3895
taş	-3896
▁peq	-3897
▁2013	-3898
▁dimîne	-3899
▁Selaheddîn	-3900
/29	-3901
KEV	-3902
▁Rêz	-3903
▁mar	-3904
▁bîne	-3905
▁dilê	-3906
▁birin	-3907
▁Kerkûkî	-3908
HP	-3909
emî	-3910
eks	-3911
ier	-3912
ult	-3913
▁lez	-3914
▁jimar	-3915
sen	-3916
▁Kev	-3917
▁bicih	-3918
▁pêşan	-3919
▁KOMBÛN	-3920
▁Reuters	-3921
.5	-3922
▁TE	-3923
▁Sef	-3924
anbar	-3925
▁mijarên	-3926
fal	-3927
▁Ben	-3928
▁Tur	-3929
▁Deng	-3930
▁Bedir	-3931
FF	-3932
▁kew	-3933
▁lêger	-3934
▁Suriya	-3935
isê	-3936
êdan	-3937
▁kil	-3938
stanê	-3939
▁heval	-3940
lik	-3941
▁Ho	-3942
▁Kol	-3943
▁Pêd	-3944
▁mod	-3945
ullah	-3946
opotam	-3947
▁sêyem	-3948
▁Nobelê	-3949
▁serxwe	-3950
▁tendir	-3951
▁siyasetmed	-3952
pa	-3953
bur	-3954
▁bid	-3955
▁ŞAND	-3956
▁teqîn	-3957
▁pirtûkên	-3958
▁rojnamevan	-3959
▁Mos	-3960
▁wex	-3961
:#	-3962
lên	-3963
irên	-3964
▁xal	-3965
▁zanyar	-3966
▁Agiriyê	-3967
▁pirsgirêka	-3968
16	-3969
7'	-3970
ies	-3971
▁Bra	-3972
▁olî	-3973
▁ROJ	-3974
▁Tem	-3975
▁karî	-3976
▁Swêdê	-3977
▁paytextê	-3978
îşa	-3979
umê	-3980
▁60	-3981
▁Divê	-3982
.01	-3983
▁ewî	-3984
▁bixwe	-3985
▁mazin	-3986
▁Kuştin	-3987
▁rêvebirîya	-3988
36	-3989
▁Niştimanî	-3990
▁rûniştina	-3991
ûne	-3992
▁Beh	-3993
▁Mak	-3994
▁berf	-3995
▁berdest	-3996
res	-3997
ÎST	-3998
iana	-3999
▁Xaneqînê	-4000
ön	-4001
olî	-4002
utb	-4003
tiyê	-4004
▁cud	-4005
▁Bala	-4006
▁Bajar	-4007
▁goyên	-4008
ann	-4009
mas	-4010
▁Te	-4011
▁rij	-4012
▁dêrend	-4013
▁Artêşa	-4014
▁Sûriya	-4015
▁serdema	-4016
▁#	-4017
▁YÊ	-4018
ELAT	-4019
bîne	-4020
▁vedî	-4021
▁asayişê	-4022
eve	-4023
urr	-4024
▁Wash	-4025
▁anku	-4026
▁berm	-4027
▁şûna	-4028
▁didom	-4029
ternetê	-4030
▁fraksiyona	-4031
edî	-4032
xane	-4033
▁Tew	-4034
▁DIKE	-4035
PG	-4036
TÊ	-4037
qet	-4038
lîsê	-4039
▁pel	-4040
▁1994	-4041
▁aram	-4042
îre	-4043
▁xwînê	-4044
▁gundistana	-4045
perê	-4046
▁Wan	-4047
▁sedan	-4048
▁Seqizê	-4049
▁tiştên	-4050
IJAR	-4051
▁BAJ	-4052
▁Farq	-4053
▁akin	-4054
▁adarê	-4055
▁atomî	-4056
▁bikevin	-4057
▁et	-4058
êrîn	-4059
▁kab	-4060
▁şerrê	-4061
▁Rihayê	-4062
▁zanîngeha	-4063
ner	-4064
▁ex	-4065
îlên	-4066
▁xêz	-4067
▁naver	-4068
▁werbi	-4069
▁Bexdayê	-4070
/21	-4071
one	-4072
iran	-4073
▁haw	-4074
▁hindek	-4075
VÊ	-4076
cle	-4077
▁xwendin	-4078
bor	-4079
▁dixw	-4080
▁perg	-4081
Badînan	-4082
▁Cor	-4083
▁Gal	-4084
▁sip	-4085
▁êş	-4086
▁temam	-4087
▁dengan	-4088
▁Mirovan	-4089
▁wergirtina	-4090
71	-4091
hol	-4092
▁destûr	-4093
▁mirina	-4094
fabeya	-4095
▁derdora	-4096
▁dîdara	-4097
okr	-4098
▁Teb	-4099
asîya	-4100
ensis	-4101
îstan	-4102
▁nûner	-4103
▁lîstik	-4104
▁xistin	-4105
▁Washington	-4106
do	-4107
▁Wal	-4108
▁mêv	-4109
▁çir	-4110
▁diyal	-4111
▁Dêrika	-4112
lı	-4113
.02	-4114
text	-4115
îzan	-4116
▁von	-4117
▁kombûnekê	-4118
▁demokratîk	-4119
▁Pro	-4120
▁nivîsîn	-4121
▁And	-4122
▁geh	-4123
▁Efrînê	-4124
▁Rêvebirê	-4125
▁arêşeyên	-4126
▁kombûnên	-4127
lêt	-4128
▁Hoş	-4129
emêrgê	-4130
▁Gundê	-4131
▁DU	-4132
▁Ph	-4133
▁to	-4134
▁pit	-4135
BIJAR	-4136
▁eslê	-4137
▁Demîr	-4138
▁rojhilat	-4139
▁ب	-4140
/30	-4141
▁Lew	-4142
▁hêdî	-4143
▁xwîn	-4144
▁pirsê	-4145
▁jiyanê	-4146
▁ewledarîya	-4147
9)	-4148
ime	-4149
▁Dîn	-4150
▁Mele	-4151
▁grûp	-4152
▁qada	-4153
▁pêşve	-4154
▁Demokrat	-4155
bûrd	-4156
zanin	-4157
▁têde	-4158
▁Feder	-4159
▁lêkolînên	-4160
▁pirranîya	-4161
0)	-4162
▁peya	-4163
▁girtiye	-4164
▁mezinên	-4165
▁pirranî	-4166
▁pejirandin	-4167
zz	-4168
.09	-4169
kom	-4170
ênê	-4171
▁Jin	-4172
▁KAR	-4173
îleka	-4174
▁bûna	-4175
▁nema	-4176
▁artêş	-4177
▁hilwestê	-4178
▁vekirina	-4179
▁sir	-4180
▁hersê	-4181
dûn	-4182
▁Ur	-4183
▁Gelê	-4184
▁Afganî	-4185
▁dawiyê	-4186
▁rojane	-4187
▁Osmaniyan	-4188
83	-4189
▁Mey	-4190
▁mîr	-4191
▁Doll	-4192
▁neke	-4193
▁refer	-4194
▁polîsê	-4195
▁Erzîromê	-4196
.07	-4197
ivers	-4198
ivîse	-4199
▁York	-4200
▁qet	-4201
▁Kuwey	-4202
▁herêmî	-4203
▁Baybûrd	-4204
▁bibînin	-4205
.11	-4206
▁awayê	-4207
peratoriya	-4208
▁vex	-4209
▁2014	-4210
▁dadgehê	-4211
▁damezir	-4212
▁projeyê	-4213
▁pêwîste	-4214
▁jêderekî	-4215
▁MU	-4216
line	-4217
porta	-4218
▁Pişka	-4219
▁HILBIJAR	-4220
▁Asyayê	-4221
▁Mafên	-4222
▁serjimariya	-4223
stan	-4224
wanê	-4225
▁şaş	-4226
▁Kend	-4227
▁Ahmet	-4228
▁Cîhanê	-4229
▁Zagros	-4230
▁Siyaset	-4231
▁navendî	-4232
▁serdanê	-4233
▁Mas	-4234
▁teb	-4235
▁bêne	-4236
hejm	-4237
navê	-4238
▁Ley	-4239
▁ezm	-4240
▁Îng	-4241
▁HÊZÊN	-4242
▁Jiyan	-4243
▁cîran	-4244
▁Peyamnêr	-4245
▁dengdanê	-4246
.10	-4247
top	-4248
▁êz	-4249
BERA	-4250
burg	-4251
ceyê	-4252
▁*09	-4253
▁Leşk	-4254
▁Press	-4255
▁mayin	-4256
▁derxistin	-4257
▁xurtkirina	-4258
15	-4259
ül	-4260
▁Sos	-4261
▁kor	-4262
width	-4263
▁dabû	-4264
▁şoreşa	-4265
▁Rêxistina	-4266
▁bikaranîna	-4267
▁komisiyona	-4268
afî	-4269
▁35	-4270
▁Tek	-4271
▁hatî	-4272
▁veşar	-4273
▁serans	-4274
▁kontrol	-4275
îg	-4276
▁AKP	-4277
▁Bul	-4278
▁mizg	-4279
BA	-4280
El	-4281
="2	-4282
img	-4283
wezîr	-4284
▁2006'	-4285
ebû	-4286
▁Ant	-4287
▁Mehab	-4288
▁pişkin	-4289
▁Con	-4290
ezayê	-4291
▁ciwan	-4292
▁çendîn	-4293
▁bingehên	-4294
oç	-4295
▁br	-4296
oglu	-4297
▁Kil	-4298
▁bit	-4299
▁del	-4300
▁mel	-4301
▁heyî	-4302
▁cihanîna	-4303
▁Pa	-4304
▁tû	-4305
▁kat	-4306
îknas	-4307
emperî	-4308
▁Serdeştê	-4309
BC	-4310
iyet	-4311
▁1993	-4312
▁deme	-4313
▁Qadir	-4314
▁rêberê	-4315
▁hilbijartina	-4316
▁Oz	-4317
▁az	-4318
▁Cal	-4319
▁Mem	-4320
▁poz	-4321
▁Pêdivê	-4322
▁bigire	-4323
▁biryarê	-4324
▁berjewendîya	-4325
▁06	-4326
oriya	-4327
▁welêt	-4328
atoliya	-4329
▁Bajarê	-4330
ept	-4331
▁EM	-4332
▁Şîr	-4333
▁Berpirsê	-4334
▁referand	-4335
▁Qos	-4336
▁jîn	-4337
ehmet	-4338
etîya	-4339
▁Çîrok	-4340
▁birayê	-4341
▁nîşand	-4342
.05	-4343
unê	-4344
▁Ex	-4345
▁gen	-4346
▁parz	-4347
geheke	-4348
▁projeyên	-4349
▁1992	-4350
▁bergirîya	-4351
evê	-4352
îzmê	-4353
▁dom	-4354
▁Malb	-4355
▁Tehr	-4356
▁Xelat	-4357
▁rêbaz	-4358
▁asteng	-4359
▁pêşkêşkirin	-4360
▁Na	-4361
raqê	-4362
▁Ast	-4363
8'	-4364
ove	-4365
rin	-4366
▁bî	-4367
azên	-4368
otin	-4369
▁Sen	-4370
▁muzîkê	-4371
▁radigih	-4372
▁daxuyanîyekê	-4373
6'	-4374
EF	-4375
/201	-4376
▁merc	-4377
▁hêriş	-4378
▁çiyayê	-4379
▁xwarinê	-4380
▁navçeyên	-4381
▁çalakîyên	-4382
▁*05	-4383
▁Muz	-4384
ational	-4385
▁derxist	-4386
▁KOMBÛNEK	-4387
▁Parlament	-4388
▁pêy	-4389
▁mirî	-4390
îstanê	-4391
▁bakûrê	-4392
▁piraniya	-4393
▁karbidestên	-4394
.12	-4395
ize	-4396
ram	-4397
▁hok	-4398
▁Welat	-4399
7,	-4400
yara	-4401
andine	-4402
▁partî	-4403
▁Ha	-4404
▁serwer	-4405
▁demjimar	-4406
▁Anatoliya	-4407
▁kongireyeka	-4408
reş	-4409
▁Gor	-4410
▁boy	-4411
▁pêx	-4412
▁pesnê	-4413
▁Pêdivêyî	-4414
▁îst	-4415
▁anko	-4416
▁bibîne	-4417
▁hevalên	-4418
ûsê	-4419
▁05	-4420
▁PIR	-4421
▁beşên	-4422
▁goyan	-4423
81	-4424
ihê	-4425
ila	-4426
ênî	-4427
▁09	-4428
▁*04	-4429
▁zir	-4430
▁tirs	-4431
▁berev	-4432
▁têgih	-4433
▁Rûsyayê	-4434
):	-4435
qî	-4436
▁ziv	-4437
iyanê	-4438
▁rexn	-4439
▁yewn	-4440
▁Qasim	-4441
▁xizmeta	-4442
bij	-4443
▁Rem	-4444
▁yaneya	-4445
▁nerînên	-4446
ifş	-4447
▁Mam	-4448
andinan	-4449
olojiya	-4450
▁diyalog	-4451
aa	-4452
EŞK	-4453
int	-4454
greya	-4455
▁bihêz	-4456
ho	-4457
ebê	-4458
▁Cî	-4459
▁Bur	-4460
▁Den	-4461
▁Xez	-4462
▁new	-4463
▁Gimg	-4464
▁LEŞK	-4465
▁psîk	-4466
▁hîngê	-4467
▁Balyozê	-4468
▁partiya	-4469
65	-4470
kt	-4471
tûk	-4472
▁çim	-4473
▁êrîşê	-4474
▁Bajarên	-4475
▁Îsraîlê	-4476
▁bajarokê	-4477
▁MÛ	-4478
▁kîl	-4479
▁hişt	-4480
▁tîma	-4481
▁Kerîm	-4482
▁televiz	-4483
▁rêkevtinê	-4484
▁desthilata	-4485
ea	-4486
ÎS	-4487
ürk	-4488
▁Sup	-4489
▁pêj	-4490
▁Span	-4491
▁heşt	-4492
▁çêbû	-4493
▁bînin	-4494
▁Bilind	-4495
▁Mehmet	-4496
▁Dîl	-4497
▁Rez	-4498
▁bex	-4499
▁teqiya	-4500
▁helwest	-4501
▁nef	-4502
▁basa	-4503
▁Biden	-4504
▁Nisêb	-4505
▁îslam	-4506
▁nikarin	-4507
▁hemwelat	-4508
▁xwepêşanderan	-4509
roc	-4510
▁Bism	-4511
▁Roman	-4512
xistinê	-4513
▁kovara	-4514
▁mijara	-4515
▁duyemîn	-4516
iss	-4517
▁Receb	-4518
▁hejmarek	-4519
▁†	-4520
▁Do	-4521
êrin	-4522
▁asî	-4523
▁kûr	-4524
▁ÇAR	-4525
▁Paytex	-4526
▁hevdîtin	-4527
▁serkevtin	-4528
hatî	-4529
▁Ac	-4530
▁Ek	-4531
▁şê	-4532
▁Com	-4533
▁Mor	-4534
▁tey	-4535
▁bira	-4536
▁kesê	-4537
▁xelata	-4538
▁stranbêj	-4539
▁Demokratîk	-4540
▁destnîşankirin	-4541
Li	-4542
eba	-4543
ayîya	-4544
iyanî	-4545
▁Biryar	-4546
▁Pêncşemê	-4547
▁Rojhilat	-4548
ÛR	-4549
ûyê	-4550
▁çêkirina	-4551
▁01	-4552
amen	-4553
▁Mir	-4554
▁plan	-4555
▁Rojnameya	-4556
Ji	-4557
▁Ap	-4558
▁RA	-4559
▁lidar	-4560
▁Zaxoyê	-4561
heq	-4562
osa	-4563
▁Da	-4564
estî	-4565
▁Têk	-4566
▁Samî	-4567
azan	-4568
▁teng	-4569
▁Mezopotam	-4570
73	-4571
▁80	-4572
▁cûr	-4573
▁berhev	-4574
▁paraztina	-4575
maz	-4576
ral	-4577
uch	-4578
▁Oc	-4579
ivin	-4580
▁Gorî	-4581
▁Goran	-4582
▁BAJÊRÊ	-4583
▁aştîyê	-4584
ÎNE	-4585
istî	-4586
▁zil	-4587
uhast	-4588
▁mane	-4589
▁kevin	-4590
▁navokî	-4591
▁gelemperî	-4592
▁çarçêweyê	-4593
▁parêzgehan	-4594
▁Bûş	-4595
▁Mid	-4596
▁mehan	-4597
▁aliyên	-4598
▁Mijarên	-4599
:20	-4600
▁70	-4601
esên	-4602
▁Res	-4603
▁2002	-4604
▁Zaxo	-4605
▁komkuj	-4606
▁wergirtin	-4607
Gir	-4608
ûbêj	-4609
▁fik	-4610
▁evaya	-4611
▁xwenîşand	-4612
ella	-4613
▁Şan	-4614
iştec	-4615
▁hikûmet	-4616
▁nivîsgeha	-4617
▁rewşenbîr	-4618
▁mezintirîn	-4619
olk	-4620
▁Co	-4621
▁ال	-4622
="2"	-4623
adin	-4624
cana	-4625
îkên	-4626
▁bed	-4627
▁1990	-4628
▁Kerb	-4629
▁goman	-4630
▁arîşeyên	-4631
IS	-4632
usa	-4633
▁mê	-4634
▁Haw	-4635
▁Ango	-4636
▁Tirkî	-4637
▁qedexe	-4638
fes	-4639
▁Bah	-4640
▁Met	-4641
▁Rêb	-4642
▁tundî	-4643
▁Lîsteya	-4644
ewe	-4645
lek	-4646
▁or	-4647
koya	-4648
▁1980	-4649
▁NAVBERA	-4650
▁parêzgarê	-4651
▁serokatiya	-4652
▁Daw	-4653
▁org	-4654
▁Kanî	-4655
okrata	-4656
▁Stemb	-4657
▁nûjen	-4658
▁rengê	-4659
▁xwarê	-4660
▁Hoşyar	-4661
▁tevgera	-4662
▁Komeleya	-4663
▁parêzgehê	-4664
-0	-4665
ahiyê	-4666
▁stir	-4667
iştina	-4668
▁Husên	-4669
▁weşan	-4670
▁hevpişk	-4671
▁Rojhilatê	-4672
îzê	-4673
ekîm	-4674
▁sel	-4675
▁Çin	-4676
beran	-4677
mehdî	-4678
▁çanda	-4679
▁Ereban	-4680
ETA	-4681
eşop	-4682
▁----	-4683
▁çemê	-4684
▁nakok	-4685
▁destwer	-4686
▁Pê	-4687
rayî	-4688
ÎYAN	-4689
▁Rap	-4690
▁ciw	-4691
▁jor	-4692
▁David	-4693
▁Sêrtê	-4694
▁Ziman	-4695
▁dever	-4696
▁nekin	-4697
ym	-4698
.04	-4699
▁Qez	-4700
▁dijm	-4701
▁eşîr	-4702
▁Sûriyeyê	-4703
lad	-4704
▁Ewr	-4705
▁Got	-4706
▁ola	-4707
▁sin	-4708
▁serkevtî	-4709
ÛD	-4710
Her	-4711
mal	-4712
▁04	-4713
êrên	-4714
▁Abd	-4715
▁naw	-4716
▁maye	-4717
▁qonaxa	-4718
▁Navendiya	-4719
ru	-4720
▁partîyên	-4721
▁War	-4722
▁cil	-4723
▁dok	-4724
▁tîm	-4725
besta	-4726
▁danî	-4727
▁vedi	-4728
▁Awist	-4729
▁Rewand	-4730
▁temamî	-4731
▁şandeyê	-4732
▁şewitandin	-4733
ehl	-4734
rasî	-4735
▁Îsa	-4736
▁serdan	-4737
▁guhertin	-4738
22	-4739
lav	-4740
▁07	-4741
Kurd	-4742
danî	-4743
▁sar	-4744
▁WEZÎ	-4745
ematîk	-4746
▁mijar	-4747
▁dihatin	-4748
▁hêvîdar	-4749
▁çarçoveya	-4750
▁fermandarê	-4751
pt	-4752
▁bêje	-4753
▁romî	-4754
▁axaftin	-4755
▁amadekirin	-4756
şî	-4757
rich	-4758
▁TEQ	-4759
îyane	-4760
asyona	-4761
▁bûyer	-4762
▁diçin	-4763
▁Nas	-4764
▁Dara	-4765
▁Parlem	-4766
▁bizava	-4767
▁dîplom	-4768
▁gulanê	-4769
▁kirdar	-4770
▁Sekreterê	-4771
asan	-4772
oras	-4773
▁Sam	-4774
▁werin	-4775
▁nûneran	-4776
▁Ebdulmehdî	-4777
▁bor	-4778
▁winda	-4779
▁Şeref	-4780
▁Yekşemê	-4781
▁pêşketina	-4782
14	-4783
▁leh	-4784
▁sûr	-4785
▁cûda	-4786
▁gihijt	-4787
▁Libnanê	-4788
▁pêkanîn	-4789
95	-4790
▁Mac	-4791
▁HEVP	-4792
▁Seîd	-4793
▁beşê	-4794
▁jina	-4795
▁Besra	-4796
▁xelat	-4797
ges	-4798
▁bêd	-4799
▁ajan	-4800
▁biçe	-4801
▁dûrî	-4802
▁beşek	-4803
▁nexwe	-4804
min	-4805
mîn	-4806
▁Nexweş	-4807
▁Hindistanê	-4808
▁Us	-4809
▁ey	-4810
elal	-4811
esta	-4812
▁Kons	-4813
▁parç	-4814
▁naveroka	-4815
idî	-4816
lis	-4817
▁ît	-4818
▁Ver	-4819
iyana	-4820
▁doza	-4821
▁binpê	-4822
istanên	-4823
▁berdin	-4824
▁pêkhatên	-4825
Ku	-4826
bare	-4827
▁Naz	-4828
▁Qam	-4829
▁Xer	-4830
▁veg	-4831
▁Çek	-4832
▁Krîst	-4833
▁dihate	-4834
▁Tehranê	-4835
.06	-4836
SIL	-4837
hal	-4838
EYÊN	-4839
iqas	-4840
▁Yew	-4841
▁xur	-4842
▁1995	-4843
▁1996	-4844
gerên	-4845
▁kursî	-4846
▁bimîne	-4847
▁xwekuj	-4848
▁08	-4849
▁DAN	-4850
▁Kul	-4851
▁Deşt	-4852
▁diax	-4853
▁hewil	-4854
▁nenas	-4855
▁rûpel	-4856
▁hevkarîya	-4857
YÎ	-4858
uq	-4859
kov	-4860
yard	-4861
▁Axa	-4862
▁Hed	-4863
▁Til	-4864
▁Peyv	-4865
▁jinên	-4866
▁Emerîk	-4867
▁postên	-4868
▁Clinton	-4869
no	-4870
▁Kara	-4871
▁xwezt	-4872
▁kontrola	-4873
şê	-4874
▁1,	-4875
olên	-4876
▁Hewr	-4877
▁Serê	-4878
▁giştîya	-4879
▁demokrat	-4880
▁înternetê	-4881
▁hevpeyvîna	-4882
▁hevpeyvînekê	-4883
gl	-4884
ift	-4885
otê	-4886
ates	-4887
▁BARZ	-4888
▁ENCÛ	-4889
▁bawerî	-4890
▁nehatine	-4891
▁welatekî	-4892
AYÎ	-4893
====	-4894
▁Mic	-4895
▁Mit	-4896
▁Dîsa	-4897
▁kişand	-4898
▁operas	-4899
baş	-4900
▁2.	-4901
barê	-4902
▁Dib	-4903
▁Gev	-4904
▁sur	-4905
ayîyê	-4906
iyane	-4907
▁şeva	-4908
▁Îraqî	-4909
▁Kovara	-4910
▁Şaredar	-4911
ath	-4912
itz	-4913
▁nîs	-4914
▁sil	-4915
kariya	-4916
▁Misir	-4917
PA	-4918
TIR	-4919
rîn	-4920
▁fêr	-4921
▁1979	-4922
▁Dibe	-4923
▁Şand	-4924
▁Hatin	-4925
▁dadwer	-4926
etiya	-4927
▁Ahmed	-4928
▁Wezîra	-4929
▁kesaye	-4930
▁dewletan	-4931
kû	-4932
pêç	-4933
îşê	-4934
indî	-4935
▁Day	-4936
▁cer	-4937
▁civakê	-4938
▁muzîka	-4939
▁pispor	-4940
▁Bedirxan	-4941
xin	-4942
▁Kob	-4943
▁BAXDADÊ	-4944
▁va	-4945
▁Aug	-4946
▁Şeq	-4947
▁biwarên	-4948
▁Siyasetmed	-4949
90	-4950
lov	-4951
olek	-4952
▁Tan	-4953
▁ban	-4954
▁Berd	-4955
okrasî	-4956
▁helbestvan	-4957
ney	-4958
awêj	-4959
▁TER	-4960
▁dilov	-4961
▁Bibîne	-4962
▁erdhej	-4963
eld	-4964
tîv	-4965
ûrên	-4966
▁Ednan	-4967
▁pêdivî	-4968
▁dîdarekê	-4969
lum	-4970
▁MÛSIL	-4971
▁Înîyê	-4972
▁ferheng	-4973
fe	-4974
let	-4975
yarê	-4976
▁tîr	-4977
▁Muhsin	-4978
▁Dewletên	-4979
ld	-4980
apa	-4981
ekêş	-4982
▁Cew	-4983
edanê	-4984
▁bizav	-4985
▁kesek	-4986
▁perwerde	-4987
▁kompanyaya	-4988
▁rûniştvanan	-4989
IY	-4990
qan	-4991
▁Evê	-4992
▁Koç	-4993
▁ala	-4994
▁dîn	-4995
▁pay	-4996
stanb	-4997
▁roman	-4998
▁BARZANÎ	-4999
▁Ferheng	-5000
▁dengbêj	-5001
▁yewnanî	-5002
▁perwerdeya	-5003
qed	-5004
rik	-5005
,000	-5006
▁Cur	-5007
▁Doh	-5008
▁Pet	-5009
▁keş	-5010
▁mit	-5011
▁pan	-5012
▁1997	-5013
▁Paşa	-5014
▁guftû	-5015
▁piros	-5016
▁karekî	-5017
▁navnetewî	-5018
▁Diyarbekirê	-5019
izî	-5020
▁GO	-5021
▁do	-5022
▁qeza	-5023
▁egera	-5024
▁karûb	-5025
▁serhildana	-5026
aba	-5027
▁Dû	-5028
▁Ib	-5029
▁Rus	-5030
▁aştî	-5031
▁çavk	-5032
▁tîrmehê	-5033
▁Îtaliya	-5034
▁Lin	-5035
îneke	-5036
karîyê	-5037
ibandin	-5038
▁vekirî	-5039
▁daxwazkirî	-5040
▁On	-5041
▁mey	-5042
▁pêşmerg	-5043
77	-5044
▁PÊK	-5045
▁Qes	-5046
▁Ron	-5047
▁Tir	-5048
iyonê	-5049
▁anîna	-5050
▁bijar	-5051
▁paşîn	-5052
▁Fransî	-5053
▁fermana	-5054
una	-5055
▁YEK	-5056
▁bixw	-5057
▁erkê	-5058
KS	-5059
▁و	-5060
lag	-5061
îte	-5062
▁gav	-5063
▁çer	-5064
▁rêbend	-5065
▁xaneyên	-5066
▁çawanîya	-5067
ON	-5068
yg	-5069
▁on	-5070
▁piç	-5071
atîyê	-5072
▁HEWL	-5073
▁Zana	-5074
evanan	-5075
▁bihêt	-5076
▁pêşxistina	-5077
oyên	-5078
▁Nêz	-5079
▁ret	-5080
ender	-5081
▁Mazî	-5082
▁Şehr	-5083
xaneyên	-5084
▁alfabeya	-5085
Ar	-5086
enz	-5087
▁BE	-5088
ewan	-5089
vanî	-5090
▁spî	-5091
▁tirkan	-5092
▁Îslamê	-5093
ien	-5094
ales	-5095
▁kanûna	-5096
▁Kuweytê	-5097
▁gotûbêj	-5098
▁encûmenên	-5099
▁Dîyarbekirê	-5100
▁We	-5101
usen	-5102
▁kin	-5103
▁2015	-5104
▁sibê	-5105
▁Botan	-5106
▁Şingalê	-5107
▁kabîneya	-5108
br	-5109
AYÊ	-5110
unt	-5111
▁Su	-5112
▁Fiz	-5113
▁buh	-5114
iyekî	-5115
▁Îsma	-5116
▁DYAyê	-5117
▁veqet	-5118
▁derbaz	-5119
▁Helebçe	-5120
▁general	-5121
▁Din	-5122
▁borî	-5123
chen	-5124
▁Nuc	-5125
▁Sêw	-5126
▁laşê	-5127
▁kovar	-5128
▁August	-5129
▁WEZÎRÊ	-5130
▁BÊ	-5131
gerin	-5132
▁ewe	-5133
▁Sêşemê	-5134
▁rêzdar	-5135
▁xwepêşandanên	-5136
Ber	-5137
mah	-5138
ulê	-5139
bûne	-5140
onya	-5141
▁MEH	-5142
▁birêve	-5143
-5	-5144
AŞ	-5145
▁fîlozof	-5146
▁nûçeyeka	-5147
ott	-5148
▁****	-5149
▁bida	-5150
▁Rojavayê	-5151
▁firrokeyên	-5152
▁03	-5153
▁demek	-5154
▁rengî	-5155
▁derman	-5156
▁raport	-5157
▁Welatên	-5158
▁tevahiya	-5159
▁terorîstî	-5160
WÎ	-5161
kes	-5162
wik	-5163
olid	-5164
▁Teh	-5165
▁Bavê	-5166
▁BIKIN	-5167
▁cihekî	-5168
▁serokwezîrê	-5169
ûc	-5170
ranî	-5171
▁cor	-5172
▁bixe	-5173
▁dihêt	-5174
▁Yekgirtî	-5175
AF	-5176
Tirk	-5177
derî	-5178
olan	-5179
ster	-5180
▁500	-5181
▁Kat	-5182
ereyê	-5183
▁Tîrm	-5184
▁şîret	-5185
▁Parîsê	-5186
▁Serhed	-5187
▁avêtin	-5188
▁festîv	-5189
▁balafir	-5190
▁serbest	-5191
evî	-5192
▁EW	-5193
ivan	-5194
▁300	-5195
▁cîr	-5196
▁ken	-5197
yalîst	-5198
▁azadî	-5199
▁stirat	-5200
▁bingehê	-5201
▁dijwarî	-5202
▁pêjgeha	-5203
▁pîkolan	-5204
Bi	-5205
km	-5206
oci	-5207
amil	-5208
▁Pat	-5209
iyekê	-5210
▁biçin	-5211
▁Demokras	-5212
11	-5213
ki	-5214
sy	-5215
qil	-5216
▁Aşt	-5217
▁ener	-5218
▁nînin	-5219
▁birêveb	-5220
▁axaftina	-5221
adt	-5222
ozê	-5223
eber	-5224
▁Hal	-5225
▁hêsan	-5226
▁sîyas	-5227
▁Barack	-5228
▁aborîya	-5229
▁famîleya	-5230
▁Bîr	-5231
▁1988	-5232
▁stêr	-5233
▁berde	-5234
▁Perwer	-5235
▁Sad	-5236
▁Şik	-5237
hêner	-5238
▁çûye	-5239
▁xalên	-5240
▁sînorên	-5241
▁parastinê	-5242
hn	-5243
opa	-5244
MENA	-5245
▁KON	-5246
olojîk	-5247
▁bixwaz	-5248
▁bêhtir	-5249
▁wezîra	-5250
▁Çarşemê	-5251
▁piştgirîya	-5252
33	-5253
82	-5254
▁ÇÊ	-5255
▁Emîn	-5256
▁Frank	-5257
▁asayî	-5258
▁Enstît	-5259
▁projeya	-5260
▁vedîtin	-5261
▁dirêjîya	-5262
▁kevneşop	-5263
46	-5264
keş	-5265
▁Împeratoriya	-5266
xê	-5267
may	-5268
rab	-5269
rak	-5270
▁Cot	-5271
▁Nêr	-5272
▁tun	-5273
▁Çel	-5274
▁bixin	-5275
cl	-5276
▁Sîr	-5277
etiyê	-5278
▁Berê	-5279
▁eşîra	-5280
▁nirxê	-5281
▁hunerî	-5282
▁xebatê	-5283
▁girtine	-5284
▁serhejm	-5285
87	-5286
IV	-5287
lap	-5288
rag	-5289
tar	-5290
îkan	-5291
ûyan	-5292
▁Pan	-5293
▁Yem	-5294
▁pak	-5295
▁bona	-5296
▁gava	-5297
▁şevê	-5298
▁Hinek	-5299
▁HEVPEY	-5300
▁jêderê	-5301
▁destûrî	-5302
▁Pirtûkên	-5303
▁lêkolînan	-5304
▁balyozxaneya	-5305
çê	-5306
ARÊ	-5307
edê	-5308
inde	-5309
lawe	-5310
▁Mat	-5311
▁Meş	-5312
▁Riz	-5313
▁key	-5314
▁Omer	-5315
▁famîl	-5316
▁rêyên	-5317
▁tundû	-5318
▁televîz	-5319
▁karmendên	-5320
ograf	-5321
▁Hacî	-5322
▁Çiya	-5323
▁şirov	-5324
▁nekiriye	-5325
▁perwerdeh	-5326
▁Îd	-5327
înek	-5328
raniya	-5329
▁demar	-5330
▁diplom	-5331
▁şadbûna	-5332
EYÊ	-5333
▁Ka	-5334
▁Ta	-5335
▁îd	-5336
enus	-5337
▁QAN	-5338
▁Tor	-5339
azakî	-5340
daran	-5341
dayên	-5342
ekirî	-5343
▁wêjeya	-5344
▁derveyên	-5345
MÊ	-5346
Ser	-5347
epe	-5348
itî	-5349
efta	-5350
▁Ala	-5351
▁erkên	-5352
▁plana	-5353
▁berxwe	-5354
▁Çavdêr	-5355
▁daxwazkirin	-5356
▁rojnamevanan	-5357
ews	-5358
▁Qu	-5359
▁se	-5360
kevt	-5361
▁Ken	-5362
▁Ref	-5363
stein	-5364
▁alman	-5365
▁Fermand	-5366
kerî	-5367
▁Qay	-5368
▁Rob	-5369
îtiya	-5370
▁niştec	-5371
▁rakirin	-5372
▁helbestên	-5373
işê	-5374
eynî	-5375
▁Mek	-5376
▁Aştî	-5377
▁nexş	-5378
▁zarav	-5379
▁pirtir	-5380
▁Komîteya	-5381
rû	-5382
ANA	-5383
log	-5384
irîn	-5385
▁Hen	-5386
▁Stran	-5387
▁rêberên	-5388
▁desthilatdarîya	-5389
onan	-5390
▁SAL	-5391
▁bax	-5392
▁kem	-5393
▁pûş	-5394
▁Lêkol	-5395
▁Ehmedê	-5396
▁Hêjayê	-5397
▁amerîkî	-5398
▁têkiliyên	-5399
qas	-5400
tax	-5401
▁Hê	-5402
omet	-5403
îkaya	-5404
▁xort	-5405
▁Qamiş	-5406
▁Herêmê	-5407
▁balkêş	-5408
▁stranên	-5409
▁Şeqlawe	-5410
▁Karbidest	-5411
▁PARLIYAMENTA	-5412
bih	-5413
▁Lî	-5414
eyfî	-5415
iman	-5416
rist	-5417
▁şîn	-5418
▁Sebah	-5419
▁Cîhanî	-5420
▁lêpirs	-5421
▁milliyon	-5422
="1	-5423
bax	-5424
▁His	-5425
▁TAL	-5426
▁kurs	-5427
▁zord	-5428
▁binem	-5429
▁niştî	-5430
▁Taybet	-5431
▁peyman	-5432
▁pêşîya	-5433
▁teqînê	-5434
▁xwestin	-5435
4'	-5436
ör	-5437
itin	-5438
▁mak	-5439
.2013	-5440
▁Anat	-5441
▁Nobel	-5442
▁aliyan	-5443
▁teybet	-5444
▁HEWLÊRÊ	-5445
▁978	-5446
▁LÎST	-5447
▁komên	-5448
▁weşana	-5449
▁Zimanên	-5450
▁dikevin	-5451
▁biryarên	-5452
▁kombûnan	-5453
▁Demokrata	-5454
▁serbixweya	-5455
▁demokrasîyê	-5456
dd	-5457
ars	-5458
▁DEV	-5459
▁eve	-5460
▁ref	-5461
▁reh	-5462
▁1989	-5463
▁DIXWAZ	-5464
▁dadgeh	-5465
▁saliya	-5466
▁Dadgeha	-5467
▁destpêkirin	-5468
bit	-5469
unc	-5470
▁yî	-5471
embî	-5472
yoya	-5473
▁Mut	-5474
▁xêr	-5475
▁Josef	-5476
▁Leyla	-5477
▁çimku	-5478
▁Armanc	-5479
▁eşîrên	-5480
▁îslamê	-5481
49	-5482
gin	-5483
oşka	-5484
enivîs	-5485
▁Weşan	-5486
▁anîne	-5487
▁nebin	-5488
▁solid	-5489
▁careke	-5490
▁Bismilê	-5491
▁Baybûrdê	-5492
▁çapkirin	-5493
FT	-5494
raf	-5495
▁sa	-5496
lium	-5497
▁îlan	-5498
iaceae	-5499
▁darayî	-5500
▁derheq	-5501
▁dilgir	-5502
▁Muhemed	-5503
▁Univers	-5504
▁hefteya	-5505
▁pîşesaz	-5506
▁derbikev	-5507
▁vekişîna	-5508
▁nîşandanê	-5509
▁pîrozkirin	-5510
61	-5511
GAN	-5512
ory	-5513
▁SU	-5514
onên	-5515
▁Newrozê	-5516
▁kujtina	-5517
▁nu	-5518
▁Elş	-5519
▁Ram	-5520
▁Neyn	-5521
ebaran	-5522
▁Sovye	-5523
▁Celewl	-5524
▁ENCÛMENA	-5525
▁pêşkevtin	-5526
IYO	-5527
îlk	-5528
▁Mo	-5529
▁POL	-5530
ANDIN	-5531
▁Gava	-5532
▁Mûsa	-5533
▁xerab	-5534
▁lîstên	-5535
▁Hiz	-5536
▁navb	-5537
▁Xwepêş	-5538
▁dixebite	-5539
▁bazirganîya	-5540
onom	-5541
▁dixe	-5542
▁komê	-5543
▁Îmar	-5544
▁tînin	-5545
▁berdan	-5546
▁mirinê	-5547
▁berfanb	-5548
▁serxwebûna	-5549
▁+	-5550
▁\	-5551
ROJ	-5552
ick	-5553
ebûn	-5554
liyê	-5555
▁BAL	-5556
▁CIH	-5557
▁Evd	-5558
▁tim	-5559
▁yar	-5560
▁belg	-5561
▁namz	-5562
▁rageh	-5563
▁mixabin	-5564
▁armancên	-5565
GER	-5566
ald	-5567
GEHA	-5568
îsên	-5569
▁BBC	-5570
▁Dîm	-5571
▁Jor	-5572
▁gur	-5573
▁bûbû	-5574
▁Şemz	-5575
▁civata	-5576
▁pêşwazî	-5577
▁piranîya	-5578
▁kongireyê	-5579
-9	-5580
▁م	-5581
wanî	-5582
▁Bid	-5583
▁ewa	-5584
▁xew	-5585
EYEKA	-5586
artin	-5587
▁hişk	-5588
▁rabi	-5589
▁salox	-5590
▁Nûnerê	-5591
▁hilber	-5592
▁Stenbol	-5593
▁Berhemên	-5594
▁bajarekî	-5595
▁baweriya	-5596
pe	-5597
▁Cîgirê	-5598
▁nebûye	-5599
▁serokên	-5600
IZ	-5601
YAR	-5602
ehî	-5603
kot	-5604
oan	-5605
bach	-5606
▁Sul	-5607
▁ris	-5608
▁2016	-5609
▁navî	-5610
▁Çemê	-5611
▁şerî	-5612
MANÎYA	-5613
▁Rewşa	-5614
▁bêjedarê	-5615
69	-5616
▁Sc	-5617
▁Boz	-5618
▁Del	-5619
▁Ewl	-5620
▁Cejn	-5621
▁Mizg	-5622
▁serb	-5623
▁Ocalan	-5624
▁dizanin	-5625
▁hevpeymanî	-5626
hin	-5627
île	-5628
▁os	-5629
▁Die	-5630
▁Kal	-5631
ander	-5632
▁hert	-5633
▁peyam	-5634
▁pitir	-5635
▁bergirîyê	-5636
▁biparêzin	-5637
old	-5638
zin	-5639
▁wa	-5640
ames	-5641
▁150	-5642
▁Hew	-5643
êdana	-5644
▁2017	-5645
▁Hemû	-5646
▁kehr	-5647
▁klas	-5648
▁[17:3	-5649
▁rêkef	-5650
3,	-5651
▁02	-5652
tirk	-5653
▁Zêw	-5654
▁(195	-5655
erasta	-5656
▁pêdiv	-5657
▁Brîtanya	-5658
▁veguhast	-5659
▁pêzanînên	-5660
▁pêşinyarên	-5661
▁”	-5662
bel	-5663
▁cê	-5664
▁Maz	-5665
▁Ray	-5666
▁YÊN	-5667
▁diya	-5668
▁kete	-5669
▁Cebar	-5670
▁Reşîd	-5671
▁pîkolên	-5672
▁riwekan	-5673
▁spasîya	-5674
▁çalakiyên	-5675
▁hilbijartinê	-5676
DAN	-5677
att	-5678
▁Bû	-5679
▁Vê	-5680
▁Saz	-5681
▁nif	-5682
demîr	-5683
îtiyê	-5684
▁gunc	-5685
▁[17:4	-5686
▁bajarî	-5687
▁çekdaran	-5688
▁Azerbaycanê	-5689
%;	-5690
iah	-5691
olf	-5692
▁texm	-5693
▁Bexda	-5694
▁Colemêrgê	-5695
▁mayinkirî	-5696
3'	-5697
gêr	-5698
usê	-5699
banê	-5700
ward	-5701
▁Nûr	-5702
▁nev	-5703
▁West	-5704
▁atom	-5705
▁bîra	-5706
▁giranî	-5707
▁rêxistinê	-5708
▁Parliyament	-5709
:19	-5710
had	-5711
▁Öz	-5712
nasî	-5713
perwer	-5714
îsyona	-5715
▁Endam	-5716
▁TALEB	-5717
▁mijarê	-5718
▁nekirin	-5719
▁ewlekarîyê	-5720
▁fermangeha	-5721
SÎ	-5722
ık	-5723
ede	-5724
▁45	-5725
▁My	-5726
▁çep	-5727
▁2018	-5728
ografî	-5729
▁Heger	-5730
▁Yawer	-5731
Girêdanên	-5732
eşê	-5733
şan	-5734
▁Qah	-5735
dirêj	-5736
▁rêber	-5737
▁Afrîkayê	-5738
88	-5739
▁Cin	-5740
▁Teq	-5741
▁Cizîrê	-5742
▁serper	-5743
▁TALEBANÎ	-5744
▁binivîse	-5745
-4	-5746
öl	-5747
bic	-5748
eyt	-5749
▁ek	-5750
edia	-5751
herê	-5752
▁Dek	-5753
umeta	-5754
▁tarî	-5755
▁Xelîf	-5756
▁malên	-5757
▁farisî	-5758
▁lêgerînê	-5759
▁pesendkirin	-5760
ZÊ	-5761
osê	-5762
amet	-5763
ende	-5764
▁bah	-5765
▁xet	-5766
▁gerd	-5767
▁dikev	-5768
▁seret	-5769
▁zayînê	-5770
▁çekdarî	-5771
▁Erdnîgarî	-5772
ensî	-5773
ical	-5774
oger	-5775
vana	-5776
▁Swe	-5777
▁efs	-5778
▁Gent	-5779
▁dana	-5780
▁werz	-5781
▁[18:5	-5782
▁herdû	-5783
▁pêşiya	-5784
▁navxweyîya	-5785
▁Feq	-5786
▁Kos	-5787
▁Qed	-5788
▁est	-5789
arîyê	-5790
iyayî	-5791
îlaye	-5792
▁Tenê	-5793
▁Duşemê	-5794
▁90	-5795
enga	-5796
şarê	-5797
▁Yil	-5798
▁dek	-5799
▁Berl	-5800
▁Cemal	-5801
▁ermenî	-5802
▁Farqînê	-5803
▁kirdara	-5804
▁naverasta	-5805
ÎNA	-5806
elên	-5807
lapse	-5808
▁Licê	-5809
hausen	-5810
▁Herdu	-5811
▁rewşê	-5812
▁gihişt	-5813
▁netewî	-5814
▁nîvroj	-5815
▁terorê	-5816
▁Demîrtaş	-5817
▁Serhildana	-5818
ûdî	-5819
▁Ass	-5820
▁Ava	-5821
▁Fre	-5822
▁Lîbya	-5823
▁Komarî	-5824
▁guhdar	-5825
▁birayên	-5826
1,	-5827
hema	-5828
uran	-5829
▁Samer	-5830
▁[16:5	-5831
▁[18:0	-5832
▁çêkir	-5833
▁KURDISTANÎ	-5834
▁daxuyannameyê	-5835
-6	-5836
Izz	-5837
bûr	-5838
ops	-5839
liam	-5840
vest	-5841
▁Kaz	-5842
▁xûya	-5843
▁piçûk	-5844
▁guftûgo	-5845
▁malbatê	-5846
▁desthilatê	-5847
▁perwerdeyê	-5848
ezan	-5849
▁yas	-5850
▁wêne	-5851
▁çavan	-5852
▁Malbata	-5853
▁dosyaya	-5854
▁Hum	-5855
▁Sib	-5856
▁tan	-5857
Izzat	-5858
▁[18:2	-5859
▁[18:3	-5860
▁vekol	-5861
▁almanî	-5862
▁kiribûn	-5863
▁xwendek	-5864
▁şêweyekî	-5865
▁Niştîmanî	-5866
▁Parêzgeha	-5867
ean	-5868
lîs	-5869
ûşî	-5870
adan	-5871
xana	-5872
▁kam	-5873
▁liser	-5874
▁stand	-5875
▁tîpên	-5876
▁SEROKAT	-5877
▁jîyanên	-5878
▁Hunermend	-5879
▁pirsgirêkên	-5880
▁ragihandibû	-5881
37	-5882
ken	-5883
lim	-5884
oyî	-5885
▁qu	-5886
▁deq	-5887
▁dol	-5888
atiyê	-5889
▁Sems	-5890
▁fîlm	-5891
▁Îtîl	-5892
▁BALYO	-5893
▁Xoras	-5894
▁Xwend	-5895
▁meriv	-5896
▁wekhev	-5897
▁reporta	-5898
▁bîranîna	-5899
▁Po	-5900
▁Kit	-5901
allah	-5902
▁çiqas	-5903
▁rojhel	-5904
▁nivîsên	-5905
▁Tu	-5906
lora	-5907
▁185	-5908
▁Tim	-5909
gotin	-5910
▁[18:1	-5911
▁sekin	-5912
▁weşanê	-5913
▁Elq	-5914
ayekî	-5915
▁Amer	-5916
▁Eger	-5917
▁nerm	-5918
istanan	-5919
▁çavkan	-5920
axî	-5921
îze	-5922
enosî	-5923
▁gote	-5924
▁hema	-5925
onyayê	-5926
▁ewrop	-5927
▁lewra	-5928
▁Bilinda	-5929
▁Neynewa	-5930
▁Enqereyê	-5931
▁naxwazin	-5932
▁salveger	-5933
tek	-5934
akir	-5935
▁rêj	-5936
▁carê	-5937
▁kewç	-5938
▁dewam	-5939
St	-5940
ua	-5941
▁Kem	-5942
▁gem	-5943
▁1970	-5944
▁teqe	-5945
▁adara	-5946
bgcolor	-5947
▁Parast	-5948
▁civînê	-5949
▁mirovî	-5950
çû	-5951
ons	-5952
illa	-5953
ille	-5954
▁tax	-5955
dayan	-5956
▁kifş	-5957
▁Pirtûka	-5958
▁bajêrên	-5959
▁sistema	-5960
▁Guh	-5961
▁Nem	-5962
▁Nif	-5963
▁Taw	-5964
▁dûv	-5965
▁sep	-5966
▁Romê	-5967
▁anîye	-5968
▁zemîn	-5969
▁mezintir	-5970
▁pêşinyar	-5971
▁terorane	-5972
”.	-5973
oks	-5974
tîk	-5975
▁34	-5976
▁sw	-5977
ihên	-5978
▁bîn	-5979
height	-5980
▁[17:5	-5981
▁[18:4	-5982
▁hizir	-5983
▁kêmanî	-5984
▁hevkarî	-5985
Em	-5986
cc	-5987
/31	-5988
gan	-5989
▁Şê	-5990
atan	-5991
▁Jîn	-5992
▁Sit	-5993
▁dîk	-5994
▁kit	-5995
barek	-5996
▁nûçe	-5997
▁[17:2	-5998
▁berçav	-5999
▁fîzîkê	-6000
▁gotibû	-6001
▁kanala	-6002
▁ketiye	-6003
▁Hewramî	-6004
▁girêdan	-6005
▁Hilbijar	-6006
▁Stembolê	-6007
LIN	-6008
ley	-6009
sif	-6010
▁3.	-6011
▁Ya	-6012
bûma	-6013
▁Bêr	-6014
▁Som	-6015
efîlm	-6016
▁Hate	-6017
▁paşî	-6018
▁Nobela	-6019
▁valign	-6020
▁çiriya	-6021
▁radestî	-6022
▁Enstîtuya	-6023
▁„	-6024
JPG	-6025
▁Om	-6026
xanê	-6027
▁Maş	-6028
▁Sab	-6029
▁dibû	-6030
▁futb	-6031
▁dezgeha	-6032
▁pêxember	-6033
▁Turkiyeyî	-6034
.03	-6035
stêr	-6036
îşên	-6037
▁Mît	-6038
▁sêş	-6039
▁Hecî	-6040
▁Jibo	-6041
▁Pîroz	-6042
▁taybetmend	-6043
7.	-6044
ÎT	-6045
ham	-6046
ial	-6047
rac	-6048
▁Ce	-6049
rayê	-6050
▁Yûs	-6051
▁alb	-6052
▁mûz	-6053
▁Asya	-6054
▁SIYA	-6055
▁Dikin	-6056
▁RÊKEV	-6057
▁civîna	-6058
▁gundan	-6059
▁pîrozbayî	-6060
WER	-6061
ova	-6062
▁EV	-6063
▁Van	-6064
▁xanî	-6065
▁Zêwye	-6066
▁helwê	-6067
▁Qezafî	-6068
▁akincî	-6069
▁bimînin	-6070
▁pêvajoya	-6071
▁çaverêkirin	-6072
1.	-6073
mud	-6074
▁GU	-6075
▁PO	-6076
▁xwê	-6077
▁Êdî	-6078
avayî	-6079
▁DERV	-6080
▁ceza	-6081
▁rûnê	-6082
▁profes	-6083
▁Nuceyfî	-6084
▁rewşenbîrî	-6085
DU	-6086
▁·	-6087
forn	-6088
▁Xin	-6089
iyanên	-6090
▁Silop	-6091
▁albûm	-6092
olojiyê	-6093
▁niştimanîya	-6094
DÎ	-6095
▁د	-6096
▁DIJ	-6097
ebiya	-6098
pirtûk	-6099
▁derdi	-6100
▁gelawêj	-6101
▁serdest	-6102
▁xweztin	-6103
▁piştrast	-6104
ts	-6105
xa	-6106
▁`	-6107
▁wil	-6108
bikin	-6109
▁Behr	-6110
▁Paul	-6111
▁qala	-6112
▁Bizav	-6113
▁beriya	-6114
▁koçber	-6115
▁yekser	-6116
▁çîrokên	-6117
▁bêjedaneka	-6118
▁radigihîne	-6119
luk	-6120
îje	-6121
kera	-6122
▁For	-6123
▁Sip	-6124
▁Heft	-6125
▁bajêrî	-6126
▁diparêz	-6127
▁bawerîyê	-6128
▁gunehbar	-6129
▁Xelatgirên	-6130
mo	-6131
▁Op	-6132
▁Pl	-6133
▁nê	-6134
▁Hay	-6135
▁May	-6136
iliya	-6137
▁Char	-6138
▁ketin	-6139
▁i	-6140
ORÎ	-6141
▁1-	-6142
rans	-6143
▁kod	-6144
▁pat	-6145
▁sef	-6146
▁Diya	-6147
▁Weke	-6148
▁gora	-6149
▁Deşta	-6150
▁ENCAM	-6151
▁dorpêç	-6152
▁kehreb	-6153
▁nêzîka	-6154
▁awayekê	-6155
▁derketin	-6156
▁Navneteweyî	-6157
▁Keç	-6158
▁rew	-6159
▁barê	-6160
▁careka	-6161
▁Girêdan	-6162
▁lîsteya	-6163
▁pêşniyar	-6164
eyl	-6165
omas	-6166
▁Dax	-6167
▁Mur	-6168
▁Sin	-6169
▁Str	-6170
▁Xes	-6171
▁rah	-6172
▁rok	-6173
▁seb	-6174
Kesên	-6175
awîst	-6176
▁Dekak	-6177
▁mekanî	-6178
▁çiyayên	-6179
▁Şeqlaweyê	-6180
ternational	-6181
▁rêveberiya	-6182
1'	-6183
199	-6184
ENG	-6185
aca	-6186
eye	-6187
lîsa	-6188
▁Men	-6189
▁dif	-6190
girin	-6191
îyanî	-6192
▁prop	-6193
▁Helebê	-6194
▁pêwend	-6195
▁ragiah	-6196
▁William	-6197
▁Brîtanyayê	-6198
yr	-6199
Bûy	-6200
way	-6201
îmê	-6202
ÎYYE	-6203
▁Mij	-6204
▁Îbn	-6205
eddîn	-6206
▁Recep	-6207
▁[16:4	-6208
▁çavên	-6209
▁akadem	-6210
▁seretayî	-6211
Er	-6212
-200	-6213
▁BIN	-6214
▁dibê	-6215
▁Çewl	-6216
▁[17:0	-6217
dewletî	-6218
▁Jiyana	-6219
▁Gentiana	-6220
▁demjimêr	-6221
▁derdikevin	-6222
▁HEVPEYMANÎYA	-6223
ave	-6224
▁şa	-6225
:00]	-6226
▁Law	-6227
▁Mot	-6228
▁PET	-6229
▁REW	-6230
▁veş	-6231
arekî	-6232
▁Heya	-6233
▁Rûsî	-6234
▁derya	-6235
▁temaş	-6236
▁Urdunê	-6237
▁Zerdeşt	-6238
▁Baydemîr	-6239
▁kompanya	-6240
▁bikaribin	-6241
▁Serokatîya	-6242
17	-6243
18	-6244
3.	-6245
Ev	-6246
ÎŞ	-6247
▁Bol	-6248
▁Jan	-6249
▁Waş	-6250
▁lîz	-6251
▁mêj	-6252
▁Band	-6253
▁Rast	-6254
▁astê	-6255
▁stat	-6256
▁[19:0	-6257
▁neçar	-6258
▁piroj	-6259
▁çekan	-6260
▁proses	-6261
▁gotarek	-6262
▁nîvrojê	-6263
▁Rojavaya	-6264
▁tendirist	-6265
▁tûj	-6266
edarî	-6267
karan	-6268
▁1960	-6269
▁Corc	-6270
▁Kurt	-6271
▁Talî	-6272
▁çûne	-6273
▁îsal	-6274
▁kerta	-6275
▁Heyderî	-6276
44	-6277
ert	-6278
ûdê	-6279
▁Ir	-6280
▁Dom	-6281
▁Sol	-6282
▁Federal	-6283
▁zankoya	-6284
BW	-6285
gî	-6286
bîr	-6287
str	-6288
▁Êli	-6289
Genus	-6290
▁Alîk	-6291
geheka	-6292
▁wêran	-6293
▁şêwaz	-6294
▁Debbax	-6295
▁hijmar	-6296
▁Îtîlafa	-6297
▁Karkerên	-6298
▁alîkarîyê	-6299
▁ley	-6300
▁şêx	-6301
kerîm	-6302
▁NÛRÎ	-6303
▁keça	-6304
elînin	-6305
▁Azadî	-6306
▁tiştê	-6307
▁Zanist	-6308
▁nasandin	-6309
▁Eg	-6310
▁Han	-6311
▁dîw	-6312
▁sen	-6313
▁têd	-6314
firoş	-6315
▁avrê	-6316
▁mana	-6317
▁arêşe	-6318
▁peyvên	-6319
▁xizmetg	-6320
jîn	-6321
▁Kî	-6322
▁ad	-6323
elan	-6324
▁Bet	-6325
▁Eur	-6326
▁res	-6327
▁1978	-6328
▁axav	-6329
▁[19:2	-6330
▁Şoreşa	-6331
▁Celewla	-6332
▁leşkeran	-6333
▁parastin	-6334
▁bêjedanek	-6335
▁hukûmeteka	-6336
▁HILBIJARTINA	-6337
▁berjewendîyên	-6338
▁SA	-6339
▁Bos	-6340
▁Key	-6341
▁kêl	-6342
▁bûbûn	-6343
▁riswa	-6344
▁Îsraîl	-6345
▁karûbarên	-6346
32	-6347
EV	-6348
ors	-6349
yûm	-6350
zer	-6351
▁So	-6352
evin	-6353
ingê	-6354
tîyê	-6355
▁Fat	-6356
▁Sewa	-6357
▁Çand	-6358
▁Elman	-6359
▁Yekem	-6360
▁[16:3	-6361
eyaniya	-6362
▁kêmtir	-6363
▁Elhekîm	-6364
▁agahiyên	-6365
▁yekîtîya	-6366
▁diristkirina	-6367
66	-6368
ube	-6369
ujî	-6370
▁Il	-6371
▁OS	-6372
jiyê	-6373
kerê	-6374
unda	-6375
îvan	-6376
▁Jêr	-6377
▁paq	-6378
▁Swîs	-6379
▁çûna	-6380
iyonên	-6381
▁Tewaf	-6382
▁WEZÎR	-6383
▁Îtalya	-6384
▁sedemên	-6385
▁hilawîst	-6386
▁sermawez	-6387
▁bernameyên	-6388
▁wergirtiye	-6389
▁75	-6390
▁ec	-6391
sanî	-6392
▁Bro	-6393
▁DIN	-6394
▁Paşê	-6395
▁Sept	-6396
▁Krist	-6397
▁Okyan	-6398
îc	-6399
akê	-6400
aze	-6401
hes	-6402
ise	-6403
ESER	-6404
over	-6405
▁Kap	-6406
▁teh	-6407
evanî	-6408
▁1946	-6409
▁babet	-6410
▁parlam	-6411
▁berpirsyar	-6412
uy	-6413
RÎŞ	-6414
ahê	-6415
▁KC	-6416
▁KR	-6417
anin	-6418
gerî	-6419
▁rêw	-6420
îyanê	-6421
▁bûya	-6422
▁Tevgera	-6423
HK	-6424
PÊ	-6425
KAR	-6426
ije	-6427
işa	-6428
▁AS	-6429
etîv	-6430
▁afr	-6431
guher	-6432
▁1975	-6433
▁1986	-6434
▁pêşb	-6435
▁Xanim	-6436
▁sedem	-6437
▁Dîlokê	-6438
▁Heyder	-6439
▁pêywîst	-6440
38	-6441
ps	-6442
▁lî	-6443
▁un	-6444
stit	-6445
▁Alb	-6446
▁Dim	-6447
▁nab	-6448
▁war	-6449
▁Amêd	-6450
Bûyerên	-6451
▁Diyarb	-6452
▁romanê	-6453
▁nexweşiyê	-6454
An	-6455
BY	-6456
acî	-6457
htm	-6458
lass	-6459
orld	-6460
▁Nam	-6461
▁Val	-6462
▁Aborî	-6463
▁[19:4	-6464
▁berda	-6465
▁dabir	-6466
▁hindê	-6467
▁hukûm	-6468
▁hevpar	-6469
▁saxlem	-6470
▁Londonê	-6471
▁serbazên	-6472
▁piştgiriya	-6473
IRA	-6474
PAYÊ	-6475
îrek	-6476
▁Red	-6477
▁biq	-6478
ophyl	-6479
▁1984	-6480
▁xelk	-6481
▁birçî	-6482
▁LEŞKER	-6483
▁Mamost	-6484
▁Lîbyayê	-6485
ûlê	-6486
▁39	-6487
▁carek	-6488
ekirinê	-6489
▁Hevser	-6490
▁cîhana	-6491
▁nûçeyê	-6492
▁polîtîk	-6493
▁Nisêbînê	-6494
▁pal	-6495
▁Comb	-6496
▁nade	-6497
▁pest	-6498
DARÎYÊ	-6499
▁Mehdî	-6500
▁Daxwaz	-6501
▁DAXWAZA	-6502
▁serkeftî	-6503
▁nerazîbûna	-6504
:19]	-6505
size	-6506
viya	-6507
▁Sum	-6508
▁bûd	-6509
dariya	-6510
▁James	-6511
▁Midya	-6512
▁Xweda	-6513
▁hemah	-6514
▁Samerrayî	-6515
▁dîyarkirin	-6516
pat	-6517
ikar	-6518
last	-6519
▁kêf	-6520
▁Şam	-6521
acing	-6522
watal	-6523
▁News	-6524
irxîne	-6525
▁hevdû	-6526
▁reşem	-6527
▁hişyar	-6528
▁biryare	-6529
▁Dibistana	-6530
▁guherandin	-6531
oğ	-6532
yye	-6533
▁Ub	-6534
WEND	-6535
mann	-6536
▁Fey	-6537
▁Spî	-6538
▁mît	-6539
▁dend	-6540
▁eyal	-6541
▁Mosko	-6542
▁[17:1	-6543
▁gulana	-6544
▁klasîk	-6545
▁nemîne	-6546
▁aştîyane	-6547
▁bawerîya	-6548
▁tawanbar	-6549
▁berdewamî	-6550
▁SEROKATÎYA	-6551
HE	-6552
TÎ	-6553
ezr	-6554
▁SÊ	-6555
emer	-6556
îqaş	-6557
ediya	-6558
işîne	-6559
▁kevt	-6560
▁[19:5	-6561
▁aramî	-6562
▁pêngav	-6563
▁Maşallah	-6564
▁diyalogê	-6565
eph	-6566
▁Um	-6567
▁Çê	-6568
eyîn	-6569
êdar	-6570
▁Gre	-6571
▁Lad	-6572
▁Nes	-6573
erênî	-6574
▁Petr	-6575
▁LÎSTA	-6576
▁wezîr	-6577
▁êvarî	-6578
spacing	-6579
▁şaredar	-6580
wataliraq	-6581
▁çavdêrîya	-6582
MÎ	-6583
ly	-6584
The	-6585
use	-6586
▁Et	-6587
▁gil	-6588
▁rûd	-6589
ahîya	-6590
keran	-6591
înanê	-6592
▁rêzê	-6593
▁Cemîl	-6594
▁PETRO	-6595
▁Seyîd	-6596
▁WEZAR	-6597
▁hêşta	-6598
▁molek	-6599
▁Sîrwan	-6600
▁encûmenê	-6601
▁rawestandin	-6602
12	-6603
leg	-6604
mel	-6605
:20]	-6606
▁aye	-6607
oanal	-6608
▁Gerek	-6609
▁pêşeng	-6610
▁Mubarek	-6611
▁pêngavên	-6612
▁xwarinên	-6613
▁nasnameya	-6614
▁zanîngehê	-6615
▁nivîskarekî	-6616
▁xwendevanên	-6617
ome	-6618
▁36	-6619
NAME	-6620
dorf	-6621
siya	-6622
▁Riw	-6623
▁qey	-6624
aneya	-6625
▁Gurc	-6626
▁Rich	-6627
▁jinê	-6628
▁[19:3	-6629
▁hatîne	-6630
▁General	-6631
▁lêkolînê	-6632
▁bazirganîyê	-6633
arte	-6634
yîya	-6635
▁ÇEK	-6636
▁xeter	-6637
▁paytax	-6638
▁soranî	-6639
▁şehîdan	-6640
▁cellpadding	-6641
▁cellspacing	-6642
Am	-6643
zt	-6644
▁Vol	-6645
▁şor	-6646
▁Fili	-6647
▁Kaya	-6648
▁gazê	-6649
▁Îtal	-6650
▁Şerî	-6651
▁goştê	-6652
▁heyva	-6653
▁polîtbur	-6654
▁lidarxistin	-6655
▁damezirandin	-6656
▁Siyasetmedarên	-6657
yd	-6658
ım	-6659
opt	-6660
saz	-6661
▁EB	-6662
▁NÊ	-6663
▁SI	-6664
arek	-6665
▁Yas	-6666
Kesen	-6667
▁term	-6668
▁Lewra	-6669
▁[16:2	-6670
▁çares	-6671
▁bidawî	-6672
▁Navçeyên	-6673
▁amadekar	-6674
▁serkirdeyên	-6675
pêk	-6676
ûlî	-6677
▁UN	-6678
atîv	-6679
ubey	-6680
▁tep	-6681
▁Çem	-6682
hatên	-6683
▁Cihê	-6684
▁Qend	-6685
▁Rejî	-6686
▁Pêşan	-6687
▁diguh	-6688
▁zehmet	-6689
▁serkevtinê	-6690
1"|	-6691
RAN	-6692
ahm	-6693
uer	-6694
ilîz	-6695
▁...	-6696
▁20'	-6697
▁PEY	-6698
▁Pêx	-6699
atorê	-6700
▁dist	-6701
▁[19:1	-6702
▁nabin	-6703
▁Felest	-6704
▁SUPAYÊ	-6705
▁tevahî	-6706
▁Mustafa	-6707
▁aliyekî	-6708
▁berpirsiyar	-6709
hu	-6710
şe	-6711
MAR	-6712
cha	-6713
orge	-6714
sych	-6715
▁Jim	-6716
▁dip	-6717
bendî	-6718
▁PIŞT	-6719
▁banga	-6720
▁kîmya	-6721
▁zewic	-6722
▁wîlaye	-6723
▁xurttir	-6724
▁Amerîkaya	-6725
▁Rewandizî	-6726
▁çarçoveyê	-6727
Roj	-6728
far	-6729
▁ME	-6730
▁cm	-6731
▁Mik	-6732
▁Qub	-6733
anser	-6734
eliyê	-6735
▁babê	-6736
▁bond	-6737
▁bêyî	-6738
▁kult	-6739
▁gerîl	-6740
▁ÇARESER	-6741
▁dibistan	-6742
▁gomanbar	-6743
dam	-6744
nek	-6745
uth	-6746
wir	-6747
Cejn	-6748
adet	-6749
▁BEŞ	-6750
ANÎNA	-6751
amily	-6752
erojê	-6753
▁(198	-6754
▁genc	-6755
▁Firat	-6756
▁agahî	-6757
▁çêdibe	-6758
▁Gimgimê	-6759
▁rezberê	-6760
=2	-6761
EW	-6762
ebo	-6763
eze	-6764
ftî	-6765
bara	-6766
ûran	-6767
▁Ing	-6768
▁Top	-6769
▁nez	-6770
▁şên	-6771
▁Aram	-6772
ockhol	-6773
▁dolar	-6774
▁warên	-6775
▁artêşê	-6776
▁xweser	-6777
▁stiratec	-6778
")	-6779
NG	-6780
▁Ü	-6781
uel	-6782
îtê	-6783
dînê	-6784
çûnê	-6785
▁hîç	-6786
ariyê	-6787
▁Bern	-6788
▁firo	-6789
▁Duhok	-6790
▁|----	-6791
▁Rizgar	-6792
▁dubare	-6793
parêzgeh	-6794
▁azadiya	-6795
▁partiyê	-6796
▁wêneyên	-6797
▁derketiye	-6798
NN	-6799
OS	-6800
akt	-6801
ood	-6802
rew	-6803
girî	-6804
▁CHP	-6805
▁Gar	-6806
▁Tîr	-6807
▁pen	-6808
liyên	-6809
retum	-6810
▁1987	-6811
▁dikê	-6812
▁kird	-6813
▁Wêran	-6814
▁koşka	-6815
▁Niştîmanîya	-6816
▁nexweşxaneya	-6817
▁daxuyannameya	-6818
ren	-6819
rêz	-6820
▁is	-6821
ande	-6822
dema	-6823
▁Els	-6824
▁Jac	-6825
▁Kop	-6826
▁Nîv	-6827
▁Wat	-6828
iştin	-6829
hatina	-6830
▁bikim	-6831
▁Mêrges	-6832
▁malper	-6833
▁teksta	-6834
72	-6835
goş	-6836
▁65	-6837
îdan	-6838
▁Baq	-6839
▁Fri	-6840
▁Ros	-6841
▁bej	-6842
▁bom	-6843
▁yew	-6844
▁çem	-6845
iyeta	-6846
▁mast	-6847
▁Selîm	-6848
▁Tahir	-6849
▁Îsmaîl	-6850
▁Peymana	-6851
▁arîşeya	-6852
▁HILBIJARTINAN	-6853
umb	-6854
eftê	-6855
teda	-6856
▁Gen	-6857
▁dur	-6858
WELAT	-6859
ceolar	-6860
nameyê	-6861
▁Kirin	-6862
▁derfet	-6863
▁vexwend	-6864
▁demokrasî	-6865
▁serperişt	-6866
rid	-6867
▁95	-6868
▁xul	-6869
ronom	-6870
▁Fîlm	-6871
▁Wind	-6872
▁bist	-6873
enburg	-6874
▁qonax	-6875
şembîyê	-6876
▁binçav	-6877
▁wêjeyê	-6878
▁salvegera	-6879
0"	-6880
ofî	-6881
uba	-6882
Mist	-6883
enan	-6884
▁Bih	-6885
▁Cez	-6886
▁Miz	-6887
▁pez	-6888
▁Korê	-6889
▁Hedba	-6890
▁zelal	-6891
▁Şehîd	-6892
▁Afrîka	-6893
▁nakokî	-6894
▁kursîyên	-6895
▁September	-6896
▁wezaretên	-6897
eth	-6898
iel	-6899
ûpa	-6900
IRAQ	-6901
▁Erx	-6902
▁FIR	-6903
▁neg	-6904
▁sey	-6905
▁tix	-6906
îranê	-6907
▁rewa	-6908
▁tête	-6909
▁Çînî	-6910
▁Lîsta	-6911
▁POLÎS	-6912
▁bisek	-6913
▁London	-6914
▁mercên	-6915
▁mîlyon	-6916
▁Batmanê	-6917
▁Fîlozof	-6918
▁hevdîtinê	-6919
▁Ebdulkerîm	-6920
▁rojnameyên	-6921
▁serkevtina	-6922
age	-6923
iro	-6924
îta	-6925
▁Şeh	-6926
▁Xanî	-6927
▁awar	-6928
▁benda	-6929
▁Çalak	-6930
▁endama	-6931
▁petrol	-6932
▁report	-6933
▁Şemîyê	-6934
▁zimanan	-6935
▁helwesta	-6936
▁vegeriya	-6937
▁Combretum	-6938
▁dibistanê	-6939
▁seranserî	-6940
▁Şaredariya	-6941
▁konsulxaneya	-6942
▁International	-6943
eto	-6944
rif	-6945
yetî	-6946
▁Bor	-6947
▁MEZ	-6948
▁dîm	-6949
▁kal	-6950
▁sîx	-6951
▁Agah	-6952
▁Mînak	-6953
▁Telev	-6954
▁gihîşt	-6955
▁saziyên	-6956
▁Kongreya	-6957
▁têkoşîna	-6958
▁nivîskarên	-6959
▁peywendîya	-6960
-8	-6961
ony	-6962
ozî	-6963
▁Pal	-6964
▁Zêd	-6965
▁Zîn	-6966
▁1982	-6967
▁ELIRAQ	-6968
▁konfer	-6969
▁rojekê	-6970
▁Misilman	-6971
▁navdewletîya	-6972
LÊ	-6973
ti	-6974
êvî	-6975
anak	-6976
nanî	-6977
îyek	-6978
▁GIH	-6979
▁tor	-6980
ştina	-6981
▁1969	-6982
▁Dihê	-6983
▁Sîya	-6984
▁Zeyn	-6985
▁gend	-6986
▁kamp	-6987
▁PARÊZ	-6988
▁lihev	-6989
▁paqij	-6990
▁Yemenê	-6991
▁zimanî	-6992
▁Qamişlo	-6993
▁berhema	-6994
▁ŞANDEYEKA	-6995
▁serhildayan	-6996
pp	-6997
ass	-6998
cus	-6999
ref	-7000
▁ZÊ	-7001
▁zî	-7002
oyan	-7003
▁Lub	-7004
▁NÛN	-7005
▁lîm	-7006
▁sîv	-7007
▁PKKê	-7008
manckî	-7009
vanîya	-7010
▁Ciwan	-7011
▁Gates	-7012
exaneya	-7013
▁fermîya	-7014
▁Şehristanî	-7015
▁Ermenistanê	-7016
ار	-7017
Gel	-7018
IRS	-7019
ROZ	-7020
gor	-7021
rov	-7022
▁yo	-7023
omys	-7024
▁bis	-7025
omanê	-7026
uyanî	-7027
▁1930	-7028
▁1985	-7029
▁Umer	-7030
▁xeta	-7031
▁nîqaş	-7032
▁Civaka	-7033
▁Komela	-7034
▁hebûye	-7035
▁hunera	-7036
▁Ibrahîm	-7037
▁berfanbarê	-7038
▁nivîsandina	-7039
GIH	-7040
iqû	-7041
raw	-7042
uyê	-7043
▁Uz	-7044
belê	-7045
▁Cam	-7046
utsch	-7047
▁Girê	-7048
▁çala	-7049
karîya	-7050
▁pozetîv	-7051
▁xwezayî	-7052
▁kirdareka	-7053
ûba	-7054
▁1'	-7055
▁PÎ	-7056
KIRÎ	-7057
ling	-7058
▁250	-7059
▁Mag	-7060
▁Bang	-7061
▁Teng	-7062
▁best	-7063
▁sale	-7064
▁zanî	-7065
îneyên	-7066
▁bihar	-7067
▁lêbor	-7068
▁hêvîya	-7069
▁propag	-7070
ceolaria	-7071
▁peymana	-7072
▁protest	-7073
▁seranser	-7074
▁daxuyannameyek	-7075
67	-7076
esp	-7077
="0"	-7078
eles	-7079
▁Gew	-7080
çûnên	-7081
▁Dijî	-7082
▁Gola	-7083
▁Mexm	-7084
▁darê	-7085
▁ÇEND	-7086
▁[11:3	-7087
▁sedemê	-7088
▁Bidlîsê	-7089
▁ziyanên	-7090
▁Peyvdarê	-7091
▁leşkerîyên	-7092
gal	-7093
▁2-	-7094
▁Ni	-7095
XIST	-7096
ilan	-7097
▁Kîm	-7098
▁Por	-7099
▁îdî	-7100
umena	-7101
▁ders	-7102
▁semb	-7103
▁Galerî	-7104
▁cezayê	-7105
▁demekî	-7106
▁cureyan	-7107
▁cîranên	-7108
▁naxwaze	-7109
▁Kurmancî	-7110
▁Stockhol	-7111
▁zaravayê	-7112
ict	-7113
▁AR	-7114
▁od	-7115
alis	-7116
▁Gol	-7117
▁Tûn	-7118
▁quş	-7119
girtû	-7120
▁Arif	-7121
▁Karl	-7122
▁berg	-7123
▁hêja	-7124
▁sedî	-7125
almanî	-7126
girtinê	-7127
▁DeMist	-7128
▁niştîmanî	-7129
▁Serokwezîr	-7130
▁hevgirtina	-7131
lü	-7132
abî	-7133
nên	-7134
▁Dam	-7135
▁Çir	-7136
▁Beşa	-7137
▁Ezîz	-7138
▁bîst	-7139
▁neda	-7140
geriya	-7141
nivîsa	-7142
▁[20:4	-7143
erîyeka	-7144
▁Firyad	-7145
▁George	-7146
▁Sîstema	-7147
▁perwerd	-7148
▁Konferan	-7149
▁DeMistura	-7150
▁otombîleka	-7151
▁operasyonên	-7152
je	-7153
ûf	-7154
▁«	-7155
asa	-7156
îmî	-7157
▁Deh	-7158
▁nîn	-7159
tiyên	-7160
▁Plat	-7161
▁Necef	-7162
▁PIRSA	-7163
▁aktîv	-7164
▁proje	-7165
▁Akadem	-7166
▁Mehabad	-7167
▁bajaran	-7168
▁element	-7169
▁leşkerê	-7170
▁alîgirên	-7171
▁xwendinê	-7172
▁Fraksiyon	-7173
Ez	-7174
har	-7175
mat	-7176
heya	-7177
▁FER	-7178
ustra	-7179
▁Riya	-7180
▁Gulan	-7181
▁TEQÎN	-7182
▁Teyib	-7183
▁daxuy	-7184
▁mehên	-7185
▁negih	-7186
▁Allium	-7187
▁Supayê	-7188
▁romana	-7189
▁awayeke	-7190
▁derheqê	-7191
▁rêveber	-7192
▁University	-7193
▁peywendîyan	-7194
);	-7195
,5	-7196
len	-7197
▁Ûr	-7198
BÛNA	-7199
zanê	-7200
▁400	-7201
▁Jul	-7202
▁herç	-7203
▁text	-7204
▁progr	-7205
▁zîyan	-7206
▁parzem	-7207
▁HEVWELAT	-7208
▁baweriyê	-7209
▁telefonê	-7210
▁hevalbend	-7211
58	-7212
sor	-7213
▁Max	-7214
▁Qel	-7215
▁mon	-7216
ische	-7217
▁dida	-7218
▁[20:0	-7219
▁hingê	-7220
▁dîtina	-7221
▁esmanî	-7222
▁rojname	-7223
▁arîşeyan	-7224
▁standinên	-7225
▁ELIRAQÎYYE	-7226
erq	-7227
▁Nîş	-7228
▁bes	-7229
▁çil	-7230
engîya	-7231
▁Enwer	-7232
▁Gelhe	-7233
▁Muftî	-7234
▁Tebax	-7235
▁kîjan	-7236
▁strat	-7237
▁derhên	-7238
▁|-----	-7239
▁BALYOZÊ	-7240
▁dimînin	-7241
▁pevçûnên	-7242
▁pirosesa	-7243
NW	-7244
vî	-7245
EYÎ	-7246
cel	-7247
çik	-7248
alay	-7249
elik	-7250
ican	-7251
liyan	-7252
▁binê	-7253
▁tawan	-7254
▁diaxivin	-7255
▁navendên	-7256
▁bombbaran	-7257
MED	-7258
NAN	-7259
eme	-7260
▁Pil	-7261
▁Sak	-7262
▁zêr	-7263
şembê	-7264
▁REWŞ	-7265
▁Roma	-7266
▁sipî	-7267
▁||19	-7268
bilind	-7269
▁diher	-7270
▁disek	-7271
▁werdi	-7272
▁peyama	-7273
▁weşanên	-7274
▁fîzîknas	-7275
▁rêkevtinek	-7276
▁Calceolaria	-7277
▁qedexekirin	-7278
êkî	-7279
bûye	-7280
esar	-7281
ewên	-7282
feld	-7283
▁CEL	-7284
▁Caf	-7285
▁Kak	-7286
▁avî	-7287
▁2019	-7288
▁Dost	-7289
▁=====	-7290
▁sêdar	-7291
▁tevli	-7292
kirinên	-7293
▁Istanb	-7294
▁Kanada	-7295
▁albûma	-7296
▁mezinê	-7297
▁konsulê	-7298
▁tîrmeha	-7299
▁Dollaran	-7300
▁vedigere	-7301
▁afirandin	-7302
▁bêjedanên	-7303
▁wergerandin	-7304
▁ER	-7305
-199	-7306
neya	-7307
▁Gab	-7308
▁HEM	-7309
▁Xaç	-7310
▁baw	-7311
▁xil	-7312
eroja	-7313
▁duhî	-7314
▁goşt	-7315
▁keşt	-7316
▁[11:4	-7317
▁[20:1	-7318
▁heyvê	-7319
▁muzîk	-7320
▁Islamî	-7321
▁deryayê	-7322
▁serrast	-7323
▁lîstikvan	-7324
▁dabeşkirina	-7325
BER	-7326
sûm	-7327
▁by	-7328
ayes	-7329
ions	-7330
▁AMA	-7331
▁bet	-7332
stadt	-7333
▁Bext	-7334
▁nebûn	-7335
▁xelas	-7336
▁avedan	-7337
▁invest	-7338
▁pêşkeş	-7339
▁tiştek	-7340
▁fermîyê	-7341
▁hijmara	-7342
▁standin	-7343
▁pirsgirêk	-7344
▁serhildan	-7345
Nav	-7346
meq	-7347
şik	-7348
▁tr	-7349
grin	-7350
koyê	-7351
▁Gil	-7352
▁Hîn	-7353
▁Kab	-7354
▁Ebas	-7355
▁behs	-7356
▁font	-7357
yolojî	-7358
▁Dîcle	-7359
▁Dîmeş	-7360
▁despê	-7361
▁huner	-7362
▁kevir	-7363
▁xwîna	-7364
▁bijîşk	-7365
▁hêzeka	-7366
▁Klinton	-7367
▁kombûneka	-7368
▁çarenivîs	-7369
62	-7370
ûtê	-7371
▁Lo	-7372
▁[8	-7373
igit	-7374
mayê	-7375
oksî	-7376
olit	-7377
ovan	-7378
▁Eli	-7379
▁Sev	-7380
▁Yûn	-7381
▁cez	-7382
▁diq	-7383
▁nih	-7384
ument	-7385
▁bîrd	-7386
▁qeyr	-7387
▁împer	-7388
▁hundirê	-7389
▁ragiahnd	-7390
▁seranserê	-7391
▁sînorîyên	-7392
▁diyarkirin	-7393
DC	-7394
fan	-7395
lîzî	-7396
▁zag	-7397
▁ŞER	-7398
▁Pers	-7399
▁Türk	-7400
▁reft	-7401
▁zarê	-7402
kujiya	-7403
▁BILIN	-7404
▁Kirma	-7405
▁enfal	-7406
▁nivis	-7407
▁êrîşan	-7408
▁Emerîka	-7409
▁razîbûna	-7410
▁milliyard	-7411
▁rêbendanê	-7412
▁navxweyîyê	-7413
XAN	-7414
ari	-7415
işî	-7416
ÎYE	-7417
▁dı	-7418
▁Hak	-7419
▁Wên	-7420
▁têr	-7421
▁dipey	-7422
▁erênî	-7423
▁şandina	-7424
▁Okyanûsa	-7425
▁derketina	-7426
▁pesendkirina	-7427
4.	-7428
TV	-7429
▁ل	-7430
TÎYA	-7431
înim	-7432
▁can	-7433
▁çew	-7434
ayide	-7435
iwanî	-7436
▁Qazî	-7437
▁EVROJ	-7438
▁Jinên	-7439
▁arîşe	-7440
▁rapor	-7441
▁Şêxan	-7442
▁Destpê	-7443
▁Qoserê	-7444
▁Serdana	-7445
▁bihêlin	-7446
▁Parastina	-7447
▁peywendiyên	-7448
▁serhildayên	-7449
WAR	-7450
emat	-7451
▁You	-7452
▁fiz	-7453
▁hen	-7454
▁Dirêj	-7455
▁PÎROZ	-7456
▁dixin	-7457
▁zindî	-7458
▁HERÊMÊ	-7459
▁pileya	-7460
▁Xwepêşand	-7461
▁penaberên	-7462
▁hesibandin	-7463
ID	-7464
hi	-7465
üz	-7466
ows	-7467
▁dr	-7468
abad	-7469
riya	-7470
▁Bey	-7471
▁GEL	-7472
▁Hêr	-7473
▁Neh	-7474
▁Qil	-7475
▁pêl	-7476
ORÎST	-7477
ormal	-7478
▁Berf	-7479
▁Derya	-7480
▁WELAT	-7481
▁[20:2	-7482
▁zirav	-7483
▁yekema	-7484
▁felsefe	-7485
▁vegerin	-7486
▁çavdêrên	-7487
68	-7488
MÛD	-7489
arp	-7490
lic	-7491
▁Eh	-7492
PIRS	-7493
metê	-7494
tîye	-7495
▁Neb	-7496
▁cihû	-7497
▁Hekar	-7498
▁grûpa	-7499
▁Avesta	-7500
▁nîşana	-7501
▁Yekemîn	-7502
▁biwaran	-7503
▁dixwest	-7504
▁partiyên	-7505
▁revandin	-7506
▁xwendiye	-7507
ja	-7508
.):	-7509
êna	-7510
▁Ag	-7511
▁Ze	-7512
▁ver	-7513
▁raya	-7514
▁World	-7515
▁[11:2	-7516
▁vekêş	-7517
▁BAREYA	-7518
▁Baxdad	-7519
▁dayika	-7520
▁dizane	-7521
▁teqand	-7522
▁dinivîs	-7523
▁futbolê	-7524
▁herêman	-7525
▁teybetî	-7526
▁Mehabadê	-7527
▁TERORÎST	-7528
▁piştevanî	-7529
▁serwerîya	-7530
TC	-7531
VA	-7532
DUL	-7533
che	-7534
iyo	-7535
rem	-7536
îsk	-7537
▁Ot	-7538
etin	-7539
▁180	-7540
▁miş	-7541
▁zik	-7542
▁jêrîn	-7543
▁tîmên	-7544
▁Bulgar	-7545
▁aşkere	-7546
▁dûçûna	-7547
▁Balafir	-7548
▁Kendava	-7549
▁kewçêrê	-7550
▁hevpişka	-7551
▁sazkirina	-7552
▁destwerdanê	-7553
▁destnîşankirina	-7554
63	-7555
ini	-7556
îse	-7557
▁33	-7558
▁120	-7559
▁hoz	-7560
▁naz	-7561
▁rûs	-7562
▁êla	-7563
▁Bike	-7564
▁Mark	-7565
▁devê	-7566
▁yanî	-7567
▁OSMAN	-7568
▁pişta	-7569
▁Endama	-7570
▁MEHMÛD	-7571
▁Martin	-7572
▁asmanî	-7573
▁çîroka	-7574
▁DIXWAZE	-7575
▁çandinî	-7576
▁Mezopotamyayê	-7577
üs	-7578
ase	-7579
▁Gö	-7580
▁Sm	-7581
yeyê	-7582
▁lîn	-7583
▁ney	-7584
yonên	-7585
▁1983	-7586
▁Braz	-7587
▁POST	-7588
▁Port	-7589
▁koçî	-7590
border	-7591
▁MEZIN	-7592
▁Navên	-7593
▁[11:1	-7594
▁kurtî	-7595
▁nadin	-7596
▁pişka	-7597
▁Rêberê	-7598
▁başûra	-7599
▁kevnar	-7600
▁wêjeyî	-7601
▁çapamen	-7602
▁maddeyên	-7603
▁nivîsand	-7604
▁parçeyên	-7605
▁polîtburoya	-7606
13	-7607
esi	-7608
uss	-7609
îde	-7610
menî	-7611
▁12'	-7612
▁Elc	-7613
▁MUH	-7614
▁Wik	-7615
▁hoş	-7616
▁Cara	-7617
▁kesk	-7618
▁Adarê	-7619
▁îtalî	-7620
▁ketine	-7621
▁tundûtû	-7622
▁danûstandinên	-7623
én	-7624
mij	-7625
mos	-7626
skî	-7627
▁Jo	-7628
reyê	-7629
▁Him	-7630
▁III	-7631
▁perç	-7632
▁Atlan	-7633
▁nameya	-7634
▁bûyeran	-7635
▁paytext	-7636
▁sizayên	-7637
▁felsefeya	-7638
▁pişkinînê	-7639
▁opozisyonê	-7640
▁daxuyanîyeka	-7641
47	-7642
48	-7643
amb	-7644
bûy	-7645
kaya	-7646
▁(18	-7647
▁Muq	-7648
▁mor	-7649
iyaye	-7650
îtanî	-7651
▁rind	-7652
▁Inter	-7653
▁Soran	-7654
▁efser	-7655
enîgarî	-7656
▁Barzan	-7657
▁Xwarin	-7658
▁berpir	-7659
▁bihîst	-7660
▁jenosî	-7661
▁Armanca	-7662
▁otomobîl	-7663
▁qurbanîyên	-7664
BI	-7665
RT	-7666
▁س	-7667
oth	-7668
/200	-7669
afir	-7670
barî	-7671
efan	-7672
▁Yez	-7673
▁1977	-7674
▁BIBE	-7675
▁bern	-7676
▁nave	-7677
▁rûsî	-7678
▁zorê	-7679
▁BIHÊN	-7680
▁berbi	-7681
▁cengê	-7682
▁ermen	-7683
▁postê	-7684
▁dayikê	-7685
▁girava	-7686
▁Elqayide	-7687
▁seredana	-7688
▁zimanekî	-7689
▁rojnameyê	-7690
▁birîndaran	-7691
▁serokwezîr	-7692
4,	-7693
ıl	-7694
êja	-7695
ûlk	-7696
▁55	-7697
atur	-7698
ayek	-7699
▁Bon	-7700
▁hov	-7701
▁yêk	-7702
▁Mîrê	-7703
▁xeynî	-7704
▁aştiyê	-7705
▁KOMBÛNA	-7706
▁Iraqîyan	-7707
▁Keyaniya	-7708
▁nekirine	-7709
▁proseseka	-7710
▁hunermendên	-7711
As	-7712
ÎNÊ	-7713
îgê	-7714
ûmê	-7715
▁32	-7716
▁Bu	-7717
▁Ca	-7718
▁no	-7719
beya	-7720
inar	-7721
kanî	-7722
▁mih	-7723
cleyê	-7724
▁girif	-7725
▁neftê	-7726
▁Aştiyê	-7727
▁gotine	-7728
▁teqînên	-7729
▁Neteweyî	-7730
▁karbidest	-7731
own	-7732
▁Sk	-7733
uter	-7734
êjên	-7735
▁Dik	-7736
▁Hom	-7737
▁Reh	-7738
▁fiş	-7739
▁qay	-7740
guhêz	-7741
perên	-7742
▁1981	-7743
▁heyv	-7744
▁nîvê	-7745
maniya	-7746
▁Albûm	-7747
▁EBDUL	-7748
▁digot	-7749
▁dikuj	-7750
▁jêder	-7751
▁PEYWEND	-7752
▁derkeve	-7753
cih	-7754
igh	-7755
▁It	-7756
ezîz	-7757
isan	-7758
jîya	-7759
maya	-7760
uyan	-7761
▁Qoç	-7762
▁1976	-7763
▁Kurê	-7764
▁cins	-7765
asyonê	-7766
kiriye	-7767
▁biser	-7768
▁guman	-7769
▁parçe	-7770
▁zanko	-7771
▁zemînler	-7772
▁hevkariya	-7773
▁xwepêşandanê	-7774
DER	-7775
dên	-7776
wel	-7777
▁Yo	-7778
ular	-7779
▁Etr	-7780
benda	-7781
evanê	-7782
exweş	-7783
çîrok	-7784
▁Mend	-7785
▁Agirî	-7786
▁Mesîh	-7787
▁KERKÛK	-7788
▁Rezber	-7789
▁destan	-7790
▁hindik	-7791
▁salane	-7792
▁Çomanê	-7793
collapse	-7794
▁Hillary	-7795
▁arêşeya	-7796
▁Çewlîgê	-7797
▁Piraniya	-7798
▁Selahedîn	-7799
▁xûyakirin	-7800
▁beşdarbûna	-7801
▁Azerbaycana	-7802
au	-7803
EKÊ	-7804
htt	-7805
çûk	-7806
▁AF	-7807
▁CNN	-7808
înijad	-7809
▁Mûsil	-7810
▁axivî	-7811
▁divêt	-7812
▁rastê	-7813
▁organî	-7814
▁tendur	-7815
▁çalakî	-7816
▁dibêjit	-7817
▁biparêze	-7818
▁Rojnamevan	-7819
▁Rojnamevanên	-7820
=3	-7821
ezê	-7822
ird	-7823
▁TO	-7824
▁Cib	-7825
▁het	-7826
maran	-7827
▁Post	-7828
▁girs	-7829
▁Xebat	-7830
▁dimeş	-7831
▁Şîret	-7832
rdistan	-7833
▁Eşîrên	-7834
▁Mehmed	-7835
▁Rejîma	-7836
▁Welatê	-7837
▁hinekî	-7838
▁tiştan	-7839
▁WEZARETA	-7840
▁gerîyeka	-7841
43	-7842
ça	-7843
KÊŞ	-7844
ürt	-7845
▁wi	-7846
IYON	-7847
able	-7848
xwîn	-7849
▁DEM	-7850
▁GER	-7851
▁Yên	-7852
tînin	-7853
▁Mewl	-7854
▁Plan	-7855
▁jiya	-7856
▁îmza	-7857
▁Weznê	-7858
▁[11:5	-7859
▁prote	-7860
▁Îlonê	-7861
▁îsota	-7862
▁Efrîna	-7863
▁Meşhed	-7864
▁Sêwasê	-7865
▁hatîya	-7866
▁pirsan	-7867
▁hefteyê	-7868
▁pergala	-7869
▁Rêxistin	-7870
▁desteser	-7871
▁kompaniya	-7872
▁çarçêweya	-7873
öy	-7874
ico	-7875
itt	-7876
▁No	-7877
▁OP	-7878
▁Sax	-7879
ANIYA	-7880
ikeve	-7881
▁ENDA	-7882
▁Demir	-7883
▁Ferec	-7884
▁Misrê	-7885
▁https	-7886
▁sêşemb	-7887
▁çêbûna	-7888
▁Mixabin	-7889
▁xwekujî	-7890
▁Stranbêj	-7891
▁Xorasanê	-7892
▁agirbest	-7893
▁telefonî	-7894
▁Mêrgesorê	-7895
▁Fermandarê	-7896
▁derbikevin	-7897
93	-7898
rûr	-7899
▁4.	-7900
ÎNIN	-7901
▁Qor	-7902
▁gov	-7903
▁kend	-7904
rehman	-7905
▁Bereya	-7906
▁Dollar	-7907
▁Pêşmer	-7908
▁Kurmanc	-7909
▁hemûyan	-7910
▁baştirîn	-7911
▁kurdistan	-7912
▁derxistina	-7913
HÊ	-7914
▁;	-7915
Cin	-7916
fîl	-7917
ics	-7918
nak	-7919
–19	-7920
ejîk	-7921
▁Gün	-7922
▁nep	-7923
▁Şeb	-7924
itiya	-7925
▁1925	-7926
▁1945	-7927
▁sazî	-7928
▁Dibêj	-7929
▁Dicle	-7930
▁Felsef	-7931
▁Nêzîkî	-7932
▁kêfxweş	-7933
▁Sosyalîst	-7934
▁Têkiliyên	-7935
▁konferansê	-7936
xt	-7937
ARA	-7938
ute	-7939
▁Kê	-7940
▁mû	-7941
▁ro	-7942
▁Fac	-7943
▁Pap	-7944
▁Yus	-7945
▁dab	-7946
▁sam	-7947
▁NIŞT	-7948
▁Kurid	-7949
▁berdem	-7950
▁xaneyê	-7951
▁Cureyên	-7952
▁bizavên	-7953
▁piştgîr	-7954
▁destpêkirina	-7955
kel	-7956
yen	-7957
hsan	-7958
ulus	-7959
▁Fad	-7960
▁HHK	-7961
▁Reg	-7962
▁Rev	-7963
▁Tûr	-7964
▁axê	-7965
▁qel	-7966
▁zev	-7967
▁diçû	-7968
▁sali	-7969
▁seds	-7970
▁tevl	-7971
▁bikir	-7972
▁fîlmê	-7973
▁Êlihê	-7974
▁Ewropî	-7975
▁Pasûrê	-7976
▁dihêle	-7977
▁nemînin	-7978
▁Şaredarê	-7979
▁kehrebayê	-7980
▁berfirehtir	-7981
pî	-7982
”,	-7983
dek	-7984
▁TI	-7985
hael	-7986
çeyê	-7987
▁Hav	-7988
▁Xur	-7989
▁wef	-7990
nîgar	-7991
▁fahm	-7992
▁germî	-7993
evanîyê	-7994
▁modern	-7995
▁nêzîkê	-7996
▁Çinarê	-7997
42	-7998
ÊJ	-7999
JAK	-8000
▁SE	-8001
▁Ceb	-8002
▁neş	-8003
▁yêt	-8004
▁şêw	-8005
▁(196	-8006
▁bêhn	-8007
▁ceng	-8008
▁[20:3	-8009
▁akinc	-8010
▁derbi	-8011
▁komek	-8012
▁Geverê	-8013
▁Hekarî	-8014
▁Kaniya	-8015
▁Sêşembî	-8016
▁Xwedayê	-8017
▁Çavdêrîya	-8018
▁rêvebirina	-8019
▁Brîtaniyayî	-8020
▁peywendîdar	-8021
ÎH	-8022
▁AD	-8023
EVAN	-8024
ikir	-8025
izmê	-8026
▁Nar	-8027
antum	-8028
komar	-8029
▁dawe	-8030
▁form	-8031
▁loma	-8032
▁parv	-8033
usamet	-8034
▁Bexşa	-8035
▁Mecîd	-8036
▁[10:5	-8037
▁[16:1	-8038
▁digre	-8039
▁MÛSILÊ	-8040
▁dîtiye	-8041
▁xwedan	-8042
▁bixwaze	-8043
▁birawest	-8044
▁malbateke	-8045
▁muhrkirin	-8046
▁wezaretan	-8047
▁bêjedanekê	-8048
Der	-8049
bike	-8050
oker	-8051
▁Yêk	-8052
▁hej	-8053
▁tiv	-8054
itiyê	-8055
▁Atat	-8056
▁Uzun	-8057
▁mejî	-8058
▁terî	-8059
▁Franc	-8060
▁Peter	-8061
▁Times	-8062
▁hingî	-8063
▁demeka	-8064
6.	-8065
BS	-8066
▁ك	-8067
ford	-8068
▁die	-8069
▁1920	-8070
▁sind	-8071
▁[10:4	-8072
▁Filist	-8073
▁Mesrûr	-8074
▁Dengbêj	-8075
▁destkev	-8076
▁tawanên	-8077
▁zaniyar	-8078
▁beşdarîya	-8079
▁hilwestên	-8080
▁nexweşiya	-8081
my	-8082
Kom	-8083
sol	-8084
zay	-8085
ûnd	-8086
▁0.	-8087
▁th	-8088
yema	-8089
▁19'	-8090
▁SÛR	-8091
▁bête	-8092
gihand	-8093
kirine	-8094
▁HEVDU	-8095
▁kujtî	-8096
▁lawaz	-8097
▁sivik	-8098
▁Festîv	-8099
XWE	-8100
sed	-8101
▁ww	-8102
lîya	-8103
▁liv	-8104
▁www	-8105
▁1967	-8106
▁çima	-8107
▁Belav	-8108
▁bakûr	-8109
▁semîn	-8110
ophyllum	-8111
▁Azadiya	-8112
▁Giravên	-8113
▁eyaleta	-8114
▁bikaribe	-8115
▁piştgirî	-8116
▁têkiliya	-8117
▁dilovaniya	-8118
▁Ehmedînijad	-8119
YÊN	-8120
ahid	-8121
arat	-8122
teya	-8123
îtîk	-8124
önig	-8125
▁Das	-8126
▁Hir	-8127
▁Siw	-8128
▁dîl	-8129
▁gaz	-8130
▁gol	-8131
▁tex	-8132
▁tol	-8133
irinê	-8134
çeyan	-8135
▁Dêra	-8136
▁Pirs	-8137
▁gera	-8138
▁giha	-8139
▁mezh	-8140
▁wate	-8141
▁bicîh	-8142
▁cerib	-8143
▁Romney	-8144
▁Hillarî	-8145
▁pêkhatî	-8146
▁beramberî	-8147
▁sermawezê	-8148
▁berdewamiya	-8149
8,	-8150
yt	-8151
det	-8152
paş	-8153
▁Dol	-8154
▁Kuj	-8155
▁Lor	-8156
▁Zeh	-8157
▁feq	-8158
▁gew	-8159
▁mus	-8160
▁xat	-8161
ajarê	-8162
▁Proj	-8163
ebaret	-8164
îtanên	-8165
▁Ebdur	-8166
▁Yûsif	-8167
▁farsî	-8168
▁mêvan	-8169
▁Christ	-8170
▁ereban	-8171
▁kirinê	-8172
▁Dîcleyê	-8173
▁dîdarek	-8174
▁kandîdê	-8175
▁qanûnên	-8176
▁darayîya	-8177
▁bombebaran	-8178
▁Anatoliyaya	-8179
▁HILBIJARTIN	-8180
▁xwepêşandanan	-8181
los	-8182
win	-8183
▁To	-8184
efer	-8185
iser	-8186
nama	-8187
▁15'	-8188
▁Kad	-8189
avêje	-8190
iyetê	-8191
▁1959	-8192
▁1965	-8193
▁1974	-8194
▁Cent	-8195
▁Emîr	-8196
▁July	-8197
▁Mill	-8198
bullah	-8199
enberg	-8200
▁hevre	-8201
▁salekê	-8202
▁şîrove	-8203
▁mebestê	-8204
▁pêdivêyî	-8205
▁birçîbûnê	-8206
▁operasyona	-8207
pha	-8208
▁Sî	-8209
Iraq	-8210
atus	-8211
html	-8212
▁Sinc	-8213
▁nuha	-8214
ormato	-8215
▁Resûl	-8216
▁nebaş	-8217
▁Elşerq	-8218
▁PÊŞKÊŞ	-8219
▁komela	-8220
▁Navendî	-8221
▁molekul	-8222
▁navendê	-8223
▁Afganîstanê	-8224
▁helbestvanê	-8225
▁pîrozbayîyê	-8226
OZ	-8227
TL	-8228
si	-8229
ız	-8230
şad	-8231
tekî	-8232
▁EWL	-8233
▁Kêm	-8234
▁bab	-8235
▁şil	-8236
Iraqê	-8237
▁heyw	-8238
▁têke	-8239
▁xwer	-8240
▁Fried	-8241
▁Qoser	-8242
▁diket	-8243
▁genim	-8244
▁swêdî	-8245
▁Lîbiya	-8246
▁Tîrmeh	-8247
▁bişîne	-8248
▁kêşeya	-8249
▁nerîna	-8250
▁BERPIRS	-8251
▁cureyekî	-8252
▁kiryarên	-8253
▁komîteyê	-8254
▁kongreya	-8255
▁çandinîyê	-8256
▁dêrendazên	-8257
-2	-8258
ago	-8259
ezî	-8260
▁nî	-8261
odon	-8262
thus	-8263
▁Nîs	-8264
▁dat	-8265
▁qas	-8266
▁qes	-8267
ediyê	-8268
▁sûdê	-8269
▁Muham	-8270
▁gihîj	-8271
▁mecbûr	-8272
▁Huseyîn	-8273
▁helbestan	-8274
eki	-8275
rec	-8276
row	-8277
unî	-8278
▁38	-8279
tîne	-8280
▁Ven	-8281
▁dah	-8282
▁mîn	-8283
▁pop	-8284
▁sif	-8285
▁tab	-8286
▁wiz	-8287
▁zem	-8288
▁Alan	-8289
▁konf	-8290
▁sent	-8291
▁Debax	-8292
▁GIHIJ	-8293
▁Nêrwe	-8294
▁hewayê	-8295
▁nedaye	-8296
▁vegere	-8297
▁nivîskî	-8298
▁paytaxt	-8299
▁pûşperê	-8300
▁teknîkî	-8301
▁pasevanên	-8302
▁danûstandinan	-8303
ehm	-8304
rom	-8305
sar	-8306
uck	-8307
▁79	-8308
▁sî	-8309
etîk	-8310
icus	-8311
▁Des	-8312
▁Edî	-8313
▁Nik	-8314
▁Rex	-8315
▁Ten	-8316
▁jap	-8317
▁tal	-8318
opter	-8319
ûdîye	-8320
▁Beya	-8321
▁PJAK	-8322
▁cîhê	-8323
▁ayind	-8324
▁temen	-8325
▁îranî	-8326
▁Ebdurr	-8327
▁avrêlê	-8328
▁serket	-8329
▁nêrînên	-8330
▁komeleya	-8331
ita	-8332
zar	-8333
▁Bac	-8334
▁Zyg	-8335
▁nes	-8336
▁rap	-8337
▁tûr	-8338
▁Adar	-8339
▁DEWL	-8340
▁Hadî	-8341
▁Mafê	-8342
▁mill	-8343
▁[20:5	-8344
▁Cizîrî	-8345
▁Desteya	-8346
▁Spanyayê	-8347
▁kişandin	-8348
paratoriya	-8349
▁tomarkirin	-8350
▁Fraksiyonên	-8351
▁serperiştîya	-8352
6,	-8353
tz	-8354
çi	-8355
YAD	-8356
çin	-8357
êjê	-8358
▁37	-8359
▁ac	-8360
ivîn	-8361
orkê	-8362
wesa	-8363
▁Pis	-8364
▁qad	-8365
/2011	-8366
eyîya	-8367
▁1971	-8368
▁City	-8369
▁Tali	-8370
▁sazûm	-8371
▁tekoş	-8372
.08.2011	-8373
▁kurmanc	-8374
▁desthilatdariya	-8375
▁ن	-8376
▁îb	-8377
▁Gaz	-8378
▁Mün	-8379
▁hêl	-8380
▁nan	-8381
▁şop	-8382
▁1973	-8383
▁Mont	-8384
▁axif	-8385
▁carî	-8386
▁karb	-8387
▁DIKIN	-8388
▁Seyda	-8389
▁dabîn	-8390
▁qewimî	-8391
▁serdem	-8392
▁Amêdiyê	-8393
▁dazanîn	-8394
▁Xwarinên	-8395
▁Meşhedanî	-8396
59	-8397
?)	-8398
–1	-8399
ins	-8400
kal	-8401
nin	-8402
oga	-8403
▁49	-8404
tora	-8405
îşkî	-8406
▁kop	-8407
▁nûj	-8408
▁1972	-8409
▁Herî	-8410
▁Riza	-8411
▁ENDAM	-8412
▁[11:0	-8413
▁[15:5	-8414
▁refor	-8415
îtaniya	-8416
▁BAXDAD	-8417
▁Tewafu	-8418
▁beşeke	-8419
▁bêdeng	-8420
▁sêyemîn	-8421
▁êrîşeke	-8422
▁Ferhenga	-8423
▁Pêşangeh	-8424
▁komîteyên	-8425
▁berhemanîna	-8426
RÎT	-8427
▁CE	-8428
dewr	-8429
endê	-8430
jiya	-8431
▁Gun	-8432
▁Tol	-8433
▁ûêd	-8434
Cinsa	-8435
yemîn	-8436
▁Psîk	-8437
▁Zeng	-8438
▁ling	-8439
lingen	-8440
▁[13:3	-8441
▁[16:0	-8442
▁dariz	-8443
▁pênas	-8444
▁xwedê	-8445
▁Qahîre	-8446
▁rejîmê	-8447
▁texmîn	-8448
▁vexwar	-8449
▁serkird	-8450
▁kêmkirina	-8451
▁werbigire	-8452
▁xizmetguz	-8453
CO	-8454
var	-8455
yst	-8456
ûrd	-8457
▁kl	-8458
....	-8459
elli	-8460
ides	-8461
▁Los	-8462
▁1949	-8463
▁Sûre	-8464
▁amaj	-8465
▁aqil	-8466
▁ewil	-8467
▁hevs	-8468
▁rojî	-8469
▁Îmam	-8470
▁Aydin	-8471
▁cîhan	-8472
▁dahat	-8473
ayetiya	-8474
▁Yewnan	-8475
▁Derbarê	-8476
▁zîndanî	-8477
▁Krîstyan	-8478
▁Aswataliraq	-8479
afê	-8480
ahr	-8481
cer	-8482
gun	-8483
ikr	-8484
uan	-8485
utt	-8486
ûbî	-8487
Croc	-8488
▁Dor	-8489
▁Pêk	-8490
▁ras	-8491
▁Çil	-8492
ameya	-8493
eyand	-8494
▁DÎYA	-8495
▁Juli	-8496
▁masî	-8497
▁ÊRÎŞ	-8498
▁şano	-8499
ANDINA	-8500
komarê	-8501
▁Herêm	-8502
▁Seqiz	-8503
▁Yigit	-8504
▁baran	-8505
▁mêran	-8506
aliforn	-8507
▁Mêrdîn	-8508
▁Verlag	-8509
▁bihêle	-8510
▁didome	-8511
▁sîyaset	-8512
▁teqînan	-8513
▁veşartî	-8514
▁Kombesta	-8515
▁derkevin	-8516
▁rêkeftin	-8517
▁rûniştin	-8518
▁Abdusamet	-8519
▁nerazîbûn	-8520
▁rûniştinê	-8521
▁Weşanxaneya	-8522
▁xwepêşanderên	-8523
41	-8524
TO	-8525
ûh	-8526
▁−	-8527
eri	-8528
kur	-8529
deng	-8530
mehê	-8531
▁Ceh	-8532
▁Doz	-8533
▁Dur	-8534
▁Nov	-8535
▁hal	-8536
▁tak	-8537
ewset	-8538
▁DIVÊ	-8539
▁Psych	-8540
▁Şayes	-8541
istiyan	-8542
▁dijmin	-8543
▁dirust	-8544
▁giştiya	-8545
▁mizgeft	-8546
▁veguhez	-8547
▁firrgeha	-8548
▁Gurcistanê	-8549
ük	-8550
ERÊ	-8551
ebe	-8552
▁êl	-8553
canî	-8554
daye	-8555
▁Xid	-8556
▁sat	-8557
estiv	-8558
▁Jean	-8559
▁pile	-8560
eriyan	-8561
▁Erzir	-8562
▁Saint	-8563
▁[12:0	-8564
▁[12:1	-8565
▁devkî	-8566
▁nemir	-8567
▁sînem	-8568
▁tiştî	-8569
▁xilas	-8570
▁Spanya	-8571
▁hebûne	-8572
▁Şiwanî	-8573
▁prosesê	-8574
▁2,	-8575
yoyê	-8576
▁Ciw	-8577
▁Don	-8578
▁Mod	-8579
▁Tom	-8580
▁tom	-8581
▁Danî	-8582
▁Efrî	-8583
▁koka	-8584
▁sibe	-8585
▁Şemr	-8586
▁bikuj	-8587
maniyan	-8588
▁Misirî	-8589
▁avahiya	-8590
▁misoger	-8591
mn	-8592
kek	-8593
rîg	-8594
tîm	-8595
udî	-8596
▁Gü	-8597
▁Hu	-8598
Gund	-8599
▁Nap	-8600
▁Qad	-8601
▁bip	-8602
tirkî	-8603
▁Best	-8604
▁Evan	-8605
▁Sark	-8606
▁wusa	-8607
▁Norwê	-8608
▁QANÛN	-8609
▁[13:4	-8610
▁krîza	-8611
▁nerîn	-8612
▁Berdev	-8613
▁çêdike	-8614
▁Brîtanî	-8615
▁penaber	-8616
▁gelawêjê	-8617
▁mirovekî	-8618
▁pêşketin	-8619
▁çareserî	-8620
▁pirraniya	-8621
▁propagand	-8622
▁zivistanê	-8623
▁Demokrasîyê	-8624
▁Mezopotamya	-8625
ETÎ	-8626
uta	-8627
▁Cr	-8628
eben	-8629
▁Kiş	-8630
▁MIL	-8631
▁Mêz	-8632
▁Yun	-8633
▁ruh	-8634
andar	-8635
geran	-8636
îyayê	-8637
▁1966	-8638
▁here	-8639
▁mili	-8640
▁teor	-8641
▁turk	-8642
bariya	-8643
▁Ebbas	-8644
▁dengî	-8645
▁Ankara	-8646
▁hêsanî	-8647
▁milyar	-8648
▁strana	-8649
▁zîndanê	-8650
▁pêşhatên	-8651
▁wezaretê	-8652
▁neteweyên	-8653
▁nivîsîngeha	-8654
▁beyannameyekê	-8655
arş	-8656
mon	-8657
oda	-8658
yas	-8659
çer	-8660
▁Ga	-8661
▁teş	-8662
▁1919	-8663
▁1958	-8664
▁bibû	-8665
▁danê	-8666
▁folk	-8667
ayiyan	-8668
▁Bawer	-8669
▁Murad	-8670
▁aniye	-8671
▁atomê	-8672
▁dagîr	-8673
îkirinê	-8674
▁Beriya	-8675
▁Enqerê	-8676
▁Tirkan	-8677
▁cîgirê	-8678
▁zazakî	-8679
▁asayîşa	-8680
MEZ	-8681
ibê	-8682
ipp	-8683
zên	-8684
şem	-8685
▁Cl	-8686
▁ch	-8687
▁BAŞ	-8688
▁Hor	-8689
▁Kew	-8690
▁Kim	-8691
▁Mun	-8692
endan	-8693
▁Hêvî	-8694
▁Mens	-8695
▁Mich	-8696
▁Prof	-8697
▁Prot	-8698
▁parve	-8699
▁Eskerî	-8700
▁Thomas	-8701
lîyament	-8702
▁PETROLÊ	-8703
▁ramanên	-8704
▁pevçûnan	-8705
eserkirina	-8706
▁Waşington	-8707
▁beşdariya	-8708
▁berdewamîya	-8709
Ew	-8710
ûg	-8711
Hel	-8712
isi	-8713
asîm	-8714
ewrê	-8715
▁Dez	-8716
▁Gro	-8717
▁Pel	-8718
▁bêt	-8719
▁tam	-8720
▁1968	-8721
▁çûyî	-8722
▁Hasan	-8723
▁Partî	-8724
▁derva	-8725
▁Berlin	-8726
▁mezina	-8727
▁Komkara	-8728
▁bajarok	-8729
▁Germiyan	-8730
▁pêşkevtî	-8731
▁yekgirtî	-8732
▁Îtalyayê	-8733
▁derketine	-8734
▁xwendevanan	-8735
▁Helbestvanên	-8736
BIN	-8737
▁48	-8738
GIRÊ	-8739
mark	-8740
▁Nev	-8741
▁etn	-8742
▁niş	-8743
▁qut	-8744
areke	-8745
▁Ajan	-8746
▁Bend	-8747
▁EWLE	-8748
▁Kürt	-8749
▁Sine	-8750
▁gavê	-8751
gotina	-8752
▁AMADE	-8753
▁deman	-8754
▁Ebdulq	-8755
▁Erzîng	-8756
▁Etrûşî	-8757
▁carekê	-8758
▁komeke	-8759
▁madeya	-8760
▁atomîya	-8761
▁Şandeya	-8762
▁navkirin	-8763
▁berfirehî	-8764
▁nirxandin	-8765
▁saloxeger	-8766
▁pêşkevtinên	-8767
SN	-8768
uw	-8769
▁ر	-8770
gez	-8771
ild	-8772
xur	-8773
▁IN	-8774
ehwe	-8775
kura	-8776
▁Lît	-8777
▁rûx	-8778
▁Îzm	-8779
ENGEŞ	-8780
▁1963	-8781
▁DIJÎ	-8782
▁zinc	-8783
▁çapa	-8784
▁Bakûr	-8785
▁[14:3	-8786
▁[21:0	-8787
▁cemaw	-8788
▁xalan	-8789
nameyên	-8790
▁Enqere	-8791
▁GENGEŞ	-8792
▁roleke	-8793
▁Herêmên	-8794
▁giravên	-8795
▁LEŞKERÊN	-8796
▁rojavayî	-8797
▁girtîgehê	-8798
▁nakokîyên	-8799
▁terorîstên	-8800
GE	-8801
ino	-8802
niş	-8803
oşî	-8804
▁Şa	-8805
80%;	-8806
lack	-8807
▁Lav	-8808
▁Les	-8809
="140	-8810
▁mela	-8811
:180%;	-8812
▁helîk	-8813
▁spanî	-8814
indeyên	-8815
▁gellek	-8816
▁hilbij	-8817
▁kîlomet	-8818
▁nexweşî	-8819
▁qeyrana	-8820
▁serbazî	-8821
▁perwerdehiya	-8822
uv	-8823
PAR	-8824
ear	-8825
çek	-8826
îşî	-8827
▁5.	-8828
▁şî	-8829
beyê	-8830
ting	-8831
▁Bij	-8832
▁Nur	-8833
▁cel	-8834
▁1000	-8835
▁Bill	-8836
▁daku	-8837
artina	-8838
▁Hemîd	-8839
▁Necîb	-8840
▁Parîs	-8841
▁[12:4	-8842
▁deşta	-8843
▁ditir	-8844
▁zimên	-8845
▁derdor	-8846
▁giyanê	-8847
▁îslamî	-8848
.08.2012	-8849
▁Ewropayî	-8850
▁endamekî	-8851
▁ragehand	-8852
▁amadekirina	-8853
▁xwendekarên	-8854
jê	-8855
iwa	-8856
▁DÎ	-8857
▁Ki	-8858
▁tî	-8859
▁ÎT	-8860
idin	-8861
meha	-8862
▁Cer	-8863
▁HEY	-8864
▁Qir	-8865
▁Sûd	-8866
▁Urm	-8867
▁sad	-8868
▁Êzd	-8869
esazî	-8870
▁Kela	-8871
▁Sipî	-8872
kariyê	-8873
▁Civak	-8874
▁[10:3	-8875
▁[14:4	-8876
▁pişik	-8877
▁tebaxê	-8878
▁DEVERÊN	-8879
▁Xelîfan	-8880
▁kîmyayî	-8881
▁nirxand	-8882
▁Îmaratê	-8883
▁Israyelê	-8884
▁zêdebûna	-8885
▁bigihêjin	-8886
▁serokdewl	-8887
▁opozisyona	-8888
▁serhildanê	-8889
oo	-8890
ano	-8891
say	-8892
ved	-8893
ûma	-8894
▁Mc	-8895
encî	-8896
▁600	-8897
▁KRG	-8898
▁NEH	-8899
▁Qaz	-8900
▁mot	-8901
îyana	-8902
▁Herç	-8903
▁netew	-8904
▁taxên	-8905
▁Herîrî	-8906
▁Madrid	-8907
▁xaneya	-8908
▁Çelebî	-8909
▁êrişên	-8910
▁Meclîsa	-8911
▁Richard	-8912
▁Rêberên	-8913
▁pêngava	-8914
▁çêdikin	-8915
▁îngilîz	-8916
▁şîretkarê	-8917
▁Zygophyllum	-8918
▁hilawîstîyên	-8919
bey	-8920
iba	-8921
zem	-8922
alîz	-8923
ense	-8924
gira	-8925
îkîp	-8926
▁Jef	-8927
▁Xat	-8928
▁ceh	-8929
▁nor	-8930
erebî	-8931
▁abûr	-8932
▁rêza	-8933
▁xera	-8934
▁hêzan	-8935
▁riwek	-8936
▁aştîya	-8937
▁terxan	-8938
.02.2013	-8939
.09.2012	-8940
▁Muqteda	-8941
▁Xaneqîn	-8942
▁navberê	-8943
▁rastiyê	-8944
▁reşemiyê	-8945
▁pêşangeha	-8946
▁PARLIYAMENTÊ	-8947
uwe	-8948
▁Im	-8949
▁tur	-8950
▁1950	-8951
▁Begê	-8952
▁June	-8953
▁Xelf	-8954
▁gull	-8955
▁hevj	-8956
▁şert	-8957
ischen	-8958
îsyonê	-8959
▁Hozan	-8960
▁Seyid	-8961
▁[14:5	-8962
▁kongr	-8963
▁nehên	-8964
▁radig	-8965
▁Şivan	-8966
▁Bizava	-8967
▁kulîlk	-8968
▁qurban	-8969
▁kovarên	-8970
▁kêşeyên	-8971
▁maddeyê	-8972
▁Çarşembî	-8973
▁serokatîyê	-8974
▁xwedîkirina	-8975
IA	-8976
:10	-8977
bên	-8978
con	-8979
eck	-8980
eni	-8981
nal	-8982
oke	-8983
ukê	-8984
ûla	-8985
▁4-	-8986
▁Of	-8987
▁Wa	-8988
izil	-8989
▁BEH	-8990
▁Cap	-8991
▁Mex	-8992
▁Tîp	-8993
▁Yar	-8994
▁xez	-8995
▁Îsk	-8996
pêhat	-8997
ûpayê	-8998
▁1957	-8999
▁Lang	-9000
▁birr	-9001
girîya	-9002
nasiyê	-9003
▁Rêkan	-9004
▁nayên	-9005
▁Şêrko	-9006
▁bakura	-9007
▁danîna	-9008
▁dişîne	-9009
▁ezmona	-9010
▁kirîbû	-9011
▁Mexmûrê	-9012
▁rêbazên	-9013
▁Îsraîlî	-9014
▁çapemen	-9015
▁helbijar	-9016
▁Wêranşarê	-9017
▁Konferansa	-9018
▁zanyarîyên	-9019
▁PEYWENDÎYÊN	-9020
Br	-9021
yp	-9022
YAN	-9023
efs	-9024
jad	-9025
▁Ul	-9026
ated	-9027
inin	-9028
ique	-9029
xwar	-9030
▁EVÊ	-9031
▁Miş	-9032
▁Qet	-9033
îlîzî	-9034
▁1918	-9035
▁Meke	-9036
▁Oder	-9037
▁Pena	-9038
▁kinc	-9039
▁paye	-9040
darîya	-9041
▁Quranê	-9042
▁Siteya	-9043
▁hundir	-9044
▁tevger	-9045
.07.2012	-9046
▁amadeyî	-9047
Kurdistanê	-9048
▁Erzînganê	-9049
▁Ebdurrehman	-9050
▁pêşmergeyên	-9051
53	-9052
UN	-9053
tv	-9054
ón	-9055
dae	-9056
dol	-9057
http	-9058
▁11'	-9059
▁SIL	-9060
▁pîl	-9061
iyarê	-9062
iyeka	-9063
▁Amad	-9064
▁King	-9065
▁Yekê	-9066
▁neyê	-9067
endayê	-9068
▁Japon	-9069
▁Qerek	-9070
▁Swedê	-9071
▁[12:3	-9072
▁[12:5	-9073
▁dibûn	-9074
▁Şahîn	-9075
▁Atalay	-9076
▁ajalan	-9077
▁digere	-9078
▁metirs	-9079
▁girêdana	-9080
▁komîteyek	-9081
▁pişkinînan	-9082
▁rojnamevanên	-9083
ÎL	-9084
ARÎ	-9085
ope	-9086
▁("	-9087
▁Gi	-9088
▁MAD	-9089
▁PES	-9090
▁rên	-9091
▁înê	-9092
▁Fuad	-9093
▁Hêza	-9094
▁Tekn	-9095
▁ageh	-9096
▁pere	-9097
▁îroj	-9098
▁şarî	-9099
▁Adiye	-9100
▁GEREK	-9101
▁hikûm	-9102
▁îlona	-9103
▁Malper	-9104
▁Stefan	-9105
▁bizavê	-9106
▁tawana	-9107
.02.2012	-9108
▁Celadet	-9109
▁Duşembî	-9110
▁Michael	-9111
▁Midyadê	-9112
▁edebiya	-9113
▁quantum	-9114
▁zûtirîn	-9115
▁matematîk	-9116
▁çavkaniyên	-9117
▁xwepêşandana	-9118
;–	-9119
OŞ	-9120
ÇE	-9121
▁9'	-9122
eban	-9123
ogle	-9124
şîne	-9125
▁16'	-9126
▁DIR	-9127
▁Dab	-9128
▁Raf	-9129
▁Son	-9130
▁den	-9131
▁1964	-9132
▁DIBE	-9133
▁fars	-9134
▁Êzîd	-9135
xaneyan	-9136
▁QANÛNA	-9137
▁bûdceya	-9138
▁sazdana	-9139
▁standinan	-9140
▁Erebistana	-9141
▁pêşkêşkirina	-9142
PÊŞ	-9143
bec	-9144
ero	-9145
tep	-9146
BARÎ	-9147
furt	-9148
inia	-9149
urus	-9150
▁Cul	-9151
▁Xal	-9152
▁Şew	-9153
tator	-9154
Îraqê	-9155
îrana	-9156
▁BRÎT	-9157
▁EREB	-9158
▁para	-9159
▁Nasir	-9160
▁Family	-9161
▁GIHIJT	-9162
▁sînorî	-9163
▁şoreşê	-9164
▁bernama	-9165
▁digotin	-9166
▁guherîn	-9167
▁guncayî	-9168
▁mamoste	-9169
▁vegotin	-9170
▁Çiyayên	-9171
▁bigihêje	-9172
▁elektron	-9173
En	-9174
dig	-9175
lom	-9176
tal	-9177
ule	-9178
upa	-9179
ûbê	-9180
masî	-9181
▁All	-9182
▁Emr	-9183
▁Len	-9184
ahîyê	-9185
imanî	-9186
▁1961	-9187
▁metr	-9188
▁mêrê	-9189
▁wana	-9190
▁rêzên	-9191
▁şekir	-9192
▁Bakûrê	-9193
▁tevlîh	-9194
▁yekalî	-9195
▁Charles	-9196
▁ŞANDEYA	-9197
▁Koreyaya	-9198
▁ewlehîyê	-9199
▁Şahmaran	-9200
▁Pakîstanê	-9201
▁çandiniyê	-9202
▁pêşkevtina	-9203
▁diristkirin	-9204
%"	-9205
VE	-9206
kr	-9207
-10	-9208
ese	-9209
dike	-9210
inae	-9211
▁Est	-9212
▁Web	-9213
▁Xar	-9214
▁fon	-9215
idura	-9216
▁demî	-9217
▁deşt	-9218
▁rêve	-9219
▁xerc	-9220
▁Xesro	-9221
▁[12:2	-9222
▁[15:4	-9223
▁wextê	-9224
▁merasî	-9225
▁nifûsa	-9226
▁ÇEKDAR	-9227
▁Turkîya	-9228
▁berhemê	-9229
▁Sûrîyeyê	-9230
▁helbesta	-9231
▁Hevserokê	-9232
▁destpêkir	-9233
▁rawestandina	-9234
▁Ti	-9235
îjad	-9236
▁Mob	-9237
▁Tet	-9238
▁Tra	-9239
▁Belg	-9240
▁Berg	-9241
▁Tend	-9242
▁from	-9243
▁hiqû	-9244
▁horm	-9245
▁şehr	-9246
▁(1928	-9247
▁Cezay	-9248
▁KURDÎ	-9249
▁[13:5	-9250
▁agirê	-9251
▁raman	-9252
girtûya	-9253
▁Ermenî	-9254
▁fîlmên	-9255
▁qedand	-9256
▁Daxwaza	-9257
▁Berdewam	-9258
▁Sovyetan	-9259
▁dinivîse	-9260
▁avakirinê	-9261
▁navçeyeke	-9262
▁otomobîla	-9263
▁DAXWAZKIRÎ	-9264
▁kongireyek	-9265
▁misilmanan	-9266
BB	-9267
KA	-9268
ech	-9269
hof	-9270
lob	-9271
▁BU	-9272
▁îh	-9273
▁îş	-9274
▁con	-9275
▁sum	-9276
edewl	-9277
imanê	-9278
▁1955	-9279
▁Miss	-9280
▁Slov	-9281
▁gewr	-9282
▁çaxê	-9283
berhên	-9284
hatinê	-9285
îkolog	-9286
▁IRAQÎ	-9287
▁REWŞA	-9288
▁Turkî	-9289
▁Zarok	-9290
▁bipêş	-9291
▁hizre	-9292
▁Çanda	-9293
exaneyê	-9294
▁SIYASÎ	-9295
▁masûlk	-9296
.01.2012	-9297
▁Turkman	-9298
▁deryayî	-9299
▁Xanedana	-9300
▁Komkujiya	-9301
▁dadwerîyê	-9302
▁hunermendê	-9303
▁beyannameya	-9304
▁42	-9305
-201	-9306
erin	-9307
olis	-9308
▁lîs	-9309
▁Giya	-9310
▁Main	-9311
▁rêka	-9312
▁tije	-9313
▁warî	-9314
▁zana	-9315
▁Harry	-9316
▁[13:1	-9317
▁Bazirg	-9318
▁XWEPÊŞ	-9319
▁awarte	-9320
▁qezenc	-9321
▁şerekî	-9322
.12.2012	-9323
▁cureyek	-9324
▁serxweş	-9325
▁HUKÛMETÊ	-9326
▁bilindên	-9327
▁axaftinên	-9328
▁leşkerîya	-9329
55	-9330
êh	-9331
nis	-9332
îvî	-9333
ista	-9334
▁Nez	-9335
▁UTC	-9336
▁har	-9337
▁mac	-9338
▁Stêr	-9339
▁tîpa	-9340
▁xala	-9341
ipedia	-9342
▁Husnî	-9343
▁[14:0	-9344
▁beşan	-9345
▁digeh	-9346
▁şunda	-9347
▁gelêrî	-9348
▁hinekê	-9349
▁nimûne	-9350
▁nirxên	-9351
▁xebitî	-9352
.07.2011	-9353
.10.2012	-9354
▁azadîya	-9355
▁bername	-9356
▁gotinan	-9357
▁zanistê	-9358
▁lêkolîna	-9359
▁AMERÎKAYÎ	-9360
▁hevdîtina	-9361
In	-9362
bal	-9363
roz	-9364
til	-9365
vîn	-9366
ÇÎR	-9367
ûsî	-9368
▁sû	-9369
WEST	-9370
aban	-9371
kest	-9372
▁Cum	-9373
▁Lou	-9374
▁Pêr	-9375
▁Bard	-9376
▁Leon	-9377
▁Mirg	-9378
▁Opoz	-9379
▁Rays	-9380
▁dîya	-9381
ariyan	-9382
▁**039	-9383
▁Sunnî	-9384
▁[15:3	-9385
▁didan	-9386
▁nîvro	-9387
▁Îdirê	-9388
mendiya	-9389
teçîrok	-9390
▁Hatine	-9391
▁nemaye	-9392
▁weşand	-9393
▁Turkiyê	-9394
▁aboriya	-9395
▁budceyê	-9396
▁nexwezt	-9397
▁Melediyê	-9398
▁baregehê	-9399
▁karanîna	-9400
▁konferen	-9401
▁giringîya	-9402
▁guherînên	-9403
▁Şîretkarê	-9404
▁rojnameger	-9405
▁tendiristîyê	-9406
ÊR	-9407
uşt	-9408
ûsk	-9409
▁fî	-9410
▁ps	-9411
ejna	-9412
ofer	-9413
▁Doğ	-9414
▁Hîl	-9415
▁riz	-9416
▁zoz	-9417
▁şax	-9418
▁1947	-9419
▁Love	-9420
▁Pehl	-9421
▁liqa	-9422
▁şahê	-9423
ÇÎRVAN	-9424
▁Annan	-9425
▁CELAL	-9426
▁sîvîl	-9427
▁Berder	-9428
▁nebûna	-9429
▁digerin	-9430
Crocidura	-9431
▁RÊKEVTIN	-9432
▁damezrên	-9433
▁giştpirs	-9434
▁osmaniyan	-9435
▁Şemzînanê	-9436
▁rêkevtinên	-9437
:30	-9438
gre	-9439
kiş	-9440
mun	-9441
ois	-9442
▁Ox	-9443
akan	-9444
amin	-9445
dinî	-9446
etta	-9447
kert	-9448
▁Dec	-9449
▁SED	-9450
▁xaç	-9451
▁corê	-9452
▁çerç	-9453
girava	-9454
▁bilêv	-9455
▁şerên	-9456
▁Binêre	-9457
▁Facebo	-9458
▁Oderno	-9459
▁bîyanî	-9460
▁dijber	-9461
.03.2012	-9462
.11.2012	-9463
▁amadebû	-9464
▁girîngî	-9465
▁Çîrokên	-9466
▁NÊÇÎRVAN	-9467
▁Navnetewî	-9468
▁konferans	-9469
▁nenaskirî	-9470
mi	-9471
erz	-9472
olo	-9473
png	-9474
Fran	-9475
çiyê	-9476
îner	-9477
▁nêç	-9478
▁sîr	-9479
ekoma	-9480
mendî	-9481
îstîk	-9482
▁Alex	-9483
▁ROJA	-9484
▁rolê	-9485
ewerên	-9486
▁Kanad	-9487
▁daran	-9488
▁Ferhad	-9489
▁hewlên	-9490
.06.2011	-9491
▁Sîstanî	-9492
▁xwarina	-9493
▁çîrokan	-9494
▁Fîlozofên	-9495
▁televîzyonê	-9496
yc	-9497
EKE	-9498
ahn	-9499
rok	-9500
rîs	-9501
wêş	-9502
elat	-9503
erîb	-9504
ları	-9505
▁Alt	-9506
▁cew	-9507
▁kun	-9508
▁îde	-9509
nasên	-9510
zeran	-9511
▁Kawe	-9512
ikirin	-9513
▁[13:0	-9514
▁forma	-9515
▁Netewî	-9516
▁hertim	-9517
▁Dewletê	-9518
▁firotin	-9519
▁nexwest	-9520
▁raporta	-9521
▁berbiçav	-9522
▁rageyand	-9523
▁veşartin	-9524
▁destkevtên	-9525
▁werbigirin	-9526
▁çarenivîsa	-9527
▁nexweşxaneyê	-9528
▁siyasetmedar	-9529
Erd	-9530
bol	-9531
diz	-9532
pen	-9533
tev	-9534
▁ELÎ	-9535
▁Muk	-9536
▁hêş	-9537
▁qat	-9538
emaya	-9539
▁Tişt	-9540
▁amûrên	-9541
▁hunerê	-9542
▁têkili	-9543
▁wateyê	-9544
▁desthel	-9545
▁ElşerqEl	-9546
▁weberhên	-9547
▁Adiyemanê	-9548
▁Festîvala	-9549
▁belavbûna	-9550
▁qebûlkirin	-9551
▁rêkxistina	-9552
▁topbarankirina	-9553
''	-9554
="4	-9555
eşe	-9556
dafî	-9557
oğlu	-9558
ranê	-9559
▁Qon	-9560
▁Sîl	-9561
▁Zir	-9562
▁erê	-9563
▁raw	-9564
▁tay	-9565
▁êşk	-9566
asiya	-9567
▁Ober	-9568
▁Taha	-9569
▁asîm	-9570
▁hata	-9571
▁heke	-9572
▁kese	-9573
▁koda	-9574
▁saya	-9575
▁[13:2	-9576
▁[14:1	-9577
▁dihew	-9578
▁hikum	-9579
▁Awistr	-9580
▁bazara	-9581
▁bondên	-9582
▁Şêrwan	-9583
▁Ewlekar	-9584
▁Herwekî	-9585
▁Hekariyê	-9586
▁Pêxember	-9587
▁amerîkan	-9588
▁ewledarî	-9589
▁girêbest	-9590
▁parlemanê	-9591
▁quşxaneyê	-9592
▁çapameniyê	-9593
Le	-9594
▁ت	-9595
kut	-9596
ûnên	-9597
▁10'	-9598
▁Hiş	-9599
▁mîk	-9600
▁siw	-9601
engên	-9602
iyara	-9603
kirên	-9604
▁Komp	-9605
▁Mart	-9606
▁Musa	-9607
▁Pent	-9608
▁lawê	-9609
▁sirû	-9610
tenavê	-9611
▁Emmar	-9612
▁metir	-9613
▁Seddam	-9614
▁bibêje	-9615
▁gîyanê	-9616
▁şanoyê	-9617
.01.2013	-9618
▁radigîh	-9619
▁parêzgeh	-9620
▁tevgerên	-9621
TE	-9622
▁ع	-9623
RAY	-9624
cem	-9625
hur	-9626
ifa	-9627
▁(0	-9628
▁4'	-9629
Turk	-9630
dîye	-9631
eynê	-9632
leri	-9633
▁Diz	-9634
▁Feh	-9635
▁rûp	-9636
▁tec	-9637
aliyê	-9638
ester	-9639
nijad	-9640
tîyên	-9641
▁Meng	-9642
▁derî	-9643
▁hêzê	-9644
▁with	-9645
ketina	-9646
▁Elewî	-9647
▁Qesra	-9648
▁Xelef	-9649
▁pêşnî	-9650
▁Sovyet	-9651
▁ZÊBARÎ	-9652
▁konser	-9653
▁Bedlîsê	-9654
▁Dîmeşqê	-9655
▁biguher	-9656
▁xwezayê	-9657
▁didomîne	-9658
▁gundiyan	-9659
▁nivîsiye	-9660
▁nexweşiyên	-9661
▁Parlamenterê	-9662
KSS	-9663
▁7'	-9664
▁Bl	-9665
▁Mû	-9666
ater	-9667
etek	-9668
kujî	-9669
sayî	-9670
▁FRA	-9671
▁Yay	-9672
▁cen	-9673
▁dey	-9674
▁nar	-9675
▁sîm	-9676
▁Baba	-9677
▁Edîb	-9678
▁Gurg	-9679
▁bûrî	-9680
▁hola	-9681
▁navn	-9682
▁nîşt	-9683
▁xira	-9684
ewiyan	-9685
▁Heskî	-9686
▁bixeb	-9687
▁bêhem	-9688
▁dawîn	-9689
▁rahên	-9690
▁Newroz	-9691
▁hatibe	-9692
▁kovarê	-9693
▁sekret	-9694
▁zarokê	-9695
▁xistiye	-9696
alifornia	-9697
▁gotarekê	-9698
▁nehiştina	-9699
▁Parliyamenta	-9700
▁rojnamevanîya	-9701
bat	-9702
ibn	-9703
raz	-9704
▁59	-9705
▁Kü	-9706
▁İs	-9707
bêra	-9708
idea	-9709
urên	-9710
▁DAD	-9711
▁Ein	-9712
▁Joh	-9713
▁Wêj	-9714
▁biy	-9715
▁leş	-9716
ayetî	-9717
dikin	-9718
warên	-9719
▁gaza	-9720
ûriyan	-9721
▁Baran	-9722
▁Heval	-9723
▁piştê	-9724
▁Şerîf	-9725
evanîya	-9726
▁Associ	-9727
▁Dixwaz	-9728
▁Teyran	-9729
▁bigrin	-9730
▁nebûne	-9731
▁zewicî	-9732
▁Leşkerî	-9733
▁Paytext	-9734
▁bisekinê	-9735
▁serexweş	-9736
▁çalakiya	-9737
▁BRÎTANIYA	-9738
▁perliyament	-9739
II	-9740
its	-9741
oye	-9742
▁AŞ	-9743
▁Pu	-9744
▁aq	-9745
kray	-9746
▁Air	-9747
▁Sci	-9748
▁şêr	-9749
ewîce	-9750
landa	-9751
▁(189	-9752
▁Beha	-9753
▁Berz	-9754
▁Karê	-9755
▁berz	-9756
▁cend	-9757
▁koça	-9758
▁milê	-9759
▁Alîyê	-9760
▁FRAKS	-9761
▁Yorkê	-9762
▁hildi	-9763
▁şîrov	-9764
▁cihanê	-9765
▁herrif	-9766
▁Pirranî	-9767
▁derbasê	-9768
▁siyasetê	-9769
▁parlemana	-9770
▁tendurist	-9771
▁têkeliyên	-9772
▁hevwelatîyek	-9773
▁rêkevtinnameya	-9774
BDP	-9775
ING	-9776
nos	-9777
pên	-9778
ste	-9779
▁6.	-9780
▁AP	-9781
elle	-9782
▁Dok	-9783
▁Wex	-9784
▁heq	-9785
▁sûc	-9786
ayeke	-9787
îkarê	-9788
▁1939	-9789
▁1962	-9790
▁EYAD	-9791
▁KONS	-9792
▁Kamp	-9793
▁Kart	-9794
▁Lady	-9795
▁Soci	-9796
▁Unit	-9797
▁ankû	-9798
▁xeya	-9799
▁Ceger	-9800
▁Mehma	-9801
▁Qoret	-9802
▁[10:2	-9803
▁arast	-9804
▁endaz	-9805
▁qewim	-9806
▁ketina	-9807
▁rastîn	-9808
▁rêbaza	-9809
▁tuneye	-9810
▁zanîna	-9811
▁Polîsên	-9812
▁azadiyê	-9813
▁şehîdên	-9814
▁Endamekî	-9815
▁agahdarî	-9816
▁helwêsta	-9817
▁penaberan	-9818
▁xwendekar	-9819
▁paşxistina	-9820
▁rêkevtinekê	-9821
▁veguhastina	-9822
ور	-9823
HIL	-9824
ani	-9825
ose	-9826
pol	-9827
şîn	-9828
▁8'	-9829
▁Tî	-9830
▁Îz	-9831
enta	-9832
▁Elb	-9833
▁Kay	-9834
▁PAŞ	-9835
▁SÎN	-9836
▁Xiz	-9837
▁fot	-9838
▁fêm	-9839
▁kez	-9840
▁laz	-9841
▁neq	-9842
▁pad	-9843
ANDAN	-9844
IMANÎ	-9845
gehîn	-9846
▁Sunn	-9847
giriya	-9848
vanekî	-9849
▁Celîl	-9850
▁Jixwe	-9851
▁Jêrîn	-9852
▁[15:2	-9853
▁gelan	-9854
▁komar	-9855
▁Almanî	-9856
▁Erdhej	-9857
▁Japanê	-9858
▁dîtine	-9859
▁Kişanak	-9860
▁bizanin	-9861
▁naskirî	-9862
▁sermaye	-9863
▁Navdarên	-9864
▁wîlayeta	-9865
▁werdigire	-9866
▁xwendevan	-9867
▁ElşerqElewset	-9868
▁parlamenterên	-9869
civ	-9870
▁AN	-9871
atîf	-9872
egen	-9873
▁14'	-9874
▁Ges	-9875
▁Jon	-9876
▁emê	-9877
▁por	-9878
▁şex	-9879
îtîya	-9880
îyara	-9881
▁1956	-9882
▁Dary	-9883
▁Riha	-9884
▁Tevî	-9885
▁xola	-9886
Amerîk	-9887
▁Polat	-9888
▁Sedir	-9889
▁[15:0	-9890
▁darên	-9891
▁derew	-9892
▁xweşî	-9893
▁îlonê	-9894
▁Feqiyê	-9895
▁aşkera	-9896
▁dişibe	-9897
▁Serdema	-9898
▁Biyolojî	-9899
▁nêvdewletî	-9900
xî	-9901
yi	-9902
ÎD	-9903
▁ه	-9904
ake	-9905
êrm	-9906
▁``	-9907
▁zu	-9908
asal	-9909
bixw	-9910
▁Mol	-9911
▁ing	-9912
▁olê	-9913
▁sew	-9914
▁Ûrm	-9915
aziya	-9916
▁Temo	-9917
▁gelo	-9918
▁rijd	-9919
▁şadî	-9920
▁978-3	-9921
▁bexşa	-9922
▁xelîf	-9923
▁Sersin	-9924
▁Tehran	-9925
▁bendên	-9926
▁gendel	-9927
▁girift	-9928
▁kerest	-9929
.12.2011	-9930
▁Talîban	-9931
▁derdixe	-9932
▁erdhejê	-9933
▁hoşdarî	-9934
▁rêzefîl	-9935
▁veguhaz	-9936
▁Afrîkaya	-9937
▁hejmartin	-9938
▁belavkirina	-9939
▁investkarîyê	-9940
EYN	-9941
ush	-9942
ûtî	-9943
aker	-9944
anga	-9945
▁17'	-9946
▁Dîv	-9947
▁Niz	-9948
▁têg	-9949
▁Çap	-9950
erîya	-9951
▁Bell	-9952
▁Heke	-9953
▁SILÊ	-9954
▁gola	-9955
▁keyê	-9956
▁raye	-9957
ilîzan	-9958
▁Jiber	-9959
▁Riwek	-9960
▁cihan	-9961
▁Anatol	-9962
▁pêşkef	-9963
▁rûviya	-9964
.04.2012	-9965
.05.2012	-9966
▁Tengava	-9967
▁bişînin	-9968
▁riwekên	-9969
▁NIŞTIMANÎ	-9970
▁kevneşopî	-9971
▁leşkerekî	-9972
▁daxuyanîya	-9973
▁dibistanên	-9974
▁parlîyament	-9975
▁gengeşekirina	-9976
mut	-9977
rar	-9978
▁(2	-9979
▁Çi	-9980
▁*06	-9981
▁18'	-9982
▁Cab	-9983
▁CÎH	-9984
▁Tîm	-9985
▁Ziv	-9986
▁req	-9987
eftar	-9988
xweyî	-9989
▁1921	-9990
▁1948	-9991
▁Engl	-9992
▁dînî	-9993
▁mîrê	-9994
emberê	-9995
yariya	-9996
▁Biçûk	-9997
▁biken	-9998
▁derûn	-9999
▁ewqas	-10000
▁şûnde	-10001
▁Lîstik	-10002
▁jidest	-10003
▁kevtin	-10004
.05.2011	-10005
▁Francis	-10006
▁Netewên	-10007
▁gerdûnê	-10008
▁alikariya	-10009
▁dewleteke	-10010
▁zaravayên	-10011
▁dabeşkirin	-10012
än	-10013
Pir	-10014
awê	-10015
mes	-10016
sun	-10017
▁LÊ	-10018
▁Bag	-10019
▁DYE	-10020
▁Ern	-10021
▁Neq	-10022
▁NÊZ	-10023
▁Rep	-10024
▁esp	-10025
▁pûç	-10026
▁seh	-10027
▁sît	-10028
▁zeb	-10029
other	-10030
▁Kawa	-10031
▁Kerk	-10032
▁bext	-10033
▁mayî	-10034
▁Şotê	-10035
barana	-10036
enbach	-10037
▁Qeter	-10038
▁Bexdad	-10039
▁bereya	-10040
▁giyanî	-10041
▁ronahî	-10042
▁cudayên	-10043
▁endaman	-10044
▁xistine	-10045
▁sîyaseta	-10046
▁dinirxîne	-10047
▁komkujiya	-10048
▁pêşinyara	-10049
▁terorizmê	-10050
▁Bizavkarên	-10051
AW	-10052
Ch	-10053
EFA	-10054
Kur	-10055
eşî	-10056
inn	-10057
▁43	-10058
▁Fo	-10059
▁lo	-10060
alek	-10061
omên	-10062
▁Lan	-10063
▁Weq	-10064
▁kap	-10065
▁têt	-10066
▁Înê	-10067
danan	-10068
▁DENG	-10069
▁Reza	-10070
▁Serb	-10071
▁Sirû	-10072
▁YKSS	-10073
▁awaz	-10074
▁taxê	-10075
▁çaks	-10076
▁Şemo	-10077
▁Aslan	-10078
▁KOMÎT	-10079
▁Simko	-10080
▁bibîr	-10081
▁birîn	-10082
▁havêj	-10083
▁henas	-10084
▁metre	-10085
xormato	-10086
▁Hewîce	-10087
▁Parlam	-10088
▁nîsana	-10089
▁ziyanê	-10090
▁Şingal	-10091
▁Mêzgirê	-10092
▁ciwanên	-10093
▁peymanê	-10094
▁Almaniyayî	-10095
▁beyannameyê	-10096
▁gengeşekirin	-10097
DD	-10098
so	-10099
ude	-10100
BAMA	-10101
DEYA	-10102
işte	-10103
niya	-10104
qolî	-10105
reta	-10106
îtên	-10107
▁NIH	-10108
▁Naw	-10109
▁Rûp	-10110
▁ked	-10111
▁sav	-10112
▁çîn	-10113
ayiya	-10114
▁1940	-10115
▁Vlad	-10116
▁back	-10117
▁balê	-10118
▁Êzdî	-10119
▁Flora	-10120
▁OBAMA	-10121
▁Peyva	-10122
▁[14:2	-10123
▁wesif	-10124
▁Romayê	-10125
▁hatiya	-10126
▁peyamn	-10127
▁wergêr	-10128
▁xweşik	-10129
▁Navbera	-10130
▁bindest	-10131
▁nehêlin	-10132
▁heywanan	-10133
▁Parlement	-10134
▁Stockholm	-10135
▁geşkirina	-10136
▁derbasbûna	-10137
▁qurbanîyan	-10138
▁pêşwazîkirin	-10139
ni	-10140
ست	-10141
ark	-10142
cew	-10143
mus	-10144
tîn	-10145
zmê	-10146
▁Aj	-10147
zade	-10148
îtal	-10149
▁MES	-10150
▁PRO	-10151
▁Piş	-10152
▁Sid	-10153
▁Xor	-10154
▁Xoş	-10155
▁Yaş	-10156
▁Zor	-10157
▁bey	-10158
▁nun	-10159
eniyê	-10160
▁Erdê	-10161
▁Hans	-10162
▁Mili	-10163
▁Qayî	-10164
▁Şeng	-10165
▁Georg	-10166
▁mesel	-10167
▁Lîceyê	-10168
▁Stewrê	-10169
▁bihorî	-10170
▁kiryar	-10171
▁mirovê	-10172
▁sîstem	-10173
.09.2011	-10174
▁kevtine	-10175
▁parliya	-10176
▁sebaret	-10177
▁baregeha	-10178
▁dosyayên	-10179
▁Parêzgarê	-10180
▁berxwedana	-10181
▁otomobîleka	-10182
AP	-10183
AV	-10184
▁?	-10185
gur	-10186
otî	-10187
ous	-10188
pet	-10189
wên	-10190
inus	-10191
otan	-10192
▁Suh	-10193
▁maz	-10194
▁pex	-10195
attîn	-10196
giran	-10197
▁1953	-10198
▁Elkê	-10199
▁Film	-10200
▁Gord	-10201
▁Papa	-10202
▁buye	-10203
▁dirû	-10204
herêma	-10205
▁Fadil	-10206
▁raper	-10207
▁xweda	-10208
▁zêdet	-10209
▁Dêrsim	-10210
▁dervey	-10211
▁pêşbaz	-10212
▁şirove	-10213
.01.2011	-10214
▁Windows	-10215
▁navbeyn	-10216
▁rabigih	-10217
▁Fransayî	-10218
▁derfetên	-10219
▁dilgiran	-10220
▁herêmeke	-10221
▁pirtûkan	-10222
▁rakirina	-10223
▁rexneyên	-10224
▁Îslamîya	-10225
▁Xwenîşand	-10226
▁pêşveçûnên	-10227
▁çareserîya	-10228
-7	-10229
=1	-10230
ÎM	-10231
ANE	-10232
oft	-10233
bînî	-10234
eyaz	-10235
eşîr	-10236
icum	-10237
îdên	-10238
▁160	-10239
▁Ayd	-10240
▁Haf	-10241
▁nax	-10242
▁ted	-10243
▁Camp	-10244
▁tesl	-10245
▁îmze	-10246
iyaret	-10247
weşîne	-10248
▁Beşîr	-10249
▁Medya	-10250
▁POSTA	-10251
▁Sadiq	-10252
▁gefên	-10253
▁jorîn	-10254
▁mijûl	-10255
▁tirsa	-10256
▁xweya	-10257
▁çarem	-10258
dewrîye	-10259
▁herkes	-10260
vebirina	-10261
▁ENDAMÊN	-10262
▁GENGEŞE	-10263
▁navbêra	-10264
▁radyoya	-10265
▁Cegerxwîn	-10266
▁lêpirsînê	-10267
▁nexweşîya	-10268
▁rasterast	-10269
▁firehnijad	-10270
],	-10271
hl	-10272
}{	-10273
FER	-10274
sûn	-10275
▁44	-10276
▁52	-10277
▁7.	-10278
▁EH	-10279
asîf	-10280
dane	-10281
ehir	-10282
iler	-10283
▁Dum	-10284
▁Eng	-10285
▁Lam	-10286
▁Ner	-10287
▁Xem	-10288
▁kas	-10289
▁kiç	-10290
▁vîd	-10291
edînê	-10292
ometr	-10293
tinan	-10294
▁Brit	-10295
▁Memê	-10296
▁Time	-10297
▁sirg	-10298
▁çînî	-10299
▁Armen	-10300
▁Sedam	-10301
▁bersî	-10302
▁bijîn	-10303
▁gulan	-10304
▁nimûn	-10305
▁radyo	-10306
▁Fizîkê	-10307
▁Lêbelê	-10308
▁Serdar	-10309
▁ewropî	-10310
▁tebaxa	-10311
▁termên	-10312
▁tevayî	-10313
▁Elmanya	-10314
▁Jêderên	-10315
▁Melkert	-10316
▁helwêst	-10317
▁kolanan	-10318
▁samanên	-10319
▁zanyarî	-10320
Tirkiyeyê	-10321
▁berbijar	-10322
▁diparêze	-10323
▁malperên	-10324
▁dibistanan	-10325
▁hilweşandin	-10326
NI	-10327
PKK	-10328
bia	-10329
reg	-10330
rîk	-10331
▁6'	-10332
▁Wh	-10333
▁fe	-10334
▁ob	-10335
frac	-10336
îsta	-10337
▁Baw	-10338
▁Dij	-10339
▁Pay	-10340
▁Rêk	-10341
▁bêr	-10342
BARAN	-10343
ifoli	-10344
▁haya	-10345
▁qeyd	-10346
▁Îmad	-10347
meqamê	-10348
▁Jorîn	-10349
kirîyan	-10350
▁Dîwana	-10351
▁Lîtvan	-10352
▁Mîranî	-10353
▁Siltan	-10354
▁Sultan	-10355
▁jimara	-10356
▁şikest	-10357
▁Atatürk	-10358
▁Radyoya	-10359
▁alîkarê	-10360
▁armancê	-10361
▁biharbê	-10362
▁Pakistan	-10363
▁standard	-10364
▁Kuridstanê	-10365
▁federedewl	-10366
TLD	-10367
yîn	-10368
êlê	-10369
▁41	-10370
▁bı	-10371
arag	-10372
ewar	-10373
▁Ama	-10374
▁Ket	-10375
▁Pên	-10376
▁hed	-10377
▁mêş	-10378
▁raz	-10379
▁Çim	-10380
thera	-10381
▁HEFT	-10382
▁niya	-10383
▁serl	-10384
▁*****	-10385
▁Diyar	-10386
▁Milaz	-10387
▁Sibat	-10388
▁Sindî	-10389
▁betal	-10390
▁bihev	-10391
▁mekan	-10392
▁Kaniyê	-10393
▁PÊŞMER	-10394
▁Qanûna	-10395
▁bombên	-10396
▁hevpiş	-10397
▁jiyaye	-10398
▁jîyanê	-10399
▁nameyê	-10400
▁namzed	-10401
▁CIHGIRÊ	-10402
▁Biratîya	-10403
▁Pêşmerge	-10404
▁binemala	-10405
▁festîvala	-10406
▁Diyarbekir	-10407
▁Ebdulqadir	-10408
▁otomobîlên	-10409
▁HILBIJARTINÊN	-10410
▁taybetmendiyên	-10411
AS	-10412
Ph	-10413
asp	-10414
esî	-10415
eyh	-10416
rog	-10417
ull	-10418
alet	-10419
chus	-10420
efir	-10421
ffdd	-10422
ifra	-10423
jîyê	-10424
tewe	-10425
▁Hot	-10426
▁pêr	-10427
areka	-10428
irîne	-10429
panya	-10430
▁1941	-10431
▁ELLA	-10432
▁Futb	-10433
▁bers	-10434
ISTANÊ	-10435
▁Wîkîp	-10436
▁abûrî	-10437
▁Google	-10438
▁Serxwe	-10439
▁binêre	-10440
▁hevalê	-10441
▁xemgîn	-10442
▁çêbûye	-10443
▁WEZÎRÊN	-10444
▁Mihemedê	-10445
▁dixwazim	-10446
▁kandîdên	-10447
▁meşandin	-10448
▁Helbestvan	-10449
▁Jînenîgarî	-10450
▁bikartînin	-10451
▁rewşenbîrên	-10452
▁berjewendiyên	-10453
NE	-10454
▁»	-10455
▁ا	-10456
Elî	-10457
aşê	-10458
fên	-10459
lig	-10460
ûrt	-10461
▁Id	-10462
AŞIM	-10463
form	-10464
▁(20	-10465
▁21'	-10466
▁Tun	-10467
▁Xwê	-10468
lenda	-10469
ology	-10470
îroka	-10471
▁1929	-10472
▁1938	-10473
▁Ayet	-10474
▁kire	-10475
▁list	-10476
▁rêkê	-10477
▁Dolar	-10478
▁Linux	-10479
▁NÊZÎK	-10480
▁bêjin	-10481
▁dirûş	-10482
▁pelên	-10483
▁pîvana	-10484
▁zêdeyî	-10485
▁Kerbela	-10486
▁paraztin	-10487
▁teqandin	-10488
▁felsefeyê	-10489
▁pêşketinên	-10490
▁parlamenter	-10491
MB	-10492
Bar	-10493
dim	-10494
dit	-10495
gam	-10496
îva	-10497
▁69	-10498
▁Bî	-10499
▁Lu	-10500
▁Pe	-10501
▁ST	-10502
Dest	-10503
SIYA	-10504
alik	-10505
cens	-10506
eyin	-10507
meya	-10508
part	-10509
▁Cha	-10510
▁Jer	-10511
▁Keş	-10512
▁Mul	-10513
▁Not	-10514
▁Orş	-10515
▁Qef	-10516
▁TRT	-10517
▁lêd	-10518
▁canê	-10519
▁tayî	-10520
▁tora	-10521
îyanên	-10522
▁2004'	-10523
▁Digel	-10524
▁cîbic	-10525
▁demkî	-10526
▁nedin	-10527
▁zûtir	-10528
▁(2011)	-10529
▁ELLAWÎ	-10530
▁Hesenê	-10531
▁Japonê	-10532
▁hildan	-10533
▁Bingeha	-10534
▁Kombûna	-10535
▁Fizîknas	-10536
▁PÊKANÎNA	-10537
▁astronom	-10538
▁giringên	-10539
▁Hizbullah	-10540
▁RÊKEVTINA	-10541
▁pêzanînan	-10542
▁împerator	-10543
▁diplomatîk	-10544
▁operasyonekî	-10545
54	-10546
ls	-10547
rs	-10548
▁—	-10549
99%	-10550
ied	-10551
iza	-10552
now	-10553
ulu	-10554
▁2'	-10555
▁gu	-10556
▁şi	-10557
azir	-10558
erap	-10559
eton	-10560
kson	-10561
▁Ann	-10562
▁Apr	-10563
▁buy	-10564
▁gum	-10565
▁rik	-10566
▁HEMÛ	-10567
▁Oper	-10568
▁Sind	-10569
▁çavê	-10570
ddffdd	-10571
▁Deniz	-10572
▁Usame	-10573
▁azerî	-10574
▁dinav	-10575
▁kulîl	-10576
▁Beyatî	-10577
▁Cizîra	-10578
▁Meksîk	-10579
▁hokarê	-10580
▁zanînê	-10581
▁avahîya	-10582
▁navperê	-10583
▁teqînek	-10584
▁Leşkerên	-10585
▁Friedrich	-10586
=0	-10587
IQ	-10588
Lê	-10589
``	-10590
aşt	-10591
ijî	-10592
mak	-10593
opl	-10594
ûre	-10595
▁LE	-10596
▁gû	-10597
▁vi	-10598
▁êk	-10599
ffff	-10600
olîk	-10601
▁10.	-10602
▁DIB	-10603
▁Peq	-10604
▁Pîv	-10605
▁QUR	-10606
▁duv	-10607
▁meq	-10608
▁rav	-10609
▁zex	-10610
▁çak	-10611
atorî	-10612
ccTLD	-10613
sînor	-10614
înana	-10615
îtîyê	-10616
şemba	-10617
▁1944	-10618
▁Bomb	-10619
▁Koli	-10620
▁Phil	-10621
▁ajal	-10622
▁dils	-10623
▁dina	-10624
▁film	-10625
▁penc	-10626
▁ronî	-10627
▁çerm	-10628
XANEYA	-10629
edarên	-10630
ffffff	-10631
ontent	-10632
▁North	-10633
▁Nîsan	-10634
▁bigeh	-10635
▁hukum	-10636
▁Gorran	-10637
▁Mekeyê	-10638
▁dixwin	-10639
▁medres	-10640
▁efserên	-10641
▁romanên	-10642
▁American	-10643
▁Cehzeran	-10644
▁lêborînê	-10645
▁bilindtir	-10646
▁guhertina	-10647
▁serekîyên	-10648
▁taybetîya	-10649
▁mirovahiyê	-10650
▁Ebdulrehman	-10651
▁navxweyîyên	-10652
▁referandumê	-10653
▁serhejmarîyê	-10654
Sch	-10655
och	-10656
tel	-10657
ubê	-10658
wal	-10659
▁Yê	-10660
aret	-10661
orta	-10662
ÎYEK	-10663
▁Dex	-10664
▁Dos	-10665
▁Hug	-10666
▁Ran	-10667
▁Ruh	-10668
▁bad	-10669
▁mem	-10670
azîyê	-10671
▁1924	-10672
▁Beyr	-10673
▁Esîl	-10674
▁Pira	-10675
▁bijî	-10676
▁deyn	-10677
▁serv	-10678
▁stûr	-10679
▁HEGER	-10680
▁König	-10681
▁amaje	-10682
▁pland	-10683
▁wefat	-10684
▁Gulanê	-10685
▁Raport	-10686
▁başûrî	-10687
▁cihekê	-10688
▁dereng	-10689
▁egerên	-10690
▁ramana	-10691
alîkirin	-10692
▁Berlînê	-10693
▁bixwîne	-10694
▁bêhempa	-10695
▁dixwîne	-10696
▁famîleyê	-10697
▁Tirkîyeyê	-10698
▁ermeniyan	-10699
▁background	-10700
▁xwepêşander	-10701
án	-10702
=2.	-10703
HEM	-10704
dik	-10705
seb	-10706
yaz	-10707
îyo	-10708
▁Hz	-10709
▁bl	-10710
Part	-10711
bana	-10712
iver	-10713
udan	-10714
warê	-10715
▁Bîl	-10716
▁Dal	-10717
▁Nic	-10718
▁Qum	-10719
▁hay	-10720
▁mûş	-10721
▁piz	-10722
▁toh	-10723
ISTAN	-10724
Kurdî	-10725
ekarê	-10726
mayîl	-10727
▁Asay	-10728
▁bikê	-10729
▁Çêrm	-10730
margin	-10731
▁Cewad	-10732
▁Usama	-10733
▁alaya	-10734
▁dinya	-10735
▁resen	-10736
▁rûmet	-10737
▁îranê	-10738
bixwîne	-10739
hênerên	-10740
▁Qendîl	-10741
▁Çinara	-10742
▁DEWLETA	-10743
▁Konseya	-10744
▁Zarokên	-10745
▁navdarê	-10746
▁xwandin	-10747
▁digihîje	-10748
▁serekîya	-10749
▁Berpirsên	-10750
▁Ebdulezîz	-10751
▁dixebitin	-10752
▁nûneratîya	-10753
57	-10754
YD	-10755
ty	-10756
bad	-10757
kîn	-10758
ulî	-10759
▁Aq	-10760
etîf	-10761
inaq	-10762
ingî	-10763
serî	-10764
zdeh	-10765
▁13'	-10766
▁Has	-10767
▁Kas	-10768
▁Veg	-10769
▁fed	-10770
▁qis	-10771
▁sub	-10772
erson	-10773
erzan	-10774
▁1922	-10775
▁1937	-10776
▁ASAY	-10777
▁FRAN	-10778
▁Koda	-10779
▁Stre	-10780
▁tirş	-10781
▁Hezro	-10782
▁Robos	-10783
▁Nifûsa	-10784
▁bikarh	-10785
▁deriyê	-10786
▁herçar	-10787
▁hiştin	-10788
▁Xebatên	-10789
▁ajansên	-10790
▁bandorê	-10791
▁dengdan	-10792
▁guherîna	-10793
▁îslamîya	-10794
▁gihijtine	-10795
▁serkeftin	-10796
▁binpêkirina	-10797
▁serhildanên	-10798
eko	-10799
pîr	-10800
▁46	-10801
▁5'	-10802
▁KÊ	-10803
ayel	-10804
ison	-10805
iter	-10806
▁Fîn	-10807
▁Hon	-10808
▁Hur	-10809
▁KCD	-10810
▁Lat	-10811
▁Pîş	-10812
▁Qey	-10813
▁Rûn	-10814
▁VEK	-10815
▁Zew	-10816
oniya	-10817
▁1954	-10818
▁ALÎK	-10819
▁QURB	-10820
▁Tayy	-10821
▁Wêje	-10822
▁yarî	-10823
MANÎYÊ	-10824
atîyên	-10825
avêjin	-10826
bijarê	-10827
ifraga	-10828
ischer	-10829
▁BÊTIR	-10830
▁Mezra	-10831
▁Qersê	-10832
▁Remez	-10833
▁Rûber	-10834
▁SIYAS	-10835
▁[15:1	-10836
▁avahî	-10837
▁civîn	-10838
▁refên	-10839
▁termê	-10840
▁Ebdulh	-10841
▁dersên	-10842
▁digrin	-10843
▁otonom	-10844
▁polîsî	-10845
▁prensî	-10846
▁sibatê	-10847
▁têkilî	-10848
▁çiyayî	-10849
kevtîyên	-10850
▁Mehmûdê	-10851
▁Semsûrê	-10852
▁madeyên	-10853
▁tundûtî	-10854
▁têkçûna	-10855
▁veşandî	-10856
▁helbestê	-10857
▁tevlîhev	-10858
▁bikelînin	-10859
▁hevkarîyê	-10860
▁Rojnameyên	-10861
▁daxuyaniyek	-10862
▁radigihînin	-10863
▁serhejmarîya	-10864
DF	-10865
ûq	-10866
▁ci	-10867
esor	-10868
▁Lev	-10869
▁com	-10870
manya	-10871
▁Kevn	-10872
▁Virg	-10873
▁viya	-10874
qanûnî	-10875
▁BEHSA	-10876
▁GOMAN	-10877
▁Haşim	-10878
▁Jinan	-10879
▁Musli	-10880
▁Naver	-10881
▁RAGIH	-10882
▁cinsê	-10883
▁deran	-10884
▁kêmas	-10885
▁ASAYIŞ	-10886
▁Lavrov	-10887
▁Pêwîst	-10888
▁Rojhel	-10889
▁grûpên	-10890
.02.2011	-10891
şaristan	-10892
▁bîranîn	-10893
▁hemberê	-10894
▁rastiya	-10895
▁serdemê	-10896
▁wezaret	-10897
▁pisporên	-10898
▁pêşnîyar	-10899
▁rojhelat	-10900
▁rêveberê	-10901
▁Ermeniyan	-10902
▁naskirina	-10903
▁California	-10904
▁konferansa	-10905
▁binçavkirin	-10906
De	-10907
bek	-10908
ilm	-10909
rêt	-10910
▁|1	-10911
▁îf	-10912
acan	-10913
eket	-10914
▁Cil	-10915
▁HEL	-10916
▁Kun	-10917
▁Laz	-10918
▁Muc	-10919
▁Sîd	-10920
▁bêî	-10921
▁kef	-10922
▁leg	-10923
▁îşk	-10924
▁Şuk	-10925
HILAT	-10926
bajar	-10927
ction	-10928
▁1927	-10929
▁Penc	-10930
▁mehk	-10931
=2.99%	-10932
îngeha	-10933
▁Anton	-10934
▁Award	-10935
▁Baban	-10936
▁Henry	-10937
▁Kerem	-10938
▁Urdun	-10939
▁[10:0	-10940
▁alozî	-10941
▁atmos	-10942
▁hûrik	-10943
▁milên	-10944
▁wenda	-10945
stanbul	-10946
▁Dewlet	-10947
▁Hevdem	-10948
▁Mensûr	-10949
▁nêzikî	-10950
.12.2010	-10951
▁Gundekî	-10952
▁Lubnanê	-10953
▁WEZÎRAN	-10954
▁hevjîna	-10955
▁matemat	-10956
▁nizanin	-10957
▁rastîyê	-10958
gihandina	-10959
▁Berdevkê	-10960
▁destdirêj	-10961
▁alîkarîyên	-10962
▁berevanîya	-10963
▁opozîsyonê	-10964
▁daxuyanîyan	-10965
▁hevpeymanîyê	-10966
La	-10967
YÊ	-10968
DIN	-10969
ety	-10970
ios	-10971
poş	-10972
rot	-10973
▁5-	-10974
▁BZ	-10975
▁ph	-10976
ESCO	-10977
aria	-10978
ereb	-10979
kanê	-10980
weys	-10981
wood	-10982
îmet	-10983
▁800	-10984
▁Dûz	-10985
▁Fak	-10986
▁Gom	-10987
▁Xet	-10988
▁bêy	-10989
▁qûr	-10990
▁Şor	-10991
AŞIMÎ	-10992
îstên	-10993
▁(197	-10994
▁1926	-10995
▁1943	-10996
▁Eden	-10997
▁Ford	-10998
▁Hein	-10999
▁giya	-11000
▁Çapa	-11001
▁[21:2	-11002
XISTINA	-11003
iyetnam	-11004
▁Brahîm	-11005
▁karker	-11006
.11.2011	-11007
▁Bextyar	-11008
▁azadîyê	-11009
▁bazarên	-11010
▁daneyên	-11011
▁giringî	-11012
▁projeyî	-11013
▁pêwîstî	-11014
▁xwedîyê	-11015
▁darayîyê	-11016
▁diherike	-11017
▁guhartin	-11018
▁Culemêrgê	-11019
▁hilweşandina	-11020
▁qedexekirina	-11021
ric	-11022
sit	-11023
sîm	-11024
îsî	-11025
▁ki	-11026
hein	-11027
site	-11028
▁Ent	-11029
▁Pot	-11030
▁TOP	-11031
▁pîk	-11032
elayê	-11033
metên	-11034
mirov	-11035
▁Anad	-11036
▁Kong	-11037
▁Send	-11038
▁nizm	-11039
▁şaşî	-11040
▁Freud	-11041
▁Nifûs	-11042
▁Qayde	-11043
▁[10:1	-11044
▁[21:1	-11045
▁çêbûn	-11046
▁(2012)	-11047
▁Derwêş	-11048
▁PESEND	-11049
▁Reftar	-11050
▁havînê	-11051
.04.2011	-11052
.08.2010	-11053
▁Huseynî	-11054
▁ciwanan	-11055
▁mekaniz	-11056
▁nameyek	-11057
▁pêşbînî	-11058
▁ragihan	-11059
▁Çêkirin	-11060
▁şêniyên	-11061
▁Erziromê	-11062
▁giraniya	-11063
▁hejmarên	-11064
▁jimareke	-11065
▁kurtenavê	-11066
▁azadkirina	-11067
▁dîplomatîk	-11068
▁operasyonê	-11069
▁serkeftina	-11070
▁destnîşankirî	-11071
1-	-11072
ami	-11073
biz	-11074
dev	-11075
don	-11076
epê	-11077
gey	-11078
mir	-11079
vin	-11080
▁99	-11081
▁Ke	-11082
▁Rh	-11083
ange	-11084
mail	-11085
nasê	-11086
înam	-11087
îzma	-11088
▁700	-11089
▁Bav	-11090
▁Elx	-11091
▁Eyn	-11092
▁Lez	-11093
▁Win	-11094
▁fam	-11095
▁pêç	-11096
▁tra	-11097
▁zel	-11098
▁Îst	-11099
▁Şab	-11100
emenî	-11101
torên	-11102
▁1900	-11103
▁1923	-11104
▁Wolf	-11105
▁dorê	-11106
▁host	-11107
▁pêşd	-11108
▁send	-11109
▁îdîa	-11110
vedana	-11111
înejad	-11112
▁1980'	-11113
▁2005'	-11114
▁DESTÛ	-11115
▁Elawî	-11116
▁Hezar	-11117
▁Kongr	-11118
▁March	-11119
▁Ubeyd	-11120
▁pîvaz	-11121
▁Geliyê	-11122
▁Kolomb	-11123
▁serfir	-11124
arhatinê	-11125
▁Nisêbîn	-11126
▁milletê	-11127
▁polîsek	-11128
▁Mizgefta	-11129
▁pejirand	-11130
▁Azerbaycan	-11131
▁EWLEDARÎYÊ	-11132
▁çalakvanên	-11133
8.	-11134
▁ش	-11135
îro	-11136
▁af	-11137
▁sc	-11138
keya	-11139
▁28'	-11140
▁Cat	-11141
▁KCK	-11142
▁Luc	-11143
▁MAF	-11144
▁Tec	-11145
▁Wir	-11146
▁Xam	-11147
▁bûm	-11148
înend	-11149
▁Berk	-11150
▁Bila	-11151
▁Dilê	-11152
▁Flor	-11153
▁Mong	-11154
▁Tour	-11155
▁dewr	-11156
▁yeka	-11157
dariyê	-11158
▁Aleks	-11159
▁gener	-11160
▁împar	-11161
▁Albert	-11162
▁Cotmeh	-11163
▁Dîvrîg	-11164
▁Kanala	-11165
▁Rewşen	-11166
▁Wêjeyê	-11167
▁germah	-11168
▁sosyal	-11169
▁Mirovên	-11170
▁kevnare	-11171
▁zindanê	-11172
▁National	-11173
▁encumena	-11174
▁Kristofer	-11175
▁xwenîşanderan	-11176
ğı	-11177
agn	-11178
bon	-11179
hiş	-11180
ife	-11181
▁ag	-11182
▁ha	-11183
ango	-11184
oven	-11185
îyar	-11186
ûbih	-11187
▁22'	-11188
▁Ard	-11189
▁Fal	-11190
▁Nat	-11191
▁Weh	-11192
▁dun	-11193
▁zey	-11194
ebûnê	-11195
ektir	-11196
ungen	-11197
▁BUDC	-11198
▁Sîna	-11199
▁diçê	-11200
isyona	-11201
▁April	-11202
▁Seîdê	-11203
▁aheng	-11204
▁bibûn	-11205
▁mayîn	-11206
▁nahên	-11207
▁êrişî	-11208
▁Şakir	-11209
▁Instit	-11210
▁Joseph	-11211
▁Melayê	-11212
▁biwarî	-11213
▁derûnî	-11214
▁peqîna	-11215
▁MADDEYA	-11216
▁bibêjin	-11217
▁gotarên	-11218
▁malperê	-11219
▁pêşberî	-11220
▁qurbanê	-11221
▁Şingala	-11222
▁bermîlên	-11223
▁bixwazin	-11224
▁tevlihev	-11225
▁baregehên	-11226
▁kirmanckî	-11227
▁darizandin	-11228
▁çareseriya	-11229
▁demokrasiyê	-11230
▁hevpeymanan	-11231
▁weşanxaneya	-11232
▁siyasetmedarê	-11233
WA	-11234
▁ک	-11235
acê	-11236
fûr	-11237
yol	-11238
zen	-11239
▁(;	-11240
▁KX	-11241
▁Ye	-11242
ilik	-11243
reyî	-11244
wekî	-11245
êncî	-11246
▁Esp	-11247
▁Reb	-11248
▁Tat	-11249
▁mex	-11250
▁qaç	-11251
▁rih	-11252
▁zaf	-11253
▁Kelh	-11254
▁NIHA	-11255
▁çare	-11256
ection	-11257
▁2007:	-11258
▁EHMED	-11259
▁Sefîn	-11260
▁aliya	-11261
▁biket	-11262
▁gavên	-11263
▁kirde	-11264
▁stûyê	-11265
▁BERHEM	-11266
▁Kongir	-11267
▁Ronahî	-11268
▁bazarê	-11269
▁normal	-11270
▁BILINDA	-11271
▁Biryara	-11272
▁Mikayel	-11273
▁Muttekî	-11274
▁paraztî	-11275
▁serwerî	-11276
▁çavkanî	-11277
▁komeleyê	-11278
▁partîyan	-11279
▁xebitiye	-11280
▁Akademiya	-11281
▁Eliraqîye	-11282
▁derbikeve	-11283
▁rêvebirên	-11284
▁ragihandine	-11285
04	-11286
FA	-11287
TH	-11288
▁خ	-11289
iva	-11290
ume	-11291
▁FC	-11292
▁Tv	-11293
▁kg	-11294
ulan	-11295
werê	-11296
xwer	-11297
▁DOL	-11298
▁Few	-11299
▁KEV	-11300
▁Lee	-11301
▁PEN	-11302
▁WER	-11303
▁XEL	-11304
▁ibn	-11305
▁lay	-11306
biyan	-11307
înerê	-11308
▁FIRR	-11309
▁Heme	-11310
▁Land	-11311
▁Sant	-11312
▁başî	-11313
andarê	-11314
▁Kurda	-11315
▁filmê	-11316
▁lînka	-11317
▁nijad	-11318
▁şaxên	-11319
okirina	-11320
▁Bazîdê	-11321
▁Latînî	-11322
▁mezine	-11323
▁rengên	-11324
▁vedike	-11325
▁WELATÊN	-11326
▁deryaya	-11327
▁sernavê	-11328
▁bixwînin	-11329
▁standina	-11330
▁xwarineke	-11331
▁Birîtaniya	-11332
▁hevdîtinan	-11333
;&	-11334
lt	-11335
▁É	-11336
ESA	-11337
WEY	-11338
lay	-11339
osî	-11340
▁Ec	-11341
DEWL	-11342
FFFF	-11343
ceta	-11344
dayî	-11345
ings	-11346
▁Mîl	-11347
▁Seh	-11348
▁ard	-11349
▁bif	-11350
▁hak	-11351
▁xak	-11352
ewerê	-11353
ketin	-11354
▁1932	-11355
▁Haco	-11356
▁pêda	-11357
▁tijî	-11358
erîyan	-11359
▁Hamid	-11360
▁Hisên	-11361
▁derûd	-11362
content	-11363
▁KONSUL	-11364
▁awayek	-11365
▁duyema	-11366
▁navber	-11367
▁seroka	-11368
▁Şêxanê	-11369
▁Rewşenb	-11370
▁Sovyetê	-11371
▁gelheya	-11372
▁parêzer	-11373
▁stranan	-11374
▁GOMANBAR	-11375
▁awareyan	-11376
▁girtîyên	-11377
▁nûnerîya	-11378
▁Hindistan	-11379
▁bandoreke	-11380
▁pêşwaziya	-11381
▁zêdekirin	-11382
KU	-11383
RP	-11384
eqa	-11385
kra	-11386
lia	-11387
tîf	-11388
wek	-11389
▁(3	-11390
▁85	-11391
▁İn	-11392
dead	-11393
orex	-11394
stra	-11395
▁125	-11396
▁Oct	-11397
▁für	-11398
▁hon	-11399
▁tar	-11400
▁ton	-11401
îneyê	-11402
îsyon	-11403
▁Tûrk	-11404
▁[9:4	-11405
▁pirt	-11406
▁şirk	-11407
endorf	-11408
ffdead	-11409
▁Kelar	-11410
▁Milli	-11411
▁Nûbih	-11412
▁Putin	-11413
▁Xelkê	-11414
▁Xidir	-11415
▁kitêb	-11416
▁rolek	-11417
▁rûbir	-11418
▁Îtalî	-11419
estival	-11420
▁Kondol	-11421
▁UNESCO	-11422
▁ayinde	-11423
▁bihête	-11424
▁Dibêjin	-11425
▁Ebdulla	-11426
▁Taliban	-11427
▁axavtin	-11428
▁înglîzî	-11429
▁dikişîne	-11430
▁gotinêye	-11431
▁Berpirsekî	-11432
▁operasiyona	-11433
▁beyannameyek	-11434
BÛ	-11435
NO	-11436
SK	-11437
DEP	-11438
mil	-11439
êva	-11440
ûtb	-11441
▁72	-11442
▁Va	-11443
ARAN	-11444
ezag	-11445
ters	-11446
▁Gog	-11447
▁Zel	-11448
▁Zêr	-11449
▁ant	-11450
▁cad	-11451
▁hur	-11452
▁îmz	-11453
▁şeh	-11454
▁Dawî	-11455
▁GIŞT	-11456
▁Ziya	-11457
▁dara	-11458
▁çîna	-11459
eranto	-11460
geriyê	-11461
▁Kîmya	-11462
▁Lîste	-11463
▁têkel	-11464
▁Şikak	-11465
kevçiyê	-11466
▁hestên	-11467
▁rewşên	-11468
▁Îzmîrê	-11469
▁Biryare	-11470
▁Medyaya	-11471
▁beyanam	-11472
▁hokarên	-11473
▁wateyên	-11474
▁xwedayê	-11475
▁vedîtina	-11476
▁Berdereşê	-11477
▁Paytextên	-11478
▁berdewame	-11479
▁piştgîrîya	-11480
Pan	-11481
Per	-11482
aaa	-11483
aha	-11484
aro	-11485
eşa	-11486
yat	-11487
▁Kl	-11488
▁[]	-11489
JMAR	-11490
îkal	-11491
▁Yan	-11492
▁jeh	-11493
▁mix	-11494
▁çên	-11495
▁1933	-11496
▁Emer	-11497
▁Holl	-11498
▁Karî	-11499
▁şemb	-11500
▁Efxan	-11501
▁Hemko	-11502
▁Pirsa	-11503
▁bizan	-11504
▁giyan	-11505
▁nîjad	-11506
ejirîne	-11507
karîyên	-11508
▁HAŞIMÎ	-11509
▁Kellat	-11510
▁Kerbor	-11511
▁Necmed	-11512
▁RÛSIYA	-11513
▁dahatî	-11514
▁nêrîna	-11515
▁sibehî	-11516
▁xwenîş	-11517
▁çerçov	-11518
▁Meydana	-11519
▁Xelatên	-11520
▁hêjmara	-11521
▁medyaya	-11522
▁agahîyan	-11523
▁bandorek	-11524
▁bigihîne	-11525
▁derhêner	-11526
▁jimareka	-11527
▁neteweya	-11528
▁firokeyên	-11529
▁Kellaterzan	-11530
zi	-11531
Bin	-11532
êda	-11533
▁IV	-11534
▁Tw	-11535
ador	-11536
andê	-11537
dibe	-11538
ehan	-11539
ever	-11540
▁BAZ	-11541
▁CEJ	-11542
▁Eta	-11543
▁FED	-11544
▁fel	-11545
▁kak	-11546
▁kêr	-11547
▁mux	-11548
▁Şot	-11549
ephal	-11550
erket	-11551
ition	-11552
rahim	-11553
îzans	-11554
▁Beng	-11555
▁GUFT	-11556
▁Perg	-11557
▁Qere	-11558
▁kara	-11559
▁wesa	-11560
▁wêje	-11561
▁Bikar	-11562
▁Medan	-11563
▁belge	-11564
▁biray	-11565
▁repor	-11566
▁ronak	-11567
▁tewaw	-11568
▁(2010)	-11569
▁KONGIR	-11570
▁alîyek	-11571
▁dihîne	-11572
▁Dilovan	-11573
▁hertimî	-11574
▁Erxeniyê	-11575
▁arêşeyan	-11576
▁hikumeta	-11577
▁bernameyê	-11578
▁navendîya	-11579
▁daxuyaniyê	-11580
▁hevpeyvînê	-11581
▁kandîdkirina	-11582
▁operasiyonên	-11583
qe	-11584
▁ج	-11585
nem	-11586
▁56	-11587
▁Mü	-11588
beta	-11589
esan	-11590
lish	-11591
yahu	-11592
▁AME	-11593
▁Nîj	-11594
▁Sas	-11595
▁Tam	-11596
▁kot	-11597
▁rek	-11598
▁îra	-11599
bekir	-11600
evajî	-11601
ution	-11602
îvanê	-11603
▁Meks	-11604
▁ciya	-11605
▁dadê	-11606
▁fêrî	-11607
▁hole	-11608
▁sedê	-11609
▁seke	-11610
▁Bekir	-11611
▁Davut	-11612
▁Guher	-11613
▁Paris	-11614
▁corên	-11615
▁lewma	-11616
▁neyên	-11617
▁şanda	-11618
▁DIRIST	-11619
▁Firatê	-11620
▁Johann	-11621
▁Newzad	-11622
▁dihête	-11623
▁nivîsa	-11624
▁Îngili	-11625
▁Serhedê	-11626
▁derdorê	-11627
▁kevirên	-11628
▁qonaxên	-11629
▁tawanan	-11630
▁teoriya	-11631
▁Bizavkar	-11632
▁dengdana	-11633
▁dêrendaz	-11634
▁lêpirsîn	-11635
▁parlement	-11636
▁Wîkîpediya	-11637
▁berpirsekî	-11638
▁birîndarên	-11639
▁dilgiranîya	-11640
▁opozisiyonê	-11641
▁pêşvebirina	-11642
IT	-11643
sc	-11644
="3	-11645
=2|	-11646
ode	-11647
ohr	-11648
rap	-11649
tûg	-11650
▁64	-11651
▁ca	-11652
ezya	-11653
ÎŞAN	-11654
▁Ars	-11655
▁Qud	-11656
▁Sig	-11657
▁bay	-11658
▁nag	-11659
▁şek	-11660
▁(194	-11661
▁1908	-11662
▁2020	-11663
▁Bîng	-11664
▁Real	-11665
▁nanê	-11666
▁têda	-11667
▁Kazim	-11668
▁Weqfa	-11669
▁carna	-11670
▁xurek	-11671
▁zêrîn	-11672
▁Gimgim	-11673
▁KURDAN	-11674
▁Sedema	-11675
▁gihand	-11676
▁hukûmî	-11677
▁hêzeke	-11678
▁malana	-11679
▁perest	-11680
▁pêşbîn	-11681
▁Kanîreş	-11682
▁Kurdish	-11683
▁Televîz	-11684
▁aşitiyê	-11685
▁eşîreke	-11686
▁wênesaz	-11687
▁xwedanê	-11688
▁Paytexta	-11689
▁Pakistanî	-11690
▁Pêncşembî	-11691
▁dûrxistin	-11692
▁piştevanên	-11693
▁serxwebûnê	-11694
▁operasyonan	-11695
ск	-11696
▁ئ	-11697
-20	-11698
ayi	-11699
iqê	-11700
irr	-11701
mit	-11702
ovî	-11703
pis	-11704
wig	-11705
yel	-11706
ûkê	-11707
▁Vi	-11708
ihat	-11709
loyê	-11710
▁179	-11711
▁Hit	-11712
▁Lab	-11713
▁Nim	-11714
▁Zay	-11715
▁det	-11716
▁hên	-11717
▁sik	-11718
▁Şev	-11719
gehek	-11720
lendî	-11721
▁madd	-11722
▁tine	-11723
▁weku	-11724
nasiya	-11725
ternet	-11726
vanîyê	-11727
▁2008:	-11728
▁Dihok	-11729
▁[21:3	-11730
▁eşker	-11731
▁herin	-11732
▁manev	-11733
▁vebik	-11734
▁Şembî	-11735
karîyan	-11736
▁Demjim	-11737
▁Dêrikê	-11738
▁Dîndar	-11739
▁Farisî	-11740
▁Kujtin	-11741
▁QANÛNÊ	-11742
▁kêleka	-11743
▁lîstan	-11744
▁rengîn	-11745
.07.2010	-11746
▁guhdarî	-11747
▁hêrîşên	-11748
Kurdistan	-11749
▁gihijtin	-11750
▁hijmarek	-11751
▁standinê	-11752
▁zêdetirî	-11753
▁Berfanbar	-11754
▁pêkhateyên	-11755
▁nivîsandiye	-11756
▁peywendîyeka	-11757
öm	-11758
huk	-11759
kil	-11760
lop	-11761
rit	-11762
sîl	-11763
udê	-11764
▁47	-11765
▁CD	-11766
helm	-11767
inga	-11768
▁Nan	-11769
▁Vat	-11770
▁fêk	-11771
▁kad	-11772
▁san	-11773
▁Eles	-11774
▁Jour	-11775
▁Lord	-11776
▁Sara	-11777
▁avak	-11778
▁wilo	-11779
▁îdar	-11780
▁2000'	-11781
▁Efrîq	-11782
▁Quran	-11783
▁belku	-11784
▁bidom	-11785
▁nexoş	-11786
▁Dilşad	-11787
▁DÎYALA	-11788
▁FIRROK	-11789
▁Fîlîst	-11790
▁Kirmaş	-11791
▁buhayê	-11792
▁hemdem	-11793
▁jîyane	-11794
▁wizeya	-11795
▁Qereyaz	-11796
▁amadeye	-11797
▁derbaza	-11798
▁PIŞTEVAN	-11799
▁PÊŞMERGE	-11800
▁belgeyên	-11801
▁ewlekarî	-11802
▁pirtûkek	-11803
▁projeyan	-11804
▁pêşxistin	-11805
▁alîkarîyan	-11806
▁niştecihên	-11807
▁nivîsandinê	-11808
▁vekişandina	-11809
▁rojnamevanîyê	-11810
▁desthilatdarên	-11811
Par	-11812
aşî	-11813
kon	-11814
ûve	-11815
▁3'	-11816
▁AZ	-11817
▁HA	-11818
efef	-11819
irkî	-11820
mahî	-11821
ûman	-11822
▁25'	-11823
▁Bap	-11824
▁But	-11825
▁Ima	-11826
▁Keb	-11827
▁Was	-11828
▁Xoz	-11829
▁vem	-11830
▁Çol	-11831
▁Înd	-11832
aleke	-11833
kurdî	-11834
tober	-11835
▁1914	-11836
▁DIHÊ	-11837
▁HETA	-11838
▁Mitt	-11839
▁NAVA	-11840
▁Nord	-11841
▁SEDR	-11842
▁bera	-11843
▁eleq	-11844
▁saet	-11845
anîyên	-11846
▁AFGAN	-11847
▁Agahî	-11848
▁Beyan	-11849
▁Ewleh	-11850
▁Eşîra	-11851
▁Kitab	-11852
▁VEKIŞ	-11853
▁gelhe	-11854
▁zanin	-11855
▁Girava	-11856
▁Yilmaz	-11857
▁konsûl	-11858
▁saziya	-11859
exaneyên	-11860
▁meydana	-11861
wikipedia	-11862
▁Muhammed	-11863
▁bîranînê	-11864
▁digihîne	-11865
▁diplomat	-11866
▁nehatîye	-11867
▁BEŞDARÎYÊ	-11868
▁Nivîskarê	-11869
▁Selahattîn	-11870
▁televizyona	-11871
▁avedankirina	-11872
▁serkirdatîya	-11873
▁daxuyannameyekê	-11874
jin	-11875
ûmî	-11876
▁(5	-11877
▁Fe	-11878
EYAN	-11879
cher	-11880
ebru	-11881
ferm	-11882
sted	-11883
îjin	-11884
▁Bit	-11885
▁Fed	-11886
▁Kûr	-11887
▁Ved	-11888
▁ana	-11889
▁lat	-11890
▁çûy	-11891
▁şem	-11892
eyman	-11893
▁Aust	-11894
▁EWRO	-11895
▁Gust	-11896
▁Nebî	-11897
▁hewa	-11898
▁nede	-11899
▁zext	-11900
▁Êrîş	-11901
ulteya	-11902
▁2007'	-11903
▁Dievê	-11904
▁Muzîk	-11905
▁Welîd	-11906
▁Xirbê	-11907
▁evsal	-11908
▁piyan	-11909
▁terîq	-11910
▁xwast	-11911
▁Çoman	-11912
▁(1928:	-11913
▁(2009)	-11914
▁ALÎYÊN	-11915
▁Ewrûpa	-11916
▁KOMARA	-11917
▁Pentag	-11918
▁civatê	-11919
▁corane	-11920
▁daynin	-11921
▁nîsanê	-11922
.10.2011	-11923
▁mijaran	-11924
▁Birîndar	-11925
▁biryarek	-11926
▁agirbestê	-11927
▁alîkariyê	-11928
▁bawermend	-11929
▁pêşangehê	-11930
▁sekinandin	-11931
▁daxuyanîyên	-11932
▁desthilatdarîyê	-11933
bu	-11934
tu	-11935
ws	-11936
Sûr	-11937
fel	-11938
hez	-11939
rîf	-11940
uka	-11941
şîd	-11942
XWEŞ	-11943
atum	-11944
ebên	-11945
irka	-11946
keyê	-11947
makî	-11948
yane	-11949
▁Boy	-11950
▁Hên	-11951
▁Pen	-11952
▁Pûş	-11953
▁fak	-11954
▁seq	-11955
okhol	-11956
oseyê	-11957
▁1952	-11958
▁PIRS	-11959
▁[9:5	-11960
▁hevr	-11961
▁Şeva	-11962
efefef	-11963
▁Gundî	-11964
▁komst	-11965
▁xwand	-11966
▁êrişa	-11967
▁Berxwe	-11968
▁Daryûs	-11969
▁Semsûr	-11970
▁ajalên	-11971
▁alavên	-11972
▁bîrdoz	-11973
▁komput	-11974
▁Kendavê	-11975
▁Yewnanî	-11976
▁brîndar	-11977
▁desthil	-11978
▁kanalên	-11979
Gelhenasî	-11980
ustraliya	-11981
▁Tewafuqa	-11982
▁dokument	-11983
▁naverast	-11984
▁radiwest	-11985
▁serdaneka	-11986
▁hevdîtinên	-11987
sv	-11988
IYÊ	-11989
gov	-11990
sky	-11991
▁Sû	-11992
amaz	-11993
bilê	-11994
elis	-11995
geya	-11996
îhrî	-11997
îstê	-11998
▁Arş	-11999
▁Bre	-12000
▁Lal	-12001
▁Sav	-12002
▁TEN	-12003
▁Xîz	-12004
landê	-12005
▁Dide	-12006
▁Hema	-12007
▁Nurî	-12008
▁dive	-12009
▁gelî	-12010
▁veke	-12011
darîyê	-12012
▁Duyem	-12013
▁danas	-12014
▁diçûn	-12015
▁kares	-12016
▁kurda	-12017
▁muhir	-12018
▁qehwe	-12019
▁qereb	-12020
▁Êrîşa	-12021
▁şadîm	-12022
ayetîya	-12023
▁Berlîn	-12024
▁Hezexê	-12025
▁Salihî	-12026
▁Zehawî	-12027
▁bihata	-12028
▁hizrên	-12029
▁ramanê	-12030
▁yekrêz	-12031
guhêziya	-12032
nîgariya	-12033
wendîyên	-12034
▁Stembol	-12035
▁Sîlvana	-12036
▁jêderan	-12037
▁kêmbûna	-12038
▁metirsî	-12039
▁partîyê	-12040
▁pêşniya	-12041
▁xelatên	-12042
▁Şemrexê	-12043
▁DIXWAZIN	-12044
▁Yêkgirtî	-12045
▁ewlehiyê	-12046
▁karkeran	-12047
▁profesor	-12048
▁dijwarîyê	-12049
▁hevpeyman	-12050
▁psîkolojîk	-12051
▁diyarkirina	-12052
▁piştevaniya	-12053
▁Împaratoriya	-12054
Hev	-12055
aqa	-12056
cht	-12057
efê	-12058
gür	-12059
wet	-12060
▁Ru	-12061
▁je	-12062
ANÊN	-12063
mund	-12064
unty	-12065
▁NET	-12066
▁Rim	-12067
▁Sud	-12068
/2010	-12069
epeyd	-12070
▁Kalî	-12071
▁Phys	-12072
▁Seyf	-12073
▁gilî	-12074
▁pehl	-12075
▁qehr	-12076
▁rabû	-12077
▁wext	-12078
▁Cejna	-12079
▁Cinsê	-12080
▁JÎYAN	-12081
▁Murat	-12082
▁diqew	-12083
▁stend	-12084
andarên	-12085
hildanê	-12086
▁herême	-12087
▁maneya	-12088
▁protok	-12089
▁roleka	-12090
▁Cotmehê	-12091
▁cihgirên	-12092
▁neqanûnî	-12093
▁FRAKSIYON	-12094
▁Helbestên	-12095
▁festîvalê	-12096
▁rawestîne	-12097
▁Qerekoseyê	-12098
▁kurteçîrok	-12099
▁serokdewletê	-12100
gi	-12101
daw	-12102
des	-12103
ils	-12104
nig	-12105
oca	-12106
off	-12107
olu	-12108
pes	-12109
ugh	-12110
▁TÊ	-12111
▁sh	-12112
fort	-12113
imin	-12114
ital	-12115
▁*07	-12116
▁*08	-12117
▁Elm	-12118
▁Roş	-12119
▁arş	-12120
aveke	-12121
ideae	-12122
opsis	-12123
▁1931	-12124
▁Carl	-12125
▁DEMA	-12126
▁Eşîr	-12127
▁Loma	-12128
▁payî	-12129
ayîyên	-12130
ilînin	-12131
▁2011:	-12132
▁Anter	-12133
▁Eşref	-12134
▁Girtî	-12135
▁KESAN	-12136
▁Selam	-12137
▁danan	-12138
▁hesin	-12139
▁kevçî	-12140
▁Dizeyî	-12141
▁Filest	-12142
▁Gordon	-12143
▁Kakeyî	-12144
▁Kosret	-12145
▁belgen	-12146
▁dirûst	-12147
▁vegera	-12148
▁xwecih	-12149
▁Angeles	-12150
▁Jackson	-12151
▁masiyan	-12152
▁teqemen	-12153
▁wergera	-12154
▁Kobaniyê	-12155
▁giriftên	-12156
▁psîkolog	-12157
▁sînemayê	-12158
▁xwandina	-12159
▁Selahedînê	-12160
▁plandanînê	-12161
▁rêzgirtina	-12162
▁Washingtonê	-12163
▁bazirganiyê	-12164
▁hemahengîya	-12165
Ne	-12166
bex	-12167
etz	-12168
▁3,	-12169
▁63	-12170
▁89	-12171
ILAF	-12172
ther	-12173
xanî	-12174
▁Dîp	-12175
▁Gov	-12176
▁HOŞ	-12177
▁Had	-12178
▁Kra	-12179
▁Tak	-12180
▁his	-12181
▁hot	-12182
▁Şîn	-12183
GEHÊN	-12184
emêrg	-12185
tiyan	-12186
xistî	-12187
▁Bost	-12188
▁Ceng	-12189
▁NewY	-12190
▁Park	-12191
▁Tikr	-12192
▁Xanê	-12193
▁kuft	-12194
▁têra	-12195
MANIYA	-12196
ograph	-12197
▁AMEDÊ	-12198
▁BARAK	-12199
▁CEJNA	-12200
▁Cîhad	-12201
▁MESÛD	-12202
▁Netan	-12203
▁Tilbi	-12204
▁aktor	-12205
▁wezîf	-12206
▁Îtali	-12207
▁şeşem	-12208
GIRTINA	-12209
▁Helbet	-12210
▁Moskow	-12211
▁bermîl	-12212
▁hovane	-12213
▁ÎTILAF	-12214
▁Society	-12215
▁aboriyê	-12216
▁dergehê	-12217
▁tayîbet	-12218
▁zîndana	-12219
▁cîkirina	-12220
▁Pirraniya	-12221
▁hewldanên	-12222
▁parzemîna	-12223
▁rêkxistin	-12224
▁tendirust	-12225
▁vexwendin	-12226
▁rojnamevanê	-12227
▁Hilbijartinên	-12228
52	-12229
ین	-12230
AZÎ	-12231
ben	-12232
ewê	-12233
mek	-12234
wen	-12235
▁--	-12236
▁76	-12237
▁77	-12238
▁:*	-12239
▁so	-12240
.200	-12241
band	-12242
lûcî	-12243
mond	-12244
onia	-12245
urrî	-12246
▁(10	-12247
▁27'	-12248
▁Nad	-12249
▁Var	-12250
▁Yak	-12251
▁ged	-12252
▁neç	-12253
▁xoy	-12254
▁xwa	-12255
avaya	-12256
board	-12257
ewice	-12258
lands	-12259
êdanê	-12260
▁1917	-12261
▁1951	-12262
▁Cihû	-12263
▁Mand	-12264
▁Merk	-12265
▁Paşî	-12266
▁Sand	-12267
▁derx	-12268
▁dînê	-12269
▁otob	-12270
▁tînê	-12271
▁Çelê	-12272
▁Şerm	-12273
▁BERDE	-12274
▁Febru	-12275
▁Heman	-12276
▁Humsê	-12277
▁Menûç	-12278
▁Pêrta	-12279
▁Radio	-12280
▁dabûn	-12281
▁dikit	-12282
▁hozan	-12283
▁nekar	-12284
▁ofîsa	-12285
▁Elektr	-12286
▁Erebên	-12287
▁Qeterê	-12288
▁Soranî	-12289
▁hevdem	-12290
▁karwan	-12291
▁sindoq	-12292
▁Remezan	-12293
▁brîtanî	-12294
▁dihînin	-12295
▁karwanê	-12296
▁kevtiye	-12297
▁kurdiya	-12298
▁namzedê	-12299
▁arêşedar	-12300
▁berpirsî	-12301
▁devereka	-12302
▁enerjiya	-12303
▁gihijtiye	-12304
▁nexweşxan	-12305
▁paşxistin	-12306
▁taybetîyê	-12307
▁SILÊMANÎYÊ	-12308
▁çareseriyê	-12309
▁serokkomarê	-12310
',	-12311
EST	-12312
bes	-12313
haş	-12314
osp	-12315
oto	-12316
xem	-12317
▁Og	-12318
▁Tû	-12319
egel	-12320
kiyê	-12321
êzên	-12322
îstî	-12323
îşkê	-12324
▁Bud	-12325
▁Bûn	-12326
▁PÊN	-12327
▁Sat	-12328
▁Vic	-12329
▁Zil	-12330
▁gom	-12331
▁nus	-12332
▁tîk	-12333
guman	-12334
ozanê	-12335
▁Asos	-12336
▁Derv	-12337
▁Goma	-12338
▁edît	-12339
▁fûtb	-12340
▁rabe	-12341
▁yasa	-12342
ations	-12343
işînin	-12344
▁aliye	-12345
▁class	-12346
▁selet	-12347
▁Botanê	-12348
▁Bîzans	-12349
▁Edward	-12350
▁Yildiz	-12351
▁jêhatî	-12352
▁yasayî	-12353
▁JÎYANÊN	-12354
▁Spaniya	-12355
▁Wilhelm	-12356
▁dostane	-12357
▁gerstêr	-12358
▁reportê	-12359
▁zankoyê	-12360
▁karkerên	-12361
▁kursîyan	-12362
▁Kongireya	-12363
▁diyarkirî	-12364
▁Balindeyên	-12365
▁kompanyayê	-12366
▁welatparêz	-12367
▁parlamentoya	-12368
▁helbestvanekî	-12369
.-	-12370
51	-12371
ов	-12372
rek	-12373
wed	-12374
zig	-12375
▁53	-12376
iyye	-12377
keke	-12378
lorî	-12379
salî	-12380
▁Dûv	-12381
▁Kut	-12382
▁Nûh	-12383
▁PAK	-12384
▁Sah	-12385
▁bur	-12386
▁lev	-12387
▁wêr	-12388
▁şid	-12389
=====	-12390
bînin	-12391
hengê	-12392
iyarî	-12393
omiya	-12394
ublic	-12395
zanên	-12396
▁Arab	-12397
▁Gram	-12398
▁Işik	-12399
▁Kofî	-12400
▁Merî	-12401
▁Stal	-12402
▁Stud	-12403
▁keşf	-12404
▁mang	-12405
giriyê	-12406
itable	-12407
▁Hemed	-12408
▁SALIH	-12409
▁Yaşar	-12410
▁banka	-12411
▁bigre	-12412
▁bombe	-12413
▁jibîr	-12414
▁veber	-12415
▁Omeran	-12416
▁Rêzdar	-12417
▁Tayyip	-12418
▁dikuje	-12419
▁mijûlî	-12420
▁rasteq	-12421
▁xaleka	-12422
.10.2010	-12423
▁alîyekê	-12424
▁meclîsa	-12425
▁Astronom	-12426
▁derkevtin	-12427
▁psîkoanal	-12428
▁ewledarîyên	-12429
▁damezirandina	-12430
LO	-12431
zo	-12432
AMA	-12433
Off	-12434
idê	-12435
ote	-12436
ple	-12437
tur	-12438
îbû	-12439
▁57	-12440
▁Cê	-12441
▁pa	-12442
erek	-12443
gart	-12444
îlya	-12445
▁110	-12446
▁24'	-12447
▁Ara	-12448
▁Gül	-12449
▁Kin	-12450
▁Tab	-12451
▁iro	-12452
▁qal	-12453
▁sim	-12454
▁1942	-12455
▁Hist	-12456
▁derk	-12457
▁dizî	-12458
▁ingl	-12459
▁mali	-12460
▁name	-12461
▁oksî	-12462
▁xwûd	-12463
endama	-12464
okirin	-12465
▁1990'	-12466
▁2006:	-12467
▁2008'	-12468
▁Amûdê	-12469
▁Louis	-12470
▁Xarpê	-12471
▁destp	-12472
▁fîlma	-12473
▁hilda	-12474
▁hindî	-12475
▁thumb	-12476
▁tivêj	-12477
▁wexta	-12478
girtiye	-12479
lendayê	-12480
▁Cewher	-12481
▁FRANSA	-12482
▁Girtin	-12483
▁Swîsre	-12484
▁birina	-12485
▁japonî	-12486
▁mejiyê	-12487
▁nemana	-12488
▁pêştir	-12489
▁Înstît	-12490
▁Bandora	-12491
▁DERVEYÊ	-12492
▁Deutsch	-12493
▁Edeneyê	-12494
▁berdana	-12495
▁rewşeka	-12496
▁rewşeke	-12497
▁sembola	-12498
▁çêdibin	-12499
▁Turkmanî	-12500
▁ferhenga	-12501
▁sepandin	-12502
▁veguhest	-12503
Gundistana	-12504
▁Kerboranê	-12505
▁PARÊZGEHA	-12506
▁radigîhîne	-12507
▁zêdekirina	-12508
▁Serhildayên	-12509
▁rêxistineke	-12510
▁tîpguhêziya	-12511
▁hemwelatiyên	-12512
▁alîkarîkirina	-12513
Sp	-12514
ام	-12515
▁پ	-12516
ati	-12517
eus	-12518
îme	-12519
▁74	-12520
ells	-12521
layê	-12522
pişt	-12523
seta	-12524
înga	-12525
▁Arn	-12526
▁IPA	-12527
▁Lîs	-12528
▁Nîk	-12529
▁Sec	-12530
▁lek	-12531
▁mob	-12532
▁qul	-12533
▁vol	-12534
eteke	-12535
yekan	-12536
▁1936	-12537
▁BOMB	-12538
▁Hebî	-12539
▁Konf	-12540
▁Larî	-12541
▁Mast	-12542
▁Qoçg	-12543
▁Reng	-12544
▁Serç	-12545
▁Sêmê	-12546
▁piya	-12547
▁tefs	-12548
▁zeng	-12549
NAMEYA	-12550
atorên	-12551
▁Ekber	-12552
▁Endez	-12553
▁Enfal	-12554
▁Japan	-12555
▁Polîs	-12556
▁Sebrî	-12557
▁Swêdî	-12558
▁Yemen	-12559
▁berfê	-12560
▁renge	-12561
▁Silopî	-12562
▁amarên	-12563
▁awayan	-12564
▁lîstin	-12565
▁nihênî	-12566
▁zayînî	-12567
îngilîzî	-12568
▁Lêkolîn	-12569
▁Stokhol	-12570
▁Televiz	-12571
▁derfeta	-12572
▁xwezaya	-12573
▁Germîyan	-12574
▁Rûsiyayî	-12575
▁biryaran	-12576
▁demdirêj	-12577
▁dirêjiya	-12578
▁programa	-12579
▁pîşesazî	-12580
▁xanedana	-12581
▁elektrîkê	-12582
▁hilberîna	-12583
▁rêbendana	-12584
▁welatiyên	-12585
▁otomobîlan	-12586
▁danûstandin	-12587
▁siyasetmedarekî	-12588
5,	-12589
KO	-12590
ış	-12591
1).	-12592
aja	-12593
aki	-12594
als	-12595
que	-12596
rof	-12597
uke	-12598
êma	-12599
adar	-12600
anîk	-12601
deta	-12602
raya	-12603
îşka	-12604
▁130	-12605
▁Fet	-12606
▁Mîx	-12607
▁ara	-12608
▁bei	-12609
▁def	-12610
▁pab	-12611
dayik	-12612
dînan	-12613
jneya	-12614
▁(190	-12615
▁Croc	-12616
▁Nûçe	-12617
▁Star	-12618
▁pisp	-12619
▁qali	-12620
▁êzîd	-12621
ahiyên	-12622
vaniya	-12623
▁Abbas	-12624
▁Efrîn	-12625
▁Huner	-12626
▁Rûerd	-12627
▁Teror	-12628
▁belkî	-12629
▁bîrên	-12630
▁hesab	-12631
▁norwê	-12632
▁vediq	-12633
▁Devera	-12634
▁Kobanî	-12635
▁Pîrosa	-12636
▁Yaneya	-12637
▁awayên	-12638
▁bihurî	-12639
▁dernek	-12640
▁tevaya	-12641
▁Çîroka	-12642
▁Dixwaze	-12643
▁Gercanê	-12644
▁Oktober	-12645
▁Stranên	-12646
▁hişyarî	-12647
▁negatîv	-12648
wikitable	-12649
▁Kirmaşan	-12650
▁Viyetnam	-12651
▁dagirker	-12652
▁ewlehiya	-12653
▁federalî	-12654
▁firotina	-12655
▁helîkopt	-12656
▁peyvdarê	-12657
▁qanûnîya	-12658
▁fonksiyon	-12659
▁Serokatiya	-12660
▁Yekgirtûya	-12661
▁demjimêran	-12662
▁pîşesazîya	-12663
▁dîyarkirina	-12664
ät	-12665
és	-12666
DYA	-12667
EBÛ	-12668
Fîl	-12669
fil	-12670
şên	-12671
▁Jê	-12672
▁XW	-12673
DARÎ	-12674
ERAL	-12675
abîl	-12676
idan	-12677
igan	-12678
oglû	-12679
sten	-12680
▁(?)	-12681
▁350	-12682
▁HAK	-12683
▁Tok	-12684
▁Xef	-12685
▁hol	-12686
▁not	-12687
▁çin	-12688
▁şiv	-12689
RAYEL	-12690
aziyê	-12691
▁1758	-12692
▁Fars	-12693
▁kare	-12694
▁nifş	-12695
▁wêrê	-12696
▁Şaxa	-12697
▁Dînar	-12698
▁Kevin	-12699
▁Macar	-12700
▁Sirşî	-12701
▁bomba	-12702
▁diqed	-12703
▁têbîn	-12704
▁albuma	-12705
▁miletê	-12706
▁pêvajo	-12707
▁sînora	-12708
▁yasayê	-12709
.06.2012	-12710
▁Aboriya	-12711
▁Gotinên	-12712
▁NAVDEWL	-12713
▁cezayên	-12714
▁kendavê	-12715
▁koçberî	-12716
▁yekbûna	-12717
▁Pirsgirê	-12718
▁Serbixwe	-12719
▁serkirde	-12720
▁vekêşana	-12721
▁Davutoglu	-12722
▁pirtûkeke	-12723
▁çandiniya	-12724
▁pîşesazîyê	-12725
▁stiratecîka	-12726
▁xwendekaran	-12727
▁amadekarîyên	-12728
▁navbeynkariya	-12729
ZA	-12730
üm	-12731
cin	-12732
oni	-12733
êza	-12734
ûpê	-12735
▁Zê	-12736
gund	-12737
itan	-12738
lîsî	-12739
tona	-12740
îtam	-12741
ûnan	-12742
▁():	-12743
▁Gih	-12744
▁Hûn	-12745
▁Leh	-12746
▁Moz	-12747
▁asê	-12748
▁ben	-12749
▁nap	-12750
▁vej	-12751
bûyên	-12752
▁1912	-12753
▁1928	-12754
▁Pier	-12755
▁Tund	-12756
▁Yanî	-12757
▁bînê	-12758
▁gule	-12759
▁pira	-12760
▁pêde	-12761
▁pêve	-12762
▁soza	-12763
▁werê	-12764
▁çepê	-12765
▁Şahê	-12766
andayê	-12767
▁BIBIN	-12768
▁Polit	-12769
▁Rengê	-12770
▁Tawûs	-12771
▁Venez	-12772
▁Xeber	-12773
▁album	-12774
▁hejar	-12775
▁pêlên	-12776
▁trans	-12777
▁Özgür	-12778
▁şûnda	-12779
yaniyan	-12780
▁Muzîka	-12781
▁Nîşana	-12782
▁Seroka	-12783
▁Xinûsê	-12784
▁civake	-12785
▁derdik	-12786
▁fîzîkî	-12787
▁hêviya	-12788
▁komîte	-12789
▁nerast	-12790
▁sizayê	-12791
▁wêneyê	-12792
▁çîrokê	-12793
▁şêweyî	-12794
▁ISRAYEL	-12795
▁München	-12796
▁Sarkozî	-12797
▁afirand	-12798
▁keviran	-12799
▁nediyar	-12800
▁pêşketî	-12801
▁zayendî	-12802
▁mizgefta	-12803
▁Dinirxîne	-12804
▁Frankfurt	-12805
▁azadkirin	-12806
▁fîzîknasê	-12807
▁mamosteyê	-12808
▁molekulên	-12809
▁serbilind	-12810
▁zanistiyê	-12811
▁referandum	-12812
▁tepeserkirina	-12813
=4	-12814
Th	-12815
US	-12816
cu	-12817
po	-12818
är	-12819
ayn	-12820
oxê	-12821
▁7-	-12822
gayî	-12823
hewa	-12824
neyê	-12825
osta	-12826
sche	-12827
▁Bek	-12828
▁Eve	-12829
▁Heq	-12830
▁Let	-12831
▁Pek	-12832
▁Pev	-12833
▁TAR	-12834
▁Tug	-12835
▁Tîl	-12836
▁kax	-12837
▁pot	-12838
▁zeh	-12839
IYONA	-12840
adana	-12841
atina	-12842
otina	-12843
▁Hênê	-12844
▁MUHR	-12845
▁başe	-12846
▁ciyê	-12847
▁nêza	-12848
▁teze	-12849
▁vers	-12850
iyanan	-12851
tingen	-12852
▁Adara	-12853
▁Dawûd	-12854
▁Evdir	-12855
▁endez	-12856
▁şarez	-12857
▁(2013)	-12858
▁ALÎKAR	-12859
▁Daniel	-12860
▁altern	-12861
▁didine	-12862
▁dimire	-12863
▁geştên	-12864
▁peywir	-12865
.11.2010	-12866
▁Element	-12867
▁Mewlana	-12868
▁Sincarî	-12869
▁dijiyan	-12870
▁merasîm	-12871
▁nahêlin	-12872
▁pêşkeşî	-12873
▁supasal	-12874
▁Meletiyê	-12875
▁Silopiyê	-12876
▁collapse	-12877
▁niştecih	-12878
▁paşerojê	-12879
▁serokatî	-12880
▁Canewerên	-12881
▁diparêzin	-12882
▁komkirina	-12883
▁Ermenistan	-12884
▁çavkaniyan	-12885
▁Awustraliya	-12886
▁rewşenbîrîyê	-12887
EE	-12888
XE	-12889
cı	-12890
ín	-12891
800	-12892
Syn	-12893
ats	-12894
dal	-12895
tes	-12896
uks	-12897
yib	-12898
yth	-12899
zîm	-12900
êjî	-12901
▁AB	-12902
ebus	-12903
enau	-12904
ewşa	-12905
fred	-12906
ikoş	-12907
ûbên	-12908
▁Kaw	-12909
▁Lud	-12910
▁MIR	-12911
▁Siv	-12912
▁hir	-12913
▁pap	-12914
oplaz	-12915
oslav	-12916
▁Belç	-12917
▁duyê	-12918
▁dêra	-12919
Serokê	-12920
▁Bajêr	-12921
▁Brawn	-12922
▁Hêriş	-12923
▁dengd	-12924
▁kampa	-12925
▁kirbû	-12926
▁talan	-12927
▁valah	-12928
▁zilam	-12929
▁îdarî	-12930
▁Caesar	-12931
▁County	-12932
▁Kirman	-12933
▁Kompan	-12934
▁bakûra	-12935
▁dewama	-12936
▁oldarî	-12937
▁tesîra	-12938
▁werdig	-12939
▁Lîbyayî	-12940
▁dolaran	-12941
▁vebikin	-12942
dewletîya	-12943
▁komîteyeka	-12944
▁neteweyîya	-12945
▁xiristiyan	-12946
▁Parlamentera	-12947
▁parlamenterê	-12948
56	-12949
LE	-12950
ан	-12951
ات	-12952
bab	-12953
ign	-12954
mam	-12955
îko	-12956
îvê	-12957
▁(9	-12958
▁Kh	-12959
ANYA	-12960
ERAN	-12961
aseb	-12962
brid	-12963
etah	-12964
lear	-12965
ober	-12966
olas	-12967
weyî	-12968
êmin	-12969
–200	-12970
▁95%	-12971
▁Fay	-12972
▁HIN	-12973
▁Izz	-12974
▁Köl	-12975
▁Lar	-12976
▁Sîm	-12977
▁lît	-12978
abadê	-12979
areya	-12980
birêş	-12981
exwar	-12982
raham	-12983
stedt	-12984
▁Cast	-12985
▁Lind	-12986
▁Qirg	-12987
▁Tala	-12988
▁YEKÎ	-12989
▁trop	-12990
▁îcar	-12991
▁Casim	-12992
▁Phili	-12993
▁Yasîn	-12994
▁cinsî	-12995
▁efsan	-12996
▁mezax	-12997
▁vedig	-12998
▁êzîdî	-12999
▁înkar	-13000
▁Şebek	-13001
evaniyê	-13002
▁Burhan	-13003
▁jinûve	-13004
▁komarî	-13005
▁planên	-13006
▁zîndan	-13007
▁Tîrmehê	-13008
▁proseya	-13009
▁qûrbanî	-13010
▁şiyanên	-13011
Erdnîgarî	-13012
▁February	-13013
▁avahiyên	-13014
▁dermanan	-13015
▁protesto	-13016
▁serpêhat	-13017
▁darxistin	-13018
▁sosyalîst	-13019
▁serxistina	-13020
▁zanîngehên	-13021
▁aşkirakirin	-13022
▁destexaneyê	-13023
▁Siyasetmedar	-13024
▁piştevanîkirina	-13025
3%	-13026
JE	-13027
Sa	-13028
dr	-13029
yx	-13030
eja	-13031
feq	-13032
rea	-13033
roş	-13034
uca	-13035
êla	-13036
▁58	-13037
▁Pi	-13038
▁dw	-13039
▁|+	-13040
9===	-13041
empa	-13042
erya	-13043
ferê	-13044
gela	-13045
ikek	-13046
zayî	-13047
îzin	-13048
▁26'	-13049
▁Dew	-13050
▁Enf	-13051
▁Leg	-13052
▁MHP	-13053
▁fey	-13054
▁fos	-13055
▁gal	-13056
▁sêv	-13057
icial	-13058
ûdeng	-13059
▁Dana	-13060
▁Kopê	-13061
▁PROS	-13062
▁duwe	-13063
▁krom	-13064
▁kêşe	-13065
▁Şems	-13066
ehmanê	-13067
rahman	-13068
înîyan	-13069
▁ALÎYÊ	-13070
▁Dokan	-13071
▁cenga	-13072
▁diken	-13073
▁dosya	-13074
▁hozên	-13075
▁kolon	-13076
▁serek	-13077
▁xizan	-13078
▁Kroker	-13079
▁SAZDAN	-13080
▁Wêjeya	-13081
▁kincên	-13082
▁nizane	-13083
.09.2010	-13084
▁Gercana	-13085
▁Heskîfê	-13086
▁Mamoste	-13087
▁Nûnerên	-13088
▁Sûryayê	-13089
▁birînên	-13090
▁dihêlin	-13091
▁dijberî	-13092
▁dixwast	-13093
▁Kalîforn	-13094
▁Talîbanê	-13095
▁civîneke	-13096
▁HEVWELATÎ	-13097
▁balafirên	-13098
▁salnameya	-13099
▁stratejîk	-13100
▁Associated	-13101
▁Stranbêjên	-13102
▁hemwelatîyên	-13103
▁berdestkirina	-13104
.9	-13105
HD	-13106
öz	-13107
▁é	-13108
Min	-13109
cîh	-13110
hew	-13111
iew	-13112
lîn	-13113
ree	-13114
ûbe	-13115
▁بن	-13116
enek	-13117
hard	-13118
kird	-13119
kiya	-13120
ênin	-13121
▁188	-13122
▁29'	-13123
▁Ked	-13124
▁Pad	-13125
▁Zal	-13126
▁fab	-13127
▁fîn	-13128
▁poş	-13129
▁pîs	-13130
▁pît	-13131
▁sex	-13132
▁Înc	-13133
NÎŞAN	-13134
eland	-13135
ianus	-13136
navên	-13137
▁1903	-13138
▁PROJ	-13139
▁Stev	-13140
▁Tele	-13141
▁gênc	-13142
▁kirr	-13143
▁perê	-13144
▁supa	-13145
▁uran	-13146
ekarên	-13147
krayna	-13148
▁1998,	-13149
▁BAZIR	-13150
▁Bazîd	-13151
▁Ihsan	-13152
▁Tûnis	-13153
▁dayin	-13154
▁geşta	-13155
▁neket	-13156
▁peyvê	-13157
▁sozên	-13158
ilkirin	-13159
▁Berzin	-13160
▁Korêya	-13161
▁Micros	-13162
▁Peters	-13163
▁Pîranê	-13164
▁Sekret	-13165
▁Wateya	-13166
▁albûmê	-13167
▁dimilî	-13168
▁leheng	-13169
▁Riwekên	-13170
▁dîyalog	-13171
▁lîstikê	-13172
▁pîvanên	-13173
▁roketên	-13174
▁xaneyan	-13175
▁Alfabeya	-13176
▁Dirêjiya	-13177
▁Peyamner	-13178
▁dijepeyd	-13179
▁milyonan	-13180
▁nîşandin	-13181
▁vekiriye	-13182
▁şaristan	-13183
▁Netanyahu	-13184
▁Perwerdeh	-13185
▁îlankirin	-13186
▁Ebdurehman	-13187
▁bajarokekî	-13188
▁rojnameyan	-13189
▁berdewambûna	-13190
▁tendiristîya	-13191
ía	-13192
.19	-13193
=3%	-13194
Weş	-13195
ahe	-13196
chi	-13197
fet	-13198
ody	-13199
sey	-13200
zma	-13201
▁54	-13202
▁6-	-13203
▁eh	-13204
▁ge	-13205
erdê	-13206
ivis	-13207
opol	-13208
radi	-13209
senc	-13210
tepe	-13211
thur	-13212
–201	-13213
▁30'	-13214
▁Cir	-13215
▁Heb	-13216
▁Kav	-13217
▁Mîn	-13218
▁PER	-13219
▁Qac	-13220
▁Qas	-13221
etepe	-13222
ordîn	-13223
sîyan	-13224
▁Adem	-13225
▁Groß	-13226
▁Hugo	-13227
▁Tayî	-13228
▁Xala	-13229
▁amûr	-13230
▁bibê	-13231
▁debê	-13232
▁hewc	-13233
▁olên	-13234
▁pêre	-13235
Berhem	-13236
mijoka	-13237
▁2009:	-13238
▁TEROR	-13239
▁hilde	-13240
▁kuştî	-13241
▁raste	-13242
▁xemil	-13243
▁xêncî	-13244
Tirkiye	-13245
ilêmanî	-13246
▁Feysel	-13247
▁Gotina	-13248
▁Nîsanê	-13249
▁Teyyib	-13250
▁bizane	-13251
▁dihêne	-13252
▁dikevê	-13253
▁hevrik	-13254
perestan	-13255
▁Journal	-13256
▁babetên	-13257
▁derkevt	-13258
▁kulturî	-13259
▁çaremîn	-13260
▁ALMANIYA	-13261
▁Yekşembî	-13262
▁bombebar	-13263
▁hezkirin	-13264
▁pêşandan	-13265
▁rêzefîlm	-13266
▁siyasiya	-13267
▁tekoşîna	-13268
▁Filistînê	-13269
▁serweriya	-13270
▁demjimaran	-13271
▁operasiyon	-13272
▁zanyarîyan	-13273
▁dagirkirina	-13274
▁desthilatdarî	-13275
by	-13276
vo	-13277
وو	-13278
′′	-13279
▁أ	-13280
bak	-13281
êze	-13282
▁Hy	-13283
anek	-13284
blem	-13285
hing	-13286
orum	-13287
otal	-13288
rass	-13289
▁23'	-13290
▁Hej	-13291
▁KBS	-13292
▁Ott	-13293
▁Req	-13294
▁Say	-13295
▁YPG	-13296
▁Zul	-13297
▁Zûl	-13298
▁peş	-13299
▁tic	-13300
▁xap	-13301
▁|--	-13302
▁êşa	-13303
emper	-13304
▁1935	-13305
▁Benj	-13306
▁Kork	-13307
▁Xesx	-13308
▁edeb	-13309
▁gluk	-13310
▁kart	-13311
▁plat	-13312
▁ziwa	-13313
enceyê	-13314
▁Wezîr	-13315
▁edebî	-13316
▁hefte	-13317
▁karin	-13318
▁lixwe	-13319
▁(2000)	-13320
▁ENCAMA	-13321
▁Korêyê	-13322
▁PÎROZB	-13323
▁bexden	-13324
▁dezgeh	-13325
▁vebike	-13326
dewrîyey	-13327
▁Berkelî	-13328
▁Erzîrom	-13329
▁agehdar	-13330
▁avabûna	-13331
▁bajarek	-13332
▁binêrin	-13333
▁jîngehê	-13334
▁kirinên	-13335
▁mamosta	-13336
▁Çareser	-13337
▁şandiye	-13338
efamîleya	-13339
▁Destpêka	-13340
▁hefteyan	-13341
▁hezîranê	-13342
▁karûbarê	-13343
▁zanîngeh	-13344
▁Matematîk	-13345
▁amadeyîya	-13346
▁bigihînin	-13347
▁birêxistin	-13348
▁saloxandin	-13349
▁veguhastin	-13350
▁referanduma	-13351
▁vegerandina	-13352
▁Parlamenterên	-13353
UC	-13354
cal	-13355
cên	-13356
new	-13357
rib	-13358
sil	-13359
xon	-13360
zek	-13361
▁0,	-13362
▁Ep	-13363
▁il	-13364
▁jı	-13365
(199	-13366
DEAD	-13367
aris	-13368
bang	-13369
elok	-13370
ield	-13371
likê	-13372
▁Abi	-13373
▁Dût	-13374
▁Sus	-13375
▁ZAN	-13376
▁mud	-13377
▁qef	-13378
▁xoş	-13379
/2012	-13380
ichte	-13381
têgih	-13382
▁Hann	-13383
▁KAND	-13384
▁Sing	-13385
▁Will	-13386
▁anjî	-13387
FFDEAD	-13388
▁2011'	-13389
▁Eyûbî	-13390
▁Felek	-13391
▁Hêmin	-13392
▁Orhan	-13393
▁Sînem	-13394
▁TARIQ	-13395
▁Tayyî	-13396
▁bidar	-13397
▁dayne	-13398
▁hevûd	-13399
▁pakij	-13400
▁riyên	-13401
asyonên	-13402
▁Hunerê	-13403
▁Tehsîn	-13404
▁dîwarê	-13405
▁nehêle	-13406
▁radest	-13407
andarîya	-13408
▁Kovarên	-13409
▁dilovan	-13410
▁Berzencî	-13411
▁merasîma	-13412
▁ragihana	-13413
▁zankoyên	-13414
▁çêkiriye	-13415
▁Şemzînan	-13416
▁DESTNÎŞAN	-13417
▁gendelîyê	-13418
▁gengeşeyê	-13419
▁rayedarên	-13420
▁famîleyeke	-13421
▁kurdistana	-13422
▁rêvebiriya	-13423
▁bajêrvanîya	-13424
▁xwenîşandan	-13425
▁parlîyamenta	-13426
Av	-13427
DI	-13428
dy	-13429
ké	-13430
HAT	-13431
ORA	-13432
bul	-13433
nes	-13434
opî	-13435
php	-13436
rez	-13437
sim	-13438
▁EZ	-13439
MEZR	-13440
arth	-13441
atir	-13442
recî	-13443
▁ERD	-13444
▁God	-13445
▁Lih	-13446
▁Mix	-13447
▁Nef	-13448
▁Tes	-13449
▁Yaz	-13450
▁dit	-13451
▁sih	-13452
beral	-13453
hagen	-13454
istin	-13455
utube	-13456
ympha	-13457
îniya	-13458
▁Just	-13459
▁Maur	-13460
▁Nirx	-13461
▁Penn	-13462
▁Wall	-13463
▁cerd	-13464
▁hîmê	-13465
FFFFFF	-13466
îtanan	-13467
▁Alban	-13468
▁Eliyê	-13469
▁Nazim	-13470
▁Qered	-13471
▁Remed	-13472
▁Super	-13473
▁aware	-13474
▁bangî	-13475
▁bikêr	-13476
▁lîstê	-13477
▁planê	-13478
▁rasip	-13479
▁BILIND	-13480
▁Derman	-13481
▁Napole	-13482
▁Teyfûr	-13483
▁bihûrî	-13484
▁geheşt	-13485
▁kevirê	-13486
▁nahêle	-13487
▁Ciwanên	-13488
▁Jêderek	-13489
▁dilxweş	-13490
▁gelekan	-13491
▁hevbeşa	-13492
▁pirseka	-13493
▁zanista	-13494
▁Atlantîk	-13495
▁Belavbûn	-13496
▁Berzincî	-13497
▁Cemiyeta	-13498
▁Remezanê	-13499
▁dijberên	-13500
▁paşeroja	-13501
▁Kondoleza	-13502
▁pêkhatiye	-13503
▁pêşveçûna	-13504
▁wergirtine	-13505
▁PIŞTEVANÎYA	-13506
▁fraksiyonan	-13507
ns	-13508
اد	-13509
Yek	-13510
got	-13511
kor	-13512
êşê	-13513
ûde	-13514
şîr	-13515
▁51	-13516
▁si	-13517
:200	-13518
News	-13519
ferî	-13520
jent	-13521
rand	-13522
▁*02	-13523
▁Dep	-13524
▁Dîd	-13525
▁Erb	-13526
▁Leb	-13527
▁Miq	-13528
▁Saf	-13529
▁Zeb	-13530
▁als	-13531
▁beg	-13532
▁lûl	-13533
▁mul	-13534
▁çay	-13535
ewarî	-13536
▁Jina	-13537
▁Song	-13538
▁Syst	-13539
▁Trab	-13540
▁bûyî	-13541
▁fist	-13542
▁miha	-13543
▁Dexîl	-13544
▁Faris	-13545
▁Fehmî	-13546
▁Feylî	-13547
▁Jefrî	-13548
▁Pasîf	-13549
▁Qizil	-13550
▁Radyo	-13551
▁Wirmê	-13552
▁Xwedî	-13553
▁budce	-13554
▁pêkve	-13555
▁zeytê	-13556
▁Meysûn	-13557
▁Sîyasî	-13558
▁bedena	-13559
▁cureyê	-13560
▁heremê	-13561
▁herisê	-13562
▁mûzîkê	-13563
▁xeterê	-13564
▁Gundikê	-13565
▁Nûçeyan	-13566
▁civakên	-13567
▁derbazî	-13568
▁doktora	-13569
▁otombêl	-13570
▁pestoya	-13571
▁pûşpera	-13572
▁silavên	-13573
▁Xorasana	-13574
▁asmanîya	-13575
▁aştiyane	-13576
▁kongreyê	-13577
▁kêmkirin	-13578
▁rêberiya	-13579
▁bergiriya	-13580
▁pêvajoyên	-13581
▁Dûzxormato	-13582
▁Sîstematîk	-13583
▁daxuyaniya	-13584
▁konferensê	-13585
▁beşdarîkirina	-13586
▁parliyamenterên	-13587
.4	-13588
Ba	-13589
gu	-13590
ego	-13591
laq	-13592
owa	-13593
rol	-13594
uen	-13595
▁Ri	-13596
▁co	-13597
▁pp	-13598
▁ça	-13599
seud	-13600
uler	-13601
wext	-13602
yeta	-13603
îkar	-13604
▁DAW	-13605
▁Dûr	-13606
▁Kle	-13607
▁Pop	-13608
▁Ras	-13609
▁Tod	-13610
▁dîs	-13611
▁kob	-13612
▁mik	-13613
▁sem	-13614
▁zin	-13615
▁îna	-13616
Roman	-13617
barên	-13618
landî	-13619
îşana	-13620
▁1910	-13621
▁Duhî	-13622
▁Ener	-13623
▁Hund	-13624
▁Kand	-13625
▁Manî	-13626
▁Qada	-13627
▁Rêya	-13628
▁evîn	-13629
▁kund	-13630
▁kêfa	-13631
▁pişk	-13632
▁tena	-13633
▁şîrê	-13634
forman	-13635
▁Dabeş	-13636
▁Fermî	-13637
▁Hindî	-13638
▁Stand	-13639
▁Yusif	-13640
▁rojek	-13641
▁şkest	-13642
Amerîka	-13643
▁Astara	-13644
▁Betula	-13645
▁Fîlmên	-13646
▁Libnan	-13647
▁Tewrat	-13648
▁Yemenî	-13649
▁ayetan	-13650
▁danîye	-13651
▁fîzîka	-13652
▁katjim	-13653
▁lezgîn	-13654
▁rojevê	-13655
▁zayend	-13656
▁Êrîşên	-13657
▁Petrolê	-13658
▁komelên	-13659
îskografî	-13660
▁Larîcanî	-13661
▁Mengurrî	-13662
▁Qeretepe	-13663
▁aşkirayî	-13664
▁kovareke	-13665
▁hilawîstî	-13666
▁pêşniyara	-13667
▁reşnivîsa	-13668
▁sêşembîyê	-13669
▁dinivîsîne	-13670
dewrîyeyyeka	-13671
▁nivîsandine	-13672
AH	-13673
su	-13674
Kar	-13675
kew	-13676
lit	-13677
liv	-13678
usî	-13679
înk	-13680
ûgê	-13681
▁Iz	-13682
aven	-13683
eyat	-13684
retê	-13685
wald	-13686
▁170	-13687
▁Bêd	-13688
▁CIA	-13689
▁NIR	-13690
▁Pez	-13691
▁Rod	-13692
▁Rot	-13693
▁Sta	-13694
▁cûd	-13695
▁faş	-13696
▁hêk	-13697
▁kok	-13698
▁mag	-13699
▁vîr	-13700
▁çiq	-13701
Ebdul	-13702
ayekê	-13703
chaft	-13704
▁Aşûr	-13705
▁Burg	-13706
▁Gişt	-13707
▁kanî	-13708
▁tûşî	-13709
▁yeke	-13710
▁deved	-13711
▁guhar	-13712
▁hestî	-13713
▁kurên	-13714
▁salek	-13715
Helbest	-13716
irandin	-13717
nameyek	-13718
▁(2005)	-13719
▁Efendî	-13720
▁Navokî	-13721
▁Pasîna	-13722
▁asîmîl	-13723
▁bêjeya	-13724
▁nivîsî	-13725
▁ASAYIŞA	-13726
▁aloztir	-13727
▁berdide	-13728
▁gihişte	-13729
▁miliyon	-13730
▁parzûna	-13731
▁wêneyan	-13732
▁ÎTILAFA	-13733
▁çandinê	-13734
▁YEKÎTÎYA	-13735
▁agahiyan	-13736
▁navdarên	-13737
▁pêdivîye	-13738
▁pêşerojê	-13739
▁cezakirin	-13740
▁dêrendaza	-13741
▁herdemîya	-13742
▁pêşnîyara	-13743
▁Rêxistinên	-13744
▁dirêjahiya	-13745
▁matematîkê	-13746
▁FRAKSIYONÊN	-13747
▁Hunermendên	-13748
▁opozisiyona	-13749
.(	-13750
MI	-13751
dt	-13752
ms	-13753
ny	-13754
-12	-13755
Mal	-13756
TON	-13757
aşa	-13758
ily	-13759
see	-13760
ÊJE	-13761
▁Bü	-13762
▁Oh	-13763
▁Qa	-13764
▁Êl	-13765
Herê	-13766
YARA	-13767
biya	-13768
ekol	-13769
izin	-13770
kurt	-13771
▁AVA	-13772
▁Aks	-13773
▁Cas	-13774
▁Cla	-13775
▁Dun	-13776
▁Las	-13777
▁Lep	-13778
▁NEW	-13779
▁hoy	-13780
▁roh	-13781
▁taq	-13782
Piştî	-13783
birin	-13784
kovar	-13785
stant	-13786
ywood	-13787
▁Guli	-13788
▁Kili	-13789
▁Kuşt	-13790
▁PÊNC	-13791
▁Tarî	-13792
▁dozê	-13793
▁eynî	-13794
▁rohn	-13795
▁Şaxê	-13796
▁Şêxo	-13797
▁95%;"	-13798
▁Awust	-13799
▁Bîzan	-13800
▁Doğan	-13801
▁Fewzî	-13802
▁Image	-13803
▁Karên	-13804
▁dibit	-13805
▁dupat	-13806
▁lawan	-13807
▁padîş	-13808
▁qaçax	-13809
▁salix	-13810
▁Împer	-13811
Almanya	-13812
▁EWROPA	-13813
▁Mehser	-13814
▁biharê	-13815
▁carekî	-13816
▁kesekê	-13817
Panthera	-13818
▁Holland	-13819
▁LEŞKERÎ	-13820
▁PROSESA	-13821
▁TEQÎNEK	-13822
▁firokên	-13823
▁hinceta	-13824
▁lîstika	-13825
▁organîz	-13826
▁peyamên	-13827
▁Daxuyanî	-13828
▁December	-13829
▁Lîtvanya	-13830
▁Talabanî	-13831
▁aborîyên	-13832
▁enerjiyê	-13833
▁girêdayê	-13834
▁Bernameya	-13835
▁amadekarî	-13836
▁hejmareka	-13837
▁tundûtûjî	-13838
▁Awistralya	-13839
▁giringîyek	-13840
▁nerazîbûnê	-13841
▁bazirganiya	-13842
▁televîzyona	-13843
Un	-13844
ll	-13845
-15	-13846
Bir	-13847
New	-13848
RÊŞ	-13849
fur	-13850
gus	-13851
hûr	-13852
kat	-13853
rum	-13854
ven	-13855
wîn	-13856
çem	-13857
▁78	-13858
▁ap	-13859
OGAN	-13860
gang	-13861
ream	-13862
tain	-13863
wist	-13864
▁Auf	-13865
▁Ert	-13866
▁Fex	-13867
▁Isa	-13868
▁Kef	-13869
▁Pav	-13870
▁Xec	-13871
▁Zaw	-13872
▁hîp	-13873
▁lêz	-13874
▁sol	-13875
▁val	-13876
▁Çaw	-13877
▁çet	-13878
dêrên	-13879
ehiya	-13880
embûr	-13881
genek	-13882
ithec	-13883
mezin	-13884
reyên	-13885
îşkên	-13886
▁ARÊŞ	-13887
▁Akrê	-13888
▁BIDE	-13889
▁Hall	-13890
▁Hemî	-13891
▁Keya	-13892
▁Keşt	-13893
▁Masî	-13894
▁Pres	-13895
▁Wald	-13896
▁avêt	-13897
▁esas	-13898
▁gazî	-13899
▁qenc	-13900
▁trên	-13901
andana	-13902
serokê	-13903
▁Evdil	-13904
▁Hawar	-13905
▁Hekîm	-13906
▁House	-13907
▁KESÊN	-13908
▁Mamek	-13909
▁Saudî	-13910
▁Yenîş	-13911
▁destî	-13912
▁greva	-13913
▁nêrîn	-13914
▁Îhsan	-13915
▁çandê	-13916
▁Bayram	-13917
▁CÎHANÊ	-13918
▁Dîplom	-13919
▁KIRIYE	-13920
▁Lîbîya	-13921
▁Meydan	-13922
▁Tayyîp	-13923
▁Urmiyê	-13924
▁Walter	-13925
▁Werger	-13926
▁Zazakî	-13927
▁Zêwyeê	-13928
▁bombek	-13929
▁carnan	-13930
▁dikarê	-13931
▁diravî	-13932
▁ezmûna	-13933
▁nedane	-13934
▁osmanî	-13935
▁sekinî	-13936
▁zanîst	-13937
▁ROJNAME	-13938
▁Refsenc	-13939
▁destkef	-13940
▁rêkarên	-13941
▁Derhêner	-13942
▁Virginia	-13943
▁dergehên	-13944
▁gerînend	-13945
▁jenosîda	-13946
▁parêzgar	-13947
▁polîtbor	-13948
▁sernivîs	-13949
▁Yekîneyên	-13950
▁bijarteya	-13951
▁saxlemîyê	-13952
▁amadebûyan	-13953
▁berfanbara	-13954
▁Demokrasiyê	-13955
▁bernameyeke	-13956
▁têgihiştina	-13957
▁televiziyona	-13958
He	-13959
št	-13960
ра	-13961
او	-13962
▁ح	-13963
Web	-13964
pin	-13965
îfa	-13966
şeb	-13967
▁(4	-13968
▁88	-13969
▁Uh	-13970
IYAN	-13971
aksî	-13972
eydî	-13973
iyûm	-13974
taya	-13975
yetê	-13976
▁975	-13977
▁ELH	-13978
▁Kîp	-13979
▁Yal	-13980
▁var	-13981
arayê	-13982
hatin	-13983
marka	-13984
ulipa	-13985
vedev	-13986
▁1909	-13987
▁Bide	-13988
▁Elez	-13989
▁Kûba	-13990
▁NIRX	-13991
▁Tîma	-13992
▁[9:3	-13993
▁binî	-13994
▁nuşt	-13995
▁tank	-13996
edanên	-13997
engiya	-13998
îstanî	-13999
▁Asiya	-14000
▁Ladin	-14001
▁Minaq	-14002
▁VEGER	-14003
▁Xirab	-14004
▁beran	-14005
▁dilhê	-14006
▁girav	-14007
▁herik	-14008
▁pêktê	-14009
▁xwerû	-14010
▁şagir	-14011
uttgart	-14012
▁Merwan	-14013
▁Tûnisê	-14014
▁hewayî	-14015
▁wilaye	-14016
▁PÊŞKÊŞÎ	-14017
▁jidayik	-14018
▁raportê	-14019
▁xistina	-14020
▁zikmakî	-14021
▁Israyelî	-14022
▁Medvedev	-14023
▁dihewîne	-14024
▁nivîsîne	-14025
▁serdarên	-14026
▁Demokrasî	-14027
▁guhdarîya	-14028
▁kifşkirin	-14029
▁Refsencanî	-14030
▁birawestin	-14031
▁xebitandin	-14032
▁daxuyanîyek	-14033
▁parlamentoyê	-14034
▁împeratoriya	-14035
▁xwenîşanderên	-14036
▁ف	-14037
▁ی	-14038
ado	-14039
bay	-14040
key	-14041
reb	-14042
vên	-14043
yay	-14044
▁DR	-14045
▁FU	-14046
▁Şe	-14047
EYEK	-14048
aaaa	-14049
ebil	-14050
eşta	-14051
gîrî	-14052
illi	-14053
iyat	-14054
îçek	-14055
▁Hûs	-14056
▁Kır	-14057
▁Ned	-14058
▁gey	-14059
class	-14060
solin	-14061
tîmal	-14062
▁ADIL	-14063
▁Burk	-14064
▁OPEC	-14065
▁Rojê	-14066
▁SALA	-14067
▁Salv	-14068
▁erka	-14069
▁goya	-14070
▁êlên	-14071
aaaaaa	-14072
keliya	-14073
raliya	-14074
ubeydî	-14075
▁Black	-14076
▁Dogan	-14077
▁Massa	-14078
▁bahse	-14079
▁dizan	-14080
▁çûnkî	-14081
ermenda	-14082
▁Danûst	-14083
▁Mahmud	-14084
▁dirêjî	-14085
▁dirûvê	-14086
▁gihaye	-14087
▁heftem	-14088
▁hevzay	-14089
▁çêbûne	-14090
.06.2010	-14091
▁Alîkarê	-14092
▁Bedfort	-14093
▁Kuştina	-14094
▁dikujin	-14095
▁herwekî	-14096
▁otombîl	-14097
▁rengekî	-14098
▁rojnama	-14099
▁zanayên	-14100
▁Encumena	-14101
▁Ewrûpayê	-14102
▁dijminên	-14103
▁leşkerek	-14104
▁pêywîste	-14105
▁tekezîyê	-14106
▁xizmetên	-14107
▁BERPIRSÊN	-14108
▁axaftinek	-14109
▁masûlkeyên	-14110
▁sazûmaniya	-14111
▁berdestkirin	-14112
▁saloxegerîya	-14113
cm	-14114
oi	-14115
sl	-14116
"),	-14117
100	-14118
HER	-14119
Mic	-14120
idi	-14121
iyî	-14122
kod	-14123
ûyî	-14124
şer	-14125
▁8.	-14126
2013	-14127
axan	-14128
derê	-14129
eten	-14130
ewic	-14131
jima	-14132
ogen	-14133
serê	-14134
ukan	-14135
ukar	-14136
wiki	-14137
ûpêk	-14138
▁119	-14139
▁Dub	-14140
▁KÊM	-14141
▁Lok	-14142
▁PYD	-14143
▁Pêl	-14144
▁Spr	-14145
▁Yeh	-14146
▁bot	-14147
▁gez	-14148
▁rob	-14149
▁tif	-14150
▁Şeş	-14151
elanî	-14152
ettîn	-14153
yaran	-14154
ûbayê	-14155
▁Amir	-14156
▁Cind	-14157
▁Herz	-14158
▁Seid	-14159
▁gefa	-14160
▁jêre	-14161
▁vêga	-14162
▁xane	-14163
▁2010:	-14164
▁Afgan	-14165
▁Bened	-14166
▁Beşên	-14167
▁Maked	-14168
▁dişew	-14169
▁evîna	-14170
▁hewce	-14171
▁kareb	-14172
▁sîxur	-14173
▁Gotara	-14174
▁Pêşwaz	-14175
▁Sûdanê	-14176
▁Taylor	-14177
▁Tendur	-14178
▁asîdên	-14179
▁devoka	-14180
▁fedral	-14181
▁peyvan	-14182
▁pêncem	-14183
▁çargoş	-14184
▁Brahîmî	-14185
▁NewYork	-14186
▁Wezîrên	-14187
▁Yenîşeh	-14188
▁Zankoya	-14189
▁carinan	-14190
▁ciyawaz	-14191
▁girtinê	-14192
▁girînge	-14193
▁herwesa	-14194
▁hinekan	-14195
▁nêzîkan	-14196
▁suryanî	-14197
▁êrîşeka	-14198
▁Napoleon	-14199
▁herçende	-14200
▁raportên	-14201
▁Japonyayê	-14202
▁Saxifraga	-14203
▁bermîleka	-14204
▁giringîyê	-14205
▁hejmareke	-14206
▁xizmetgoz	-14207
▁Îtaliyayî	-14208
▁Stockholmê	-14209
▁ewlekariyê	-14210
▁pêwendiyên	-14211
▁serokkomar	-14212
▁çarşembîyê	-14213
▁Amerîkayîyan	-14214
▁hevwelatîyekî	-14215
Îs	-14216
-60	-14217
MEH	-14218
arr	-14219
del	-14220
esh	-14221
iat	-14222
mod	-14223
zel	-14224
ûta	-14225
ERAS	-14226
ardi	-14227
gînî	-14228
idel	-14229
rawe	-14230
torê	-14231
uary	-14232
yewe	-14233
îngl	-14234
îtir	-14235
▁Dah	-14236
▁Tex	-14237
▁bap	-14238
▁lab	-14239
▁nig	-14240
▁nuj	-14241
▁ven	-14242
Serok	-14243
nîşan	-14244
uther	-14245
▁1915	-14246
▁Adam	-14247
▁Chil	-14248
▁anat	-14249
▁biax	-14250
▁ewna	-14251
▁hemu	-14252
▁rûda	-14253
▁sads	-14254
▁wend	-14255
▁Çile	-14256
baranê	-14257
▁Aysel	-14258
▁Cihên	-14259
▁Koçer	-14260
▁Navçe	-14261
▁PÊŞIN	-14262
▁Yusuf	-14263
▁Zîlan	-14264
▁amînî	-14265
▁bedew	-14266
▁heftê	-14267
▁oldar	-14268
▁Mijdar	-14269
▁Petray	-14270
▁Pîrhes	-14271
▁Siyasî	-14272
▁Tebaxê	-14273
▁United	-14274
▁boneyê	-14275
▁diafir	-14276
▁gedeyê	-14277
▁namîne	-14278
▁reftar	-14279
▁ERDOGAN	-14280
▁Gewirkî	-14281
▁HILWEST	-14282
▁Simkoyê	-14283
▁girseyî	-14284
▁kirdewe	-14285
▁kolanên	-14286
▁medyayê	-14287
▁mijdara	-14288
▁nasname	-14289
▁xêzanên	-14290
▁November	-14291
▁serdanên	-14292
▁werbigre	-14293
▁Felestînê	-14294
▁damezrand	-14295
▁girîngiya	-14296
▁kîlometre	-14297
▁parlemanî	-14298
▁Qereyaziyê	-14299
▁Rêveberiya	-14300
▁kîmyabaran	-14301
▁çareserîyê	-14302
Pr	-14303
]]	-14304
uç	-14305
Dem	-14306
cia	-14307
xir	-14308
▁91	-14309
▁AW	-14310
▁Hî	-14311
▁Îş	-14312
▁çî	-14313
="4"	-14314
agas	-14315
ectr	-14316
enth	-14317
eper	-14318
goşt	-14319
kerd	-14320
list	-14321
nest	-14322
oyal	-14323
stek	-14324
tirî	-14325
▁900	-14326
▁Buc	-14327
▁Ewî	-14328
▁Joe	-14329
▁Meg	-14330
▁Nal	-14331
▁Rah	-14332
▁Rud	-14333
▁Sof	-14334
▁Sub	-14335
▁ein	-14336
▁kaş	-14337
▁kut	-14338
▁mêh	-14339
emmed	-14340
farbe	-14341
ibîne	-14342
iwanê	-14343
iyeya	-14344
▁1905	-14345
▁Fred	-14346
▁Keça	-14347
▁Pala	-14348
▁Stan	-14349
▁Xwed	-14350
▁kovî	-14351
▁sing	-14352
▁sond	-14353
▁zînd	-14354
aniyên	-14355
atiyên	-14356
gehekê	-14357
▁Angel	-14358
▁Ekrem	-14359
▁Nadir	-14360
▁Night	-14361
▁Stewr	-14362
▁navça	-14363
▁stêra	-14364
▁tevbi	-14365
▁tevdi	-14366
▁Kaplan	-14367
▁Kobanê	-14368
▁Peyman	-14369
▁Tugluk	-14370
▁bergên	-14371
▁birine	-14372
▁birîna	-14373
▁şêweyê	-14374
.05.2010	-14375
▁Bernard	-14376
▁Ergenek	-14377
▁Herwesa	-14378
▁Konsulê	-14379
▁Sunneyî	-14380
▁Xaneyên	-14381
▁jidayîk	-14382
▁rêkxist	-14383
▁bihîstin	-14384
▁girtîyan	-14385
▁mirovahî	-14386
▁Osmanîyan	-14387
▁edebiyata	-14388
▁ragirtina	-14389
▁destpêbûna	-14390
▁guhertinên	-14391
▁siyasetmedarên	-14392
aga	-14393
efş	-14394
eps	-14395
iki	-14396
kun	-14397
oko	-14398
tra	-14399
uce	-14400
urn	-14401
▁66	-14402
▁HÊ	-14403
AROK	-14404
ifer	-14405
odor	-14406
stin	-14407
▁3-4	-14408
▁Hüs	-14409
▁Tac	-14410
▁cûn	-14411
▁dis	-14412
▁nat	-14413
▁Înî	-14414
ALIYA	-14415
aniye	-14416
îxbar	-14417
▁Akin	-14418
▁Elçî	-14419
▁Nîşt	-14420
▁Xwîn	-14421
▁vana	-14422
▁Çekî	-14423
enderê	-14424
enîgar	-14425
gotinê	-14426
keftin	-14427
îtanya	-14428
▁Dibin	-14429
▁Dîlok	-14430
▁Elhes	-14431
▁Human	-14432
▁Marks	-14433
▁Norwe	-14434
▁Serma	-14435
▁faris	-14436
▁hazir	-14437
▁hizar	-14438
▁perçe	-14439
▁xanim	-14440
▁xeber	-14441
▁Îndon	-14442
▁Bijîşk	-14443
▁Ehmedî	-14444
▁German	-14445
▁avakir	-14446
▁danana	-14447
▁datîne	-14448
▁digihê	-14449
▁dihata	-14450
▁lêdana	-14451
▁rejima	-14452
▁sinorê	-14453
▁Encamên	-14454
▁Iraqeka	-14455
▁Misircê	-14456
▁Wergera	-14457
▁cotmeha	-14458
▁distîne	-14459
▁tevgerê	-14460
▁Swîsreyê	-14461
▁agahîyên	-14462
▁bigihîje	-14463
▁disekinê	-14464
▁Îngilîzî	-14465
▁çêkirine	-14466
▁Felestînî	-14467
▁Istanbolê	-14468
▁binemayên	-14469
▁milîtanên	-14470
▁profesyon	-14471
▁rojhelata	-14472
▁şaristanî	-14473
▁bazirganên	-14474
▁bilindbûna	-14475
▁pirsgirêkê	-14476
▁Perliyament	-14477
▁daxuyanîyekî	-14478
▁Xwepêşandanên	-14479
92	-14480
(19	-14481
-16	-14482
Don	-14483
Mes	-14484
Pey	-14485
ems	-14486
lac	-14487
ual	-14488
êhr	-14489
▁71	-14490
▁Sy	-14491
▁sl	-14492
=300	-14493
EMAL	-14494
akya	-14495
enge	-14496
mayî	-14497
rach	-14498
îyet	-14499
▁Dag	-14500
▁HUS	-14501
▁Kum	-14502
▁Mîs	-14503
▁Ort	-14504
▁Pin	-14505
▁Qeb	-14506
▁aus	-14507
▁cam	-14508
▁don	-14509
▁weh	-14510
MEHDÎ	-14511
anîye	-14512
xwaza	-14513
▁(193	-14514
▁ARÎŞ	-14515
▁Bird	-14516
▁Deme	-14517
▁Gerd	-14518
▁Hînd	-14519
▁Skot	-14520
▁aktr	-14521
▁bejî	-14522
▁bela	-14523
▁pars	-14524
:200%;	-14525
▁Mesud	-14526
▁cejnê	-14527
▁elewî	-14528
▁eşîrê	-14529
▁nakim	-14530
▁neheq	-14531
îstîkên	-14532
▁(2004)	-14533
▁Arthur	-14534
▁Gilgam	-14535
▁Hitler	-14536
▁Kîpros	-14537
▁Mizgîn	-14538
▁Orşelî	-14539
▁Seraya	-14540
▁dikane	-14541
▁dilsoz	-14542
▁dilîze	-14543
▁perlem	-14544
▁têgîna	-14545
▁êrîşek	-14546
▁Nûneran	-14547
▁PARTÎYA	-14548
▁Seydayê	-14549
▁dadwerî	-14550
▁negihij	-14551
▁xebatan	-14552
▁Yezdanên	-14553
▁navandin	-14554
▁ragirtin	-14555
▁reformên	-14556
▁rûnbirêş	-14557
▁Stuttgart	-14558
▁karnameya	-14559
▁komîteyan	-14560
▁parliyamn	-14561
▁çavdêriya	-14562
▁Zanîngehên	-14563
▁stiratecîk	-14564
▁yekgirtina	-14565
▁rewşenbîrîya	-14566
▁serrastkirin	-14567
RE	-14568
ст	-14569
ای	-14570
ige	-14571
ito	-14572
nik	-14573
pek	-14574
rsg	-14575
▁pû	-14576
ague	-14577
anim	-14578
azar	-14579
▁20-	-14580
▁Dog	-14581
▁Duz	-14582
▁Hêl	-14583
▁Ktv	-14584
▁Taş	-14585
▁XUR	-14586
▁fîr	-14587
▁ist	-14588
ayiyê	-14589
beris	-14590
îstik	-14591
îyeta	-14592
▁BÛYE	-14593
▁KOMP	-14594
▁Malî	-14595
▁Zend	-14596
▁fêkî	-14597
▁heqê	-14598
▁hizr	-14599
▁Çîna	-14600
▁çêbi	-14601
DARÎYA	-14602
ikevin	-14603
▁2010'	-14604
▁Enbar	-14605
▁Stein	-14606
▁Yayın	-14607
▁binec	-14608
▁genet	-14609
▁geşep	-14610
▁hukmê	-14611
▁keçên	-14612
▁krîst	-14613
▁medya	-14614
▁nişka	-14615
▁xalkê	-14616
▁Îngîl	-14617
▁Îsawî	-14618
▁şiyan	-14619
Deutsch	-14620
perestî	-14621
▁(2006)	-14622
▁Batman	-14623
▁DEVERA	-14624
▁DIJWAR	-14625
▁Gulana	-14626
▁Muamer	-14627
▁Online	-14628
▁Xelîfe	-14629
▁berdew	-14630
▁domand	-14631
▁hetanî	-14632
▁nekarî	-14633
▁Dumlûcî	-14634
▁Felsefe	-14635
▁Rojname	-14636
▁derheqa	-14637
▁gemîyên	-14638
▁havînan	-14639
▁pareyên	-14640
▁qanûnan	-14641
▁şerrekî	-14642
▁destxweş	-14643
▁dîplomat	-14644
▁ewlehîya	-14645
▁pêvajoyê	-14646
▁şervanên	-14647
▁rêzgirtin	-14648
▁binpêkirin	-14649
▁geştevanîyê	-14650
5.	-14651
CD	-14652
MV	-14653
PJ	-14654
▁Ḧ	-14655
85/	-14656
DEN	-14657
EMA	-14658
fen	-14659
muz	-14660
oqa	-14661
qol	-14662
sur	-14663
wêr	-14664
îno	-14665
ılı	-14666
▁ûr	-14667
ader	-14668
emez	-14669
iden	-14670
okek	-14671
pend	-14672
sîya	-14673
▁Ewê	-14674
▁Kok	-14675
▁Lex	-14676
▁Nûd	-14677
▁SIB	-14678
▁Sha	-14679
▁WAN	-14680
▁Yav	-14681
▁awa	-14682
▁mam	-14683
ANEYA	-14684
exane	-14685
iform	-14686
ragon	-14687
unîst	-14688
▁Abor	-14689
▁Ceyh	-14690
▁Life	-14691
▁Lîbî	-14692
▁arke	-14693
▁dûra	-14694
▁grub	-14695
▁neyn	-14696
îstana	-14697
▁2005:	-14698
▁Carol	-14699
▁Firok	-14700
▁Kurdê	-14701
▁Mîtra	-14702
▁Semîr	-14703
▁behra	-14704
▁bidaw	-14705
▁diley	-14706
▁lewre	-14707
▁mercê	-14708
▁nedan	-14709
▁sitem	-14710
▁waran	-14711
▁xelkî	-14712
▁Atlant	-14713
▁Civakî	-14714
▁Mijara	-14715
▁Romana	-14716
▁Xerzan	-14717
▁angaşt	-14718
▁cêgirê	-14719
▁serokî	-14720
▁werina	-14721
▁zincîr	-14722
▁Babekir	-14723
▁Brazîlê	-14724
▁NÛNERÊN	-14725
▁Sedsala	-14726
▁Tetwanê	-14727
▁abûrîyê	-14728
▁bendera	-14729
▁beravên	-14730
▁Çêrmûgê	-14731
▁Agahiyên	-14732
▁disekine	-14733
▁giştîyên	-14734
▁nivîsîna	-14735
▁yekîtiya	-14736
▁Dawûdoglû	-14737
▁Nivîsgeha	-14738
▁berbijarê	-14739
▁gihiştiye	-14740
▁komkujiyê	-14741
▁mîlîtanên	-14742
▁pêkhatina	-14743
▁pêşketinê	-14744
▁EBDULMEHDÎ	-14745
▁gengeşeyan	-14746
▁Selaheddînê	-14747
▁damezrênerê	-14748
▁danûstandinê	-14749
▁enfalkirîyan	-14750
▁perliyamentê	-14751
▁tenduristiyê	-14752
HN	-14753
ée	-14754
Mon	-14755
ORÊ	-14756
abl	-14757
dax	-14758
ifî	-14759
xas	-14760
zab	-14761
şah	-14762
▁mm	-14763
▁mu	-14764
▁İl	-14765
EBIR	-14766
ENDA	-14767
Hewl	-14768
lekî	-14769
lika	-14770
moon	-14771
ques	-14772
radê	-14773
untu	-14774
îkir	-14775
▁Big	-14776
▁Dig	-14777
▁Gem	-14778
▁MIS	-14779
▁Moh	-14780
▁NÊV	-14781
▁Ord	-14782
▁Syn	-14783
▁Tep	-14784
▁VED	-14785
▁Wey	-14786
▁kêz	-14787
▁web	-14788
▁wêd	-14789
emmer	-14790
ettah	-14791
ivîna	-14792
vedan	-14793
ville	-14794
▁1934	-14795
▁AZAD	-14796
▁Esad	-14797
▁Ferî	-14798
▁Nerm	-14799
▁Play	-14800
▁berû	-14801
▁korê	-14802
▁pêyî	-14803
▁rave	-14804
▁tirî	-14805
karekî	-14806
▁2009'	-14807
▁Axayê	-14808
▁Aşûrî	-14809
▁Encûm	-14810
▁Exxon	-14811
▁derec	-14812
▁diger	-14813
▁gewre	-14814
▁kadro	-14815
▁pirse	-14816
▁tişta	-14817
kirchen	-14818
ografîk	-14819
▁Austra	-14820
▁Bajêrê	-14821
▁Birayê	-14822
▁Cezayê	-14823
▁Gultan	-14824
▁Mutleg	-14825
▁Zûlfeq	-14826
▁bingih	-14827
▁etnîkî	-14828
▁fîlman	-14829
▁postan	-14830
▁teknîk	-14831
▁werziş	-14832
▁Korkmaz	-14833
▁Mehemed	-14834
▁October	-14835
▁gerdûnî	-14836
▁germiya	-14837
▁kişandî	-14838
▁yekeyên	-14839
▁Kanadayê	-14840
▁TOPBARAN	-14841
▁Yekitiya	-14842
▁bajêrokê	-14843
▁digihêje	-14844
▁diyaloga	-14845
▁gulleyên	-14846
▁mekanîka	-14847
▁navxweya	-14848
▁zanistên	-14849
▁Parlemana	-14850
▁Turkmanan	-14851
▁teroristî	-14852
▁xwekujekî	-14853
▁NAVDEWLETÎ	-14854
▁Waşingtonê	-14855
▁bizavkarên	-14856
▁komisiyonê	-14857
▁paşkevtina	-14858
▁dadgehkirin	-14859
▁weberhênanê	-14860
FS	-14861
▁ز	-14862
Bak	-14863
Bel	-14864
Wer	-14865
ayl	-14866
hou	-14867
ool	-14868
rev	-14869
rip	-14870
rup	-14871
ski	-14872
svg	-14873
tem	-14874
xeb	-14875
ück	-14876
▁4,	-14877
▁Kn	-14878
▁KŞ	-14879
atra	-14880
ello	-14881
opên	-14882
▁Faz	-14883
▁Mûz	-14884
▁Sez	-14885
▁bac	-14886
▁bul	-14887
▁dic	-14888
▁fet	-14889
▁mah	-14890
▁men	-14891
▁Çal	-14892
aneke	-14893
calan	-14894
etayê	-14895
ights	-14896
jimar	-14897
▁Conc	-14898
▁Folk	-14899
▁Mary	-14900
▁Mukr	-14901
▁NAKE	-14902
▁Pirr	-14903
▁dûre	-14904
▁ment	-14905
▁xûrt	-14906
▁çiyê	-14907
▁Şano	-14908
▁şîrk	-14909
census	-14910
▁Amade	-14911
▁Beşîk	-14912
▁Brand	-14913
▁Lewma	-14914
▁Qereb	-14915
▁dikan	-14916
▁lawên	-14917
▁Japonî	-14918
▁Qirgiz	-14919
▁Serbaz	-14920
▁Sosyal	-14921
▁Victor	-14922
▁Yildir	-14923
▁alîgir	-14924
▁jineke	-14925
▁kenala	-14926
▁konsol	-14927
▁mirine	-14928
▁nîşanî	-14929
▁nûnera	-14930
▁piland	-14931
▁pêşiyê	-14932
▁qonaxê	-14933
▁stekan	-14934
▁Kerkukê	-14935
▁Tûrkiye	-14936
▁binivîs	-14937
▁derbeya	-14938
▁destana	-14939
▁hundurê	-14940
▁jenosîd	-14941
▁nexşeya	-14942
▁Benjamin	-14943
▁Kanîreşê	-14944
▁Rêveberê	-14945
▁alozîyên	-14946
▁dîktator	-14947
▁fîlozofê	-14948
kurdistanê	-14949
▁Billboard	-14950
▁Ebdulbarî	-14951
▁Milazgirê	-14952
▁Rewandizê	-14953
▁bêjedanekî	-14954
▁serkirdeyê	-14955
▁berhevkirin	-14956
▁fermandarîya	-14957
▁rojnamevanekî	-14958
Or	-14959
ÎB	-14960
EHR	-14961
Kon	-14962
KÊN	-14963
ain	-14964
dil	-14965
gîh	-14966
pak	-14967
ror	-14968
sia	-14969
uye	-14970
îve	-14971
▁&#	-14972
▁00	-14973
▁po	-14974
erda	-14975
erîn	-14976
fabe	-14977
ilis	-14978
tayê	-14979
▁BAN	-14980
▁DAB	-14981
▁GOT	-14982
▁Nak	-14983
▁Nîn	-14984
▁Wes	-14985
▁fay	-14986
▁hêm	-14987
▁row	-14988
emala	-14989
hemîd	-14990
kepet	-14991
▁===0	-14992
▁Chan	-14993
▁Dewr	-14994
▁Emin	-14995
▁Qers	-14996
▁Torê	-14997
▁avad	-14998
▁deye	-14999
▁gasê	-15000
▁guhê	-15001
▁marî	-15002
▁perr	-15003
▁sans	-15004
▁zilm	-15005
▁Çawa	-15006
amazda	-15007
arîyên	-15008
ayiyên	-15009
elikan	-15010
▁1993'	-15011
▁Domin	-15012
▁Ernst	-15013
▁Opera	-15014
▁biguh	-15015
▁bilez	-15016
▁fîzîk	-15017
▁nişkê	-15018
▁qebul	-15019
▁textê	-15020
▁Crocus	-15021
▁Ewrupa	-15022
▁Mizûrî	-15023
▁doktor	-15024
▁kêmasî	-15025
▁rojekî	-15026
▁rûbarê	-15027
▁tankên	-15028
▁îroyîn	-15029
▁Şaweys	-15030
ografiya	-15031
▁BUDCEYA	-15032
▁Polonya	-15033
▁Wargeha	-15034
▁bikarin	-15035
▁bistîne	-15036
▁elektir	-15037
▁têdikoş	-15038
▁xetabar	-15039
▁Binekoma	-15040
▁Internet	-15041
▁KOMÎTEYA	-15042
▁sererast	-15043
▁xwarinan	-15044
▁KOMBÛNEKÊ	-15045
▁Komîsyona	-15046
▁Muhemmedê	-15047
▁biryareka	-15048
▁felsefîkî	-15049
▁pêşengiya	-15050
▁televizyon	-15051
▁kompanyayan	-15052
▁nêvdewletîya	-15053
▁nûnerênIraqê	-15054
▁xwepêşandanek	-15055
))	-15056
sn	-15057
ān	-15058
-18	-15059
LAH	-15060
dom	-15061
mec	-15062
omp	-15063
rod	-15064
îda	-15065
▁97	-15066
▁ho	-15067
▁îz	-15068
avêj	-15069
betê	-15070
ihab	-15071
king	-15072
news	-15073
yewî	-15074
çika	-15075
îlok	-15076
îpel	-15077
îsmê	-15078
▁Gîl	-15079
▁Kot	-15080
▁Kro	-15081
▁Off	-15082
▁Ton	-15083
▁bez	-15084
▁bun	-15085
▁cîn	-15086
▁jîr	-15087
▁mov	-15088
▁tûn	-15089
▁şûr	-15090
erant	-15091
oidea	-15092
▁1913	-15093
▁Ahûr	-15094
▁Evîn	-15095
▁Peya	-15096
▁Sofî	-15097
▁Teha	-15098
▁Tîpa	-15099
▁Xelq	-15100
▁alim	-15101
▁cidî	-15102
▁dêrê	-15103
▁erda	-15104
▁hati	-15105
▁hell	-15106
▁siza	-15107
▁zikê	-15108
eylanî	-15109
ibînin	-15110
▁2002'	-15111
▁Gelên	-15112
▁Harûn	-15113
▁Maria	-15114
▁PIŞTÎ	-15115
▁Rexne	-15116
▁kirîn	-15117
▁lîmfê	-15118
▁siwar	-15119
▁xweyî	-15120
▁Êzîdî	-15121
olution	-15122
▁Aştîyê	-15123
▁Street	-15124
▁Urdonê	-15125
▁bigoşt	-15126
▁diyarî	-15127
▁dûbare	-15128
▁mehkûm	-15129
▁werine	-15130
▁zewaca	-15131
▁Öcalan	-15132
▁Rêvebir	-15133
▁Sîyaset	-15134
▁bilindê	-15135
▁dişînin	-15136
▁kuştinê	-15137
▁makezag	-15138
▁norwêcî	-15139
▁rowspan	-15140
▁sîstemê	-15141
▁ziyaret	-15142
▁Musilman	-15143
▁ayindeyê	-15144
▁bihêztir	-15145
▁dermanên	-15146
▁diweşîne	-15147
▁kelandin	-15148
▁mizgeftê	-15149
▁derhênerê	-15150
▁elementên	-15151
▁girtîgeha	-15152
▁gulebaran	-15153
▁hefteyekê	-15154
▁sepandina	-15155
▁Şandeyeka	-15156
▁Ahûramazda	-15157
▁bicihkirin	-15158
▁serkeftinê	-15159
▁têgihiştin	-15160
▁çapemeniyê	-15161
▁piştevanîyê	-15162
▁xizmetguzarî	-15163
▁guhdarîkirina	-15164
fo	-15165
yu	-15166
üş	-15167
’’	-15168
Ala	-15169
Can	-15170
EZA	-15171
Hik	-15172
Mac	-15173
eyi	-15174
hor	-15175
iqa	-15176
lie	-15177
|19	-15178
împ	-15179
▁68	-15180
▁lı	-15181
▁su	-15182
▁Şi	-15183
dank	-15184
eliq	-15185
ente	-15186
here	-15187
leta	-15188
ules	-15189
ware	-15190
yeya	-15191
îtar	-15192
▁1/2	-15193
▁Gon	-15194
▁Hîz	-15195
▁Moq	-15196
▁TEK	-15197
▁Tri	-15198
▁UNA	-15199
▁Xey	-15200
▁fen	-15201
▁heş	-15202
▁hîd	-15203
▁xar	-15204
▁çun	-15205
2013;	-15206
ences	-15207
îreyê	-15208
îrwan	-15209
▁1906	-15210
▁Buch	-15211
▁Köln	-15212
▁Spec	-15213
▁ardê	-15214
▁fili	-15215
▁grîf	-15216
▁merî	-15217
▁polê	-15218
▁sext	-15219
▁çîya	-15220
aniyan	-15221
▁Cefer	-15222
▁Music	-15223
▁Trans	-15224
▁ZAROK	-15225
▁Zamen	-15226
▁hanîn	-15227
▁madde	-15228
▁mesîh	-15229
▁pêyws	-15230
▁Çelîk	-15231
Partiya	-15232
ithecus	-15233
▁10.000	-15234
▁Alfred	-15235
▁Dibêje	-15236
▁GIRING	-15237
▁Rusiya	-15238
▁bitenê	-15239
▁dizanî	-15240
▁dostên	-15241
▁koçbar	-15242
▁millet	-15243
▁rûbirû	-15244
▁sazişê	-15245
▁çîyayê	-15246
▁Gelawêj	-15247
▁Xesxêrê	-15248
▁aborîyê	-15249
▁artêşên	-15250
▁demsala	-15251
▁devokên	-15252
▁hêrişên	-15253
▁nehatin	-15254
▁nîşanên	-15255
▁Hikûmetê	-15256
▁berevajî	-15257
▁berevanî	-15258
▁cemawerî	-15259
▁dimeşîne	-15260
▁Berkeliya	-15261
▁akincîyên	-15262
▁girîngîya	-15263
▁nasandina	-15264
▁pêngaveka	-15265
▁afirandina	-15266
▁opozîsyona	-15267
▁serhejmarî	-15268
▁fîzîknasekî	-15269
▁parvekirina	-15270
▁kontrolkirina	-15271
Sw	-15272
pi	-15273
00"	-15274
BAS	-15275
Cal	-15276
IVA	-15277
bus	-15278
enç	-15279
gum	-15280
ycl	-15281
انی	-15282
▁62	-15283
▁US	-15284
Fîlm	-15285
Must	-15286
emar	-15287
ideo	-15288
keyn	-15289
miye	-15290
terî	-15291
tonê	-15292
tûka	-15293
waya	-15294
çînî	-15295
▁(15	-15296
▁Cen	-15297
▁Koş	-15298
▁MED	-15299
▁Rûb	-15300
▁Vel	-15301
▁cap	-15302
▁hîs	-15303
▁mol	-15304
▁pek	-15305
▁tez	-15306
▁Şed	-15307
arpêr	-15308
demir	-15309
ewerî	-15310
eytûn	-15311
girit	-15312
ihêre	-15313
ovayê	-15314
îştin	-15315
▁Gaza	-15316
▁HEYE	-15317
▁Kelê	-15318
▁Marx	-15319
▁Nayê	-15320
▁Rock	-15321
▁Werz	-15322
▁bert	-15323
▁emro	-15324
▁emrê	-15325
▁kelh	-15326
▁qirr	-15327
▁Çavk	-15328
▁çolê	-15329
eyîyan	-15330
▁APWeb	-15331
▁Ewrup	-15332
▁Tevlî	-15333
▁bisep	-15334
▁bişon	-15335
▁hêşîn	-15336
▁paşve	-15337
▁wesay	-15338
biharat	-15339
chusett	-15340
vekirin	-15341
▁(1997)	-15342
▁Dîyarb	-15343
▁Hesenq	-15344
▁Rewanê	-15345
▁giravê	-15346
▁karsaz	-15347
ejirînin	-15348
▁derbixe	-15349
▁derkete	-15350
▁despêka	-15351
▁destpêk	-15352
▁rastîya	-15353
▁werzişê	-15354
▁Wargehên	-15355
▁fizîknas	-15356
▁girtiyên	-15357
▁kîlometr	-15358
▁xebateke	-15359
▁Fakulteya	-15360
▁Rizgariya	-15361
▁kombûneke	-15362
▁siyasetên	-15363
▁wêranşarê	-15364
▁akincîbûnê	-15365
▁fermandeyê	-15366
▁mamostayên	-15367
▁Ahmedînejad	-15368
▁Awistraliya	-15369
▁Nivîsbariya	-15370
▁Zanistvanên	-15371
▁serrastkirina	-15372
▁topbarankirin	-15373
▁ÇARESERKIRINA	-15374
jo	-15375
edr	-15376
esk	-15377
gul	-15378
opê	-15379
sam	-15380
uar	-15381
ucc	-15382
▁Kû	-15383
▁ly	-15384
▁qa	-15385
▁ru	-15386
▁rî	-15387
▁ÇÛ	-15388
DANÊ	-15389
ELAV	-15390
IVÎS	-15391
itim	-15392
itor	-15393
kayê	-15394
ınar	-15395
▁BES	-15396
▁BÛŞ	-15397
▁Lag	-15398
▁Lur	-15399
▁Poz	-15400
▁Qaf	-15401
▁Qul	-15402
▁Roh	-15403
▁TAY	-15404
▁Tap	-15405
▁Xew	-15406
▁enf	-15407
▁vav	-15408
▁Çep	-15409
andra	-15410
etten	-15411
ibêje	-15412
itanê	-15413
nesty	-15414
ocarp	-15415
şînin	-15416
▁Kesê	-15417
▁Ling	-15418
▁Reşo	-15419
▁Tewr	-15420
▁Xaça	-15421
▁Yewn	-15422
▁Zaza	-15423
▁axiv	-15424
▁jûra	-15425
▁pare	-15426
▁xalî	-15427
▁şahî	-15428
arslan	-15429
ifolia	-15430
siyona	-15431
▁Derûn	-15432
▁Evdal	-15433
▁Fatma	-15434
▁Pîran	-15435
▁[21:4	-15436
▁xiste	-15437
▁çimkî	-15438
rayîyên	-15439
▁Asyaya	-15440
▁Cibûrî	-15441
▁Ferman	-15442
▁HUSEYN	-15443
▁Moskov	-15444
▁Nikola	-15445
▁Qoretû	-15446
▁dayîna	-15447
▁dijiya	-15448
▁geştir	-15449
▁goreyê	-15450
▁hundur	-15451
▁rapora	-15452
▁sosret	-15453
▁temaşe	-15454
▁tixûbê	-15455
▁şikeft	-15456
uyakirin	-15457
▁Azarpêr	-15458
▁Dadgehê	-15459
▁Ismayîl	-15460
▁Pergala	-15461
▁Zarokan	-15462
▁heftiya	-15463
▁kirdarê	-15464
▁Şengalê	-15465
▁Yildirim	-15466
▁aştîxwaz	-15467
▁bistînin	-15468
▁teknoloj	-15469
▁APWebsite	-15470
▁Facebookê	-15471
▁Salnameya	-15472
▁biharbêhn	-15473
▁dilhêsayî	-15474
▁hevpişkên	-15475
▁komelgehê	-15476
▁kulîlkdar	-15477
▁Psychoanal	-15478
▁Yenîşehîrê	-15479
▁muhrkirina	-15480
▁parvekirin	-15481
▁pejirandina	-15482
▁beyanameyekî	-15483
▁hevpeyvîneke	-15484
▁konsûlxaneya	-15485
▁desthilatdariyê	-15486
7-	-15487
FÎ	-15488
NÊ	-15489
ei	-15490
ér	-15491
حم	-15492
رد	-15493
▁°	-15494
▁ü	-15495
▁ق	-15496
89)	-15497
Fer	-15498
OLA	-15499
RET	-15500
adi	-15501
beh	-15502
red	-15503
rît	-15504
ère	-15505
ště	-15506
▁ep	-15507
▁fa	-15508
▁ga	-15509
▁pî	-15510
alem	-15511
gêrî	-15512
ince	-15513
işta	-15514
pêşx	-15515
çikê	-15516
▁31'	-15517
▁DAR	-15518
▁DEH	-15519
▁Haz	-15520
▁Jun	-15521
▁Kaş	-15522
▁Pra	-15523
▁Sîb	-15524
▁USA	-15525
▁XAL	-15526
▁apê	-15527
▁bît	-15528
▁kav	-15529
▁Çet	-15530
▁şîd	-15531
TIRÎN	-15532
diyan	-15533
tevlî	-15534
îyetê	-15535
▁Chic	-15536
▁Gard	-15537
▁Rafi	-15538
▁coga	-15539
▁dîkt	-15540
▁mong	-15541
▁nawç	-15542
▁peyw	-15543
yekanî	-15544
▁BARÊN	-15545
▁DERVE	-15546
▁Doskî	-15547
▁Esedî	-15548
▁Farsî	-15549
▁Gesch	-15550
▁Surya	-15551
▁UNAMI	-15552
▁Wexta	-15553
▁enzîm	-15554
▁gorên	-15555
▁hestê	-15556
▁maddî	-15557
▁pesna	-15558
▁regez	-15559
▁xakên	-15560
▁zîrek	-15561
kirdinî	-15562
▁(2008)	-15563
▁KIRDAR	-15564
▁Komarê	-15565
▁Ludwig	-15566
▁Profes	-15567
▁TEQÎNA	-15568
▁Xîzanê	-15569
▁danîne	-15570
▁peyvek	-15571
▁tawanê	-15572
▁yekemê	-15573
▁100.000	-15574
▁Ajansên	-15575
▁Bîzansê	-15576
▁Dezgeha	-15577
▁Dîdevan	-15578
▁Edebiya	-15579
▁Science	-15580
▁hiştiye	-15581
▁texmînî	-15582
▁yekbûyî	-15583
▁Sersinkê	-15584
▁lîstikên	-15585
▁qonaxeka	-15586
▁serhilda	-15587
▁İstanbul	-15588
▁Bozarslan	-15589
▁Ebdulhadî	-15590
▁baweriyên	-15591
▁karkirina	-15592
▁xêrhatina	-15593
Aswataliraq	-15594
▁mezinahiya	-15595
▁sêdaredanê	-15596
▁bazirganîyên	-15597
oa	-15598
LAN	-15599
Rêz	-15600
aph	-15601
iri	-15602
işe	-15603
mez	-15604
nîk	-15605
stê	-15606
tim	-15607
vat	-15608
vis	-15609
çêr	-15610
▁(6	-15611
▁DC	-15612
▁Gh	-15613
▁MA	-15614
▁Ve	-15615
▁ok	-15616
▁îc	-15617
MÎYA	-15618
afên	-15619
bard	-15620
ebah	-15621
iyer	-15622
çend	-15623
▁Arî	-15624
▁Asî	-15625
▁Blu	-15626
▁Ehr	-15627
▁KUR	-15628
▁Lon	-15629
▁Pit	-15630
▁Pul	-15631
▁Sex	-15632
▁fit	-15633
▁kum	-15634
▁naq	-15635
▁pij	-15636
▁son	-15637
ental	-15638
imezr	-15639
nasan	-15640
vekêş	-15641
▁Anth	-15642
▁Doza	-15643
▁Rost	-15644
▁Step	-15645
▁Sêrt	-15646
▁Tirş	-15647
▁[9:2	-15648
▁adar	-15649
▁bûnê	-15650
▁diaf	-15651
▁neur	-15652
▁xalê	-15653
▁çekê	-15654
XISTIN	-15655
adiyan	-15656
aneyên	-15657
▁Ajans	-15658
▁Atomî	-15659
▁Gerîl	-15660
▁Gever	-15661
▁Giran	-15662
▁Tîpên	-15663
▁avayî	-15664
▁evana	-15665
▁golên	-15666
▁hizra	-15667
▁keyan	-15668
▁tablo	-15669
▁vediş	-15670
▁Çîçek	-15671
iştiman	-15672
stantin	-15673
ymphaea	-15674
▁Academ	-15675
▁Arjent	-15676
▁Farqîn	-15677
[...]
