[PAD]
[UNK]
[CLS]
[SEP]
[MASK]
!
"
#
$
%
&
'
(
)
*
+
,
-
.
/
0
1
2
3
4
5
6
7
8
9
:
;
<
=
>
?
@
[
\
]
^
_
`
a
b
c
d
e
f
g
h
i
j
k
l
m
n
o
p
q
r
s
t
u
v
w
x
y
z
{
|
}
~
¡
¤
§
¨
©
«
¬
®
°
±
²
³
´
µ
·
¹
º
»
½
¾
×
ß
à
á
â
ã
ä
å
æ
ç
è
é
ê
ë
ì
í
î
ï
ð
ñ
ò
ó
ô
õ
ö
÷
ø
ù
ú
û
ü
ý
þ
ā
ă
ą
ć
ĉ
ċ
č
ď
đ
ē
ė
ę
ě
ĝ
ğ
ġ
ĥ
ħ
ī
ĭ
į
ı
ĵ
ķ
ļ
ľ
ł
ń
ň
ŋ
ō
ŏ
ő
œ
ŕ
ř
ś
ŝ
ş
š
ţ
ť
ū
ŭ
ů
ű
ų
ź
ż
ž
ơ
ǎ
ǐ
ǔ
ǝ
ǧ
ȇ
ȋ
ȗ
ș
ț
ɑ
ɔ
ə
ɛ
ɡ
ɪ
ɹ
ɾ
ʀ
ʁ
ʃ
ʊ
ʌ
ʒ
ʕ
ʘ
ʰ
ʻ
ʼ
ʾ
ʿ
ˁ
ˆ
ˈ
ˌ
ː
̀
́
̃
̇
̪
͞
͡
ͱ
΄
ά
έ
ή
ί
α
β
γ
δ
ε
ζ
η
θ
ι
κ
λ
μ
ν
ξ
ο
π
ρ
ς
σ
τ
υ
φ
χ
ψ
ω
ό
ύ
ώ
ϙ
ϛ
ϝ
ϸ
ϻ
а
б
в
г
д
е
ж
з
и
й
к
л
м
н
о
п
р
с
т
у
ф
х
ц
ч
ш
щ
ъ
ы
ь
э
ю
я
ё
і
ї
ј
љ
ћ
ў
ғ
қ
ҝ
ҫ
ү
ҹ
һ
ӕ
ә
ө
ա
գ
դ
ե
զ
է
ը
թ
ի
լ
խ
կ
հ
ղ
մ
յ
ն
շ
ո
չ
պ
ռ
ս
վ
տ
ր
ց
ւ
փ
ք
օ
և
ְ
ִ
ֶ
ַ
ָ
ֹ
ּ
ׁ
א
ב
ג
ד
ה
ו
ז
ח
ט
י
כ
ל
ם
מ
ן
נ
ס
ע
פ
צ
ק
ר
ש
ת
،
ء
آ
أ
ؤ
إ
ئ
ا
ب
ة
ت
ث
ج
ح
خ
د
ذ
ر
ز
س
ش
ص
ض
ط
ظ
ع
غ
ـ
ف
ق
ك
ل
م
ن
ه
و
ى
ي
ً
ٌ
ٍ
َ
ُ
ِ
ّ
ْ
٠
١
٢
٣
٤
٥
٦
٨
٩
ٱ
ٹ
پ
چ
ڈ
ڕ
ژ
ڤ
ک
گ
ڵ
ھ
ہ
ۆ
ۇ
ۊ
ی
ێ
ە
۰
۱
۲
۳
۵
۶
۷
۸
۹
ܐ
ܒ
ܕ
ܗ
ܘ
ܚ
ܝ
ܟ
ܠ
ܡ
ܢ
ܦ
ܪ
ܫ
ܬ
ܵ
ܼ
ހ
ރ
އ
ޖ
ާ
ި
ް
ँ
ं
अ
आ
क
ख
ग
ज
ट
त
द
ध
न
प
ब
भ
म
य
र
ल
व
श
ष
स
ह
़
ा
ि
ी
ु
े
ो
्
ক
ন
ব
ম
য
র
ল
স
়
া
ি
ী
ু
্
ર
ા
க
ட
த
ன
ப
ம
ர
ற
ல
ள
ழ
வ
ா
ி
ு
ெ
்
ు
ె
్
್
ാ
ය
ි
ก
ง
ด
ต
ท
น
พ
ภ
ม
ย
ร
ล
ว
ษ
ส
ห
อ
ะ
ั
า
ิ
ี
ุ
์
་
ོ
မ
ာ
်
ა
ბ
დ
ე
ვ
ზ
თ
ი
კ
ლ
მ
ნ
ო
პ
რ
ს
ტ
უ
ფ
ქ
შ
ჭ
ხ
ḉ
ḍ
ḏ
ḥ
ḧ
ḫ
ḱ
ḳ
ṇ
ṕ
ṗ
ṣ
ṭ
ṯ
ẍ
ẓ
ả
ấ
ẹ
ế
ệ
ọ
ố
ồ
ộ
ụ
ἀ
ἁ
ἄ
ἰ
ἱ
ὀ
ῆ
ῖ
ῦ
ῶ
‐
–
—
‘
’
‚
“
”
„
‟
†
•
…
′
″
‹
›
€
№
→
↓
⇒
∅
∈
−
≈
≠
─
│
└
├
┬
▪
☆
♭
♮
♯
ⴰ
い
え
く
の
り
ア
ィ
イ
ウ
オ
キ
ク
グ
コ
シ
ジ
ス
ソ
タ
ッ
デ
ト
ド
ナ
ニ
ブ
プ
ベ
ボ
マ
ミ
モ
ラ
リ
ル
レ
ロ
ン
・
ー
一
三
上
下
世
东
中
五
京
人
代
会
全
公
共
別
化
北
区
十
华
南
县
口
古
吉
和
国
國
城
夏
大
天
太
子
宁
安
家
少
山
島
川
州
市
帝
年
广
後
德
探
撃
文
新
族
明
春
晉
朝
木
東
楊
武
民
水
汉
江
河
治
法
津
派
浦
海
湖
漢
澳
特
王
甘
皇
盆
真
石
社
福
秦
經
羅
耶
胡
自
行
西
話
語
載
通
道
郎
部
金
长
门
陵
隋
集
青
高
麗
黄
가
강
거
건
게
경
고
공
과
광
교
구
국
굴
굿
그
금
기
김
꽃
나
난
남
내
너
녀
노
눈
뉴
느
는
니
다
단
달
당
대
도
독
동
두
드
들
라
람
랑
래
러
레
로
를
름
리
림
마
만
말
맨
면
명
무
문
물
미
민
밀
바
박
발
방
백
별
보
복
봄
부
불
브
비
사
삼
상
새
생
서
석
선
설
성
세
셜
소
솔
송
수
순
스
승
시
식
신
아
안
애
야
어
언
에
여
연
열
영
오
왕
요
우
운
울
위
유
육
은
을
의
이
인
일
임
자
장
재
적
전
정
제
조
좋
주
중
지
집
차
참
천
침
카
크
키
타
탁
태
터
토
트
파
페
포
프
피
하
학
한
해
향
호
혼
화
후
희
ﬂ
﴾
﴿
ﺍ
ﻙ
ﻝ
ﻭ
𐭥
##a
##s
##y
##e
##r
##d
##û
##n
##i
##z
##u
##t
##8
##2
##k
##ê
##g
##o
##m
##î
##l
##3
##b
##h
##x
##v
##ı
##w
##و
##ر
##ب
##ا
##ن
##j
##f
##c
##ç
##´
##ş
##6
##9
##7
##1
##p
##q
##â
##ď
##4
##ա
##ր
##ե
##0
##ú
##ü
##á
##ä
##у
##́
##т
##и
##н
##è
##ā
##د
##ه
##ي
##é
##ī
##ö
##š
##ʰ
##굴
##로
##ق
##س
##ت
##5
##ō
##ط
##ء
##ە
##ك
##ی
##話
##л
##е
##к
##с
##а
##д
##р
##í
##耶
##̇
##پ
##م
##³
##ḳ
##ர
##்
##м
##ε
##κ
##ρ
##ή
##ч
##о
##й
##ێ
##ł
##ó
##μ
##π
##ι
##σ
##ό
##ς
##ğ
##α
##θ
##ο
##λ
##ę
##ص
##ک
##ò
##ו
##נ
##ע
##ר
##°
##ν
##ാ
##č
##ć
##×
##−
##ə
##郎
##न
##ा
##त
##ė
##─
##┬
##밀
##리
##з
##ь
##в
##ť
##ڵ
##گ
##ڕ
##ل
##ʿ
##آ
##͡
##ʃ
##ω
##조
##영
##ز
##х
##島
##ո
##ւ
##յ
##ս
##å
##ḧ
##ώ
##ة
##خ
##래
##를
##ǐ
##ڤ
##東
##語
##ئ
##行
##区
##ع
##ַ
##ּ
##ְ
##ֹ
##ה
##동
##ë
##ל
##י
##ń
##چ
##漢
##스
##ُ
##щ
##ǎ
##ě
##υ
##δ
##έ
##η
##ả
##州
##市
##들
##레
##ә
##ḱ
##ű
##문
##에
##١
##٢
##이
##드
##ẍ
##국
##설
##의
##²
##я
##운
##ḥ
##ū
##ج
##ē
##כ
##ן
##đ
##ի
##կ
##ί
##ř
##ш
##г
##ɪ
##ˈ
##æ
##ﬂ
##ى
##ش
##ì
##մ
##ն
##ी
##ц
##일
##τ
##ג
##ב
##ת
##ố
##ά
##타
##ķ
##ŝ
##ž
##َ
##ْ
##غ
##ø
##ف
##ِ
##̪
##ː
##ղ
##ד
##ש
##ث
##ș
##ô
##ß
##ў
##і
##ર
##φ
##ы
##ܒ
##ܫ
##ܬ
##ܐ
##国
##ブ
##ّ
##ж
##ю
##þ
##ۆ
##ژ
##ф
##ð
##ɛ
##山
##아
##하
##지
##ñ
##ح
##유
##安
##γ
##く
##б
##э
##내
##카
##ŭ
##서
##트
##木
##一
##の
##♭
##ܟ
##ܘ
##단
##향
##꽃
##무
##자
##ъ
##և
##٠
##름
##기
##族
##ż
##ḫ
##ṣ
##΄
##ξ
##县
##바
##솔
##ă
##세
##상
##어
##라
##방
##사
##수
##ế
##қ
##가
##à
##시
##ǔ
##ḏ
##胡
##ั
##ก
##ะ
##ท
##ต
##ิ
##ย
##川
##ɔ
##ů
##ύ
##东
##إ
##江
##派
##世
##ã
##ロ
##ー
##マ
##皇
##帝
##ḍ
##도
##ス
##복
##게
##ܝ
##ܠ
##ܕ
##下
##会
##社
##٩
##ą
##ি
##্
##ু
##র
##য
##়
##া
##ï
##ジ
##ア
##ĭ
##고
##왕
##代
##ـ
##ј
##말
##건
##ῖ
##ṭ
##ʻ
##ܡ
##ܢ
##다
##ა
##მ
##ე
##რ
##ლ
##ო
##ბ
##ા
##ラ
##大
##ン
##ト
##խ
##հ
##ٍ
##ё
##ś
##۰
##성
##애
##ذ
##פ
##나
##ु
##א
##明
##€
##χ
##β
##피
##는
##명
##우
##보
##أ
##ŋ
##ţ
##박
##ض
##𐭥
##ܦ
##ָ
##ם
##ჭ
##ი
##ს
##़
##ि
##ज
##ܪ
##п
##주
##า
##ษ
##인
##ھ
##맨
##人
##օ
##վ
##イ
##ッ
##ク
##デ
##リ
##门
##ޖ
##އ
##ް
##ރ
##ާ
##დ
##화
##ხ
##경
##ظ
##ź
##գ
##շ
##化
##천
##ψ
##ọ
##̀
##դ
##ļ
##מ
##զ
##ʁ
##ɑ
##̃
##子
##희
##ි
##ῶ
##口
##마
##法
##۸
##ً
##ס
##ט
##ۊ
##ி
##ற
##ு
##வ
##ன
##க
##ள
##ɾ
##크
##ტ
##ვ
##한
##ʊ
##ɡ
##տ
##ց
##ქ
##თ
##ウ
##ド
##ʾ
##ӕ
##プ
##ấ
##宁
##ม
##ว
##ù
##王
##ব
##স
##ĥ
##ɹ
##ʌ
##ٌ
##ნ
##华
##民
##共
##和
##ܗ
##グ
##물
##부
##터
##ზ
##年
##ボ
##ル
##र
##्
##य
##ը
##선
##민
##호
##კ
##ṇ
##ġ
##ׁ
##구
##朝
##교
##브
##۶
##۵
##石
##व
##צ
##პ
##ہ
##े
##ट
##미
##니
##ं
##स
##क
##म
##식
##ț
##シ
##독
##夏
##여
##ம
##ῦ
##ų
##느
##ˁ
##ो
##ल
##ร
##ส
##랑
##ȗ
##ニ
##임
##ʒ
##러
##ẓ
##비
##南
##ק
##키
##백
##과
##난
##ִ
##湖
##은
##õ
##ය
##면
##真
##ồ
##ŏ
##ý
##ミ
##オ
##青
##い
##송
##공
##ζ
##٤
##٥
##언
##뉴
##͞
##제
##ῆ
##ި
##ހ
##대
##람
##ụ
##文
##է
##พ
##ล
##ด
##น
##ĝ
##۳
##۱
##۷
##த
##浦
##ʀ
##야
##չ
##ĉ
##ุ
##新
##羅
##거
##만
##ṗ
##재
##요
##պ
##թ
##自
##٦
##प
##포
##德
##經
##태
##후
##ห
##家
##全
##部
##津
##西
##¬
##ĵ
##탁
##º
##北
##道
##ộ
##해
##ő
##ἰ
##ռ
##լ
##治
##중
##り
##探
##コ
##ナ
##페
##셜
##द
##え
##ʼ
##キ
##ল
##ক
##ň
##ṯ
##ベ
##ह
##ख
##ү
##ז
##ィ
##भ
##정
##석
##≈
##國
##ম
##ী
##파
##신
##안
##უ
##十
##通
##장
##ћ
##ח
##을
##٣
##٨
##別
##ন
##京
##楊
##두
##적
##อ
##당
##ग
##۲
##ழ
##소
##შ
##☆
##ẹ
##차
##전
##љ
##һ
##ҝ
##침
##♮
##レ
##特
##撃
##ܵ
##ҹ
##์
##ө
##್
##ె
##్
##강
##ї
##ソ
##남
##ფ
##ؤ
##ध
##ȋ
##ँ
##림
##±
##ŕ
##ெ
##ா
##ல
##발
##۹
##¨
##녀
##ོ
##ľ
##달
##タ
##순
##œ
##ப
##ܼ
##연
##ष
##į
##麗
##승
##ٹ
##새
##水
##公
##ڈ
##晉
##集
##울
##금
##ȇ
##်
##မ
##ာ
##海
##ட
##ֶ
##ệ
##載
##집
##ք
##학
##ǧ
##古
##¹
##モ
##생
##天
##三
##श
##金
##ⴰ
##陵
##♯
##육
##®
##中
##城
##토
##ี
##ง
##열
##노
##ơ
##ǝ
##ۇ
##春
##河
##ғ
##ˆ
##上
##少
##혼
##ܚ
##↓
##너
##ब
##광
##ḉ
##ʘ
##ు
##별
##五
##փ
##그
##汉
##오
##an
##er
##in
##ir
##ar
##ên
##ya
di
ku
##ek
bi
de
##st
li
##en
##în
##at
ji
##yê
##el
##al
##et
##av
ser
##rd
##we
##irin
he
##anê
kurd
##ra
##ist
##eh
##iy
##ma
##ey
her
jî
##and
##iya
##ok
##am
ber
nav
xwe
##ûn
##ed
##anî
##ay
##il
ev
##or
##îk
ba
##ih
##em
da
##on
re
##eya
##es
##tin
##om
kurdist
##iş
pê
ya
##un
##îr
##ol
ew
##ez
##ke
##ekî
hat
##îy
##kirin
##az
20
##end
ye
##îya
##êr
kurdistanê
##raq
##oj
al
##eb
##arê
iraq
##ur
##iye
##ana
herê
serok
kir
##eş
##eta
##ûr
##im
der
##ik
bo
ra
iraqê
##de
ve
19
##und
##as
##işt
an
##iyê
##ev
en
ne
go
herêma
roj
##eha
dest
##ad
##ber
bû
##iv
kom
##dar
sal
gund
##sa
##êz
##ûm
##îyê
##êj
kirin
##eke
gel
##bûn
serokê
am
tê
##gir
gir
par
##andin
wê
hev
##îs
##na
yek
##be
evê
pêş
##man
##êd
pir
##ak
##wl
##îl
rê
##is
##ah
##ro
wan
##ul
##îş
bar
##kin
##gih
baj
200
201
##ov
dê
##ew
##ayê
bir
kar
##îst
got
##ye
##waz
##kê
##eyê
##elat
yê
hu
kes
wî
##ara
pna
##erîk
yên
el
##kar
##îyên
##anîn
amerîk
##ît
##it
enc
hem
lê
##eka
##ger
din
pişt
bin
dem
ragih
wez
##ij
##anên
##iz
##ayî
##îne
dib
bih
##oz
dike
##iha
##ent
mal
##da
##erê
##eyên
huk
tir
##xwaz
##uh
##ekê
st
vê
##ûmeta
sala
##geh
##kirina
##geha
be
##bû
bike
##êrê
em
hatin
hêz
nû
##nam
îr
##yî
##ve
ragihand
tirk
##us
çav
er
##erên
ar
me
##ef
navê
##iyan
##af
##aş
xw
du
in
##bera
bel
##yar
##ch
mez
dî
weha
##tina
baş
##îna
##sî
bûn
##aw
hil
##înê
hukûmeta
amerîka
welat
mir
bê
##dî
av
##eng
pey
pêk
çar
cih
##erî
##era
hin
##xwe
dij
##ina
##erm
##go
navbera
te
##êş
zim
##arêz
gelek
bikin
##iyên
##tî
##ec
##ivîs
tur
##arî
##ax
##tir
dev
kurdî
sûr
##os
wezîr
gundên
navç
##bûna
çend
##hil
hêzên
piştî
##ab
beş
##kir
mezin
hatiye
îranê
turk
##ane
parl
##ng
hewl
niha
##la
dewl
ker
##ran
rew
mirov
parêz
##ka
##îz
ko
##dana
##îh
##yan
end
##mê
##manî
çavk
han
hemû
siya
kon
##îkirin
nivîs
##id
gundekî
daxwaz
##îyan
rû
##xist
##înin
18
gor
çavkanî
##ijar
##um
encam
dih
girêd
##etê
dibêj
##roj
##wer
xu
##lin
##ta
endam
##ûd
dikin
lîst
##ex
wek
##op
wer
##ic
##ig
rewş
##ata
##dan
##he
##00
saz
##yên
bihê
çê
##etî
heta
##ft
##aran
red
##re
daw
##ena
##ib
pol
##kev
bajêrê
##ot
dibe
##kû
##ment
xuya
zanîn
as
##pê
dema
##îrok
hel
##ala
##ect
turkiye
sed
tay
##le
##ûrê
navçeya
##med
derb
deng
##eyan
##bijar
##iyament
##îd
##zanî
ango
per
cîh
##yon
##vê
##arên
##ene
dan
mu
##du
##ilê
rojnam
kur
xuyakirin
##pir
parliyament
199
##irect
beh
##eşk
redirect
barzanî
hê
kerkû
aw
hilbijar
ger
dir
roja
##îm
##din
##alîkirin
aliyê
##enê
##wend
hevp
##aya
nîş
##og
##îye
beralîkirin
tev
##van
civ
tayb
dijî
leşk
##ap
##anûn
meh
##tû
ama
12
kurdan
kombûn
10
##ac
bal
##kî
##per
part
xel
day
es
nêz
##yayê
##pirs
##est
##andina
##ete
##ekirin
kê
11
az
aş
wekî
##eser
sê
encûm
##ost
ab
se
##ûs
ereb
##ing
bajarê
îs
hilbijartin
hatine
şer
hene
2010
bib
2011
bûye
ên
##ut
gişt
bak
wezîrê
##eran
17
hate
14
parêzgeha
##if
##xan
bilin
qanûn
jêd
divê
##ama
##anîya
##ûrî
gotin
##di
êr
pro
berde
rewşa
##tê
##girê
serdana
evroj
peywend
eb
ferm
angora
##eyî
kiriye
ez
yekê
navend
pirs
##jm
derve
kerkûkê
hevpey
##iyon
##lî
##bi
##aq
fir
dîrok
15
şê
##olê
zimanê
2009
##ava
##xd
heye
berpirs
teq
na
çareser
nava
paş
##ora
16
su
##îv
şand
herw
lîsta
ter
mes
##ikî
mar
maf
le
pirtû
hik
belê
##irê
min
aj
2008
ava
##îndar
encûmena
ewê
2012
##êne
tek
wezar
##kêş
##hem
polîs
kuş
behsa
zar
fran
##ia
kev
##ast
herdu
bibe
##îkî
serokat
##dul
nûn
##etewe
çek
bêj
is
##aniya
##ola
zan
yan
mil
nûç
siyas
hejm
##ket
bikar
rast
girtin
kesên
##veb
berê
##wam
herêmê
bareya
##asî
##oh
##adê
ti
hez
##andan
##te
##orê
gr
hewlêrê
êrîş
##ob
kuj
erd
nas
##emê
##payê
ax
girêdayî
##anîna
##best
dewleta
birîndar
198
dil
dibêje
##ha
##bar
##ela
##istanê
dixwaz
##ine
##lam
##hilat
13
##ku
neh
amed
başûrê
malikî
br
jin
derv
##ema
muh
pîr
os
##ibû
##hat
beşdar
siyasî
zê
##manc
parliyamenta
weke
##kên
xeb
berdewam
##oş
##înî
belav
##isa
îro
##xweş
##okê
tenê
azad
ad
##pa
guh
the
destpê
têk
##xistin
fer
##jî
bakur
van
dad
##ter
demok
wezareta
ajan
gelê
##omb
herî
berhem
ewl
af
evan
pêşkêş
alîk
bûy
hewlêr
##iq
dax
weş
kêm
##îng
##ûl
##oya
##bo
cel
yekem
##iw
pet
ziman
alîyê
mis
nişt
##gehên
##ud
nê
##ej
bilind
rêveb
komara
gul
##xdadê
##orî
pên
##azî
##pan
##ge
şar
##rê
197
serokatîya
baz
##ks
##istana
kuştin
car
xwend
##dest
netewe
##etên
tên
bareyê
biryar
##ûna
dibêjin
peywendîyên
ma
taybetî
tal
gu
##iraq
kurdistanî
neb
##ce
demê
ebdul
vî
îraq
dar
##eder
##sê
eş
endamên
##avê
mer
##rî
kû
##dê
giştî
##west
mad
eh
##gel
ewro
dide
rêz
gundê
rom
bêjed
##welat
evî
##manîya
##ser
daxu
ajansa
##edar
##ayên
##xistina
sîn
##pêş
endamê
##rat
bihên
##îrê
##eq
ak
rojnamev
diyar
##mer
kirine
ewan
tişt
dawî
hes
kujtin
welatên
##eyn
##arin
malb
civak
##od
##emb
teror
mesûd
cîhanê
hinek
dû
berî
pirsa
cur
##çe
##ion
##kevtin
##gehê
dikar
##yana
##darên
zarok
##ekir
nîşandan
##ne
silê
ît
##eyek
##th
şêx
of
##ang
dr
sp
dam
##kol
##îb
##anan
rûn
petr
jê
hun
amade
jibo
elî
##eyeka
may
baxdadê
##bûyî
nexweş
mûs
nivîskar
sel
supayê
##ip
21
dihê
amedê
art
alîkar
kurdistan
ke
at
deverên
##enb
##înên
komît
ehmed
osman
##ign
new
wezîrên
196
##ker
mehm
##ûş
helbest
feder
##kirî
sûrîyê
03
nûrî
în
##lah
pêşwaz
pîroz
çand
##îra
xan
wiha
derbas
xwepêş
hey
bibin
xelat
hejmara
gorî
##lê
##ika
fermî
##ton
tirkiye
hevpeymanîya
heft
kurdên
bûne
hevwelat
gih
nêzîkî
mê
mirin
jêder
yekî
alîyan
ch
##îka
##tr
ast
25
amad
lêkol
##kan
we
away
erebî
girêdanên
##darê
kel
damez
biz
hew
30
daxwaza
taybet
tekez
##ug
reş
alman
##oyê
alî
##ag
##lan
pay
##yoz
gerek
zêd
##ard
dêr
herêm
dirêj
îraqê
ef
balyoz
mel
êdî
rojav
##ind
##ûmetê
tel
bomb
çi
##yanî
##por
##îkê
kombûna
##istan
pros
herwe
##ikê
med
bajar
xur
rûs
##irg
##esa
or
çal
heger
##men
berf
fîl
##înan
eger
##dem
##oc
##hilata
##ûra
alîyên
##va
bawer
hikûmeta
post
align
dibin
##ix
iraqî
xebat
devera
##ba
asay
##ram
##yem
hember
ag
##îyye
##deya
##mar
195
´´
sûrî
girin
##alê
fel
##bn
##li
##alî
un
duh
##elê
mûsilê
ap
hus
##nameya
ed
çiya
##ers
##danê
##gire
wêne
gen
navenda
salên
pk
proj
##war
ob
##ebanî
giring
doh
çalak
bajêr
başûr
##inê
tirkî
bide
şandeya
09
##cî
daye
herweha
##ko
mehmûd
col
artêş
cihê
kombûnê
niştim
dik
îslam
mirovan
yekît
##ct
şerê
armanc
herwisa
mafên
serê
194
sor
hêv
##yaya
kor
far
##çû
talebanî
pirr
biry
07
##etir
04
fra
kr
##wan
ay
parast
leşkerî
##lo
muhem
24
partîya
zêde
02
05
bîr
##met
##pg
herwiha
##wez
##day
pêd
##nîş
##ret
hilbijartinên
jiyana
tu
##jim
##îyar
cihgirê
22
192
karê
çû
welatê
##ens
ragihandin
fam
payt
meha
##of
girîng
federal
sek
##oloj
ner
ved
serhil
bêtir
dengê
ot
şeh
heman
şah
brît
pênc
kesan
ro
rad
nik
xal
##ep
##gê
pêdiv
perwer
2007
km
08
band
qer
dix
destê
000
##ri
##ust
bakurê
rêya
hilbijartinan
fransa
eliraq
pkk
guher
amerîkî
damezr
##girtina
kongir
##gar
##xaneya
nûnerên
obama
şor
##nî
##asyon
##ksiyon
qed
terorîst
berpirsên
##zan
desthilat
dixwazin
##ekirina
ket
##ewî
23
kov
##ona
qur
##nîşan
nûçeya
piş
xwed
rêkevtin
xwarin
##lu
rojhilat
girt
pêşwazîya
sep
îng
06
guft
navîn
193
nam
ned
bidin
dîtin
ewledar
##sp
##eyeke
##wey
##enter
##ûb
dîdar
destnîşan
cu
wat
xiz
asayiş
27
qez
wir
avê
malp
bazirg
malbat
##guh
hêj
navxwe
demokrat
01
tirkiyeyê
mîr
##yle
derket
##tan
##oka
##onê
hind
##san
##tp
xelkê
##tirîn
eliraqîyye
reng
##ekar
28
##dewl
dim
agah
fraksiyon
biw
îm
qanûna
mafê
paytex
26
##irx
salan
jul
pes
pirtûk
celal
dûr
birêz
encama
pr
silêmanî
mêr
pêkanîna
rojhilata
serekî
##der
##vanên
çap
##ub
kem
xir
jpg
pêşmer
sib
style
##are
xurt
##yal
xwepêşand
geş
bab
têkil
tî
##wîst
##avên
awayekî
muhemmed
##kirinê
şîr
dixwaze
##darî
rejî
op
nak
tem
##ray
prosesa
mam
cem
bix
salih
jêderekî
didin
##axa
top
##beş
encamdan
çîrok
##mend
rêxistin
##ras
peya
agir
bikaranîn
koç
##ck
heya
nehat
komel
##han
dez
qanûnê
çendê
sur
zanist
muz
dîyar
##sala
veger
##bûnê
##ekan
fil
pak
##efa
##ae
biryara
##px
famîl
##enc
##ant
nêç
artêşa
dihat
layê
mih
##imî
çaw
piştev
sw
and
polîsên
##nas
aşt
##dêr
jun
xweş
tîr
aug
kol
##afa
petrolê
xist
kompan
yekbûyî
hezar
pl
##berê
leşkerên
derbarê
##çûn
parliyamentê
29
la
komîteya
bu
caran
##orm
##ond
dîroka
##tinê
rojnameya
şoreş
##ator
##şemê
##karê
neteweyên
serokwez
sa
bed
sam
bingeh
balyozê
kan
navdar
##nê
kons
kirina
aborî
##etan
kevn
##ike
##îzî
zêdetir
##rah
##ehê
##za
oper
##şt
hiş
##baz
##enî
nêçîr
man
##ord
##awî
pêkhat
ey
qeb
cej
jan
##ibûn
esed
##ich
cuda
rêxistina
##ireh
ol
##atê
2006
tund
##ibe
welatî
##xt
dec
rejîma
##alên
were
nîşan
leşker
malpera
##bend
partiya
##se
hêvî
vir
duyem
center
mij
bilinda
jêr
sîst
com
##êdayî
mala
##îj
dikare
sîya
hiz
##ogan
dol
taw
##kevtina
îran
rûp
##gan
dikeve
şan
nêçîrvan
ah
daxuyan
##çûk
##ler
##hên
çarç
##andinê
tirkîyê
konf
grêdayî
net
##hev
ref
hevkar
##gr
##îf
##ht
##uk
##bidest
zay
karên
karbidest
xwest
191
sil
koma
kombûnek
bend
çêkirin
pd
navn
vek
ht
nîv
sey
bay
##girt
tekezî
apr
##iyar
dewletê
xelata
hatibû
ka
şev
sedsala
pêşkêşî
##ahî
##mam
##ida
##kef
##zê
nem
qad
sit
şem
##ûmet
piştre
amerîkayî
oct
140
##bêj
xwez
arêş
parlam
arîş
bid
##ow
jiday
zanîngeha
pirsên
##wat
germ
##emed
xwedî
salê
maddeya
##tên
pirsgirê
hukûmetê
31
berfireh
nîne
rojava
zer
rex
kam
pêwîst
dirist
##fî
##bir
##yad
##sta
wêj
##ermend
şir
amerîkayê
sch
bavê
50
riz
aşkir
îngil
##hen
##ff
nêv
geng
##gera
##dîn
yekemîn
dikir
yekîtîya
tr
mon
hesen
mijar
nov
mêrd
serbi
gun
##oy
ewropa
destûra
ron
bajarên
##gen
ermen
nirx
##cê
hejmar
famîleya
tun
mîn
##wê
çareserkirina
met
jêderî
##îlê
##îkirina
derveyê
dîdarê
sînor
zû
dip
##emîn
daxuyanî
##girin
alb
tew
ciw
kurmanc
##ür
##şemb
##ox
pêşmerge
bik
serbixwe
selah
jidayîk
barên
doz
deverê
##ahiya
seb
ligel
##iyeke
nêzîk
parastina
dinê
pêdivê
sir
iraqa
##alan
gengeş
##bê
##land
ewên
wisa
destpêka
##ation
posta
tar
dîsa
peyv
ewledarîyê
siv
##aka
niştimanî
##ie
##imê
lat
##nan
pil
çavdêr
th
huseyn
peyam
bang
qebûl
##ehr
navdewl
keç
##îyek
mû
pas
kul
mill
rola
rojavayê
fermand
dîw
cî
##barî
rojnamevanî
sh
##bay
sekret
##kuj
islam
100
##ight
fr
gotinê
berpirsê
cara
##art
##dp
pdk
##lar
stran
##ans
##îsê
asayişa
siyaset
cor
##berên
sûriye
aşkira
feb
bas
wezîran
jidayîkbûn
cin
ram
hevpeyv
40
rastî
opoz
erdogan
##tern
##elî
dewletên
çareserkirin
eşîr
kil
tey
firr
çandî
ny
wên
##amê
gaz
##siv
haş
derdi
sedema
hebe
anî
##îyekî
demjim
##yona
##eyekî
berhemên
kurt
qon
qurb
http
##ess
##ikan
##ewend
hêla
nob
çiyayê
dane
heb
pirtûka
bij
##tine
armanca
##iyona
##heng
##eyekê
êz
berj
dawîyê
nah
##îkol
dor
##oma
rêvebir
dikarin
swêd
tevî
nek
çekdarên
##urg
nu
avakirin
hunermend
##ikên
rojê
kurê
îtil
rûnişt
mamost
##keve
vala
bad
##deyê
nûnerê
malbata
rawest
qu
##baran
atom
diçe
##qê
##ariya
dijîn
##axê
##inc
##ga
alîkarîya
##îrî
kurdistana
zimanên
mêrdînê
navçe
bon
rojan
erz
ps
silêmanîyê
lew
##ûst
derd
piştgir
têne
##irandin
cez
im
biçûk
str
wil
##ell
ta
aram
îl
rojên
îtal
##ide
mec
bergir
i̇
##ian
bil
must
##ph
dijwar
dîrokî
axaf
hêr
gelhen
gelhenasî
mas
operasyon
##ura
pesend
bernam
fu
tom
salî
şaristana
##wî
##ebûna
stenb
hîn
nêr
##deş
##andî
sos
ewropayê
şî
##wd
den
awayî
gundistana
rev
lîb
190
nabe
##îsan
hatina
brîtaniya
des
polîsan
bud
mihemed
jap
miz
yew
##çin
##qa
berjewend
##anîyê
şew
##ato
##amber
navên
birê
civakî
##ww
##ere
##iyek
beşar
##ace
meb
digire
##ewa
rewşenb
lêkolîn
##ca
##irî
har
hêza
çûn
gelekî
kemal
##adî
zîn
hol
##wa
2005
hevdu
beşdarîyê
heleb
fraksiyonên
îranî
axa
bdp
hwd
www
abor
afr
îsra
îtilafa
##brah
bim
##êran
telev
kiş
et
bersiv
##ale
rojhilatê
hebû
##ember
##ibin
tevlî
zêbarî
##ort
hikûmetê
##sef
##çî
##vin
##vanê
pêşket
##isê
şeş
##fa
radi
biwarê
parlem
bord
digel
ban
demokras
bis
beşdarî
silêman
sar
hebûn
desthilatdar
##ze
##onî
##tinên
misirê
beyan
##all
nex
rêvebirê
##ivî
eyad
wid
jiber
parlament
hevwelatîyên
mîna
cîhanî
rêj
isray
bêjedana
rûniş
##bsp
çînê
haşimî
çawa
kompanya
##bek
gundî
mebest
tend
beşa
polît
qedex
ferman
##ilman
felsef
maz
welatan
##col
2013
dewlet
mat
##warî
##okî
sekreterê
##parêz
tîrm
##garî
jinan
##eye
width
bes
mus
##weş
parêzgeh
aloz
dav
##anb
êv
gihij
2003
mek
nbsp
hemî
demokratîk
mînak
dinên
encamên
civata
çekdar
haw
dew
isbn
bûyer
border
##son
##manê
xwedê
ebdullah
gur
##tor
##evan
rojavaya
teb
##sin
hilwest
##ewl
hevdî
kontr
dadgeha
wateya
bêjedarê
selahed
karbidestên
##weya
dezgehên
siyasîya
rûsiya
dîya
serokwezîrê
##ayet
herêmên
##girtin
##ayan
vekirin
dihokê
piştevanîya
qasî
sî
çandin
roman
xebatên
girtî
##oman
##abin
nake
##eft
##uz
pêşîn
veb
##atî
pev
##weyê
fîlm
rûpela
îngilîzî
00
##eg
riw
##can
opozis
wanê
did
##îran
pêşn
2004
abdul
##êje
35
xelkên
paşê
sivîl
sînorê
##ral
can
##aye
##ite
razî
sol
dost
hav
##eteweyî
law
##ikin
ex
##bert
bingeha
temam
şerr
derveya
pis
##dara
xwediyê
kîm
sazkirin
hebûna
veguh
2000
sedr
komp
##las
hest
##yl
##deh
##nk
latînî
tekn
afgan
bigih
rapor
binav
ten
destûrê
duhokê
##yayî
pîkol
werger
zarokên
si
firrok
cureyên
meş
##me
rez
êrîşên
##girtî
##kevin
nekir
zax
diş
jiyan
pêj
mey
riya
beramber
pêşin
kêş
girê
mijarên
gotina
navdewletî
##her
##pên
##inî
turkiyeyê
hûn
##ii
bûyerên
vekiş
dihên
neteweyî
weşanên
##brahîm
##ou
niştî
dikim
mist
siz
##may
hîna
naskirin
org
##girên
otom
bex
##idae
warê
derveyî
sazdan
nivîskarên
eswat
şehîd
kurmancî
for
nor
sin
##ica
mak
damezrandin
biş
##mana
##uliraq
keş
rêkevtina
pêng
con
bic
fransî
nec
##ros
bêh
eswatuliraq
cot
##kere
diz
efr
xane
milyon
##endî
ell
##şa
##atîk
do
navneteweyî
dîn
##bîn
bûyerê
##tiya
##color
sêş
##ceya
hatîye
##karên
tirkiyê
siyasetmed
mûş
şerm
daxuyanîy
bêjedan
konferan
joh
kat
##sch
weşandin
şandeyeka
malbatên
deh
##okên
tariq
kand
##ry
encamdana
civaka
valakirin
bg
bihîne
siyaseta
dos
val
##dû
cîhan
dya
niz
##qu
pirtûkên
##ın
mela
nî
##mî
serkir
cihên
to
##atîya
ragihandiye
##obîl
gelên
kongireya
xirab
rol
hema
derbasbûyî
şêr
fîz
serî
ver
anat
del
bgcolor
bernameya
zanyar
rêk
##andiye
##berg
hevgirtina
ferheng
##werî
##par
dora
mor
elek
res
zarokan
tv
##çav
hî
##io
##omê
bibîne
alîyekî
paraz
nivîsandin
##exê
petrola
##enîş
giştîyê
misilman
kovara
pêjgeha
bat
dabeş
##yonê
konsul
sîstema
niştimanîya
##ût
##qînê
navxweyî
laş
##ru
##ün
rizgar
mit
ac
sef
barak
ciz
şad
bilî
##êrî
komis
##rast
##aceae
demekê
##êre
ynk
ken
soz
##irina
qir
deb
dîwana
hemberî
gener
cejna
him
bexd
pena
hevpiş
beşekî
avakirina
gotinên
mîl
##ius
deryaya
çêd
##danên
hûr
anîn
45
xizm
sip
bên
pej
qet
##co
bila
destên
islamîya
##edana
pevçûn
ge
ellawî
gal
##îdê
bandora
rojnamevan
on
pan
##bor
herdem
bazirganî
##aç
almaniya
dibistana
tes
sîyasî
siteya
veş
çir
dawîya
jîn
tim
teqîna
şoreşa
qey
##afir
fa
mix
sun
weşan
##pî
demên
ph
qas
##êt
##eku
hund
pîş
##ogra
paytexta
nakin
##gro
danûst
pel
ek
giran
bor
azer
mizg
32
##urî
bav
fest
##ys
gotiye
##lem
##ezar
seq
îslamî
##bekirê
vekir
##to
##min
pêşan
##olojî
##îyeka
kiribû
dît
pêşî
dîrokê
xwepêşandan
##ûnê
îd
##ron
nehatiye
kerkûk
aştî
kab
##çûna
zag
##gîr
##ûya
hezaran
cure
hoş
ley
sax
hukûmet
2001
ben
##zanîn
##jen
çem
##ûsa
##tiye
sûriyê
1991
gol
teqîn
siyasîyên
cer
##lom
digih
##edan
otomobîl
xaka
hen
wergirt
bandor
sen
189
sem
pîv
##hed
##ekên
êrîşa
kal
stenbolê
jor
holê
##yanê
hevbeş
lu
çekên
desteya
afganistanê
kew
ok
##dema
nebû
ragihandina
##sel
##îtî
danîn
sûd
tan
nehê
33
ha
##ern
kî
##evanên
dibîne
gotar
hac
2002
israyel
ham
radiy
ceng
dîl
mo
zew
encamê
xem
kongr
##andinên
wezîra
împer
37
dibînin
##zî
##ile
34
##yn
dêrs
êriş
erdê
##qî
beg
dok
und
zor
lez
çemê
bizav
peyamn
pa
çîn
çarçov
nif
##pe
peyda
##erîm
##set
##ork
repor
john
36
##ate
sibehê
berev
xet
1992
xwendina
bêtirî
zanistî
sc
çarçê
tû
sereke
##izê
nerazî
navxwey
##rû
alf
##isch
rêxistinên
serhildana
tor
##meh
##xw
back
jêderên
##yarên
adil
##ung
dinyayê
navçeyên
##ington
nim
##eger
bikeve
grû
gef
rih
gotara
ciwan
daxwazên
tevgera
teh
bingehîn
##berî
parç
##kurd
dom
serkef
qezaya
##ire
##vaj
adarê
60
şing
lî
êl
qurbanî
##şê
text
##êjin
yekîtiya
asta
xweku
parêzg
gava
##bî
ewleh
faris
##eriya
newro
telef
gew
##20
baştir
nayê
zir
##span
destûr
##vanan
mustefa
##mas
lîsteya
wex
jîyana
gil
38
kesekî
peyva
xebata
##çê
silêmaniyê
tah
nivîskarê
niv
##enda
##kevtî
##deyên
##ênî
girtina
##yo
ant
dayik
dawiya
fransayê
pêx
qanûnî
mistefa
bah
tiştekî
şermezar
ru
##esaz
##îlî
cal
pi
1998
qew
çaverê
prof
dilê
ho
dikirin
bur
tra
heval
mod
war
dagir
brîtan
rexne
##ground
right
san
##lû
derê
pirtûkê
daxuyannam
kompanyayên
îslamê
pişka
reh
xera
zin
îst
pêvaj
sedem
1999
pakistanê
kend
##sên
##sîn
##ont
##exan
navendî
##asê
##atoriya
taxa
xwenîş
zarav
dîsan
firok
koreya
background
naver
nûner
deveran
mirovên
##ding
azadî
şaredar
tomar
bî
##emen
serdema
şewit
radiyoya
sim
##eda
kirdarên
hal
rûyê
nêzî
bombeka
80
bra
teng
naz
was
##gî
pat
jos
key
##50
hatibûn
ewlekar
##ban
wal
##sk
enq
parêzgehên
plan
îbrahîm
derf
komarê
##ish
nato
rêberê
ceb
serxwe
almanî
muhr
anatol
elh
##iyekî
serbaz
erdnî
dek
şûn
bigirin
39
xizmet
97
##adem
osmanî
dîyala
mah
derman
dayîn
cam
hoz
karmend
daxwazê
xelîl
hevpeyvîn
nikare
piraniya
lîstik
mît
ebd
##olog
sêr
##êdî
azerbay
egerê
##ong
##akî
naxwaz
jinên
##ima
##bet
serdeş
##aza
bexdadê
1997
##mara
şirn
xez
zeh
eşkere
xwar
rewşenbîr
il
##helat
kirî
mol
sist
##lor
nahê
ray
##fê
##emêr
##aks
têkoş
gengeşe
yewn
kit
rij
destpêkê
cû
serjim
budceya
urd
tex
##istanî
##ity
bihînin
pêdivêyî
##îneya
##rên
elektr
##linton
nûçeyan
temenê
42
##gl
##enên
##ele
fermandarê
general
emîn
hij
peq
cejn
##heim
mem
dewlem
co
##eroj
damezrandina
dtp
komkuj
qay
##dir
##mîl
188
bersiva
dehan
nema
perg
ereban
fê
bidest
win
teqîya
mac
çim
mehê
sûrîya
mebesta
nebe
komeleya
cew
şik
fireh
hebin
41
km²
terorîstan
##ten
##bil
rec
kuştina
spî
sov
##ift
##kara
diyal
##ivîsa
sû
til
##iyayê
kirîye
##avî
##gere
demeke
kêmî
xalid
hêjayî
agahdar
danî
sad
nûçeyên
stranbêj
bey
1990
mixabin
akin
bul
##fir
##mayê
##efîl
1995
otomb
##taş
##kom
kesî
##îngê
boneya
psîk
46
tirkîye
almanya
pirranî
rûniştvanên
frans
topbaran
salve
1980
bizava
xo
##ozof
mûşê
yo
biparêz
bakûrê
rêjeya
xer
osmaniyan
left
deş
2014
pirsgirêka
pêwîste
300
bet
pad
##uya
ewî
dengên
dengbêj
tendir
pit
hilweş
peywendî
##canê
cil
##kerên
1994
iz
##gu
##ock
pal
48
##ijad
47
derbasî
zel
biyanî
jimar
hindek
festîv
##arîya
enf
sêyem
vedî
maweya
şerî
refer
zayîn
goman
##ium
atomî
dewlemend
dixwe
parêzgarê
bûyera
çanda
poz
##mên
piranî
avah
êrîşî
tawan
##maş
boy
stêr
##hej
tune
##gîn
derdikeve
birin
xêz
##anda
hevwelatîyan
tax
partî
serokwezîr
zil
##bur
cell
bala
ziv
##ris
rûsya
##xê
dayîk
fiz
fîlozof
girêdan
tiştên
colspan
52
naw
libn
robert
##çar
wik
##xaneyê
dixeb
58
est
##edîn
asî
şaş
49
nêvbera
##sal
##şî
1996
qes
##ır
pêzanîn
karî
sûriya
gihijt
so
##karî
merc
qada
bern
dîp
amadebûna
kandîd
qel
şamê
##les
malê
belavkirin
44
lond
olî
yaneya
##şembî
şirnexê
43
geh
##perest
felah
guneh
navçeyê
şîret
navnet
1993
beyannam
mos
nîs
reut
##ove
pîrozb
zana
##orn
kûr
##ken
pêşve
rêvebirîya
##anînê
peyman
dadgehê
70
nev
tîne
##pt
asteng
almanyayê
têkildar
51
şandin
##aa
die
kesê
mirina
xanî
bare
xwîn
55
ragihandinê
hêriş
54
kevir
sosyal
referand
ebû
##iyet
##rop
şerrê
xwendin
fraksiyona
cud
birayê
tirkan
alîkariya
demokrasîyê
##stît
va
##ekarî
gerd
rûniştina
53
ii
no
##uş
tîm
##cle
eve
xebit
tîma
ur
lewra
hêş
##iç
dêrend
56
zêr
berwarî
##erast
erzîr
nad
##enas
hilbijartina
kombûnekê
akp
şûna
jîy
yekgirtî
balafir
albûm
êvarê
dana
##uma
##îkayê
belg
nivîsîn
şehr
didom
##sen
kerkûkî
nasîn
##ien
diyalog
derhên
berdest
herêmî
televiz
by
lêkolînên
paytextê
500
rem
##ld
##etîya
##urê
2015
helwest
têkiliyên
hilwestê
pen
dig
xwenîşand
kin
lêger
##ice
digirin
abdullah
swêdê
alfab
leh
êş
asayişê
##xe
##artin
##ênê
edeb
doza
##ver
##avan
##iyanên
ala
rag
##ganî
bîne
##esê
wergirtina
bingehên
malan
##otam
helbestvan
59
deme
dadgeh
bicih
navnetewî
desthilata
komisiyona
dizan
ezm
polîsê
gulanê
aştîyê
serokatiya
selaheddîn
niştîmanî
goyên
pirranîya
buh
##eman
beşên
sedan
##8an
rêbaz
hevwelatî
sîr
peymana
bixw
badînan
bexdayê
hêdî
derya
##ive
wêran
anku
biden
##nivîs
hej
gelem
##îza
pirsê
kovar
dimîne
lo
neke
wa
##ein
##ner
kurs
kevin
mele
##ان
projeyê
dêrsimê
sovy
intern
dixw
hêvîdar
stir
eşîrên
kuwey
erdhej
dur
hersê
bibînin
nûneran
bikaranîna
dilov
binavkirin
ret
##car
serwer
##name
akadem
faun
##ts
tehr
##99
jiyanê
rojane
hevalên
bikevin
dîdara
pap
web
##îşk
goran
dara
bixwe
dawiyê
eslê
57
##do
##etiya
##orf
##ith
##awa
mazin
krîst
kontrol
nez
##ula
xistin
cîran
hok
oc
von
çin
##ue
mex
nivîsgeha
întern
paraztina
mijara
faunaya
kîl
vekirina
cihanîna
awayê
##îre
hatî
rengê
xizmeta
heşt
daxwazkirî
mayin
ara
diya
peyamnêr
naveroka
sl
##danî
##hê
berhev
mirî
kombûnên
rêzdar
ewledarîya
demîr
suriya
xaneqînê
bêd
feq
têgih
muzîkê
derdora
berjewendîya
kanî
xwînê
##opotam
##ies
##hol
##eno
arêşeyên
wash
reuters
dengan
awar
şeva
oz
çel
##nama
mezinên
186
##ira
##ilî
##ement
##oglu
prot
îtaliya
##ûne
rêberên
hikûmet
nobelê
##iana
##abê
cîgirê
term
bit
çendîn
187
aq
hak
span
##ekanî
##mah
pêy
##dama
jina
##umê
##xane
##res
##ary
##asîya
mid
yewnanî
tol
şeref
projeyên
ahmet
##uf
dengdanê
##ceae
agiriyê
##emêrgê
ener
navokî
derxistin
heyî
hejmarek
cê
lin
us
##lên
bigire
têde
xwarê
bûna
zank
xurtkirina
samî
parz
malper
nikarin
rexn
xwepêşanderan
##bas
basa
washington
welê
##ön
cihû
##ack
duyemîn
##bey
serans
rûsî
çêkirina
afganî
biryarê
ir
##ceyê
##ehman
##maz
##îyane
fut
çer
##lek
muzîka
hişyar
ni
dahat
##ure
sup
parêzgehan
serjimariya
kana
west
çil
##aj
##uc
bergirîya
##lîsê
hemwelat
urdun
##rata
##îzm
girtiye
netewî
evaya
neq
azadiya
alîkarî
rihayê
mezintirîn
tevger
##no
##f1
beşê
bedir
seqizê
bînin
##mîn
##ebû
nakok
qonaxa
##mehdî
berxwe
bax
nes
beriya
bêne
ris
##perî
##iyanê
vol
##hr
ola
qam
efrînê
alfabeya
koş
nerînên
press
goyan
çîrokên
televîz
fik
##´ê
##anin
aliyên
rûpel
ermenî
erdnîgarî
hed
##olî
dever
şêwey
pêşkêşkirin
pispor
pejirandin
derxist
##ingen
pesnê
90
po
serma
dêrika
hîngê
##yek
##up
kun
##urt
partîyên
çalakîyên
##îstan
ebdulmehdî
eşîra
##ensis
bb
##burg
##ullah
##ivîse
perwerdeh
çavdêrîya
tîrmehê
hoşyar
miş
##rad
##rayî
##engî
##gotin
mehab
dabû
bûş
1979
netew
york
serkevtin
##ekîm
emerîk
beşek
fêr
##êra
bihêz
dadwer
##lı
serdanê
nûjen
hevpişk
awist
romî
##aniyê
##eza
##bûrd
wêjeya
por
##ûgo
##one
endama
destwer
##gehan
destnîşankirin
qadir
radigih
##kes
nîşand
welêt
gl
##tîn
##ûnî
##ihê
helbestên
çiyayên
xwarinê
##stanê
##ivers
binpê
##afî
bajarokê
nexş
##sh
big
anko
bira
180
asyayê
xwepêşandanên
nekin
zaxo
qasim
erzîromê
cûr
neyn
îş
şa
##îdan
##izî
hevpeyman
arîşeyên
îz
##qel
##itz
şared
baybûrd
besra
gem
şîn
##ota
##atiya
pêşmerg
pêxember
##br
mezopotam
sk
karûb
hay
pûş
##tiyê
##24
##34
encûmenên
pişkin
kanûn
##ult
kesek
werin
mehmet
xwekuj
rêkevtinê
çînî
##tt
kongireyeka
demjimar
qedexe
rus
amadekirin
kerîm
çiq
bermîl
tundî
##ational
stranên
receb
otombîl
cîr
evd
gim
îsa
##tek
##ges
##ho
xelîf
pêncşemê
kompanyaya
pêkhatên
hevdîtin
kabîneya
deşta
ist
qos
##den
##ül
biçe
##ivin
serkevtî
##iyana
xaneyên
çarçêweyê
şam
##ial
##30
lidar
##azê
##andinan
çêbû
hewil
farisî
ewe
##big
##îstanê
erkê
##besta
serdeştê
fl
êrîşê
sûriyeyê
helebçe
ziyan
##êrin
1988
birêveb
##îknas
kongreya
##okan
2017
gelemperî
kap
xora
pîrozbay
balyozxaneya
daxuyanîyekê
nisê
##fer
##olojiya
rob
##îzan
mehan
winda
mane
sîne
şeq
radest
pêkanîn
parêzgehê
1989
projeya
hevkarîya
nenas
sum
yekşemê
hill
##hejm
teqiya
vedi
##iyanî
2016
karekî
guhertin
xwarinên
firrokeyên
##ewer
##uha
sîyas
kulîl
jo
##beran
qeza
axaftina
futb
xweda
rewand
misir
bl
##rin
diçin
##omet
kad
xew
yî
##85
##îyeke
perwerdeya
bism
temamî
##wanê
bext
rûsyayê
împeratoriya
gimg
gav
destûrî
1970
cûda
lad
rojhelat
postên
husên
fey
men
##fel
dis
##iştina
maye
pêşketina
##tal
##32
îsraîlê
newrozê
mot
wes
baxd
##iyekê
gotûb
best
bêje
aştiyê
##kel
serdan
##vest
taybetmend
bimîne
##cana
##ahiyê
sûrîye
axaftin
operas
gotûbêj
wel
xêr
##qet
##atên
birayên
dûv
xebatê
sibê
qonax
japon
şewitandin
um
##chen
navendiya
##bare
dûrî
yar
##ûsê
gulan
david
yêk
##tîv
namz
##tim
##mal
serbest
sînorên
##ûç
##ates
daray
bîra
##ux
##îkên
welatekî
ednan
kanala
dolar
##ci
##îzmê
paşî
civakê
libnanê
has
mi
şike
ال
rêbend
demek
nirxê
çarçoveya
herç
xwê
piştgirîya
zaxoyê
sêşemb
##êl
berz
hevpeyvîna
zaz
##reş
##bij
stemb
muhsin
tundû
id
##rasî
bawerî
rady
perwerde
geşt
şano
sipî
tûr
##36
demokrata
##guher
##iyane
kontrola
biy
kirdar
paşa
meriv
hefteya
dîk
gev
##cl
1987
sêrtê
his
##xa
stand
pêdivî
sîstem
stirat
bona
sêw
rêzefîl
kişand
matem
ca
##ier
biçin
neft
gelo
fermana
1960
dihatin
dizanin
##ame
ewa
derhe
dihate
izz
##je
##inên
##îlan
werz
tehranê
kuweytê
##35
ang
giştîya
îraqî
plana
vedîtin
berdin
enstît
1982
vekirî
##dd
##37
##andine
sêşemê
400
tarî
pêşxistina
kîmya
##istanên
gov
##ahn
1975
xwezt
##ürk
dîplom
##amen
serokên
##kevt
şandeyê
niştec
egera
aborîya
klas
nab
##îdî
##39
##işê
##eşop
elq
gerîl
adara
##ea
##îyeyê
nehatine
kanûna
sul
bihêt
baweriya
zagros
nat
tirs
ewrop
bingehê
esk
diax
##maya
nexwe
çimku
piranîya
##îtan
ahmed
kult
înternetê
baxdad
##tu
##weyî
##got
tevahiya
xwendek
##rich
dîyarbekirê
bedirxan
şiv
afir
rojnamevanên
nerm
##yeka
##bûne
150
dilgir
careke
1946
soranî
ebdur
jîyanên
kak
yeke
anîna
##karîyê
bihar
seîd
tûn
tij
##ereyê
serhed
##ebî
piros
dîm
jêderê
hindistanê
bixe
##rik
##42
goş
hunerî
polîtîk
karmendên
bîn
gar
zey
##rîn
dûn
mich
hukum
dezgeha
kevneşop
josef
##derî
##vanî
##edî
##îşê
lêpirs
nekiriye
##gil
bixwaz
##ada
komela
biryarên
parastinê
bêr
my
##lim
##ella
çarşemê
balkêş
diyarbekirê
mûsil
xalên
laşê
dêrendaz
nînin
##ly
bereya
1986
mizgef
bol
reft
dewletan
abd
rojnamevanan
pîşesaz
serxwebûna
ard
omer
##rehman
îsma
dîdarekê
ceh
erkên
hilbijartinê
efs
terorîstî
bixin
geor
gola
kos
##ebê
gelhe
##roc
xerab
borî
##idî
serhejm
karkerên
rengî
clinton
botan
##evê
##gerin
mûz
xaç
serokkom
1984
profes
tendirist
ec
turkman
paşeroj
ce
tam
##erd
##eve
biwarên
hevpeyvînekê
95
mîrê
##ekêş
bîranîna
şevê
birêve
siyasetmedar
şingalê
##ûk
##tîya
##ibandin
helwê
##iyonê
hewram
tîpên
cen
mazî
##hal
##emî
rah
stat
kob
##xaneyên
têkel
tiştê
pîkolan
anatoliya
kif
sab
ul
##ûyê
bakûr
biryare
milliyon
desthilatdarîya
vekişîna
zankoya
xat
##irên
cihekî
##cey
##10
rêyên
kod
hêsan
august
zex
##aria
##eba
komên
##îşa
paşîn
weşana
paytext
demar
rojnameyên
celewl
çawanîya
enfal
yanî
##ila
##îte
hilber
teor
şax
##bin
##bîr
##mad
##ore
derbaz
je
sy
tab
##îq
##ûrên
kujtina
rûniştvanan
zord
##bih
##iyard
##êjê
tewaf
kas
##îp
##47
rêkef
dijmin
asayî
rêveberiya
huner
çîroka
leyla
ewlekarîyê
75
kehr
##iss
dijwarî
nebin
armancên
bazirganîya
yas
mun
##ney
##hî
##çek
##qt
##aret
bida
##edanê
dihêt
hêjayê
benda
mana
##yarê
##25
1981
petrol
înîyê
agahî
keça
pêşîya
lêkolînan
avêtin
bêhtir
mêj
##bekir
berdan
pêşwazî
mûsa
##qas
##45
##ayetî
giravên
##engê
##oph
1983
dirêjîya
fre
##ji
yawer
girift
univers
wêjeyê
îlonê
konsulê
zehmet
het
om
tak
##kt
##gêr
çavkan
lîstên
rojname
xelk
##asyona
hizir
pêvajoya
gomanbar
jêrîn
bergirîyê
cema
fat
zemîn
pêşinyarên
cebar
form
mik
wind
rakirin
rageh
vekol
mur
mast
##40
serb
amer
pêşkevtin
hevpeymanî
derveyên
demokrasî
çûye
bikim
konferansa
yem
##iaceae
##lîn
##60
gelaw
pirtir
terorê
careka
guftûgo
maş
metir
##iran
##stan
wekhev
frank
hacî
pitir
eur
##etiyê
185
civîna
ewropî
agahiyên
kaz
nûçeyeka
girtine
muzîk
xwestin
##int
1985
xanim
##bach
dend
fet
nûr
##usa
##11
##qîn
nebûye
keyan
swe
##ach
##itin
##ill
baran
##usen
çalakiyên
dyayê
fol
rok
##xin
##cel
##perê
îsal
samer
serbixweya
veşar
siw
wîl
îmar
##onên
hikum
destpêkirin
ehmedê
fermangeha
hevalbend
mic
##ren
##bax
##xanê
pirsgirêkên
rewşenbîrî
##bel
##îyekê
##eva
nef
proses
roma
bexda
##ograf
biparêzin
îlan
##baş
aliyan
pêşiya
##lag
nivîsên
perç
gazê
xor
##ki
##lad
çep
îh
daxwazkirin
sebah
ceza
pesendkirin
sat
pêwend
##ender
boz
vex
barack
çaren
##pêç
çapkirin
bro
pez
##saz
##for
##iyeyê
parîsê
dikevin
mirinê
##inan
dewam
anîne
##itî
##kiriye
rewşê
dixe
stenbol
şadbûna
naxwazin
enerj
qamiş
##ceyfî
eg
tînin
serper
saliya
cîhana
kevt
berfanb
dosyaya
paul
laz
##fe
navî
all
komarî
veguhast
çiqas
hewramî
som
##geheke
polîtbur
##ebaran
elman
##raniya
endamekî
dewr
jam
çewl
##arîyê
##una
hevser
##otê
çekdarî
guhdar
perwerdeyê
##dayên
salox
wergirtin
nîşana
gulana
1977
hişk
çekdaran
brîtanya
riswa
don
pop
qal
îbn
##21
##înim
##iyeyî
fars
sermawez
gent
ki
pest
şiw
##yd
##adt
malên
bej
erk
tevl
spasîya
amadekar
muhemed
padding
cm
##dam
##tar
rûnê
desthilatê
##ensî
##edê
pêl
mag
978
öz
##vana
kêl
doll
neynewa
99
hir
hur
lîz
peh
kirdara
avrê
bajarekî
zerdeş
siyasetmedarên
##rist
##26
##osa
##lum
herdû
reg
##evî
binem
##perwer
berpirsyar
şehîdan
navxweyîya
sistema
xoras
xin
seret
##anîz
element
nûçe
peyvdarê
xes
ders
kesk
kombûnan
mijarê
reporta
qah
##27
##oyên
kerta
îtalî
çima
pîkolên
##îzê
pîrozkirin
zazakî
nih
qaz
xala
berg
##lap
carek
gunc
solid
piçûk
koşka
bbc
lîs
nekirin
ûd
##31
##stein
##îkan
komê
îtîl
kongireyê
bimînin
bexşa
karûbarên
##nasî
werbig
akincî
1em
gre
nan
##87
darayî
reşîd
##olojîk
şîretkarê
##ych
##oç
##ily
##îtiya
çavên
##ical
rêxistinê
şeqla
radestî
fe
##wir
##46
romana
nobel
pêzanînên
ruh
sind
##ster
##evanan
gora
kesayet
demjimêr
kete
loma
tran
##xur
##îneke
teqînê
65
waş
yil
##ti
dist
##aman
##amet
civînê
1974
xwendevanên
malbatê
dixebite
tewafu
hom
korê
##wanî
##ime
bûbû
hindê
swîs
ling
nîn
##riya
##ûz
##16
xweser
komar
giranî
##demîr
xwedayê
diplom
pêşinyar
gunehbar
bismilê
berçav
##îsyona
piroj
astron
cemal
serbazên
wor
##gin
##bs
dif
diq
##ede
dibê
firo
duhok
bernameyên
nîşandanê
niş
vi
##ann
ali
rêw
rêber
mirovî
astê
duhî
şemz
wêneyên
elhekîm
festîvala
ocalan
lêd
##sl
##şe
##eşê
çavan
duşemê
##îmî
1973
##ûşî
baybûrdê
nar
##vî
##cr
înê
bawerîyê
xul
##ory
tep
sedî
jinê
1976
colemêrgê
barê
heke
##29
##grin
xizmetg
##iel
navera
girava
kêmanî
serhildayên
riwek
cizîrê
demîrtaş
##gal
##amên
##êja
##cep
çapa
zayînê
cezayê
şêweyekî
carê
kut
gote
kuşt
çekan
##hatî
sedemên
celewla
gö
not
nîj
##yara
##bûr
anîye
ven
zoz
ûr
##jîn
bilê
rabi
bûd
bajarî
##îtiyê
piştrast
turkiyeyî
zêw
kehreb
neş
xûya
##hel
##way
dêra
şêwaz
##baj
tendur
##akir
##hema
çiriya
enstîtuya
bond
##44
liser
lihev
dabir
kiribûn
perl
împar
line
zeng
şi
##ketî
licê
hecî
pêşeng
nêzîka
koçber
peyvên
lîbya
riwekan
salvegera
mayinkirî
paq
sûm
##allah
kird
2019
lêbor
mezintir
bajêrên
farqînê
zewic
azerbaycanê
nisêb
##net
##kov
##xana
##şer
##iştin
##usê
##ick
1978
nexweşxaneya
krist
banga
nuceyfî
qala
bêyî
##ops
char
afrîkayê
gro
kö
uz
##let
##38
deq
height
rap
binêre
partiyê
alîkarîyê
niştîmanîya
##ografî
ga
strat
partiyên
weşanê
bîrd
komkujiya
naverasta
gend
##ık
##ça
prog
nasnameya
kêmtir
##ekirî
color
parastin
sekin
hevkarî
fîzîkê
saxlem
wêranş
##ua
##uch
##eddîn
binivîse
##ozê
temaş
terorane
news
collap
1928
derketin
felsefe
sems
sosyalîst
bw
alli
gundan
hukûm
swêdî
şaredariya
lêgerînê
çî
##ende
rêveber
##oci
genus
weşanxaneya
pêywîst
samerrayî
kef
yekser
asya
romê
gihişt
ut
##rew
encum
dinirx
dibistan
ketin
diristkirina
kewç
fak
ros
##awîst
leşkerê
##pag
heyderî
nîvroj
bijîşk
hunermendên
piştgiriya
willi
zelal
xeta
şeb
kop
mesîh
corc
ferhenga
port
##eç
##oq
serdest
ragihandibû
kurte
teqe
heyva
bawerîya
ketiye
peyama
xweztin
hijmar
goştê
##île
1971
nemir
berjewendîyên
yûs
##kera
##ftî
##keş
bikaribin
lêkolînê
tûj
semb
##istanan
##gerê
##îze
aramî
pêngav
gotarek
collapse
rav
##had
berhema
##ahîya
dibû
saziyên
##hausen
farsî
arêşe
serkirdeyên
daxuyannameyê
remez
urdunê
##edia
##îla
nasandin
1925
aştîyane
têkoşîna
eyal
rich
##´´
neçar
îsota
debbax
enqereyê
cap
##bikin
nade
rêzê
valign
salveger
hêşta
izzat
qend
##ariyê
##înek
yasa
kirmanc
gotibû
axav
romanê
1966
bajêrî
##îje
gurc
hukûmeteka
klasîk
nabin
teş
##80
##ml
##bînî
##ja
##77
##iyeta
##iyam
##keft
##îyî
encûmenê
ezîz
hunera
sept
silop
diparêz
îtalya
helwesta
gentiana
paqij
kîj
masî
##pr
##ebûn
##over
birçî
##izmê
##osê
1957
radigihîne
dollaran
son
##onan
recep
##îyanî
##karan
kêf
1972
ronahî
konsulxaneya
bîst
giya
çûna
şay
##çeyê
##pat
dida
##eks
hilawîst
##ûdê
firat
##barek
1967
heyder
1930
ragi
îtîlafa
##anal
##inde
awayekê
plat
derdikevin
kifş
polîtburoya
gün
roh
##lîs
##ustral
pirsgirêk
parlement
hîç
##çik
tête
dubare
##etîv
okyan
dekak
stiratec
seretayî
croc
liv
##illa
invest
##lîsa
##dayan
sîyaset
nemîne
çûne
pêngavên
derfet
sak
têr
şên
##wana
##ayekî
##olf
##bûma
polon
leşkeran
heyvê
baydemîr
tîrmeha
diyalogê
stembolê
gra
ney
##ham
##ekt
ass
mesr
arîşeya
dorpêç
pêşangeh
##dirêj
##enosî
sav
##istî
##omî
1969
hêja
meclîsa
çaverêkirin
william
fed
##dên
##kerîm
120
teqînên
qezafî
babê
çavdêrên
nifûsa
ave
len
sex
##yeke
##qaş
vexw
mehdî
xanedana
##ubl
nobela
##anbul
##firoş
derhêner
edebiya
seh
##dorf
##hes
veqet
rewa
chp
reşem
bazirganîyê
film
dabeşkirina
molek
sîrwan
folk
wîlay
darê
##betî
##pad
##olojiyê
guherandin
raport
serkeftî
pergala
##werê
##stin
##ander
das
rojekê
tix
îslamîya
1945
quş
bêjedaneka
tawanbar
protest
lît
##sanî
##oger
zanîngehê
hêl
dayika
sêdar
daxuy
1965
brîtanî
helebê
îsraîl
zêwye
allium
font
kl
nap
penc
ze
şemb
##dayê
serkevtina
##iman
kombesta
pirraniya
demist
##ekirinê
nerazîbûna
serperişt
qub
şil
##49
sern
##orên
bot
2018
##axt
koda
talîb
artêşê
meks
hozan
fac
mul
zind
çew
rej
##daran
##mann
mewl
hingê
navendên
1961
xelatgirên
norwê
naxwaze
demistura
dra
hişt
phil
##işîne
raya
##ling
peywendîya
teksta
rewandizî
radyoya
jac
ked
vet
xil
##stêr
##aba
hezîr
efser
dîyarkirin
daxuyannameya
brîtanyayê
dat
##rana
##48
tiştek
konfer
milliyard
operasyonên
james
norm
tez
##lat
bos
hevdû
xwîna
1963
medya
1958
international
gates
qut
îdî
##rayê
nêvdewl
cas
sîv
zem
##viya
bûbûn
berpirsekî
wezaretên
afirandin
##ûlê
perwerd
xurttir
wergirtiye
modern
hedba
cîranên
futbolê
derheqê
şeqlaweyê
bom
cîb
nep
mark
şahê
îngl
vegeriya
xwezayî
pu
nivîskarekî
cemîl
##lass
londonê
çewlî
nîvrojê
ragiahn
warên
##22
##kenc
##33
##stit
hesa
##eber
amêd
zimanî
lîbyayê
pejir
şehristanî
lîm
sewa
xar
##îrên
aliyekî
##ebar
arif
mezinê
hevpar
tevahî
##aca
berdewamî
hijmara
adar
comb
hon
qis
sm
wi
##tv
##rak
albûma
##unda
##ried
mamoste
dosya
penaberên
hundir
maşallah
gera
kaya
sent
##gor
##ald
##eyl
##ille
dîtina
hemûyan
xeter
neftê
fah
mend
pe
weh
zik
##işk
##ova
binçav
xirist
fîlmên
nîqaş
pevçûnên
jorîn
mosko
bixwîne
79
hot
sn
çol
destan
kursî
lîstikvan
nisêbînê
kîjan
les
ton
şop
bist
hêvîya
##ubey
êzîd
grûpa
nivis
bulgar
pozetîv
##hn
##15
dep
hatîne
goşt
##oza
propag
milyar
serkevtinê
lidarxistin
pehl
rên
zî
esmanî
aktîv
250
alîgirên
rêkevtinek
##luk
navdewletîya
rawestandin
tîrmeh
mexm
##qteda
1px
76
fon
max
sere
berd
##îyanê
elc
stock
zanko
kelh
nîvê
braz
îsmaîl
vexwend
nuha
var
yez
zîr
zev
dikê
bûya
binê
stew
hunerê
nexweşiyê
neda
vegerin
rezberê
keyaniya
lîn
sif
êla
firyad
gihîş
felest
##şembîyê
aboriya
bêjedanek
dîlokê
seranserî
niştecih
tet
xoş
hum
kesen
mut
mubarek
divêt
mîlyon
jînenî
qurbanîyên
mercên
midya
matematîk
##17
seran
##ediya
sedemê
##eynî
serhildan
kovarên
îngîl
cins
mustafa
klinton
pîl
qul
umer
##19
pêşhat
muftî
behr
êvarî
hemaheng
edî
pot
send
##yîya
##gol
##cên
##amî
##îkaya
nivîsandina
nûçeyê
bombbaran
proje
despê
london
kursîyên
bla
hên
zanî
##înanê
##ande
berdev
selîm
damezirandin
baweriyê
1950
ermeniyan
wergerandin
galerî
qor
yûn
##cer
##ps
serpê
serrast
bêjedanên
komput
rezber
size
cotm
kîlomet
world
september
hiq
pî
wiz
##cus
##iştî
nakokî
seyîd
şemîyê
felsefeya
tebaxê
danûstandinên
zemînler
dd
##ty
##bên
ewrû
engl
aktor
wate
necef
çêdibe
sing
zeyn
çet
##dînê
##gun
##înijad
##ehî
##akê
baştirîn
rojavayî
agirî
zaravayê
bêdeng
etr
fff
jenosî
sev
sof
yarî
##86
##irîne
pêr
demekî
dibistanê
erênî
##hatina
1964
yewnan
bidawî
600
ibrahîm
sîm
şandina
##amer
navdarên
##ole
ras
sale
bête
pênas
soran
serhildayan
##watal
ciwanên
serkird
çarçoveyê
biser
##ûmê
##gerî
standinên
sazkirina
arîşeyan
zindî
fo
qil
##so
##oanal
##mel
##şar
##atorê
##iyayî
avî
##idin
##acing
pileya
êzd
pesendkirina
kanada
kela
##urd
##ley
negih
bajaran
els
sazî
##iyonên
ebdulkerîm
039
##spacing
derketina
arîşe
revandin
cellspacing
nadin
uzun
##wataliraq
77
haz
##kanî
##kerê
##ım
##ales
karl
werdi
radyo
dollar
wêje
operasyona
hebûye
kompaniya
cellpad
cellpadding
cir
ep
sibe
terî
##herê
##vanîya
diç
erx
dîcle
amerîkaya
##last
behs
##omas
tebax
pêşveçûn
qamişlo
f1
xort
seredana
dab
karb
piştgîr
##awer
peywendiyên
peywendîyan
şêxan
xwendinê
1968
1962
nikar
islamî
parlamenterê
yekema
mêz
##yr
##zt
##îsa
##girtû
##rov
kombûneka
berpirsiyar
axê
heyv
1955
nameya
derketiye
hêrîş
stockhol
66
ff
##ars
##esi
elşer
ebas
batmanê
penaber
kendava
tîmên
ein
usa
##don
##kr
rojî
##ahê
birît
pişta
tirş
mehên
awayeke
1956
hevdîtinê
tahir
cn
dal
##au
##zer
kujt
zimanan
mêrges
afrîka
konferans
kandîdê
##exaneya
gimgimê
berfanbarê
avesta
seranser
fay
şek
##rid
##ayide
avedan
leşkerîyên
sînorîyên
bisek
dun
feh
lev
sew
##keran
parçe
dîmen
ehmedînijad
ermenistanê
hundirê
pîrozbayî
serwerîya
emerîka
dinirxîne
cent
caf
lor
qeh
vekêş
zorê
##zay
##ath
##atan
wergera
asmanî
husey
têkiliya
hevkariya
qedexekirin
çandinî
mehabad
perliyament
kaniya
##tîk
elewî
standin
##ceol
1959
parlamenterên
tayî
##qad
##atîv
berda
##urn
##îtê
erê
derbi
prote
mesel
guman
maddeyên
arêşeya
cinsê
kurten
strana
konferansê
daxuyannameyek
##f1f1
şaredarê
kirdareka
encumena
combret
f1f1f1
class
hor
hov
##wn
##çeya
jixwe
##elan
##girtinê
lêb
ingil
hingî
devê
fermîya
pkkê
agirbest
telefonê
fiş
ziyanên
berdem
raper
girs
herwekî
şaristan
piştevanî
demokrasiyê
meydana
dizane
elqayide
gû
zeb
##ym
iraqîyan
serokdewl
dixin
tîpa
zirav
combretum
türk
zinc
##sor
bip
deryayê
##dariya
##ewan
##nameyê
##enburg
fîlmê
dimeş
from
parçeyên
xwekujî
vedigere
reftar
yemenê
gab
iş
xeya
îde
##zanê
enwer
pira
##ican
##ibê
sub
alîkarê
atlan
genim
teyib
sizayên
navxweyîyê
window
xorasanê
wêranşarê
zal
##gur
##hk
kurda
nave
navb
herêman
destkev
hevdem
hêzeka
hinekî
helbestvanên
1947
krîza
koçî
tawanên
riwekên
pêşniyar
cengê
calceol
awistral
tundûtû
xwendekarên
mesrûr
qef
##hu
biq
req
##uth
nexweşiya
xelatên
razîbûna
teqînek
destwerdanê
pirosesa
bilêv
fîn
##zad
##oğ
dikuj
##îneyên
##omys
##ebo
##che
medyaya
îmza
cinsa
gaza
opozisyonê
##ische
wextê
mahm
dîmeş
çîya
##ric
##kek
##atiyê
##ûran
##use
##ifa
spanî
##şembê
bêhn
nivîsîngeha
otombîleka
mizgefta
hiqû
bun
dı
gom
mand
rind
herr
##oks
baq
seroka
komkara
sûre
##opt
balind
zimanekî
nebûn
nerîna
pêşangeha
parzem
bek
