<unk>	0
<s>	0
</s>	0
▁.	-3.21339
▁,	-3.26197
▁û	-3.54604
▁ku	-4.09421
▁li	-4.10534
▁de	-4.16985
▁bi	-4.20751
▁ji	-4.29944
▁di	-4.45408
▁jî	-4.66101
▁(	-4.74547
▁==	-4.82112
▁:	-4.8625
▁)	-4.94237
▁xwe	-5.00282
▁ya	-5.0642
▁/	-5.09785
▁-	-5.10704
▁ye	-5.172
▁ser	-5.30016
▁Iraqê	-5.44668
▁re	-5.51134
▁ve	-5.56575
▁bo	-5.58657
▁e	-5.63988
▁da	-5.67427
▁Kurdistanê	-5.68839
▁Di	-5.70479
▁herêma	-5.72258
▁evê	-5.75736
▁wê	-5.77869
▁ew	-5.80191
▁–	-5.82088
▁kir	-5.82688
▁kirin	-5.91622
▁wan	-5.92045
▁a	-5.96727
▁PNA	-5.97579
▁[	-5.99237
▁Li	-6.00641
▁'	-6.01178
▁yê	-6.02477
▁]	-6.03594
▁wî	-6.0608
▁tê	-6.07405
▁yên	-6.07559
▁bû	-6.09387
▁dê	-6.11368
▁"	-6.12116
▁ê	-6.12433
▁ber	-6.13179
▁ev	-6.17109
▁ne	-6.17754
▁serokê	-6.19084
▁got	-6.20866
▁kurdistanê	-6.22525
▁|	-6.28373
▁an	-6.28997
▁vê	-6.30686
▁sala	-6.31866
▁ragihand	-6.42001
▁dike	-6.43267
▁bike	-6.48115
▁Ji	-6.49363
▁navê	-6.49431
▁din	-6.51391
▁hat	-6.54192
▁weha	-6.54842
▁Amerîka	-6.5524
▁navbera	-6.56169
▁hukûmeta	-6.5821
▁===	-6.61009
▁*	-6.62842
▁hatiye	-6.62859
▁bikin	-6.63637
▁her	-6.68579
▁Gundên	-6.68761
▁gelek	-6.69136
▁Îranê	-6.69173
▁gundekî	-6.70856
▁dest	-6.72586
▁hêzên	-6.74067
▁Çavkanî	-6.74105
▁kurd	-6.75015
▁niha	-6.76198
▁Serokê	-6.76611
▁han	-6.77315
▁in	-6.78717
▁nav	-6.8095
▁hemû	-6.88088
▁Bi	-6.88409
▁bûn	-6.88933
▁dikin	-6.90532
▁yek	-6.91215
▁lê	-6.92758
▁́	-6.93259
▁bajêrê	-6.93597
▁;	-6.93644
▁dibe	-6.98183
▁xuyakirin	-6.98428
▁be	-6.99094
▁navçeya	-7.00928
▁`	-7.01041
▁wek	-7.0142
▁),	-7.02617
▁BERALÎKIRIN	-7.02617
▁heta	-7.03002
▁mezin	-7.03118
▁çend	-7.03466
▁aliyê	-7.03543
▁kes	-7.04557
▁me	-7.05225
▁Ev	-7.05317
▁bihê	-7.08635
▁Kurd	-7.10641
▁nû	-7.10835
▁du	-7.10849
▁bin	-7.1096
▁piştî	-7.111
▁em	-7.11603
▁’	-7.12094
▁kurdî	-7.12602
▁kar	-7.13798
▁pêk	-7.14633
▁dijî	-7.14661
▁roja	-7.16278
▁2010	-7.1644
▁dema	-7.16499
▁Barzanî	-7.1669
▁2011	-7.17623
▁||	-7.184
▁Turkiye	-7.19274
▁bûye	-7.19653
▁ên	-7.20522
▁hene	-7.20599
▁2	-7.21492
▁hatine	-7.21615
▁angora	-7.2244
▁bajarê	-7.23161
▁hatin	-7.23744
▁..	-7.24172
▁parêzgeha	-7.24634
▁hate	-7.24954
▁...	-7.25742
▁="	-7.26503
▁2009	-7.26829
▁kiriye	-7.2811
▁10	-7.29608
▁1	-7.31505
▁wekî	-7.3159
▁2008	-7.32277
▁nava	-7.32363
▁2012	-7.33056
▁Ew	-7.34384
▁zanîn	-7.34701
▁|-	-7.34913
▁12	-7.34984
▁rewşa	-7.3509
▁yekê	-7.36608
▁serdana	-7.37077
▁heye	-7.37312
▁lîsta	-7.38241
▁REDIRECT	-7.38296
▁behsa	-7.38736
▁3	-7.39863
▁ewê	-7.40647
▁11	-7.41097
▁derve	-7.43825
▁girêdayî	-7.44077
▁bibe	-7.44096
▁20	-7.44797
▁herdu	-7.45071
▁bareya	-7.46849
▁pê	-7.46849
▁bê	-7.47469
▁Û	-7.47529
▁divê	-7.4787
▁zimanê	-7.487
▁Kurdî	-7.48903
▁mirov	-7.49229
▁Hewlêrê	-7.49535
▁dibêje	-7.49658
▁17	-7.52002
▁dan	-7.52107
▁18	-7.52718
▁16	-7.53546
▁LI	-7.53738
▁berê	-7.53802
▁hev	-7.56159
▁Hewlêr	-7.56422
▁belê	-7.56531
▁Lê	-7.56927
▁gor	-7.57347
▁encûmena	-7.57502
▁“	-7.58192
▁weke	-7.58415
▁gel	-7.58527
▁15	-7.58954
▁Piştî	-7.59044
▁herî	-7.59405
▁kurdan	-7.59676
▁siyasî	-7.59699
▁evroj	-7.59994
▁19	-7.60062
▁Malikî	-7.60633
▁parliyamenta	-7.60793
▁herêmê	-7.61206
▁bareyê	-7.62387
▁evan	-7.63299
▁ti	-7.64409
▁alîyê	-7.6645
▁girtin	-7.66863
▁tên	-7.6718
▁tenê	-7.67229
▁yan	-7.67817
▁van	-7.68384
▁taybetî	-7.68631
▁demê	-7.68805
▁4	-7.69778
▁dibêjin	-7.69803
▁encam	-7.70659
▁wezîrê	-7.7071
▁peywendîyên	-7.71395
▁birîndar	-7.72988
▁kirine	-7.73065
▁14	-7.73637
▁=	-7.74395
▁vî	-7.745
▁dide	-7.74895
▁13	-7.7516
▁Her	-7.7585
▁nîşandan	-7.76438
▁ewan	-7.76921
▁kesên	-7.77029
▁çê	-7.77218
▁5	-7.77434
▁serokatîya	-7.77651
▁bihên	-7.79071
▁saz	-7.79319
▁gelê	-7.80428
▁Mesûd	-7.80568
▁Herêma	-7.80819
▁Sûrîyê	-7.82059
▁gundê	-7.82456
▁dawî	-7.82999
▁îro	-7.83429
▁Amedê	-7.84005
▁wezareta	-7.84498
▁daxwaz	-7.85725
▁Kerkûkê	-7.8599
▁).	-7.86197
▁amade	-7.86908
▁kuştin	-7.86968
▁sê	-7.87296
▁endamên	-7.87385
▁Girêdanên	-7.87505
▁giştî	-7.87715
▁Elî	-7.87925
▁berdewam	-7.88437
▁alîyan	-7.88861
▁welatên	-7.88922
▁min	-7.89256
▁wezîrên	-7.89256
▁dewleta	-7.90451
▁jibo	-7.90482
▁pirsa	-7.90729
▁deverên	-7.90791
▁wiha	-7.91225
▁fermî	-7.91505
▁bûne	-7.9163
▁Nûrî	-7.91754
▁gotin	-7.91848
▁Baxdadê	-7.92161
▁KURDISTANÊ	-7.92538
▁pir	-7.92633
▁le	-7.92664
▁cîhanê	-7.93901
▁bibin	-7.94188
▁align	-7.94766
▁supayê	-7.95282
▁nêzîkî	-7.95899
▁21	-7.95932
▁berî	-7.95997
▁of	-7.96323
▁belav	-7.96651
▁cih	-7.96749
▁Dr	-7.97078
▁hin	-7.97375
▁JI	-7.97606
▁ajansa	-7.98204
▁hinek	-7.98638
▁BI	-7.98805
▁î	-7.99579
▁Kurdistan	-7.99918
▁IRAQÊ	-8.00121
▁jê	-8.00223
▁Başûrê	-8.00529
▁Sûrî	-8.00563
▁30	-8.00598
▁kujtin	-8.00974
▁kû	-8.01111
▁komara	-8.01248
▁Îraqê	-8.01454
▁**	-8.01799
▁gorî	-8.02006
▁dibin	-8.03822
▁Iraqî	-8.04175
▁alîyên	-8.04636
▁devera	-8.04742
▁HERÊMA	-8.05099
▁kombûnê	-8.05241
▁baş	-8.05995
▁ziman	-8.06139
▁gund	-8.06175
▁kombûna	-8.07336
▁&	-8.07409
▁salên	-8.07592
▁Mûsilê	-8.07738
▁%	-8.08363
▁pêş	-8.09141
▁daye	-8.09625
▁daxwaza	-8.097
▁bilind	-8.09812
▁Şêx	-8.10487
▁6	-8.10714
▁gerek	-8.10865
▁êdî	-8.10903
▁000	-8.13043
▁hejmara	-8.13198
▁rê	-8.13237
▁The	-8.13508
▁ava	-8.13702
▁25	-8.13975
▁SEROKÊ	-8.15034
▁Ehmed	-8.15231
▁evî	-8.15231
▁K	-8.1535
▁tirk	-8.15587
▁Kurdan	-8.15905
▁Wêne	-8.16024
▁bide	-8.16144
▁S	-8.16263
▁nûçeya	-8.16864
▁8	-8.16904
▁zêde	-8.17387
▁leşkerî	-8.18075
▁2007	-8.18482
▁heman	-8.19302
▁şandeya	-8.19302
▁Mehmûd	-8.19425
▁Talebanî	-8.19466
▁9	-8.19631
▁KIR	-8.19838
▁hilbijartinên	-8.20169
▁heger	-8.2046
▁Obama	-8.21212
▁Osman	-8.21296
▁PKK	-8.21296
▁kesan	-8.21759
▁7	-8.21885
▁destê	-8.22223
▁”	-8.22266
▁!	-8.22989
▁style	-8.2376
▁Endamê	-8.23889
▁(),	-8.24018
▁karê	-8.24191
▁Tirkiyeyê	-8.2445
▁cihê	-8.25146
▁yekem	-8.25277
▁doh	-8.2532
▁Wezîrê	-8.25364
▁jiyana	-8.25934
▁rêya	-8.26242
▁tirkî	-8.26551
▁welatê	-8.26551
▁24	-8.26684
▁hilbijartinan	-8.26684
▁ko	-8.26684
▁serê	-8.27039
▁berpirsên	-8.28022
▁22	-8.28201
▁01	-8.28742
▁nûnerên	-8.28833
▁başûrê	-8.2915
▁kerkûkê	-8.29423
▁El	-8.29742
▁dixwazin	-8.30199
▁dihê	-8.30705
▁mirovan	-8.31121
▁u	-8.31214
▁Amerîkî	-8.31446
▁layê	-8.31632
▁encamdan	-8.31911
▁salan	-8.31958
▁Muhemmed	-8.32192
▁Eliraqîyye	-8.3252
▁DE	-8.32567
▁hevpeymanîya	-8.32755
▁wir	-8.32755
▁encama	-8.32943
▁0	-8.33085
▁şer	-8.33179
▁07	-8.34224
▁awayekî	-8.3432
▁02	-8.34416
▁08	-8.34511
▁ez	-8.34847
▁23	-8.34943
▁bidin	-8.34991
▁pêkanîna	-8.35136
▁prosesa	-8.35232
▁biryar	-8.35474
▁bikaranîn	-8.35716
▁()	-8.35764
▁kêm	-8.35764
▁we	-8.36056
▁çendê	-8.37082
▁M	-8.37132
▁DÊ	-8.37181
▁m	-8.37279
▁09	-8.37476
▁05	-8.3812
▁caran	-8.39268
▁jpg	-8.39369
▁çi	-8.39419
▁Yekbûyî	-8.39822
▁28	-8.39923
▁mafên	-8.39923
▁dîtin	-8.40024
▁04	-8.40176
▁27	-8.40634
▁xelkê	-8.41657
▁meha	-8.41709
▁grêdayî	-8.4176
▁polîsên	-8.41812
▁center	-8.41863
▁Serok	-8.41915
▁DI	-8.42121
▁May	-8.42276
▁z	-8.42328
▁the	-8.42587
▁Kurdistanî	-8.42795
▁didin	-8.42795
▁Celal	-8.42899
▁kirina	-8.43265
▁26	-8.43474
▁der	-8.43526
▁C	-8.43736
▁qanûna	-8.43736
▁dikeve	-8.43841
▁welatî	-8.44633
▁Herweha	-8.45592
▁Tirkîyê	-8.45859
▁hikûmeta	-8.46128
▁06	-8.4629
▁Dewleta	-8.4629
▁parliyamentê	-8.46451
▁dixwaze	-8.46613
▁biryara	-8.46722
▁federal	-8.46938
▁A	-8.4721
▁taybet	-8.47264
▁Salih	-8.47591
▁alî	-8.477
▁mafê	-8.47755
▁Esed	-8.4781
▁çar	-8.48029
▁bakurê	-8.48303
▁kurdistanî	-8.48358
▁were	-8.48413
▁navdar	-8.48468
▁welat	-8.48744
▁2006	-8.48965
▁guft	-8.49131
▁dikare	-8.49187
▁====	-8.49687
▁Neteweyên	-8.49855
▁hezar	-8.49966
▁Evroj	-8.50022
▁03	-8.50134
▁hatibû	-8.50358
▁pêşwazîya	-8.50527
▁cihgirê	-8.50808
▁derbarê	-8.50921
▁Jul	-8.51204
▁diyar	-8.5143
▁29	-8.51544
▁ke	-8.51942
▁erebî	-8.52342
▁sedsala	-8.52629
▁Partîya	-8.52686
▁Mar	-8.52743
▁Dec	-8.52858
▁leşkerên	-8.52858
▁Jun	-8.52916
▁Kurdên	-8.53031
▁Jan	-8.53089
▁Sep	-8.53262
▁navenda	-8.53378
▁tekezî	-8.53667
▁şerê	-8.54016
▁jêderî	-8.54074
▁Navê	-8.54541
▁petrolê	-8.546
▁km	-8.54834
▁heya	-8.54893
▁endamê	-8.54952
▁serok	-8.55423
▁Amerîkayê	-8.55837
▁Jêderekî	-8.56015
▁pêşkêş	-8.56015
▁dîdarê	-8.56312
▁Mirin	-8.5661
▁Îran	-8.5661
▁Apr	-8.57029
▁KU	-8.57029
▁pêşkêşî	-8.57029
▁Aug	-8.57209
▁Oct	-8.5727
▁girîng	-8.57752
▁salê	-8.58419
▁Dengê	-8.59643
▁rejîma	-8.59643
▁karên	-8.59704
▁cuda	-8.59951
▁pirsên	-8.60633
▁aborî	-8.60757
▁gundên	-8.61069
▁Weha	-8.61132
▁Fransa	-8.61319
▁Kesên	-8.61445
▁çêkirin	-8.61445
▁.”	-8.61507
▁Wî	-8.61884
▁hember	-8.61947
▁zêdetir	-8.61947
▁Tirk	-8.62833
▁Iraqa	-8.63024
▁dewletê	-8.63088
▁xwedî	-8.63088
▁roj	-8.63152
▁?	-8.63279
▁Em	-8.63279
▁komîteya	-8.63343
▁sal	-8.63727
▁Amerîkayî	-8.63856
▁nîne	-8.63856
▁Jidayîkbûn	-8.64242
▁barên	-8.64436
▁dinê	-8.64954
▁dikir	-8.65019
▁ligel	-8.65344
▁avê	-8.65867
▁rojnameya	-8.66064
▁Ewropa	-8.66393
▁ra	-8.66855
▁çareserkirina	-8.66921
▁ragihandin	-8.67054
▁herwisa	-8.67452
▁bêtir	-8.67652
▁giring	-8.67719
▁Evî	-8.68053
▁vir	-8.68254
▁Berhem	-8.68389
▁50	-8.68523
▁derbas	-8.6859
▁RE	-8.6886
▁artêşa	-8.6886
▁derveyê	-8.68995
▁herwiha	-8.68995
▁destûra	-8.69063
▁maddeya	-8.69131
▁kurdên	-8.69198
▁‘	-8.69334
▁deverê	-8.69402
▁dirêj	-8.6947
▁kom	-8.6947
▁hukûmetê	-8.69742
▁Başûr	-8.70151
▁Nêçîrvan	-8.70151
▁wisa	-8.70288
▁nîşan	-8.70494
▁ewledarîyê	-8.70769
▁Erebî	-8.70976
▁tu	-8.70976
▁Dema	-8.71045
▁redirect	-8.71045
▁PDK	-8.71114
▁çareser	-8.71183
▁çandî	-8.71252
▁Komara	-8.7139
▁Mêrdînê	-8.71459
▁bilinda	-8.72085
▁posta	-8.72085
▁://	-8.72225
▁destpêka	-8.72225
▁and	-8.72504
▁rola	-8.72645
▁kombûnek	-8.72715
▁Gelhenasî	-8.72785
▁ewên	-8.72925
▁hêla	-8.73278
▁Hesen	-8.73348
▁yekemîn	-8.73348
▁gotinê	-8.7356
▁Feb	-8.73631
▁31	-8.73702
▁140	-8.73844
▁rojnamevanî	-8.74199
▁dawîyê	-8.74271
▁Nov	-8.74413
▁Erdogan	-8.74771
▁Partiya	-8.74843
▁çareserkirin	-8.75346
▁dijîn	-8.75418
▁Navîn	-8.75562
▁dane	-8.75706
▁dûr	-8.75706
▁ango	-8.75851
▁.)	-8.75924
▁avakirin	-8.76432
▁asayişa	-8.76724
▁rastî	-8.77237
▁rojhilata	-8.77678
▁têne	-8.77678
▁hwd	-8.78121
▁navçe	-8.78716
▁sedema	-8.79239
▁Ewropayê	-8.79314
▁deng	-8.79314
▁Birêz	-8.79389
▁diçe	-8.80142
▁aşkira	-8.80293
▁çekdarên	-8.80369
▁salî	-8.80445
▁Beşar	-8.80596
▁digire	-8.80672
▁Huseyn	-8.80748
▁dikarin	-8.80748
▁Xelata	-8.81206
▁dîrokî	-8.81588
▁hem	-8.81819
▁"|	-8.82435
▁pêşmerge	-8.82668
▁rêxistina	-8.82745
▁hebe	-8.82901
▁hatina	-8.82978
▁Famîleya	-8.83056
▁jin	-8.83056
▁dîroka	-8.83212
▁wezîran	-8.83212
▁width	-8.83602
▁NY	-8.83681
▁bêjedana	-8.83759
▁bavê	-8.83916
▁BDP	-8.84073
▁alîkarîya	-8.84073
▁Silêmanîyê	-8.8423
▁40	-8.84309
▁bajêr	-8.84467
▁balyozê	-8.84625
▁nbsp	-8.84704
▁parastina	-8.84941
▁XWE	-8.851
▁Sala	-8.8518
▁ISBN	-8.85339
▁polîsan	-8.85339
▁Kurdistana	-8.85578
▁destnîşan	-8.85578
▁Herwiha	-8.85658
▁başûr	-8.85818
▁rojên	-8.85978
▁rojan	-8.86058
▁cara	-8.86218
▁www	-8.86299
▁border	-8.86379
▁rojê	-8.8646
▁Îtilafa	-8.8646
▁Misirê	-8.8654
▁gelekî	-8.86621
▁nivîskar	-8.86782
▁Yekîtîya	-8.86944
▁awayî	-8.87106
▁biwarê	-8.87106
▁dem	-8.87512
▁çû	-8.87512
▁anî	-8.87675
▁tevî	-8.87756
▁Qanûnê	-8.88493
▁2005	-8.8874
▁Dihokê	-8.89235
▁Herwisa	-8.89318
▁Çînê	-8.89567
▁welatan	-8.899
▁beşdarîyê	-8.9015
▁Malpera	-8.90821
▁100	-8.91158
▁2013	-8.91242
▁Zanîngeha	-8.9192
▁hikûmetê	-8.92005
▁hevwelatîyên	-8.9209
▁Se	-8.92261
▁dinên	-8.92346
▁mîna	-8.92603
▁Navenda	-8.92688
▁beşdarî	-8.92688
▁te	-8.92688
▁qasî	-8.93032
▁E	-8.9329
▁Ereb	-8.9329
▁mala	-8.93722
▁Hêzên	-8.93809
▁Zêbarî	-8.9433
▁gundî	-8.9433
▁qebûl	-8.94504
▁Îro	-8.94504
▁civakî	-8.94592
▁Mihemed	-8.94766
▁Wanê	-8.94766
▁tevlî	-8.94766
▁kurê	-8.95293
▁Haşimî	-8.95557
▁http	-8.95733
▁armanca	-8.95822
▁Amed	-8.9591
▁pîroz	-8.96087
▁Turkiyeyê	-8.96176
▁pirr	-8.96354
▁AMERÎKA	-8.96532
▁HATIN	-8.96532
▁xwediyê	-8.96532
▁Eyad	-8.9671
▁bajarên	-8.9671
▁siyasîya	-8.97067
▁dû	-8.97157
▁rojavayê	-8.97157
▁Zimanê	-8.97246
▁pirtûka	-8.97246
▁Ebdullah	-8.97336
▁nabe	-8.97336
▁Mezin	-8.97606
▁duyem	-8.97606
▁bûyerê	-8.97876
▁2003	-8.98057
▁com	-8.98238
▁dîsa	-8.98329
▁Eswatuliraq	-8.9851
▁pêşîn	-8.9851
▁digel	-8.98601
▁hêza	-8.98692
▁naskirin	-8.98783
▁BO	-8.98874
▁valakirin	-8.98874
▁wateya	-8.98874
▁hemî	-8.99239
▁derveya	-8.99331
▁Kemal	-8.99422
▁rast	-8.99422
▁bgcolor	-8.99698
▁I	-8.99882
▁tekez	-9.00343
▁hevdu	-9.00436
▁DYA	-9.00528
▁îngilîzî	-9.00528
▁Tirkiyê	-9.01366
▁2000	-9.0146
▁Duhokê	-9.0146
▁biçûk	-9.01647
▁Şerê	-9.01647
▁Dike	-9.01928
▁hêvî	-9.01928
▁zû	-9.02022
▁SEREKÎ	-9.02117
▁2004	-9.02494
▁ragihandiye	-9.02588
▁navên	-9.02683
▁piştevanîya	-9.02778
▁malbata	-9.02873
▁RÛPELA	-9.03063
▁Gelek	-9.03158
▁dezgehên	-9.03253
▁sazkirin	-9.03253
▁hîna	-9.03348
▁Iraq	-9.03539
▁sînorê	-9.03635
▁dihên	-9.0373
▁derbasbûyî	-9.04499
▁derveyî	-9.04499
▁weşandin	-9.04499
▁Hin	-9.04692
▁hatîye	-9.04788
▁xurt	-9.04788
▁Ez	-9.04885
▁Heta	-9.05079
▁berfireh	-9.05663
▁xelkên	-9.05663
▁KIRIN	-9.05858
▁dewletên	-9.05858
▁latînî	-9.05858
▁encamên	-9.05956
▁BIKE	-9.06054
▁Derve	-9.06054
▁encamdana	-9.06152
▁New	-9.06446
▁hebûna	-9.06446
▁nake	-9.06643
▁navîn	-9.07137
▁Wezareta	-9.07434
▁rojava	-9.07434
▁sazdan	-9.07434
▁alîyekî	-9.07633
▁berhemên	-9.07733
▁jiber	-9.07832
▁gotina	-9.08132
▁herêmên	-9.08132
▁Sedr	-9.08332
▁fraksiyonên	-9.08432
▁zimanên	-9.08432
▁s	-9.08834
▁bakur	-9.08935
▁malbatên	-9.09137
▁xebatên	-9.09137
▁êrîşên	-9.09137
▁hêz	-9.09542
▁azad	-9.09745
▁el	-9.09745
▁Tariq	-9.1005
▁damezrandin	-9.1005
▁çawa	-9.10152
▁Roja	-9.10357
▁bihîne	-9.10459
▁piştre	-9.10459
▁YNK	-9.10664
▁Wekî	-9.10766
▁dora	-9.10766
▁bilî	-9.10972
▁Îranî	-9.10972
▁vekirin	-9.11384
▁giştîyê	-9.11488
▁="#	-9.11695
▁Bakur	-9.11695
▁Xwedê	-9.11798
▁YE	-9.11798
▁Çiyayê	-9.12318
▁".	-9.12423
▁anîn	-9.12423
▁Koma	-9.12632
▁nûnerê	-9.12632
▁Tê	-9.12736
▁Brîtaniya	-9.12841
▁berpirsê	-9.12841
▁Be	-9.12946
▁kiribû	-9.12946
▁Islamîya	-9.13051
▁beşekî	-9.13051
▁Ajansa	-9.13156
▁pênc	-9.13156
▁Hevpeymanîya	-9.13367
▁dengê	-9.13367
▁YA	-9.13683
▁dihat	-9.13789
▁gotiye	-9.13789
▁bingeha	-9.13895
▁derket	-9.13895
▁demekê	-9.14001
▁navend	-9.14107
▁warê	-9.14213
▁HAT	-9.14532
▁nêzîk	-9.14639
▁00	-9.1496
▁Sûriye	-9.1496
▁Encûmena	-9.15174
▁Tirkiye	-9.15174
▁cihên	-9.15282
▁navdewletî	-9.15497
▁dîrokê	-9.15604
▁beşa	-9.15712
▁cureyên	-9.15712
▁rêkevtina	-9.16036
▁eger	-9.16253
▁Stenbolê	-9.16361
▁ad	-9.1647
▁dawîya	-9.16579
▁kevn	-9.16688
▁destên	-9.16906
▁hemberî	-9.17015
▁paş	-9.17015
▁zarokan	-9.17015
▁B	-9.17124
▁nehatiye	-9.17124
▁demên	-9.17234
▁jinan	-9.17234
▁sivîl	-9.17453
▁Wê	-9.17563
▁und	-9.17563
▁;"|	-9.17893
▁Rûsiya	-9.18114
▁hebûn	-9.18114
▁Me	-9.18335
▁Hikûmeta	-9.18446
▁zarokên	-9.18446
▁avakirina	-9.18557
▁herweha	-9.18557
▁navxweyî	-9.18557
▁siyasîyên	-9.18668
▁xwest	-9.18668
▁pirtûk	-9.18779
▁serî	-9.18779
▁nivîsandin	-9.1889
▁gelên	-9.19002
▁Barak	-9.19113
▁serbixwe	-9.19337
▁2001	-9.19449
▁Bo	-9.19673
▁Rojhilata	-9.19673
▁encamê	-9.19673
▁dibîne	-9.2001
▁cure	-9.20123
▁destpê	-9.20123
▁SER	-9.20349
▁Deryaya	-9.20462
▁girt	-9.20575
▁petrola	-9.20575
▁polîs	-9.21029
▁Fu	-9.21143
▁hezaran	-9.21143
▁sereke	-9.21599
▁bîr	-9.21714
▁Hukûmeta	-9.21829
▁Afganistanê	-9.22058
▁bernameya	-9.22058
▁dî	-9.22404
▁sor	-9.22404
▁rojavaya	-9.22519
▁Fransayê	-9.2275
▁gotinên	-9.22982
▁xweş	-9.22982
▁Ellawî	-9.23214
▁partîya	-9.23331
▁L	-9.23447
▁dirist	-9.23564
▁hebû	-9.23564
▁holê	-9.23564
▁dijwar	-9.2368
▁hilbijartin	-9.2368
▁2002	-9.23797
▁teqîna	-9.23797
▁background	-9.23914
▁zanistî	-9.23914
▁Weşanên	-9.24032
▁ragihandina	-9.24032
▁koma	-9.24149
▁hîn	-9.24384
▁kongireya	-9.24502
▁sibehê	-9.24502
▁bandora	-9.24619
▁Belê	-9.25092
▁km2	-9.25092
▁Hejmara	-9.25211
▁birêz	-9.25211
▁paytexta	-9.25211
▁xaka	-9.25211
▁Azad	-9.25329
▁sîyasî	-9.25329
▁ma	-9.25448
▁siyaseta	-9.25448
▁reş	-9.25567
▁Sûriyê	-9.25925
▁dinyayê	-9.25925
▁qezaya	-9.26524
▁Nivîskarên	-9.26765
▁pêşî	-9.26765
▁Cîhan	-9.26885
▁dikim	-9.26885
▁Bêjedarê	-9.27006
▁Silêmaniyê	-9.27127
▁çekên	-9.27127
▁JÎ	-9.27612
▁riya	-9.27612
▁Mustefa	-9.27733
▁axa	-9.27733
▁bombeka	-9.27733
▁ka	-9.27733
▁rojhilatê	-9.27855
▁•	-9.27855
▁paşê	-9.28099
▁pirtûkê	-9.28221
▁TURKIYE	-9.28466
▁ÎRANÊ	-9.28466
▁35	-9.28711
▁deveran	-9.28711
▁dikirin	-9.28711
▁qanûnê	-9.28834
▁Piştre	-9.28957
▁destûrê	-9.28957
▁nakin	-9.29081
▁Çend	-9.29204
▁cîhanî	-9.29451
▁Yek	-9.29575
▁pirs	-9.29699
▁nas	-9.29823
▁siteya	-9.29823
▁şeş	-9.29823
▁dîwana	-9.29948
▁dîyar	-9.30197
▁Civata	-9.30321
▁Gundistana	-9.30321
▁xwendina	-9.30446
▁Mistefa	-9.30697
▁milyon	-9.30948
▁Niha	-9.31073
▁Pakistanê	-9.31199
▁KUJTIN	-9.31451
▁Roj	-9.31451
▁bajar	-9.31451
▁asta	-9.31578
▁bêtirî	-9.31704
▁text	-9.31704
▁{|	-9.31704
▁Israyel	-9.31831
▁bikeve	-9.31958
▁kirdarên	-9.31958
▁|}	-9.31958
▁Mela	-9.32085
▁1991	-9.32339
▁xwarin	-9.32467
▁neteweyî	-9.32594
▁(*	-9.32978
▁+	-9.32978
▁dibînin	-9.33235
▁kompanyayên	-9.33235
▁b	-9.33363
▁bazirganî	-9.33363
▁dawiya	-9.33363
▁dayîn	-9.33363
▁êrîşa	-9.33363
▁HUKÛMETA	-9.33492
▁malpera	-9.33492
▁hatibûn	-9.3375
▁right	-9.3375
▁1992	-9.34139
▁",	-9.34268
▁kesekî	-9.34268
▁daxwazên	-9.34398
▁TV	-9.34529
▁niştimanî	-9.34529
▁Dîroka	-9.34659
▁bigirin	-9.34659
▁kurmancî	-9.34659
▁Mûşê	-9.35051
▁Cihgirê	-9.35182
▁left	-9.35576
▁Adil	-9.35707
▁Almanya	-9.35971
▁teqîya	-9.35971
▁45	-9.36634
▁Bakurê	-9.36634
▁John	-9.36634
▁navneteweyî	-9.36634
▁Bexdadê	-9.369
▁1999	-9.37034
▁radiyoya	-9.37034
▁serekî	-9.37034
▁taxa	-9.37034
▁şaristana	-9.37034
▁kirîye	-9.37167
▁rûyê	-9.37167
▁Tirkîye	-9.37301
▁beramber	-9.37301
▁cejna	-9.37301
▁im	-9.37301
▁Yekîtiya	-9.37435
▁1998	-9.37569
▁Gel	-9.37569
▁Serokwezîrê	-9.37703
▁egerê	-9.37703
▁qanûnî	-9.37703
▁Îslamî	-9.37703
▁Du	-9.37838
▁jêr	-9.37973
▁bingehîn	-9.38107
▁ket	-9.38107
▁danîn	-9.38242
▁daxwazê	-9.38242
▁nêzî	-9.38242
▁;"	-9.38649
▁şerr	-9.38785
▁DTP	-9.3892
▁Navçeya	-9.3892
▁kêmî	-9.39193
▁nikare	-9.39193
▁rûniştvanên	-9.39329
▁temenê	-9.39329
▁colspan	-9.39466
▁mînak	-9.39466
▁destpêkê	-9.39603
▁Nû	-9.3974
▁Le	-9.39877
▁go	-9.39877
▁200	-9.40152
▁Mala	-9.40152
▁NATO	-9.40152
▁gotara	-9.40152
▁nivîskarê	-9.40428
▁Dê	-9.40567
▁girtina	-9.40567
▁hê	-9.40567
▁Rojava	-9.40982
▁sîstema	-9.40982
▁1997	-9.41121
▁Rûsya	-9.41121
▁bawer	-9.41121
▁Hevgirtina	-9.41261
▁nayê	-9.414
▁Bûyer	-9.41539
▁jêderên	-9.41539
▁parêzgehên	-9.41539
▁Kerkûk	-9.41679
▁dadgeha	-9.41679
▁razî	-9.41679
▁dîdar	-9.41819
▁jîyana	-9.41819
▁Dîrok	-9.41959
▁bikar	-9.42522
▁dev	-9.42522
▁giran	-9.42522
▁mehê	-9.42522
▁duh	-9.42663
▁şandeyeka	-9.42663
▁bûyerên	-9.42804
▁#	-9.42946
▁SERDANA	-9.42946
▁Silêmanî	-9.42946
▁derbasî	-9.42946
▁zarok	-9.42946
▁bihînin	-9.43088
▁civaka	-9.43088
▁dîsan	-9.43088
▁kesî	-9.43088
▁Îbrahîm	-9.43088
▁xebata	-9.4323
▁xuya	-9.4323
▁Şirnexê	-9.4323
▁J	-9.43372
▁Xwe	-9.43514
▁rêxistinên	-9.43514
▁sekreterê	-9.43514
▁BÛN	-9.43657
▁derdikeve	-9.43657
▁terorîstan	-9.43657
▁maweya	-9.43799
▁Almanyayê	-9.43942
▁heft	-9.43942
▁boneya	-9.44086
▁MALIKÎ	-9.44229
▁eşkere	-9.44229
▁erdê	-9.44372
▁hebin	-9.44516
▁Şamê	-9.44516
▁Pirtûk	-9.4466
▁.:	-9.44804
▁1995	-9.44804
▁Karbidestên	-9.44949
▁damezrandina	-9.44949
▁car	-9.45093
▁derê	-9.45093
▁PÊŞWAZÎYA	-9.45238
▁nûçeyên	-9.45383
▁peyva	-9.45383
▁piranî	-9.45383
▁nebe	-9.45529
▁tiştekî	-9.45529
▁demeke	-9.45674
▁nûçeyan	-9.4582
▁.,	-9.45966
▁mebesta	-9.45966
▁peyda	-9.45966
▁BIHÊ	-9.46112
▁Almaniya	-9.46698
▁II	-9.46698
▁(,	-9.46845
▁budceya	-9.46845
▁SAZ	-9.46993
▁desteya	-9.47288
▁mirovên	-9.47436
▁Berî	-9.47584
▁Cejn	-9.47584
▁Niştimanîya	-9.47584
▁herdem	-9.47733
▁lêkolîn	-9.47733
▁cem	-9.47882
▁navçeyê	-9.47882
▁Zayîn	-9.4818
▁hevwelatîyan	-9.4818
▁KERKÛKÊ	-9.48329
▁dehan	-9.48329
▁tîne	-9.48329
▁fransî	-9.48479
▁G	-9.48628
▁malê	-9.48628
▁xist	-9.48628
▁êvarê	-9.48779
▁tune	-9.48929
▁Xelîl	-9.49079
▁beşdar	-9.49079
▁nasîn	-9.49079
▁Şaristana	-9.49381
▁bersiva	-9.49532
▁Badînan	-9.49683
▁1994	-9.49835
▁belavkirin	-9.49835
▁rû	-9.49835
▁Dîyala	-9.49987
▁dibistana	-9.49987
▁Hêjayî	-9.50291
▁êrîşî	-9.50291
▁60	-9.50444
▁X	-9.50444
▁gengeşe	-9.50444
▁komarê	-9.50444
▁33	-9.50597
▁34	-9.50597
▁him	-9.50597
▁Dêrsimê	-9.5075
▁bila	-9.5075
▁ta	-9.5075
▁malan	-9.50903
▁Endamên	-9.51056
▁Xalid	-9.51056
▁Selaheddîn	-9.51364
▁dengên	-9.51364
▁BIRÎNDAR	-9.51518
▁Divê	-9.51518
▁dayîk	-9.51518
▁nêvbera	-9.51518
▁Berwarî	-9.51673
▁1990	-9.51828
▁32	-9.51828
▁têkildar	-9.51828
▁Faunaya	-9.51982
▁W	-9.52138
▁kuştina	-9.52138
▁rêjeya	-9.52138
▁Abdullah	-9.52293
▁alîkariya	-9.52293
▁GIRTIN	-9.52604
▁Felah	-9.52761
▁pêdivê	-9.52761
▁Pêjgeha	-9.52917
▁al	-9.52917
▁almanî	-9.52917
▁bûyera	-9.52917
▁ragihandinê	-9.52917
▁Çîn	-9.52917
▁Sûrîya	-9.53074
▁Wek	-9.53074
▁anku	-9.53074
▁1993	-9.5323
▁Nivîskar	-9.53388
▁amadebûna	-9.53388
▁dilê	-9.53545
▁2014	-9.53703
▁Giştî	-9.5386
▁Robert	-9.5386
▁digirin	-9.54018
▁dimîne	-9.54018
▁bên	-9.54177
▁Kerkûkî	-9.54335
▁bîne	-9.54494
▁Beg	-9.54653
▁pirsgirêka	-9.54653
▁pirtûkên	-9.54653
▁rêvebirê	-9.54813
▁1996	-9.54972
▁Artêşa	-9.54972
▁mijarên	-9.55132
▁na	-9.55292
▁Alî	-9.55453
▁Nobelê	-9.55453
▁Suriya	-9.55453
▁tişt	-9.55613
▁Reuters	-9.55774
▁:#	-9.55935
▁Agiriyê	-9.55935
▁Swêdê	-9.55935
▁paytextê	-9.55935
▁."	-9.56097
▁çûn	-9.56259
▁37	-9.56583
▁dayik	-9.56583
▁***	-9.56908
▁biyanî	-9.56908
▁ewî	-9.56908
▁rêvebirîya	-9.56908
▁rûniştina	-9.56908
▁Jêder	-9.57071
▁Xaneqînê	-9.57071
▁serdema	-9.57071
▁1980	-9.57234
▁Şah	-9.57234
▁):	-9.57398
▁eslê	-9.57398
▁olî	-9.57562
▁şûna	-9.57562
▁Mêr	-9.5789
▁goyên	-9.5789
▁red	-9.5789
▁tiştên	-9.5789
▁Gundê	-9.58055
▁asayişê	-9.58055
▁atomî	-9.58219
▁Kes	-9.58385
▁cîh	-9.58385
▁Rihayê	-9.58716
▁fraksiyona	-9.58716
▁xwînê	-9.58716
▁gundistana	-9.58882
▁hêdî	-9.58882
▁von	-9.58882
▁KURD	-9.59048
▁Niştimanî	-9.59048
▁Seqizê	-9.59048
▁YÊ	-9.59048
▁adarê	-9.59048
▁bikevin	-9.59214
▁hevbeş	-9.59214
▁sedan	-9.59214
▁zanîngeha	-9.59214
▁Bexdayê	-9.59381
▁DIKE	-9.59381
▁Turk	-9.59548
▁hindek	-9.59716
▁300	-9.60051
▁38	-9.60051
▁mirina	-9.60051
▁Kuştin	-9.6022
▁Mirovan	-9.6022
▁wergirtina	-9.6022
▁şerrê	-9.60388
▁Gelê	-9.60557
▁derdora	-9.60557
▁dîdara	-9.60557
▁dengan	-9.60726
▁êrîş	-9.60726
▁Dêrika	-9.60895
▁AKP	-9.61065
▁Şî	-9.61065
▁500	-9.61235
▁Sûriya	-9.61235
▁dil	-9.61405
▁Efrînê	-9.61576
▁baştir	-9.61576
▁kombûnên	-9.61576
▁org	-9.61576
▁arêşeyên	-9.61917
▁jiyanê	-9.61917
▁kombûnekê	-9.61917
▁mirî	-9.61917
▁Mele	-9.6226
▁xistin	-9.6226
▁çek	-9.62432
▁36	-9.62605
▁42	-9.62605
▁lêkolînên	-9.62605
▁pirsê	-9.62605
▁vekirina	-9.62605
▁Bajarê	-9.62777
▁Osmaniyan	-9.62777
▁ewledarîya	-9.62777
▁girtiye	-9.62777
▁qada	-9.62777
▁D	-9.6295
▁bûna	-9.6295
▁mezinên	-9.6295
▁têde	-9.6295
▁Rêvebirê	-9.63123
▁Rêxistina	-9.63123
▁pirranî	-9.63123
▁pirranîya	-9.63123
▁Mirov	-9.63297
▁binavkirin	-9.63297
▁hilwestê	-9.6347
▁46	-9.63645
▁Erzîromê	-9.63645
▁herêmî	-9.63645
▁polîsê	-9.63819
▁şandin	-9.63819
▁dawiyê	-9.63994
▁Mafên	-9.64169
▁Osmanî	-9.64169
▁Pişka	-9.64169
▁Tirkî	-9.64169
▁York	-9.64169
▁rojane	-9.64169
▁pêwîste	-9.64344
▁awayê	-9.64519
▁bibînin	-9.64519
▁leşker	-9.64519
▁projeyê	-9.64519
▁Asyayê	-9.64695
▁şoreşa	-9.64695
▁Ahmet	-9.64872
▁dadgehê	-9.64872
▁hersê	-9.64872
▁serjimariya	-9.64872
▁2015	-9.65048
▁mazin	-9.65048
▁neke	-9.65225
▁serdanê	-9.65402
▁Bajarên	-9.6558
▁HÊZÊN	-9.6558
▁bêne	-9.6558
▁Cîhanê	-9.65757
▁bikaranîna	-9.65757
▁komisiyona	-9.65757
▁navendî	-9.65757
▁d	-9.65935
▁xurtkirina	-9.65935
▁H	-9.66114
▁dengdanê	-9.66114
▁dar	-9.66292
▁derxistin	-9.66292
▁demokratîk	-9.66651
▁jêderekî	-9.66651
▁bixwe	-9.66831
▁şermezar	-9.66831
▁bingehên	-9.67011
▁cihanîna	-9.67011
▁deme	-9.67011
▁rexne	-9.67011
▁Berpirsê	-9.67191
▁Serdeştê	-9.67191
▁BÛ	-9.67372
▁pejirandin	-9.67553
▁berjewendîya	-9.67734
▁43	-9.67916
▁anko	-9.67916
▁bigire	-9.67916
▁welêt	-9.67916
▁xwarinê	-9.67916
▁41	-9.68098
▁Koreya	-9.68098
▁N	-9.68098
▁hilbijartina	-9.68098
▁deh	-9.6828
▁çiyayê	-9.6828
▁bergirîya	-9.68646
▁biryarê	-9.68646
▁heyî	-9.68646
▁çendîn	-9.68646
▁av	-9.68829
▁Mehmet	-9.69013
▁Peyamnêr	-9.69013
▁cî	-9.69013
▁daxuyanîyekê	-9.69013
▁projeyên	-9.69013
▁bakûrê	-9.69197
▁karbidestên	-9.69197
▁muzîkê	-9.69197
▁çalakîyên	-9.69197
▁hevalên	-9.69381
▁mal	-9.69381
▁pêşkêşkirin	-9.69381
▁navçeyên	-9.69566
▁rêberê	-9.69566
▁bibîne	-9.69751
▁dabû	-9.69751
▁pesnê	-9.69751
▁Qadir	-9.69936
▁piraniya	-9.69936
▁Pêdivêyî	-9.70122
▁Wan	-9.70122
▁girtî	-9.70122
▁kongireyeka	-9.70122
▁80	-9.70308
▁Press	-9.70308
▁agir	-9.70308
▁beşên	-9.70308
▁R	-9.70494
▁romî	-9.70494
▁48	-9.70681
▁Balyozê	-9.70681
▁55	-9.70868
▁xizmeta	-9.70868
▁Rûsyayê	-9.71243
▁T	-9.71243
▁goyan	-9.71243
▁kovara	-9.71243
▁nerînên	-9.71243
▁pişt	-9.71243
▁70	-9.71431
▁yaneya	-9.71431
▁47	-9.7162
▁alîkarî	-9.7162
▁bang	-9.7162
▁tîma	-9.7162
▁Îsraîlê	-9.7162
▁†	-9.7162
▁Lîsteya	-9.71809
▁partiya	-9.71998
▁NE	-9.72187
▁desthilata	-9.72187
▁hîngê	-9.72187
▁rêkevtin	-9.72187
▁rêkevtinê	-9.72187
▁terorîst	-9.72187
▁to	-9.72187
▁êrîşê	-9.72187
▁bajarokê	-9.72377
▁44	-9.72568
▁Rojnameya	-9.72568
▁kesê	-9.72568
▁La	-9.72758
▁Mîr	-9.72758
▁xelata	-9.72758
▁39	-9.72949
▁Biden	-9.72949
▁basa	-9.72949
▁De	-9.73141
▁Kerîm	-9.73141
▁cîran	-9.73141
▁Jiyan	-9.73333
▁duyemîn	-9.73333
▁hatî	-9.73333
▁hevwelatî	-9.73333
▁nikarin	-9.73333
▁Mijarên	-9.73525
▁Sûrîye	-9.73525
▁top	-9.73525
▁çêkirina	-9.73525
▁Pêncşemê	-9.73717
▁çemê	-9.73717
▁Samî	-9.7391
▁birayê	-9.7391
▁bînin	-9.7391
▁hejmarek	-9.7391
▁Receb	-9.74103
▁58	-9.74297
▁Komeleya	-9.74297
▁Kovara	-9.74297
▁Min	-9.74297
▁qeza	-9.74297
▁Zaxoyê	-9.74491
▁Demokratîk	-9.74685
▁ba	-9.74685
▁xo	-9.74685
▁xwepêşanderan	-9.74685
▁52	-9.7488
▁DEST	-9.7488
▁destnîşankirin	-9.7488
▁mijara	-9.7488
▁1988	-9.75075
▁Gorî	-9.75075
▁BAJÊRÊ	-9.75271
▁paraztina	-9.75466
▁aştîyê	-9.75663
▁gelemperî	-9.75663
▁mezintirîn	-9.75663
▁navokî	-9.75663
▁çarçêweyê	-9.75663
▁Rojhilatê	-9.75859
▁dewlet	-9.75859
▁kirî	-9.76056
▁pesend	-9.76056
▁Ango	-9.76254
▁tevgera	-9.76254
▁evaya	-9.76452
▁mêr	-9.76452
▁nivîsgeha	-9.76452
▁parêzgehan	-9.76452
▁mehan	-9.76848
▁NAVBERA	-9.77047
▁demjimar	-9.77047
▁parêzgarê	-9.77247
▁Ereban	-9.77447
▁Hoşyar	-9.77447
▁aliyên	-9.77447
▁ola	-9.77447
▁serokatiya	-9.77447
▁51	-9.77647
▁DA	-9.77647
▁mane	-9.77647
▁parêzgehê	-9.77647
▁rengê	-9.77647
▁çanda	-9.77647
▁Goran	-9.77847
▁l	-9.77847
▁tundî	-9.77847
▁xwarê	-9.77847
▁ereb	-9.78049
▁kombûn	-9.78049
▁qonaxa	-9.78049
▁54	-9.7825
▁56	-9.7825
▁Sêrtê	-9.7825
▁Sûriyeyê	-9.7825
▁bu	-9.7825
▁xwendin	-9.7825
▁nekin	-9.78452
▁qedexe	-9.78452
▁49	-9.78654
▁Navendiya	-9.78654
▁arîşeyên	-9.78654
▁Erdnîgarî	-9.78857
▁hûn	-9.78857
▁partîyên	-9.78857
▁hewl	-9.7906
▁temamî	-9.7906
▁şewitandin	-9.7906
▁Sekreterê	-9.79263
▁yî	-9.79263
▁şandeyê	-9.79263
▁dihatin	-9.79876
▁fermandarê	-9.79876
▁maye	-9.79876
▁sînor	-9.79876
▁diçin	-9.80081
▁rojnamevan	-9.80081
▁Ebdulmehdî	-9.80287
▁bêje	-9.80287
▁teqiya	-9.80287
▁werin	-9.80287
▁Yekşemê	-9.80493
▁bizava	-9.80493
▁gulanê	-9.80493
▁jina	-9.80493
▁çand	-9.80493
▁Libnanê	-9.80699
▁çarçoveya	-9.80699
▁biçe	-9.80906
▁kurt	-9.80906
▁nûneran	-9.80906
▁pêşketina	-9.80906
▁serkevtî	-9.80906
▁yewnanî	-9.80906
▁David	-9.81321
▁57	-9.81529
▁53	-9.81737
▁Axa	-9.81737
▁Hindistanê	-9.81737
▁dihate	-9.81737
▁doza	-9.81737
▁naveroka	-9.81946
▁çekdar	-9.81946
▁59	-9.82156
▁dûrî	-9.82156
▁pêkhatên	-9.82156
▁Dîsa	-9.82576
▁bimîne	-9.82576
▁rojhilat	-9.82576
▁Bibîne	-9.82787
▁Tehranê	-9.82787
▁welatekî	-9.82787
▁Ş	-9.82787
▁beşê	-9.82998
▁xirab	-9.82998
▁Seîd	-9.8321
▁o	-9.8321
▁Husên	-9.83422
▁hevpeyvînekê	-9.83422
▁jinên	-9.83422
▁muzîka	-9.83422
▁Îraqî	-9.83422
▁înternetê	-9.83422
▁Clinton	-9.83634
▁hevpeyvîna	-9.83634
▁postên	-9.83634
▁şeva	-9.83634
▁Dewletên	-9.83847
▁dewletan	-9.83847
▁kontrola	-9.83847
▁Zagros	-9.84061
▁amadekirin	-9.84061
▁giştîya	-9.84061
▁wergirt	-9.84061
▁civakê	-9.84275
▁hevkarîya	-9.84275
▁la	-9.84489
▁nehatine	-9.84489
▁1989	-9.84704
▁beşek	-9.84704
▁Doh	-9.84919
▁Ednan	-9.84919
▁Hatin	-9.84919
▁tirkan	-9.84919
▁BAXDADÊ	-9.85135
▁Reş	-9.85135
▁Wezîra	-9.85351
▁hevpişk	-9.85351
▁karî	-9.85351
▁Bûş	-9.85568
▁Dibe	-9.85568
▁Evê	-9.85568
▁----	-9.85785
▁Bad	-9.85785
▁Muhsin	-9.85785
▁Rojhilat	-9.85785
▁biwarên	-9.85785
▁gihijt	-9.85785
▁Sor	-9.86002
▁Diyarbekirê	-9.86221
▁Zaxo	-9.86221
▁dîdarekê	-9.86221
▁Înîyê	-9.86221
▁perwerdeya	-9.86439
▁KES	-9.86658
▁Rewşa	-9.86658
▁rûniştvanan	-9.86658
▁xaneyên	-9.86658
▁BARZANÎ	-9.86878
▁spî	-9.86878
▁Der	-9.87098
▁serhildana	-9.87098
▁tîrmehê	-9.87098
▁Gul	-9.87318
▁Paşa	-9.87318
▁\	-9.87318
▁fermana	-9.87318
▁karekî	-9.87318
▁zor	-9.87318
▁kompanyaya	-9.87539
▁Îtaliya	-9.87539
▁Rojavayê	-9.87761
▁alfabeya	-9.87761
▁dewlemend	-9.87761
▁soz	-9.87761
▁Bavê	-9.87983
▁Washington	-9.87983
▁egera	-9.87983
▁kesek	-9.87983
▁navnetewî	-9.87983
▁Berhemên	-9.88205
▁anîna	-9.88205
▁bingeh	-9.88205
▁erkê	-9.88205
▁Mazî	-9.88428
▁paşîn	-9.88428
▁Besra	-9.88652
▁perwerde	-9.88652
▁Îslamê	-9.88652
▁1979	-9.88876
▁2016	-9.88876
▁tev	-9.88876
▁Fransî	-9.891
▁KOMBÛNEK	-9.891
▁bihêt	-9.891
▁i	-9.891
▁çawanîya	-9.891
▁Kuweytê	-9.89325
▁kanûna	-9.89325
▁pêşxistina	-9.89325
▁vekirî	-9.89325
▁Helebçe	-9.8955
▁Dîyarbekirê	-9.89777
▁EM	-9.89777
▁eşîra	-9.89777
▁kabîneya	-9.89777
▁laşê	-9.89777
▁mirin	-9.89777
▁sibê	-9.89777
▁Şingalê	-9.89777
▁DYAyê	-9.90003
▁Welatên	-9.90003
▁pêdivî	-9.90003
▁Ser	-9.9023
▁boy	-9.90458
▁Hinek	-9.90686
▁WEZÎRÊ	-9.90686
▁famîleya	-9.90914
▁Ebû	-9.91143
▁Pirtûkên	-9.91143
▁Sêşemê	-9.91143
▁des	-9.91143
▁encûmenên	-9.91143
▁nûjen	-9.91143
▁nûçeyeka	-9.91143
▁rengî	-9.91143
▁misilman	-9.91373
▁şehîd	-9.91373
▁1982	-9.91603
▁berdin	-9.91603
▁cihekî	-9.91603
▁terorîstî	-9.91603
▁xwezt	-9.91603
▁daxwazkirî	-9.91834
▁firrokeyên	-9.91834
▁tevahiya	-9.91834
▁xwepêşandanên	-9.91834
▁Împeratoriya	-9.91834
▁BIKIN	-9.92065
▁1946	-9.92297
▁bixe	-9.92297
▁serokwezîrê	-9.92297
▁xebat	-9.92297
▁Bin	-9.92529
▁Parîsê	-9.92529
▁Yekgirtî	-9.92529
▁dihêt	-9.92529
▁pêjgeha	-9.92529
▁Zimanên	-9.92762
▁bal	-9.92762
▁pîkolan	-9.92762
▁Kir	-9.93229
▁Welat	-9.93229
▁heşt	-9.93229
▁Barack	-9.93464
▁Hêjayê	-9.93464
▁aborîya	-9.93464
▁amerîkî	-9.93464
▁avêtin	-9.93464
▁biçin	-9.93464
▁kevin	-9.93699
▁nînin	-9.93699
▁çûye	-9.93699
▁axaftina	-9.93934
▁padding	-9.93934
▁parastinê	-9.93934
▁Çarşemê	-9.93934
▁bingehê	-9.9417
▁va	-9.9417
▁xalên	-9.9417
▁Die	-9.94407
▁demek	-9.94407
▁dirêjîya	-9.94407
▁gava	-9.94407
▁pêwîst	-9.94407
▁1970	-9.94644
▁Komîteya	-9.94644
▁Qasim	-9.94644
▁girtine	-9.94644
▁sînorên	-9.94644
▁bixin	-9.94882
▁cûda	-9.94882
▁germ	-9.94882
▁piştgirîya	-9.94882
▁wezîra	-9.94882
▁xebatê	-9.94882
▁Ehmedê	-9.9512
▁Tenê	-9.9512
▁vedîtin	-9.9512
▁·	-9.9512
▁1987	-9.95359
▁Gund	-9.95359
▁Zana	-9.95359
▁tund	-9.95359
▁Aştî	-9.95599
▁Brîtanya	-9.95599
▁Jin	-9.95599
▁balyozxaneya	-9.95599
▁bona	-9.95599
▁helbestên	-9.95599
▁jêderê	-9.95599
▁lêkolînan	-9.95599
▁şevê	-9.95599
▁400	-9.95839
▁karmendên	-9.95839
▁nekiriye	-9.95839
▁Gava	-9.9608
▁borî	-9.9608
▁helbest	-9.9608
▁nekir	-9.9608
▁çap	-9.9608
▁şadbûna	-9.9608
▁1975	-9.96321
▁destûrî	-9.96321
▁hunerî	-9.96321
▁nirxê	-9.96321
▁rêz	-9.96321
▁1986	-9.96563
▁Bedirxan	-9.96563
▁Emîn	-9.96563
▁bidest	-9.96563
▁daxwazkirin	-9.96563
▁derveyên	-9.96563
▁nexweş	-9.96563
▁VE	-9.96805
▁berde	-9.96805
▁rojnamevanan	-9.96805
▁BER	-9.97048
▁Berê	-9.97048
▁Z	-9.97048
▁pêkanîn	-9.97048
▁têkiliyên	-9.97048
▁Stenbol	-9.97292
▁plana	-9.97292
▁rêberên	-9.97292
▁rêyên	-9.97292
▁rêzdar	-9.97292
▁stranên	-9.97292
▁temam	-9.97292
▁1960	-9.97536
▁1em	-9.97536
▁solid	-9.97536
▁F	-9.97781
▁Ne	-9.97781
▁Sê	-9.97781
▁erkên	-9.97781
▁wêjeya	-9.97781
▁xwestin	-9.97781
▁PARLIYAMENTA	-9.98026
▁bawerî	-9.98026
▁desthilatdarîya	-9.98026
▁hez	-9.98026
▁kişand	-9.98026
▁projeya	-9.98026
▁150	-9.98272
▁1984	-9.98272
▁Dadgeha	-9.98272
▁guhertin	-9.98272
▁mir	-9.98272
▁HEWLÊRÊ	-9.98519
▁Roman	-9.98519
▁demokrasîyê	-9.98519
▁îslamê	-9.98519
▁Hacî	-9.98766
▁saliya	-9.98766
▁Çemê	-9.98766
▁Bismilê	-9.99014
▁Serhildana	-9.99014
▁V	-9.99014
▁Y	-9.99014
▁eşîrên	-9.99014
▁komên	-9.99014
▁pêşîya	-9.99014
▁teqînê	-9.99014
▁Demokrata	-9.99262
▁Ku	-9.99262
▁dikevin	-9.99262
▁kombûnan	-9.99262
▁parêzgeh	-9.99262
▁tomar	-9.99262
▁weşana	-9.99262
▁çimku	-9.99262
▁Cîhanî	-9.99511
▁Leyla	-9.99511
▁nehê	-9.99511
▁Baybûrdê	-9.99761
▁Demokrat	-9.99761
▁Herêmê	-9.99761
▁anîne	-9.99761
▁biryarên	-9.99761
▁careke	-9.99761
▁eve	-9.99761
▁serbixweya	-9.99761
▁vekişîna	-9.99761
▁Hemû	-10.0001
▁nîşandanê	-10.0001
▁Josef	-10.0026
▁Newrozê	-10.0026
▁NÛ	-10.0026
▁P	-10.0026
▁farisî	-10.0026
▁hefteya	-10.0026
▁1981	-10.0051
▁ENCÛMENA	-10.0051
▁Nûnerê	-10.0051
▁aliyan	-10.0051
▁destpêkirin	-10.0051
▁dor	-10.0051
▁general	-10.0051
▁pîrozkirin	-10.0051
▁agahdar	-10.0077
▁do	-10.0077
▁kujtina	-10.0077
▁nahê	-10.0077
▁Ziman	-10.0102
▁bûbû	-10.0102
▁dixebite	-10.0102
▁ewa	-10.0102
▁nebû	-10.0102
▁serokên	-10.0102
▁alman	-10.0127
▁asayî	-10.0127
▁birin	-10.0127
▁lîstên	-10.0127
▁r	-10.0127
▁rewş	-10.0127
▁serxwebûna	-10.0127
▁çapkirin	-10.0127
▁90	-10.0153
▁Jiyana	-10.0153
▁Nobel	-10.0153
▁bajarekî	-10.0153
▁dixe	-10.0153
▁komê	-10.0153
▁mirinê	-10.0153
▁1983	-10.0178
▁Heger	-10.0178
▁Pirtûka	-10.0178
▁armancên	-10.0178
▁bazirganîya	-10.0178
▁ermenî	-10.0178
▁kongireyê	-10.0178
▁Bûyerên	-10.0204
▁Cîgirê	-10.0204
▁berdan	-10.0204
▁dît	-10.0204
▁ÇÊ	-10.0204
▁Ocalan	-10.0229
▁civata	-10.0229
▁jiyan	-10.0229
▁navî	-10.0229
▁piranîya	-10.0229
▁baweriya	-10.0255
▁berhem	-10.0255
▁dizanin	-10.0255
▁Mûsa	-10.0281
▁herêm	-10.0281
▁laş	-10.0281
▁nebûye	-10.0281
▁çalakiyên	-10.0281
▁Cebar	-10.0307
▁bergirîyê	-10.0307
▁tînin	-10.0307
▁Êdî	-10.0307
▁BBC	-10.0332
▁Muhemed	-10.0332
▁YÊN	-10.0332
▁biparêzin	-10.0332
▁pirtir	-10.0332
▁hukûmet	-10.0358
▁nebin	-10.0358
▁pêşinyarên	-10.0358
▁pîkolên	-10.0358
▁hilbijartinê	-10.0384
▁kete	-10.0384
▁pitir	-10.0384
▁riwekan	-10.0384
▁spasîya	-10.0384
▁Îsa	-10.0384
▁1985	-10.041
▁Colemêrgê	-10.041
▁am	-10.041
▁%;	-10.0437
▁Azerbaycanê	-10.0437
▁Dara	-10.0437
▁Xan	-10.0437
▁Yawer	-10.0437
▁armanc	-10.0437
▁pêzanînên	-10.0437
▁çekdaran	-10.0437
▁Si	-10.0463
▁bala	-10.0463
▁man	-10.0463
▁mayinkirî	-10.0463
▁nêv	-10.0463
▁dîrok	-10.0489
▁fermangeha	-10.0489
▁Afrîkayê	-10.0515
▁Bajar	-10.0515
▁Bexda	-10.0515
▁Farqînê	-10.0515
▁ewlekarîyê	-10.0515
▁rakirin	-10.0515
▁terorê	-10.0515
▁dûn	-10.0542
▁mijarê	-10.0542
▁pey	-10.0542
▁rêxistinê	-10.0542
▁Parêzgeha	-10.0568
▁TALEBANÎ	-10.0568
▁bajarî	-10.0568
▁binivîse	-10.0568
▁bêjedarê	-10.0568
▁giranî	-10.0568
▁Eger	-10.0595
▁kontrol	-10.0595
▁malên	-10.0595
▁mixabin	-10.0595
▁peywendî	-10.0595
▁pêşwazî	-10.0595
▁wergirtin	-10.0595
▁zayînê	-10.0595
▁Sal	-10.0621
▁Silêman	-10.0621
▁2017	-10.0648
▁Malbata	-10.0648
▁height	-10.0648
▁lêgerînê	-10.0648
▁pesendkirin	-10.0648
▁çekdarî	-10.0648
▁Duşemê	-10.0675
▁kirdara	-10.0675
▁kî	-10.0675
▁pêşiya	-10.0675
▁1978	-10.0702
▁1928	-10.0729
▁Lîbya	-10.0729
▁Swêd	-10.0729
▁naverasta	-10.0729
▁rewşê	-10.0729
▁Cizîrê	-10.0756
▁KURDISTANÎ	-10.0756
▁Reşîd	-10.0756
▁collapse	-10.0756
▁girê	-10.0756
▁navxweyîya	-10.0756
▁Herdu	-10.0783
▁daxuyannameyê	-10.0783
▁netewî	-10.0783
▁perwerdeyê	-10.0783
▁birayên	-10.081
▁et	-10.081
▁lewra	-10.081
▁Demîrtaş	-10.0837
▁Genus	-10.0837
▁tîpên	-10.0837
▁valign	-10.0837
▁978	-10.0864
▁Izzat	-10.0864
▁desthilatê	-10.0864
▁dosyaya	-10.0864
▁hema	-10.0864
▁kiribûn	-10.0864
▁Niştîmanî	-10.0892
▁ewe	-10.0892
▁jîyanên	-10.0892
▁ragihandibû	-10.0892
▁liser	-10.0919
▁pirsgirêkên	-10.0919
▁wa	-10.0919
▁çavan	-10.0919
▁çiqas	-10.0919
▁bîranîna	-10.0947
▁ciwan	-10.0947
▁dagir	-10.0947
▁DAN	-10.0974
▁DU	-10.0974
▁color	-10.0974
▁malbatê	-10.0974
▁mirovî	-10.0974
▁nivîsên	-10.0974
▁reporta	-10.0974
▁weşanê	-10.0974
▁çîrokên	-10.0974
▁„	-10.0974
▁Neynewa	-10.1002
▁gote	-10.1002
▁Bilinda	-10.103
▁Duhok	-10.103
▁Enqereyê	-10.103
▁rizgar	-10.103
▁1977	-10.1058
▁Jibo	-10.1058
▁en	-10.1058
▁°	-10.1058
▁Gentiana	-10.1085
▁adara	-10.1085
▁bandor	-10.1085
▁naxwazin	-10.1085
▁salveger	-10.1085
▁sistema	-10.1085
▁Hate	-10.1113
▁civînê	-10.1113
▁herdû	-10.1113
▁kovar	-10.1113
▁teqe	-10.1113
▁şêweyekî	-10.1113
▁1973	-10.1141
▁Hewramî	-10.1141
▁Romê	-10.1141
▁anîye	-10.1141
▁azadî	-10.1141
▁endam	-10.1141
▁Licê	-10.117
▁Serê	-10.117
▁Turkiyeyî	-10.117
▁bajêrên	-10.117
▁fîzîkê	-10.117
▁hêvîdar	-10.117
▁ketiye	-10.117
▁kin	-10.117
▁terorane	-10.117
▁Asya	-10.1198
▁Botan	-10.1198
▁Enstîtuya	-10.1198
▁Stembolê	-10.1198
▁bêhtir	-10.1198
▁gotibû	-10.1198
▁hejmar	-10.1198
▁hêj	-10.1198
▁paşî	-10.1198
▁Nobela	-10.1226
▁rûnê	-10.1226
▁xwepêşandan	-10.1226
▁çav	-10.1226
▁çiriya	-10.1226
▁1974	-10.1254
▁Dikin	-10.1254
▁JPG	-10.1254
▁civîna	-10.1254
▁cm	-10.1254
▁derbaz	-10.1254
▁radestî	-10.1254
▁Weke	-10.1283
▁pêvajoya	-10.1283
▁gundan	-10.1311
▁kanala	-10.1311
▁milliyon	-10.1311
▁Qezafî	-10.134
▁bir	-10.134
▁darayî	-10.134
▁line	-10.134
▁Îtalya	-10.134
▁Şoreşa	-10.134
▁Al	-10.1369
▁Nuceyfî	-10.1369
▁Rojavaya	-10.1369
▁balkêş	-10.1369
▁bimînin	-10.1369
▁dezgeha	-10.1369
▁muhr	-10.1369
▁çaverêkirin	-10.1369
▁Allium	-10.1397
▁BE	-10.1397
▁beriya	-10.1397
▁dewam	-10.1397
▁dijwarî	-10.1397
▁”.	-10.1397
▁Deşta	-10.1426
▁yekî	-10.1426
▁Peymana	-10.1455
▁Tevgera	-10.1455
▁bajêrî	-10.1455
▁bêjedaneka	-10.1455
▁dibû	-10.1455
▁niştimanîya	-10.1455
▁radigihîne	-10.1455
▁rewşenbîrî	-10.1455
▁xweztin	-10.1455
▁Cihê	-10.1484
▁Gelhe	-10.1484
▁Xelatgirên	-10.1484
▁birêve	-10.1484
▁careka	-10.1484
▁gora	-10.1484
▁sêyem	-10.1484
▁yekser	-10.1484
▁çîrok	-10.1484
▁Lîsta	-10.1513
▁Navneteweyî	-10.1513
▁bawerîyê	-10.1513
▁Omer	-10.1543
▁nêzîka	-10.1543
▁rêveberiya	-10.1543
▁Helebê	-10.1572
▁berdest	-10.1572
▁derketin	-10.1572
▁ketin	-10.1572
▁lîsteya	-10.1572
▁qala	-10.1572
▁têk	-10.1572
▁çiyayên	-10.1572
▁şerî	-10.1572
▁Brîtanyayê	-10.1601
▁Hat	-10.1601
▁Sebah	-10.1601
▁Serokatîya	-10.1601
▁awayekê	-10.1601
▁Şeqlaweyê	-10.1601
▁Dekak	-10.1631
▁HEVPEYMANÎYA	-10.1631
▁Hecî	-10.1631
▁roman	-10.1631
▁winda	-10.1631
▁Ban	-10.166
▁Girêdan	-10.166
▁tiştê	-10.166
▁Heyderî	-10.169
▁Kurmancî	-10.169
▁Vê	-10.169
▁carê	-10.169
▁hikûmet	-10.169
▁çavên	-10.169
▁Recep	-10.172
▁Urdunê	-10.172
▁bikaribin	-10.172
▁derdikevin	-10.172
▁mezintir	-10.172
▁Baydemîr	-10.1749
▁barê	-10.1749
▁gotarek	-10.1749
▁nîvrojê	-10.1749
▁qet	-10.1749
▁çekan	-10.1749
▁،	-10.1749
▁BW	-10.1779
▁CHP	-10.1779
▁keça	-10.1779
▁sed	-10.1779
▁soranî	-10.1779
▁çûne	-10.1779
▁Debbax	-10.1809
▁Nav	-10.1809
▁Ya	-10.1809
▁aştî	-10.1809
▁ex	-10.1809
▁kerta	-10.1809
▁çêbû	-10.1809
▁Aborî	-10.1839
▁Rûsî	-10.1839
▁destûr	-10.1839
▁emîn	-10.1839
▁partî	-10.1839
▁zankoya	-10.1839
▁Celewla	-10.187
▁Firat	-10.187
▁Misir	-10.187
▁alîkarîyê	-10.187
▁for	-10.187
▁peyvên	-10.187
▁seretayî	-10.187
▁Îtîlafa	-10.187
▁Dibistana	-10.19
▁Karkerên	-10.19
▁NÛRÎ	-10.19
▁astê	-10.19
▁rojname	-10.19
▁berjewendîyên	-10.193
▁bîra	-10.193
▁hukûmeteka	-10.193
▁Îsraîl	-10.193
▁1px	-10.1961
▁Azadî	-10.1961
▁diristkirina	-10.1961
▁leşkeran	-10.1961
▁yekîtîya	-10.1961
▁Îbn	-10.1961
▁çûna	-10.1961
▁arêşe	-10.1991
▁bûbûn	-10.1991
▁derxist	-10.1991
▁karûbarên	-10.1991
▁sedemên	-10.1991
▁tr	-10.1991
▁wergirtiye	-10.1991
▁Îraq	-10.1991
▁îsal	-10.1991
▁Elhekîm	-10.2022
▁Paşê	-10.2022
▁Sîrwan	-10.2022
▁agahiyên	-10.2022
▁bernameyên	-10.2022
▁font	-10.2022
▁on	-10.2022
▁Cemal	-10.2052
▁San	-10.2052
▁Sewa	-10.2052
▁bav	-10.2052
▁girêdan	-10.2052
▁nasandin	-10.2052
▁sar	-10.2052
▁1925	-10.2083
▁Mehdî	-10.2083
▁Dîlokê	-10.2114
▁Komarî	-10.2114
▁Yekem	-10.2114
▁bêjedanek	-10.2114
▁bûya	-10.2114
▁xwarinên	-10.2145
▁1958	-10.2176
▁serbazên	-10.2176
▁{	-10.2176
▁1972	-10.2208
▁Londonê	-10.2208
▁kûr	-10.2208
▁nexweşiyê	-10.2208
▁parastin	-10.2208
▁piştgiriya	-10.2208
▁romanê	-10.2208
▁tim	-10.2208
▁Lîbyayê	-10.2239
▁cîhana	-10.2239
▁size	-10.2239
▁Beşa	-10.227
▁Galerî	-10.227
▁James	-10.227
▁Navçeyên	-10.227
▁Nisêbînê	-10.227
▁Spî	-10.227
▁hindê	-10.227
▁nerazîbûna	-10.227
▁1971	-10.2302
▁Ala	-10.2302
▁BY	-10.2302
▁DAXWAZA	-10.2302
▁diya	-10.2302
▁hevkarî	-10.2302
▁nûçeyê	-10.2302
▁nade	-10.2333
▁ret	-10.2333
▁Afganî	-10.2365
▁Maşallah	-10.2365
▁aramî	-10.2365
▁biryare	-10.2365
▁dana	-10.2365
▁dibê	-10.2365
▁dîyarkirin	-10.2365
▁şev	-10.2365
▁َ	-10.2365
▁1976	-10.2397
▁SEROKATÎYA	-10.2397
▁Samerrayî	-10.2397
▁bihêz	-10.2397
▁bixwîne	-10.2397
▁gulana	-10.2397
▁nemîne	-10.2397
▁nivîskarekî	-10.2397
▁Corc	-10.2429
▁Federal	-10.2429
▁LÎSTA	-10.2429
▁Xanim	-10.2429
▁aştîyane	-10.2429
▁bawerîya	-10.2429
▁hêşta	-10.2429
▁berdewamî	-10.2461
▁bicih	-10.2461
▁hevdû	-10.2461
▁klasîk	-10.2461
▁serkeftî	-10.2461
▁Bilind	-10.2493
▁Gerek	-10.2493
▁cellspacing	-10.2493
▁meriv	-10.2493
▁pêngavên	-10.2493
▁êvarî	-10.2493
▁180	-10.2525
▁Mubarek	-10.2525
▁Mustafa	-10.2525
▁carek	-10.2525
▁goştê	-10.2525
▁hatîne	-10.2525
▁heyva	-10.2525
▁nasnameya	-10.2525
▁serbest	-10.2525
▁xwendevanên	-10.2525
▁zanîngehê	-10.2525
▁çavdêrîya	-10.2525
▁=====	-10.2557
▁Kesen	-10.2557
▁Lewra	-10.2557
▁bazirganîyê	-10.2557
▁cellpadding	-10.2557
▁diyalogê	-10.2557
▁1957	-10.259
▁1966	-10.259
▁Heyder	-10.259
▁London	-10.259
▁encûmenê	-10.259
▁guherandin	-10.259
▁1965	-10.2622
▁Siyasetmedarên	-10.2622
▁axaftin	-10.2622
▁lêkolînê	-10.2622
▁rawestandin	-10.2622
▁rêzê	-10.2622
▁şehîdan	-10.2622
▁95	-10.2655
▁stran	-10.2655
▁Amerîkaya	-10.2688
▁gazê	-10.2688
▁ger	-10.2688
▁jinê	-10.2688
▁serkevtinê	-10.2688
▁Biryar	-10.272
▁Rewandizî	-10.272
▁SUPAYÊ	-10.272
▁Xweda	-10.272
▁bêyî	-10.272
▁damezirandin	-10.272
▁he	-10.272
▁lidarxistin	-10.272
▁serkirdeyên	-10.272
▁tevahî	-10.272
▁xwezayî	-10.272
▁Îslam	-10.272
▁Can	-10.2753
▁çalak	-10.2753
▁çarçoveyê	-10.2753
▁Gimgimê	-10.2786
▁Tu	-10.2786
▁babê	-10.2786
▁rezberê	-10.2786
▁1930	-10.282
▁koşka	-10.282
▁wêneyên	-10.282
▁çêdibe	-10.282
▁1967	-10.2853
▁F1F1F1	-10.2853
▁International	-10.2853
▁agahî	-10.2853
▁azadiya	-10.2853
▁dolar	-10.2853
▁nabin	-10.2853
▁partiyê	-10.2853
▁Ava	-10.2886
▁Cemîl	-10.2886
▁Komela	-10.2886
▁Umer	-10.2886
▁artêşê	-10.2886
▁kêmtir	-10.2886
▁Çînî	-10.2886
▁aliyekî	-10.292
▁daxuyannameya	-10.292
▁derketiye	-10.292
▁dubare	-10.292
▁qanûn	-10.292
▁Combretum	-10.2953
▁In	-10.2953
▁Kongreya	-10.2953
▁Niştîmanîya	-10.2953
▁September	-10.2953
▁warên	-10.2953
▁«	-10.2953
▁1969	-10.2987
▁Ali	-10.2987
▁General	-10.2987
▁HILBIJARTINAN	-10.2987
▁bikim	-10.2987
▁geş	-10.2987
▁gomanbar	-10.2987
▁nivîsîn	-10.2987
▁teksta	-10.2987
▁2019	-10.3021
▁Afrîka	-10.3021
▁Batmanê	-10.3021
▁Civaka	-10.3021
▁Ebdulkerîm	-10.3021
▁Gulan	-10.3021
▁kursîyên	-10.3021
▁neh	-10.3021
▁Îsmaîl	-10.3021
▁Gola	-10.3055
▁Tahir	-10.3055
▁at	-10.3055
▁piştrast	-10.3055
▁riswa	-10.3055
▁salvegera	-10.3055
▁sûd	-10.3055
▁2018	-10.3089
▁Hedba	-10.3089
▁arîşeya	-10.3089
▁ey	-10.3089
▁kursî	-10.3089
▁maf	-10.3089
▁nexweşxaneya	-10.3089
▁wêjeyê	-10.3089
▁Şaredariya	-10.3089
▁);	-10.3123
▁1968	-10.3123
▁Helbest	-10.3123
▁banga	-10.3123
▁bûyer	-10.3123
▁mercên	-10.3123
▁nema	-10.3123
▁nik	-10.3123
▁serkevtina	-10.3123
▁tête	-10.3123
▁Ermenistanê	-10.3158
▁Pîroz	-10.3158
▁helbestvan	-10.3158
▁helwesta	-10.3158
▁hevdîtinê	-10.3158
▁nivîskarên	-10.3158
▁rojnameyên	-10.3158
▁xelk	-10.3158
▁Şemîyê	-10.3158
▁DIN	-10.3192
▁O	-10.3192
▁dibistanê	-10.3192
▁endama	-10.3192
▁rojekê	-10.3192
▁seranserî	-10.3192
▁serhildayan	-10.3192
▁zimanan	-10.3192
▁zimanî	-10.3192
▁")	-10.3226
▁Ce	-10.3226
▁PKKê	-10.3226
▁Qamişlo	-10.3226
▁William	-10.3226
▁dikê	-10.3226
▁https	-10.3226
▁hunera	-10.3226
▁konsulxaneya	-10.3226
▁peywendîya	-10.3226
▁piçûk	-10.3226
▁wezaretên	-10.3226
▁Kanada	-10.3261
▁berhema	-10.3261
▁demjimêr	-10.3261
▁hîç	-10.3261
▁navdewletîya	-10.3261
▁nivîsandina	-10.3261
▁têkoşîna	-10.3261
▁zaravayê	-10.3261
▁ŞANDEYEKA	-10.3261
▁و	-10.3261
▁University	-10.3296
▁benda	-10.3296
▁fermîya	-10.3296
▁mana	-10.3296
▁Şehristanî	-10.3296
▁Heya	-10.3331
▁Sîstema	-10.3331
▁aloz	-10.3331
▁fireh	-10.3331
▁hebûye	-10.3331
▁saziyên	-10.3331
▁xwekuj	-10.3331
▁Gates	-10.3366
▁Ibrahîm	-10.3366
▁Jêr	-10.3366
▁Kom	-10.3366
▁Yemenê	-10.3366
▁berfanbarê	-10.3366
▁demekî	-10.3366
▁kirdareka	-10.3366
▁sale	-10.3366
▁xwê	-10.3366
▁Mehabad	-10.3401
▁Peyvdarê	-10.3401
▁bar	-10.3401
▁daxuyannameyek	-10.3401
▁kevt	-10.3401
▁peymana	-10.3401
▁pêxember	-10.3401
▁vala	-10.3401
▁Bidlîsê	-10.3436
▁Dijî	-10.3436
▁hevgirtina	-10.3436
▁nenas	-10.3436
▁ziyanên	-10.3436
▁600	-10.3472
▁George	-10.3472
▁alîgirên	-10.3472
▁aram	-10.3472
▁cureyan	-10.3472
▁cîranên	-10.3472
▁fîlm	-10.3472
▁gef	-10.3472
▁maddeyên	-10.3472
▁operasyonên	-10.3472
▁îsota	-10.3472
▁Avesta	-10.3507
▁Bala	-10.3507
▁hêvîya	-10.3507
▁sedemê	-10.3507
▁250	-10.3543
▁DeMistura	-10.3543
▁Firyad	-10.3543
▁Supayê	-10.3543
▁derheqê	-10.3543
▁hunermend	-10.3543
▁leşkerîyên	-10.3543
▁otombîleka	-10.3543
▁proje	-10.3543
▁rêxistin	-10.3543
▁ÇEND	-10.3543
▁1945	-10.3579
▁1950	-10.3579
▁Calceolaria	-10.3579
▁PIRSA	-10.3579
▁Paul	-10.3579
▁Selîm	-10.3579
▁awayeke	-10.3579
▁cezayê	-10.3579
▁mehên	-10.3579
▁naxwaze	-10.3579
▁sedî	-10.3579
▁weşanên	-10.3579
▁Dîcle	-10.3615
▁Teyib	-10.3615
▁hêja	-10.3615
▁leşkerê	-10.3615
▁romana	-10.3615
▁wergerandin	-10.3615
▁1961	-10.3651
▁Tebax	-10.3651
▁bajaran	-10.3651
▁niştîmanî	-10.3651
▁rûsî	-10.3651
▁standinên	-10.3651
▁xwendinê	-10.3651
▁yanî	-10.3651
▁Armanca	-10.3687
▁ELIRAQÎYYE	-10.3687
▁Navên	-10.3687
▁peyama	-10.3687
▁telefonê	-10.3687
▁BALYOZÊ	-10.3723
▁Kirin	-10.3723
▁baweriyê	-10.3723
▁diaxivin	-10.3723
▁hingê	-10.3723
▁hişk	-10.3723
▁hûr	-10.3723
▁sipî	-10.3723
▁|-----	-10.3723
▁Ahmed	-10.3759
▁Serokwezîr	-10.3759
▁dimînin	-10.3759
▁felsefe	-10.3759
▁kîjan	-10.3759
▁mezinê	-10.3759
▁nakokî	-10.3759
▁neçar	-10.3759
▁şîn	-10.3759
▁1963	-10.3796
▁August	-10.3796
▁July	-10.3796
▁Muftî	-10.3796
▁Welatê	-10.3796
▁albûma	-10.3796
▁arîşeyan	-10.3796
▁beş	-10.3796
▁dîtina	-10.3796
▁futbolê	-10.3796
▁pevçûnên	-10.3796
▁rêkevtinek	-10.3796
▁seranser	-10.3796
▁Dollaran	-10.3833
▁Enwer	-10.3833
▁Ezîz	-10.3833
▁III	-10.3833
▁bêjedanên	-10.3833
▁duhî	-10.3833
▁heyvê	-10.3833
▁navendên	-10.3833
▁pirosesa	-10.3833
▁tîrmeha	-10.3833
▁vedigere	-10.3833
▁****	-10.387
▁1955	-10.387
▁1956	-10.387
▁Jinên	-10.387
▁NW	-10.387
▁bidawî	-10.387
▁dabeşkirina	-10.387
▁deryayê	-10.387
▁lez	-10.387
▁Cinsa	-10.3907
▁Klinton	-10.3907
▁ME	-10.3907
▁Parastina	-10.3907
▁berçav	-10.3907
▁fermîyê	-10.3907
▁hundirê	-10.3907
▁jor	-10.3907
▁peywendîyan	-10.3907
▁tiştek	-10.3907
▁xwîna	-10.3907
▁zazakî	-10.3907
▁Şêxan	-10.3907
▁DAXWAZ	-10.3944
▁Emerîka	-10.3944
▁KAR	-10.3944
▁Mîrê	-10.3944
▁Yekemîn	-10.3944
▁avî	-10.3944
▁hizir	-10.3944
▁hêzeka	-10.3944
▁Dihê	-10.3981
▁Okyanûsa	-10.3981
▁Seyîd	-10.3981
▁ferman	-10.3981
▁kombûneka	-10.3981
▁rewa	-10.3981
▁1962	-10.4018
▁Arif	-10.4018
▁derketina	-10.4018
▁hijmara	-10.4018
▁navxweyîyê	-10.4018
▁razîbûna	-10.4018
▁rêbendanê	-10.4018
▁seranserê	-10.4018
▁sînorîyên	-10.4018
▁îtalî	-10.4018
▁Şer	-10.4018
▁şandina	-10.4018
▁Hekarî	-10.4056
▁Keyaniya	-10.4056
▁arîşe	-10.4056
▁by	-10.4056
▁konsulê	-10.4056
▁malbat	-10.4056
▁nebûn	-10.4056
▁zarê	-10.4056
▁êrîşan	-10.4056
▁Islamî	-10.4093
▁Kî	-10.4093
▁Qoserê	-10.4093
▁Roma	-10.4093
▁Serdana	-10.4093
▁bihêlin	-10.4093
▁erênî	-10.4093
▁hesibandin	-10.4093
▁hevpar	-10.4093
▁pesendkirina	-10.4093
▁serhildayên	-10.4093
▁HERÊMÊ	-10.4131
▁Kendava	-10.4131
▁Med	-10.4131
▁neda	-10.4131
▁reng	-10.4131
▁rûpel	-10.4131
▁Çand	-10.4131
▁75	-10.4169
▁Adarê	-10.4169
▁Karbidest	-10.4169
▁Rêberê	-10.4169
▁afirandin	-10.4169
▁biwaran	-10.4169
▁diyarkirin	-10.4169
▁n	-10.4169
▁nîn	-10.4169
▁peywendiyên	-10.4169
▁pileya	-10.4169
▁qedexekirin	-10.4169
▁xwend	-10.4169
▁xwendiye	-10.4169
▁1964	-10.4207
▁Agirî	-10.4207
▁Endama	-10.4207
▁dayika	-10.4207
▁dida	-10.4207
▁dixin	-10.4207
▁nîv	-10.4207
▁revandin	-10.4207
▁sazkirina	-10.4207
▁vegerin	-10.4207
▁yekema	-10.4207
▁çavdêrên	-10.4207
▁şand	-10.4207
▁BAREYA	-10.4246
▁Bike	-10.4246
▁Mehabadê	-10.4246
▁destnîşankirina	-10.4246
▁dizane	-10.4246
▁felsefeya	-10.4246
▁kewçêrê	-10.4246
▁penaberên	-10.4246
▁petrol	-10.4246
▁çandinî	-10.4246
▁.):	-10.4284
▁Mezopotamyayê	-10.4284
▁binê	-10.4284
▁devê	-10.4284
▁dûçûna	-10.4284
▁grûpa	-10.4284
▁herêman	-10.4284
▁partiyên	-10.4284
▁pişta	-10.4284
▁serwerîya	-10.4284
▁teybetî	-10.4284
▁zimanekî	-10.4284
▁çîroka	-10.4284
▁DIXWAZE	-10.4322
▁Frans	-10.4322
▁OSMAN	-10.4322
▁alîkar	-10.4322
▁destwerdanê	-10.4322
▁esmanî	-10.4322
▁hevpişka	-10.4322
▁jêrîn	-10.4322
▁parçe	-10.4322
▁topbaran	-10.4322
▁tîmên	-10.4322
▁wêjeyî	-10.4322
▁êla	-10.4322
▁Baxdad	-10.4361
▁MEHMÛD	-10.4361
▁Têkiliyên	-10.4361
▁Verlag	-10.4361
▁başûra	-10.4361
▁koçî	-10.4361
▁kêmanî	-10.4361
▁nadin	-10.4361
▁pişka	-10.4361
▁polîtburoya	-10.4361
▁zindî	-10.4361
▁Van	-10.44
▁Xanî	-10.44
▁``	-10.44
▁aşkere	-10.44
▁bûyeran	-10.44
▁danûstandinên	-10.44
▁ketine	-10.44
▁nîşana	-10.44
▁paytext	-10.44
▁sizayên	-10.44
▁şad	-10.44
▁Dêra	-10.4439
▁Qazî	-10.4439
▁Rezber	-10.4439
▁daxuyanîyeka	-10.4439
▁opozisyonê	-10.4439
▁}	-10.4439
▁EVROJ	-10.4478
▁Pir	-10.4478
▁farsî	-10.4478
▁nave	-10.4478
▁parçeyên	-10.4478
▁pişkinînê	-10.4478
▁qurbanîyên	-10.4478
▁sûm	-10.4478
▁vegeriya	-10.4478
▁çînî	-10.4478
▁1948	-10.4517
▁1959	-10.4517
▁Alman	-10.4517
▁BIBE	-10.4517
▁Elqayide	-10.4517
▁Neteweyî	-10.4517
▁Yên	-10.4517
▁binav	-10.4517
▁birîndaran	-10.4517
▁girava	-10.4517
▁nameya	-10.4517
▁−	-10.4517
▁Iraqîyan	-10.4557
▁Mûsil	-10.4557
▁Piraniya	-10.4557
▁aştiyê	-10.4557
▁cengê	-10.4557
▁gotine	-10.4557
▁nekirine	-10.4557
▁postê	-10.4557
▁proseseka	-10.4557
▁rojnameyê	-10.4557
▁xeynî	-10.4557
▁ziyan	-10.4557
▁1953	-10.4596
▁Aştiyê	-10.4596
▁Cureyên	-10.4596
▁Serhed	-10.4596
▁dayikê	-10.4596
▁nîvê	-10.4596
▁seredana	-10.4596
▁BIHÊN	-10.4636
▁Dicle	-10.4636
▁Eşîrên	-10.4636
▁Selahedîn	-10.4636
▁ala	-10.4636
▁hunermendên	-10.4636
▁neftê	-10.4636
▁veşartî	-10.4636
▁99	-10.4676
▁Azerbaycana	-10.4676
▁News	-10.4676
▁arêşeya	-10.4676
▁derkeve	-10.4676
▁divêt	-10.4676
▁beşdarbûna	-10.4716
▁hinekî	-10.4716
▁pozetîv	-10.4716
▁tawanbar	-10.4716
▁teqînên	-10.4716
▁xerab	-10.4716
▁Çewlîgê	-10.4716
▁Çomanê	-10.4716
▁Hillary	-10.4756
▁Mixabin	-10.4756
▁Rejîma	-10.4756
▁dibêjit	-10.4756
▁kevnar	-10.4756
▁rastê	-10.4756
▁xwepêşandanê	-10.4756
▁xûyakirin	-10.4756
▁zorê	-10.4756
▁Îlonê	-10.4756
▁Bereya	-10.4797
▁Fermandarê	-10.4797
▁Soran	-10.4797
▁WEZARETA	-10.4797
▁baştirîn	-10.4797
▁biparêze	-10.4797
▁gerîyeka	-10.4797
▁guh	-10.4797
▁hevkariya	-10.4797
▁mîlyon	-10.4797
▁salane	-10.4797
▁xurttir	-10.4797
▁Çar	-10.4797
▁Efrîna	-10.4837
▁Kaniya	-10.4837
▁Rojnamevanên	-10.4837
▁Sêwasê	-10.4837
▁derbikevin	-10.4837
▁pevçûn	-10.4837
▁teqand	-10.4837
▁zelal	-10.4837
▁çarçêweya	-10.4837
▁1947	-10.4878
▁Misrê	-10.4878
▁Mêrgesorê	-10.4878
▁World	-10.4878
▁Xorasanê	-10.4878
▁destan	-10.4878
▁hatîya	-10.4878
▁nûçe	-10.4878
▁pergala	-10.4878
▁pirsan	-10.4878
▁xwekujî	-10.4878
▁Azadiya	-10.4919
▁Ewropî	-10.4919
▁Nêzîkî	-10.4919
▁axivî	-10.4919
▁derxistina	-10.4919
▁hefteyê	-10.4919
▁standin	-10.4919
▁telefonî	-10.4919
▁tiştan	-10.4919
▁çêbûna	-10.4919
▁Dollar	-10.496
▁KOMBÛNA	-10.496
▁Kaya	-10.496
▁milliyard	-10.496
▁wêne	-10.496
▁xelat	-10.496
▁Êlihê	-10.496
▁Aram	-10.5001
▁Giravên	-10.5001
▁HHK	-10.5001
▁destpêkirina	-10.5001
▁germî	-10.5001
▁navxwe	-10.5001
▁nêzîkê	-10.5001
▁wi	-10.5001
▁îranî	-10.5001
▁Pasûrê	-10.5043
▁bizavên	-10.5043
▁dihêle	-10.5043
▁fîlmê	-10.5043
▁kehrebayê	-10.5043
▁loma	-10.5043
▁îlan	-10.5043
▁1954	-10.5084
▁Girê	-10.5084
▁Spanya	-10.5084
▁hemûyan	-10.5084
▁krîza	-10.5084
▁ol	-10.5084
▁peyv	-10.5084
▁rêvebirina	-10.5084
▁teqîn	-10.5084
▁xaneyê	-10.5084
▁yo	-10.5084
▁Çinarê	-10.5084
▁Şaredarê	-10.5084
▁65	-10.5126
▁Ferec	-10.5126
▁Mesrûr	-10.5126
▁Sêşembî	-10.5126
▁axê	-10.5126
▁hingî	-10.5126
▁nemînin	-10.5126
▁tawanên	-10.5126
▁yêt	-10.5126
▁Çavdêrîya	-10.5126
▁çandin	-10.5126
▁Bexşa	-10.5168
▁Geverê	-10.5168
▁MÛSILÊ	-10.5168
▁bixwaze	-10.5168
▁digre	-10.5168
▁diçû	-10.5168
▁dîtiye	-10.5168
▁gr	-10.5168
▁malbateke	-10.5168
▁muhrkirin	-10.5168
▁nexweşiya	-10.5168
▁Times	-10.521
▁bêjedanekê	-10.521
▁demeka	-10.521
▁hewil	-10.521
▁swêdî	-10.521
▁têkiliya	-10.521
▁çima	-10.521
▁Xwarin	-10.5252
▁die	-10.5252
▁hilwestên	-10.5252
▁sazî	-10.5252
▁800	-10.5295
▁Ciwan	-10.5295
▁HEVDU	-10.5295
▁Mafê	-10.5295
▁Xwedayê	-10.5295
▁beşdarîya	-10.5295
▁dilovaniya	-10.5295
▁kirinê	-10.5295
▁konferansê	-10.5295
▁kurtî	-10.5295
▁kê	-10.5295
▁peywendîdar	-10.5295
▁wate	-10.5295
▁20px	-10.5338
▁Michael	-10.5338
▁beramberî	-10.5338
▁bête	-10.5338
▁ereban	-10.5338
▁eyaleta	-10.5338
▁kesk	-10.5338
▁wezaretan	-10.5338
▁1949	-10.538
▁Brîtaniyayî	-10.538
▁Ehmedînijad	-10.538
▁Ferhenga	-10.538
▁Konferansa	-10.538
▁Romney	-10.538
▁Tîrmeh	-10.538
▁bikaribe	-10.538
▁digot	-10.538
▁kandîdê	-10.538
▁komek	-10.538
▁mejî	-10.538
▁operasyona	-10.538
▁sermawezê	-10.538
▁zî	-10.538
▁Anatoliyaya	-10.5423
▁Cizîrî	-10.5423
▁Dîcleyê	-10.5423
▁Kor	-10.5423
▁darayîya	-10.5423
▁darê	-10.5423
▁demokrasî	-10.5423
▁eyî	-10.5423
▁pêkhatî	-10.5423
▁salekê	-10.5423
▁xwepêşandanan	-10.5423
▁Afganîstanê	-10.5467
▁Desteya	-10.5467
▁Hadî	-10.5467
▁berdem	-10.5467
▁berdewamiya	-10.5467
▁birçîbûnê	-10.5467
▁gav	-10.5467
▁helbestvanê	-10.5467
▁mebestê	-10.5467
▁qanûnên	-10.5467
▁rojî	-10.5467
▁çapa	-10.5467
▁şîrove	-10.5467
▁”,	-10.5467
▁Hillarî	-10.551
▁Peter	-10.551
▁cureyekî	-10.551
▁navendê	-10.551
▁nerîna	-10.551
▁nuha	-10.551
▁p	-10.551
▁pîrozbayî	-10.551
▁pîrozbayîyê	-10.551
▁Lîbiya	-10.5554
▁Qoser	-10.5554
▁Saint	-10.5554
▁Zêwye	-10.5554
▁berfirehtir	-10.5554
▁bişîne	-10.5554
▁dêrendazên	-10.5554
▁kêşeya	-10.5554
▁pasevanên	-10.5554
▁pêdivêyî	-10.5554
▁çandinîyê	-10.5554
▁çaverê	-10.5554
▁1918	-10.5597
▁Mecîd	-10.5597
▁Xanedana	-10.5597
▁par	-10.5597
▁pûşperê	-10.5597
▁sûdê	-10.5597
▁çiya	-10.5597
▁1931	-10.5641
▁Abdusamet	-10.5641
▁Debax	-10.5641
▁Derya	-10.5641
▁Kela	-10.5641
▁class	-10.5641
▁cîhê	-10.5641
▁doz	-10.5641
▁helbestan	-10.5641
▁komîteyê	-10.5641
▁kongreya	-10.5641
▁paytaxt	-10.5641
▁teknîkî	-10.5641
▁vegere	-10.5641
▁Şam	-10.5641
▁1938	-10.5685
▁Anatoliya	-10.5685
▁Huseyîn	-10.5685
▁avrêlê	-10.5685
▁bakûr	-10.5685
▁c	-10.5685
▁gotar	-10.5685
▁hewayê	-10.5685
▁kiryarên	-10.5685
▁nedaye	-10.5685
▁nivîskî	-10.5685
▁nêrînên	-10.5685
▁pirsgirêk	-10.5685
▁tûj	-10.5685
▁1926	-10.573
▁Kanî	-10.573
▁Mezopotamya	-10.573
▁Qahîre	-10.573
▁Spanyayê	-10.573
▁Xwarinên	-10.573
▁berpirs	-10.573
▁carî	-10.573
▁qurbanî	-10.573
▁rojavayî	-10.573
▁serperiştîya	-10.573
▁tarî	-10.573
▁1920	-10.5774
▁City	-10.5774
▁Derbarê	-10.5774
▁Herêmên	-10.5774
▁berda	-10.5774
▁hevre	-10.5774
▁kişandin	-10.5774
▁piştgirî	-10.5774
▁xelas	-10.5774
▁140px	-10.5819
▁Amêdiyê	-10.5819
▁Cara	-10.5819
▁DIKIN	-10.5819
▁Ebas	-10.5819
▁Fraksiyonên	-10.5819
▁Ger	-10.5819
▁Rojnamevan	-10.5819
▁beşeke	-10.5819
▁danûstandinan	-10.5819
▁dazanîn	-10.5819
▁desthilatdariya	-10.5819
▁genim	-10.5819
▁komeleya	-10.5819
▁sêyemîn	-10.5819
▁êrîşeke	-10.5819
▁Family	-10.5864
▁Meşhedanî	-10.5864
▁PJAK	-10.5864
▁Seyda	-10.5864
▁Sûre	-10.5864
▁Weşanxaneya	-10.5864
▁berhemanîna	-10.5864
▁ceza	-10.5864
▁html	-10.5864
▁net	-10.5864
▁rûniştinê	-10.5864
▁spanî	-10.5864
▁werbigire	-10.5864
▁Adar	-10.5909
▁BAXDAD	-10.5909
▁Enqere	-10.5909
▁Tirkan	-10.5909
▁komîteyên	-10.5909
▁kêmkirina	-10.5909
▁ûêd	-10.5909
▁SÊ	-10.5954
▁bihêle	-10.5954
▁didome	-10.5954
▁dîdarek	-10.5954
▁fer	-10.5954
▁rejîmê	-10.5954
▁Şiwanî	-10.5954
▁Kombesta	-10.6
▁MÛSIL	-10.6
▁Seqiz	-10.6
▁UTC	-10.6
▁Yigit	-10.6
▁derkevin	-10.6
▁hest	-10.6
▁kurdistan	-10.6
▁t	-10.6
▁700	-10.6046
▁DIVÊ	-10.6046
▁Pêşangeh	-10.6046
▁firrgeha	-10.6046
▁margin	-10.6046
▁tomarkirin	-10.6046
▁CNN	-10.6092
▁Gurcistanê	-10.6092
▁Riza	-10.6092
▁bira	-10.6092
▁devkî	-10.6092
▁giştiya	-10.6092
▁hebûne	-10.6092
▁strana	-10.6092
▁KRG	-10.6138
▁Martin	-10.6138
▁dabeşkirin	-10.6138
▁teqînan	-10.6138
▁terorîstên	-10.6138
▁xwedan	-10.6138
▁xwepêşanderên	-10.6138
▁1000	-10.6184
▁Dest	-10.6184
▁Karl	-10.6184
▁Misirî	-10.6184
▁Resûl	-10.6184
▁cîgirê	-10.6184
▁gelawêjê	-10.6184
▁here	-10.6184
▁mirovekî	-10.6184
▁neteweyên	-10.6184
▁pirraniya	-10.6184
▁prosesê	-10.6184
▁tiştî	-10.6184
▁Çîrokên	-10.6184
▁1937	-10.6231
▁Aswataliraq	-10.6231
▁Beriya	-10.6231
▁Enqerê	-10.6231
▁Mînak	-10.6231
▁Sine	-10.6231
▁Thomas	-10.6231
▁atomê	-10.6231
▁avahiya	-10.6231
▁beyannameyekê	-10.6231
▁gera	-10.6231
▁mê	-10.6231
▁pêşhatên	-10.6231
▁vekir	-10.6231
▁wezaretê	-10.6231
▁zivistanê	-10.6231
▁Îtalyayê	-10.6231
▁çêdike	-10.6231
▁Şayes	-10.6231
▁120	-10.6278
▁Alan	-10.6278
▁Bizava	-10.6278
▁Etrûşî	-10.6278
▁PÊK	-10.6278
▁aniye	-10.6278
▁bî	-10.6278
▁dengî	-10.6278
▁komeke	-10.6278
▁nivîsîngeha	-10.6278
▁ramanên	-10.6278
▁wusa	-10.6278
▁zirav	-10.6278
▁1952	-10.6325
▁Aydin	-10.6325
▁Eskerî	-10.6325
▁Jînenîgarî	-10.6325
▁PETROLÊ	-10.6325
▁Partî	-10.6325
▁TI	-10.6325
▁berdewamîya	-10.6325
▁beşdariya	-10.6325
▁bîst	-10.6325
▁derketine	-10.6325
▁ewil	-10.6325
▁giravên	-10.6325
▁gunehbar	-10.6325
▁kîmyayî	-10.6325
▁pevçûnan	-10.6325
▁zîndanê	-10.6325
▁îroj	-10.6325
▁îslamî	-10.6325
▁Brîtanî	-10.6372
▁Demokrasîyê	-10.6372
▁Helbestvanên	-10.6372
▁Serdeşt	-10.6372
▁asayîşa	-10.6372
▁derva	-10.6372
▁mêran	-10.6372
▁parve	-10.6372
▁pile	-10.6372
▁sedem	-10.6372
▁xwendevanan	-10.6372
▁1927	-10.642
▁Berlin	-10.642
▁Germiyan	-10.642
▁Mêrdîn	-10.642
▁Parîs	-10.642
▁Yûsif	-10.642
▁atomîya	-10.642
▁carekê	-10.642
▁ed	-10.642
▁heb	-10.642
▁koka	-10.642
▁meh	-10.642
▁pêşkevtinên	-10.642
▁1934	-10.6467
▁Bakûr	-10.6467
▁DIJÎ	-10.6467
▁Komkara	-10.6467
▁Kurê	-10.6467
▁LEŞKERÊN	-10.6467
▁berfirehî	-10.6467
▁cur	-10.6467
▁deşta	-10.6467
▁gavê	-10.6467
▁girtîgehê	-10.6467
▁guftûgo	-10.6467
▁hêsanî	-10.6467
▁madeya	-10.6467
▁mezina	-10.6467
▁navkirin	-10.6467
▁pêşkevtî	-10.6467
▁qeyrana	-10.6467
▁roleke	-10.6467
▁zêdebûna	-10.6467
▁Çiyayên	-10.6467
▁Şandeya	-10.6467
▁Herêm	-10.6515
▁Re	-10.6515
▁Xebat	-10.6515
▁Zygophyllum	-10.6515
▁perwerdehiya	-10.6515
▁sibe	-10.6515
▁zehmet	-10.6515
▁zimên	-10.6515
▁Bila	-10.6564
▁Komkujiya	-10.6564
▁Meclîsa	-10.6564
▁Rêberên	-10.6564
▁amadekirina	-10.6564
▁bakura	-10.6564
▁desteser	-10.6564
▁giyanê	-10.6564
▁gotûbêj	-10.6564
▁mecbûr	-10.6564
▁nakokîyên	-10.6564
▁nirxandin	-10.6564
▁raya	-10.6564
▁tebaxê	-10.6564
▁wezîr	-10.6564
▁xalan	-10.6564
▁xaneya	-10.6564
▁xwendekarên	-10.6564
▁yekgirtî	-10.6564
▁çûyî	-10.6564
▁1940	-10.6612
▁Binêre	-10.6612
▁DEVERÊN	-10.6612
▁Erebistana	-10.6612
▁Hêza	-10.6612
▁Israyelê	-10.6612
▁Riha	-10.6612
▁Rêkan	-10.6612
▁SA	-10.6612
▁Sipî	-10.6612
▁Xelîfan	-10.6612
▁baran	-10.6612
▁daku	-10.6612
▁endamekî	-10.6612
▁gellek	-10.6612
▁gişt	-10.6612
▁navberê	-10.6612
▁opozisyona	-10.6612
▁qewimî	-10.6612
▁rêza	-10.6612
▁xwedîkirina	-10.6612
▁Evan	-10.6661
▁Herîrî	-10.6661
▁Xaneqîn	-10.6661
▁derman	-10.6661
▁serhildanê	-10.6661
▁zer	-10.6661
▁Îmaratê	-10.6661
▁çêdikin	-10.6661
▁êrişên	-10.6661
▁êş	-10.6661
▁("	-10.671
▁Ad	-10.671
▁Begê	-10.671
▁Diyarbekir	-10.671
▁Muqteda	-10.671
▁PARLIYAMENTÊ	-10.671
▁aştîya	-10.671
▁bigihêjin	-10.671
▁danê	-10.671
▁g	-10.671
▁kovarên	-10.671
▁pêşangeha	-10.671
▁reşemiyê	-10.671
▁serokatîyê	-10.671
▁şîretkarê	-10.671
▁Celadet	-10.6759
▁Duh	-10.6759
▁Murad	-10.6759
▁diket	-10.6759
▁hilawîstîyên	-10.6759
▁hêzan	-10.6759
▁kêşeyên	-10.6759
▁maddeyê	-10.6759
▁nemir	-10.6759
▁pere	-10.6759
▁pêngava	-10.6759
▁ragehand	-10.6759
▁rêbazên	-10.6759
▁serbazî	-10.6759
▁xwedê	-10.6759
▁Çarşembî	-10.6759
▁Çelebî	-10.6759
▁Îmam	-10.6759
▁Îsraîlî	-10.6759
▁Şêrko	-10.6759
▁1933	-10.6808
▁1936	-10.6808
▁Bakûrê	-10.6808
▁Ewropayî	-10.6808
▁Fuad	-10.6808
▁Kar	-10.6808
▁Mu	-10.6808
▁Newroz	-10.6808
▁PEYWENDÎYÊN	-10.6808
▁Quranê	-10.6808
▁Wêranşarê	-10.6808
▁danîna	-10.6808
▁dişîne	-10.6808
▁ezmona	-10.6808
▁goşt	-10.6808
▁kirîbû	-10.6808
▁mêrê	-10.6808
▁rastiyê	-10.6808
▁taxên	-10.6808
▁tirs	-10.6808
▁zanyarîyên	-10.6808
▁Şahmaran	-10.6808
▁EVÊ	-10.6858
▁Ebdurrehman	-10.6858
▁Erzînganê	-10.6858
▁June	-10.6858
▁Mexmûrê	-10.6858
▁Siteya	-10.6858
▁Windows	-10.6858
▁nirxand	-10.6858
▁rûn	-10.6858
▁yew	-10.6858
▁şêx	-10.6858
▁Atalay	-10.6908
▁Mehmed	-10.6908
▁Swedê	-10.6908
▁ajalan	-10.6908
▁dibûn	-10.6908
▁digere	-10.6908
▁girêdana	-10.6908
▁hêsan	-10.6908
▁komîteyek	-10.6908
▁pêşkêşkirina	-10.6908
▁pêşmergeyên	-10.6908
▁rojnamevanên	-10.6908
▁x	-10.6908
▁1923	-10.6958
▁1924	-10.6958
▁Ankara	-10.6958
▁Duşembî	-10.6958
▁KURDÎ	-10.6958
▁Madrid	-10.6958
▁dîn	-10.6958
▁from	-10.6958
▁huner	-10.6958
▁neyê	-10.6958
▁no	-10.6958
▁xêr	-10.6958
▁zûtirîn	-10.6958
▁îlona	-10.6958
▁1943	-10.7008
▁;–	-10.7008
▁Bê	-10.7008
▁Ebbas	-10.7008
▁Ermenî	-10.7008
▁bûdceya	-10.7008
▁derdor	-10.7008
▁digotin	-10.7008
▁eşîr	-10.7008
▁sazdana	-10.7008
▁standinan	-10.7008
▁xwepêşandana	-10.7008
▁Charles	-10.7059
▁Daxwaza	-10.7059
▁Midyadê	-10.7059
▁agirê	-10.7059
▁amadeyî	-10.7059
▁bernama	-10.7059
▁bigihêje	-10.7059
▁demî	-10.7059
▁diristkirin	-10.7059
▁fars	-10.7059
▁hundir	-10.7059
▁mamoste	-10.7059
▁nexweşî	-10.7059
▁quantum	-10.7059
▁rewşenbîr	-10.7059
▁sînorî	-10.7059
▁wextê	-10.7059
▁xweser	-10.7059
▁çavkaniyên	-10.7059
▁înê	-10.7059
▁şert	-10.7059
▁şoreşê	-10.7059
▁1932	-10.711
▁1951	-10.711
▁DIBE	-10.711
▁GEREK	-10.711
▁Koreyaya	-10.711
▁Necîb	-10.711
▁Nêrwe	-10.711
▁Paytext	-10.711
▁QANÛNA	-10.711
▁Sûrîyeyê	-10.711
▁danî	-10.711
▁guncayî	-10.711
▁nehên	-10.711
▁rêzên	-10.711
▁tawana	-10.711
▁Çanda	-10.711
▁çandiniyê	-10.711
▁%"	-10.7161
▁1919	-10.7161
▁1939	-10.7161
▁AMERÎKAYÎ	-10.7161
▁Almanî	-10.7161
▁HE	-10.7161
▁Jean	-10.7161
▁Los	-10.7161
▁Pakîstanê	-10.7161
▁SIYASÎ	-10.7161
▁Sosyalîst	-10.7161
▁Turkîya	-10.7161
▁Xesro	-10.7161
▁You	-10.7161
▁awarte	-10.7161
▁ewlehîyê	-10.7161
▁fîlmên	-10.7161
▁helbesta	-10.7161
▁hizre	-10.7161
▁misilmanan	-10.7161
▁nifûsa	-10.7161
▁pişkinînan	-10.7161
▁pêşkevtina	-10.7161
▁rawestandina	-10.7161
▁tije	-10.7161
▁yekalî	-10.7161
▁Çîrok	-10.7161
▁ŞANDEYA	-10.7161
▁DAXWAZKIRÎ	-10.7212
▁IRAQÎ	-10.7212
▁KCD	-10.7212
▁Sovyetan	-10.7212
▁berhemê	-10.7212
▁cihû	-10.7212
▁dinivîse	-10.7212
▁gelêrî	-10.7212
▁hinekê	-10.7212
▁kevir	-10.7212
▁navçeyeke	-10.7212
▁otomobîla	-10.7212
▁tîpa	-10.7212
▁zanistê	-10.7212
▁Love	-10.7264
▁REWŞA	-10.7264
▁Sunnî	-10.7264
▁avakirinê	-10.7264
▁bername	-10.7264
▁beşan	-10.7264
▁bizavê	-10.7264
▁cureyek	-10.7264
▁dadwerîyê	-10.7264
▁deryayî	-10.7264
▁hunermendê	-10.7264
▁lêkolîna	-10.7264
▁milyar	-10.7264
▁mêvan	-10.7264
▁nimûne	-10.7264
▁serokwezîr	-10.7264
▁çaxê	-10.7264
▁Festîvala	-10.7316
▁HUKÛMETÊ	-10.7316
▁KERKÛK	-10.7316
▁Serdema	-10.7316
▁gotinan	-10.7316
▁heke	-10.7316
▁investkarîyê	-10.7316
▁karanîna	-10.7316
▁kongireyek	-10.7316
▁leşkerîya	-10.7316
▁nirxên	-10.7316
▁rêka	-10.7316
▁wana	-10.7316
▁Şîretkarê	-10.7316
▁şerekî	-10.7316
▁FC	-10.7368
▁Heke	-10.7368
▁Husnî	-10.7368
▁Mem	-10.7368
▁Qesra	-10.7368
▁Xelat	-10.7368
▁axaftinên	-10.7368
▁azadîya	-10.7368
▁beyannameya	-10.7368
▁bîn	-10.7368
▁hevdîtina	-10.7368
▁lîst	-10.7368
▁nayên	-10.7368
▁nebûna	-10.7368
▁şunda	-10.7368
▁1922	-10.7421
▁1941	-10.7421
▁Crocidura	-10.7421
▁Hatine	-10.7421
▁Karê	-10.7421
▁Melediyê	-10.7421
▁Rays	-10.7421
▁amerîkan	-10.7421
▁bes	-10.7421
▁bilindên	-10.7421
▁budceyê	-10.7421
▁kur	-10.7421
▁nemaye	-10.7421
▁normal	-10.7421
▁xeta	-10.7421
▁»	-10.7421
▁Îdirê	-10.7421
▁Annan	-10.7473
▁Richard	-10.7473
▁baregehê	-10.7473
▁digerin	-10.7473
▁dij	-10.7473
▁lawê	-10.7473
▁liqa	-10.7473
▁osmaniyan	-10.7473
▁pispor	-10.7473
▁rêkevtinên	-10.7473
▁televîzyonê	-10.7473
▁tendiristîyê	-10.7473
▁îngilîz	-10.7473
▁Şemzînanê	-10.7473
▁Şivan	-10.7473
▁şahê	-10.7473
▁şarî	-10.7473
▁şaş	-10.7473
▁şerên	-10.7473
▁Dewletê	-10.7526
▁Hill	-10.7526
▁Hozan	-10.7526
▁Mark	-10.7526
▁NÊÇÎRVAN	-10.7526
▁Oderno	-10.7526
▁Turkman	-10.7526
▁aboriya	-10.7526
▁dixwest	-10.7526
▁giringîya	-10.7526
▁guherînên	-10.7526
▁hewlên	-10.7526
▁with	-10.7526
▁—	-10.7526
▁Bû	-10.758
▁Fîlozofên	-10.758
▁Hevserokê	-10.758
▁Navnetewî	-10.758
▁Necef	-10.758
▁Netewî	-10.758
▁Sîstanî	-10.758
▁hindik	-10.758
▁mela	-10.758
▁nenaskirî	-10.758
▁png	-10.758
▁warî	-10.758
▁Ê	-10.758
▁çarenivîsa	-10.758
▁çîrokan	-10.758
▁Japon	-10.7633
▁Navendî	-10.7633
▁Turkiyê	-10.7633
▁amûrên	-10.7633
▁daran	-10.7633
▁destkevtên	-10.7633
▁koda	-10.7633
▁nexwezt	-10.7633
▁nexweşxaneyê	-10.7633
▁raporta	-10.7633
▁werbigirin	-10.7633
▁xwar	-10.7633
▁xwarina	-10.7633
▁xwîn	-10.7633
▁Adiyemanê	-10.7687
▁Ferhad	-10.7687
▁Hekariyê	-10.7687
▁Herwekî	-10.7687
▁Taha	-10.7687
▁Tevî	-10.7687
▁belavbûna	-10.7687
▁bibû	-10.7687
▁emê	-10.7687
▁hertim	-10.7687
▁kandîd	-10.7687
▁nêr	-10.7687
▁pêşinyar	-10.7687
▁qebûlkirin	-10.7687
▁rêkxistina	-10.7687
▁tevgerên	-10.7687
▁topbarankirina	-10.7687
▁wateyê	-10.7687
▁çapameniyê	-10.7687
▁Navdarên	-10.7741
▁Parlamenterê	-10.7741
▁Stefan	-10.7741
▁We	-10.7741
▁bibêje	-10.7741
▁firotin	-10.7741
▁nexweşiyên	-10.7741
▁parlemanê	-10.7741
▁piştê	-10.7741
▁quşxaneyê	-10.7741
▁sîvîl	-10.7741
▁wîlayeta	-10.7741
▁Şêrwan	-10.7741
▁Baran	-10.7796
▁Emmar	-10.7796
▁Kawe	-10.7796
▁asmanî	-10.7796
▁bondên	-10.7796
▁forma	-10.7796
▁gaza	-10.7796
▁h	-10.7796
▁hata	-10.7796
▁hunerê	-10.7796
▁nerîn	-10.7796
▁sivik	-10.7796
▁îd	-10.7796
▁Şoreş	-10.7796
▁1908	-10.7851
▁1929	-10.7851
▁Bedlîsê	-10.7851
▁Dîmeşqê	-10.7851
▁ELÎ	-10.7851
▁Edîb	-10.7851
▁Elewî	-10.7851
▁Feqiyê	-10.7851
▁GIHIJT	-10.7851
▁Leşkerî	-10.7851
▁ZÊBARÎ	-10.7851
▁didomîne	-10.7851
▁gundiyan	-10.7851
▁gîyanê	-10.7851
▁hola	-10.7851
▁qedand	-10.7851
▁rastîn	-10.7851
▁xebitî	-10.7851
▁y	-10.7851
▁zanîna	-10.7851
▁şanoyê	-10.7851
▁California	-10.7906
▁Ey	-10.7906
▁Hunermend	-10.7906
▁Jixwe	-10.7906
▁Lady	-10.7906
▁Parliyamenta	-10.7906
▁bazara	-10.7906
▁gelo	-10.7906
▁hatibe	-10.7906
▁keyê	-10.7906
▁nehiştina	-10.7906
▁nivîsiye	-10.7906
▁rolê	-10.7906
▁rêbaza	-10.7906
▁saya	-10.7906
▁siyasetmedar	-10.7906
▁xala	-10.7906
▁xwezayê	-10.7906
▁zarokê	-10.7906
▁Şehîd	-10.7906
▁Hasan	-10.7961
▁Stockholm	-10.7961
▁Teyran	-10.7961
▁bûrî	-10.7961
▁didan	-10.7961
▁dînî	-10.7961
▁ewropî	-10.7961
▁gotarekê	-10.7961
▁koça	-10.7961
▁mirovê	-10.7961
▁plan	-10.7961
▁rojnamevanîya	-10.7961
▁xistiye	-10.7961
▁Şahîn	-10.7961
▁Afrîkaya	-10.8017
▁CELAL	-10.8017
▁Pirranî	-10.8017
▁SN	-10.8017
▁Tehran	-10.8017
▁Yorkê	-10.8017
▁Zerdeşt	-10.8017
▁bigrin	-10.8017
▁bisekinê	-10.8017
▁darên	-10.8017
▁derbasê	-10.8017
▁hevwelatîyek	-10.8017
▁komela	-10.8017
▁parlemana	-10.8017
▁rûviya	-10.8017
▁stranbêj	-10.8017
▁veguhastina	-10.8017
▁1944	-10.8073
▁1ê	-10.8073
▁Alîyê	-10.8073
▁Barzan	-10.8073
▁Bexdad	-10.8073
▁Dad	-10.8073
▁EYAD	-10.8073
▁Fîlm	-10.8073
▁Jêrîn	-10.8073
▁Polîsên	-10.8073
▁Seddam	-10.8073
▁ankû	-10.8073
▁berbiçav	-10.8073
▁bersiv	-10.8073
▁cins	-10.8073
▁helwêsta	-10.8073
▁hêzê	-10.8073
▁ketina	-10.8073
▁kovarê	-10.8073
▁milê	-10.8073
▁nebaş	-10.8073
▁nebûne	-10.8073
▁paşxistina	-10.8073
▁polîtîk	-10.8073
▁rêkevtinekê	-10.8073
▁rêkevtinnameya	-10.8073
▁siyasetê	-10.8073
▁́.	-10.8073
▁ElşerqElewset	-10.8129
▁Japanê	-10.8129
▁Mehma	-10.8129
▁Misilman	-10.8129
▁Peyva	-10.8129
▁Tengava	-10.8129
▁cihanê	-10.8129
▁cîhan	-10.8129
▁dewleteke	-10.8129
▁dibistanên	-10.8129
▁veşartin	-10.8129
▁werdigire	-10.8129
▁zewicî	-10.8129
▁çalakiya	-10.8129
▁şehîdên	-10.8129
▁BZ	-10.8186
▁Biyolojî	-10.8186
▁Elmanya	-10.8186
▁Prof	-10.8186
▁Pêşmerge	-10.8186
▁Syn	-10.8186
▁Xala	-10.8186
▁azadiyê	-10.8186
▁belavkirina	-10.8186
▁dişibe	-10.8186
▁dîtine	-10.8186
▁gelan	-10.8186
▁gola	-10.8186
▁mîrê	-10.8186
▁naskirî	-10.8186
▁nêvdewletî	-10.8186
▁parlamenterên	-10.8186
▁penaberan	-10.8186
▁pirtûkan	-10.8186
▁xola	-10.8186
▁Çîroka	-10.8186
▁Şerîf	-10.8186
▁72	-10.8243
▁Cegerxwîn	-10.8243
▁Endamekî	-10.8243
▁Hewîce	-10.8243
▁Qayde	-10.8243
▁Talîban	-10.8243
▁bexşa	-10.8243
▁binêre	-10.8243
▁bizanin	-10.8243
▁bîyanî	-10.8243
▁derdixe	-10.8243
▁dorpêç	-10.8243
▁erdhejê	-10.8243
▁hişt	-10.8243
▁olê	-10.8243
▁rageyand	-10.8243
▁riwekên	-10.8243
▁tuneye	-10.8243
▁xweşî	-10.8243
▁zaravayên	-10.8243
▁Çi	-10.8243
▁Çiya	-10.8243
▁îlonê	-10.8243
▁Cehzeran	-10.83
▁Kawa	-10.83
▁Kişanak	-10.83
▁NIŞTIMANÎ	-10.83
▁Qeter	-10.83
▁Reza	-10.83
▁Simko	-10.83
▁bendên	-10.83
▁derî	-10.83
▁ewqas	-10.83
▁fêr	-10.83
▁gengeşekirina	-10.83
▁pêşve	-10.83
▁Biçûk	-10.8358
▁Caf	-10.8358
▁Herî	-10.8358
▁Navbera	-10.8358
▁Pakistan	-10.8358
▁St	-10.8358
▁alikariya	-10.8358
▁aqil	-10.8358
▁bişînin	-10.8358
▁dawîn	-10.8358
▁gerdûnê	-10.8358
▁gulan	-10.8358
▁hejmartin	-10.8358
▁key	-10.8358
▁komkujiya	-10.8358
▁nivîsand	-10.8358
▁nîvro	-10.8358
▁paqij	-10.8358
▁terorizmê	-10.8358
▁xilas	-10.8358
▁çêkir	-10.8358
▁ûdîye	-10.8358
▁Şingal	-10.8358
▁Albûm	-10.8416
▁Baybûrd	-10.8416
▁Bizavkarên	-10.8416
▁Qanûna	-10.8416
▁Sedir	-10.8416
▁azerî	-10.8416
▁bereya	-10.8416
▁berxwedana	-10.8416
▁ciwanên	-10.8416
▁daxuyanîya	-10.8416
▁ewledarî	-10.8416
▁heywanan	-10.8416
▁leşkerekî	-10.8416
▁nehat	-10.8416
▁pêşinyara	-10.8416
▁rind	-10.8416
▁Şemo	-10.8416
▁Şotê	-10.8416
▁şaristan	-10.8416
▁0px	-10.8474
▁1917	-10.8474
▁Almaniyayî	-10.8474
▁Das	-10.8474
▁Dîwana	-10.8474
▁MEZIN	-10.8474
▁Mêzgirê	-10.8474
▁Netewên	-10.8474
▁Parêzgarê	-10.8474
▁Romayê	-10.8474
▁Seyid	-10.8474
▁Stewrê	-10.8474
▁Uzun	-10.8474
▁Zarokên	-10.8474
▁beyannameyê	-10.8474
▁cudayên	-10.8474
▁dinirxîne	-10.8474
▁endaman	-10.8474
▁kevtin	-10.8474
▁keç	-10.8474
▁mayî	-10.8474
▁merc	-10.8474
▁nîsana	-10.8474
▁para	-10.8474
▁peymanê	-10.8474
▁se	-10.8474
▁sîyaseta	-10.8474
▁xistine	-10.8474
▁şîr	-10.8474
▁şûnde	-10.8474
▁DYE	-10.8533
▁Elkê	-10.8533
▁Fadil	-10.8533
▁OBAMA	-10.8533
▁baregeha	-10.8533
▁bit	-10.8533
▁corê	-10.8533
▁desthilatdar	-10.8533
▁geşkirina	-10.8533
▁goman	-10.8533
▁kese	-10.8533
▁kifş	-10.8533
▁kirmanckî	-10.8533
▁nehêlin	-10.8533
▁nexweşîya	-10.8533
▁rexneyên	-10.8533
▁sebaret	-10.8533
▁taxê	-10.8533
▁têkeliyên	-10.8533
▁têt	-10.8533
▁xanî	-10.8533
▁Lêbelê	-10.8592
▁Lîceyê	-10.8592
▁Medya	-10.8592
▁Na	-10.8592
▁Pêxember	-10.8592
▁Sibat	-10.8592
▁Xebatên	-10.8592
▁bihorî	-10.8592
▁cihan	-10.8592
▁derbasbûna	-10.8592
▁derfet	-10.8592
▁dosyayên	-10.8592
▁giyanî	-10.8592
▁hatiya	-10.8592
▁hevdîtin	-10.8592
▁kevtine	-10.8592
▁kg	-10.8592
▁otomobîleka	-10.8592
▁pêşwazîkirin	-10.8592
▁îmza	-10.8592
▁şano	-10.8592
▁American	-10.8651
▁Celîl	-10.8651
▁EW	-10.8651
▁Eliyê	-10.8651
▁Jiber	-10.8651
▁Memê	-10.8651
▁Radyoya	-10.8651
▁agahdarî	-10.8651
▁asteng	-10.8651
▁balê	-10.8651
▁buye	-10.8651
▁derfetên	-10.8651
▁gengeşekirin	-10.8651
▁herêmeke	-10.8651
▁k	-10.8651
▁koçber	-10.8651
▁nerm	-10.8651
▁termên	-10.8651
▁tirsa	-10.8651
▁weşand	-10.8651
▁Înê	-10.8651
▁îmze	-10.8651
▁şirove	-10.8651
▁1942	-10.8711
▁Beşîr	-10.8711
▁Dawî	-10.8711
▁Dîn	-10.8711
▁ENDAMÊN	-10.8711
▁Ebdulqadir	-10.8711
▁Musa	-10.8711
▁POSTA	-10.8711
▁Papa	-10.8711
▁Pişt	-10.8711
▁Sedam	-10.8711
▁Sindî	-10.8711
▁Time	-10.8711
▁jorîn	-10.8711
▁kevneşopî	-10.8711
▁lêpirsînê	-10.8711
▁navbêra	-10.8711
▁pêşveçûnên	-10.8711
▁radyoya	-10.8711
▁rakirina	-10.8711
▁ronahî	-10.8711
▁rêk	-10.8711
▁serhildan	-10.8711
▁têr	-10.8711
▁xal	-10.8711
▁Da	-10.8771
▁Digel	-10.8771
▁Emîr	-10.8771
▁Fizîkê	-10.8771
▁Fransayî	-10.8771
▁Jêderên	-10.8771
▁Konseya	-10.8771
▁Mihemedê	-10.8771
▁Pira	-10.8771
▁civak	-10.8771
▁demkî	-10.8771
▁dibistanan	-10.8771
▁diparêze	-10.8771
▁gefên	-10.8771
▁hevkar	-10.8771
▁hilweşandin	-10.8771
▁kolanan	-10.8771
▁malperên	-10.8771
▁pêşniyar	-10.8771
▁rasterast	-10.8771
▁samanên	-10.8771
▁tebaxa	-10.8771
▁tevayî	-10.8771
▁zêdeyî	-10.8771
▁)===	-10.8831
▁Jorîn	-10.8831
▁Kerbela	-10.8831
▁Kuridstanê	-10.8831
▁Melkert	-10.8831
▁Riya	-10.8831
▁Serdar	-10.8831
▁binemala	-10.8831
▁guhertina	-10.8831
▁jimara	-10.8831
▁nameyê	-10.8831
▁nivîs	-10.8831
▁qurbanîyan	-10.8831
▁serdest	-10.8831
▁taybetmendiyên	-10.8831
▁Îslamîya	-10.8831
▁çareserîya	-10.8831
▁BIN	-10.8892
▁CIHGIRÊ	-10.8892
▁HILBIJARTINÊN	-10.8892
▁Heft	-10.8892
▁Kaniyê	-10.8892
▁Kombûna	-10.8892
▁Mizgefta	-10.8892
▁Te	-10.8892
▁Turkî	-10.8892
▁Weznê	-10.8892
▁alîkarê	-10.8892
▁amp	-10.8892
▁armancê	-10.8892
▁berjewendiyên	-10.8892
▁bicîh	-10.8892
▁bijîn	-10.8892
▁bombên	-10.8892
▁f	-10.8892
▁festîvala	-10.8892
▁jiyaye	-10.8892
▁jîyanê	-10.8892
▁kandîdên	-10.8892
▁mijar	-10.8892
▁otomobîlên	-10.8892
▁pelên	-10.8892
▁1935	-10.8953
▁Atatürk	-10.8953
▁Bingeha	-10.8953
▁Biratîya	-10.8953
▁Don	-10.8953
▁Google	-10.8953
▁Harry	-10.8953
▁Helbestvan	-10.8953
▁Hz	-10.8953
▁Mîranî	-10.8953
▁WEZÎRÊN	-10.8953
▁başûrî	-10.8953
▁bikartînin	-10.8953
▁dervey	-10.8953
▁dixwazim	-10.8953
▁frac	-10.8953
▁hevalê	-10.8953
▁ul	-10.8953
▁xweya	-10.8953
▁ziyanê	-10.8953
▁10px	-10.9015
▁Cizîra	-10.9015
▁Hemîd	-10.9015
▁Hesenê	-10.9015
▁KCK	-10.9015
▁March	-10.9015
▁Mon	-10.9015
▁Usama	-10.9015
▁Usame	-10.9015
▁Wêje	-10.9015
▁abûrî	-10.9015
▁bêjin	-10.9015
▁deman	-10.9015
▁dûv	-10.9015
▁felsefeyê	-10.9015
▁hildan	-10.9015
▁kire	-10.9015
▁kujtî	-10.9015
▁meşandin	-10.9015
▁pêşketin	-10.9015
▁pîvana	-10.9015
▁rewşenbîrên	-10.9015
▁zanînê	-10.9015
▁çêbûye	-10.9015
▁1921	-10.9077
▁Berdevkê	-10.9077
▁ELLAWÎ	-10.9077
▁Gorran	-10.9077
▁Gulanê	-10.9077
▁Koda	-10.9077
▁Leşkerên	-10.9077
▁dam	-10.9077
▁lawaz	-10.9077
▁operasyonekî	-10.9077
▁teqandin	-10.9077
▁tora	-10.9077
▁2020	-10.9139
▁Beyatî	-10.9139
▁Dolar	-10.9139
▁Ebdulrehman	-10.9139
▁My	-10.9139
▁Nîsan	-10.9139
▁PÊKANÎNA	-10.9139
▁biken	-10.9139
▁ccTLD	-10.9139
▁ddffdd	-10.9139
▁destpêkir	-10.9139
▁dibistan	-10.9139
▁dilgiran	-10.9139
▁ermeniyan	-10.9139
▁giringên	-10.9139
▁girîngî	-10.9139
▁guherîn	-10.9139
▁mirovahiyê	-10.9139
▁modern	-10.9139
▁navperê	-10.9139
▁nerazî	-10.9139
▁paşeroja	-10.9139
▁pêzanînan	-10.9139
▁1914	-10.9202
▁HEMÛ	-10.9202
▁Japonê	-10.9202
▁Mekeyê	-10.9202
▁NI	-10.9202
▁Xelef	-10.9202
▁bêhempa	-10.9202
▁canê	-10.9202
▁dersên	-10.9202
▁dixwin	-10.9202
▁efserên	-10.9202
▁egerên	-10.9202
▁ffffff	-10.9202
▁guherîna	-10.9202
▁hokarê	-10.9202
▁lêborînê	-10.9202
▁metre	-10.9202
▁pêşketinên	-10.9202
▁referandumê	-10.9202
▁romanên	-10.9202
▁serhejmarîyê	-10.9202
▁sernavê	-10.9202
▁sibatê	-10.9202
▁taybetîya	-10.9202
▁teqînek	-10.9202
▁vegotin	-10.9202
▁Çapa	-10.9202
▁înglîzî	-10.9202
▁AMADE	-10.9265
▁April	-10.9265
▁Berlînê	-10.9265
▁Berpirsên	-10.9265
▁Esîl	-10.9265
▁Mirovên	-10.9265
▁Rojnameyên	-10.9265
▁Ronahî	-10.9265
▁Sovyet	-10.9265
▁Tirkîyeyê	-10.9265
▁Tv	-10.9265
▁albûm	-10.9265
▁avahîya	-10.9265
▁binpêkirina	-10.9265
▁cihekê	-10.9265
▁dever	-10.9265
▁digihîje	-10.9265
▁dixwîne	-10.9265
▁famîleyê	-10.9265
▁gir	-10.9265
▁nedin	-10.9265
▁sedê	-10.9265
▁serekîyên	-10.9265
▁îranê	-10.9265
▁1912	-10.9328
▁85	-10.9328
▁Aslan	-10.9328
▁DEWLETA	-10.9328
▁Ebdulezîz	-10.9328
▁Ermeniyan	-10.9328
▁HEGER	-10.9328
▁Hêvî	-10.9328
▁Joseph	-10.9328
▁Mensûr	-10.9328
▁Nifûsa	-10.9328
▁bandorê	-10.9328
▁del	-10.9328
▁deriyê	-10.9328
▁gol	-10.9328
▁hoşdarî	-10.9328
▁navxweyîyên	-10.9328
▁nûneratîya	-10.9328
▁ragiahnd	-10.9328
▁ramana	-10.9328
▁ronî	-10.9328
▁rêkê	-10.9328
▁teng	-10.9328
▁Çinara	-10.9328
▁Gundekî	-10.9392
▁Huseynî	-10.9392
▁Urdun	-10.9392
▁alaya	-10.9392
▁dixebitin	-10.9392
▁gihijtine	-10.9392
▁helbestê	-10.9392
▁hiştin	-10.9392
▁kird	-10.9392
▁navdarê	-10.9392
▁rojhelat	-10.9392
▁serekîya	-10.9392
▁îslamîya	-10.9392
▁Baba	-10.9456
▁Berdewam	-10.9456
▁Cewad	-10.9456
▁Kurdish	-10.9456
▁Latînî	-10.9456
▁Lavrov	-10.9456
▁Ma	-10.9456
▁Mehmûdê	-10.9456
▁Melayê	-10.9456
▁Qendîl	-10.9456
▁Qersê	-10.9456
▁Rewşen	-10.9456
▁RÊKEVTINA	-10.9456
▁Rûber	-10.9456
▁Siltan	-10.9456
▁Xelatên	-10.9456
▁ajansên	-10.9456
▁akincî	-10.9456
▁amaje	-10.9456
▁bikelînin	-10.9456
▁bêdeng	-10.9456
▁cinsê	-10.9456
▁digrin	-10.9456
▁dina	-10.9456
▁hejmarên	-10.9456
▁herçar	-10.9456
▁hevkarîyê	-10.9456
▁naskirina	-10.9456
▁paraztin	-10.9456
▁polîsî	-10.9456
▁refên	-10.9456
▁serhejmarîya	-10.9456
▁serhildanên	-10.9456
▁têkçûna	-10.9456
▁veşandî	-10.9456
▁xwendevan	-10.9456
▁çalakî	-10.9456
▁çavê	-10.9456
▁şûn	-10.9456
▁BEHSA	-10.9521
▁Deng	-10.9521
▁Geliyê	-10.9521
▁Han	-10.9521
▁Henry	-10.9521
▁Hindistan	-10.9521
▁Jinan	-10.9521
▁Jor	-10.9521
▁Kerem	-10.9521
▁Nisêbîn	-10.9521
▁Reftar	-10.9521
▁Saxifraga	-10.9521
▁Semsûrê	-10.9521
▁binpê	-10.9521
▁ciwanan	-10.9521
▁darayîyê	-10.9521
▁daxuyaniyek	-10.9521
▁dorê	-10.9521
▁grûpên	-10.9521
▁id	-10.9521
▁kevçiyê	-10.9521
▁madeyên	-10.9521
▁mijûl	-10.9521
▁paşerojê	-10.9521
▁pisporên	-10.9521
▁qedexekirina	-10.9521
▁radigihînin	-10.9521
▁rastîyê	-10.9521
▁rijd	-10.9521
▁serdemê	-10.9521
▁temen	-10.9521
▁termê	-10.9521
▁wekhev	-10.9521
▁çarem	-10.9521
▁çiyayî	-10.9521
▁Agahî	-10.9586
▁Culemêrgê	-10.9586
▁Dêrsim	-10.9586
▁Elawî	-10.9586
▁Rizgar	-10.9586
▁WEZÎRAN	-10.9586
▁alîkarîyên	-10.9586
▁bixwînin	-10.9586
▁bêt	-10.9586
▁bêî	-10.9586
▁daneyên	-10.9586
▁daxuyanîyan	-10.9586
▁demokrat	-10.9586
▁deran	-10.9586
▁hemberê	-10.9586
▁hevjîna	-10.9586
▁hevpeymanîyê	-10.9586
▁hind	-10.9586
▁konferansa	-10.9586
▁milên	-10.9586
▁nêzikî	-10.9586
▁opozîsyonê	-10.9586
▁rastiya	-10.9586
▁wergera	-10.9586
▁xwedîyê	-10.9586
▁zûtir	-10.9586
▁Î	-10.9586
▁63	-10.9652
▁An	-10.9652
▁Bextyar	-10.9652
▁Cotmeh	-10.9652
▁Dîlok	-10.9652
▁Lubnanê	-10.9652
▁Nifûs	-10.9652
▁Xelkê	-10.9652
▁azadîyê	-10.9652
▁berevanîya	-10.9652
▁diherike	-10.9652
▁erk	-10.9652
▁kurtenavê	-10.9652
▁nizanin	-10.9652
▁projeyî	-10.9652
▁pîkol	-10.9652
▁serkeftina	-10.9652
▁viya	-10.9652
▁Çêkirin	-10.9652
▁Şeva	-10.9652
▁Akademiya	-10.9718
▁Azerbaycan	-10.9718
▁Berfanbar	-10.9718
▁Erziromê	-10.9718
▁Heleb	-10.9718
▁Hevdem	-10.9718
▁LE	-10.9718
▁bazarên	-10.9718
▁derûnî	-10.9718
▁destnîşankirî	-10.9718
▁giraniya	-10.9718
▁havînê	-10.9718
▁hilweşandina	-10.9718
▁polîsek	-10.9718
▁pêşbînî	-10.9718
▁wefat	-10.9718
▁yeka	-10.9718
▁çem	-10.9718
▁şêniyên	-10.9718
▁EWLEDARÎYÊ	-10.9784
▁IN	-10.9784
▁Seîdê	-10.9784
▁Wêjeyê	-10.9784
▁azadkirina	-10.9784
▁demokrasiyê	-10.9784
▁il	-10.9784
▁jîn	-10.9784
▁milletê	-10.9784
▁nameyek	-10.9784
▁ron	-10.9784
▁Êzdî	-10.9784
▁Biryara	-10.9851
▁Dihok	-10.9851
▁Ford	-10.9851
▁Kristofer	-10.9851
▁Mezra	-10.9851
▁National	-10.9851
▁No	-10.9851
▁Paris	-10.9851
▁ROJA	-10.9851
▁berpirsyar	-10.9851
▁bibêjin	-10.9851
▁bilindtir	-10.9851
▁cil	-10.9851
▁jimareke	-10.9851
▁name	-10.9851
▁operasyonê	-10.9851
▁weşanxaneya	-10.9851
▁xwenîşanderan	-10.9851
▁Îtalî	-10.9851
▁çalakvanên	-10.9851
▁1913	-10.9919
▁Caesar	-10.9919
▁Dibêjin	-10.9919
▁Farisî	-10.9919
▁Firatê	-10.9919
▁Frank	-10.9919
▁Haşim	-10.9919
▁SE	-10.9919
▁Xwê	-10.9919
▁alozî	-10.9919
▁bermîlên	-10.9919
▁bibûn	-10.9919
▁binçavkirin	-10.9919
▁biwarî	-10.9919
▁bixwazin	-10.9919
▁dabeş	-10.9919
▁filmê	-10.9919
▁misoger	-10.9919
▁peqîna	-10.9919
▁pêwîstî	-10.9919
▁siyasetmedarê	-10.9919
▁standina	-10.9919
▁zana	-10.9919
▁zanyarî	-10.9919
▁zindanê	-10.9919
▁Îmad	-10.9919
▁Şingala	-10.9919
▁1900	-10.9986
▁62	-10.9986
▁BILINDA	-10.9986
▁Do	-10.9986
▁Eliraqîye	-10.9986
▁KX	-10.9986
▁Kim	-10.9986
▁Kurda	-10.9986
▁MADDEYA	-10.9986
▁Pirsa	-10.9986
▁PÊ	-10.9986
▁Stembol	-10.9986
▁aliya	-10.9986
▁başî	-10.9986
▁bei	-10.9986
▁bombebaran	-10.9986
▁derbikeve	-10.9986
▁hevpeymanan	-10.9986
▁kevnare	-10.9986
▁lo	-10.9986
▁malperê	-10.9986
▁paraztî	-10.9986
▁partîyan	-10.9986
▁pêşberî	-10.9986
▁qezenc	-10.9986
▁qurbanê	-10.9986
▁ragihandine	-10.9986
▁rengên	-10.9986
▁stûyê	-10.9986
▁teoriya	-10.9986
▁xebitiye	-10.9986
▁xort	-10.9986
▁}{	-10.9986
▁çare	-10.9986
▁êrişî	-10.9986
▁şaxên	-10.9986
▁(;	-11.0055
▁1903	-11.0055
▁Bazîdê	-11.0055
▁Haco	-11.0055
▁Kanala	-11.0055
▁Kürt	-11.0055
▁Medyaya	-11.0055
▁Meydana	-11.0055
▁Mikayel	-11.0055
▁Sefîn	-11.0055
▁WELATÊN	-11.0055
▁awareyan	-11.0055
▁aşkera	-11.0055
▁baregehên	-11.0055
▁berhev	-11.0055
▁deryaya	-11.0055
▁diçê	-11.0055
▁gotarên	-11.0055
▁guman	-11.0055
▁hevdîtinan	-11.0055
▁ibn	-11.0055
▁lînka	-11.0055
▁masî	-11.0055
▁mezine	-11.0055
▁nûnerîya	-11.0055
▁resen	-11.0055
▁rêvebirên	-11.0055
▁stranan	-11.0055
▁vedike	-11.0055
▁wesif	-11.0055
▁xwarineke	-11.0055
▁xwepêşander	-11.0055
▁çareseriya	-11.0055
▁1915	-11.0123
▁Berpirsekî	-11.0123
▁Dengbêj	-11.0123
▁Dilovan	-11.0123
▁Lîste	-11.0123
▁Muttekî	-11.0123
▁NIHA	-11.0123
▁Sadiq	-11.0123
▁Sedema	-11.0123
▁Sovyetê	-11.0123
▁U	-11.0123
▁bandoreke	-11.0123
▁bazarê	-11.0123
▁darizandin	-11.0123
▁derdorê	-11.0123
▁duyema	-11.0123
▁gelheya	-11.0123
▁komar	-11.0123
▁komeleyê	-11.0123
▁nahên	-11.0123
▁nê	-11.0123
▁rêve	-11.0123
▁têkilî	-11.0123
▁zanist	-11.0123
▁çêbûn	-11.0123
▁BRÎTANIYA	-11.0193
▁Dewlet	-11.0193
▁Lee	-11.0193
▁Linux	-11.0193
▁Putin	-11.0193
▁Weqfa	-11.0193
▁ayinde	-11.0193
▁biket	-11.0193
▁dikişîne	-11.0193
▁dixwe	-11.0193
▁encumena	-11.0193
▁ffdead	-11.0193
▁für	-11.0193
▁gavên	-11.0193
▁girtîyên	-11.0193
▁haya	-11.0193
▁hestên	-11.0193
▁hokarên	-11.0193
▁nivîsa	-11.0193
▁operasiyona	-11.0193
▁pîr	-11.0193
▁zêdekirin	-11.0193
▁Îzmîrê	-11.0193
▁;&	-11.0262
▁AD	-11.0262
▁Berdereşê	-11.0262
▁Biryare	-11.0262
▁Helbestên	-11.0262
▁Hemko	-11.0262
▁IV	-11.0262
▁Medan	-11.0262
▁Paytexta	-11.0262
▁Paytextên	-11.0262
▁Stranên	-11.0262
▁Swîsre	-11.0262
▁Sîna	-11.0262
▁bandorek	-11.0262
▁bikê	-11.0262
▁dimilî	-11.0262
▁giringî	-11.0262
▁gotinêye	-11.0262
▁guhdarî	-11.0262
▁medyaya	-11.0262
▁piştgîrîya	-11.0262
▁rowspan	-11.0262
▁rêveberê	-11.0262
▁sibehî	-11.0262
▁tijî	-11.0262
▁vedîtina	-11.0262
▁wateyên	-11.0262
▁xwedayê	-11.0262
▁Şêxanê	-11.0262
▁1905	-11.0332
▁64	-11.0332
▁Ebdulla	-11.0332
▁Engl	-11.0332
▁HAŞIMÎ	-11.0332
▁Kellaterzan	-11.0332
▁Newzad	-11.0332
▁Sultan	-11.0332
▁Taliban	-11.0332
▁agahîyan	-11.0332
▁berdewame	-11.0332
▁bigihîne	-11.0332
▁bihête	-11.0332
▁bêy	-11.0332
▁bûm	-11.0332
▁cûr	-11.0332
▁dinya	-11.0332
▁dom	-11.0332
▁dîplomatîk	-11.0332
▁hikumeta	-11.0332
▁jimareka	-11.0332
▁neteweya	-11.0332
▁nexwest	-11.0332
▁nêrîna	-11.0332
▁operasiyonên	-11.0332
▁pêşwaziya	-11.0332
▁rewşên	-11.0332
▁seroka	-11.0332
▁sî	-11.0332
▁wêje	-11.0332
▁çîna	-11.0332
▁şaşî	-11.0332
▁şekir	-11.0332
▁''	-11.0403
▁Ber	-11.0403
▁Cinsê	-11.0403
▁Erxeniyê	-11.0403
▁GOMANBAR	-11.0403
▁Real	-11.0403
▁aaa	-11.0403
▁aktîv	-11.0403
▁belge	-11.0403
▁dihîne	-11.0403
▁eşîreke	-11.0403
▁firokeyên	-11.0403
▁fêrî	-11.0403
▁hevpeyvînê	-11.0403
▁hole	-11.0403
▁hêjmara	-11.0403
▁kandîdkirina	-11.0403
▁kevirên	-11.0403
▁lewma	-11.0403
▁navendîya	-11.0403
▁pîvaz	-11.0403
▁rolek	-11.0403
▁serkevtin	-11.0403
▁Şikak	-11.0403
▁şanda	-11.0403
▁2006an	-11.0474
▁Dêrikê	-11.0474
▁Eşîra	-11.0474
▁Girava	-11.0474
▁Gundî	-11.0474
▁PYD	-11.0474
▁Quran	-11.0474
▁Selah	-11.0474
▁Semsûr	-11.0474
▁Serhedê	-11.0474
▁Welîd	-11.0474
▁alîyek	-11.0474
▁arêşeyan	-11.0474
▁awayek	-11.0474
▁birîndarên	-11.0474
▁carna	-11.0474
▁dadê	-11.0474
▁dihête	-11.0474
▁dilgiranîya	-11.0474
▁dûrxistin	-11.0474
▁fîlma	-11.0474
▁hertimî	-11.0474
▁hêzeke	-11.0474
▁meydana	-11.0474
▁nanê	-11.0474
▁opozisiyonê	-11.0474
▁sebebê	-11.0474
▁serxwebûnê	-11.0474
▁stûr	-11.0474
▁tawanan	-11.0474
▁v	-11.0474
▁weku	-11.0474
▁xwendekar	-11.0474
▁88	-11.0546
▁Betula	-11.0546
▁GUFT	-11.0546
▁Gotinên	-11.0546
▁Hisên	-11.0546
▁KURDAN	-11.0546
▁Pêncşembî	-11.0546
▁],	-11.0546
▁aşitiyê	-11.0546
▁behs	-11.0546
▁bernameyê	-11.0546
▁berpirsekî	-11.0546
▁corên	-11.0546
▁daxuyaniyê	-11.0546
▁dengdana	-11.0546
▁hêrîşên	-11.0546
▁kompanya	-11.0546
▁kurdiya	-11.0546
▁malana	-11.0546
▁nivîsandinê	-11.0546
▁nivîsandiye	-11.0546
▁pirtûkek	-11.0546
▁pêşvebirina	-11.0546
▁qonaxên	-11.0546
▁rêzefîlm	-11.0546
▁têda	-11.0546
▁wikipedia	-11.0546
▁1910	-11.0618
▁91	-11.0618
▁Band	-11.0618
▁Dilşad	-11.0618
▁Eta	-11.0618
▁Gotina	-11.0618
▁Kujtin	-11.0618
▁QANÛNÊ	-11.0618
▁Soranî	-11.0618
▁belku	-11.0618
▁buhayê	-11.0618
▁diplomatîk	-11.0618
▁gihijtin	-11.0618
▁herin	-11.0618
▁hukûmî	-11.0618
▁kêleka	-11.0618
▁mîr	-11.0618
▁peywendîyeka	-11.0618
▁piştevanên	-11.0618
▁raman	-11.0618
▁saziya	-11.0618
▁seke	-11.0618
▁serwerî	-11.0618
▁standinê	-11.0618
▁thumb	-11.0618
▁xeter	-11.0618
▁zêdetirî	-11.0618
▁Şembî	-11.0618
▁şah	-11.0618
▁350	-11.0691
▁Balindeyên	-11.0691
▁DÎYALA	-11.0691
▁Ewrûpa	-11.0691
▁Frankfurt	-11.0691
▁GENGEŞE	-11.0691
▁King	-11.0691
▁PÊŞMERGE	-11.0691
▁Riwek	-11.0691
▁Yilmaz	-11.0691
▁[]	-11.0691
▁alîkarîyan	-11.0691
▁belgeyên	-11.0691
▁derbaza	-11.0691
▁desthilatdarên	-11.0691
▁ewlekarî	-11.0691
▁hûrik	-11.0691
▁koç	-11.0691
▁lîstikvan	-11.0691
▁niştecihên	-11.0691
▁serkirdatîya	-11.0691
▁vekişandina	-11.0691
▁wilo	-11.0691
▁wizeya	-11.0691
▁xwedanê	-11.0691
▁.-	-11.0764
▁77	-11.0764
▁BEŞDARÎYÊ	-11.0764
▁Kelar	-11.0764
▁NAVA	-11.0764
▁Perwer	-11.0764
▁TRT	-11.0764
▁UNESCO	-11.0764
▁alavên	-11.0764
▁bombbaran	-11.0764
▁daxuyannameyekê	-11.0764
▁digihîne	-11.0764
▁herê	-11.0764
▁hevdîtinên	-11.0764
▁jîyane	-11.0764
▁kod	-11.0764
▁lîstan	-11.0764
▁nehatîye	-11.0764
▁operasyonan	-11.0764
▁projeyan	-11.0764
▁psîkolojîk	-11.0764
▁serdaneka	-11.0764
▁televizyona	-11.0764
▁wergêr	-11.0764
▁Êrîşa	-11.0764
▁Şot	-11.0764
▁ALÎYÊN	-11.0838
▁Cejna	-11.0838
▁Deniz	-11.0838
▁Dievê	-11.0838
▁Gimgim	-11.0838
▁HETA	-11.0838
▁KOMARA	-11.0838
▁Mesîh	-11.0838
▁Muhammed	-11.0838
▁Nivîskarê	-11.0838
▁Wergera	-11.0838
▁agirbestê	-11.0838
▁ajalên	-11.0838
▁amadeye	-11.0838
▁civatê	-11.0838
▁corane	-11.0838
▁daynin	-11.0838
▁desthilatdarîyê	-11.0838
▁gelhe	-11.0838
▁maddî	-11.0838
▁malper	-11.0838
▁mijaran	-11.0838
▁nede	-11.0838
▁pêkhateyên	-11.0838
▁pêşangehê	-11.0838
▁rojnamevanîyê	-11.0838
▁xelatên	-11.0838
▁xurek	-11.0838
▁xwezaya	-11.0838
▁êrişa	-11.0838
▁Bandora	-11.0912
▁Daryûs	-11.0912
▁Dide	-11.0912
▁Friedrich	-11.0912
▁Nurî	-11.0912
▁Pakistanî	-11.0912
▁Paşî	-11.0912
▁Red	-11.0912
▁SEDR	-11.0912
▁Wêjeya	-11.0912
▁Xidir	-11.0912
▁Zehawî	-11.0912
▁alîkariyê	-11.0912
▁avedankirina	-11.0912
▁content	-11.0912
▁daxuyanîyên	-11.0912
▁dengdan	-11.0912
▁diyarkirina	-11.0912
▁efefef	-11.0912
▁japonî	-11.0912
▁kêmbûna	-11.0912
▁nîsanê	-11.0912
▁weşan	-11.0912
▁zêrîn	-11.0912
▁Çelê	-11.0912
▁Împaratoriya	-11.0912
▁DIXWAZIN	-11.0987
▁Dîndar	-11.0987
▁Ermenistan	-11.0987
▁Gordon	-11.0987
▁Helbet	-11.0987
▁Hezexê	-11.0987
▁Kakeyî	-11.0987
▁Kosret	-11.0987
▁RP	-11.0987
▁Radio	-11.0987
▁Salihî	-11.0987
▁Yê	-11.0987
▁dijwarîyê	-11.0987
▁evsal	-11.0987
▁girift	-11.0987
▁heval	-11.0987
▁jêderan	-11.0987
▁kanalên	-11.0987
▁karkeran	-11.0987
▁kurda	-11.0987
▁lêpirsîn	-11.0987
▁mit	-11.0987
▁piştevaniya	-11.0987
▁pêkhat	-11.0987
▁ramanê	-11.0987
▁rol	-11.0987
▁sax	-11.0987
▁veke	-11.0987
▁Çoman	-11.0987
▁Îngilîzî	-11.0987
▁çîn	-11.0987
▁Şahê	-11.0987
▁Şemrexê	-11.0987
▁76	-11.1063
▁Cotmehê	-11.1063
▁Hamid	-11.1063
▁Hilbijartinên	-11.1063
▁Loma	-11.1063
▁Qerekoseyê	-11.1063
▁Temo	-11.1063
▁Yekgirtûya	-11.1063
▁Yêkgirtî	-11.1063
▁belkî	-11.1063
▁biryarek	-11.1063
▁birîn	-11.1063
▁brîtanî	-11.1063
▁bîranînê	-11.1063
▁cihgirên	-11.1063
▁dergehê	-11.1063
▁duv	-11.1063
▁dîye	-11.1063
▁ewlehiyê	-11.1063
▁festîvalê	-11.1063
▁hijmarek	-11.1063
▁iro	-11.1063
▁maneya	-11.1063
▁parzemîna	-11.1063
▁pejirand	-11.1063
▁rawestîne	-11.1063
▁sekinandin	-11.1063
▁vegera	-11.1063
▁12ê	-11.1139
▁900	-11.1139
▁Albert	-11.1139
▁Angeles	-11.1139
▁Berlîn	-11.1139
▁DEMA	-11.1139
▁Dû	-11.1139
▁Heman	-11.1139
▁KESAN	-11.1139
▁Kendavê	-11.1139
▁Kobaniyê	-11.1139
▁Max	-11.1139
▁München	-11.1139
▁Panthera	-11.1139
▁Pirraniya	-11.1139
▁Selahattîn	-11.1139
▁Selahedînê	-11.1139
▁Society	-11.1139
▁Tewafuqa	-11.1139
▁YKSS	-11.1139
▁bazirganiyê	-11.1139
▁dahatî	-11.1139
▁danan	-11.1139
▁desthilat	-11.1139
▁enerjiya	-11.1139
▁erd	-11.1139
▁giriftên	-11.1139
▁hemahengîya	-11.1139
▁herême	-11.1139
▁hindî	-11.1139
▁hizrên	-11.1139
▁masiyan	-11.1139
▁ofîsa	-11.1139
▁partîyê	-11.1139
▁plandanînê	-11.1139
▁roleka	-11.1139
▁serokdewletê	-11.1139
▁sînemayê	-11.1139
▁xwandina	-11.1139
▁zîndana	-11.1139
▁Çek	-11.1139
▁15ê	-11.1215
▁21ê	-11.1215
▁68	-11.1215
▁AMEDÊ	-11.1215
▁BARAK	-11.1215
▁Baş	-11.1215
▁CEJNA	-11.1215
▁Destpêka	-11.1215
▁Devera	-11.1215
▁Dizeyî	-11.1215
▁Ferheng	-11.1215
▁Huner	-11.1215
▁IPA	-11.1215
▁Main	-11.1215
▁Nasir	-11.1215
▁Qeterê	-11.1215
▁Remezan	-11.1215
▁Web	-11.1215
▁beyannameyek	-11.1215
▁cîkirina	-11.1215
▁daxuyanî	-11.1215
▁erê	-11.1215
▁gelî	-11.1215
▁hewa	-11.1215
▁kevçî	-11.1215
▁kursîyan	-11.1215
▁neqanûnî	-11.1215
▁pêşxistin	-11.1215
▁rêzgirtina	-11.1215
▁têra	-11.1215
▁:*	-11.1293
▁Bizavkar	-11.1293
▁Derhêner	-11.1293
▁Duyem	-11.1293
▁ENCAM	-11.1293
▁Freud	-11.1293
▁Goma	-11.1293
▁Heme	-11.1293
▁Humsê	-11.1293
▁Kobanî	-11.1293
▁Kongireya	-11.1293
▁Les	-11.1293
▁MESÛD	-11.1293
▁MHP	-11.1293
▁North	-11.1293
▁Polat	-11.1293
▁Rengê	-11.1293
▁SILÊMANÎYÊ	-11.1293
▁Tayyip	-11.1293
▁Xanê	-11.1293
▁aboriyê	-11.1293
▁arêşedar	-11.1293
▁dabûn	-11.1293
▁damezirandina	-11.1293
▁devereka	-11.1293
▁diyarkirî	-11.1293
▁dînê	-11.1293
▁gihijtiye	-11.1293
▁hewldanên	-11.1293
▁hovane	-11.1293
▁kevtiye	-11.1293
▁meclîsa	-11.1293
▁mejiyê	-11.1293
▁namzedê	-11.1293
▁rojnamevanê	-11.1293
▁sembola	-11.1293
▁serokkomarê	-11.1293
▁taybetîyê	-11.1293
▁tine	-11.1293
▁tînê	-11.1293
▁war	-11.1293
▁yêk	-11.1293
▁zaf	-11.1293
▁Aboriya	-11.137
▁Baban	-11.137
▁CIA	-11.137
▁Efrîn	-11.137
▁Ekber	-11.137
▁Erebên	-11.137
▁Jackson	-11.137
▁JÎYANÊN	-11.137
▁Man	-11.137
▁POLÎS	-11.137
▁Rêzdar	-11.137
▁Silopî	-11.137
▁Stran	-11.137
▁TH	-11.137
▁Washingtonê	-11.137
▁banka	-11.137
▁dereng	-11.137
▁dihînin	-11.137
▁dikit	-11.137
▁dizî	-11.137
▁ferhenga	-11.137
▁firotina	-11.137
▁helbestvanekî	-11.137
▁karkerên	-11.137
▁karwanê	-11.137
▁kompanyayê	-11.137
▁naw	-11.137
▁parlamentoya	-11.137
▁paşxistin	-11.137
▁rabe	-11.137
▁ro	-11.137
▁rûs	-11.137
▁sîr	-11.137
▁zext	-11.137
▁zêr	-11.137
▁şeşem	-11.137
▁11ê	-11.1449
▁1911	-11.1449
▁Alfabeya	-11.1449
▁Benda	-11.1449
▁Botanê	-11.1449
▁December	-11.1449
▁Flora	-11.1449
▁Kofî	-11.1449
▁Muzîka	-11.1449
▁Omeran	-11.1449
▁Qur	-11.1449
▁Rûerd	-11.1449
▁Rûsiyayî	-11.1449
▁Wateya	-11.1449
▁Wîkîpediya	-11.1449
▁Yaneya	-11.1449
▁bigre	-11.1449
▁dikuje	-11.1449
▁dostane	-11.1449
▁ewledarîyên	-11.1449
▁kuşt	-11.1449
▁mijûlî	-11.1449
▁rengîn	-11.1449
▁rewşeka	-11.1449
▁tîpguhêziya	-11.1449
▁wexta	-11.1449
▁wêran	-11.1449
▁zankoyê	-11.1449
▁ْ	-11.1449
▁&#	-11.1528
▁Amûdê	-11.1528
▁Anter	-11.1528
▁BÊ	-11.1528
▁DERVEYÊ	-11.1528
▁Edeneyê	-11.1528
▁FRANSA	-11.1528
▁Film	-11.1528
▁Germîyan	-11.1528
▁Girtin	-11.1528
▁HEV	-11.1528
▁Japan	-11.1528
▁Kerboranê	-11.1528
▁Kirmaşan	-11.1528
▁Nîşana	-11.1528
▁PARÊZGEHA	-11.1528
▁RÛSIYA	-11.1528
▁SALIH	-11.1528
▁Sebrî	-11.1528
▁Serhildayên	-11.1528
▁Swêdî	-11.1528
▁aliye	-11.1528
▁alîkarîkirina	-11.1528
▁alîyekê	-11.1528
▁birina	-11.1528
▁carnan	-11.1528
▁elektrîkê	-11.1528
▁nemana	-11.1528
▁pez	-11.1528
▁programa	-11.1528
▁radigîhîne	-11.1528
▁renge	-11.1528
▁reportê	-11.1528
▁rewşeke	-11.1528
▁siyasetmedarekî	-11.1528
▁wikitable	-11.1528
▁xaleka	-11.1528
▁zêdekirina	-11.1528
▁çêdibin	-11.1528
▁Şaxa	-11.1528
▁69	-11.1608
▁71	-11.1608
▁Dixwaze	-11.1608
▁Oktober	-11.1608
▁Pîrosa	-11.1608
▁Taybet	-11.1608
▁Tour	-11.1608
▁Yanî	-11.1608
▁Zarok	-11.1608
▁amarên	-11.1608
▁awayan	-11.1608
▁axavtin	-11.1608
▁berdana	-11.1608
▁biryaran	-11.1608
▁dara	-11.1608
▁dirêjiya	-11.1608
▁firehnijad	-11.1608
▁guhartin	-11.1608
▁nan	-11.1608
▁otomobîlan	-11.1608
▁pirtûkeke	-11.1608
▁rêbendana	-11.1608
▁rêxistineke	-11.1608
▁tam	-11.1608
▁tevaya	-11.1608
▁xanedana	-11.1608
▁zayînî	-11.1608
▁çareseriyê	-11.1608
▁îdarî	-11.1608
▁(?)	-11.1688
▁1902	-11.1688
▁1906	-11.1688
▁2018an	-11.1688
▁67	-11.1688
▁Adara	-11.1688
▁Cewher	-11.1688
▁Cîhad	-11.1688
▁Erdê	-11.1688
▁Gercanê	-11.1688
▁Hezar	-11.1688
▁Korêya	-11.1688
▁Moskow	-11.1688
▁Pîr	-11.1688
▁Turkmanî	-11.1688
▁albuma	-11.1688
▁awayên	-11.1688
▁berfê	-11.1688
▁biharat	-11.1688
▁bihurî	-11.1688
▁bijî	-11.1688
▁bombe	-11.1688
▁bîrên	-11.1688
▁demjimêran	-11.1688
▁dîyarkirina	-11.1688
▁fîzîkî	-11.1688
▁hilberîna	-11.1688
▁lîstin	-11.1688
▁merasîma	-11.1688
▁nihênî	-11.1688
▁peyvdarê	-11.1688
▁pêlên	-11.1688
▁saet	-11.1688
▁serdan	-11.1688
▁tepeserkirina	-11.1688
▁vekêşana	-11.1688
▁wenda	-11.1688
▁County	-11.1769
▁Davutoglu	-11.1769
▁Ebdurehman	-11.1769
▁Işik	-11.1769
▁Key	-11.1769
▁Nûh	-11.1769
▁Serokatiya	-11.1769
▁Tel	-11.1769
▁amadekarîyên	-11.1769
▁cezayên	-11.1769
▁ciyê	-11.1769
▁derfeta	-11.1769
▁dijmin	-11.1769
▁ewlehiya	-11.1769
▁federalî	-11.1769
▁gule	-11.1769
▁kare	-11.1769
▁kendavê	-11.1769
▁keviran	-11.1769
▁molekulên	-11.1769
▁navbeynkariya	-11.1769
▁oldarî	-11.1769
▁part	-11.1769
▁penaber	-11.1769
▁pîşesazîya	-11.1769
▁pîşesazîyê	-11.1769
▁qanûnîya	-11.1769
▁silavên	-11.1769
▁soza	-11.1769
▁stiratecîka	-11.1769
▁teze	-11.1769
▁zayendî	-11.1769
▁çandiniya	-11.1769
▁çepê	-11.1769
▁ِ	-11.1769
▁():	-11.1851
▁BIBIN	-11.1851
▁Carl	-11.1851
▁Dinirxîne	-11.1851
▁Hema	-11.1851
▁Hênê	-11.1851
▁Libnan	-11.1851
▁Mamoste	-11.1851
▁Meletiyê	-11.1851
▁Park	-11.1851
▁Virginia	-11.1851
▁Xinûsê	-11.1851
▁Yaşar	-11.1851
▁Yemen	-11.1851
▁bomba	-11.1851
▁bînê	-11.1851
▁civake	-11.1851
▁diparêzin	-11.1851
▁eynî	-11.1851
▁fîzîknasê	-11.1851
▁hemwelatiyên	-11.1851
▁komîte	-11.1851
▁koçberî	-11.1851
▁kêfxweş	-11.1851
▁mamosteyê	-11.1851
▁mi	-11.1851
▁miletê	-11.1851
▁mizgefta	-11.1851
▁nekirin	-11.1851
▁netewe	-11.1851
▁nirx	-11.1851
▁sa	-11.1851
▁welatiyên	-11.1851
▁xwendekaran	-11.1851
▁yekbûna	-11.1851
▁çîrokê	-11.1851
▁êl	-11.1851
▁îdîa	-11.1851
▁şûnda	-11.1851
▁2004an	-11.1933
▁82	-11.1933
▁Associated	-11.1933
▁Canewerên	-11.1933
▁February	-11.1933
▁Ktv	-11.1933
▁Malper	-11.1933
▁NAV	-11.1933
▁Sarkozî	-11.1933
▁Selam	-11.1933
▁Silopiyê	-11.1933
▁Sincarî	-11.1933
▁Zazakî	-11.1933
▁azadkirin	-11.1933
▁didine	-11.1933
▁dijiyan	-11.1933
▁dimire	-11.1933
▁geştên	-11.1933
▁hişyarî	-11.1933
▁hêviya	-11.1933
▁kampa	-11.1933
▁karker	-11.1933
▁ki	-11.1933
▁kompaniya	-11.1933
▁nahêlin	-11.1933
▁nîqaş	-11.1933
▁pêşketî	-11.1933
▁pêşkeşî	-11.1933
▁pîşesazî	-11.1933
▁rewşenbîrîyê	-11.1933
▁sizayê	-11.1933
▁sînora	-11.1933
▁zanistiyê	-11.1933
▁çavkaniyan	-11.1933
▁şêweyî	-11.1933
▁',	-11.2016
▁81	-11.2016
▁Binekoma	-11.2016
▁CD	-11.2016
▁Dînar	-11.2016
▁Hans	-11.2016
▁Jina	-11.2016
▁Journal	-11.2016
▁Karên	-11.2016
▁Nûnerên	-11.2016
▁Seroka	-11.2016
▁Siyasetmedar	-11.2016
▁Tîrmehê	-11.2016
▁bakûra	-11.2016
▁başe	-11.2016
▁dolaran	-11.2016
▁fêm	-11.2016
▁kevirê	-11.2016
▁kirbû	-11.2016
▁komîteyeka	-11.2016
▁neteweyîya	-11.2016
▁nêz	-11.2016
▁nêza	-11.2016
▁parlamenterê	-11.2016
▁parêzer	-11.2016
▁pira	-11.2016
▁sepandin	-11.2016
▁tesîra	-11.2016
▁vebikin	-11.2016
▁w	-11.2016
▁wêneyê	-11.2016
▁ÇAR	-11.2016
▁êzîdî	-11.2016
▁îngîlîzî	-11.2016
▁1909	-11.21
▁Brawn	-11.21
▁Lo	-11.21
▁Lîbyayî	-11.21
▁Murat	-11.21
▁Parlamentera	-11.21
▁Riwekên	-11.21
▁Rêya	-11.21
▁Tehsîn	-11.21
▁avahiyên	-11.21
▁aware	-11.21
▁aşkirakirin	-11.21
▁bihata	-11.21
▁birînên	-11.21
▁cenga	-11.21
▁darxistin	-11.21
▁destexaneyê	-11.21
▁dikevê	-11.21
▁dêra	-11.21
▁hemwelatîyên	-11.21
▁hezîranê	-11.21
▁hun	-11.21
▁komkirina	-11.21
▁kor	-11.21
▁lîstikê	-11.21
▁mîn	-11.21
▁wêrê	-11.21
▁yasayê	-11.21
▁Şakir	-11.21
▁%;"	-11.2184
▁78	-11.2184
▁ALÎYÊ	-11.2184
▁Dirêjiya	-11.2184
▁Gercana	-11.2184
▁HEVWELATÎ	-11.2184
▁Heskîfê	-11.2184
▁Hûn	-11.2184
▁Kevin	-11.2184
▁Kopê	-11.2184
▁Kroker	-11.2184
▁Mewlana	-11.2184
▁Mitt	-11.2184
▁SAZDAN	-11.2184
▁Stranbêjên	-11.2184
▁Talîbanê	-11.2184
▁Xeber	-11.2184
▁balafirên	-11.2184
▁bas	-11.2184
▁berdestkirina	-11.2184
▁berf	-11.2184
▁betal	-11.2184
▁civîneke	-11.2184
▁dewama	-11.2184
▁dihêlin	-11.2184
▁kincên	-11.2184
▁negatîv	-11.2184
▁nizane	-11.2184
▁olên	-11.2184
▁peyman	-11.2184
▁planên	-11.2184
▁pêştir	-11.2184
▁raste	-11.2184
▁salnameya	-11.2184
▁serweriya	-11.2184
▁sozên	-11.2184
▁vekiriye	-11.2184
▁xweşik	-11.2184
▁zanîngehên	-11.2184
▁|+	-11.2184
▁êşa	-11.2184
▁îcar	-11.2184
▁.(	-11.2269
▁Asos	-11.2269
▁Bernameya	-11.2269
▁Birîndar	-11.2269
▁Casim	-11.2269
▁Dokan	-11.2269
▁Fîlmên	-11.2269
▁Kovarên	-11.2269
▁Kêm	-11.2269
▁Netanyahu	-11.2269
▁Nîsanê	-11.2269
▁Pîranê	-11.2269
▁Rêxistinên	-11.2269
▁Wilhelm	-11.2269
▁Xirbê	-11.2269
▁YPG	-11.2269
▁Yasîn	-11.2269
▁Zanist	-11.2269
▁albûmê	-11.2269
▁anjî	-11.2269
▁ard	-11.2269
▁babetên	-11.2269
▁bajarokekî	-11.2269
▁berdewambûna	-11.2269
▁derhêner	-11.2269
▁dermanan	-11.2269
▁diçûn	-11.2269
▁geşta	-11.2269
▁hişyar	-11.2269
▁hozên	-11.2269
▁kêşe	-11.2269
▁milyonan	-11.2269
▁parliyament	-11.2269
▁pîvanên	-11.2269
▁rabû	-11.2269
▁roketên	-11.2269
▁serokatî	-11.2269
▁supa	-11.2269
▁tekoşîna	-11.2269
▁tendiristîya	-11.2269
▁werê	-11.2269
▁xaneyan	-11.2269
▁xêncî	-11.2269
▁yasayî	-11.2269
▁zanista	-11.2269
▁îlankirin	-11.2269
▁şiyanên	-11.2269
▁1904	-11.2355
▁66	-11.2355
▁BB	-11.2355
▁Bide	-11.2355
▁Bûn	-11.2355
▁Cihû	-11.2355
▁Erzîrom	-11.2355
▁Filistînê	-11.2355
▁Hindî	-11.2355
▁Hugo	-11.2355
▁Hunerê	-11.2355
▁Korêyê	-11.2355
▁Nebî	-11.2355
▁Parlamenterên	-11.2355
▁Remezanê	-11.2355
▁Teyyib	-11.2355
▁Yekşembî	-11.2355
▁bajarek	-11.2355
▁bizane	-11.2355
▁cinsî	-11.2355
▁cor	-11.2355
▁dabîn	-11.2355
▁dagirkirina	-11.2355
▁demjimaran	-11.2355
▁duyê	-11.2355
▁emrê	-11.2355
▁j	-11.2355
▁jîngehê	-11.2355
▁karin	-11.2355
▁kirinên	-11.2355
▁kulturî	-11.2355
▁kurdistana	-11.2355
▁mamosta	-11.2355
▁nizm	-11.2355
▁nîşandin	-11.2355
▁parlamenter	-11.2355
▁peyvê	-11.2355
▁proseya	-11.2355
▁qas	-11.2355
▁rojnameyan	-11.2355
▁wesa	-11.2355
▁xem	-11.2355
▁xoy	-11.2355
▁xwa	-11.2355
▁êk	-11.2355
▁110	-11.2441
▁2012an	-11.2441
▁975	-11.2441
▁Berkelî	-11.2441
▁Berzencî	-11.2441
▁Cemiyeta	-11.2441
▁Ciwanên	-11.2441
▁DIHÊ	-11.2441
▁Derwêş	-11.2441
▁Eşref	-11.2441
▁Feylî	-11.2441
▁Peyamner	-11.2441
▁Sûryayê	-11.2441
▁Xwedî	-11.2441
▁Yildiz	-11.2441
▁als	-11.2441
▁avabûna	-11.2441
▁avahî	-11.2441
▁binêrin	-11.2441
▁bizav	-11.2441
▁dadgeh	-11.2441
▁dayne	-11.2441
▁dijberî	-11.2441
▁edebî	-11.2441
▁hefte	-11.2441
▁hefteyan	-11.2441
▁herisê	-11.2441
▁hesin	-11.2441
▁piştevanîkirina	-11.2441
▁pp	-11.2441
▁pêre	-11.2441
▁referanduma	-11.2441
▁saloxandin	-11.2441
▁serxistina	-11.2441
▁siyasiya	-11.2441
▁solin	-11.2441
▁stratejîk	-11.2441
▁tayîbet	-11.2441
▁vebike	-11.2441
▁|--	-11.2441
▁Êrîşên	-11.2441
▁çaremîn	-11.2441
▁Şebek	-11.2441
▁Şemzînan	-11.2441
▁şandiye	-11.2441
▁160	-11.2529
▁Armanc	-11.2529
▁Atlantîk	-11.2529
▁Award	-11.2529
▁Berzincî	-11.2529
▁Dana	-11.2529
▁Edward	-11.2529
▁Eyûbî	-11.2529
▁FFDEAD	-11.2529
▁Hêmin	-11.2529
▁Ihsan	-11.2529
▁Kurmanc	-11.2529
▁Mûş	-11.2529
▁Orhan	-11.2529
▁Rûs	-11.2529
▁Sedsala	-11.2529
▁TARIQ	-11.2529
▁TERORÎST	-11.2529
▁Xorasana	-11.2529
▁Yekîneyên	-11.2529
▁bera	-11.2529
▁bijîşk	-11.2529
▁brîndar	-11.2529
▁bı	-11.2529
▁civakên	-11.2529
▁dayin	-11.2529
▁dihêne	-11.2529
▁dijberên	-11.2529
▁dîwarê	-11.2529
▁famîleyeke	-11.2529
▁gengeşeyê	-11.2529
▁gewr	-11.2529
▁gilî	-11.2529
▁gov	-11.2529
▁guneh	-11.2529
▁hilde	-11.2529
▁jinûve	-11.2529
▁karûbarê	-11.2529
▁pestoya	-11.2529
▁pêdivîye	-11.2529
▁pêşveçûna	-11.2529
▁ragihana	-11.2529
▁rayedarên	-11.2529
▁vegerandina	-11.2529
▁veguhastin	-11.2529
▁zankoyên	-11.2529
▁çêkiriye	-11.2529
▁20ê	-11.2617
▁Abbas	-11.2617
▁Awistralya	-11.2617
▁Dexîl	-11.2617
▁Duhî	-11.2617
▁ENCAMA	-11.2617
▁Eve	-11.2617
▁FFFFFF	-11.2617
▁Fehmî	-11.2617
▁Feysel	-11.2617
▁Jêderek	-11.2617
▁KBS	-11.2617
▁Kondoleza	-11.2617
▁Mor	-11.2617
▁PIŞTEVANÎYA	-11.2617
▁Pênc	-11.2617
▁Qada	-11.2617
▁Qeretepe	-11.2617
▁Tan	-11.2617
▁Teyfûr	-11.2617
▁Tûnis	-11.2617
▁ax	-11.2617
▁bajêrvanîya	-11.2617
▁bedena	-11.2617
▁bihûrî	-11.2617
▁carina	-11.2617
▁fraksiyonan	-11.2617
▁fîzîka	-11.2617
▁gelekan	-11.2617
▁gendelîyê	-11.2617
▁hevbeşa	-11.2617
▁hîmê	-11.2617
▁kal	-11.2617
▁lîstê	-11.2617
▁nahêle	-11.2617
▁nehêle	-11.2617
▁pirseka	-11.2617
▁protesto	-11.2617
▁pêkhatiye	-11.2617
▁pêvajoyên	-11.2617
▁pêve	-11.2617
▁pûşpera	-11.2617
▁riyên	-11.2617
▁serkirde	-11.2617
▁texmîn	-11.2617
▁vexwendin	-11.2617
▁wergirtine	-11.2617
▁xeterê	-11.2617
▁zanyarîyan	-11.2617
▁çavkanî	-11.2617
▁ûf	-11.2617
▁şîrê	-11.2617
▁1901	-11.2706
▁74	-11.2706
▁Bekir	-11.2706
▁Dûzxormato	-11.2706
▁Eşîr	-11.2706
▁Jefrî	-11.2706
▁Lîtvanya	-11.2706
▁Meysûn	-11.2706
▁Nûçeyan	-11.2706
▁Sîyasî	-11.2706
▁Tîma	-11.2706
▁Yekê	-11.2706
▁bangî	-11.2706
▁bergiriya	-11.2706
▁beşdarîkirina	-11.2706
▁derbazî	-11.2706
▁dirust	-11.2706
▁heremê	-11.2706
▁herwekî	-11.2706
▁is	-11.2706
▁jenosîda	-11.2706
▁jidest	-11.2706
▁konferensê	-11.2706
▁kongreyê	-11.2706
▁kêfa	-11.2706
▁lîstika	-11.2706
▁muzîk	-11.2706
▁parlîyamenta	-11.2706
▁parzûna	-11.2706
▁pêşerojê	-11.2706
▁rêberiya	-11.2706
▁rêvebiriya	-11.2706
▁salek	-11.2706
▁zeytê	-11.2706
▁2017ê	-11.2795
▁Astara	-11.2795
▁Belavbûn	-11.2795
▁Beşên	-11.2795
▁Efendî	-11.2795
▁Fars	-11.2795
▁Fermî	-11.2795
▁HER	-11.2795
▁Hunermendên	-11.2795
▁Keça	-11.2795
▁Ki	-11.2795
▁Kitab	-11.2795
▁Kuştina	-11.2795
▁König	-11.2795
▁Mengurrî	-11.2795
▁Sîstematîk	-11.2795
▁Yemenî	-11.2795
▁amadeyîya	-11.2795
▁asmanîya	-11.2795
▁ayetan	-11.2795
▁aşkirayî	-11.2795
▁bûyî	-11.2795
▁cureyê	-11.2795
▁dad	-11.2795
▁danîye	-11.2795
▁dewrîyeyyeka	-11.2795
▁dilovan	-11.2795
▁dinivîsîne	-11.2795
▁dı	-11.2795
▁fahm	-11.2795
▁gihişte	-11.2795
▁girêdayê	-11.2795
▁hilawîstî	-11.2795
▁komelên	-11.2795
▁kovareke	-11.2795
▁kurên	-11.2795
▁matematîkê	-11.2795
▁mûzîkê	-11.2795
▁nivîsandine	-11.2795
▁parliyamenterên	-11.2795
▁profesor	-11.2795
▁pêşandan	-11.2795
▁reşnivîsa	-11.2795
▁rojevê	-11.2795
▁tevli	-11.2795
▁tîr	-11.2795
▁çandê	-11.2795
▁êriş	-11.2795
▁Şaxê	-11.2795
▁2007an	-11.2886
▁2014an	-11.2886
▁5px	-11.2886
▁ASAYIŞA	-11.2886
▁Amêdî	-11.2886
▁Bir	-11.2886
▁Birîtaniya	-11.2886
▁Cihên	-11.2886
▁Dîskografî	-11.2886
▁EWROPA	-11.2886
▁FRAKSIYONÊN	-11.2886
▁Gotara	-11.2886
▁Life	-11.2886
▁Navokî	-11.2886
▁Navçe	-11.2886
▁Nazim	-11.2886
▁Ol	-11.2886
▁Pasîna	-11.2886
▁Walter	-11.2886
▁Wirmê	-11.2886
▁YEKÎTÎYA	-11.2886
▁agahiyan	-11.2886
▁aştiyane	-11.2886
▁berdide	-11.2886
▁berfanbara	-11.2886
▁bêjeya	-11.2886
▁carinan	-11.2886
▁diravî	-11.2886
▁dirêjahiya	-11.2886
▁dêrendaza	-11.2886
▁enerjiyê	-11.2886
▁ferî	-11.2886
▁hejmareka	-11.2886
▁herwesa	-11.2886
▁kesekê	-11.2886
▁kêmkirin	-11.2886
▁lawan	-11.2886
▁navdarên	-11.2886
▁nu	-11.2886
▁opozisiyona	-11.2886
▁pêşnîyara	-11.2886
▁pûç	-11.2886
▁sêşembîyê	-11.2886
▁ton	-11.2886
▁têgihiştina	-11.2886
▁tûşî	-11.2886
▁wêneyan	-11.2886
▁xane	-11.2886
▁ÎTILAFA	-11.2886
▁çandinê	-11.2886
▁Ekrem	-11.2977
▁Fewzî	-11.2977
▁Gundikê	-11.2977
▁House	-11.2977
▁Israyelî	-11.2977
▁LEŞKERÎ	-11.2977
▁Minaq	-11.2977
▁PROSESA	-11.2977
▁Petrolê	-11.2977
▁Sa	-11.2977
▁TEQÎNEK	-11.2977
▁Talabanî	-11.2977
▁Taylor	-11.2977
▁Tele	-11.2977
▁Ti	-11.2977
▁West	-11.2977
▁Wezîrên	-11.2977
▁Zîn	-11.2977
▁aborîyên	-11.2977
▁bigihînin	-11.2977
▁cezakirin	-11.2977
▁demar	-11.2977
▁ders	-11.2977
▁derya	-11.2977
▁dibit	-11.2977
▁dozê	-11.2977
▁firokên	-11.2977
▁gihand	-11.2977
▁giringîyek	-11.2977
▁herdemîya	-11.2977
▁hinceta	-11.2977
▁hêriş	-11.2977
▁jı	-11.2977
▁mast	-11.2977
▁peyamên	-11.2977
▁planê	-11.2977
▁pêşniyara	-11.2977
▁recî	-11.2977
▁saxlemîyê	-11.2977
▁televiziyona	-11.2977
▁televîzyona	-11.2977
▁tewaw	-11.2977
▁wiki	-11.2977
▁Çem	-11.2977
▁Şêxo	-11.2977
▁ل	-11.2977
▁*****	-11.3069
▁....	-11.3069
▁5ê	-11.3069
▁Best	-11.3069
▁CÎHANÊ	-11.3069
▁Demokrasiyê	-11.3069
▁Deutschland	-11.3069
▁Felsefe	-11.3069
▁Image	-11.3069
▁KESÊN	-11.3069
▁KIRIYE	-11.3069
▁Kûba	-11.3069
▁October	-11.3069
▁PÎROZ	-11.3069
▁Saudî	-11.3069
▁United	-11.3069
▁Zêwyeê	-11.3069
▁bernameyeke	-11.3069
▁biharê	-11.3069
▁bijarteya	-11.3069
▁carekî	-11.3069
▁daxuyaniya	-11.3069
▁dergehên	-11.3069
▁dihewîne	-11.3069
▁dîl	-11.3069
▁ezmûna	-11.3069
▁gazî	-11.3069
▁greva	-11.3069
▁kuştî	-11.3069
▁nedane	-11.3069
▁nerazîbûnê	-11.3069
▁rojek	-11.3069
▁serdarên	-11.3069
▁xizan	-11.3069
▁zanayên	-11.3069
▁zikmakî	-11.3069
▁împeratoriya	-11.3069
▁1916	-11.3162
▁84	-11.3162
▁98	-11.3162
▁Aşûrî	-11.3162
▁Beha	-11.3162
▁Black	-11.3162
▁Cent	-11.3162
▁Dem	-11.3162
▁Deme	-11.3162
▁Encumena	-11.3162
▁Ewrûpayê	-11.3162
▁Hawar	-11.3162
▁Kazim	-11.3162
▁Larîcanî	-11.3162
▁Medvedev	-11.3162
▁November	-11.3162
▁Online	-11.3162
▁PÊŞKÊŞÎ	-11.3162
▁Refsencanî	-11.3162
▁Rojê	-11.3162
▁ST	-11.3162
▁Seraya	-11.3162
▁Tayyîp	-11.3162
▁Tûnisê	-11.3162
▁Urmiyê	-11.3162
▁Yekitiya	-11.3162
▁Zîlan	-11.3162
▁asayiş	-11.3162
▁bazirganiya	-11.3162
▁berdestkirin	-11.3162
▁birawestin	-11.3162
▁bombek	-11.3162
▁budce	-11.3162
▁destî	-11.3162
▁dijminên	-11.3162
▁dikarê	-11.3162
▁dizewice	-11.3162
▁evîna	-11.3162
▁ewlekariyê	-11.3162
▁eşîrê	-11.3162
▁f9f9f9	-11.3162
▁gihaye	-11.3162
▁girtinê	-11.3162
▁guhdarîya	-11.3162
▁hewayî	-11.3162
▁hezkirin	-11.3162
▁hizar	-11.3162
▁idî	-11.3162
▁kurdi	-11.3162
▁leşkerek	-11.3162
▁lixwe	-11.3162
▁masûlkeyên	-11.3162
▁nivîsîne	-11.3162
▁parlamentoyê	-11.3162
▁php	-11.3162
▁pêywîste	-11.3162
▁rojhelata	-11.3162
▁rojnama	-11.3162
▁rêkarên	-11.3162
▁saloxegerîya	-11.3162
▁xebitandin	-11.3162
▁xistina	-11.3162
▁xizmetên	-11.3162
▁xwenîşanderên	-11.3162
▁ziwa	-11.3162
▁ÎHD	-11.3162
▁Özgür	-11.3162
▁çûnkî	-11.3162
▁êlên	-11.3162
▁130	-11.3256
▁1758an	-11.3256
▁7ê	-11.3256
▁83	-11.3256
▁ADIL	-11.3256
▁Alîkarê	-11.3256
▁BERPIRSÊN	-11.3256
▁Bedfort	-11.3256
▁DC	-11.3256
▁Din	-11.3256
▁Encamên	-11.3256
▁GEL	-11.3256
▁Hîn	-11.3256
▁Ladin	-11.3256
▁Polîs	-11.3256
▁Romana	-11.3256
▁SALA	-11.3256
▁YEK	-11.3256
▁aaaaaa	-11.3256
▁amadebûyan	-11.3256
▁axaftinek	-11.3256
▁bahse	-11.3256
▁desthilatdarî	-11.3256
▁devoka	-11.3256
▁dikujin	-11.3256
▁dirûvê	-11.3256
▁goya	-11.3256
▁hilda	-11.3256
▁hukmê	-11.3256
▁jêre	-11.3256
▁kovî	-11.3256
▁nasname	-11.3256
▁raportên	-11.3256
▁rengekî	-11.3256
▁rex	-11.3256
▁sekinî	-11.3256
▁tank	-11.3256
▁tekezîyê	-11.3256
▁tena	-11.3256
▁terxan	-11.3256
▁vêga	-11.3256
▁Çekî	-11.3256
▁Çîna	-11.3256
▁))	-11.3351
▁2010an	-11.3351
▁BIDE	-11.3351
▁Brahîmî	-11.3351
▁Crocus	-11.3351
▁Farsî	-11.3351
▁Gelo	-11.3351
▁HAK	-11.3351
▁Hemî	-11.3351
▁Herwesa	-11.3351
▁Japonyayê	-11.3351
▁Mijdar	-11.3351
▁NewYork	-11.3351
▁Seydayê	-11.3351
▁Stockholmê	-11.3351
▁Sûdanê	-11.3351
▁Yusif	-11.3351
▁Zankoya	-11.3351
▁asîdên	-11.3351
▁bend	-11.3351
▁bergên	-11.3351
▁elewî	-11.3351
▁erka	-11.3351
▁gefa	-11.3351
▁giringîyê	-11.3351
▁girînge	-11.3351
▁hejmareke	-11.3351
▁hemu	-11.3351
▁herçende	-11.3351
▁hevdem	-11.3351
▁hevwelatîyekî	-11.3351
▁hinekan	-11.3351
▁jîyan	-11.3351
▁kolanên	-11.3351
▁mirovahî	-11.3351
▁nediyar	-11.3351
▁nivîsî	-11.3351
▁parlemanî	-11.3351
▁peyvan	-11.3351
▁sazûmaniya	-11.3351
▁seit	-11.3351
▁serbaz	-11.3351
▁xizmet	-11.3351
▁xwerû	-11.3351
▁Îtaliyayî	-11.3351
▁çareserîyê	-11.3351
▁çarşembîyê	-11.3351
▁çêbûne	-11.3351
▁îngl	-11.3351
▁"),	-11.3447
▁2008an	-11.3447
▁61	-11.3447
▁AK	-11.3447
▁Agahiyên	-11.3447
▁Amerîkayîyan	-11.3447
▁Asiya	-11.3447
▁Billboard	-11.3447
▁Burhan	-11.3447
▁Demokrasî	-11.3447
▁EHMED	-11.3447
▁ERDOGAN	-11.3447
▁Felestînî	-11.3447
▁Fîlmnîgarî	-11.3447
▁Gewirkî	-11.3447
▁Hot	-11.3447
▁Napoleon	-11.3447
▁PAR	-11.3447
▁Qereyaziyê	-11.3447
▁Qers	-11.3447
▁Radyo	-11.3447
▁Rêveberiya	-11.3447
▁Simkoyê	-11.3447
▁Siyasî	-11.3447
▁Stewr	-11.3447
▁Tebaxê	-11.3447
▁To	-11.3447
▁Tulipa	-11.3447
▁amînî	-11.3447
▁bejî	-11.3447
▁bermîleka	-11.3447
▁binî	-11.3447
▁boneyê	-11.3447
▁danûstandin	-11.3447
▁derkevt	-11.3447
▁diken	-11.3447
▁dirêjî	-11.3447
▁edebiyata	-11.3447
▁feat	-11.3447
▁gedeyê	-11.3447
▁girîngiya	-11.3447
▁medyayê	-11.3447
▁mijdara	-11.3447
▁namîne	-11.3447
▁navça	-11.3447
▁nêzîkan	-11.3447
▁suryanî	-11.3447
▁werbigre	-11.3447
▁xêzanên	-11.3447
▁yeke	-11.3447
▁Çile	-11.3447
▁Îhsan	-11.3447
▁êrîşeka	-11.3447
▁1907	-11.3543
▁89	-11.3543
▁Akrê	-11.3543
▁Arthur	-11.3543
▁Aysel	-11.3543
▁Birayê	-11.3543
▁Dogan	-11.3543
▁Faris	-11.3543
▁Felestînê	-11.3543
▁Human	-11.3543
▁Japonî	-11.3543
▁Joe	-11.3543
▁Kobanê	-11.3543
▁Kurdê	-11.3543
▁Lîbîya	-11.3543
▁Mam	-11.3543
▁Mijara	-11.3543
▁Mîtra	-11.3543
▁OPEC	-11.3543
▁Osmanîyan	-11.3543
▁Rojname	-11.3543
▁RÊ	-11.3543
▁Swîsreyê	-11.3543
▁Tugluk	-11.3543
▁Xaneyên	-11.3543
▁Xerzan	-11.3543
▁bihîstin	-11.3543
▁birine	-11.3543
▁birîna	-11.3543
▁cotmeha	-11.3543
▁datîne	-11.3543
▁destpêbûna	-11.3543
▁dost	-11.3543
▁ewna	-11.3543
▁girseyî	-11.3543
▁girtîyan	-11.3543
▁guhertinên	-11.3543
▁jêhatî	-11.3543
▁kifşkirin	-11.3543
▁kîlometre	-11.3543
▁miliyon	-11.3543
▁pareyên	-11.3543
▁pirsgirêkê	-11.3543
▁ragirtina	-11.3543
▁raportê	-11.3543
▁reformên	-11.3543
▁rejima	-11.3543
▁serdanên	-11.3543
▁siyasetmedarên	-11.3543
▁texmînkirin	-11.3543
▁xemgîn	-11.3543
▁yekîtiya	-11.3543
▁zanîngeh	-11.3543
▁çareserî	-11.3543
▁ُ	-11.3543
▁1998an	-11.3641
▁86	-11.3641
▁87	-11.3641
▁Awustraliya	-11.3641
▁BERHEM	-11.3641
▁Benjamin	-11.3641
▁DR	-11.3641
▁Elçî	-11.3641
▁Emer	-11.3641
▁Ewî	-11.3641
▁Gulana	-11.3641
▁Iraqeka	-11.3641
▁Istanbolê	-11.3641
▁Nadir	-11.3641
▁Sen	-11.3641
▁Sunneyî	-11.3641
▁Xwepêşandanên	-11.3641
▁aloztir	-11.3641
▁berpirsiyar	-11.3641
▁bibê	-11.3641
▁bigihîje	-11.3641
▁bilindbûna	-11.3641
▁binemayên	-11.3641
▁daxuyanîyekî	-11.3641
▁demsala	-11.3641
▁digihê	-11.3641
▁dihata	-11.3641
▁disekinê	-11.3641
▁heqê	-11.3641
▁hestî	-11.3641
▁jêder	-11.3641
▁milîtanên	-11.3641
▁naverast	-11.3641
▁nerazîbûn	-11.3641
▁perê	-11.3641
▁pêwendiyên	-11.3641
▁pêywîst	-11.3641
▁pêşkeş	-11.3641
▁raport	-11.3641
▁sinorê	-11.3641
▁sosyalîst	-11.3641
▁tişta	-11.3641
▁têgîna	-11.3641
▁Çawa	-11.3641
▁Înî	-11.3641
▁×	-11.3641
▁çêkirine	-11.3641
▁şêweyê	-11.3641
▁!!	-11.374
▁Axayê	-11.374
▁Dibin	-11.374
▁Enbar	-11.374
▁Gelên	-11.374
▁Hitler	-11.374
▁Hizbullah	-11.374
▁Jê	-11.374
▁Konsulê	-11.374
▁Lewma	-11.374
▁Mesud	-11.374
▁Misircê	-11.374
▁Nûneran	-11.374
▁On	-11.374
▁PARTÎYA	-11.374
▁Polonya	-11.374
▁Wa	-11.374
▁Yezdanên	-11.374
▁agahîyên	-11.374
▁bazirganên	-11.374
▁bilêvkirina	-11.374
▁cejnê	-11.374
▁danana	-11.374
▁dengbêj	-11.374
▁dilîze	-11.374
▁distîne	-11.374
▁geştevanîyê	-11.374
▁karnameya	-11.374
▁keçên	-11.374
▁lêdana	-11.374
▁nakim	-11.374
▁pêvajoyê	-11.374
▁qanûnan	-11.374
▁stiratecîk	-11.374
▁tevgerê	-11.374
▁yekgirtina	-11.374
▁Îsawî	-11.374
▁êrîşek	-11.374
▁şervanên	-11.374
▁14ê	-11.3839
▁1896	-11.3839
▁1992an	-11.3839
▁73	-11.3839
▁97	-11.3839
▁Adem	-11.3839
▁Bajêrê	-11.3839
▁BÛYE	-11.3839
▁Colemêrg	-11.3839
▁DEVERA	-11.3839
▁Dumlûcî	-11.3839
▁FU	-11.3839
▁IRAQ	-11.3839
▁ISRAYEL	-11.3839
▁Kaplan	-11.3839
▁Muamer	-11.3839
▁Muzîk	-11.3839
▁Xelîfe	-11.3839
▁Zanîngehên	-11.3839
▁as	-11.3839
▁dadwerî	-11.3839
▁damezrênerê	-11.3839
▁derheqa	-11.3839
▁dikane	-11.3839
▁dinav	-11.3839
▁dupat	-11.3839
▁ewlehîya	-11.3839
▁havînan	-11.3839
▁hemdem	-11.3839
▁hey	-11.3839
▁karîn	-11.3839
▁kirdewe	-11.3839
▁lezgîn	-11.3839
▁navandin	-11.3839
▁nişka	-11.3839
▁nêrîn	-11.3839
▁pêde	-11.3839
▁pêktê	-11.3839
▁pêzanîn	-11.3839
▁qurban	-11.3839
▁siyaset	-11.3839
▁çavdêriya	-11.3839
▁şerrekî	-11.3839
▁بن	-11.3839
▁م	-11.3839
▁1898	-11.394
▁2015an	-11.394
▁Babekir	-11.394
▁Batman	-11.394
▁Beyan	-11.394
▁Brazîlê	-11.394
▁Civakî	-11.394
▁Dawûdoglû	-11.394
▁Dil	-11.394
▁EBDULMEHDÎ	-11.394
▁Kesê	-11.394
▁Louis	-11.394
▁Lîbî	-11.394
▁Nivîsgeha	-11.394
▁NÛNERÊN	-11.394
▁Selaheddînê	-11.394
▁Tewrat	-11.394
▁Zarokan	-11.394
▁abûrîyê	-11.394
▁behra	-11.394
▁beravên	-11.394
▁cot	-11.394
▁cêgirê	-11.394
▁destana	-11.394
▁disekine	-11.394
▁diyaloga	-11.394
▁enfalkirîyan	-11.394
▁etnîkî	-11.394
▁fedral	-11.394
▁fîlman	-11.394
▁gemîyên	-11.394
▁gengeşeyan	-11.394
▁gerdûnî	-11.394
▁heftem	-11.394
▁hetanî	-11.394
▁komkujiyê	-11.394
▁komîteyan	-11.394
▁mekanîka	-11.394
▁mîlîtanên	-11.394
▁nedan	-11.394
▁nivîsîna	-11.394
▁piştevanî	-11.394
▁pêkhatina	-11.394
▁pêşketinê	-11.394
▁serokî	-11.394
▁tenduristiyê	-11.394
▁vana	-11.394
▁waran	-11.394
▁werina	-11.394
▁wezaret	-11.394
▁xalkê	-11.394
▁xebatan	-11.394
▁xelkî	-11.394
▁zanistên	-11.394
▁zewaca	-11.394
▁Çêrmûgê	-11.394
▁Êzîdî	-11.394
▁80px	-11.4041
▁8ê	-11.4041
▁Daniel	-11.4041
▁Ewê	-11.4041
▁Hamburg	-11.4041
▁Kanadayê	-11.4041
▁Korkmaz	-11.4041
▁Malî	-11.4041
▁Milazgirê	-11.4041
▁Mutleg	-11.4041
▁NAVDEWLETÎ	-11.4041
▁Parlemana	-11.4041
▁Pierre	-11.4041
▁Saziya	-11.4041
▁Sir	-11.4041
▁Sofî	-11.4041
▁Stuttgart	-11.4041
▁Tetwanê	-11.4041
▁Torê	-11.4041
▁Turkmanan	-11.4041
▁Tîpa	-11.4041
▁Waşingtonê	-11.4041
▁Yewnanî	-11.4041
▁bendera	-11.4041
▁berbijarê	-11.4041
▁derbeya	-11.4041
▁digihêje	-11.4041
▁erdnîgarî	-11.4041
▁fîlozofê	-11.4041
▁gulleyên	-11.4041
▁hevrik	-11.4041
▁hewce	-11.4041
▁karmend	-11.4041
▁kişandî	-11.4041
▁komisiyonê	-11.4041
▁lawên	-11.4041
▁mercê	-11.4041
▁mirine	-11.4041
▁moon	-11.4041
▁nexşeya	-11.4041
▁osmanî	-11.4041
▁pare	-11.4041
▁paşkevtina	-11.4041
▁pêncem	-11.4041
▁rave	-11.4041
▁rewşenbîrîya	-11.4041
▁stêra	-11.4041
▁tirî	-11.4041
▁weberhênanê	-11.4041
▁xwekujekî	-11.4041
▁İstanbul	-11.4041
▁1890	-11.4144
▁79	-11.4144
▁Aştîyê	-11.4144
▁Berberis	-11.4144
▁Doza	-11.4144
▁Ebdulbarî	-11.4144
▁Internet	-11.4144
▁Kanîreşê	-11.4144
▁Kerkukê	-11.4144
▁KŞ	-11.4144
▁Leon	-11.4144
▁Maria	-11.4144
▁Meydan	-11.4144
▁Muhemmedê	-11.4144
▁NAKE	-11.4144
▁Navend	-11.4144
▁Nûredîn	-11.4144
▁Qere	-11.4144
▁Rewandizê	-11.4144
▁Rojnama	-11.4144
▁Taxa	-11.4144
▁Tûrkiye	-11.4144
▁^	-11.4144
▁alozîyên	-11.4144
▁asê	-11.4144
▁ayindeyê	-11.4144
▁berhevkirin	-11.4144
▁bitenê	-11.4144
▁bizavkarên	-11.4144
▁bêjedanekî	-11.4144
▁dermanên	-11.4144
▁enerjî	-11.4144
▁fermandarîya	-11.4144
▁germiya	-11.4144
▁gihiştiye	-11.4144
▁giştîyên	-11.4144
▁hişmendiya	-11.4144
▁hoy	-11.4144
▁hundurê	-11.4144
▁jineke	-11.4144
▁kenala	-11.4144
▁lewre	-11.4144
▁operasyon	-11.4144
▁or	-11.4144
▁pirse	-11.4144
▁postan	-11.4144
▁pêr	-11.4144
▁svg	-11.4144
▁teroristî	-11.4144
▁textê	-11.4144
▁werger	-11.4144
▁çiyê	-11.4144
▁Şandeyeka	-11.4144
▁Şaredar	-11.4144
▁BUDCEYA	-11.4247
▁C3	-11.4247
▁Dezgeha	-11.4247
▁Ewrupa	-11.4247
▁Farqîn	-11.4247
▁Hg	-11.4247
▁KOMBÛNEKÊ	-11.4247
▁KOMÎTEYA	-11.4247
▁Komîsyona	-11.4247
▁Köln	-11.4247
▁Pergala	-11.4247
▁Science	-11.4247
▁Sêrt	-11.4247
▁WAN	-11.4247
▁War	-11.4247
▁Wargeha	-11.4247
▁Wexta	-11.4247
▁Wilson	-11.4247
▁Yewnanistan	-11.4247
▁bajêrokê	-11.4247
▁biryareka	-11.4247
▁bistîne	-11.4247
▁dadgehkirin	-11.4247
▁danûstandinê	-11.4247
▁dûre	-11.4247
▁erda	-11.4247
▁felsefîkî	-11.4247
▁girtîgeha	-11.4247
▁hiş	-11.4247
▁kompanyayan	-11.4247
▁madde	-11.4247
▁navxweya	-11.4247
▁norwêcî	-11.4247
▁nêvdewletîya	-11.4247
▁nûnerênIraqê	-11.4247
▁perliyamentê	-11.4247
▁perçe	-11.4247
▁piştevanîyê	-11.4247
▁serkirdeyê	-11.4247
▁stand	-11.4247
▁tankên	-11.4247
▁xwandin	-11.4247
▁xwarinan	-11.4247
▁yekeyên	-11.4247
▁îroyîn	-11.4247
▁Şêr	-11.4247
▁1500	-11.4352
▁Ahûramazda	-11.4352
▁Berkeliya	-11.4352
▁Dibêje	-11.4352
▁Esad	-11.4352
▁Fakulteya	-11.4352
▁Giraniya	-11.4352
▁Gultan	-11.4352
▁It	-11.4352
▁Mizûrî	-11.4352
▁Nivîsbariya	-11.4352
▁Qayîde	-11.4352
▁Qoretû	-11.4352
▁Rê	-11.4352
▁Salnameya	-11.4352
▁Serbixwe	-11.4352
▁Serokkomar	-11.4352
▁Stranbêj	-11.4352
▁Teha	-11.4352
▁Urdonê	-11.4352
▁Young	-11.4352
▁ardê	-11.4352
▁aus	-11.4352
▁bacanê	-11.4352
▁berû	-11.4352
▁bigoşt	-11.4352
▁dagîr	-11.4352
▁derhênerê	-11.4352
▁diweşîne	-11.4352
▁domand	-11.4352
▁dûbare	-11.4352
▁elementên	-11.4352
▁film	-11.4352
▁fî	-11.4352
▁gasê	-11.4352
▁guhdarîkirina	-11.4352
▁guhê	-11.4352
▁hefteyekê	-11.4352
▁medya	-11.4352
▁mizgeftê	-11.4352
▁nîşanên	-11.4352
▁parvekirina	-11.4352
▁pêyî	-11.4352
▁pêşengiya	-11.4352
▁pêşiyê	-11.4352
▁radyo	-11.4352
▁rojekî	-11.4352
▁rojnamevanekî	-11.4352
▁rûbarê	-11.4352
▁sepandina	-11.4352
▁serrastkirin	-11.4352
▁xebateke	-11.4352
▁xwepêşandanek	-11.4352
▁Öcalan	-11.4352
▁çapemeniyê	-11.4352
▁çî	-11.4352
▁îna	-11.4352
▁Şaweys	-11.4352
▁10ê	-11.4458
▁1891	-11.4458
▁Big	-11.4458
▁Day	-11.4458
▁Esedî	-11.4458
▁Evîn	-11.4458
▁Fatma	-11.4458
▁Florida	-11.4458
▁Gaza	-11.4458
▁Hikûmetê	-11.4458
▁Hrsg	-11.4458
▁ISO	-11.4458
▁Kurt	-11.4458
▁Pê	-11.4458
▁Spaniya	-11.4458
▁Xesxêrê	-11.4458
▁akincîyên	-11.4458
▁artêşên	-11.4458
▁bermîl	-11.4458
▁bilindê	-11.4458
▁bişon	-11.4458
▁devokên	-11.4458
▁deye	-11.4458
▁dimeşîne	-11.4458
▁dişînin	-11.4458
▁dêrê	-11.4458
▁fîzîknasekî	-11.4458
▁gewre	-11.4458
▁girîngîya	-11.4458
▁hêrişên	-11.4458
▁inglîzî	-11.4458
▁kelandin	-11.4458
▁kirîn	-11.4458
▁kontrolkirina	-11.4458
▁kuştinê	-11.4458
▁lîmfê	-11.4458
▁mebest	-11.4458
▁opozîsyona	-11.4458
▁pêngaveka	-11.4458
▁pêşnîyar	-11.4458
▁qonaxeka	-11.4458
▁sazişê	-11.4458
▁sîstemê	-11.4458
▁x2013	-11.4458
▁xweyî	-11.4458
▁çolê	-11.4458
▁çîyayê	-11.4458
▁19ê	-11.4565
▁92	-11.4565
▁Ahmedînejad	-11.4565
▁Arî	-11.4565
▁Doğan	-11.4565
▁HEYE	-11.4565
▁Hindek	-11.4565
▁Ismayîl	-11.4565
▁Lêkolîn	-11.4565
▁Mirina	-11.4565
▁PIŞTÎ	-11.4565
▁PÊŞKÊŞ	-11.4565
▁Rewanê	-11.4565
▁Reşo	-11.4565
▁Rizgariya	-11.4565
▁Wargehên	-11.4565
▁Xaça	-11.4565
▁Xelq	-11.4565
▁Yusuf	-11.4565
▁Zanistvanên	-11.4565
▁Zaza	-11.4565
▁aborîyê	-11.4565
▁adar	-11.4565
▁afirandina	-11.4565
▁akincîbûnê	-11.4565
▁berevajî	-11.4565
▁bicihkirin	-11.4565
▁bijarte	-11.4565
▁bikarin	-11.4565
▁cemawerî	-11.4565
▁cidî	-11.4565
▁derbixe	-11.4565
▁despêka	-11.4565
▁dostên	-11.4565
▁ferz	-11.4565
▁fêkî	-11.4565
▁girtiyên	-11.4565
▁golên	-11.4565
▁gorên	-11.4565
▁kombûneke	-11.4565
▁mamostayên	-11.4565
▁nasandina	-11.4565
▁nîşanî	-11.4565
▁rojhilatî	-11.4565
▁serkeftinê	-11.4565
▁temaşe	-11.4565
▁texmînî	-11.4565
▁werzişê	-11.4565
▁wêranşarê	-11.4565
▁zikê	-11.4565
▁ÇARESERKIRINA	-11.4565
▁çimkî	-11.4565
▁1882	-11.4673
▁27ê	-11.4673
▁6ê	-11.4673
▁APWebsite	-11.4673
▁Asyaya	-11.4673
▁Bayram	-11.4673
▁Cibûrî	-11.4673
▁Dadgehê	-11.4673
▁Diyar	-11.4673
▁Exxon	-11.4673
▁Facebookê	-11.4673
▁Heval	-11.4673
▁Mahmud	-11.4673
▁Rusiya	-11.4673
▁Sera	-11.4673
▁Tîpên	-11.4673
▁Yenîşehîrê	-11.4673
▁Yildirim	-11.4673
▁banê	-11.4673
▁bikêr	-11.4673
▁bistînin	-11.4673
▁danîne	-11.4673
▁dayîna	-11.4673
▁derkete	-11.4673
▁desthilatdariyê	-11.4673
▁dive	-11.4673
▁diyarî	-11.4673
▁fermandeyê	-11.4673
▁gerîlayên	-11.4673
▁giravê	-11.4673
▁goreyê	-11.4673
▁gur	-11.4673
▁heftiya	-11.4673
▁hestê	-11.4673
▁hevpeyvîneke	-11.4673
▁hevpişkên	-11.4673
▁jûra	-11.4673
▁komelgehê	-11.4673
▁konsûlxaneya	-11.4673
▁kulîlkdar	-11.4673
▁kîmya	-11.4673
▁muhrkirina	-11.4673
▁pejirandina	-11.4673
▁rapora	-11.4673
▁serrastkirina	-11.4673
▁siyasetên	-11.4673
▁sêdaredanê	-11.4673
▁sîyan	-11.4673
▁tixûbê	-11.4673
▁werine	-11.4673
▁xiste	-11.4673
▁xûya	-11.4673
▁îradeya	-11.4673
▁Şengalê	-11.4673
▁şiyan	-11.4673
▁)==	-11.4782
▁1991ê	-11.4782
▁4ê	-11.4782
▁96	-11.4782
▁Ajansên	-11.4782
▁Avhewa	-11.4782
▁BARÊN	-11.4782
▁Bozarslan	-11.4782
▁Brazîl	-11.4782
▁Bîzansê	-11.4782
▁Cefer	-11.4782
▁DERVE	-11.4782
▁Dar	-11.4782
▁Ebdulhadî	-11.4782
▁Fizîknas	-11.4782
▁Gur	-11.4782
▁Ho	-11.4782
▁Holenda	-11.4782
▁Komarê	-11.4782
▁Mi	-11.4782
▁Midyada	-11.4782
▁Naveroka	-11.4782
▁Official	-11.4782
▁Petrayus	-11.4782
▁Pêş	-11.4782
▁Q	-11.4782
▁Rafi	-11.4782
▁Sersinkê	-11.4782
▁Surya	-11.4782
▁UNAMI	-11.4782
▁Werger	-11.4782
▁White	-11.4782
▁Xîzanê	-11.4782
▁Ye	-11.4782
▁apê	-11.4782
▁bazirganîyên	-11.4782
▁beyanameyekî	-11.4782
▁coga	-11.4782
▁derew	-11.4782
▁evana	-11.4782
▁ferheng	-11.4782
▁hiştiye	-11.4782
▁karkirina	-11.4782
▁kel	-11.4782
▁kirdarê	-11.4782
▁lîstikên	-11.4782
▁mezinahiya	-11.4782
▁nehatin	-11.4782
▁nişkê	-11.4782
▁pergalên	-11.4782
▁pesna	-11.4782
▁qonaxê	-11.4782
▁rastîya	-11.4782
▁stekan	-11.4782
▁tîrmeh	-11.4782
▁vexwarinên	-11.4782
▁xakên	-11.4782
▁xweda	-11.4782
▁yekemê	-11.4782
▁Çima	-11.4782
▁Êrîvanê	-11.4782
▁--	-11.4893
▁2005an	-11.4893
▁5em	-11.4893
▁America	-11.4893
▁Beşîkçî	-11.4893
▁Cîhana	-11.4893
▁Doskî	-11.4893
▁Dîdevan	-11.4893
▁Facebook	-11.4893
▁Hê	-11.4893
▁Institute	-11.4893
▁January	-11.4893
▁Mîna	-11.4893
▁Nexweşiyên	-11.4893
▁Parlamentoya	-11.4893
▁Rimond	-11.4893
▁Royal	-11.4893
▁Sar	-11.4893
▁Ta	-11.4893
▁Waşington	-11.4893
▁Zend	-11.4893
▁ayeta	-11.4893
▁bajêrvanîyê	-11.4893
▁berev	-11.4893
▁bûnê	-11.4893
▁can	-11.4893
▁destxistina	-11.4893
▁emro	-11.4893
▁fîlozof	-11.4893
▁gazên	-11.4893
▁girtîye	-11.4893
▁guftûgoyan	-11.4893
▁gul	-11.4893
▁ha	-11.4893
▁hembera	-11.4893
▁hizra	-11.4893
▁katî	-11.4893
▁kiribe	-11.4893
▁kîlometran	-11.4893
▁lîseyê	-11.4893
▁meclîsê	-11.4893
▁mehekê	-11.4893
▁mêvanê	-11.4893
▁pakij	-11.4893
▁pirsgirêkan	-11.4893
▁pişikan	-11.4893
▁romanî	-11.4893
▁serbajarê	-11.4893
▁taybetiyên	-11.4893
▁vekin	-11.4893
▁xweztiye	-11.4893
▁xêrhatina	-11.4893
▁yekbûyî	-11.4893
▁zanî	-11.4893
▁çil	-11.4893
▁28ê	-11.5004
▁3ê	-11.5004
▁9ê	-11.5004
▁ALMANIYA	-11.5004
▁Apple	-11.5004
▁Debara	-11.5004
▁Erdnîgariya	-11.5004
▁Kempa	-11.5004
▁Koçer	-11.5004
▁Marie	-11.5004
▁Mosko	-11.5004
▁Moskowê	-11.5004
▁Nayê	-11.5004
▁Post	-11.5004
▁Romanya	-11.5004
▁Rusya	-11.5004
▁Rûsan	-11.5004
▁Salên	-11.5004
▁Xwendina	-11.5004
▁Zengî	-11.5004
▁anîbû	-11.5004
▁baweriyên	-11.5004
▁berpirsîya	-11.5004
▁bihêztir	-11.5004
▁bikarhanîn	-11.5004
▁bikuje	-11.5004
▁bombeyên	-11.5004
▁cîbicîkirina	-11.5004
▁daxuyaniyeke	-11.5004
▁den	-11.5004
▁dewleteka	-11.5004
▁diguhere	-11.5004
▁dîdareka	-11.5004
▁evînê	-11.5004
▁heftîya	-11.5004
▁htm	-11.5004
▁kalên	-11.5004
▁kesayetiya	-11.5004
▁lidar	-11.5004
▁miriye	-11.5004
▁mm	-11.5004
▁modela	-11.5004
▁mor	-11.5004
▁navan	-11.5004
▁odeya	-11.5004
▁parvekirin	-11.5004
▁paşve	-11.5004
▁rahînanê	-11.5004
▁serhilda	-11.5004
▁serkevtîyên	-11.5004
▁standard	-11.5004
▁sunî	-11.5004
▁supasîya	-11.5004
▁suriştî	-11.5004
▁topan	-11.5004
▁tv	-11.5004
▁tîrêjên	-11.5004
▁xelatê	-11.5004
▁xurtbûna	-11.5004
▁zimanek	-11.5004
▁çavdêran	-11.5004
▁çep	-11.5004
▁çêkirî	-11.5004
▁Şe	-11.5004
▁111	-11.5117
▁1889	-11.5117
▁25ê	-11.5117
▁2px	-11.5117
▁BIDEN	-11.5117
▁Bernard	-11.5117
▁Cûdî	-11.5117
▁DAWÎ	-11.5117
▁DIRIST	-11.5117
▁Ebdula	-11.5117
▁Farqînî	-11.5117
▁Federasyona	-11.5117
▁Geylanî	-11.5117
▁Heinrich	-11.5117
▁Kopa	-11.5117
▁Lord	-11.5117
▁Mîrektiya	-11.5117
▁Navdewletî	-11.5117
▁Paş	-11.5117
▁Paşayê	-11.5117
▁Qasimlo	-11.5117
▁Sîlvana	-11.5117
▁Uherské	-11.5117
▁Va	-11.5117
▁Zîndana	-11.5117
▁ajansaAswataliraq	-11.5117
▁berfirehkirina	-11.5117
▁bikujin	-11.5117
▁bilêvkirin	-11.5117
▁biqelînin	-11.5117
▁cewherê	-11.5117
▁ci	-11.5117
▁cihûyan	-11.5117
▁davêje	-11.5117
▁daxuyanîyek	-11.5117
▁dîwarên	-11.5117
▁evroja	-11.5117
▁hanîn	-11.5117
▁herfa	-11.5117
▁hokara	-11.5117
▁hêk	-11.5117
▁hêrişa	-11.5117
▁kanî	-11.5117
▁keda	-11.5117
▁kengî	-11.5117
▁kerema	-11.5117
▁komîta	-11.5117
▁lîstikvanê	-11.5117
▁lı	-11.5117
▁malbatan	-11.5117
▁mêj	-11.5117
▁nexweşîyên	-11.5117
▁nîşandana	-11.5117
▁parliyamentarên	-11.5117
▁parliyamenteran	-11.5117
▁perwerdehiyê	-11.5117
▁peymanên	-11.5117
▁peyvek	-11.5117
▁pilandanînê	-11.5117
▁pêdivêyên	-11.5117
▁rojnameyeke	-11.5117
▁serdemên	-11.5117
▁serketî	-11.5117
▁tayê	-11.5117
▁ÇEKDARÊN	-11.5117
▁Îslamiya	-11.5117
▁înkar	-11.5117
▁Şerefnameyê	-11.5117
▁Şîe	-11.5117
▁şaredariyê	-11.5117
▁şermezarkirina	-11.5117
▁112	-11.5232
▁2009an	-11.5232
▁29ê	-11.5232
▁Akreyî	-11.5232
▁Albûmên	-11.5232
▁Atomî	-11.5232
▁BÛŞ	-11.5232
▁Cure	-11.5232
▁DEP	-11.5232
▁Demîrbaş	-11.5232
▁Einstein	-11.5232
▁Element	-11.5232
▁Go	-11.5232
▁Hem	-11.5232
▁Hemze	-11.5232
▁Hradiště	-11.5232
▁Hüseyin	-11.5232
▁Kesk	-11.5232
▁Kilîsê	-11.5232
▁Lokman	-11.5232
▁Mehsertê	-11.5232
▁Nacî	-11.5232
▁Norwêcê	-11.5232
▁Nymphaea	-11.5232
▁One	-11.5232
▁Qurana	-11.5232
▁Rêveberê	-11.5232
▁Silopiya	-11.5232
▁Sîdekan	-11.5232
▁Sînan	-11.5232
▁Tayîp	-11.5232
▁Tewafuqê	-11.5232
▁USA	-11.5232
▁arvan	-11.5232
▁awareyên	-11.5232
▁birrîn	-11.5232
▁bêhna	-11.5232
▁delal	-11.5232
▁dîdaran	-11.5232
▁federedewleta	-11.5232
▁guneha	-11.5232
▁herêmek	-11.5232
▁hevûdu	-11.5232
▁hişê	-11.5232
▁hûrkirî	-11.5232
▁jiyaneke	-11.5232
▁kombesta	-11.5232
▁kurmanciya	-11.5232
▁pasdarên	-11.5232
▁pişikdarî	-11.5232
▁polîtîkaya	-11.5232
▁rizgarkirina	-11.5232
▁serexweşîyê	-11.5232
▁serokayetiya	-11.5232
▁tawanê	-11.5232
▁tevlihev	-11.5232
▁teybet	-11.5232
▁wêneyekê	-11.5232
▁xanim	-11.5232
▁yekîneyên	-11.5232
▁zarokekî	-11.5232
▁zilm	-11.5232
▁Îlaf	-11.5232
▁Şiwan	-11.5232
▁şahî	-11.5232
▁şaristanî	-11.5232
▁şêweyekê	-11.5232
▁)=====	-11.5347
▁1978an	-11.5347
▁2013an	-11.5347
▁24ê	-11.5347
▁50px	-11.5347
▁550	-11.5347
▁93	-11.5347
▁94	-11.5347
▁Alexander	-11.5347
▁Amnesty	-11.5347
▁Bahoz	-11.5347
▁Benth	-11.5347
▁Berbilavî	-11.5347
▁Camp	-11.5347
▁Destana	-11.5347
▁Dilê	-11.5347
▁Ernst	-11.5347
▁Girtina	-11.5347
▁Kelê	-11.5347
▁Komarên	-11.5347
▁Microsoft	-11.5347
▁Moqteda	-11.5347
▁Nebez	-11.5347
▁Partisi	-11.5347
▁PÊŞ	-11.5347
▁Qoretûya	-11.5347
▁Yewnanistanê	-11.5347
▁bandorên	-11.5347
▁berdewama	-11.5347
▁berdewamin	-11.5347
▁derxistiye	-11.5347
▁fikrên	-11.5347
▁firrokeyan	-11.5347
▁gaz	-11.5347
▁hatinê	-11.5347
▁hêjayî	-11.5347
▁jiyane	-11.5347
▁lyga	-11.5347
▁nabînin	-11.5347
▁polîtîkayên	-11.5347
▁radyoyê	-11.5347
▁ragirtin	-11.5347
▁reftar	-11.5347
▁rûpelan	-11.5347
▁seksî	-11.5347
▁stiratejîk	-11.5347
▁stranê	-11.5347
▁taxeke	-11.5347
▁xalê	-11.5347
▁xera	-11.5347
▁Êzdîyan	-11.5347
▁Îsota	-11.5347
▁1897	-11.5464
▁1899	-11.5464
▁2019an	-11.5464
▁Aktorên	-11.5464
▁Ben	-11.5464
▁Bikin	-11.5464
▁Deriyê	-11.5464
▁Dostoyevskî	-11.5464
▁Gever	-11.5464
▁Giran	-11.5464
▁HINEK	-11.5464
▁Ha	-11.5464
▁Hafiz	-11.5464
▁Hey	-11.5464
▁MV	-11.5464
▁Malbatên	-11.5464
▁Pasdaran	-11.5464
▁RISWA	-11.5464
▁RÊXISTINA	-11.5464
▁South	-11.5464
▁Televîzyona	-11.5464
▁Xarpêtê	-11.5464
▁Zal	-11.5464
▁aciz	-11.5464
▁aramîyê	-11.5464
▁artêş	-11.5464
▁awa	-11.5464
▁başurê	-11.5464
▁berheman	-11.5464
▁bît	-11.5464
▁ca	-11.5464
▁care	-11.5464
▁deqe	-11.5464
▁devrên	-11.5464
▁dewletek	-11.5464
▁diyalog	-11.5464
▁dîdarekî	-11.5464
▁efser	-11.5464
▁efserekî	-11.5464
▁ezê	-11.5464
▁eşîran	-11.5464
▁filmên	-11.5464
▁gaveke	-11.5464
▁gemîya	-11.5464
▁heftê	-11.5464
▁hejmartina	-11.5464
▁hewla	-11.5464
▁hikûmeteke	-11.5464
▁hoza	-11.5464
▁jinek	-11.5464
▁kesana	-11.5464
▁komkirin	-11.5464
▁kurtasî	-11.5464
▁lew	-11.5464
▁lêbelê	-11.5464
▁lêgerîn	-11.5464
▁matematîk	-11.5464
▁mekanizma	-11.5464
▁miha	-11.5464
▁muhir	-11.5464
▁nehate	-11.5464
▁nemane	-11.5464
▁peyamek	-11.5464
▁piştgiriyê	-11.5464
▁rabin	-11.5464
▁rûbûna	-11.5464
▁siza	-11.5464
▁terorîstîya	-11.5464
▁xebatkarên	-11.5464
▁xema	-11.5464
▁zaroktiya	-11.5464
▁ziyanek	-11.5464
▁çaverêyî	-11.5464
▁êvara	-11.5464
▁Şanoya	-11.5464
▁şexsî	-11.5464
▁750	-11.5583
▁Bawer	-11.5583
▁Behdînan	-11.5583
▁Bolanî	-11.5583
▁Bush	-11.5583
▁Dûv	-11.5583
▁Emru	-11.5583
▁Eşkê	-11.5583
▁HPG	-11.5583
▁Kirmaşanê	-11.5583
▁Kurdiya	-11.5583
▁Maf	-11.5583
▁Massachusetts	-11.5583
▁Nîvgirava	-11.5583
▁Nûdem	-11.5583
▁Polîsê	-11.5583
▁Rizgarî	-11.5583
▁Salim	-11.5583
▁Street	-11.5583
▁WÊ	-11.5583
▁Xelîlê	-11.5583
▁Xudan	-11.5583
▁]]	-11.5583
▁afrînê	-11.5583
▁ajansî	-11.5583
▁astengên	-11.5583
▁bela	-11.5583
▁bendava	-11.5583
▁bidestxistin	-11.5583
▁cemawerê	-11.5583
▁demdirêj	-11.5583
▁dengekî	-11.5583
▁derên	-11.5583
▁destwerdana	-11.5583
▁dijiya	-11.5583
▁dilhêsayî	-11.5583
▁elektronîk	-11.5583
▁esas	-11.5583
▁giriftan	-11.5583
▁havêjtin	-11.5583
▁heyv	-11.5583
▁hozan	-11.5583
▁kehrebaya	-11.5583
▁ketibû	-11.5583
▁komarî	-11.5583
▁komî	-11.5583
▁mabû	-11.5583
▁medenî	-11.5583
▁nameyeka	-11.5583
▁navekî	-11.5583
▁nek	-11.5583
▁nekeve	-11.5583
▁nîvgirava	-11.5583
▁propagandayên	-11.5583
▁qetilkirin	-11.5583
▁ragihandîye	-11.5583
▁rijêma	-11.5583
▁rêkevtineka	-11.5583
▁teqandinê	-11.5583
▁teror	-11.5583
▁xweza	-11.5583
▁zanyarê	-11.5583
▁zemînlerzê	-11.5583
▁zewacê	-11.5583
▁ÇARESER	-11.5583
▁ÎRAN	-11.5583
▁çileya	-11.5583
▁çiyan	-11.5583
▁çiyayan	-11.5583
▁1892	-11.5702
▁Aydogan	-11.5702
▁Bendava	-11.5702
▁BÊTIRÎ	-11.5702
▁Cezayê	-11.5702
▁DADGEHA	-11.5702
▁Dêrik	-11.5702
▁Gula	-11.5702
▁Hekîm	-11.5702
▁Hevpeymaniya	-11.5702
▁Islamê	-11.5702
▁Kerboran	-11.5702
▁Koşka	-11.5702
▁Krîstyanên	-11.5702
▁Leşkerê	-11.5702
▁MUHR	-11.5702
▁Makkeyn	-11.5702
▁Mehemed	-11.5702
▁Menûçêhr	-11.5702
▁Music	-11.5702
▁Muweffeq	-11.5702
▁Necmedîn	-11.5702
▁Nehrî	-11.5702
▁PDF	-11.5702
▁Pasîfîk	-11.5702
▁Projeya	-11.5702
▁Qayide	-11.5702
▁Qendîlê	-11.5702
▁ROJ	-11.5702
▁Sorex	-11.5702
▁Tewafuq	-11.5702
▁Tolhildanê	-11.5702
▁VEKIRIN	-11.5702
▁ajansê	-11.5702
▁aramîya	-11.5702
▁avrêla	-11.5702
▁balyozên	-11.5702
▁bayê	-11.5702
▁behsê	-11.5702
▁berpirsiyariya	-11.5702
▁bihêne	-11.5702
▁binçav	-11.5702
▁biryarekê	-11.5702
▁civate	-11.5702
▁cûreyên	-11.5702
▁dayikbûna	-11.5702
▁dayîka	-11.5702
▁despêkê	-11.5702
▁dibînim	-11.5702
▁dîdarên	-11.5702
▁ewlehî	-11.5702
▁gefan	-11.5702
▁germahiya	-11.5702
▁goristana	-11.5702
▁helbestvanên	-11.5702
▁hena	-11.5702
▁hukumeta	-11.5702
▁hunermendekî	-11.5702
▁hûrî	-11.5702
▁karkirên	-11.5702
▁kesane	-11.5702
▁komelgeha	-11.5702
▁kongire	-11.5702
▁navçeyek	-11.5702
▁nexweşîyê	-11.5702
▁nivîsê	-11.5702
▁profesorê	-11.5702
▁profesyonel	-11.5702
▁pêkhateya	-11.5702
▁pêla	-11.5702
▁rabigihîne	-11.5702
▁rez	-11.5702
▁roketan	-11.5702
▁stekana	-11.5702
▁sêdaredan	-11.5702
▁tevlîhev	-11.5702
▁têkoşînê	-11.5702
▁xizmên	-11.5702
▁xortên	-11.5702
▁zehf	-11.5702
▁Îlam	-11.5702
▁çêtir	-11.5702
▁Şeş	-11.5702
▁170	-11.5824
▁1999an	-11.5824
▁BIRYARA	-11.5824
▁Bernama	-11.5824
▁Build	-11.5824
▁Festival	-11.5824
▁Gelî	-11.5824
▁HUSEYN	-11.5824
▁Helebce	-11.5824
▁Hesîçeyê	-11.5824
▁Hezîranê	-11.5824
▁History	-11.5824
▁Hong	-11.5824
▁Hook	-11.5824
▁Istanbulê	-11.5824
▁KEVT	-11.5824
▁Kovar	-11.5824
▁Kurdîstanê	-11.5824
▁Kurtenav	-11.5824
▁Meryem	-11.5824
▁Mirgewer	-11.5824
▁PAŞ	-11.5824
▁Pirsgirêka	-11.5824
▁Rojavayî	-11.5824
▁Sirşîw	-11.5824
▁Star	-11.5824
▁Suriye	-11.5824
▁Weznêê	-11.5824
▁Zamenhof	-11.5824
▁Zinar	-11.5824
▁agirbesta	-11.5824
▁berz	-11.5824
▁beşdarîkirin	-11.5824
▁bilindkirina	-11.5824
▁bingeheka	-11.5824
▁biçûktir	-11.5824
▁civîn	-11.5824
▁civînên	-11.5824
▁derbaskirina	-11.5824
▁dirûst	-11.5824
▁erdheja	-11.5824
▁fam	-11.5824
▁geşbûna	-11.5824
▁golê	-11.5824
▁gotî	-11.5824
▁gotûbêjan	-11.5824
▁gundiyên	-11.5824
▁hêsantir	-11.5824
▁jêrê	-11.5824
▁karînên	-11.5824
▁kilamên	-11.5824
▁konsûlê	-11.5824
▁lt	-11.5824
▁mayîn	-11.5824
▁nepenî	-11.5824
▁nine	-11.5824
▁peqînê	-11.5824
▁ronahiyê	-11.5824
▁rûmeta	-11.5824
▁rûxandin	-11.5824
▁sere	-11.5824
▁serkeftin	-11.5824
▁sibata	-11.5824
▁sînoran	-11.5824
▁terorîstekî	-11.5824
▁têbînî	-11.5824
▁xanîyên	-11.5824
▁xetabar	-11.5824
▁xirokên	-11.5824
▁Çewlîg	-11.5824
▁Çîçek	-11.5824
▁Îmarat	-11.5824
▁çekê	-11.5824
▁êşkence	-11.5824
▁îdamê	-11.5824
▁1885	-11.5946
▁1979an	-11.5946
▁Av	-11.5946
▁BESRA	-11.5946
▁BILIND	-11.5946
▁Bateyî	-11.5946
▁ENCAMDAN	-11.5946
▁Ehmedî	-11.5946
▁Elezîzê	-11.5946
▁English	-11.5946
▁Erselan	-11.5946
▁Evdal	-11.5946
▁Fettah	-11.5946
▁Gevera	-11.5946
▁Istanbul	-11.5946
▁KONGIREYA	-11.5946
▁Kaiser	-11.5946
▁Lozanê	-11.5946
▁Marx	-11.5946
▁Masî	-11.5946
▁Ohio	-11.5946
▁Opera	-11.5946
▁Orşelîmê	-11.5946
▁PETROLA	-11.5946
▁Qeredaxî	-11.5946
▁Raporta	-11.5946
▁Ryan	-11.5946
▁Rûsîya	-11.5946
▁Strana	-11.5946
▁SÛRIYA	-11.5946
▁SÛRÎYA	-11.5946
▁Türk	-11.5946
▁Wikileaks	-11.5946
▁Xelatê	-11.5946
▁Yeni	-11.5946
▁Yûsiv	-11.5946
▁Zîrek	-11.5946
▁avahiyê	-11.5946
▁behskirin	-11.5946
▁bergirî	-11.5946
▁birinc	-11.5946
▁biser	-11.5946
▁ceh	-11.5946
▁cilên	-11.5946
▁dadwer	-11.5946
▁damezrand	-11.5946
▁derûdora	-11.5946
▁devok	-11.5946
▁dêr	-11.5946
▁dîmenên	-11.5946
▁dîyye	-11.5946
▁dûgela	-11.5946
▁hefteyên	-11.5946
▁heftiyê	-11.5946
▁hejar	-11.5946
▁hînî	-11.5946
▁ir	-11.5946
▁kadroyên	-11.5946
▁koçberên	-11.5946
▁malperra	-11.5946
▁maweyê	-11.5946
▁mayinek	-11.5946
▁mîtolojiya	-11.5946
▁neyên	-11.5946
▁nêzîkbûna	-11.5946
▁qedeha	-11.5946
▁sade	-11.5946
▁sazîyên	-11.5946
▁sedsalên	-11.5946
▁tekesta	-11.5946
▁topbarankirin	-11.5946
▁wextî	-11.5946
▁wizeyê	-11.5946
▁xanîyan	-11.5946
▁xizmetê	-11.5946
▁zanyarên	-11.5946
▁Çavdêrên	-11.5946
▁çapê	-11.5946
▁çemên	-11.5946
▁Şoreşger	-11.5946
▁,"	-11.607
▁.),	-11.607
▁1994an	-11.607
▁26ê	-11.607
▁:"	-11.607
▁?)	-11.607
▁Amir	-11.607
▁Anatoliyayê	-11.607
▁Anatolyayê	-11.607
▁Bilindahiya	-11.607
▁Bingehîn	-11.607
▁Elheyat	-11.607
▁Fizîk	-11.607
▁Francis	-11.607
▁Germyan	-11.607
▁Hemed	-11.607
▁Hemo	-11.607
▁Iranê	-11.607
▁KONSULÊ	-11.607
▁Keleha	-11.607
▁Komelgeh	-11.607
▁Kompanyaya	-11.607
▁Krîstyanan	-11.607
▁Musilê	-11.607
▁Norwêc	-11.607
▁PDKê	-11.607
▁Parka	-11.607
▁Pezmijoka	-11.607
▁Psîkolojî	-11.607
▁PÊNC	-11.607
▁Radiyoya	-11.607
▁SI	-11.607
▁Sersinka	-11.607
▁Sunne	-11.607
▁Tom	-11.607
▁Tîrmeha	-11.607
▁bidine	-11.607
▁bizavkar	-11.607
▁civiya	-11.607
▁cîhanîya	-11.607
▁cîranê	-11.607
▁dabirrayîyên	-11.607
▁didomînin	-11.607
▁dijatîya	-11.607
▁ditirsin	-11.607
▁es	-11.607
▁estimate	-11.607
▁fermandarên	-11.607
▁girtibû	-11.607
▁guherandina	-11.607
▁herkes	-11.607
▁hewalî	-11.607
▁hezîrana	-11.607
▁karibin	-11.607
▁kiryara	-11.607
▁koman	-11.607
▁muddeta	-11.607
▁nakokiyên	-11.607
▁otonom	-11.607
▁pirojeyên	-11.607
▁post	-11.607
▁ragiahndiye	-11.607
▁serokkomar	-11.607
▁tekezkirin	-11.607
▁tenik	-11.607
▁têkoşîn	-11.607
▁veqetandin	-11.607
▁welatîyên	-11.607
▁zanyar	-11.607
▁zanînên	-11.607
▁zîyanên	-11.607
▁Çalakvanên	-11.607
▁له	-11.607
▁13ê	-11.6196
▁Alîyên	-11.6196
▁Baskî	-11.6196
▁Bayê	-11.6196
▁Bill	-11.6196
▁Dost	-11.6196
▁Dîyar	-11.6196
▁ENCAMÊN	-11.6196
▁Efrînî	-11.6196
▁Elsebah	-11.6196
▁Ewropaya	-11.6196
▁FERMÎ	-11.6196
▁Fetah	-11.6196
▁Francisco	-11.6196
▁Giyadînê	-11.6196
▁HELEBÇE	-11.6196
▁Hevseroka	-11.6196
▁Ligel	-11.6196
▁Mahmut	-11.6196
▁Navxweyî	-11.6196
▁Nûçe	-11.6196
▁Of	-11.6196
▁Pehlewî	-11.6196
▁Racî	-11.6196
▁Rastî	-11.6196
▁Raymond	-11.6196
▁Sabir	-11.6196
▁Suleyman	-11.6196
▁TENÊ	-11.6196
▁Têhranê	-11.6196
▁WEK	-11.6196
▁Wolfgang	-11.6196
▁Xinûsa	-11.6196
▁Zanîngeh	-11.6196
▁Zêde	-11.6196
▁axavtina	-11.6196
▁beheşta	-11.6196
▁birayane	-11.6196
▁birêvebirin	-11.6196
▁birîndarkirin	-11.6196
▁bixwin	-11.6196
▁ceng	-11.6196
▁daxuyakirin	-11.6196
▁debara	-11.6196
▁diyare	-11.6196
▁ewey	-11.6196
▁ewlekarîya	-11.6196
▁folklorî	-11.6196
▁gelawêja	-11.6196
▁gendelî	-11.6196
▁gerîla	-11.6196
▁gerîlla	-11.6196
▁gotîye	-11.6196
▁hesabê	-11.6196
▁hevalbendên	-11.6196
▁hêminî	-11.6196
▁jêderek	-11.6196
▁kela	-11.6196
▁kompaniyayên	-11.6196
▁madeyê	-11.6196
▁nakeve	-11.6196
▁navendeke	-11.6196
▁nîsk	-11.6196
▁otombîlên	-11.6196
▁parçeyek	-11.6196
▁perçeyên	-11.6196
▁piştîvanîya	-11.6196
▁pola	-11.6196
▁qat	-11.6196
▁qismî	-11.6196
▁rêzgirtin	-11.6196
▁rûmet	-11.6196
▁sirûştî	-11.6196
▁sûreya	-11.6196
▁tendiristî	-11.6196
▁tinê	-11.6196
▁tiştekê	-11.6196
▁xwedîyên	-11.6196
▁zarokek	-11.6196
▁Êzîdiyan	-11.6196
▁çawan	-11.6196
▁Şano	-11.6196
▁şadîmana	-11.6196
▁ن	-11.6196
▁)"	-11.6324
▁)-	-11.6324
▁Albuma	-11.6324
▁BIHÎNE	-11.6324
▁Babacan	-11.6324
▁Bajêr	-11.6324
▁Berxwedana	-11.6324
▁Bozyel	-11.6324
▁Danîmarka	-11.6324
▁Dawid	-11.6324
▁Denîz	-11.6324
▁Deverên	-11.6324
▁Direfş	-11.6324
▁Dîyale	-11.6324
▁Ebdulletîf	-11.6324
▁Fazil	-11.6324
▁Flavius	-11.6324
▁Gelawêj	-11.6324
▁Gurgumê	-11.6324
▁Hemedan	-11.6324
▁JOSEF	-11.6324
▁Kamil	-11.6324
▁Kanadayî	-11.6324
▁Kuweyt	-11.6324
▁MAFÊN	-11.6324
▁Mîrza	-11.6324
▁NIRXÊ	-11.6324
▁Qesrê	-11.6324
▁Teqîna	-11.6324
▁Türkiye	-11.6324
▁Vladîmîr	-11.6324
▁Yavuz	-11.6324
▁Yayınları	-11.6324
▁all	-11.6324
▁avedankirinê	-11.6324
▁avêt	-11.6324
▁berevanî	-11.6324
▁berpirsiyarê	-11.6324
▁biguherîne	-11.6324
▁dadgehkirina	-11.6324
▁dengderan	-11.6324
▁dewletî	-11.6324
▁dimê	-11.6324
▁dişibin	-11.6324
▁duqolî	-11.6324
▁fraksiyon	-11.6324
▁fûtbola	-11.6324
▁guncavê	-11.6324
▁helînê	-11.6324
▁herema	-11.6324
▁hewarhatinê	-11.6324
▁heyvan	-11.6324
▁komelgeheke	-11.6324
▁komkujî	-11.6324
▁mar	-11.6324
▁navçê	-11.6324
▁neft	-11.6324
▁neha	-11.6324
▁parêzgeheke	-11.6324
▁peyivî	-11.6324
▁pêncşembîyê	-11.6324
▁radibe	-11.6324
▁sadsale	-11.6324
▁supasalarê	-11.6324
▁sîyasetê	-11.6324
▁tene	-11.6324
▁tevger	-11.6324
▁vegeriyan	-11.6324
▁veguhaztin	-11.6324
▁Çelîk	-11.6324
▁Çemên	-11.6324
▁Îdrîs	-11.6324
▁Îskenderê	-11.6324
▁îbranî	-11.6324
▁îsotê	-11.6324
▁16ê	-11.6453
▁1881	-11.6453
▁1987an	-11.6453
▁450	-11.6453
▁Ajans	-11.6453
▁All	-11.6453
▁Amade	-11.6453
▁Aras	-11.6453
▁Aso	-11.6453
▁Azadiyê	-11.6453
▁Bismil	-11.6453
▁Cizîr	-11.6453
▁EREBÎ	-11.6453
▁Emîne	-11.6453
▁Is	-11.6453
▁Japonya	-11.6453
▁KURDÊN	-11.6453
▁Lêkolînên	-11.6453
▁Meksîkê	-11.6453
▁Mendelî	-11.6453
▁Nexweşxaneya	-11.6453
▁Night	-11.6453
▁Nûçeyên	-11.6453
▁PIRSÊN	-11.6453
▁Piştê	-11.6453
▁Pêşî	-11.6453
▁Rock	-11.6453
▁Rudaw	-11.6453
▁Rêzefîlm	-11.6453
▁Selman	-11.6453
▁Serxwebûn	-11.6453
▁Sirûcê	-11.6453
▁State	-11.6453
▁Sî	-11.6453
▁Veto	-11.6453
▁bavêje	-11.6453
▁bersîva	-11.6453
▁bombeyeke	-11.6453
▁derdixin	-11.6453
▁devî	-11.6453
▁dewlemendiya	-11.6453
▁dijwartir	-11.6453
▁dixwast	-11.6453
▁efserê	-11.6453
▁erdî	-11.6453
▁ferhengî	-11.6453
▁formên	-11.6453
▁geştir	-11.6453
▁gunde	-11.6453
▁hatîn	-11.6453
▁havîna	-11.6453
▁hejmarê	-11.6453
▁hêkan	-11.6453
▁kurdê	-11.6453
▁kuştine	-11.6453
▁lêgerîna	-11.6453
▁mamostetiyê	-11.6453
▁mirovek	-11.6453
▁navber	-11.6453
▁papa	-11.6453
▁pêkanî	-11.6453
▁qebul	-11.6453
▁riwek	-11.6453
▁sivîlên	-11.6453
▁siya	-11.6453
▁sûreyek	-11.6453
▁tawan	-11.6453
▁teslîmî	-11.6453
▁tundûtûjîya	-11.6453
▁tîp	-11.6453
▁xirabtir	-11.6453
▁xizmetkirina	-11.6453
▁zevî	-11.6453
▁zîyan	-11.6453
▁ÇARESERKIRIN	-11.6453
▁çavdêr	-11.6453
▁çêbike	-11.6453
▁çêbikin	-11.6453
▁çûbû	-11.6453
▁Şukur	-11.6453
▁şaxê	-11.6453
▁şileya	-11.6453
▁′′	-11.6453
▁1988an	-11.6583
▁1997an	-11.6583
▁2011an	-11.6583
▁300px	-11.6583
▁Abdulla	-11.6583
▁Alfred	-11.6583
▁Anna	-11.6583
▁Basan	-11.6583
▁Birayên	-11.6583
▁Boston	-11.6583
▁Bûyera	-11.6583
▁Club	-11.6583
▁DÎSAN	-11.6583
▁Enîya	-11.6583
▁Gulê	-11.6583
▁HOŞYAR	-11.6583
▁Hama	-11.6583
▁Hukûmetê	-11.6583
▁Hêj	-11.6583
▁Iris	-11.6583
▁Jacques	-11.6583
▁Karkirên	-11.6583
▁NABE	-11.6583
▁Nexweşî	-11.6583
▁Piranîya	-11.6583
▁TEQÎNA	-11.6583
▁Tekane	-11.6583
▁Xelfetî	-11.6583
▁Zekî	-11.6583
▁arîşeyê	-11.6583
▁bajarokên	-11.6583
▁başur	-11.6583
▁bendê	-11.6583
▁bernivîsa	-11.6583
▁berxwedanê	-11.6583
▁bijîşkiyê	-11.6583
▁buwe	-11.6583
▁ceribandin	-11.6583
▁cê	-11.6583
▁demokratan	-11.6583
▁destwerdanên	-11.6583
▁gihandin	-11.6583
▁gotineke	-11.6583
▁gurcî	-11.6583
▁hevpeymanên	-11.6583
▁ingilîzan	-11.6583
▁kedî	-11.6583
▁konferensa	-11.6583
▁korêyî	-11.6583
▁kujtine	-11.6583
▁lek	-11.6583
▁mehkûm	-11.6583
▁mitîngê	-11.6583
▁nerazîbûnên	-11.6583
▁olan	-11.6583
▁parêzgar	-11.6583
▁pat	-11.6583
▁peyvekê	-11.6583
▁peywendîyê	-11.6583
▁pêkve	-11.6583
▁pêxemberê	-11.6583
▁pêşeng	-11.6583
▁qut	-11.6583
▁rabigihînin	-11.6583
▁radiweste	-11.6583
▁rezbera	-11.6583
▁riwekê	-11.6583
▁roje	-11.6583
▁rolên	-11.6583
▁rêzefîlmê	-11.6583
▁rî	-11.6583
▁rîpel	-11.6583
▁sist	-11.6583
▁sûrî	-11.6583
▁tankan	-11.6583
▁veguheztinê	-11.6583
▁wergerandina	-11.6583
▁xatirê	-11.6583
▁xeber	-11.6583
▁yasaya	-11.6583
▁zarava	-11.6583
▁zemînlerza	-11.6583
▁zextên	-11.6583
▁çûnê	-11.6583
▁ŞEŞ	-11.6583
▁Şîlan	-11.6583
▁şeran	-11.6583
▁1893	-11.6716
▁1895	-11.6716
▁Arma	-11.6716
▁Asayişa	-11.6716
▁Assange	-11.6716
▁Berg	-11.6716
▁CIH	-11.6716
▁Cindî	-11.6716
▁Ciwanan	-11.6716
▁Dayika	-11.6716
▁Demirtaş	-11.6716
▁Dîvrîgiyê	-11.6716
▁Dîyarbekir	-11.6716
▁Elmanyayê	-11.6716
▁Evdalê	-11.6716
