<unk>	0
<s>	0
</s>	0
.	-3.55432
,	-3.61811
▁û	-3.91418
a	-4.07569
ê	-4.18625
▁bi	-4.43399
▁ku	-4.43714
▁li	-4.46065
▁de	-4.46634
▁di	-4.58493
▁ji	-4.6332
î	-4.69221
n	-4.71087
▁	-4.85452
ên	-4.94785
an	-4.98469
▁jî	-5.01843
e	-5.0533
)	-5.19155
▁(	-5.20901
▁==	-5.25928
▁xwe	-5.29502
▁ya	-5.40642
▁ser	-5.47288
▁ye	-5.52622
:	-5.59033
ya	-5.60891
s	-5.62677
▁ve	-5.71796
▁re	-5.72185
▁da	-5.79777
▁e	-5.80357
▁Iraqê	-5.81728
t	-5.8338
▁Di	-5.85257
▁bo	-5.88545
yê	-5.89769
▁a	-5.92942
y	-5.97372
iya	-5.98516
k	-6.00645
▁ew	-6.02633
-	-6.03723
▁Kurdistanê	-6.05931
▁ne	-6.06009
▁kir	-6.06762
▁ber	-6.07183
▁herêma	-6.08412
▁wê	-6.10923
▁evê	-6.13718
r	-6.1425
z	-6.14877
A	-6.22757
m	-6.23225
d	-6.24381
▁kirin	-6.25398
▁–	-6.26159
▁wan	-6.26886
l	-6.27101
▁Li	-6.27466
in	-6.29098
▁tê	-6.30623
▁bû	-6.36789
h	-6.38913
'	-6.41233
▁wî	-6.42005
▁dê	-6.43025
▁ev	-6.4546
ek	-6.45524
▁yên	-6.46527
▁yê	-6.46879
▁-	-6.51589
▁got	-6.53144
▁PNA	-6.53277
▁serokê	-6.54372
ş	-6.55261
de	-6.57154
▁kurdistanê	-6.59665
la	-6.61332
x	-6.63118
yên	-6.63998
ra	-6.64754
▁vê	-6.65448
▁sala	-6.67754
iyê	-6.67967
le	-6.68162
ne	-6.68816
▁A	-6.69589
ma	-6.6976
yan	-6.71301
re	-6.71999
▁hat	-6.72796
kirin	-6.73371
f	-6.73533
i	-6.74218
o	-6.74585
eke	-6.746
▁S	-6.75359
▁dike	-6.76327
▁me	-6.76683
▁her	-6.76833
▁ragihand	-6.77774
▁nav	-6.77906
g	-6.78012
▁|	-6.78241
▁bike	-6.81797
▁Ji	-6.81984
p	-6.8255
▁Bi	-6.82859
▁dest	-6.8339
rî	-6.83716
ekî	-6.84171
yî	-6.84484
îya	-6.85045
b	-6.85885
da	-6.86769
▁kar	-6.87567
di	-6.87859
▁navê	-6.88909
▁din	-6.89025
kirina	-6.89259
▁be	-6.8929
▁Amerîka	-6.89606
E	-6.90792
▁weha	-6.91322
"	-6.91879
▁navbera	-6.93017
u	-6.93641
▁hukûmeta	-6.95018
▁19	-6.97979
v	-6.99266
K	-6.99688
▁kurd	-6.9991
▁yek	-6.99976
▁hatiye	-7.00055
▁bikin	-7.00704
▁*	-7.00776
te	-7.00899
j	-7.0201
bi	-7.02565
▁gelek	-7.03018
c	-7.03492
ta	-7.03523
S	-7.04409
▁Gundên	-7.06317
▁Îranê	-7.06553
▁gundekî	-7.08261
▁===	-7.08282
▁han	-7.09084
▁P	-7.09591
D	-7.10156
▁in	-7.10439
▁K	-7.1076
Ê	-7.10909
▁hêzên	-7.1107
w	-7.11979
iyan	-7.12113
▁lê	-7.12319
ye	-7.12749
man	-7.13091
▁niha	-7.1316
ka	-7.14304
▁Serokê	-7.14467
▁an	-7.18039
;	-7.18298
▁pê	-7.19111
▁Ev	-7.19445
er	-7.19476
▁kes	-7.20092
▁du	-7.20738
▁"	-7.2106
▁hemû	-7.21887
▁bûn	-7.21959
dî	-7.22511
q	-7.22882
▁bê	-7.23418
N	-7.23442
iye	-7.24017
kî	-7.25268
û	-7.25635
▁Çavkanî	-7.25776
▁BER	-7.26028
▁Kurd	-7.26306
ran	-7.26333
▁E	-7.26502
▁mezin	-7.26723
st	-7.26737
▁bajêrê	-7.27226
▁dikin	-7.27373
▁M	-7.27953
▁́	-7.28364
T	-7.28389
rê	-7.28496
▁bin	-7.28955
li	-7.29209
`	-7.29436
▁C	-7.29441
▁bihê	-7.30038
▁El	-7.30624
lî	-7.31333
ve	-7.31681
▁wek	-7.33366
ri	-7.33691
▁hev	-7.34032
P	-7.34119
▁aliyê	-7.34309
▁pêk	-7.34417
ro	-7.34546
▁dibe	-7.34739
▁der	-7.35393
▁çend	-7.35463
▁xuyakirin	-7.35526
za	-7.35533
lo	-7.35616
Î	-7.35781
ber	-7.36348
▁ê	-7.37167
▁navçeya	-7.37261
▁em	-7.37693
dar	-7.38123
▁heta	-7.38246
H	-7.3827
▁nû	-7.38826
în	-7.39047
ALÎKIRIN	-7.39742
be	-7.40389
ke	-7.40706
iyên	-7.41305
us	-7.4193
’	-7.43335
eka	-7.43538
ha	-7.4368
ekê	-7.43742
we	-7.44286
/	-7.4503
▁B	-7.45166
tî	-7.45442
▁piştî	-7.45925
▁bûye	-7.48083
▁dijî	-7.49696
B	-7.49862
▁dema	-7.49974
îyê	-7.50176
▁Ew	-7.50586
sa	-7.50744
▁pêş	-7.50905
il	-7.5094
▁kurdî	-7.51084
C	-7.5133
▁Turkiye	-7.51432
tir	-7.51466
eya	-7.51692
me	-7.5211
▁roja	-7.52295
▁Barzanî	-7.52557
bûna	-7.5296
ger	-7.53292
▁parêzgeha	-7.53857
▁ti	-7.53877
▁hene	-7.56143
▁hatin	-7.56398
▁G	-7.56544
ur	-7.56989
▁T	-7.57254
is	-7.57521
al	-7.57595
▁mirov	-7.57603
...	-7.58002
en	-7.58158
▁hatine	-7.59096
▁angora	-7.5934
▁H	-7.59363
▁bajarê	-7.59876
sî	-7.60046
▁kom	-7.60215
dan	-7.60362
▁dan	-7.60749
or	-7.61107
F	-7.61186
▁zanîn	-7.61235
M	-7.62227
îne	-7.62391
kê	-7.6265
▁ra	-7.62889
▁Ber	-7.62975
van	-7.62995
▁hate	-7.63231
▁rê	-7.6391
▁te	-7.64047
em	-7.65086
▁Û	-7.65329
▁kiriye	-7.65724
▁Ser	-7.65798
kan	-7.65877
▁Her	-7.65982
ba	-7.65987
nî	-7.66283
I	-7.66284
▁W	-7.66355
▁1	-7.6662
he	-7.6725
it	-7.67729
▁çê	-7.6865
▁/	-7.69041
▁2	-7.69115
ter	-7.69175
es	-7.69184
▁O	-7.69342
▁gor	-7.69505
ng	-7.69523
▁gel	-7.69781
im	-7.70065
▁|-	-7.70346
0	-7.70381
▁Re	-7.71218
▁18	-7.71273
ç	-7.71286
▁rewşa	-7.71434
se	-7.71473
ir	-7.71563
der	-7.71641
▁heye	-7.71667
▁wekî	-7.71938
▁nava	-7.72092
ar	-7.7225
▁ên	-7.72876
▁REDIRECT	-7.72899
▁le	-7.73116
os	-7.73888
▁serdana	-7.73915
▁derve	-7.73997
▁lîsta	-7.74019
kir	-7.74057
▁yekê	-7.74732
▁I	-7.74868
▁Me	-7.74876
on	-7.74934
ce	-7.74968
▁3	-7.75262
▁behsa	-7.75416
at	-7.75672
ch	-7.76367
),	-7.7638
zî	-7.76448
▁F	-7.77662
ge	-7.78123
="	-7.78416
ik	-7.78901
▁saz	-7.78908
lê	-7.78954
▁Be	-7.80128
▁herdu	-7.80145
1	-7.80251
ze	-7.80315
▁ko	-7.80433
▁divê	-7.80674
▁Se	-7.80685
▁girêdayî	-7.80721
▁na	-7.81016
AN	-7.81016
um	-7.8131
▁bibe	-7.82056
G	-7.82128
ÊN	-7.82302
el	-7.82455
▁Ne	-7.82544
O	-7.82743
==	-7.83013
îna	-7.8322
▁bareya	-7.83432
▁amade	-7.84788
▁Ma	-7.84956
▁pir	-7.8548
▁||	-7.85495
wa	-7.8568
▁He	-7.85702
▁ewê	-7.85708
▁dibêje	-7.86506
▁Kurdî	-7.86909
▁zimanê	-7.87056
bû	-7.87399
to	-7.87405
wan	-7.88064
▁Hewlêrê	-7.8818
ad	-7.88537
nd	-7.88659
tin	-7.88825
▁4	-7.88917
▁Lê	-7.89211
▁LI	-7.89267
▁Ka	-7.89409
ol	-7.89516
ga	-7.89748
2	-7.89776
▁girtin	-7.90035
▁cih	-7.90686
▁2009/	-7.90949
▁Te	-7.9101
▁X	-7.91545
mê	-7.91638
▁Hewlêr	-7.92205
▁berdewam	-7.92453
ko	-7.92652
ca	-7.92926
▁parliyamenta	-7.92949
▁encûmena	-7.93172
▁encam	-7.9322
▁Ba	-7.93229
ew	-7.93781
▁belê	-7.94022
▁ma	-7.94394
▁birîndar	-7.94644
andin	-7.94758
R	-7.94883
▁siyasî	-7.94951
kar	-7.94955
▁evroj	-7.95381
mar	-7.95445
▁BI	-7.95704
eyên	-7.95797
L	-7.9583
men	-7.95863
lan	-7.95888
▁2008/	-7.9598
bûn	-7.96039
ok	-7.96688
ser	-7.96802
▁weke	-7.96815
▁Ç	-7.9682
▁vî	-7.97184
▁herêmê	-7.97193
Z	-7.97206
zan	-7.97433
tê	-7.97787
▁Malikî	-7.97975
▁we	-7.9801
▁Piştî	-7.98043
▁kurdan	-7.98543
▁taybetî	-7.98583
▁herî	-7.98774
Ş	-7.99012
▁si	-7.99123
▁5	-7.99153
▁berê	-7.99167
▁bareyê	-7.99256
mî	-7.99408
▁ziman	-7.99581
▁ke	-7.9981
▁ba	-7.99811
▁2010/	-7.99911
▁sê	-8.0046
▁Z	-8.00526
va	-8.008
▁“	-8.00905
▁şer	-8.0117
▁nîşandan	-8.01258
▁De	-8.01288
ı	-8.01611
▁evan	-8.01854
▁La	-8.01945
▁van	-8.01953
îyên	-8.02211
▁alîyê	-8.02264
▁Le	-8.02687
▁Al	-8.03099
▁Bo	-8.03209
▁D	-8.03333
▁daxwaz	-8.03374
go	-8.03661
▁tenê	-8.04179
▁biryar	-8.04441
bar	-8.04772
▁dibêjin	-8.04918
▁(19	-8.05065
▁Ra	-8.05348
▁gund	-8.05449
ûr	-8.05522
do	-8.06219
▁wezîrê	-8.06247
▁Sa	-8.06377
▁Ş	-8.06383
ci	-8.06397
▁tên	-8.06443
▁demê	-8.06754
▁jê	-8.06888
▁hin	-8.07501
ü	-8.07929
war	-8.08
çe	-8.08241
▁peywendîyên	-8.08253
▁rû	-8.09087
▁dawî	-8.09126
▁R	-8.09456
şt	-8.09724
ni	-8.10161
▁gotin	-8.10184
▁fermî	-8.10242
▁ta	-8.10252
▁bilind	-8.10574
ul	-8.10579
▁7	-8.11372
geh	-8.11718
▁Ko	-8.11747
îye	-8.12344
PNA	-8.12479
bê	-8.12499
▁îro	-8.1254
je	-8.12794
▁gelê	-8.12934
▁Î	-8.13158
înin	-8.13172
▁kuştin	-8.13267
▁N	-8.13313
pa	-8.13436
▁belav	-8.1367
▁Si	-8.13712
jî	-8.13721
▁serokatîya	-8.13843
nas	-8.1398
20	-8.1401
▁baş	-8.14023
din	-8.14299
yar	-8.14392
▁kirine	-8.14561
▁Ta	-8.14589
▁dide	-8.14604
▁10	-8.14993
▁min	-8.15157
mer	-8.15213
▁se	-8.15622
▁bihên	-8.15702
eyê	-8.1582
vî	-8.15866
ti	-8.15877
▁Şêx	-8.15916
▁kesên	-8.15962
▁wezareta	-8.15991
▁Ro	-8.16195
▁ava	-8.16382
▁roj	-8.16534
▁6	-8.16696
▁çi	-8.16928
▁Ha	-8.17017
▁Mesûd	-8.17034
▁par	-8.17515
▁12	-8.17834
▁yan	-8.17882
▁Ar	-8.18084
▁hinek	-8.1826
▁Herêma	-8.18374
si	-8.18519
ûn	-8.18529
▁ewan	-8.18581
rîn	-8.1873
▁Na	-8.1918
no	-8.19193
dê	-8.19218
▁Sûrîyê	-8.19506
▁gundê	-8.1953
şe	-8.19531
▁kû	-8.19685
îk	-8.2007
W	-8.20074
ker	-8.20866
▁kujtin	-8.20993
per	-8.21244
▁Dr	-8.21409
gi	-8.2146
▁Amedê	-8.21714
▁Elî	-8.21745
gir	-8.2245
▁giştî	-8.22681
vê	-8.22725
▁sal	-8.22812
▁Kerkûkê	-8.2294
▁pirsa	-8.22945
▁zêde	-8.22955
bî	-8.23176
X	-8.23199
un	-8.23508
dana	-8.23543
and	-8.24166
ll	-8.24208
▁s	-8.24242
tan	-8.2434
▁kêm	-8.24448
pê	-8.24461
mo	-8.24587
▁p	-8.24617
wer	-8.24817
îyan	-8.24986
▁endamên	-8.25233
sê	-8.25237
▁alîyan	-8.25296
cî	-8.25438
ku	-8.25453
▁Mu	-8.25488
id	-8.25774
fa	-8.25847
▁of	-8.25971
▁DE	-8.2613
▁kombûnê	-8.26148
ing	-8.26355
th	-8.2649
é	-8.26526
(	-8.26575
V	-8.26701
kirî	-8.26724
”	-8.26841
san	-8.26922
▁dewleta	-8.27122
▁wezîrên	-8.27255
▁welatên	-8.27285
ey	-8.27761
▁wiha	-8.27777
zê	-8.27993
▁deverên	-8.28067
▁jibo	-8.28266
▁tirk	-8.28334
▁Mi	-8.28689
3	-8.28863
▁Kurdistan	-8.28899
▁Nûrî	-8.28915
▁Baxdadê	-8.2922
▁bibin	-8.29641
▁KURDISTANÊ	-8.29776
|	-8.29779
▁An	-8.29872
ed	-8.30163
▁çar	-8.30235
▁bûne	-8.30687
▁cîhanê	-8.30793
▁JI	-8.30864
▁Iraqî	-8.30864
co	-8.30884
▁Ehmed	-8.31138
▁dî	-8.31267
yek	-8.31472
▁hê	-8.31752
şa	-8.31904
▁Er	-8.32084
▁supayê	-8.32149
▁Da	-8.32256
xa	-8.32299
▁DI	-8.32455
▁kombûna	-8.32795
▁ajansa	-8.32949
▁ka	-8.33319
qa	-8.33388
înê	-8.3342
tiya	-8.33532
▁nêzîkî	-8.33922
şî	-8.34309
xan	-8.34885
îl	-8.34891
▁Y	-8.3502
▁serok	-8.3536
▁11	-8.35467
met	-8.35507
▁c	-8.35594
et	-8.35787
▁15	-8.35812
5	-8.35853
geha	-8.36035
▁m	-8.36142
hî	-8.36339
▁Sûrî	-8.36672
anî	-8.36831
▁Girêdanên	-8.36981
▁î	-8.3703
▁[	-8.37427
▁IRAQÊ	-8.37433
▁Em	-8.37628
4	-8.37639
▁Der	-8.37809
▁dibin	-8.37888
▁komara	-8.37916
▁leşkerî	-8.38205
▁Do	-8.38319
▁L	-8.38433
▁al	-8.38499
▁he	-8.38501
ça	-8.38823
▁**	-8.39325
▁20	-8.39444
▁berî	-8.40037
ste	-8.40055
mi	-8.40439
▁devera	-8.40497
▁gorî	-8.40746
ver	-8.40834
stan	-8.41117
fer	-8.41197
rû	-8.416
wî	-8.41718
▁Pa	-8.41819
lu	-8.41867
▁8	-8.42058
▁HERÊMA	-8.42259
00	-8.42473
as	-8.4289
yo	-8.42918
▁V	-8.4305
▁Mar	-8.43064
▁Wêne	-8.43125
ia	-8.43132
▁alîyên	-8.43173
▁17	-8.43247
dem	-8.43487
▁hem	-8.43492
▁pe	-8.43884
U	-8.43894
ban	-8.43979
han	-8.44037
IN	-8.44253
▁Mo	-8.44386
▁KIR	-8.44417
▁En	-8.44428
stî	-8.44472
fî	-8.4448
▁The	-8.44507
▁yekem	-8.44526
▁9	-8.44896
▁b	-8.44927
êr	-8.45066
îr	-8.45169
hê	-8.45262
▁Îraqê	-8.45449
▁Mûsilê	-8.45559
▁gerek	-8.45786
▁Kar	-8.45787
tor	-8.45903
▁2011/	-8.46195
ho	-8.46243
▁salên	-8.46251
▁Ho	-8.46676
▁dihê	-8.46755
▁Serok	-8.47279
eyî	-8.47632
▁daye	-8.4771
▁Osman	-8.47742
op	-8.47813
▁welat	-8.47906
▁ni	-8.48269
▁daxwaza	-8.48643
ic	-8.48813
▁êdî	-8.48857
qe	-8.49081
J	-8.49265
▁Mehmûd	-8.49539
▁Go	-8.49602
▁giring	-8.49788
=	-8.49803
▁dirêj	-8.50084
▁u	-8.50132
▁taybet	-8.50135
ck	-8.50543
▁rast	-8.50704
▁Par	-8.50835
ina	-8.50965
▁hejmara	-8.51067
am	-8.51147
▁So	-8.51285
▁SEROKÊ	-8.51355
▁redirect	-8.51397
03	-8.51474
▁dîtin	-8.51503
gu	-8.51539
▁Fe	-8.51784
▁PKK	-8.51799
bo	-8.52128
▁16	-8.52222
▁çareser	-8.52884
şk	-8.52954
▁nûçeya	-8.52981
▁kesan	-8.52985
şê	-8.5311
▁qa	-8.53624
▁nîşan	-8.53705
▁evî	-8.53877
▁Qa	-8.54171
ton	-8.5419
▁J	-8.54414
tu	-8.54692
andina	-8.54856
▁Kurdan	-8.55013
ine	-8.55368
▁girîng	-8.55957
▁Ya	-8.56015
▁paş	-8.56043
▁heman	-8.56252
▁şandeya	-8.56309
▁2012/	-8.56443
▁Talebanî	-8.56566
▁Şa	-8.56587
wê	-8.5692
ji	-8.571
îd	-8.57312
ut	-8.5733
▁ez	-8.57561
▁hilbijartinên	-8.57631
▁bajêr	-8.57713
▁bide	-8.58053
▁cuda	-8.58066
▁Ca	-8.58162
▁Obama	-8.58267
▁U	-8.5827
▁heger	-8.58374
xwe	-8.58488
▁cihê	-8.58654
▁o	-8.58707
▁Ce	-8.59077
?	-8.59149
iz	-8.59272
ER	-8.59531
ev	-8.59536
▁diyar	-8.59686
▁Wezîrê	-8.59784
▁go	-8.59888
ot	-8.60169
▁Endamê	-8.60201
ru	-8.60235
▁doh	-8.60495
▁fe	-8.60703
xê	-8.60942
syon	-8.61209
▁rêya	-8.61526
vi	-8.61807
ris	-8.61954
istan	-8.62052
Y	-8.62105
▁Ge	-8.62129
▁nûnerên	-8.62153
▁Ke	-8.62495
▁Ku	-8.62694
▁13	-8.62721
▁mirovan	-8.62738
▁hil	-8.62864
▁pişt	-8.6295
▁jiyana	-8.62996
▁Hem	-8.63024
▁km	-8.63182
▁hilbijartinan	-8.63314
om	-8.63349
xe	-8.63536
den	-8.63556
hil	-8.63564
▁dû	-8.63586
▁derbas	-8.63742
yn	-8.63765
▁Şe	-8.63877
hi	-8.63925
▁Per	-8.64315
pi	-8.64368
▁federal	-8.64391
▁welatê	-8.64392
ayî	-8.64395
▁bajar	-8.64437
▁As	-8.6451
▁RE	-8.64585
AR	-8.64793
▁zarok	-8.64825
zar	-8.64829
ak	-8.64924
▁Amerîkî	-8.65105
▁bikaranîn	-8.65235
▁Muhemmed	-8.65239
▁wir	-8.65314
▁:	-8.65316
▁(),	-8.65382
▁navdar	-8.65474
tîk	-8.65493
pe	-8.65553
▁destê	-8.65578
▁encamdan	-8.65631
lam	-8.657
▁berpirsên	-8.65706
px	-8.65865
ja	-8.66141
▁We	-8.6644
▁hevpeymanîya	-8.66443
▁kerkûkê	-8.66639
▁bidin	-8.66759
▁deng	-8.66898
▁Du	-8.6697
ki	-8.67099
▁dixwazin	-8.67417
yayê	-8.67425
dîn	-8.67645
▁f	-8.67709
▁Qe	-8.67805
▁14	-8.67931
9	-8.68085
▁Hi	-8.68118
▁başûrê	-8.6812
karî	-8.68491
▁Tirkiyeyê	-8.68538
▁Ri	-8.68711
EK	-8.68868
▁dûr	-8.68896
▁layê	-8.68998
▁karê	-8.69149
fe	-8.69316
rin	-8.69349
▁pa	-8.69408
▁Tirk	-8.69433
ö	-8.69515
tal	-8.6954
hat	-8.69542
▁salan	-8.69606
ler	-8.69625
▁xwedî	-8.69625
▁Celal	-8.6974
▁k	-8.69757
hr	-8.69787
nivîs	-8.69856
▁Eliraqîyye	-8.69969
îst	-8.70212
▁z	-8.70462
▁çû	-8.70477
▁bîr	-8.71091
▁Ni	-8.71174
yekî	-8.71287
▁Ze	-8.71386
▁awayekî	-8.7145
▁azad	-8.71481
qî	-8.71522
xane	-8.71738
▁prosesa	-8.71772
▁nivîskar	-8.71863
tina	-8.7187
▁DÊ	-8.7189
▁hêz	-8.72122
eb	-8.72183
ner	-8.72204
▁dem	-8.72213
▁encama	-8.72338
▁pêkanîna	-8.72387
mend	-8.72554
ten	-8.72589
▁nivîs	-8.72817
Mar	-8.72828
▁Salih	-8.72838
▁didin	-8.72863
sta	-8.72869
her	-8.73051
1]	-8.73361
rên	-8.73441
▁tirkî	-8.73556
po	-8.73726
mp	-8.73935
align	-8.7396
lin	-8.74083
▁ho	-8.74122
▁heft	-8.74172
||	-8.74196
▁Lo	-8.74224
xwaz	-8.74322
gen	-8.74467
sen	-8.74645
4]	-8.74694
ÎN	-8.74829
▁nexweş	-8.74981
ud	-8.75121
yeka	-8.75399
6]	-8.75427
▁Şî	-8.75488
2]	-8.75678
3]	-8.75896
19	-8.75928
mir	-8.76114
8]	-8.7612
▁rêz	-8.76243
du	-8.76284
▁Yekbûyî	-8.76384
▁the	-8.76385
jpg	-8.76629
▁ze	-8.7667
▁qanûna	-8.76686
▁tu	-8.76794
gî	-8.7696
gan	-8.77242
5]	-8.77312
lek	-8.77451
▁xelkê	-8.77737
▁caran	-8.77758
▁welatî	-8.77831
▁KU	-8.77985
ret	-8.78003
▁mafên	-8.78104
bûnê	-8.78176
yeke	-8.78199
▁kon	-8.78414
7]	-8.78456
▁alî	-8.78497
0]	-8.78621
▁Berhem	-8.78639
ا	-8.78792
center	-8.78811
dir	-8.78927
9]	-8.78963
kirinê	-8.78993
▁grêdayî	-8.79019
▁meha	-8.79267
▁polîsên	-8.79285
ment	-8.79438
if	-8.79597
Jul	-8.7974
tiyê	-8.80029
eta	-8.8007
▁çendê	-8.80322
▁New	-8.80353
May	-8.80476
so	-8.8048
▁bu	-8.80568
▁Kom	-8.80569
▁cihgirê	-8.80604
▁Kurdistanî	-8.80628
▁Esed	-8.80777
▁ger	-8.80779
▁ha	-8.80813
▁Gir	-8.80912
▁pey	-8.81037
▁xa	-8.81224
land	-8.8144
▁hezar	-8.81565
▁pêşkêş	-8.81569
wi	-8.81572
▁aborî	-8.8158
]	-8.8168
▁dikeve	-8.81712
▁hember	-8.81749
▁çav	-8.81789
ît	-8.81795
▁Yek	-8.81914
dor	-8.82009
10	-8.8206
▁car	-8.822
nc	-8.82248
▁Q	-8.82542
▁Su	-8.82682
▁kombûnek	-8.82788
▁parliyamentê	-8.82899
car	-8.82926
▁Hesen	-8.82987
▁Nav	-8.83043
▁hikûmeta	-8.83082
▁weşan	-8.83148
▁Tirkîyê	-8.83153
bir	-8.83206
▁Herweha	-8.83225
▁ragihandin	-8.83308
şan	-8.83479
▁Mîr	-8.83569
▁sa	-8.83603
KIRIN	-8.83643
▁Pe	-8.83695
▁dixwaze	-8.8377
▁hatibû	-8.83792
▁mafê	-8.83937
▁kurdistanî	-8.84011
▁biryara	-8.8415
▁bar	-8.84195
▁Dewleta	-8.84196
bat	-8.84246
!	-8.8451
Apr	-8.84556
sk	-8.84587
▁Xwe	-8.84594
pî	-8.84679
▁guft	-8.84745
fir	-8.84861
▁()	-8.84877
▁tekezî	-8.85083
▁heya	-8.85125
▁Ewropa	-8.85164
▁mil	-8.85183
ÎYA	-8.85248
▁zêdetir	-8.85367
▁to	-8.85434
son	-8.85454
▁Bu	-8.85798
▁were	-8.85906
▁mi	-8.86
Dec	-8.86026
▁Ebdul	-8.8606
▁To	-8.8618
era	-8.86216
▁Îran	-8.86237
Oct	-8.863
▁Tê	-8.86438
▁leşker	-8.865
▁dikare	-8.86523
▁bakurê	-8.86636
zi	-8.86767
▁mu	-8.86812
▁Neteweyên	-8.86964
▁Ci	-8.86996
▁rastî	-8.87225
▁derbarê	-8.87226
ez	-8.87235
Jun	-8.8734
▁Gu	-8.87461
ry	-8.87523
▁In	-8.87848
▁pêşwazîya	-8.87986
▁ro	-8.88168
▁25	-8.88286
▁çêkirin	-8.88311
Sep	-8.88357
▁sedsala	-8.88368
▁Mirin	-8.88387
▁vir	-8.88507
tar	-8.88611
▁per	-8.88676
▁Hê	-8.8876
▁ge	-8.88819
▁derveyê	-8.88927
▁so	-8.88949
▁30	-8.89015
▁Evroj	-8.8903
▁lîst	-8.89049
▁avê	-8.89105
▁gir	-8.8947
▁ferman	-8.89541
▁&	-8.89555
▁Navê	-8.89569
▁Ak	-8.90102
▁NE	-8.9016
7	-8.90193
av	-8.90218
iş	-8.90226
8	-8.90469
▁Kon	-8.90511
▁leşkerên	-8.90522
ikê	-8.90539
50	-8.90566
▁gr	-8.90619
▁dîdarê	-8.90644
▁2011	-8.90829
▁şi	-8.90843
ist	-8.90895
çî	-8.91049
evan	-8.91127
▁navenda	-8.91199
nde	-8.91214
▁başûr	-8.91317
▁Wî	-8.91355
▁jêderî	-8.91389
▁beşdar	-8.91421
–	-8.91533
az	-8.91556
▁Partîya	-8.91559
▁berfireh	-8.91563
▁endamê	-8.91574
▁Fransa	-8.91737
▁petrolê	-8.91783
tirîn	-8.91894
▁hi	-8.91918
▁Bê	-8.91932
Aug	-8.91972
▁şerê	-8.92025
xaneya	-8.92189
Jan	-8.92274
kû	-8.92282
▁Nû	-8.92356
ika	-8.9237
eh	-8.92521
===	-8.92647
▁Dî	-8.92766
▁Jêderekî	-8.92806
▁pêşmerge	-8.9286
▁mo	-8.92908
▁Rê	-8.93069
ft	-8.93137
ib	-8.93666
ahî	-8.93678
▁komîteya	-8.93686
▁rojnamevanî	-8.93746
gar	-8.93755
ûd	-8.93782
▁pêşkêşî	-8.94204
▁Ve	-8.94287
xt	-8.94481
fi	-8.94508
Q	-8.94541
▁şe	-8.94563
▁Roj	-8.94613
▁Za	-8.94716
▁lêkolîn	-8.94723
▁Po	-8.94936
rd	-8.94961
ه	-8.95067
▁tişt	-8.95074
gê	-8.95177
▁Kurdên	-8.9518
▁Amerîkayê	-8.95215
▁do	-8.95385
end	-8.95386
▁Nivîskar	-8.95601
▁Weha	-8.95636
▁Amerîkayî	-8.95646
ket	-8.9573
▁dar	-8.95776
sel	-8.95782
▁Hel	-8.9583
▁d	-8.95941
▁rejîma	-8.96162
bend	-8.96165
yon	-8.96206
nameya	-8.9621
▁Turk	-8.96302
tû	-8.96322
▁Es	-8.96406
▁destpê	-8.96466
danê	-8.96576
nav	-8.9663
▁avakirin	-8.9664
▁la	-8.96675
6	-8.96687
▁salê	-8.96837
▁pirs	-8.96856
▁xo	-8.96913
▁rojnameya	-8.97013
▁nas	-8.97118
▁za	-8.97165
▁endam	-8.97225
gel	-8.97505
▁beşdarî	-8.97673
emîn	-8.9771
name	-8.97868
▁Hu	-8.97897
▁sî	-8.98042
nda	-8.98197
▁Dengê	-8.98202
▁pirsên	-8.98453
ay	-8.98619
şem	-8.98625
▁aşkira	-8.98824
▁Gel	-8.98871
can	-8.99028
▁ewledarîyê	-8.99054
IR	-8.99099
▁Başûr	-8.99185
▁XWE	-8.99253
▁Ki	-8.99308
▁style	-8.99311
▁dikir	-8.99558
iyek	-8.99584
12	-8.99606
lav	-8.99627
▁bal	-8.99782
ava	-8.99791
%	-8.99797
▁xe	-8.9982
▁dewletê	-8.99847
▁Ye	-8.99971
▁bikar	-9.00256
▁Bal	-9.0032
▁nî	-9.00366
▁eger	-9.00436
▁bêtir	-9.00453
Ç	-9.00461
bêj	-9.00514
kên	-9.00749
▁zû	-9.0075
▁Fi	-9.00989
▁xwarin	-9.01043
mîn	-9.01045
▁nêzîk	-9.01054
▁nîne	-9.01083
▁Iraqa	-9.01107
ov	-9.01164
▁erebî	-9.01248
▁PDK	-9.01366
tt	-9.01405
ss	-9.01428
▁Jidayîkbûn	-9.0143
▁posta	-9.01477
dam	-9.01856
▁xw	-9.02046
▁SER	-9.02181
▁dirist	-9.02208
ent	-9.0226
let	-9.02336
▁serê	-9.0234
kiş	-9.02419
▁barên	-9.02434
.”	-9.02704
ard	-9.02715
▁hêvî	-9.02733
▁gundên	-9.0274
les	-9.03006
▁qe	-9.03117
▁dane	-9.03152
▁po	-9.03213
▁Rû	-9.03583
▁nîv	-9.03613
▁gotinê	-9.03743
tîn	-9.0376
▁‘	-9.03851
▁hêla	-9.03856
alî	-9.03918
▁ligel	-9.03978
▁wer	-9.04006
▁g	-9.04043
▁mal	-9.04138
▁Ereb	-9.04138
har	-9.04143
hev	-9.04158
▁Huseyn	-9.04372
▁deverê	-9.045
▁karên	-9.04579
▁Fa	-9.04586
▁Başûrê	-9.04606
▁Fu	-9.04627
▁av	-9.04629
▁maddeya	-9.04641
▁wisa	-9.04694
▁hukûmetê	-9.04798
▁artêşa	-9.04837
▁herwisa	-9.04838
18	-9.04881
ر	-9.04955
▁destnîşan	-9.0498
dest	-9.05041
▁Evî	-9.05106
Nov	-9.05284
erê	-9.05434
▁zor	-9.05479
lên	-9.05582
sch	-9.05683
▁Am	-9.05686
rt	-9.05718
▁çareserkirina	-9.05721
09	-9.05785
▁ce	-9.05865
ی	-9.05909
▁Erebî	-9.06073
▁21	-9.06319
▁el	-9.06425
▁dinê	-9.06566
▁çareserkirin	-9.06607
▁Nêçîrvan	-9.06653
▁çîrok	-9.06726
▁destûra	-9.0675
▁Gul	-9.0691
Û	-9.06925
▁pîroz	-9.0696
fê	-9.07068
EN	-9.0711
min	-9.07222
▁cî	-9.07243
▁Sch	-9.07267
▁Dest	-9.07362
darên	-9.07412
beş	-9.07652
▁yekemîn	-9.07658
yekê	-9.07779
lik	-9.07788
▁Qu	-9.07819
▁netew	-9.07826
&	-9.07864
▁Is	-9.07984
▁Dema	-9.07993
▁140	-9.08061
▁şa	-9.08084
▁xweş	-9.08191
▁dayik	-9.08192
▁çûn	-9.08199
darî	-9.08218
▁çandî	-9.08449
▁Pi	-9.08461
▁berhem	-9.08545
▁herwiha	-9.08641
▁Mêrdînê	-9.08641
lar	-9.08743
▁rola	-9.08764
▁Mer	-9.08768
qê	-9.0886
▁Ga	-9.08942
▁hey	-9.08991
▁komel	-9.09149
▁bavê	-9.09155
▁nivîsandin	-9.09172
▁dawîyê	-9.09341
uk	-9.0937
▁destpêka	-9.09402
ğ	-9.09404
▁align	-9.09461
://	-9.09547
▁Şi	-9.09573
▁Sal	-9.09574
bîn	-9.09587
▁pênc	-9.09619
▁tev	-9.09671
EL	-9.09689
▁hew	-9.09726
iv	-9.09744
▁girt	-9.09781
▁bilinda	-9.09833
nar	-9.09934
Feb	-9.10011
ibû	-9.10073
var	-9.10148
xi	-9.10151
Gelhenasî	-9.10251
med	-9.1032
manî	-9.10459
rok	-9.10518
istanê	-9.10841
▁zi	-9.10888
Başûrê	-9.11029
▁Komara	-9.11073
mal	-9.11094
▁Kor	-9.11106
mon	-9.11125
tur	-9.11132
xistin	-9.11191
▁veger	-9.11249
▁Erdogan	-9.11306
▁Bel	-9.11344
▁çe	-9.11417
▁bawer	-9.11441
tîya	-9.11534
sp	-9.11548
▁roman	-9.11585
ens	-9.11688
▁kirina	-9.11691
mu	-9.11738
▁alîkarîya	-9.11812
▁Xi	-9.11818
kin	-9.11872
Çavkanî	-9.1189
▁cure	-9.1195
▁Sala	-9.12055
▁Sp	-9.12173
▁qebûl	-9.12235
mên	-9.12349
▁wêne	-9.1243
▁polîs	-9.12618
roj	-9.12654
▁kurdên	-9.12713
▁0	-9.12776
}	-9.12811
▁Mal	-9.12898
net	-9.12974
▁xurt	-9.13003
▁Navîn	-9.1305
çûn	-9.13091
mil	-9.13106
▁Kir	-9.13107
06	-9.13288
▁Bar	-9.13317
yi	-9.13568
▁sedema	-9.13591
▁and	-9.1361
▁Co	-9.13655
▁cîh	-9.13673
▁duyem	-9.13703
vîn	-9.13716
و	-9.13855
com	-9.13923
▁kel	-9.13951
▁====	-9.14034
▁navçe	-9.14042
yet	-9.14073
ûl	-9.1416
▁asayişa	-9.14184
▁gi	-9.14192
sti	-9.14272
ley	-9.14495
▁Pir	-9.14523
▁dîrokî	-9.14645
▁tevlî	-9.14777
▁kurt	-9.14807
▁Pêş	-9.15058
lû	-9.15083
val	-9.15364
rik	-9.15372
▁Çe	-9.15412
▁Hev	-9.1544
▁AMERÎKA	-9.15518
▁hilbijartin	-9.15617
tr	-9.15648
▁24	-9.15695
▁Hin	-9.15697
ef	-9.15938
_	-9.15963
▁Şah	-9.16143
▁anîn	-9.16208
▁nu	-9.16413
▁Mihemed	-9.16561
▁Sê	-9.16603
vanên	-9.16668
▁balyozê	-9.1676
05	-9.16798
▁Dem	-9.16813
iyeke	-9.16818
işt	-9.16825
▁Ewropayê	-9.1688
▁Zimanê	-9.16896
▁xebat	-9.16944
îs	-9.17114
ys	-9.17179
▁hwd	-9.17238
▁gul	-9.17266
YA	-9.17332
kuj	-9.1738
▁În	-9.17397
▁Beşar	-9.17461
▁Iraq	-9.17557
▁Azad	-9.17613
▁Med	-9.17638
▁Birêz	-9.17663
▁çekdarên	-9.17685
▁Partiya	-9.1772
ks	-9.1772
▁rojhilata	-9.17747
▁têne	-9.17766
▁dikarin	-9.17775
▁dijîn	-9.17875
ane	-9.17898
▁Mezin	-9.17963
▁hebe	-9.17972
▁rêxistina	-9.18012
darê	-9.18051
kêş	-9.18095
▁diçe	-9.18197
▁stran	-9.18319
▁DA	-9.18326
▁mêr	-9.18334
▁digire	-9.18504
▁qu	-9.18625
fr	-9.18671
▁wezîran	-9.18812
▁dev	-9.18927
04	-9.18969
▁Çi	-9.19064
▁%	-9.1908
▁Tu	-9.19103
▁salî	-9.19239
▁Xan	-9.19365
17	-9.19446
▁22	-9.1948
▁Tî	-9.19506
▁derket	-9.19571
bsp	-9.19655
▁bakur	-9.19825
▁plan	-9.19878
pey	-9.19922
▁bêjedana	-9.19948
▁pirr	-9.19954
▁NY	-9.20072
▁wi	-9.20099
▁biçûk	-9.2015
▁ango	-9.20206
▁pi	-9.20227
hu	-9.20313
15	-9.20335
▁Sî	-9.20377
▁Xelata	-9.2038
▁kiribû	-9.20411
▁çandin	-9.20629
▁pêkhat	-9.20991
▁peywendî	-9.21019
▁sazkirin	-9.21026
idae	-9.21096
ن	-9.21146
erên	-9.21149
▁Şer	-9.21248
▁gav	-9.21458
zir	-9.21732
▁Ay	-9.21789
▁Silêmanîyê	-9.21814
▁İ	-9.21916
▁Ja	-9.21944
▁parastina	-9.21969
şîn	-9.22079
▁peyv	-9.22097
eyan	-9.2212
▁Car	-9.22244
eyek	-9.2228
▁dîroka	-9.22293
saz	-9.22387
▁Welat	-9.22424
keft	-9.22455
▁naskirin	-9.22542
▁xwepêşandan	-9.22639
▁jêr	-9.22754
▁Amed	-9.22761
rs	-9.22777
▁Îtilafa	-9.22823
zin	-9.22868
siyon	-9.22905
د	-9.23062
▁lî	-9.23091
rm	-9.23113
▁polîsan	-9.23123
tên	-9.23247
▁Kesên	-9.23394
girt	-9.23435
▁biwarê	-9.23503
cê	-9.23537
www	-9.23546
girê	-9.23602
▁navdewletî	-9.23629
▁rojê	-9.23635
fon	-9.23668
▁cara	-9.23679
▁Herwiha	-9.23785
ich	-9.23932
▁Ti	-9.23947
▁ci	-9.24002
▁awayî	-9.2403
▁2008	-9.24217
▁anî	-9.24221
▁man	-9.24353
▁rojava	-9.24421
deya	-9.24495
wend	-9.24588
▁Yekîtîya	-9.24594
▁2007	-9.24759
▁Misirê	-9.24769
▁rojname	-9.24846
bin	-9.24946
gîn	-9.25
▁Famîleya	-9.25
EW	-9.25022
▁Xa	-9.2507
▁Qanûnê	-9.25082
▁Pirtûk	-9.25091
▁bang	-9.25162
▁HATIN	-9.25264
▁hikûmetê	-9.25472
▁rojan	-9.25482
LA	-9.25589
atî	-9.25638
▁Brîtaniya	-9.25655
▁Mêr	-9.25664
▁2009	-9.25691
▁Pê	-9.25785
bu	-9.2591
▁çap	-9.25937
▁rojên	-9.25956
▁hebûn	-9.25971
EY	-9.25998
▁no	-9.2606
▁!	-9.26084
▁çek	-9.26099
▁bir	-9.26134
▁BO	-9.2636
▁reş	-9.26454
▁Ker	-9.26465
▁şand	-9.26564
aceae	-9.26599
▁welatan	-9.26675
▁tekez	-9.26716
▁ISBN	-9.26727
-19	-9.26781
▁Dihokê	-9.26804
▁xal	-9.26842
od	-9.26851
est	-9.26863
▁Sil	-9.26992
guh	-9.27054
▁tevî	-9.2708
▁pirtûka	-9.27176
▁Ez	-9.27309
ûs	-9.27367
▁mala	-9.2744
▁beşdarîyê	-9.27466
gîr	-9.27472
▁civakî	-9.27491
EYA	-9.27623
11	-9.27725
▁rexne	-9.27738
▁Çînê	-9.2776
îş	-9.27933
▁sazdan	-9.27946
▁fa	-9.28022
▁Kemal	-9.28175
▁Fer	-9.28275
▁Îs	-9.28338
aw	-9.28346
ac	-9.28475
bor	-9.28583
girî	-9.28594
▁qasî	-9.28687
ä	-9.28738
▁Malpera	-9.28776
gehên	-9.28804
.000	-9.28828
▁êrîş	-9.2894
▁ri	-9.29034
▁Îro	-9.29051
ah	-9.29106
▁germ	-9.29132
▁hevwelatîyên	-9.29146
▁http	-9.29158
hem	-9.2917
zo	-9.29222
▁Ça	-9.29226
14	-9.29241
08	-9.29249
AL	-9.29277
/20	-9.29344
gr	-9.2935
▁2006	-9.29372
▁hîn	-9.29552
▁axaftin	-9.29589
qu	-9.29629
▁weşandin	-9.2964
ştî	-9.29673
▁hatina	-9.29871
▁Ban	-9.29915
▁hêza	-9.29919
çi	-9.29935
▁mîna	-9.29966
cu	-9.30177
▁Zanîngeha	-9.30203
DE	-9.30243
mb	-9.3027
îka	-9.30284
▁as	-9.30311
▁xwediyê	-9.3036
02	-9.3047
▁Or	-9.3056
▁pî	-9.3056
▁pêşîn	-9.30593
▁Hî	-9.3062
zer	-9.30795
rk	-9.30872
karê	-9.30973
▁Kes	-9.30998
▁Xel	-9.31101
jin	-9.31226
▁BDP	-9.31311
▁eşîr	-9.31355
ph	-9.31392
▁nabe	-9.3144
▁giran	-9.31481
▁Zêbarî	-9.31484
▁Koma	-9.31603
▁gundî	-9.31655
▁xwest	-9.31722
▁armanca	-9.31777
▁ewên	-9.31802
▁dil	-9.31833
▁Herwisa	-9.3192
ÎYÊ	-9.31927
▁çalak	-9.32056
▁Kurdistana	-9.32072
▁23	-9.32142
▁Qere	-9.32159
▁Bab	-9.32252
▁KURD	-9.32274
▁dijwar	-9.32384
▁rojnamevan	-9.32492
▁Lî	-9.32506
▁hevdîtin	-9.32535
sal	-9.32557
▁nake	-9.32638
rab	-9.32675
ranê	-9.32692
▁Hêzên	-9.32712
çê	-9.32725
DAR	-9.32753
gre	-9.32763
▁dîsa	-9.32858
▁2007/	-9.32915
▁warê	-9.32936
▁Haşimî	-9.33061
▁qurban	-9.33063
▁Derve	-9.33063
▁Wanê	-9.3308
▁valakirin	-9.33103
jen	-9.33168
▁gelekî	-9.33241
bey	-9.3325
▁Bin	-9.33316
▁Av	-9.33318
▁çawa	-9.33337
▁Ebdullah	-9.33426
▁ker	-9.33459
▁Bir	-9.33634
ST	-9.33714
▁Eyad	-9.33808
▁sînor	-9.33821
stin	-9.3388
don	-9.33902
▁hez	-9.33913
▁tune	-9.33929
▁dihên	-9.33946
ewî	-9.34006
▁Çiyayê	-9.34011
▁helbest	-9.34036
▁dihat	-9.34075
▁pro	-9.34141
▁Har	-9.34149
▁Ger	-9.34277
▁Ru	-9.34308
▁kevn	-9.34342
Di	-9.34375
▁bûyerê	-9.34485
ec	-9.34522
kol	-9.34725
ster	-9.34796
nameyek	-9.34828
ij	-9.34881
▁Israyel	-9.34936
▁Kel	-9.34936
37	-9.35106
▁Zi	-9.35121
▁Turkiyeyê	-9.35148
br	-9.35215
▁aloz	-9.35257
▁BIKE	-9.353
▁siyasîya	-9.35304
ub	-9.35315
▁wateya	-9.35318
bet	-9.35319
xw	-9.35414
IL	-9.355
▁2005	-9.35524
tra	-9.3555
16	-9.35595
▁sor	-9.35682
sto	-9.35784
▁malbata	-9.35816
▁Eswatuliraq	-9.3584
▁ket	-9.35921
▁Je	-9.35942
▁Karbidest	-9.36022
▁Ben	-9.36025
07	-9.36101
▁hevdu	-9.36142
▁Beş	-9.36145
▁Ê	-9.3615
▁rewş	-9.36154
▁dad	-9.36264
dike	-9.36297
ig	-9.36392
▁kurê	-9.36401
▁Jo	-9.36444
▁şehîd	-9.36667
res	-9.36685
▁27	-9.36792
kev	-9.36838
▁x	-9.36863
▁rêkevtin	-9.36867
▁serekî	-9.3691
í	-9.36937
▁Navenda	-9.37063
ûb	-9.37083
▁damezrandin	-9.37092
▁hel	-9.37106
mana	-9.37124
▁Gund	-9.37127
▁Nî	-9.37251
▁geş	-9.37448
▁hemî	-9.37461
▁HAT	-9.37505
par	-9.37573
▁SEREKÎ	-9.37593
▁mas	-9.37595
▁nerîn	-9.37617
▁sivîl	-9.37676
▁2010	-9.37713
vanê	-9.37756
▁derveya	-9.37818
▁xist	-9.37926
▁Kur	-9.38113
viya	-9.38211
▁Rûsiya	-9.38233
▁VE	-9.38259
IYA	-9.38274
▁Çîn	-9.38305
▁digel	-9.38309
sîn	-9.38357
▁Gelek	-9.38372
▁Jêder	-9.38404
au	-9.38404
eş	-9.38432
manê	-9.38459
30	-9.38489
▁ter	-9.38513
pan	-9.38521
ron	-9.38561
▁Dike	-9.38577
▁Mela	-9.38599
▁fîlm	-9.38628
oz	-9.38658
▁mî	-9.38708
47	-9.38713
ation	-9.38737
▁Wa	-9.38741
ûm	-9.38763
▁Duhokê	-9.38799
tro	-9.38828
ie	-9.38828
lat	-9.38956
baz	-9.39002
▁Tirkiyê	-9.39055
şi	-9.39094
▁girtî	-9.39125
▁ten	-9.39175
▁piştevanîya	-9.392
▁YA	-9.3922
▁rojavayê	-9.39221
▁Mon	-9.39244
▁28	-9.39415
vo	-9.39472
▁navîn	-9.39611
▁rêxistin	-9.39754
▁şerr	-9.39782
▁dezgehên	-9.39814
jo	-9.39839
gehê	-9.39865
▁RÛPEL	-9.39921
▁arîşe	-9.40083
▁dinên	-9.40135
▁ca	-9.40181
▁Bakur	-9.40187
ahiya	-9.40291
▁KIRIN	-9.40294
▁bajarên	-9.40311
"|	-9.40358
▁50	-9.40405
waz	-9.40572
sh	-9.40575
▁hûr	-9.40629
▁kê	-9.4069
39	-9.40804
▁j	-9.40869
tiye	-9.40917
ل	-9.40967
▁derbasbûyî	-9.40981
▁sînorê	-9.41046
ip	-9.41078
▁ragihandiye	-9.41109
34	-9.41185
▁şeş	-9.41198
▁Mele	-9.41252
▁Heta	-9.41306
lem	-9.41411
mû	-9.41428
io	-9.41449
▁am	-9.41496
▁standin	-9.41533
su	-9.41547
ranî	-9.41552
▁BE	-9.41646
40	-9.41683
▁HUKÛMET	-9.41735
▁derveyî	-9.41837
▁DEST	-9.41967
▁DYA	-9.41982
▁hîna	-9.42
▁Pîr	-9.42006
48	-9.42054
▁hatîye	-9.42088
▁nehê	-9.421
▁serbixwe	-9.42114
rast	-9.42117
tik	-9.42148
90	-9.42183
ndî	-9.42321
rek	-9.42367
▁Şerê	-9.42463
gal	-9.42535
▁Sedr	-9.42603
32	-9.42661
▁giştîyê	-9.42719
▁gengeşe	-9.42781
▁peyam	-9.42869
▁ziyan	-9.42875
33	-9.42929
▁2003	-9.42969
▁100	-9.43054
36	-9.43055
▁beramber	-9.43099
▁gaz	-9.43124
75	-9.43128
▁wa	-9.43169
▁dîyar	-9.43318
ûş	-9.43393
▁hî	-9.43427
und	-9.43526
sor	-9.43546
▁YNK	-9.43584
yl	-9.43629
ata	-9.43736
▁hunermend	-9.43794
01	-9.4381
▁navend	-9.43838
▁ciwan	-9.4384
▁în	-9.43871
13	-9.44002
sin	-9.44052
▁beşa	-9.44079
▁v	-9.44091
▁vekirin	-9.44118
▁Mus	-9.44163
▁gotina	-9.44223
ür	-9.44227
▁Ed	-9.4424
▁Gi	-9.44421
▁bêjedanek	-9.44446
▁ki	-9.44449
▁Lu	-9.44487
▁xelkên	-9.44518
▁Îranî	-9.44593
▁milyon	-9.44595
▁q	-9.44621
oka	-9.44791
yîn	-9.44792
▁desthilatdar	-9.44808
▁alîyekî	-9.4485
hm	-9.449
2010	-9.45039
▁Vi	-9.45215
▁Wezareta	-9.45267
▁Jin	-9.45303
▁xi	-9.45335
▁YE	-9.45339
▁partîya	-9.45341
eng	-9.45343
OR	-9.45356
nameyê	-9.45438
▁fraksiyonên	-9.45508
▁hebûna	-9.45522
▁guh	-9.45538
pp	-9.45561
▁Wekî	-9.45574
▁berhemên	-9.45619
ly	-9.45622
▁hest	-9.45625
▁rapor	-9.45642
▁dewletên	-9.45643
▁Man	-9.45696
45	-9.45727
55	-9.45759
LE	-9.45766
56	-9.45778
▁va	-9.45849
▁sîyasî	-9.45868
▁bilî	-9.45935
▁26	-9.45973
ara	-9.45995
▁teqîna	-9.4603
▁Dê	-9.46048
▁pêdivê	-9.46069
▁Can	-9.46202
ld	-9.46278
▁malbatên	-9.46394
28	-9.4643
lîs	-9.46454
▁border	-9.46476
▁co	-9.46479
53	-9.46496
wir	-9.46533
▁BIHÊ	-9.46614
▁Ef	-9.46644
▁cîran	-9.46672
▁radi	-9.46681
▁peyman	-9.46895
▁encamên	-9.46955
▁encamdana	-9.46996
îm	-9.47169
▁latînî	-9.47183
38	-9.47184
▁'	-9.47204
▁danîn	-9.47301
▁Kan	-9.47322
▁terorîst	-9.4745
▁Ad	-9.47478
▁Dêr	-9.47502
▁Ju	-9.47524
ff	-9.47603
rêj	-9.47681
▁xuya	-9.47698
jîn	-9.47703
▁fir	-9.47731
▁xebatên	-9.47741
zay	-9.47761
▁Tariq	-9.47795
▁dora	-9.47973
▁bingeha	-9.47974
▁piştre	-9.47986
▁Reş	-9.47986
ingen	-9.47997
▁êrîşên	-9.48024
▁Beg	-9.48029
▁sedem	-9.48101
▁2004	-9.48146
bijar	-9.48155
ona	-9.48259
▁hu	-9.48316
girtin	-9.48333
ws	-9.48466
▁mirin	-9.48471
ي	-9.48514
▁Xwedê	-9.48573
▁bihîne	-9.48604
▁Sûriye	-9.487
▁parçe	-9.4872
yanî	-9.48757
gotin	-9.48885
▁jiber	-9.48918
▁Islamîya	-9.48928
▁berpirsê	-9.48963
TA	-9.48986
▁bî	-9.49027
="#	-9.49048
▁cem	-9.4913
▁nûnerê	-9.49175
▁bomb	-9.49188
wey	-9.49216
lle	-9.49292
▁Roja	-9.49392
▁No	-9.4945
ih	-9.49514
▁Cîhan	-9.49523
▁kî	-9.4956
24	-9.49595
EKÎ	-9.49664
▁Demokrat	-9.49693
▁îngilîzî	-9.49696
▁axa	-9.49699
▁rêkevtina	-9.49707
form	-9.4973
▁fîzîk	-9.49767
lon	-9.49855
▁têk	-9.4986
pirs	-9.49867
43	-9.49895
len	-9.49957
▁SAZ	-9.4997
▁Meh	-9.49972
▁koç	-9.50085
▁=	-9.50133
▁Va	-9.50201
а	-9.50283
▁zanyar	-9.50286
▁tawan	-9.50303
44	-9.50363
ûrî	-9.50406
▁qanûnê	-9.50432
▁pêşinyar	-9.50494
▁navxweyî	-9.50505
▁Netew	-9.50539
▁hebû	-9.50545
42	-9.50586
ın	-9.50603
▁ereb	-9.50663
jar	-9.50729
rom	-9.50747
▁Sin	-9.50766
▁beşekî	-9.50784
kim	-9.50815
▁duh	-9.50839
64	-9.50974
▁Şem	-9.51153
EM	-9.51168
şar	-9.51191
▁pevçûn	-9.51233
▁40	-9.51293
çû	-9.5131
▁teror	-9.51363
îzm	-9.51617
▁hewl	-9.51617
▁herêmên	-9.51695
▁herdem	-9.51701
▁ga	-9.51748
▁pirtûk	-9.51764
▁zanist	-9.5179
tom	-9.51869
▁perwerde	-9.51877
▁bernameya	-9.5196
▁dengê	-9.5211
RA	-9.52116
▁su	-9.52142
▁Ajansa	-9.52188
▁cor	-9.52191
▁xirab	-9.52258
▁und	-9.52277
▁dagir	-9.52298
▁lo	-9.52367
49	-9.52498
54	-9.52512
▁zarokan	-9.52542
▁neteweyî	-9.52549
▁gotiye	-9.52575
lis	-9.52595
▁2000	-9.52653
xist	-9.52739
▁demekê	-9.52817
▁xwendin	-9.5283
ts	-9.52904
GIR	-9.52957
kurd	-9.52961
▁cîhanî	-9.53056
tel	-9.53063
iq	-9.53075
ken	-9.53091
▁dîrokê	-9.53142
▁rêk	-9.53178
80	-9.53269
yayî	-9.5327
xin	-9.53312
ras	-9.53338
▁cureyên	-9.53379
awî	-9.53401
▁nehatiye	-9.53425
▁carek	-9.53465
îng	-9.53505
oya	-9.53556
▁Encûmena	-9.53592
▁çare	-9.53662
▁Stenbolê	-9.53717
▁bira	-9.53724
▁şandin	-9.53767
ON	-9.5379
99	-9.53854
berg	-9.53887
EV	-9.53905
oyê	-9.53981
▁Wer	-9.54019
burg	-9.54057
▁jinan	-9.54235
LÎ	-9.54382
▁mê	-9.54407
▁mînak	-9.54516
▁agahdar	-9.54574
▁dawîya	-9.54584
xistina	-9.54643
▁Îslamî	-9.54763
way	-9.54866
▁kandîd	-9.54905
;"|	-9.55011
▁ron	-9.55023
ian	-9.5506
ica	-9.55067
reş	-9.55106
▁Dû	-9.55216
▁Jiyan	-9.55233
▁Tirkîye	-9.55258
▁zimanên	-9.5526
for	-9.55365
▁xwîn	-9.55428
ius	-9.55431
▁pol	-9.55498
▁dayîn	-9.55577
arê	-9.55638
etê	-9.55638
▁şah	-9.55741
▁hemberî	-9.55772
▁Navend	-9.55793
▁bel	-9.55886
▁herweha	-9.55898
26	-9.55967
▁im	-9.56067
▁Barak	-9.56071
25	-9.56089
▁êrîşa	-9.56182
▁dîrok	-9.56231
log	-9.56284
parêz	-9.56317
▁siyasîyên	-9.56348
▁keç	-9.56396
çik	-9.56407
Bi	-9.56427
xweş	-9.56547
▁St	-9.56699
ço	-9.56751
59	-9.56826
27	-9.5686
▁Hevpeymanîy	-9.56902
▁Wê	-9.56962
▁hevpişk	-9.57014
21	-9.5707
bîr	-9.5713
▁Ten	-9.57133
ven	-9.573
org	-9.57371
62	-9.57426
85	-9.57446
ت	-9.57464
▁Bilind	-9.57477
olojî	-9.57518
23	-9.5762
▁29	-9.57695
97	-9.57731
EKA	-9.57852
dr	-9.57887
▁JÎ	-9.57903
▁Mistefa	-9.57916
ram	-9.5806
ung	-9.58122
▁dibîne	-9.58131
▁berpirs	-9.58151
mber	-9.58199
▁qanûnî	-9.58253
▁i	-9.58332
▁cihên	-9.5834
22	-9.58371
▁Almaniya	-9.58405
tab	-9.58434
▁petrola	-9.58436
ren	-9.58444
▁Deryaya	-9.5849
ou	-9.58533
hel	-9.58558
hir	-9.58578
▁Pro	-9.58609
bil	-9.58614
▁atomî	-9.58658
DAN	-9.58672
▁reng	-9.58698
lt	-9.58728
▁kovar	-9.58765
las	-9.58784
xî	-9.58864
▁Rojhilata	-9.58967
navê	-9.58968
▁demek	-9.58971
▁agir	-9.59038
▁hezaran	-9.59098
▁Mis	-9.5915
tek	-9.59194
▁Hukûmeta	-9.59198
▁holê	-9.59204
▁bêje	-9.59239
▁Mirov	-9.59279
▁Sel	-9.59289
▁NA	-9.59402
gihand	-9.59489
▁Rojava	-9.59517
lîst	-9.59552
▁avakirina	-9.59583
lk	-9.59601
▁Afganistanê	-9.59631
92	-9.59787
▁Xelîl	-9.59792
îb	-9.59869
▁Min	-9.59903
▁Ham	-9.60039
ikan	-9.60073
▁koma	-9.60079
▁malbat	-9.60096
52	-9.60132
bra	-9.60145
▁asta	-9.60229
▁Sur	-9.60389
▁Bûyer	-9.60393
ibe	-9.60407
▁kongireya	-9.60441
▁zanistî	-9.60542
▁Ellawî	-9.60558
▁Cizîr	-9.60575
▁birêz	-9.60615
▁Dîrok	-9.60622
▁peyda	-9.60695
▁serbaz	-9.60792
ps	-9.60808
▁dor	-9.60849
▁Alî	-9.60883
▁mîr	-9.60911
▁nê	-9.60913
▁Wek	-9.60916
tîyê	-9.60917
zanî	-9.60986
▁Nor	-9.60999
▁baştir	-9.61056
▁xaka	-9.61197
▁rojavaya	-9.61208
▁qezaya	-9.61225
gh	-9.61229
background	-9.61257
▁pêşî	-9.61269
▁demên	-9.61274
▁asayî	-9.61292
▁mehê	-9.61296
YE	-9.61401
▁nahê	-9.61425
▁sereke	-9.61516
ence	-9.61567
karên	-9.61577
▁John	-9.61612
▁Qo	-9.6163
MA	-9.61727
▁San	-9.61738
93	-9.61816
▁Hikûmeta	-9.61854
▁hevbeş	-9.6196
▁riya	-9.61966
▁sed	-9.62033
/12	-9.62076
▁Çend	-9.62158
DÎ	-9.62173
и	-9.622
▁sibehê	-9.622
right	-9.6222
▁çiyayê	-9.62243
ştin	-9.62259
▁birayê	-9.62262
▁Fransayê	-9.62292
okê	-9.62314
▁dîdar	-9.62325
▁Tirkiye	-9.6234
lim	-9.62415
heim	-9.62425
▁êriş	-9.62445
atê	-9.62466
▁mir	-9.62498
lı	-9.62541
▁derxistin	-9.6255
س	-9.62555
▁seranser	-9.62573
▁2012	-9.62596
▁dayîk	-9.62621
▁firok	-9.62623
▁malê	-9.62653
day	-9.62684
▁çavdêr	-9.62701
êt	-9.62736
navend	-9.6277
▁ragihandina	-9.62782
▁siyaseta	-9.62876
▁Pol	-9.62938
000	-9.63006
▁paytexta	-9.6303
95	-9.63034
BE	-9.63074
▁destûrê	-9.6309
▁KUJTIN	-9.6315
▁Sûriyê	-9.6326
▁teqîya	-9.63273
▁encamê	-9.63303
▁dinyayê	-9.6334
▁bandora	-9.6338
▁eşkere	-9.63389
meş	-9.63411
▁belavkirin	-9.63423
▁Roman	-9.63574
rop	-9.63575
îkî	-9.63605
▁bingehîn	-9.63723
▁fi	-9.63723
/19	-9.6383
▁hav	-9.6383
bûyî	-9.63844
▁TURKIYE	-9.6387
MAN	-9.63912
▁civ	-9.63986
▁mer	-9.63997
ator	-9.64028
RÎ	-9.64221
▁Bêjedarê	-9.64231
dêr	-9.64241
jê	-9.64262
▁huner	-9.64272
0.000	-9.64287
▁mijar	-9.64313
▁Ste	-9.64349
▁hevpeyman	-9.64389
▁xistin	-9.64405
م	-9.64424
▁Silêmaniyê	-9.64428
▁Bû	-9.64538
2011	-9.64545
▁nivîsîn	-9.64636
▁Mustefa	-9.64715
▁derketin	-9.64742
▁bend	-9.64845
ow	-9.64864
▁BÛ	-9.64868
YÊN	-9.64894
sar	-9.64934
cus	-9.64955
▁Ol	-9.6497
▁bombeka	-9.64975
baş	-9.6498
che	-9.64987
▁gelên	-9.65001
▁ar	-9.6503
▁gef	-9.65088
bad	-9.65149
▁nayê	-9.65172
▁dikim	-9.65189
▁Sta	-9.65192
60	-9.65246
41	-9.65309
▁çekên	-9.65327
▁Bas	-9.65431
▁helbestvan	-9.65443
stem	-9.6545
▁Belê	-9.65479
He	-9.65488
▁•	-9.65573
liya	-9.65642
Ba	-9.65661
zen	-9.65703
▁bazirganî	-9.65734
46	-9.65793
▁KES	-9.65814
▁gotinên	-9.6582
▁meh	-9.65832
▁Ch	-9.65872
▁tek	-9.65899
▁ÎRANÊ	-9.65935
▁nakin	-9.6601
▁siteya	-9.66061
RO	-9.66098
mas	-9.66102
hur	-9.66149
▁serkevtin	-9.66184
▁deveran	-9.66191
▁Ey	-9.66267
▁pirtûkê	-9.66287
▁xizmet	-9.66289
▁dîwana	-9.66307
leh	-9.66309
▁niştimanî	-9.66397
înan	-9.66453
▁çand	-9.665
▁Îbrahîm	-9.66551
şik	-9.66574
▁Qi	-9.66604
▁Niha	-9.66668
înî	-9.66731
▁guhertin	-9.66766
ır	-9.66894
ham	-9.66909
▁Yu	-9.66928
zîk	-9.66936
sû	-9.66975
▁sek	-9.67019
▁tû	-9.67088
pel	-9.67102
▁topbaran	-9.67174
65	-9.6722
dû	-9.67312
ikên	-9.67404
▁Mala	-9.67493
▁darayî	-9.67513
▁zîndan	-9.67551
▁(*	-9.67636
sey	-9.67644
fîlm	-9.6765
▁şî	-9.67665
▁)	-9.67711
▁pêwîst	-9.67748
▁destên	-9.67758
▁t	-9.67783
▁Azerbaycan	-9.67919
▁w	-9.67941
kur	-9.67948
AD	-9.68076
▁fî	-9.68195
▁Hejmara	-9.68295
olog	-9.68299
zim	-9.68371
▁razî	-9.68404
▁Civata	-9.68421
TIN	-9.6847
35	-9.68506
▁dadgeha	-9.68585
▁malpera	-9.68618
▁karbidest	-9.68673
▁Şaredar	-9.68681
▁ru	-9.68699
▁awayek	-9.68815
▁Dar	-9.6888
▁Pakistanê	-9.68901
bîl	-9.68925
▁{|	-9.68926
hêner	-9.69012
▁Sen	-9.69147
▁sû	-9.6923
▁misilman	-9.69306
wanê	-9.69327
dayê	-9.69368
▁Piştre	-9.69404
▁hatibûn	-9.69427
hl	-9.69466
nis	-9.69489
▁hiş	-9.69621
▁kirdarên	-9.69631
▁paşê	-9.69654
▁taxa	-9.69728
▁nivîskarê	-9.69737
▁raman	-9.69802
▁egerê	-9.69843
▁xwendina	-9.69854
bel	-9.69879
▁bûyera	-9.69882
▁TV	-9.69907
▁31	-9.69955
▁beşek	-9.7006
98	-9.7013
▁Sar	-9.70156
▁bêtirî	-9.70326
▁NATO	-9.70331
▁1991	-9.7041
▁dibînin	-9.7044
58	-9.70512
▁kompanyayên	-9.70523
▁soz	-9.70539
lor	-9.70557
berî	-9.70562
qet	-9.70563
▁sîstema	-9.70584
lîn	-9.70589
▁bikeve	-9.70699
▁dawiya	-9.70733
▁Nobel	-9.70745
nam	-9.70753
/11	-9.70917
▁proje	-9.70964
sala	-9.71038
▁Koreya	-9.71083
▁ME	-9.71176
▁Germ	-9.71216
/10	-9.7124
▁Cu	-9.71283
pen	-9.71328
▁Weşanên	-9.71359
▁Kî	-9.71383
▁ketin	-9.71386
▁BÛN	-9.71407
tes	-9.71418
▁bigirin	-9.71501
▁mane	-9.7153
▁Bur	-9.71564
▁malan	-9.71584
left	-9.71586
▁mirî	-9.71673
▁Ter	-9.71732
▁Hes	-9.71782
vanî	-9.71811
tic	-9.71818
lus	-9.71835
▁tund	-9.71892
▁Adil	-9.71949
Me	-9.71952
best	-9.7205
▁1.	-9.72112
▁alîkarî	-9.72209
text	-9.72249
ewe	-9.72275
▁York	-9.72279
▁xem	-9.72281
94	-9.72369
31	-9.72373
▁cejna	-9.72418
▁Mûşê	-9.72424
tion	-9.72567
dy	-9.72567
yin	-9.72631
▁şaristana	-9.72678
▁Gor	-9.72742
lay	-9.72764
▁Serokwezîrê	-9.72778
▁Cihgirê	-9.72795
▁xwendevan	-9.72803
▁şûn	-9.72808
kanî	-9.72847
avên	-9.72874
▁radiyoya	-9.72926
▁Ur	-9.72964
▁dibistana	-9.72971
▁Tr	-9.72976
▁Erd	-9.72991
eyeke	-9.72996
▁Fre	-9.73053
▁sp	-9.73082
qas	-9.73129
▁Gr	-9.73155
ium	-9.73228
weş	-9.73243
▁geşt	-9.7325
▁rêvebirê	-9.7326
▁),	-9.73271
AT	-9.73277
▁Tay	-9.73281
ere	-9.73335
▁Hey	-9.73413
▁nêzî	-9.73473
▁dewlet	-9.73503
▁kesekî	-9.73509
HE	-9.73581
▁rawest	-9.73717
▁danûstandin	-9.73719
▁Sor	-9.73789
▁rûyê	-9.73866
îyye	-9.73916
▁destnîşankirin	-9.73926
erî	-9.74
▁dît	-9.74003
▁Bexdadê	-9.74009
▁girav	-9.74066
▁navneteweyî	-9.74118
▁kevir	-9.74279
▁Mû	-9.74284
▁hind	-9.74285
ala	-9.74343
▁qir	-9.74441
▁hilwestê	-9.74525
top	-9.74565
▁demjimar	-9.74663
▁bandor	-9.74698
▁merc	-9.74815
77	-9.74832
YÎ	-9.74836
▁ban	-9.74906
style	-9.74959
▁BA	-9.75022
▁pîkol	-9.75041
▁gotara	-9.75196
▁hejmarek	-9.75252
▁rojhilatê	-9.75364
76	-9.75394
▁him	-9.754
▁destpêkê	-9.7548
96	-9.75499
▁Yekîtiy	-9.75508
gor	-9.75531
▁kirîye	-9.75599
▁kêşe	-9.75626
vin	-9.75657
kil	-9.75665
uc	-9.75725
▁navên	-9.75781
▁alîkar	-9.75865
▁Kuştin	-9.75888
▁Ken	-9.75893
ME	-9.75897
▁tîp	-9.75934
▁temenê	-9.75985
▁Navçeya	-9.76002
51	-9.76008
▁felsefe	-9.76157
▁Sun	-9.76206
WE	-9.76255
▁têkildar	-9.76274
ahiyê	-9.76379
▁nema	-9.76392
izm	-9.76397
padding	-9.7641
▁rûniştvanên	-9.76414
▁Şoreş	-9.76416
▁Dad	-9.76417
ûk	-9.76488
baran	-9.76493
▁wezaret	-9.76518
▁nikare	-9.76549
▁Fo	-9.76554
▁Xalid	-9.76567
▁daxwazên	-9.76579
▁2001	-9.76597
▁Misir	-9.76611
▁Sey	-9.76629
▁şêwe	-9.76673
Li	-9.76675
á	-9.76683
▁Selaheddîn	-9.76683
▁dost	-9.76749
▁şermezar	-9.7682
colspan	-9.76823
;"	-9.76834
bol	-9.76846
kes	-9.7685
о	-9.76956
▁Mil	-9.76962
▁SERDAN	-9.76971
tri	-9.77011
▁civaka	-9.77039
eva	-9.77047
▁Kerkûk	-9.77065
▁2002	-9.77075
dil	-9.77075
▁qanûn	-9.77084
▁Wal	-9.77143
▁qey	-9.77157
▁Kû	-9.77168
zik	-9.77331
▁zî	-9.77338
▁bgcolor	-9.77339
▁fr	-9.77344
gire	-9.77373
▁Almanya	-9.77395
ther	-9.77452
▁xwekuj	-9.77487
▁zer	-9.7753
▁Rûsya	-9.77645
ion	-9.77676
▁Sûrîye	-9.77705
▁hes	-9.77793
▁xebata	-9.77876
ell	-9.77903
▁dewlemend	-9.77921
edîn	-9.77932
▁1998	-9.78021
▁1992	-9.78033
57	-9.7805
▁kurmancî	-9.78064
▁birêve	-9.78136
▁ol	-9.78153
▁Silêmanî	-9.78156
▁pêşkêşkirin	-9.78221
▁jêderên	-9.78312
ût	-9.78338
ish	-9.784
kariyê	-9.78461
▁sekreterê	-9.78476
▁dîn	-9.78519
▁bizav	-9.78526
dayî	-9.78533
▁parêzgehên	-9.78567
del	-9.78701
▁gu	-9.78704
▁kêmî	-9.78767
▁şîr	-9.78767
▁(18	-9.78778
wal	-9.78797
▁keş	-9.78806
▁Zayîn	-9.78918
78	-9.7902
▁rizgar	-9.79034
ب	-9.79101
port	-9.79132
AY	-9.79184
▁Hevgirtin	-9.79209
▁width	-9.79226
▁peyva	-9.79239
ketin	-9.79242
▁nedi	-9.79297
▁Axa	-9.79304
bul	-9.79315
▁sûd	-9.79355
▁jîyana	-9.79382
dal	-9.79415
▁bawerî	-9.79437
▁law	-9.79446
▁gişt	-9.79455
welat	-9.79534
▁erdê	-9.79625
▁alman	-9.79641
82	-9.79659
IST	-9.79669
banî	-9.79712
▁şandeyeka	-9.79737
xur	-9.79755
29	-9.79775
▁boneya	-9.79812
▁Ö	-9.79814
îtî	-9.79835
cer	-9.7984
▁nasîn	-9.79867
west	-9.79995
▁gihijt	-9.80024
▁Berpirsê	-9.80031
▁tirs	-9.8006
88	-9.80077
▁birin	-9.80085
▁neh	-9.80136
▁Dîyala	-9.80162
nama	-9.80201
wl	-9.80215
▁kanal	-9.80219
YAN	-9.80255
Ma	-9.80287
▁Şirnexê	-9.80302
perest	-9.80303
▁bihînin	-9.80312
▁Hol	-9.8036
▁Bakurê	-9.80386
▁xelat	-9.80397
▁aştî	-9.80414
▁sêyem	-9.80426
е	-9.80444
▁Paş	-9.8048
deng	-9.8051
▁Sed	-9.80526
74	-9.80539
▁maweya	-9.80588
▁neke	-9.80619
▁Dan	-9.808
▁kombûn	-9.80843
YÊ	-9.80857
▁terorîstan	-9.80873
▁derdikeve	-9.81013
▁Bay	-9.81092
▁derman	-9.81101
tol	-9.81199
▁fraksiyona	-9.81232
▁civak	-9.81235
▁nebe	-9.81251
▁rêxistinên	-9.81252
▁DTP	-9.81299
▁dîsan	-9.81325
▁red	-9.81381
▁Komel	-9.81389
▁MALIKÎ	-9.81442
▁piranî	-9.81574
▁mebesta	-9.81589
91	-9.81673
▁bûyerên	-9.81787
▁Fir	-9.8182
/16	-9.81834
SA	-9.81841
▁Almanyayê	-9.81889
ova	-9.81899
▁awayê	-9.8199
▁hebin	-9.82055
▁Kara	-9.8215
▁qada	-9.82241
▁derbaz	-9.82276
▁fer	-9.82299
▁PÊŞWAZÎY	-9.82306
chi	-9.82384
▁Biryar	-9.82394
▁hûn	-9.82458
▁pêşwazî	-9.8251
/02	-9.82549
tinê	-9.82624
▁qedexe	-9.8266
/24	-9.82677
km	-9.8274
▁Gundistan	-9.82768
▁bidest	-9.82811
▁Hatin	-9.82843
▁Aş	-9.82845
▁penaber	-9.82886
67	-9.82959
rus	-9.82992
rg	-9.82999
▁derbasî	-9.83026
▁nûçeyên	-9.83092
/01	-9.83102
▁teqe	-9.83115
▁Şamê	-9.83151
pêş	-9.83181
▁binavkirin	-9.83191
▁xaneyê	-9.83201
▁war	-9.8324
TÎ	-9.83244
▁daxwazê	-9.83253
sim	-9.83279
▁Mor	-9.83303
zîr	-9.83371
*	-9.83494
▁Wan	-9.83507
▁Dîroka	-9.83565
▁1999	-9.83595
qil	-9.83609
▁Pla	-9.83617
▁tiştekî	-9.83665
▁budceya	-9.83694
▁bên	-9.83712
/04	-9.83729
▁derfet	-9.83827
▁Dîn	-9.83854
▁mar	-9.83891
▁otomobîl	-9.83919
▁Sûr	-9.8392
▁demeke	-9.8394
ix	-9.83946
▁Han	-9.83958
▁Ziman	-9.8407
bas	-9.84083
/14	-9.84158
▁pejirandin	-9.84174
▁BIRÎNDAR	-9.84204
66	-9.8422
/26	-9.84281
▁Gol	-9.84336
▁GIRTIN	-9.84351
/07	-9.84446
▁navçeyê	-9.8445
▁Xo	-9.84494
▁Reuters	-9.84499
▁Hil	-9.84521
ANÎ	-9.84549
▁pirsgirêka	-9.84609
▁îs	-9.84616
hin	-9.84629
▁Niştimanîya	-9.84687
▁Berî	-9.84745
83	-9.84771
▁daxuyanî	-9.84843
▁Heyder	-9.84858
▁erd	-9.84869
/22	-9.84871
▁damezrandina	-9.84886
▁tîne	-9.84899
▁şano	-9.84901
dewlet	-9.84903
▁hevwelatîyan	-9.84907
▁qeza	-9.84939
ان	-9.84972
gah	-9.85096
▁Dil	-9.85108
▁desteya	-9.85135
▁navendî	-9.85161
det	-9.85187
▁zanîngeha	-9.85193
▁Bey	-9.85195
▁2013	-9.85276
▁Sir	-9.8528
-1	-9.8531
86	-9.85312
/09	-9.85353
girtina	-9.85363
▁Robert	-9.85395
89	-9.8543
xo	-9.85495
▁1980	-9.85519
▁KERKÛKÊ	-9.8557
up	-9.85604
▁bersiva	-9.85617
KAR	-9.85633
▁bixe	-9.85642
▁pêdivî	-9.85689
▁werin	-9.85765
▁hejmar	-9.8577
sil	-9.85799
/17	-9.85802
▁êvarê	-9.85842
pt	-9.85917
▁komarê	-9.85919
▁beh	-9.85925
▁nûçeyan	-9.85942
/18	-9.85968
▁Çar	-9.86025
tz	-9.8606
/15	-9.86079
tîf	-9.86087
▁dikirin	-9.86123
/13	-9.8635
▁Bra	-9.86379
▁Ala	-9.86385
Badînan	-9.86391
/08	-9.86406
/05	-9.86407
▁3-	-9.8641
mayî	-9.86415
▁guherîn	-9.86423
▁Af	-9.86431
▁Niştîmanî	-9.86439
▁alîkariya	-9.86442
mez	-9.86573
îf	-9.86738
▁armanc	-9.8687
yen	-9.86885
▁konferans	-9.86893
▁Şaristana	-9.86893
▁Giştî	-9.8691
ben	-9.86961
▁ceng	-9.8707
heng	-9.87129
▁serdanê	-9.87135
▁Ebû	-9.87148
mîr	-9.87173
▁bazar	-9.87191
ە	-9.87196
70	-9.8734
▁madde	-9.87342
▁made	-9.87346
▁çekdar	-9.87351
/23	-9.87426
▁salveger	-9.875
▁fransî	-9.875
▁mez	-9.87501
uz	-9.87562
▁key	-9.87672
▁belge	-9.87742
set	-9.87772
▁jor	-9.87775
/06	-9.87776
ayetî	-9.87796
tepe	-9.87817
line	-9.87857
dom	-9.87861
63	-9.87881
▁For	-9.87893
▁bingeh	-9.87929
▁bombe	-9.87938
▁lez	-9.87943
ney	-9.88054
▁pile	-9.88104
▁Hind	-9.88109
▁Japon	-9.88112
▁qer	-9.8816
▁Gur	-9.88237
▁Hew	-9.88256
▁olî	-9.88269
/03	-9.8833
▁çiya	-9.88388
▁kor	-9.88389
▁arêşe	-9.88408
▁II	-9.88464
rayê	-9.88472
▁or	-9.88483
87	-9.88512
sit	-9.88538
▁1990	-9.88566
▁hêsan	-9.88575
):	-9.88625
▁Sûrîya	-9.88632
▁nêvbera	-9.88727
oc	-9.88756
hîne	-9.88759
▁Dêrsimê	-9.88813
▁bîne	-9.88872
▁Faunay	-9.88881
hor	-9.8892
/25	-9.88962
ray	-9.88979
rem	-9.89007
▁rêjeya	-9.89037
▁Berwarî	-9.89038
▁stêr	-9.89053
▁dehan	-9.89095
▁demokratîk	-9.89097
▁êrîşî	-9.89182
▁Ab	-9.892
▁Felah	-9.89217
▁Hez	-9.89299
▁koçber	-9.89322
▁malper	-9.89325
▁London	-9.89345
dûn	-9.89472
ZA	-9.89486
▁Nu	-9.89493
▁Dewletê	-9.89656
kevin	-9.89658
nîşan	-9.89766
▁Pêjgeh	-9.89814
▁hizr	-9.89862
▁dadgehê	-9.89886
/27	-9.89892
/28	-9.89901
▁girtina	-9.89908
▁pesendkirin	-9.89921
Be	-9.89946
▁digirin	-9.89981
til	-9.89996
▁cell	-9.90063
▁amadebûna	-9.90079
▁nêv	-9.901
▁doz	-9.90183
▁mazin	-9.90201
▁nirx	-9.90202
kel	-9.90217
▁Hêjayî	-9.9028
▁Abdullah	-9.90443
▁rij	-9.90478
andî	-9.90532
▁şik	-9.90543
nak	-9.90589
▁Pişt	-9.90596
▁kişand	-9.90598
▁rûpel	-9.90636
bach	-9.9064
▁wergirt	-9.9064
▁Seîd	-9.90648
▁pel	-9.90684
▁60	-9.90753
dariya	-9.90858
▁ken	-9.9086
▁hevpeyvînek	-9.90909
68	-9.90977
uf	-9.91004
▁Xu	-9.91052
hal	-9.91076
▁HEV	-9.91142
andinê	-9.91166
▁rûniştina	-9.91395
▁dimîne	-9.91428
▁cins	-9.91439
▁azadî	-9.91444
/29	-9.91458
▁Omer	-9.91522
sir	-9.9155
▁girêdan	-9.91563
▁Gelê	-9.91657
▁Tele	-9.91667
rew	-9.91699
▁Beh	-9.9173
▁Con	-9.91747
▁serhildan	-9.91798
+	-9.91881
ische	-9.91899
▁Bajar	-9.91911
▁hindek	-9.91964
▁kesî	-9.91972
▁Ver	-9.92076
▁biyanî	-9.92085
▁ragihandinê	-9.92123
▁dengên	-9.92162
▁gol	-9.92213
▁xwarinê	-9.92292
chen	-9.92378
".	-9.92385
▁bikevin	-9.92427
▁nehat	-9.92482
▁Kerkûkî	-9.92512
▁teqîn	-9.92523
▁temam	-9.9259
ibûn	-9.92633
▁herêm	-9.92673
▁Dev	-9.92703
▁kontrol	-9.92717
xuya	-9.92745
jan	-9.92763
▁hêj	-9.92772
sîm	-9.92777
RAN	-9.92851
▁Suriya	-9.92852
▁Mas	-9.92854
▁mirovên	-9.92888
zanê	-9.92917
▁Xer	-9.92927
▁1994	-9.92933
yd	-9.92976
▁siyasetmedar	-9.92979
▁fêr	-9.92984
▁amadekirin	-9.93004
sul	-9.9301
▁Fî	-9.93016
▁bicih	-9.93023
▁serdema	-9.93082
kom	-9.93083
▁Baş	-9.93114
▁mijarên	-9.9314
▁Agiriyê	-9.93141
▁paytextê	-9.93157
▁dîdara	-9.93266
▁tr	-9.93325
▁YÊ	-9.93334
▁asayişê	-9.93431
▁Sûriya	-9.93436
▁Endamên	-9.93495
▁dadwer	-9.93517
:#	-9.93541
▁nûçeyek	-9.93643
79	-9.93784
▁Tor	-9.93806
parêzgeh	-9.93849
▁Herêmê	-9.93865
▁rêvebirîya	-9.93902
▁pişk	-9.93936
▁Şo	-9.94113
▁Niştimanî	-9.9423
▁girê	-9.94247
nasî	-9.94323
▁Bîr	-9.94448
▁Çand	-9.94448
▁destpêkirin	-9.94467
▁Botan	-9.94479
▁***	-9.94621
▁Qadir	-9.94671
▁Nobelê	-9.94736
▁çîn	-9.94748
▁DIKE	-9.94765
▁demjimêr	-9.94776
▁DER	-9.94893
84	-9.94922
▁şerrê	-9.94937
▁Swêdê	-9.94949
rak	-9.95071
▁Osmanî	-9.95209
▁pirtûkên	-9.95283
▁Divê	-9.95341
▁berdest	-9.95346
▁At	-9.95351
▁Artêşa	-9.95422
72	-9.95422
ÛN	-9.95445
▁Xaneqînê	-9.95459
▁2014	-9.95466
▁maf	-9.95574
karîyê	-9.95608
▁goyên	-9.95619
rr	-9.95704
▁Sû	-9.9571
▁1997	-9.95723
▁kin	-9.95751
▁Peyamnêr	-9.95752
tîv	-9.95779
▁Mem	-9.95847
▁vedîtin	-9.95932
▁bajarokê	-9.96021
▁07	-9.96023
81	-9.96031
▁Bad	-9.96031
▁anku	-9.96053
▁gundistana	-9.96086
▁#	-9.96097
tûn	-9.96125
Her	-9.96191
▁WEZÎRÊ	-9.9625
▁Rêvebirê	-9.96299
▁nûner	-9.96358
▁jiyanê	-9.9636
▁serkevtî	-9.96417
▁Civak	-9.9642
kiriye	-9.96475
Ji	-9.96479
▁partiya	-9.96596
qi	-9.96739
р	-9.9675
▁Rihayê	-9.9675
▁hevwelatî	-9.96789
▁rojhilat	-9.96804
▁vi	-9.96819
▁Cha	-9.96865
▁borî	-9.96912
▁asteng	-9.96918
▁sedan	-9.96947
▁Seqizê	-9.96983
lah	-9.9699
/21	-9.97004
▁nakokî	-9.97024
ling	-9.97044
▁dengan	-9.97059
▁Çav	-9.97069
▁kîmya	-9.97097
▁Bexdayê	-9.97186
▁Farqîn	-9.97253
▁adarê	-9.97259
▁Xw	-9.97282
▁xêz	-9.97339
▁bixwe	-9.97346
▁heyî	-9.97355
▁Rojnamevan	-9.97366
▁Kam	-9.97453
▁hêdî	-9.97498
▁dabû	-9.97501
-20	-9.97528
bit	-9.97531
▁şûna	-9.97579
▁parêz	-9.97651
ngilîz	-9.97694
▁pêşkevtin	-9.97758
perwer	-9.97892
▁Hen	-9.97902
▁Îtalya	-9.9793
▁eslê	-9.97946
▁hevkar	-9.97949
▁Mirovan	-9.97953
▁cûda	-9.97961
▁Xweda	-9.97966
▁kûr	-9.98049
▁dilê	-9.9824
▁derdora	-9.98252
▁hundir	-9.98265
▁Çek	-9.98331
mel	-9.98339
rît	-9.98368
reng	-9.9838
▁Washington	-9.98435
▁tiştên	-9.98436
▁Dêrika	-9.98459
▁pergal	-9.98467
▁xwînê	-9.98475
ensis	-9.98485
▁rêkevtinê	-9.98489
▁1995	-9.98568
UR	-9.98621
▁goşt	-9.98671
▁nekir	-9.98719
▁Roma	-9.98729
▁pirranî	-9.98798
▁von	-9.9887
▁kuştina	-9.98916
▁pispor	-9.98955
▁heşt	-9.98972
▁siyaset	-9.98997
▁hukûmet	-9.99101
▁wergirtina	-9.99104
▁Efrînê	-9.99117
73	-9.99326
hew	-9.99399
▁mêvan	-9.99448
▁şoreş	-9.99449
ÛR	-9.99453
▁sta	-9.99481
▁tîm	-9.99501
▁DU	-9.99504
/30	-9.99584
▁Hat	-9.99596
▁general	-9.99631
69	-9.99718
▁girtiye	-9.99737
▁herêmî	-9.99741
▁ewledarîya	-9.9975
▁rolek	-9.99756
▁pirranîya	-9.99767
ibin	-9.99885
▁Sovyet	-10.0015
▁dawiyê	-10.0016
▁Îtaliya	-10.0032
▁mirina	-10.0033
▁dixe	-10.0035
▁gotarek	-10.0043
ك	-10.0049
▁kan	-10.0053
▁Bexda	-10.0054
▁rêveber	-10.0055
▁mijara	-10.0058
▁Zer	-10.0058
▁ب	-10.0059
▁rojane	-10.0084
Ber	-10.0092
ien	-10.0093
▁hersê	-10.0099
▁Erzîromê	-10.0102
▁Gundê	-10.0106
▁projeyê	-10.0118
OL	-10.0118
▁Osmaniyan	-10.0123
▁Tû	-10.0127
▁jêderekî	-10.0137
▁Press	-10.0137
▁serjimariy	-10.0141
danî	-10.0148
okên	-10.0149
of	-10.015
▁KOMBÛNEK	-10.0172
▁Zagros	-10.0172
▁Ahmet	-10.0172
▁Pişka	-10.0172
▁KAR	-10.0173
▁Aw	-10.0175
▁têde	-10.0181
▁Kerîm	-10.0192
hejmar	-10.02
{	-10.0207
▁Şêr	-10.021
▁pêwîste	-10.0213
▁bibînin	-10.0216
▁xwezt	-10.0217
▁1993	-10.0221
▁lêkolînên	-10.0225
▁Mafên	-10.0225
▁Qasim	-10.0227
▁Asyayê	-10.0236
▁werger	-10.0238
▁arêşeyê	-10.0238
bûr	-10.0239
▁fermandarê	-10.0248
width	-10.0253
▁dijwarî	-10.0255
▁HÊZÊ	-10.026
▁War	-10.026
▁polîsê	-10.0261
▁tomar	-10.0263
▁Th	-10.0264
▁komisiyona	-10.0278
▁şad	-10.0284
▁guhdar	-10.0284
ies	-10.0285
çek	-10.0285
▁şaş	-10.0288
andiye	-10.0289
▁Ek	-10.0295
▁pirsê	-10.0299
▁dengdanê	-10.0311
▁şewitandin	-10.0313
▁mû	-10.0314
▁pêşangeh	-10.032
TIR	-10.0322
71	-10.0331
▁Part	-10.0334
wis	-10.0335
▁Jêr	-10.0336
▁xurtkirina	-10.0339
▁Ant	-10.0341
▁dihatin	-10.0345
▁Paşa	-10.0347
▁Leşker	-10.0349
▁partiyê	-10.035
▁xeter	-10.0364
▁kombûnekê	-10.0366
▁AKP	-10.0367
▁agahî	-10.0371
▁sûr	-10.0371
▁Goran	-10.0372
▁Rêxistina	-10.0375
birin	-10.0377
▁EM	-10.0377
н	-10.0385
▁teqiya	-10.0385
▁şew	-10.0391
▁cûr	-10.0393
▁dom	-10.0395
ric	-10.0396
▁Demokratîk	-10.0396
▁partî	-10.0397
▁berjewendîya	-10.0403
▁efser	-10.0403
▁avêtin	-10.0408
▁Et	-10.0414
▁2006'	-10.0419
▁cihanîna	-10.0421
▁Husên	-10.0422
şêr	-10.0424
▁kursî	-10.0431
▁bêne	-10.0433
▁parleman	-10.0439
▁Sef	-10.0443
▁1996	-10.0451
gon	-10.0456
▁rengî	-10.0456
▁Serdeştê	-10.0457
▁şoreşa	-10.0459
▁2015	-10.0462
▁rengê	-10.0464
▁muzîkê	-10.0467
▁rêvebir	-10.0469
ā	-10.0475
▁welêt	-10.0475
VAN	-10.048
▁Pas	-10.0483
kal	-10.0484
▁Kev	-10.0484
▁pêşketin	-10.0492
▁parlamenter	-10.0493
▁Mehabad	-10.0493
▁xwendekar	-10.0494
nûs	-10.0501
▁Art	-10.0503
▁Cîhanê	-10.0504
fet	-10.0508
▁Çîrok	-10.0511
="2"	-10.0512
▁Ango	-10.0513
▁Daw	-10.0515
▁rêberê	-10.0516
▁qet	-10.0516
▁pesend	-10.0516
etên	-10.0523
▁çendîn	-10.0524
▁mamoste	-10.0533
▁06	-10.0534
diya	-10.0542
▁rewşenbîrî	-10.0546
▁derê	-10.055
▁piraniya	-10.055
▁şandeyê	-10.0555
bab	-10.0559
ûç	-10.0562
▁Bajarê	-10.0576
dikin	-10.0576
▁bergirîya	-10.0584
▁bingehên	-10.0593
ral	-10.0593
▁Îsraîl	-10.0596
ella	-10.0598
▁opozisyon	-10.0602
▁Dollar	-10.0602
▁şar	-10.0612
▁diçin	-10.0613
▁akincî	-10.0621
▁tundî	-10.0625
firoş	-10.0633
▁Urdun	-10.0639
▁Xwarin	-10.0639
▁hêriş	-10.0639
▁diyalog	-10.064
▁nêrîn	-10.0644
og	-10.0648
▁bigire	-10.0656
▁rêkevtinek	-10.0657
▁destûr	-10.0657
▁kompanyaya	-10.0659
RE	-10.0663
ii	-10.0664
▁çalakîyên	-10.0665
We	-10.0665
▁rabi	-10.0671
▁pesnê	-10.0676
▁rewşenbîr	-10.0677
▁projeyên	-10.068
▁Balyozê	-10.0694
▁Tir	-10.07
▁bakûrê	-10.0714
ers	-10.0715
▁daxuyanîyekê	-10.0715
▁xwepêşand	-10.072
▁yaneya	-10.0729
▁Pêdivêy	-10.0731
▁kovara	-10.0735
▁Qoser	-10.0737
▁çemê	-10.0744
▁çî	-10.0746
▁duyemîn	-10.0746
▁pîvan	-10.075
ted	-10.0752
▁winda	-10.0754
▁dolar	-10.0755
▁hilbijartina	-10.0762
▁dahat	-10.0768
▁Wezîra	-10.0769
▁can	-10.0773
▁tîma	-10.0774
▁Pey	-10.0785
▁goyan	-10.0787
61	-10.0789
▁kevin	-10.0792
▁xêr	-10.0792
▁stû	-10.0804
▁hikûmet	-10.0804
▁navçeyên	-10.0805
▁Helebçe	-10.0806
▁desthilata	-10.0806
▁firroke	-10.0811
▁Bre	-10.0815
▁projeya	-10.0816
▁Oz	-10.0819
“	-10.0822
▁kongireyeka	-10.0824
▁sar	-10.0825
işk	-10.0831
▁Emîn	-10.0834
▁200	-10.0834
▁Rojhilat	-10.0837
▁Mah	-10.0845
spor	-10.0845
ûp	-10.0845
olojiya	-10.0846
IŞ	-10.0847
▁Ava	-10.0849
▁Xez	-10.085
bon	-10.0854
▁anko	-10.086
▁hevalên	-10.086
▁xelata	-10.0862
▁Rûsyayê	-10.0863
▁sin	-10.0866
▁Gulan	-10.0871
▁Zaxo	-10.0874
▁Xebat	-10.0881
▁heval	-10.0881
▁navokî	-10.0883
▁Pu	-10.0884
▁bigih	-10.0888
▁basa	-10.0888
▁NAV	-10.0889
hes	-10.0892
▁bibîne	-10.0894
▁ferheng	-10.0901
cû	-10.091
▁Gimgim	-10.0919
▁ROJ	-10.0919
▁Kurmanc	-10.0919
▁hîngê	-10.0922
▁05	-10.0924
▁Samî	-10.0931
▁LEŞKER	-10.0938
▁Eşîr	-10.094
▁naw	-10.0942
qam	-10.0947
inc	-10.0948
▁Aştî	-10.0951
▁teqînê	-10.0953
▁Fîlm	-10.0958
▁tevger	-10.0959
▁beşên	-10.0962
tre	-10.0967
▁daxuyanîyek	-10.0968
▁Ex	-10.0973
▁xwepêşanderan	-10.0976
zel	-10.0976
▁form	-10.0977
iyon	-10.0978
▁Mehmet	-10.098
▁Tan	-10.098
▁Tek	-10.0987
▁ex	-10.0991
▁Bedirxan	-10.0995
▁helwest	-10.0996
▁bikaranîna	-10.0997
▁kesek	-10.1001
Mi	-10.1005
-3	-10.1009
▁mehan	-10.1011
▁BAJÊRÊ	-10.1014
▁aram	-10.1021
▁Cejn	-10.1021
▁rawestandin	-10.1022
▁Gre	-10.1026
▁şev	-10.1027
▁qonax	-10.1031
▁xizmeta	-10.1035
▁ajal	-10.1037
▁ola	-10.1037
hatin	-10.1041
▁Îslam	-10.1044
▁vekirina	-10.1049
▁Receb	-10.1052
▁nikarin	-10.1055
▁Biden	-10.1056
ÎNE	-10.1063
mus	-10.1066
▁bînin	-10.1069
▁†	-10.1079
▁nûjen	-10.1085
▁80	-10.1091
▁parêzgarê	-10.1091
▁Rojnameya	-10.1094
▁Îsraîlê	-10.1097
▁kat	-10.1102
▁Os	-10.1106
▁Nisêbîn	-10.111
▁êrîşê	-10.1112
▁stranbêj	-10.1113
▁Bajarên	-10.112
▁Paytext	-10.1129
▁Pêncşemê	-10.1129
▁dîplom	-10.1129
xwarin	-10.113
▁Baz	-10.113
▁Zana	-10.113
▁08	-10.1141
▁vala	-10.1143
▁nerazî	-10.1143
▁Ali	-10.1146
▁Parêzgeh	-10.1149
▁têkoşîn	-10.1149
▁polîtîk	-10.115
▁hevkarî	-10.1161
▁01	-10.1163
▁romî	-10.1163
▁gelemperî	-10.1168
▁qonaxa	-10.117
▁daxwazkirî	-10.117
▁mezinên	-10.118
kariya	-10.119
▁Mijarê	-10.1191
▁Dara	-10.1193
▁çarçêweyê	-10.1207
▁bav	-10.1213
▁Dîsa	-10.1214
▁Zaxoyê	-10.1216
ox	-10.1226
▁bûbû	-10.1227
▁Ax	-10.123
▁09	-10.1241
▁Tirkî	-10.1253
▁nivîsgeha	-10.1256
▁70	-10.1256
▁xû	-10.1258
è	-10.1265
▁Gra	-10.127
▁wergirtin	-10.1279
▁pêkanîn	-10.1281
cîh	-10.1282
ide	-10.1284
▁paraztina	-10.1289
▁civakê	-10.1289
▁berdan	-10.1291
▁Mak	-10.1294
▁hefteya	-10.1295
tus	-10.1296
şaristan	-10.1303
▁aştîyê	-10.1304
▁Nûnerê	-10.1307
▁berhev	-10.1315
▁35	-10.1323
▁xwestin	-10.1324
▁Îsa	-10.1325
bus	-10.133
the	-10.133
▁fars	-10.1331
▁dihêt	-10.1332
▁nirxê	-10.134
▁Dîcle	-10.1344
▁laş	-10.1345
▁çanda	-10.1346
rêz	-10.1351
▁kevt	-10.1352
cih	-10.1352
▁Kanî	-10.1354
part	-10.1358
▁supa	-10.136
▁heb	-10.136
▁xu	-10.1363
ش	-10.1364
▁çêbû	-10.1367
▁cureyek	-10.1367
▁evaya	-10.1371
▁Silêman	-10.1372
▁parêzgehê	-10.1375
▁Bûş	-10.1376
▁Gorî	-10.1377
▁teng	-10.138
▁ال	-10.1384
▁Hal	-10.1386
▁mezintirîn	-10.1392
▁rakirin	-10.1394
▁bihêz	-10.1395
bikin	-10.1396
▁NAVBER	-10.1404
▁ders	-10.1408
▁dewam	-10.1408
▁Rêz	-10.1408
▁arîşeyên	-10.1412
▁Ereban	-10.1412
▁çimk	-10.1417
hişt	-10.1419
▁serî	-10.1422
▁Lîsteya	-10.1423
▁haw	-10.1429
▁serokatiya	-10.1444
▁teknîk	-10.1444
.09.201	-10.1445
▁bermîl	-10.1449
▁têkel	-10.1452
Re	-10.1454
diyan	-10.1456
▁Xal	-10.146
к	-10.1463
▁Hoşyar	-10.1463
▁NÛ	-10.1464
raw	-10.1466
▁Komeleya	-10.1471
cel	-10.1478
▁nebû	-10.1486
▁Ciwan	-10.15
îzmê	-10.1501
▁David	-10.1503
▁hewil	-10.152
END	-10.1522
с	-10.1523
▁----	-10.1523
şop	-10.1525
▁And	-10.1532
▁terorîstî	-10.1534
▁tevgera	-10.1537
jer	-10.1543
▁Sêrtê	-10.1544
▁Yekgirtî	-10.1544
▁şaredar	-10.1544
Ser	-10.1546
▁Nivîs	-10.1547
xwîn	-10.1557
▁spî	-10.1557
▁nekin	-10.1573
▁nûneran	-10.1576
Kurd	-10.1578
IYE	-10.1578
▁sîyaset	-10.1584
▁destwerdan	-10.1584
▁xwarê	-10.159
▁pêşketina	-10.1593
tter	-10.1594
▁demokrat	-10.1596
▁gû	-10.1597
▁Lîbya	-10.1597
▁Col	-10.1598
▁beş	-10.1598
▁muzîka	-10.1606
▁derxist	-10.1613
▁Kol	-10.1618
▁Sûriyeyê	-10.1618
▁DAN	-10.1621
▁top	-10.1621
▁Stembol	-10.1624
GEH	-10.1625
▁02	-10.1626
▁bazirgan	-10.1627
====	-10.1627
▁1988	-10.1638
▁partîyên	-10.164
▁beşê	-10.1646
▁Rojhilatê	-10.1647
wo	-10.1651
▁gur	-10.1652
▁temamî	-10.1658
▁Sekreterê	-10.1665
tîne	-10.1668
UN	-10.167
▁maye	-10.167
▁alîgir	-10.1671
▁Alman	-10.1678
pîr	-10.1695
▁rêzdar	-10.1695
▁tor	-10.1696
▁bizava	-10.1705
BI	-10.1705
▁çarçoveya	-10.1706
▁Hacî	-10.1708
▁hêvîdar	-10.1708
▁fireh	-10.1709
gêr	-10.1711
▁Mezopotamya	-10.1726
▁Şeref	-10.173
▁vekirî	-10.1739
▁Qer	-10.1739
kot	-10.1742
▁ceza	-10.1753
▁Bat	-10.1765
ó	-10.1767
▁gulanê	-10.177
▁Îraqî	-10.1783
Izz	-10.1784
▁Fra	-10.1784
▁serwerî	-10.1785
▁Ebdulmehdî	-10.1788
▁hevpeyvîna	-10.1788
▁lîstikvan	-10.1788
▁Besra	-10.1789
▁hevkarîya	-10.1791
▁nebûn	-10.1793
-2	-10.1794
▁çêkirina	-10.1797
illa	-10.1799
yûm	-10.18
▁Tev	-10.1801
▁şeva	-10.1801
▁benda	-10.1807
▁nêzîka	-10.1808
VE	-10.1809
▁naveroka	-10.1809
▁Yekşemê	-10.1809
▁Afrîka	-10.1822
tewe	-10.1824
▁Cem	-10.1826
tis	-10.1839
▁Helbest	-10.1855
▁Libnanê	-10.1886
▁Hindistanê	-10.1893
sed	-10.1894
gil	-10.1899
▁doza	-10.1903
▁1979	-10.1904
ight	-10.1904
â	-10.1913
▁tew	-10.1917
yne	-10.1921
▁Hinek	-10.1922
=2	-10.1923
▁çep	-10.1946
▁cil	-10.1962
▁Frans	-10.1963
beya	-10.1972
▁dixwe	-10.1973
°	-10.1976
▁balafir	-10.1976
bun	-10.1976
▁bimîne	-10.1983
▁şax	-10.1983
▁Îl	-10.1997
ANDIN	-10.1997
▁avahî	-10.2004
▁04	-10.2005
▁Turkman	-10.2005
▁fo	-10.2005
▁bîn	-10.2007
▁Day	-10.2013
▁Tehranê	-10.2016
gun	-10.2018
▁film	-10.2039
▁Clinton	-10.2039
▁pêşniyar	-10.2039
▁postên	-10.2039
▁Qur	-10.2045
▁jîyanê	-10.2048
▁kolan	-10.2049
▁destûrî	-10.2052
▁dikevin	-10.2053
▁beyannameyek	-10.206
▁nehatine	-10.2063
▁jina	-10.2072
▁Naz	-10.2073
▁ala	-10.2079
▁dûrî	-10.208
▁înternetê	-10.2081
▁Kil	-10.2087
▁dijber	-10.2088
▁Tur	-10.2088
▁Kovara	-10.2103
TO	-10.2109
▁dihate	-10.2112
▁xerab	-10.2115
▁paşîn	-10.2116
▁riwek	-10.2118
vir	-10.2119
▁RA	-10.2125
▁berdin	-10.2126
▁pêkhatên	-10.213
▁nik	-10.2133
raq	-10.2137
▁welatekî	-10.2143
▁Mes	-10.2144
▁Swêd	-10.2144
▁Fransî	-10.2145
▁ENCÛMEN	-10.2145
▁Leyla	-10.2148
▁Zarok	-10.2151
▁pîrozkirin	-10.2156
▁pîr	-10.2162
▁kem	-10.2169
wat	-10.217
▁erk	-10.2174
▁êş	-10.2182
▁çapkirin	-10.2184
▁yewnanî	-10.2188
▁Ferheng	-10.2189
▁pan	-10.2201
▁Çemê	-10.2205
▁jinên	-10.2214
▁tem	-10.222
▁kamp	-10.2224
▁erdhej	-10.2231
▁dîdarekê	-10.2239
înên	-10.2245
▁BARZANÎ	-10.2253
▁BAXDADÊ	-10.2257
▁Rêberê	-10.2262
Iraq	-10.2268
▁rêber	-10.2269
ekanî	-10.2272
▁Muhsin	-10.2274
▁Siyasetmedar	-10.2274
▁êrîşek	-10.2276
dyo	-10.2281
▁zemîn	-10.2287
▁kontrola	-10.2288
▁You	-10.2305
hatina	-10.2307
▁kal	-10.2315
▁for	-10.2318
▁navnetewî	-10.2318
▁dijmin	-10.2318
▁peqîn	-10.2319
▁gihişt	-10.2319
▁Ednan	-10.2319
▁MU	-10.232
▁afirandin	-10.2322
▁xet	-10.2324
▁Polîs	-10.2325
▁bersiv	-10.2326
▁Bibîne	-10.2329
bîne	-10.2332
▁Mir	-10.2332
▁Rus	-10.2334
pol	-10.2334
▁nexweşiyê	-10.2337
bûye	-10.2338
▁dibistan	-10.234
▁Bro	-10.2351
▁Dibe	-10.2356
▁pas	-10.2361
▁MÛSIL	-10.2361
çu	-10.2365
▁giştîya	-10.237
▁serhildana	-10.237
▁pere	-10.2374
▁Înîyê	-10.2379
▁ENCAM	-10.2383
▁dilovan	-10.2385
pir	-10.2391
▁Şar	-10.2391
▁şîn	-10.2392
▁Zo	-10.2394
▁1970	-10.2397
▁encûmen	-10.2398
▁Doh	-10.2403
▁xelk	-10.2403
▁rûniştvanan	-10.2405
▁laşê	-10.2408
▁Yo	-10.2412
▁2016	-10.2433
▁Zu	-10.2433
▁dengbêj	-10.2433
ÎR	-10.2434
▁perwerdeya	-10.2435
▁zaravayê	-10.2437
▁Diyarbekirê	-10.2449
▁daxuyannameyek	-10.2471
▁Kanada	-10.2478
▁xort	-10.2478
▁Wêje	-10.2479
▁tîrmehê	-10.2493
dûr	-10.2496
oglu	-10.2501
▁terorane	-10.2503
WER	-10.2505
▁gotar	-10.251
▁cot	-10.2519
▁Mazî	-10.252
▁Xelat	-10.2522
▁sibê	-10.2523
▁pitir	-10.2525
▁biçin	-10.2526
▁biwarên	-10.2529
keve	-10.2532
bike	-10.2533
bare	-10.2537
▁PARLIYAMENTA	-10.2538
▁damezirandin	-10.2538
▁pêjgeha	-10.2538
▁Spanya	-10.2546
bal	-10.2549
▁alfabeya	-10.256
▁2017	-10.2567
▁Abdul	-10.258
karîya	-10.2581
▁pêşxistina	-10.2594
▁Firat	-10.2594
rup	-10.2602
▁çawanîya	-10.2605
▁YEK	-10.2611
▁Asya	-10.2614
ullah	-10.2624
▁alîkarîyê	-10.2626
▁erkê	-10.2631
çer	-10.2632
iaceae	-10.2632
rawe	-10.2637
stra	-10.2637
▁dewletan	-10.2642
▁Uni	-10.2642
ÎYÊN	-10.2648
▁pêxember	-10.265
▁gotûbêj	-10.265
▁zindan	-10.2653
▁Haw	-10.2662
ß	-10.2672
▁kabîneya	-10.2672
▁kanûna	-10.2672
▁Un	-10.2681
▁zarav	-10.2688
▁guherandin	-10.2689
kov	-10.269
▁Kuweytê	-10.2695
▁karûbarê	-10.2695
▁xwar	-10.2699
▁civînê	-10.2716
▁Dîyarbekirê	-10.2725
▁karekî	-10.2726
▁aramî	-10.2744
▁guftûgo	-10.2763
▁encûmenên	-10.277
▁hişyar	-10.2771
▁psîko	-10.2778
▁kirdara	-10.278
▁Brîtanya	-10.2781
wendî	-10.2781
IŞT	-10.2782
▁Helbestvan	-10.2782
iyo	-10.2784
ێ	-10.2786
▁August	-10.2786
▁Sha	-10.2789
▁organ	-10.2791
▁radyo	-10.2793
▁Soran	-10.2794
▁Bavê	-10.2798
▁03	-10.2805
▁DYAyê	-10.2806
▁kete	-10.2823
▁Îslamê	-10.283
▁Sêşemê	-10.2831
▁tevahiya	-10.2834
▁hizir	-10.2835
▁kesayet	-10.2836
▁Gen	-10.2845
▁و	-10.2845
▁Şingalê	-10.2846
▁pêşeng	-10.2855
▁serkeftin	-10.2855
▁meriv	-10.286
▁fîlozof	-10.2877
▁mizgeft	-10.2877
▁Êrîş	-10.2878
▁BÊ	-10.289
Tirk	-10.2894
▁Hemû	-10.2895
▁serokwezîrê	-10.29
▁Tebax	-10.2901
▁****	-10.2901
▁Reşîd	-10.2907
▁firrokeyên	-10.2917
▁1960	-10.2918
▁rewa	-10.2921
▁Împeratoriy	-10.2926
▁civata	-10.2927
▁KOM	-10.2945
▁BIKIN	-10.2947
▁famîleya	-10.2947
▁balyozxaneya	-10.2948
▁karker	-10.295
▁Kurt	-10.2956
BAR	-10.2957
-8	-10.2958
lal	-10.2963
▁mixabin	-10.297
▁operasyonê	-10.297
▁Parîsê	-10.297
▁Kendav	-10.2971
▁Koç	-10.2973
▁berpirsyar	-10.2978
▁derdor	-10.298
▁çekdaran	-10.2982
▁Serhed	-10.2994
▁çiqas	-10.2998
pat	-10.3
▁şevê	-10.3005
▁ragih	-10.3017
▁Kal	-10.3025
▁Bakûr	-10.304
▁xwepêşandanên	-10.3043
▁cihekî	-10.3043
▁serbest	-10.3048
ect	-10.3049
▁Rojavayê	-10.3054
▁kevnar	-10.3062
▁girift	-10.3063
▁Str	-10.3065
▁pîkolan	-10.3068
▁nînin	-10.307
▁cur	-10.3075
▁şo	-10.3077
▁1987	-10.3077
DU	-10.3085
▁daxwazkirin	-10.309
▁Rûsî	-10.3092
▁Girav	-10.3095
▁oto	-10.31
▁bixin	-10.3101
▁Mûsa	-10.3102
▁hoz	-10.3102
▁nasandin	-10.3102
—	-10.311
▁bêhtir	-10.3111
▁Quran	-10.3125
▁Barac	-10.3126
▁Gal	-10.3129
▁hunerî	-10.3129
▁Îraq	-10.313
▁Tîrmeh	-10.3134
qo	-10.3139
gihînin	-10.314
▁Huner	-10.3143
eddîn	-10.3151
ziman	-10.3152
▁dîyarkirin	-10.3153
▁Selahedîn	-10.3157
▁Çarşemê	-10.3157
▁piştgirîya	-10.3157
▁çem	-10.3162
hûr	-10.3168
▁Abd	-10.317
▁çûye	-10.3175
▁kevneşop	-10.3181
▁bingehê	-10.3184
▁jêderê	-10.3186
▁wezîra	-10.3196
▁1989	-10.322
▁Xanim	-10.322
taş	-10.3221
▁xew	-10.3224
▁aborîya	-10.3229
▁parastinê	-10.3233
▁pirtir	-10.325
▁desthilatdarîya	-10.325
:00	-10.3251
▁damezr	-10.3251
IV	-10.3256
▁pr	-10.3256
▁ÇÊ	-10.3257
▁hişk	-10.3266
color	-10.3272
▁vegeriya	-10.3273
▁[18:0	-10.3276
▁qedexekirin	-10.329
▁text	-10.3299
▁elektro	-10.33
▁Ermenistan	-10.3301
▁karmendên	-10.3301
gur	-10.3303
▁balkêş	-10.3304
▁pirsgirêk	-10.3306
▁mih	-10.3308
sol	-10.331
▁giha	-10.3316
▁ajans	-10.3318
▁bijîşk	-10.3325
▁şadbûna	-10.3332
▁çaverê	-10.334
▁1975	-10.3347
▁xalên	-10.3349
▁wêjeya	-10.335
▁kod	-10.3353
ction	-10.3354
▁SI	-10.3355
▁bona	-10.3362
▁Behr	-10.3363
Kurdistan	-10.3364
▁1982	-10.3365
▁nekiriye	-10.3369
▁komîteyek	-10.3373
▁Girêdan	-10.3374
▁îlan	-10.3387
▁şirove	-10.3397
▁pîrozbayî	-10.3405
▁perçe	-10.3406
▁giya	-10.3414
jimar	-10.3418
▁Hû	-10.3421
ک	-10.3421
▁zanîngehê	-10.3422
▁çêbûn	-10.3423
▁Saz	-10.3423
▁Cihê	-10.3425
sko	-10.3426
▁navxwe	-10.343
▁Komîteya	-10.3445
çar	-10.3446
koş	-10.346
▁500	-10.3469
▁tendiristî	-10.347
▁amerîkî	-10.347
▁medya	-10.347
▁hêja	-10.3473
▁Cebar	-10.3474
▁bêjedan	-10.3474
KIR	-10.3476
▁Gava	-10.3491
▁Gaz	-10.3491
▁tarî	-10.3491
▁Pirtûkên	-10.3492
▁Taybet	-10.3496
▁rêyên	-10.3503
Mu	-10.3504
▁Wel	-10.3507
▁lêkolînan	-10.3511
▁Hêjayê	-10.3519
▁têkiliyên	-10.3519
▁kongireyê	-10.3519
▁nivîsand	-10.3527
▁şu	-10.3531
▁stand	-10.3532
▁çalakvan	-10.3533
▁giranî	-10.3536
▁Neu	-10.3537
▁Muhemed	-10.3543
▁televîzyon	-10.3543
▁teybet	-10.3543
▁şîrove	-10.3544
▁tîr	-10.3546
▁Sebah	-10.3546
fu	-10.3546
▁Cîhanî	-10.356
▁ragihandibû	-10.3563
▁milliyon	-10.3568
▁sînorên	-10.3575
▁erkên	-10.3579
▁Eger	-10.3589
pirtûk	-10.3589
▁Ocalan	-10.3593
▁rojnamevanan	-10.3593
▁zivistan	-10.3593
▁Gar	-10.3596
▁oldar	-10.3597
▁neçar	-10.3598
▁ewlehî	-10.3603
▁Hum	-10.3605
▁aliyan	-10.3608
▁pêşîya	-10.3616
▁[18:2	-10.3617
▁HEWLÊRÊ	-10.3617
▁Paul	-10.3627
▁dosyaya	-10.3642
▁vekişîna	-10.3642
▁wergerandin	-10.3645
▁helbestên	-10.3645
▁Dadgeha	-10.3647
▁nebin	-10.3665
▁îslamê	-10.3667
▁Xorasan	-10.3667
▁DIXWAZ	-10.3668
▁demokrasîyê	-10.3668
▁tim	-10.3671
▁Van	-10.3671
▁xweztin	-10.3677
-6	-10.3679
▁muhr	-10.3681
▁Stenbol	-10.3688
α	-10.3692
▁Josef	-10.3692
▁Sîstema	-10.3692
▁solid	-10.3692
▁aware	-10.3695
▁rêberên	-10.3701
▁Deng	-10.3708
▁Bismilê	-10.3717
▁îslamî	-10.3718
▁bidawî	-10.3719
▁serbixweya	-10.3719
cho	-10.3737
▁Mel	-10.374
▁referandum	-10.3742
▁Rewşa	-10.3742
▁Cîgirê	-10.3742
▁spasîy	-10.3743
▁nêz	-10.3749
#	-10.3749
▁desthilatê	-10.375
lok	-10.3755
ör	-10.3759
▁baweriya	-10.3766
▁[18:1	-10.3767
▁[17:2	-10.3767
л	-10.3767
▁300	-10.3767
▁Bah	-10.3772
cc	-10.3774
span	-10.3777
▁Baybûrdê	-10.3784
▁saliya	-10.3787
▁Newrozê	-10.3797
bajar	-10.3802
▁Mît	-10.3815
▁artêşê	-10.3818
▁serxwebûna	-10.3818
▁gunehbar	-10.3823
▁careke	-10.3824
▁dixebite	-10.3843
▁gerdûn	-10.3846
▁balyoz	-10.3851
▁pay	-10.3858
▁1978	-10.386
▁pîşesazî	-10.3868
▁civîna	-10.3869
ezîz	-10.387
▁Key	-10.3876
▁tînin	-10.3878
bur	-10.3887
hausen	-10.3894
▁eşîrên	-10.39
▁kompanya	-10.3904
▁Mill	-10.3918
ع	-10.3919
▁Qamişlo	-10.3919
▁BBC	-10.3919
▁heyva	-10.392
IM	-10.3921
▁Hunermend	-10.3921
▁Azadî	-10.3925
▁Hay	-10.3927
▁fermangeha	-10.393
▁kurdistan	-10.3933
▁bazirganîya	-10.3934
almanî	-10.3937
▁hevpar	-10.3939
▁nûçe	-10.394
▁\	-10.3944
▁ermenî	-10.3945
▁lêpirsîn	-10.3945
▁kêl	-10.3954
▁çekdarî	-10.3956
▁piş	-10.3958
▁dezgeha	-10.3959
▁1984	-10.396
▁piranîya	-10.3966
▁lêgerînê	-10.397
▁bergirîyê	-10.3971
▁tawanbar	-10.3972
▁dizanin	-10.3973
▁bêjedarê	-10.3974
▁berpirsiyar	-10.3998
▁bajarekî	-10.4008
▁nebûye	-10.4009
▁armancên	-10.4017
▁+	-10.4019
bilind	-10.4024
ubl	-10.4032
▁Emerîka	-10.4048
▁biparêzin	-10.4048
▁Rojname	-10.4056
▁qed	-10.4066
▁[17:3	-10.4074
▁pêngavê	-10.4074
leri	-10.4075
▁Zanist	-10.4078
▁2018	-10.4083
▁Komarî	-10.4085
▁RÊ	-10.4089
▁anîne	-10.4092
▁Ebd	-10.4096
▁qel	-10.41
▁rêvebirin	-10.4102
▁reporta	-10.4103
▁م	-10.411
▁dîdarek	-10.4112
▁Jor	-10.4112
▁cezayê	-10.4113
▁ragehand	-10.4115
lü	-10.4117
▁pêşveçûn	-10.4126
feld	-10.4127
▁Îbn	-10.4127
▁wate	-10.4129
▁Mark	-10.413
AYÎ	-10.4131
▁çalakiyên	-10.4144
▁[17:4	-10.4152
▁Rizgar	-10.4152
▁Mac	-10.4153
col	-10.4153
▁pêzanînên	-10.416
▁ewlekarîyê	-10.4174
▁zana	-10.4175
hîd	-10.4177
▁mayinkirî	-10.4178
Girêdanên	-10.4179
vis	-10.4181
▁Yawer	-10.4195
▁1946	-10.4198
▁navxweyîyê	-10.42
▁Enstîtuy	-10.4204
▁Parliyament	-10.4204
▁Lêkolîn	-10.4204
▁berçav	-10.4206
▁riwekan	-10.4212
▁Şam	-10.4213
▁Til	-10.4217
▁Colemêrgê	-10.4218
ografî	-10.422
▁1986	-10.4221
sna	-10.4221
alîzm	-10.4227
▁herdû	-10.423
▁Hecî	-10.424
EYÊN	-10.4244
▁Bor	-10.4246
Par	-10.4249
tûr	-10.4254
▁piçûk	-10.4257
▁DAXWAZ	-10.4259
▁sur	-10.4259
berhemanîn	-10.426
▁sey	-10.4268
▁mit	-10.4269
▁[19:0	-10.4284
▁Îsmaîl	-10.4284
▁Îmarat	-10.4284
▁Cemîl	-10.4289
▁perwerdeyê	-10.4299
▁Cemal	-10.4301
▁astê	-10.4304
▁Erdnîgarî	-10.4309
·	-10.431
▁TALEBANÎ	-10.431
▁[17:0	-10.431
▁farisî	-10.431
▁Aborî	-10.4312
▁binivîse	-10.4314
▁Afrîkayê	-10.4319
tiv	-10.4321
▁amûr	-10.4324
▁Heger	-10.4327
▁TEQÎN	-10.4337
т	-10.4337
▁zayînê	-10.4337
▁parliyamenter	-10.4339
▁desthilat	-10.4346
ical	-10.4347
rîş	-10.4359
▁bakûr	-10.4363
collapse	-10.4363
paşeroj	-10.4368
BER	-10.4373
-5	-10.4384
height	-10.4388
▁gî	-10.4388
▁[18:5	-10.439
bînin	-10.4396
▁Fat	-10.4398
▁hej	-10.4398
▁1981	-10.4405
▁tûj	-10.4405
▁devok	-10.4406
far	-10.4406
▁dibistanê	-10.4409
trop	-10.4412
▁Peter	-10.4415
▁bazirganîyê	-10.4416
▁Neynewa	-10.4417
▁Duşemê	-10.4417
▁bîranîna	-10.4417
▁xanî	-10.4427
▁çêkir	-10.4435
lend	-10.4435
▁Peyv	-10.4443
▁demokrasî	-10.4443
▁KURDISTANÎ	-10.4444
▁zankoya	-10.4444
▁Ahmed	-10.4444
▁niv	-10.4444
▁art	-10.4447
▁cihû	-10.4448
▁Şingal	-10.4453
▁gotibû	-10.4456
▁derhêner	-10.4458
▁qû	-10.4462
▁Zar	-10.4465
▁Herdu	-10.447
▁Demîrtaş	-10.4471
▁daxuyannameyê	-10.4471
▁texmîn	-10.4471
axiv	-10.4478
▁arêşeya	-10.4479
▁asmanî	-10.4479
▁navxweyîya	-10.4485
▁IRAQ	-10.449
vend	-10.4494
▁tiştek	-10.4495
▁zehmet	-10.4498
▁ayinde	-10.4498
▁rêkeftin	-10.4498
Ro	-10.4507
▁[16:5	-10.4525
▁pûşper	-10.4525
▁PÊŞ	-10.4525
▁Çel	-10.4528
▁Japan	-10.4528
▁Licê	-10.4543
▁Heft	-10.4548
zdeh	-10.4549
▁şêweyekî	-10.4555
▁General	-10.4579
▁sistema	-10.458
▁Pîroz	-10.4582
▁revandin	-10.4582
opo	-10.4605
▁[18:3	-10.4607
▁Federal	-10.4607
▁Kul	-10.4607
▁Nûr	-10.4611
▁Kele	-10.4612
▁Nam	-10.4612
▁Stran	-10.4612
cro	-10.4615
▁kil	-10.462
▁kêmanî	-10.4632
NI	-10.4632
▁Cor	-10.4636
▁kevtin	-10.4638
▁HER	-10.4643
ÎYE	-10.4646
▁por	-10.4649
▁dewletek	-10.4653
▁guneh	-10.4656
▁destkevt	-10.4662
Genus	-10.4666
▁bawerîyê	-10.4667
▁siza	-10.4671
▁1983	-10.4679
▁otombîlek	-10.4689
▁derdikevin	-10.4689
▁kifş	-10.4689
▁wekhev	-10.469
▁gewr	-10.4694
▁nerm	-10.4695
▁diyarkirin	-10.47
▁pêvajoya	-10.4717
▁pirsgirêkên	-10.4717
Mo	-10.4726
▁dubare	-10.4727
WAN	-10.4727
jimêr	-10.4734
▁lewra	-10.4745
▁kulîlk	-10.4745
▁şêx	-10.4748
WAR	-10.4748
bgcolor	-10.475
▁babet	-10.4758
▁Sewa	-10.4763
▁kew	-10.4769
fil	-10.4771
▁naxwazin	-10.4772
▁Xur	-10.4772
▁Aram	-10.4785
▁budce	-10.4785
▁Enqereyê	-10.4788
▁Şemzînan	-10.48
asyonê	-10.4802
▁zelal	-10.4804
▁nexweşxaneya	-10.4808
guherîn	-10.481
▁Nexweş	-10.4815
▁mezintir	-10.4818
▁dewr	-10.4825
pho	-10.4831
▁dûv	-10.4838
▁adara	-10.484
siv	-10.485
▁Hate	-10.4853
َ	-10.4856
▁klasîk	-10.4856
▁mamosta	-10.4856
▁nimûne	-10.4856
stadt	-10.486
▁piştevanî	-10.4874
▁mor	-10.4876
▁Hor	-10.4881
ز	-10.4884
▁[19:2	-10.4884
▁Chi	-10.4898
Nav	-10.4899
▁parastin	-10.4899
▁Cam	-10.4906
▁[17:1	-10.4912
▁[17:5	-10.4912
▁[18:4	-10.4912
▁împerator	-10.4912
▁Hewramî	-10.4912
▁Deşta	-10.4914
▁qewimî	-10.492
▁Serokatîy	-10.4924
rûd	-10.4939
JPG	-10.494
▁radestî	-10.4941
▁Nîsan	-10.495
row	-10.4953
/31	-10.4953
▁çiriy	-10.4958
▁1977	-10.496
▁lîsteya	-10.4962
▁Bizavkar	-10.4969
▁veguhastin	-10.4969
▁rojhelat	-10.4969
▁ketiye	-10.4973
▁tevahî	-10.4974
▁fil	-10.4978
▁Pirs	-10.4981
▁Vol	-10.4986
▁1985	-10.4992
▁gomanbar	-10.4997
▁firotin	-10.4997
▁Tahir	-10.5005
▁Tevger	-10.5005
▁anîye	-10.5006
▁„	-10.5007
▁dorpêç	-10.5026
▁çaverêkirin	-10.5044
▁RÊKEVTIN	-10.5054
▁bombbaran	-10.5056
▁Jibo	-10.5059
▁komar	-10.506
▁behs	-10.5077
▁kirdarek	-10.5078
ح	-10.5083
▁Zêwye	-10.5083
▁Qezafî	-10.5083
▁bimînin	-10.5086
▁yekser	-10.5088
▁Gelhe	-10.5104
▁Celewla	-10.5112
▁Nuceyfî	-10.5112
▁gelawêj	-10.5112
▁Êzdî	-10.5112
▁derkevt	-10.5115
enberg	-10.5124
▁Êdî	-10.5137
▁Semsûr	-10.514
▁radigihîne	-10.514
▁niştîmanî	-10.514
▁helwêst	-10.514
▁berxwedan	-10.5142
▁bêhn	-10.5145
▁Dikin	-10.5148
▁baweriyê	-10.5148
،	-10.5169
▁Nêzîk	-10.5169
▁Gö	-10.517
▁978-	-10.517
nîgarî	-10.517
▁Qir	-10.5173
▁bombebaran	-10.5173
▁Xelatgirê	-10.5173
▁piştrast	-10.5175
shi	-10.5181
▁matematîk	-10.5198
▁Afganî	-10.5198
▁Avesta	-10.5198
▁Weşanxan	-10.52
▁niştimanîya	-10.5205
▁lîz	-10.5209
meh	-10.521
▁Del	-10.5211
▁str	-10.5222
▁BIN	-10.5223
▁Gentiana	-10.5228
▁pilan	-10.5233
▁wezîr	-10.5235
▁Muzîk	-10.5237
▁Bingeh	-10.5247
▁xwandin	-10.5252
▁William	-10.5257
▁rêkxistin	-10.5263
Kesên	-10.5268
▁sizayê	-10.5273
▁şor	-10.5279
▁Navneteweyî	-10.5286
▁daxuyaniyek	-10.5286
▁Zîn	-10.5289
▁Mü	-10.5308
▁seretayî	-10.5315
▁rêveberiya	-10.5336
▁Şeqlaweyê	-10.5344
▁HEVPEYMANÎYA	-10.5345
▁Dekak	-10.5345
▁George	-10.5345
▁hevalbend	-10.5347
▁Îtîlafa	-10.5374
▁riswa	-10.5374
lûl	-10.5378
▁Kirin	-10.5385
▁1974	-10.5393
▁[16:4	-10.5404
▁[19:1	-10.5404
▁Recep	-10.5404
▁baregehê	-10.5406
▁150	-10.541
▁Brîtanyayê	-10.541
▁mît	-10.542
gul	-10.5421
▁Zeng	-10.5432
▁Baydemîr	-10.5433
▁Ermenî	-10.5435
▁xel	-10.5436
cor	-10.5438
▁abûrî	-10.544
0%;	-10.5442
▁bandorek	-10.5459
ج	-10.5463
▁[16:2	-10.5463
▁enfal	-10.5463
▁Zerdeşt	-10.5463
▁nîvrojê	-10.5463
▁aştîyane	-10.5464
▁nexşe	-10.5464
▁êvarî	-10.5464
▁bikaribin	-10.5465
EST	-10.5469
▁kerta	-10.5472
▁Corc	-10.5479
▁1973	-10.5479
▁îsal	-10.5487
▁temen	-10.5487
▁Lor	-10.5493
в	-10.5493
▁hêrîş	-10.5496
▁DIN	-10.5498
pejir	-10.5499
İ	-10.5505
▁pal	-10.5519
▁Demokrasî	-10.5523
▁berjewendîyê	-10.5523
▁opozisiyon	-10.5523
BW	-10.5541
▁kêmtir	-10.5543
▁mêj	-10.5556
▁GO	-10.5562
▁şiyan	-10.5565
▁gelhe	-10.5573
Kom	-10.5576
▁hinar	-10.5576
▁Debbax	-10.5583
▁kehrebay	-10.5583
▁şêwaz	-10.5583
▁Karkerên	-10.5583
▁Duhok	-10.5585
▁Qesr	-10.5607
▁lidarxistin	-10.5614
▁NÛRÎ	-10.5614
▁nerazîbûna	-10.5622
▁Yekem	-10.5632
▁hertim	-10.5646
▁nasnameya	-10.565
▁hukûmeteka	-10.5655
olojîk	-10.5657
▁Val	-10.5658
▁yekîtîya	-10.5675
▁herêmek	-10.5683
▁roket	-10.5684
▁Seyda	-10.5695
llah	-10.5695
▁pla	-10.5699
▁namzed	-10.5704
▁hilweşandin	-10.5704
▁Sîrwan	-10.5704
▁bask	-10.5723
▁petrol	-10.5725
▁[16:3	-10.5735
▁Elhekîm	-10.5735
▁agahiyên	-10.5735
▁xwenîşander	-10.5735
▁agirbest	-10.5737
▁hilwest	-10.5738
▁kişandin	-10.5739
▁Ebas	-10.5751
▁muhrkirin	-10.5759
▁sipî	-10.5762
▁Nifûs	-10.5766
▁Dibistana	-10.5766
▁bernameyên	-10.5766
▁wergirtiye	-10.578
▁guman	-10.5788
▁yekalî	-10.5789
▁Gün	-10.5801
size	-10.581
▁nişt	-10.5812
▁tank	-10.5812
▁Krist	-10.5814
▁Xor	-10.5821
▁West	-10.5824
Yewnan	-10.5828
▁gengeşekirin	-10.5834
BY	-10.5845
▁Midyad	-10.5858
▁Serokwezîr	-10.5862
▁Dor	-10.5865
Bûyerê	-10.5872
▁Dîwan	-10.5885
▁ragiahnd	-10.5889
▁pêywîst	-10.5889
▁Talîban	-10.5889
▁piştgiriya	-10.5889
▁Dîlokê	-10.589
▁Ezîz	-10.5893
▁serkeftî	-10.5898
GER	-10.5899
▁tomarkirin	-10.5906
▁pêzanîn	-10.5911
ograf	-10.5913
xaneyek	-10.5919
»	-10.592
ο	-10.592
▁Pakîstan	-10.592
▁saxlem	-10.5921
▁nêzik	-10.5923
▁Um	-10.5932
▁[19:4	-10.5952
▁axavtin	-10.5952
▁vekolîn	-10.5953
▁nûçeyê	-10.5958
▁Keç	-10.596
▁zîyan	-10.5974
▁kîlo	-10.5975
▁DAXWAZA	-10.5981
▁SEROKATÎYA	-10.5983
Ü	-10.5983
▁piroje	-10.5984
▁Usam	-10.5987
▁cîhana	-10.5989
▁hevdû	-10.6
vik	-10.6008
▁sînema	-10.6015
▁tevay	-10.6022
▁Seyîd	-10.6022
▁Lîbyayê	-10.6026
▁Mehdî	-10.6037
bixwîne	-10.6041
▁Duh	-10.6041
▁Hilbijartin	-10.6046
▁LÎSTA	-10.6046
▁Navçeyê	-10.605
▁Selîm	-10.6051
qanûn	-10.6064
▁sax	-10.6073
▁hejmartin	-10.6077
▁hilawîstî	-10.6078
▁Samerrayî	-10.6078
▁James	-10.6078
Galerî	-10.6083
▁Pakistan	-10.6084
▁Fel	-10.6097
▁1976	-10.61
▁nirxandin	-10.6101
▁paşxistin	-10.6106
▁Rewşen	-10.6109
▁Mubarek	-10.611
▁Qeter	-10.6112
▁gulana	-10.6115
▁dı	-10.612
▁kl	-10.6125
▁1971	-10.6126
▁qedand	-10.6135
nişîn	-10.6139
ف	-10.6141
▁pêşnîyar	-10.6141
▁nemîne	-10.6143
▁Gerek	-10.6158
phi	-10.6163
endam	-10.6173
▁Maşallah	-10.6173
▁[19:5	-10.6173
▁mijûl	-10.6173
stro	-10.6173
▁zayend	-10.6174
▁hêşta	-10.6174
▁termê	-10.6191
▁berevanî	-10.6199
▁qew	-10.6205
spacing	-10.6205
▁televizyon	-10.6205
▁axivî	-10.6211
▁çavdêrîya	-10.6235
▁paytext	-10.6235
▁Albûm	-10.6238
▁xurttir	-10.6249
▁Frank	-10.6249
▁otomobîlek	-10.6268
š	-10.627
▁PETROL	-10.627
▁Mustafa	-10.627
▁hefteyê	-10.6286
▁[19:3	-10.6302
▁Berlîn	-10.6303
▁Top	-10.6308
krat	-10.6317
▁soranî	-10.6318
▁hêzeka	-10.6325
ẍ	-10.6334
▁paytaxt	-10.6334
▁çarçoveyê	-10.6334
▁paqij	-10.6334
▁Cotmeh	-10.6334
▁Port	-10.634
▁Fars	-10.635
▁nabin	-10.6353
«	-10.6367
▁Tewafuq	-10.6367
▁konsulxaneya	-10.6367
▁ŞANDEYEK	-10.6367
▁peywendîdar	-10.6373
▁1972	-10.6385
Cejn	-10.6388
Kese	-10.6395
▁Lewra	-10.64
▁Tri	-10.6402
▁koşka	-10.6402
▁deryayê	-10.6403
▁serkirdeyên	-10.6413
▁1925	-10.6428
▁SUPAYÊ	-10.6433
▁pîvaz	-10.6433
▁Amade	-10.6436
▁wateyê	-10.6443
1"|	-10.6447
▁1967	-10.6454
▁genc	-10.6457
▁gihijtin	-10.6464
▁International	-10.6465
▁Rewandizî	-10.6465
▁Far	-10.6469
▁binemal	-10.6501
▁Îmam	-10.6501
Roj	-10.6509
▁muzîk	-10.6514
▁1969	-10.6516
girav	-10.6518
▁qo	-10.6523
▁ÇARESER	-10.6532
ق	-10.6532
▁Ebdulkerîm	-10.6532
▁Êzîd	-10.6532
▁Pêşangeh	-10.6533
▁xul	-10.6533
▁nivis	-10.6545
▁guher	-10.655
▁September	-10.6565
▁[20:0	-10.6565
▁daxuyannameya	-10.6565
▁rezberê	-10.6565
▁çêdibe	-10.6565
▁mûzîk	-10.6566
▁hîç	-10.6586
▁serkirde	-10.6586
▁Êl	-10.659
▁temaşe	-10.6598
▁teqandin	-10.6608
BÛNA	-10.6617
▁album	-10.6632
▁Riwek	-10.6632
▁hilberîn	-10.6633
▁Mînak	-10.6634
▁Umer	-10.6634
ayetiya	-10.6641
▁derketiye	-10.6663
▁PÊK	-10.6665
▁CHP	-10.6665
▁rûmet	-10.6666
▁wêjeyê	-10.6667
▁teksta	-10.6672
▁Peymana	-10.6673
▁Prof	-10.6689
▁konser	-10.6691
▁Ferman	-10.6698
▁serokwezîr	-10.6699
▁Türk	-10.6699
▁têkiliya	-10.67
▁Şehîd	-10.6701
▁Euro	-10.6702
▁HILBIJARTINAN	-10.6702
▁bîst	-10.6704
▁1966	-10.672
▁Felestîn	-10.6733
▁bac	-10.6745
▁Çil	-10.6748
▁hokarê	-10.6749
▁Barzan	-10.6749
▁felsef	-10.6761
▁1945	-10.6765
д	-10.6766
▁SIYASÎ	-10.6766
–19	-10.6768
ombesta	-10.677
▁rûniştinê	-10.677
▁Nur	-10.6798
▁[20:1	-10.68
ú	-10.68
▁mîlyon	-10.68
▁Qahîre	-10.68
▁genim	-10.6801
300	-10.6805
▁dêrendazê	-10.6806
opter	-10.6807
▁Lîsta	-10.6808
▁Hedba	-10.6835
▁mebestê	-10.684
▁malbatek	-10.6844
▁POLÎS	-10.6869
▁Fîlozof	-10.6869
▁Kongreya	-10.6869
▁mecbûr	-10.6869
▁îmza	-10.6869
▁kongireyek	-10.687
▁Stewr	-10.687
▁Batmanê	-10.6871
▁hevwelatîyek	-10.6876
▁Kêm	-10.6887
omys	-10.6894
▁rêzgirtin	-10.69
▁Malper	-10.6902
ī	-10.6903
▁Combretum	-10.6903
▁[20:2	-10.6903
▁Misilman	-10.6903
▁prosesê	-10.6903
▁fikr	-10.6908
▁bingehek	-10.6911
▁Vo	-10.6919
▁Engl	-10.6919
▁hewldan	-10.6922
▁Şemîyê	-10.6922
▁pirtûkek	-10.6928
▁xizan	-10.6932
rûsk	-10.6934
▁Ibrahîm	-10.6938
▁pozetîv	-10.6938
▁gihîşt	-10.6938
▁zindî	-10.6943
▁leheng	-10.6948
▁Şêrwan	-10.6959
▁Kanal	-10.696
▁pîrozbayîyê	-10.6961
▁digihê	-10.6962
▁kîjan	-10.6974
▁Nîv	-10.6981
▁Mend	-10.6999
▁Rast	-10.7
▁metre	-10.7001
▁dengdan	-10.7003
▁serhildayan	-10.7007
▁Meksîk	-10.7007
▁ÇEND	-10.7013
▁Bawer	-10.7018
▁Faris	-10.7024
▁1968	-10.7028
▁parêzer	-10.704
▁[11:1	-10.7042
▁Şehristanî	-10.7042
▁Rêveber	-10.7042
▁pişkinînê	-10.7042
▁Gates	-10.7045
▁rûnişt	-10.7069
▁berfanbarê	-10.7077
▁nîqaş	-10.7077
▁grûpa	-10.7077
▁bisekin	-10.7077
▁serdanek	-10.7078
▁xwezayî	-10.7081
ار	-10.7085
▁1930	-10.7102
▁hebûye	-10.7108
▁BALYOZÊ	-10.7112
▁PIRSA	-10.7112
▁pêngava	-10.7112
▁aktîv	-10.7112
▁Xanedan	-10.7116
▁rewşek	-10.7136
▁Necef	-10.7147
▁font	-10.715
gihêjin	-10.7161
▁teqînek	-10.7167
▁Anatoliya	-10.7173
▁1965	-10.7174
▁Bidlîsê	-10.7182
▁[11:3	-10.7182
="0"	-10.7183
▁Peyvdarê	-10.7184
sebeb	-10.72
▁Şev	-10.7208
▁Enwer	-10.7209
▁Stockholm	-10.7218
▁naxwaze	-10.7218
▁cemawer	-10.7218
▁lêborîn	-10.7218
▁zirav	-10.7218
▁Celîl	-10.722
▁hevgirtina	-10.7234
Cinsa	-10.7237
▁teqand	-10.7244
▁Baxdad	-10.7244
YAR	-10.7247
▁Emîr	-10.725
▁Remezan	-10.7254
▁Rezber	-10.7254
▁Arif	-10.7274
▁DeMistura	-10.7289
▁Konferans	-10.7289
▁Wêranşar	-10.7289
▁[11:2	-10.7289
▁[20:4	-10.7289
▁molekul	-10.7289
▁albûma	-10.7289
▁Firyad	-10.7289
▁element	-10.729
▁xebitî	-10.729
▁zarê	-10.7296
enburg	-10.7296
▁Calceolaria	-10.7325
▁University	-10.7325
▁hesibandin	-10.7325
▁sembol	-10.7325
▁Supayê	-10.7325
▁konsulê	-10.7325
▁sîvîl	-10.7325
▁Nîşan	-10.7332
▁Alîkar	-10.7336
▁deşta	-10.7338
▁navçeyek	-10.7341
▁2019	-10.7342
▁Çal	-10.7349
▁1958	-10.7351
oidea	-10.7353
ł	-10.7361
▁hijmara	-10.7361
▁operasyonek	-10.7361
▁Allium	-10.7361
▁Teyib	-10.7361
▁nêvdewletî	-10.7361
▁Muftî	-10.7361
▁şîret	-10.7393
▁Cent	-10.7397
у	-10.7397
▁Xet	-10.7407
▁erênî	-10.741
▁ELIRAQÎYYE	-10.7433
▁rind	-10.7448
▁hingê	-10.7455
▁1957	-10.7458
[	-10.7465
▁|-----	-10.747
▁nifûs	-10.747
▁Simko	-10.747
rahîm	-10.7472
▁dimînin	-10.7474
▁Film	-10.7474
▁giyanê	-10.7486
▁1963	-10.7492
▁doktor	-10.7506
▁diaxivin	-10.7506
▁hesab	-10.7514
▁zilam	-10.7518
′	-10.7543
▁MEZIN	-10.7543
▁Mexmûr	-10.7543
▁têgihiştin	-10.7543
▁girêda	-10.755
▁xelas	-10.7551
▁Rojavay	-10.7579
▁tîrmeha	-10.758
▁pêşkeş	-10.7582
▁avahiya	-10.759
▁Erebistan	-10.7592
▁Peyam	-10.7604
▁HEVWELATÎ	-10.7617
▁Okyanûsa	-10.7617
▁[11:4	-10.7617
▁program	-10.7617
DIVÊ	-10.7619
▁Cihû	-10.7654
▁1961	-10.7672
▁alîyek	-10.7681
▁milliyard	-10.7691
▁Klinton	-10.7691
▁investkar	-10.7691
▁aşkere	-10.7691
▁bûdcey	-10.7691
▁razîbûna	-10.7707
tral	-10.7711
▁Mûsil	-10.7727
▁WEZARETA	-10.7728
▁serokatîyê	-10.7729
▁Zêr	-10.7729
▁Dicle	-10.773
▁Cureyê	-10.7741
▁sînorîyên	-10.7743
▁Rêxistin	-10.776
▁BILIND	-10.7765
▁rêbendanê	-10.7765
▁kultur	-10.7767
▁Dolar	-10.7784
odon	-10.7791
▁polîtburoya	-10.7803
خ	-10.7803
▁ezmûn	-10.7803
▁zext	-10.7815
▁sivik	-10.7828
▁EVROJ	-10.7841
▁HERÊMÊ	-10.7841
▁peywendiyên	-10.7841
▁serhildayên	-10.7841
▁Parastina	-10.7841
▁World	-10.7841
▁îtalî	-10.7841
▁Yekemîn	-10.7864
▁HILBIJARTIN	-10.7875
▁[16:1	-10.7879
▁niştecih	-10.7879
▁îmze	-10.7879
▁reftar	-10.788
rêjîya	-10.7883
▁BAREY	-10.7888
▁WELAT	-10.7917
▁ceribandin	-10.7917
▁biwaran	-10.7931
▁AMADE	-10.7955
▁Brîtanî	-10.7955
▁pêşkevtî	-10.7955
▁xwendiye	-10.7956
▁hindik	-10.7972
▁kirîbû	-10.7984
▁nivîsar	-10.7986
gram	-10.7992
▁TERORÎST	-10.7993
▁futbolê	-10.7993
▁propaganda	-10.7993
▁Kirmaşan	-10.7993
▁kompaniya	-10.7993
▁dûçûna	-10.7993
▁Mecîd	-10.7994
▁wêjeyî	-10.7994
▁dizane	-10.801
▁bizavkar	-10.801
▁têgih	-10.8014
−	-10.8032
▁MEHMÛD	-10.8032
▁kewçêrê	-10.8032
▁Ewrûpa	-10.8032
▁veşartin	-10.8032
▁Bêr	-10.8057
ique	-10.8057
▁OSMAN	-10.807
▁Keyaniya	-10.8071
▁Gercan	-10.8076
qui	-10.8086
rêvebir	-10.8092
▁Xaç	-10.8096
▁opozîsyon	-10.8109
▁Kerbela	-10.8109
0,000	-10.8114
▁tesîr	-10.8115
▁Elqayide	-10.8148
▁proseseka	-10.8148
▁serokkomar	-10.8148
▁îsota	-10.8148
▁pêşbînî	-10.815
newey	-10.8151
▁xurek	-10.8153
▁daristan	-10.8154
▁dixwest	-10.8154
▁Fermandarê	-10.8156
▁Eyûb	-10.819
▁III	-10.8199
▁sedsal	-10.8218
▁Krîstyan	-10.8226
▁jenosîd	-10.8226
▁Petrol	-10.8226
oğlu	-10.8226
▁bîrdoz	-10.8227
▁hemwelatî	-10.8227
▁Teqîn	-10.8228
▁seredana	-10.823
class	-10.823
▁dezgeh	-10.8236
▁Anatoliyay	-10.8237
rsîyên	-10.8248
▁Swîsre	-10.8266
▁Sosyalîst	-10.8266
▁aştiyê	-10.8266
▁BIBE	-10.8277
▁Newroz	-10.8298
▁xeynî	-10.8305
▁KOMBÛNA	-10.8306
▁Parlemen	-10.8306
▁rejîmê	-10.8306
\	-10.8307
▁Xinûs	-10.8308
▁derkeve	-10.8318
▁nekirine	-10.8319
▁ALÎYÊ	-10.8322
▁Stêr	-10.8338
▁stiratecîk	-10.8345
▁werziş	-10.8345
▁zozan	-10.8345
▁Lîbiya	-10.8345
▁neftê	-10.8348
▁zagon	-10.8348
▁Aştiyê	-10.8349
▁Meydan	-10.8351
▁[11:0	-10.8385
▁America	-10.8385
▁CNN	-10.8385
▁Murad	-10.8387
▁Mesîh	-10.8387
▁KERKÛK	-10.8416
▁Mamoste	-10.8425
▁avedankirin	-10.8425
▁xûyakirin	-10.8425
▁Lîstik	-10.8425
▁negih	-10.8426
http	-10.8428
▁Elmanya	-10.8431
▁saet	-10.8446
▁Hillary	-10.8465
▁Çomanê	-10.8465
▁eyaleta	-10.8465
▁sêşemb	-10.8465
▁dibêjit	-10.8465
▁Ewropî	-10.8465
▁Piraniya	-10.8466
▁biparêze	-10.8468
ة	-10.8505
▁guhartin	-10.8505
▁modern	-10.8506
▁hukum	-10.8506
▁deverek	-10.8511
▁têkilî	-10.8513
▁[16:0	-10.8546
▁çarçêweya	-10.8546
▁Rejîma	-10.8546
▁gerîyeka	-10.8546
▁îdîa	-10.8548
▁Mehmed	-10.855
▁Lubnan	-10.8586
м	-10.9217
ۆ	-10.9392
ι	-10.9797
آ	-10.9843
ρ	-10.9843
ς	-10.989
ν	-11.003
τ	-11.022
å	-11.0414
گ	-11.0512
ș	-11.1228
پ	-11.1281
ū	-11.1389
ئ	-11.1662
É	-11.1717
λ	-11.183
ə	-11.1886
ḧ	-11.1943
à	-11.2409
أ	-11.2836
>	-11.2836
я	-11.2899
п	-11.3025
ë	-11.3217
μ	-11.3282
й	-11.3282
ы	-11.348
י	-11.3546
‘	-11.3809
ō	-11.3886
ـ	-11.3956
г	-11.4096
^	-11.431
б	-11.4311
ч	-11.4311
з	-11.4311
ژ	-11.4678
ص	-11.4753
κ	-11.4905
چ	-11.4982
ô	-11.506
þ	-11.506
ْ	-11.506
ε	-11.5138
ِ	-11.5217
ñ	-11.5457
ա	-11.5457
č	-11.562
ь	-11.5786
η	-11.587
σ	-11.6301
γ	-11.639
ُ	-11.6752
ř	-11.6938
С	-11.6938
×	-11.7321
ו	-11.7321
ط	-11.7321
π	-11.7419
ר	-11.7419
ć	-11.7518
ά	-11.7518
Ḧ	-11.7518
<	-11.7618
ž	-11.7719
غ	-11.7821
ø	-11.8028
ί	-11.8133
А	-11.824
М	-11.8456
К	-11.8456
ל	-11.8566
х	-11.8677
υ	-11.8903
ό	-11.9134
ה	-11.9134
П	-11.9252
ڵ	-11.9252
Б	-11.9371
́	-11.9659
ė	-11.9737
ڤ	-11.9737
æ	-11.9862
Š	-11.9862
В	-11.9988
$	-11.9989
ˈ	-12.0116
δ	-12.0116
ã	-12.0378
ڕ	-12.0378
ш	-12.0646
	-12.0783
ē	-12.0922
ḥ	-12.0922
Ö	-12.0985
ა	-12.1063
~	-12.1063
ّ	-12.1063
ʿ	-12.1206
ი	-12.1351
@	-12.1799
ә	-12.1799
ր	-12.1799
ى	-12.1952
א	-12.2109
ì	-12.2109
ḱ	-12.2267
ă	-12.2267
ц	-12.2267
ն	-12.2267
θ	-12.2593
ĥ	-12.2759
Н	-12.2759
מ	-12.2759
Д	-12.2929
ث	-12.2929
έ	-12.3101
ф	-12.3455
ж	-12.3455
Č	-12.3455
이	-12.3637
ذ	-12.3822
Р	-12.4011
ω	-12.4203
И	-12.4399
사	-12.4599
†	-12.4726
Т	-12.4803
ת	-12.4803
스	-12.4803
Á	-12.5012
β	-12.5012
ě	-12.5012
ء	-12.5225
ھ	-12.5225
ή	-12.5225
ض	-12.5442
ե	-12.5664
כ	-12.5664
„	-12.5814
φ	-12.6124
О	-12.6124
ի	-12.6124
ד	-12.6124
ę	-12.6606
إ	-12.6606
­	-12.6856
의	-12.6856
ò	-12.7112
Г	-12.7112
‚	-12.7112
ј	-12.7112
ܐ	-12.7376
ש	-12.7376
ո	-12.7646
Л	-12.7646
ъ	-12.7646
ý	-12.7646
χ	-12.7646
ύ	-12.7924
э	-12.7924
ː	-12.7924
ს	-12.7924
‐	-12.8503
区	-12.8503
ב	-12.8503
ე	-12.8503
ー	-12.8503
ï	-12.8806
ṣ	-12.8806
ķ	-12.8806
ן	-12.8806
۰	-12.9119
ा	-12.9119
்	-12.9119
რ	-12.9119
ע	-12.9119
ח	-12.9119
ܝ	-12.9119
Π	-12.9441
ą	-12.9442
्	-12.9442
ś	-12.9775
Å	-12.9775
Σ	-12.9775
ლ	-12.9775
€	-12.9775
아	-12.9775
ო	-12.9775
З	-13.012
Ε	-13.012
다	-13.012
Ф	-13.0477
한	-13.0477
Ä	-13.0477
र	-13.0847
국	-13.0847
า	-13.1232
ɪ	-13.1232
자	-13.1232
ȗ	-13.1232
נ	-13.1232
ظ	-13.1232
⇒	-13.1232
가	-13.1232
ɛ	-13.1232
ン	-13.1232
Í	-13.1632
ť	-13.1632
Μ	-13.1632
ξ	-13.1632
Đ	-13.1632
ĝ	-13.1632
ק	-13.1632
Τ	-13.1632
ז	-13.2048
Α	-13.2048
Х	-13.2048
կ	-13.2048
प	-13.2048
Ο	-13.2048
յ	-13.2048
۱	-13.2048
ʾ	-13.2483
ю	-13.2483
ù	-13.2483
ώ	-13.2483
の	-13.2483
랑	-13.2483
하	-13.2483
ร	-13.2938
대	-13.2938
ð	-13.2938
ň	-13.2938
У	-13.2938
ʻ	-13.3413
ி	-13.3414
ǎ	-13.3414
Ч	-13.3414
ג	-13.3414
ט	-13.3414
ܡ	-13.3414
ń	-13.3414
郎	-13.3414
고	-13.3414
도	-13.3414
라	-13.3414
і	-13.3414
մ	-13.3414
ṭ	-13.3914
Â	-13.3914
Ó	-13.3914
ס	-13.3914
ً	-13.3914
٠	-13.3914
一	-13.3914
木	-13.3914
리	-13.3914
어	-13.3914
인	-13.3914
¬	-13.3914
ָ	-13.444
া	-13.444
ő	-13.444
ि	-13.444
市	-13.444
는	-13.444
신	-13.444
지	-13.444
드	-13.444
Δ	-13.444
시	-13.444
Θ	-13.4996
ʒ	-13.4996
ܪ	-13.4996
南	-13.4996
마	-13.4996
은	-13.4996
ų	-13.4996
ż	-13.4996
朝	-13.4996
Ж	-13.4996
Ա	-13.4996
水	-13.5584
ბ	-13.5584
西	-13.5584
해	-13.5584
ɔ	-13.5584
צ	-13.5584
여	-13.5584
우	-13.5584
đ	-13.5584
ʃ	-13.5584
Ш	-13.5584
न	-13.5584
უ	-13.6209
ĉ	-13.6209
ŭ	-13.6209
ǔ	-13.6209
Η	-13.6209
ܘ	-13.6209
ܢ	-13.6209
თ	-13.6209
들	-13.6209
미	-13.6209
왕	-13.6209
פ	-13.6209
٢	-13.6209
น	-13.6876
Β	-13.6876
տ	-13.6876
ζ	-13.6876
ल	-13.6876
स	-13.6876
ů	-13.6876
Е	-13.6876
ם	-13.6876
ٍ	-13.6876
ी	-13.6876
♭	-13.6876
♯	-13.6876
로	-13.6876
상	-13.6876
ё	-13.6876
ம	-13.6876
ス	-13.6876
Γ	-13.6876
ɑ	-13.759
ܬ	-13.759
ḍ	-13.759
大	-13.759
기	-13.759
부	-13.759
소	-13.759
ʊ	-13.759
ர	-13.759
州	-13.759
일	-13.759
ნ	-13.759
ҹ	-13.759
ク	-13.759
ү	-13.759
ม	-13.8359
լ	-13.8359
ܠ	-13.8359
±	-13.8359
ġ	-13.8359
œ	-13.8359
Ι	-13.8359
Ṣ	-13.8359
山	-13.8359
海	-13.8359
내	-13.8359
설	-13.8359
Ā	-13.8359
Ğ	-13.8359
̈	-13.8359
Ю	-13.8359
क	-13.8359
江	-13.8359
파	-13.8359
त	-13.8359
მ	-13.8359
新	-13.8359
۳	-13.8359
ტ	-13.8359
명	-13.9193
ܕ	-13.9193
조	-13.9193
ŝ	-13.9193
ʼ	-13.9193
ψ	-13.9193
ვ	-13.9193
县	-13.9193
国	-13.9193
դ	-13.9193
ּ	-13.9193
성	-13.9193
ิ	-14.0102
კ	-14.0102
Χ	-14.0102
ग	-14.0102
安	-14.0102
선	-14.0102
Ú	-14.0102
族	-14.0102
ө	-14.0102
北	-14.0102
러	-14.0102
전	-14.0102
¤	-14.0102
§	-14.0102
Æ	-14.0102
ˆ	-14.0102
ս	-14.0102
ٌ	-14.0102
म	-14.0102
ম	-14.0102
‟	-14.0102
│	-14.0102
나	-14.0102
비	-14.0102
서	-14.0102
세	-14.0102
һ	-14.0102
남	-14.0102
ニ	-14.0102
ア	-14.0102
自	-14.1102
த	-14.1102
中	-14.1102
ก	-14.1102
Ρ	-14.1102
ḏ	-14.1102
リ	-14.1102
õ	-14.1102
ţ	-14.1102
य	-14.1102
ħ	-14.1102
Я	-14.1102
ܟ	-14.1102
›	-14.1102
그	-14.1102
동	-14.1102
제	-14.1102
﴾	-14.1102
ხ	-14.1102
ế	-14.1102
子	-14.1102
구	-14.1102
야	-14.1102
주	-14.1102
타	-14.1102
վ	-14.1102
٣	-14.1102
ḫ	-14.1102
꽃	-14.1102
트	-14.1102
ɾ	-14.1102
ท	-14.2213
人	-14.2213
র	-14.2213
ܫ	-14.2213
ド	-14.2213
զ	-14.2213
अ	-14.2213
ज	-14.2213
อ	-14.2213
ナ	-14.2213
장	-14.2213
¡	-14.2213
ŋ	-14.2213
ʁ	-14.2213
͡	-14.2213
ट	-14.2213
ჭ	-14.2213
Ṭ	-14.2213
≈	-14.2213
©	-14.2213
ĵ	-14.2213
щ	-14.2213
٨	-14.2213
۲	-14.2213
۶	-14.2213
़	-14.2213
ப	-14.2213
ῖ	-14.2213
♮	-14.2213
ル	-14.2213
바	-14.2213
에	-14.2213
연	-14.2213
Ł	-14.2213
ܗ	-14.2213
‬	-14.2213
레	-14.2213
ッ	-14.2213
방	-14.2213
송	-14.2213
王	-14.2213
治	-14.3463
வ	-14.3463
ห	-14.3463
ジ	-14.3463
全	-14.3463
भ	-14.3463
ล	-14.3463
Ø	-14.3463
ŏ	-14.3463
ǐ	-14.3463
宁	-14.3463
오	-14.3463
Ō	-14.3463
ź	-14.3463
Ц	-14.3463
ֹ	-14.3463
ẹ	-14.3463
ố	-14.3463
オ	-14.3463
道	-14.3463
수	-14.3463
순	-14.3463
Λ	-14.3463
ִ	-14.3463
デ	-14.3463
上	-14.3463
천	-14.3463
태	-14.3463
ˌ	-14.3463
۷	-14.3463
ு	-14.3463
語	-14.3463
보	-14.3463
٩	-14.3463
キ	-14.3463
۹	-14.3463
帝	-14.3463
コ	-14.3463
•	-14.4814
ต	-14.4891
ย	-14.4891
家	-14.4891
ɹ	-14.4891
ุ	-14.4891
和	-14.4891
タ	-14.4891
Υ	-14.4891
ְ	-14.4891
დ	-14.4891
國	-14.4891
육	-14.4891
石	-14.4891
黄	-14.4891
강	-14.4891
À	-14.4891
ĭ	-14.4891
̪	-14.4891
ց	-14.4891
ব	-14.4891
ি	-14.4891
্	-14.4891
์	-14.4891
ქ	-14.4891
华	-14.4891
青	-14.4891
애	-14.4891
요	-14.4891
유	-14.4891
정	-14.4891
크	-14.4891
Ř	-14.4891
文	-14.4891
東	-14.4891
민	-14.4891
백	-14.4891
별	-14.4891
ῆ	-14.4891
湖	-14.4891
향	-14.4891
ध	-14.4891
‪	-14.4891
페	-14.4891
े	-14.4891
ด	-14.4891
・	-14.4891
٦	-14.4891
พ	-14.6558
ั	-14.6558
集	-14.6558
年	-14.6558
ว	-14.6558
პ	-14.6558
შ	-14.6558
ẓ	-14.6558
マ	-14.6558
特	-14.6558
김	-14.6558
È	-14.6558
ǝ	-14.6558
Ј	-14.6558
ҝ	-14.6558
ܒ	-14.6558
ं	-14.6558
ो	-14.6558
ু	-14.6558
ṇ	-14.6558
ロ	-14.6558
胡	-14.6558
만	-14.6558
영	-14.6558
ŕ	-14.6558
ʕ	-14.6558
व	-14.6558
ु	-14.6558
ক	-14.6558
ல	-14.6558
ṯ	-14.6558
ệ	-14.6558
ラ	-14.6558
东	-14.6558
明	-14.6558
河	-14.6558
社	-14.6558
교	-14.6558
니	-14.6558
달	-14.6558
말	-14.6558
운	-14.6558
터	-14.6558
Й	-14.6558
ӕ	-14.6558
ք	-14.6558
ؤ	-14.6558
द	-14.6558
ழ	-14.6558
ミ	-14.6558
川	-14.6558
경	-14.6558
단	-14.6558
안	-14.6558
재	-14.6558
토	-14.6558
화	-14.6558
天	-14.6558
열	-14.6558
ह	-14.6558
ි	-14.6558
ာ	-14.6558
い	-14.6558
ベ	-14.6558
ზ	-14.6558
り	-14.6558
レ	-14.6558
ส	-14.8558
գ	-14.8558
٥	-14.8558
ɡ	-14.8558
ா	-14.8558
三	-14.8558
ֶ	-14.8558
ウ	-14.8558
𐭥	-14.8558
խ	-14.8558
չ	-14.8558
ׁ	-14.8558
ۇ	-14.8558
ા	-14.8558
ன	-14.8558
ἄ	-14.8558
독	-14.8558
름	-14.8558
울	-14.8558
ڈ	-14.8558
五	-14.8558
島	-14.8558
적	-14.8558
Ý	-14.8558
ļ	-14.8558
ʀ	-14.8558
ˁ	-14.8558
̃	-14.8558
љ	-14.8558
ը	-14.8558
ہ	-14.8558
স	-14.8558
်	-14.8558
ụ	-14.8558
イ	-14.8558
代	-14.8558
共	-14.8558
城	-14.8558
晉	-14.8558
行	-14.8558
건	-14.8558
과	-14.8558
람	-14.8558
를	-14.8558
맨	-14.8558
물	-14.8558
석	-14.8558
을	-14.8558
집	-14.8558
포	-14.8558
호	-14.8558
혼	-14.8558
희	-14.8558
ṗ	-14.8558
ả	-14.8558
京	-14.8558
会	-14.8558
公	-14.8558
漢	-14.8558
甘	-14.8558
난	-14.8558
생	-14.8558
임	-14.8558
ű	-14.8558
Щ	-14.8558
Ь	-14.8558
թ	-14.8558
պ	-14.8558
ۊ	-14.8558
ῶ	-14.8558
☆	-14.8558
문	-14.8558
ܦ	-14.8558
Һ	-14.8558
ল	-14.8558
ය	-14.8558
ெ	-14.8558
ാ	-14.8558
ง	-15.1058
ะ	-15.1058
ޖ	-15.1058
十	-15.1058
ष	-15.1058
་	-15.1058
မ	-15.1058
차	-15.1058
ȇ	-15.1058
ғ	-15.1058
ղ	-15.1058
ܵ	-15.1058
く	-15.1058
夏	-15.1058
浦	-15.1058
金	-15.1058
금	-15.1058
발	-15.1058
피	-15.1058
̧	-15.1058
ब	-15.1058
下	-15.1058
世	-15.1058
楊	-15.1058
느	-15.1058
박	-15.1058
불	-15.1058
새	-15.1058
키	-15.1058
Ñ	-15.1058
Ī	-15.1058
į	-15.1058
ơ	-15.1058
ǧ	-15.1058
ȋ	-15.1058
ʘ	-15.1058
͞	-15.1058
Ω	-15.1058
Ϝ	-15.1058
Ϻ	-15.1058
ϻ	-15.1058
ћ	-15.1058
٤	-15.1058
۵	-15.1058
۸	-15.1058
ާ	-15.1058
ন	-15.1058
়	-15.1058
ী	-15.1058
ર	-15.1058
ட	-15.1058
ు	-15.1058
ษ	-15.1058
ấ	-15.1058
ọ	-15.1058
ồ	-15.1058
ῦ	-15.1058
ⴰ	-15.1058
ィ	-15.1058
ブ	-15.1058
ボ	-15.1058
化	-15.1058
撃	-15.1058
武	-15.1058
法	-15.1058
耶	-15.1058
話	-15.1058
通	-15.1058
长	-15.1058
거	-15.1058
게	-15.1058
광	-15.1058
너	-15.1058
녀	-15.1058
눈	-15.1058
래	-15.1058
림	-15.1058
면	-15.1058
무	-15.1058
복	-15.1058
위	-15.1058
카	-15.1058
학	-15.1058
후	-15.1058
Ù	-15.1058
ď	-15.1058
ľ	-15.1058
ϝ	-15.1058
ٹ	-15.1058
ộ	-15.1058
口	-15.1058
春	-15.1058
福	-15.1058
노	-15.1058
ռ	-15.1058
փ	-15.1058
ख	-15.1058
ள	-15.1058
秦	-15.1058
굿	-15.1058
식	-15.1058
프	-15.1058
Į	-15.1058
盆	-15.1058
참	-15.1058
ソ	-15.1058
載	-15.1058
ў	-15.1058
қ	-15.1058
్	-15.1058
真	-15.1058
ె	-15.1058
เ	-15.4391
手	-15.4391
ธ	-15.4391
ป	-15.4391
部	-15.4391
ガ	-15.4391
内	-15.4391
華	-15.4391
̩	-15.4391
ค	-15.4391
้	-15.4391
尔	-15.4391
攻	-15.4391
승	-15.4391
̄	-15.4391
本	-15.4391
ĕ	-15.4391
Ġ	-15.4391
ũ	-15.4391
ț	-15.4391
ܣ	-15.4391
ण	-15.4391
थ	-15.4391
າ	-15.4391
ሕ	-15.4391
ṛ	-15.4391
ὁ	-15.4391
ェ	-15.4391
エ	-15.4391
プ	-15.4391
元	-15.4391
六	-15.4391
振	-15.4391
男	-15.4391
神	-15.4391
陵	-15.4391
두	-15.4391
든	-15.4391
얼	-15.4391
탁	-15.4391
̯	-15.4391
Ḫ	-15.4391
ṟ	-15.4391
周	-15.4391
唐	-15.4391
太	-15.4391
奉	-15.4391
浪	-15.4391
清	-15.4391
空	-15.4391
날	-15.4391
늘	-15.4391
최	-15.4391
£	-15.4391
®	-15.4391
Ô	-15.4391
Ň	-15.4391
ɐ	-15.4391
ɒ	-15.4391
ɣ	-15.4391
ʌ	-15.4391
̀	-15.4391
̠	-15.4391
Ϙ	-15.4391
Ъ	-15.4391
ף	-15.4391
؟	-15.4391
ٔ	-15.4391
٧	-15.4391
۴	-15.4391
ܥ	-15.4391
आ	-15.4391
श	-15.4391
ू	-15.4391
ै	-15.4391
ত	-15.4391
প	-15.4391
ੀ	-15.4391
ந	-15.4391
ய	-15.4391
ನ	-15.4391
್	-15.4391
യ	-15.4391
ൻ	-15.4391
โ	-15.4391
ც	-15.4391
ር	-15.4391
ḉ	-15.4391
ḻ	-15.4391
ṕ	-15.4391
∉	-15.4391
⊆	-15.4391
。	-15.4391
え	-15.4391
お	-15.4391
し	-15.4391
た	-15.4391
ケ	-15.4391
パ	-15.4391
回	-15.4391
昌	-15.4391
松	-15.4391
爾	-15.4391
知	-15.4391
者	-15.4391
英	-15.4391
蕭	-15.4391
郡	-15.4391
隊	-15.4391
隋	-15.4391
雅	-15.4391
首	-15.4391
麗	-15.4391
걸	-15.4391
굴	-15.4391
누	-15.4391
님	-15.4391
디	-15.4391
땅	-15.4391
락	-15.4391
려	-15.4391
른	-15.4391
못	-15.4391
밀	-15.4391
반	-15.4391
봄	-15.4391
빛	-15.4391
솔	-15.4391
양	-15.4391
언	-15.4391
온	-15.4391
왔	-15.4391
워	-15.4391
중	-15.4391
즈	-15.4391
진	-15.4391
침	-15.4391
쿨	-15.4391
Ą	-15.4391
Œ	-15.4391
Ά	-15.4391
ֵ	-15.4391
兵	-15.4391
日	-15.4391
派	-15.4391
珠	-15.4391
画	-15.4391
阳	-15.4391
韓	-15.4391
개	-15.4391
망	-15.4391
북	-15.4391
황	-15.4391
ʋ	-15.4391
Զ	-15.4391
է	-15.4391
ჩ	-15.4391
熱	-15.4391
風	-15.4391
감	-15.4391
월	-15.4391
ΐ	-15.4391
ї	-15.4391
Ә	-15.4391
ܳ	-15.4391
फ	-15.4391
മ	-15.4391
ี	-15.4391
て	-15.4391
ま	-15.4391
来	-15.4391
ფ	-15.4391
と	-15.4391
ෝ	-15.4392
ყ	-15.4392
シ	-15.4392
魂	-15.4392
്	-15.4392
ު	-15.9391
ޭ	-15.9391
歌	-15.9391
ʎ	-15.9391
ੁ	-15.9391
ே	-15.9391
ႂ	-15.9391
ᬩ	-15.9391
ᱟ	-15.9391
動	-15.9391
군	-15.9391
多	-15.9391
झ	-15.9391
ণ	-15.9391
ં	-15.9391
ဘ	-15.9391
ት	-15.9391
ᐃ	-15.9391
ᠨ	-15.9391
ṅ	-15.9391
ὔ	-15.9391
史	-15.9391
撒	-15.9391
港	-15.9391
데	-15.9391
속	-15.9391
치	-15.9391
평	-15.9391
𐭧	-15.9391
𐭯	-15.9391
Ë	-15.9391
ĺ	-15.9391
ܙ	-15.9391
ひ	-15.9391
健	-15.9391
封	-15.9391
杨	-15.9391
浙	-15.9391
越	-15.9391
鄂	-15.9391
빅	-15.9391
외	-15.9391
추	-15.9391
춘	-15.9391
캔	-15.9391
Ů	-15.9391
Ŕ	-15.9391
Ū	-15.9391
ƅ	-15.9391
ȟ	-15.9391
ɯ	-15.9391
ʧ	-15.9391
Ͱ	-15.9391
Έ	-15.9391
Ψ	-15.9391
ϙ	-15.9391
ϛ	-15.9391
Ϸ	-15.9391
І	-15.9391
Ї	-15.9391
՝	-15.9391
բ	-15.9391
׳	-15.9391
؛	-15.9391
٫	-15.9391
ں	-15.9391
ۈ	-15.9391
݂	-15.9391
ގ	-15.9391
इ	-15.9391
ई	-15.9391
उ	-15.9391
ऐ	-15.9391
औ	-15.9391
ठ	-15.9391
ृ	-15.9391
হ	-15.9391
ে	-15.9391
દ	-15.9391
સ	-15.9391
ી	-15.9391
ો	-15.9391
ச	-15.9391
గ	-15.9391
ల	-15.9391
ು	-15.9391
ം	-15.9391
ල	-15.9391
්	-15.9391
ු	-15.9391
แ	-15.9391
่	-15.9391
က	-15.9391
သ	-15.9391
ჯ	-15.9391
ራ	-15.9391
ኛ	-15.9391
ይ	-15.9391
᜔	-15.9391
ា	-15.9391
ᠰ	-15.9391
ᡠ	-15.9391
ᮞ	-15.9391
Ḉ	-15.9391
Ḱ	-15.9391
Ṕ	-15.9391
ẖ	-15.9391
ạ	-15.9391
ứ	-15.9391
ữ	-15.9391
ἰ	-15.9391
↔	-15.9391
∓	-15.9391
≤	-15.9391
≥	-15.9391
ⵉ	-15.9391
ⵜ	-15.9391
う	-15.9391
か	-15.9391
る	-15.9391
テ	-15.9391
バ	-15.9391
ペ	-15.9391
ポ	-15.9391
ム	-15.9391
ョ	-15.9391
不	-15.9391
二	-15.9391
仁	-15.9391
党	-15.9391
原	-15.9391
君	-15.9391
堅	-15.9391
夫	-15.9391
委	-15.9391
孝	-15.9391
宗	-15.9391
定	-15.9391
察	-15.9391
審	-15.9391
快	-15.9391
戯	-15.9391
戸	-15.9391
拉	-15.9391
支	-15.9391
政	-15.9391
教	-15.9391
斉	-15.9391
斗	-15.9391
景	-15.9391
智	-15.9391
有	-15.9391
栽	-15.9391
梁	-15.9391
梅	-15.9391
森	-15.9391
横	-15.9391
歩	-15.9391
毛	-15.9391
沙	-15.9391
济	-15.9391
浜	-15.9391
田	-15.9391
的	-15.9391
盗	-15.9391
省	-15.9391
科	-15.9391
经	-15.9391
義	-15.9391
老	-15.9391
蜀	-15.9391
裁	-15.9391
言	-15.9391
記	-15.9391
論	-15.9391
语	-15.9391
赤	-15.9391
路	-15.9391
連	-15.9391
都	-15.9391
阿	-15.9391
鲁	-15.9391
麻	-15.9391
ꯩ	-15.9391
같	-15.9391
검	-15.9391
곡	-15.9391
관	-15.9391
글	-15.9391
길	-15.9391
깊	-15.9391
끼	-15.9391
란	-15.9391
매	-15.9391
메	-15.9391
모	-15.9391
목	-15.9391
번	-15.9391
블	-15.9391
쁜	-15.9391
살	-15.9391
샘	-15.9391
씨	-15.9391
없	-15.9391
옥	-15.9391
와	-15.9391
용	-15.9391
윤	-15.9391
으	-15.9391
음	-15.9391
저	-15.9391
종	-15.9391
째	-15.9391
착	-15.9391
체	-15.9391
초	-15.9391
총	-15.9391
츠	-15.9391
쾌	-15.9391
탄	-15.9391
통	-15.9391
투	-15.9391
풍	-15.9391
헌	-15.9391
현	-15.9391
히	-15.9391
	-15.9391
～	-15.9391
𐭐	-15.9391
𐭓	-15.9391
𐭕	-15.9391
ǒ	-15.9391
じ	-15.9391
洪	-15.9391
监	-15.9391
美	-15.9391
때	-15.9391
예	-15.9391
회	-15.9391
Լ	-15.9391
օ	-15.9391
ڭ	-15.9391
च	-15.9391
મ	-15.9391
ಾ	-15.9391
გ	-15.9391
ღ	-15.9391
ძ	-15.9391
წ	-15.9391
ᾶ	-15.9391
ち	-15.9391
っ	-15.9391
カ	-15.9391
伝	-15.9391
巨	-15.9391
與	-15.9391
虹	-15.9391
遊	-15.9391
까	-15.9391
심	-15.9391
작	-15.9391
직	-15.9391
ʔ	-15.9391
취	-15.9391
ड	-15.9391
త	-15.9391
ಡ	-15.9391
ರ	-15.9391
ി	-15.9391
ස	-15.9391
တ	-15.9391
း	-15.9391
Ⱄ	-15.9391
が	-15.9391
笛	-15.9391
運	-15.9391
특	-15.9391
̱	-15.9392
ത	-15.9392
メ	-15.9392
홉	-16.9146
행	-16.9147
티	-16.9148
큼	-16.9149
콘	-16.915
죽	-16.9151
족	-16.9152
역	-16.9153
않	-16.9154
숙	-16.9155
봉	-16.9156
며	-16.9157
뜨	-16.9158
떡	-16.9159
녕	-16.916
권	-16.9161
골	-16.9162
龙	-16.9163
黑	-16.9164
馬	-16.9165
陕	-16.9166
閩	-16.9167
長	-16.9168
銀	-16.9169
重	-16.917
鄭	-16.9171
郭	-16.9172
辽	-16.9173
軽	-16.9174
藏	-16.9175
蒙	-16.9176
荆	-16.9177
苏	-16.9178
肃	-16.9179
维	-16.918
百	-16.9181
疆	-16.9182
獨	-16.9183
濟	-16.9184
漫	-16.9185
满	-16.9186
湾	-16.9187
流	-16.9188
洲	-16.9189
朱	-16.919
未	-16.9191
时	-16.9192
我	-16.9193
徽	-16.9194
建	-16.9195
庆	-16.9196
小	-16.9197
始	-16.9198
壮	-16.9199
堂	-16.92
四	-16.9201
吾	-16.9202
台	-16.9203
句	-16.9204
友	-16.9205
偵	-16.9206
亭	-16.9207
云	-16.9208
ヨ	-16.9209
ダ	-16.921
‰	-16.9211
Ἰ	-16.9212
Ἁ	-16.9213
Ṙ	-16.9214
ṃ	-16.9215
Ḩ	-16.9216
Ḏ	-16.9217
ᜌ	-16.9218
ᜊ	-16.9219
န	-16.922
བ	-16.9221
ད	-16.9222
ང	-16.9223
ช	-16.9224
ව	-16.9225
න	-16.9226
ද	-16.9227
ర	-16.9228
న	-16.9229
ங	-16.923
ஆ	-16.9231
அ	-16.9232
ગ	-16.9233
শ	-16.9234
ޫ	-16.9235
ޔ	-16.9236
މ	-16.9237
ܛ	-16.9238
ښ	-16.9239
ճ	-16.924
Օ	-16.9241
Ռ	-16.9242
Խ	-16.9243
Գ	-16.9244
ӣ	-16.9245
Ӏ	-16.9246
Ҹ	-16.9247
ҷ	-16.9248
ҧ	-16.9249
ҡ	-16.925
Ў	-16.9251
Є	-16.9252
Ђ	-16.9253
Ё	-16.9254
ϸ	-16.9255
Ϛ	-16.9256
Ό	-16.9257
ͱ	-16.9258
Ɵ	-16.9259
Ż	-16.926
Ŝ	-16.9261
Ĵ	-16.9262
Ĝ	-16.9263
Ė	-16.9264
Ò	-16.9265
형	-16.9266
엄	-16.9267
되	-16.9268
돌	-16.9269
결	-16.927
간	-16.9271
鮮	-16.9272
门	-16.9273
贵	-16.9274
澳	-16.9275
株	-16.9276
林	-16.9277
李	-16.9278
式	-16.9279
少	-16.928
哈	-16.9281
吳	-16.9282
吉	-16.9283
劉	-16.9284
別	-16.9285
Ὀ	-16.9286
ỹ	-16.9287
ớ	-16.9288
ไ	-16.9289
ถ	-16.929
ொ	-16.9291
ই	-16.9292
অ	-16.9293
ެ	-16.9294
ދ	-16.9295
ވ	-16.9296
ڒ	-16.9297
ڏ	-16.9298
Ө	-16.9299
Ү	-16.93
Қ	-16.9301
Ы	-16.9302
Ŧ	-16.9303
ņ	-16.9304
Ĉ	-16.9305
Ì	-16.9306
羅	-16.9307
經	-16.9308
皇	-16.9309
津	-16.931
汉	-16.9311
探	-16.9312
古	-16.9313
モ	-16.9314
グ	-16.9315
↓	-16.9316
Ἱ	-16.9317
ḳ	-16.9318
ོ	-16.9319
ภ	-16.932
ँ	-16.9321
އ	-16.9322
ރ	-16.9323
Վ	-16.9324
Ս	-16.9325
Թ	-16.9326
Э	-16.9327
Ǧ	-16.9328
Ĥ	-16.9329
Þ	-16.933
좋	-16.9331
셜	-16.9332
브	-16.9333
高	-16.9334
德	-16.9335
广	-16.9336
≠	-16.9337
ހ	-16.9338
ܼ	-16.9339
ܚ	-16.934
ٱ	-16.9341
Ե	-16.9342
Ξ	-16.9343
Ζ	-16.9344
Ə	-16.9345
Ć	-16.9346
삼	-16.9347
民	-16.9348
∅	-16.9349
ற	-16.935
য	-16.9351
ް	-16.9352
հ	-16.9353
Շ	-16.9354
Մ	-16.9355
Կ	-16.9356
Ķ	-16.9357
後	-16.9358
Φ	-16.9359
÷	-16.936
┬	-16.9361
ި	-16.9362
ҫ	-16.9363
Ś	-16.9364
շ	-16.9365
﴿	-16.9366
공	-16.9367
├	-16.9368
∈	-16.9369
당	-16.937
‹	-16.9371
ἀ	-16.9372
Ν	-16.9373
ַ	-16.9374
Ș	-16.9375
⁄	-16.9376
க	-16.9377
Հ	-16.9378
ト	-16.9379
└	-16.938
뉴	-16.9381
▪	-16.9382
Ἀ	-16.9383
ċ	-16.9384
Ḥ	-16.9385
١	-16.9386
ւ	-16.9387
Κ	-16.9388
Ẍ	-16.9389
Ž	-16.939
兄	-16.939
尊	-16.939
ঠ	-16.9391
―	-16.9391
変	-16.9391
態	-16.9391
→	-16.9391
ʹ	-16.9391
̣	-16.9391
Ջ	-16.9391
ண	-16.9391
ಮ	-16.9391
จ	-16.9391
ํ	-16.9391
ལ	-16.9391
ྗ	-16.9391
ၢ	-16.9391
ၵ	-16.9391
ὄ	-16.9391
ワ	-16.9391
器	-16.9391
復	-16.9391
業	-16.9391
活	-16.9391
産	-16.9391
車	-16.9391
陣	-16.9391
릉	-16.9391
ɨ	-16.9391
ˀ	-16.9391
̤	-16.9391
ժ	-16.9391
ڀ	-16.9391
ܓ	-16.9391
ܩ	-16.9391
ङ	-16.9391
জ	-16.9391
ড	-16.9391
ਖ	-16.9391
ਜ	-16.9391
ਪ	-16.9391
ਮ	-16.9391
ਰ	-16.9391
ੰ	-16.9391
ધ	-16.9391
ફ	-16.9391
ଓ	-16.9391
ଡ	-16.9391
ି	-16.9391
ತ	-16.9391
ಭ	-16.9391
ല	-16.9391
ත	-16.9391
ພ	-16.9391
ར	-16.9391
ྫ	-16.9391
አ	-16.9391
ᐍ	-16.9391
ᐦ	-16.9391
ᓀ	-16.9391
ᔭ	-16.9391
ᠠ	-16.9391
ᠮ	-16.9391
ᡤ	-16.9391
ᡳ	-16.9391
ᨕ	-16.9391
ᬲ	-16.9391
ᮔ	-16.9391
ᱛ	-16.9391
ᱥ	-16.9391
ᱱ	-16.9391
ị	-16.9391
ἁ	-16.9391
ἒ	-16.9391
ὀ	-16.9391
Ὄ	-16.9391
ὠ	-16.9391
Ῥ	-16.9391
ら	-16.9391
ゴ	-16.9391
体	-16.9391
個	-16.9391
印	-16.9391
发	-16.9391
塞	-16.9391
形	-16.9391
性	-16.9391
意	-16.9391
慶	-16.9391
檀	-16.9391
歷	-16.9391
殺	-16.9391
生	-16.9391
第	-16.9391
線	-16.9391
親	-16.9391
鬱	-16.9391
ꦧ	-16.9391
본	-16.9391
빗	-16.9391
십	-16.9391
케	-16.9391
	-16.9391
	-16.9391
	-16.9391
𐌲	-16.9391
𐌿	-16.9391
𐍄	-16.9391
𐭪	-16.9391
𐭱	-16.9391
¿	-16.9391
״	-16.9391
ߒ	-16.9391
ሃ	-16.9391
Ꮳ	-16.9391
‫	-16.9391
乐	-16.9391
乱	-16.9391
伽	-16.9391
刘	-16.9391
味	-16.9391
喜	-16.9391
嘉	-16.9391
孟	-16.9391
宝	-16.9391
彰	-16.9391
徐	-16.9391
成	-16.9391
拳	-16.9391
昆	-16.9391
普	-16.9391
栄	-16.9391
根	-16.9391
樂	-16.9391
沈	-16.9391
独	-16.9391
謝	-16.9391
跆	-16.9391
達	-16.9391
银	-16.9391
锡	-16.9391
闽	-16.9391
雪	-16.9391
静	-16.9391
马	-16.9391
ꆈ	-16.9391
각	-16.9391
곁	-16.9391
닥	-16.9391
득	-16.9391
따	-16.9391
립	-16.9391
억	-16.9391
왈	-16.9391
질	-16.9391
징	-16.9391
힐	-16.9391
	-16.9391
𒀭	-16.9391
Ď	-16.9391
Ě	-16.9391
Ť	-16.9391
Ï	-16.9391
Õ	-16.9391
ÿ	-16.9391
Ă	-16.9391
Ę	-16.9391
ĩ	-16.9391
Ľ	-16.9391
Ń	-16.9391
ŗ	-16.9391
Ŭ	-16.9391
Ű	-16.9391
Ų	-16.9391
Ź	-16.9391
Ơ	-16.9391
Ư	-16.9391
ư	-16.9391
ǖ	-16.9391
ǰ	-16.9391
Ȋ	-16.9391
Ț	-16.9391
ɟ	-16.9391
ɩ	-16.9391
ɴ	-16.9391
ˊ	-16.9391
̆	-16.9391
̊	-16.9391
͓	-16.9391
Ͳ	-16.9391
ͳ	-16.9391
ϊ	-16.9391
Ϟ	-16.9391
ϟ	-16.9391
Ϡ	-16.9391
ϡ	-16.9391
Љ	-16.9391
Њ	-16.9391
Ћ	-16.9391
Џ	-16.9391
ђ	-16.9391
є	-16.9391
њ	-16.9391
џ	-16.9391
ѣ	-16.9391
Ґ	-16.9391
ґ	-16.9391
Ғ	-16.9391
Ҝ	-16.9391
Ҫ	-16.9391
ӑ	-16.9391
Բ	-16.9391
Ծ	-16.9391
Ղ	-16.9391
Տ	-16.9391
Փ	-16.9391
Ֆ	-16.9391
ծ	-16.9391
ձ	-16.9391
ջ	-16.9391
ֱ	-16.9391
־	-16.9391
ך	-16.9391
ץ	-16.9391
ٴ	-16.9391
ٽ	-16.9391
ڌ	-16.9391
ڑ	-16.9391
ڪ	-16.9391
ڻ	-16.9391
ڼ	-16.9391
ۀ	-16.9391
ۚ	-16.9391
ܤ	-16.9391
ܶ	-16.9391
ܽ	-16.9391
ܿ	-16.9391
ݨ	-16.9391
ߏ	-16.9391
ߞ	-16.9391
ऊ	-16.9391
ऋ	-16.9391
ऌ	-16.9391
ए	-16.9391
ओ	-16.9391
छ	-16.9391
ढ	-16.9391
ऴ	-16.9391
ॄ	-16.9391
ौ	-16.9391
ॠ	-16.9391
ॡ	-16.9391
ॢ	-16.9391
ॣ	-16.9391
ং	-16.9391
উ	-16.9391
খ	-16.9391
থ	-16.9391
দ	-16.9391
ষ	-16.9391
ূ	-16.9391
ো	-16.9391
ਗ	-16.9391
ਦ	-16.9391
ਬ	-16.9391
ਲ	-16.9391
ਾ	-16.9391
ਿ	-16.9391
ੱ	-16.9391
ખ	-16.9391
ચ	-16.9391
જ	-16.9391
ત	-16.9391
ન	-16.9391
લ	-16.9391
હ	-16.9391
્	-16.9391
ଆ	-16.9391
଼	-16.9391
இ	-16.9391
ஏ	-16.9391
ஐ	-16.9391
ஹ	-16.9391
ீ	-16.9391
ை	-16.9391
క	-16.9391
వ	-16.9391
స	-16.9391
ా	-16.9391
ీ	-16.9391
ಒ	-16.9391
ಕ	-16.9391
ಪ	-16.9391
ಳ	-16.9391
ಷ	-16.9391
ೆ	-16.9391
ೇ	-16.9391
ഡ	-16.9391
റ	-16.9391
ള	-16.9391
സ	-16.9391
ං	-16.9391
ක	-16.9391
ෂ	-16.9391
හ	-16.9391
ณ	-16.9391
ศ	-16.9391
ລ	-16.9391
ວ	-16.9391
ສ	-16.9391
ཁ	-16.9391
ག	-16.9391
ཡ	-16.9391
ས	-16.9391
ི	-16.9391
ယ	-16.9391
ု	-16.9391
ေ	-16.9391
ြ	-16.9391
ႆ	-16.9391
መ	-16.9391
ማ	-16.9391
ረ	-16.9391
ሪ	-16.9391
ስ	-16.9391
ቀ	-16.9391
ባ	-16.9391
ን	-16.9391
ኣ	-16.9391
ኤ	-16.9391
ዋ	-16.9391
ገ	-16.9391
ግ	-16.9391
Ꭹ	-16.9391
Ꮃ	-16.9391
ᐏ	-16.9391
ᐣ	-16.9391
ᑎ	-16.9391
ᑐ	-16.9391
ᑦ	-16.9391
ᒃ	-16.9391
ᓄ	-16.9391
ᜈ	-16.9391
ខ	-16.9391
ភ	-16.9391
រ	-16.9391
ស	-16.9391
ែ	-16.9391
្	-16.9391
ᠪ	-16.9391
ᠵ	-16.9391
ᡝ	-16.9391
ᡞ	-16.9391
ᨁ	-16.9391
ᨅ	-16.9391
ᨔ	-16.9391
ᨗ	-16.9391
ᨙ	-16.9391
ᬮ	-16.9391
ᬶ	-16.9391
ᮓ	-16.9391
ᮘ	-16.9391
ᮥ	-16.9391
᮪	-16.9391
ᱤ	-16.9391
ᱲ	-16.9391
ḇ	-16.9391
Ḍ	-16.9391
ḓ	-16.9391
ḗ	-16.9391
ḩ	-16.9391
Ḵ	-16.9391
ḵ	-16.9391
ḷ	-16.9391
ḹ	-16.9391
ṙ	-16.9391
ṝ	-16.9391
Ṫ	-16.9391
Ṯ	-16.9391
ṳ	-16.9391
ẋ	-16.9391
ẕ	-16.9391
ậ	-16.9391
ắ	-16.9391
ặ	-16.9391
ẻ	-16.9391
ẽ	-16.9391
ể	-16.9391
ủ	-16.9391
Ἄ	-16.9391
ἔ	-16.9391
ἕ	-16.9391
Ἔ	-16.9391
ἡ	-16.9391
ἵ	-16.9391
ἶ	-16.9391
Ἴ	-16.9391
ὂ	-16.9391
ὅ	-16.9391
ὕ	-16.9391
Ὑ	-16.9391
ὰ	-16.9391
ὶ	-16.9391
ῥ	-16.9391
‿	-16.9391
₩	-16.9391
↑	-16.9391
∩	-16.9391
∪	-16.9391
△	-16.9391
♀	-16.9391
♂	-16.9391
♈	-16.9391
♍	-16.9391
♏	-16.9391
Ⰲ	-16.9391
Ⰽ	-16.9391
Ⰾ	-16.9391
Ⱀ	-16.9391
Ⱁ	-16.9391
Ⱏ	-16.9391
Ⱐ	-16.9391
Ⱑ	-16.9391
ⴳ	-16.9391
ⴷ	-16.9391
ⵎ	-16.9391
ⵔ	-16.9391
ⵖ	-16.9391
ⵣ	-16.9391
、	-16.9391
〈	-16.9391
〉	-16.9391
つ	-16.9391
な	-16.9391
へ	-16.9391
み	-16.9391
む	-16.9391
も	-16.9391
ろ	-16.9391
わ	-16.9391
ォ	-16.9391
ゲ	-16.9391
サ	-16.9391
チ	-16.9391
フ	-16.9391
ャ	-16.9391
ヤ	-16.9391
ュ	-16.9391
ヴ	-16.9391
七	-16.9391
万	-16.9391
与	-16.9391
乌	-16.9391
事	-16.9391
井	-16.9391
亞	-16.9391
亥	-16.9391
产	-16.9391
仔	-16.9391
件	-16.9391
传	-16.9391
伯	-16.9391
佐	-16.9391
作	-16.9391
俊	-16.9391
俑	-16.9391
保	-16.9391
信	-16.9391
倻	-16.9391
偽	-16.9391
僮	-16.9391
儉	-16.9391
克	-16.9391
児	-16.9391
八	-16.9391
兰	-16.9391
冈	-16.9391
冶	-16.9391
冷	-16.9391
刀	-16.9391
刚	-16.9391
利	-16.9391
别	-16.9391
前	-16.9391
剛	-16.9391
剧	-16.9391
办	-16.9391
加	-16.9391
动	-16.9391
助	-16.9391
勗	-16.9391
千	-16.9391
半	-16.9391
博	-16.9391
厅	-16.9391
参	-16.9391
司	-16.9391
合	-16.9391
名	-16.9391
吠	-16.9391
吹	-16.9391
呼	-16.9391
商	-16.9391
営	-16.9391
噌	-16.9391
团	-16.9391
団	-16.9391
固	-16.9391
圓	-16.9391
圻	-16.9391
坂	-16.9391
基	-16.9391
堆	-16.9391
場	-16.9391
塔	-16.9391
塚	-16.9391
壁	-16.9391
夜	-16.9391
奇	-16.9391
奢	-16.9391
女	-16.9391
威	-16.9391
孔	-16.9391
存	-16.9391
季	-16.9391
孫	-16.9391
宋	-16.9391
官	-16.9391
审	-16.9391
客	-16.9391
宣	-16.9391
宮	-16.9391
容	-16.9391
密	-16.9391
寧	-16.9391
寺	-16.9391
尙	-16.9391
尼	-16.9391
峡	-16.9391
峰	-16.9391
崇	-16.9391
崎	-16.9391
崔	-16.9391
巋	-16.9391
帶	-16.9391
平	-16.9391
庄	-16.9391
店	-16.9391
座	-16.9391
廣	-16.9391
廳	-16.9391
开	-16.9391
弓	-16.9391
弥	-16.9391
弼	-16.9391
彝	-16.9391
微	-16.9391
徳	-16.9391
忠	-16.9391
念	-16.9391
思	-16.9391
悪	-16.9391
战	-16.9391
戚	-16.9391
所	-16.9391
拼	-16.9391
放	-16.9391
敏	-16.9391
散	-16.9391
敦	-16.9391
敬	-16.9391
方	-16.9391
旻	-16.9391
星	-16.9391
昪	-16.9391
時	-16.9391
晃	-16.9391
書	-16.9391
替	-16.9391
會	-16.9391
朗	-16.9391
村	-16.9391
杭	-16.9391
柴	-16.9391
検	-16.9391
楚	-16.9391
楼	-16.9391
標	-16.9391
樹	-16.9391
機	-16.9391
欣	-16.9391
正	-16.9391
死	-16.9391
殷	-16.9391
永	-16.9391
汁	-16.9391
汇	-16.9391
沃	-16.9391
泰	-16.9391
泽	-16.9391
洞	-16.9391
浠	-16.9391
渤	-16.9391
湯	-16.9391
滋	-16.9391
滨	-16.9391
濤	-16.9391
濱	-16.9391
瀬	-16.9391
烏	-16.9391
熹	-16.9391
燃	-16.9391
燕	-16.9391
犬	-16.9391
状	-16.9391
獄	-16.9391
珍	-16.9391
琦	-16.9391
琮	-16.9391
瑪	-16.9391
瑭	-16.9391
界	-16.9391
病	-16.9391
監	-16.9391
目	-16.9391
直	-16.9391
盾	-16.9391
県	-16.9391
祥	-16.9391
禮	-16.9391
禺	-16.9391
秀	-16.9391
秋	-16.9391
穆	-16.9391
穌	-16.9391
穴	-16.9391
童	-16.9391
端	-16.9391
箕	-16.9391
米	-16.9391
粤	-16.9391
粵	-16.9391
純	-16.9391
統	-16.9391
緑	-16.9391
編	-16.9391
縊	-16.9391
罗	-16.9391
羊	-16.9391
羽	-16.9391
翼	-16.9391
耕	-16.9391
聖	-16.9391
肅	-16.9391
肥	-16.9391
能	-16.9391
興	-16.9391
色	-16.9391
节	-16.9391
芽	-16.9391
苗	-16.9391
茅	-16.9391
荊	-16.9391
莊	-16.9391
莒	-16.9391
莱	-16.9391
蒲	-16.9391
蓉	-16.9391
蕃	-16.9391
蕲	-16.9391
藤	-16.9391
蜂	-16.9391
血	-16.9391
表	-16.9391
覧	-16.9391
計	-16.9391
訊	-16.9391
詧	-16.9391
説	-16.9391
计	-16.9391
讯	-16.9391
賽	-16.9391
贛	-16.9391
贤	-16.9391
超	-16.9391
身	-16.9391
軒	-16.9391
辦	-16.9391
辰	-16.9391
运	-16.9391
送	-16.9391
适	-16.9391
遠	-16.9391
郑	-16.9391
里	-16.9391
錢	-16.9391
錦	-16.9391
錫	-16.9391
鎬	-16.9391
鏐	-16.9391
铁	-16.9391
锦	-16.9391
門	-16.9391
闵	-16.9391
闸	-16.9391
阪	-16.9391
陀	-16.9391
陆	-16.9391
院	-16.9391
险	-16.9391
雨	-16.9391
電	-16.9391
靖	-16.9391
面	-16.9391
音	-16.9391
頭	-16.9391
风	-16.9391
飯	-16.9391
餘	-16.9391
香	-16.9391
騂	-16.9391
験	-16.9391
鶴	-16.9391
黃	-16.9391
黒	-16.9391
黨	-16.9391
齊	-16.9391
齐	-16.9391
龑	-16.9391
ꆇ	-16.9391
ꉙ	-16.9391
ꌠ	-16.9391
ꦗ	-16.9391
ꦮ	-16.9391
ꦱ	-16.9391
ꯂ	-16.9391
ꯃ	-16.9391
ꯇ	-16.9391
ꯟ	-16.9391
ꯣ	-16.9391
객	-16.9391
견	-16.9391
계	-16.9391
귀	-16.9391
균	-16.9391
극	-16.9391
깨	-16.9391
께	-16.9391
꾸	-16.9391
꾼	-16.9391
꿈	-16.9391
끝	-16.9391
났	-16.9391
냥	-16.9391
넝	-16.9391
네	-16.9391
년	-16.9391
놈	-16.9391
닝	-16.9391
닦	-16.9391
닭	-16.9391
더	-16.9391
덕	-16.9391
던	-16.9391
덟	-16.9391
뎐	-16.9391
돈	-16.9391
된	-16.9391
될	-16.9391
둥	-16.9391
듀	-16.9391
딩	-16.9391
딸	-16.9391
뚱	-16.9391
랄	-16.9391
런	-16.9391
렁	-16.9391
렌	-16.9391
렐	-16.9391
력	-16.9391
록	-16.9391
론	-16.9391
룡	-16.9391
루	-16.9391
룹	-16.9391
류	-16.9391
르	-16.9391
릭	-16.9391
릿	-16.9391
먼	-16.9391
멀	-16.9391
멘	-16.9391
멸	-16.9391
몇	-16.9391
밋	-16.9391
밭	-16.9391
밴	-16.9391
뱅	-16.9391
벌	-16.9391
법	-16.9391
벨	-16.9391
벽	-16.9391
빌	-16.9391
빙	-16.9391
빠	-16.9391
빵	-16.9391
뻐	-16.9391
뿌	-16.9391
뿐	-16.9391
뿔	-16.9391
쁘	-16.9391
삭	-16.9391
산	-16.9391
셈	-16.9391
셋	-16.9391
손	-16.9391
쇼	-16.9391
실	-16.9391
싱	-16.9391
약	-16.9391
업	-16.9391
엘	-16.9391
엠	-16.9391
옆	-16.9391
올	-16.9391
옹	-16.9391
왜	-16.9391
웃	-16.9391
원	-16.9391
웨	-16.9391
있	-16.9391
잘	-16.9391
잡	-16.9391
절	-16.9391
존	-16.9391
준	-16.9391
줄	-16.9391
즌	-16.9391
짱	-16.9391
쪽	-16.9391
찬	-16.9391
찾	-16.9391
첫	-16.9391
청	-16.9391
촌	-16.9391
출	-16.9391
칙	-16.9391
칠	-16.9391
칸	-16.9391
칼	-16.9391
켜	-16.9391
콤	-16.9391
탈	-16.9391
탑	-16.9391
택	-16.9391
툰	-16.9391
팀	-16.9391
펀	-16.9391
편	-16.9391
폭	-16.9391
푸	-16.9391
필	-16.9391
함	-16.9391
햇	-16.9391
헬	-16.9391
혈	-16.9391
홀	-16.9391
홍	-16.9391
활	-16.9391
흐	-16.9391
흥	-16.9391
힘	-16.9391
	-16.9391
	-16.9391
	-16.9391
	-16.9391
￼	-16.9391
𐌹	-16.9391
𐌺	-16.9391
𐍃	-16.9391
𐎰	-16.9391
𐎱	-16.9391
𐎺	-16.9391
𐎼	-16.9391
𐭅	-16.9391
𐭍	-16.9391
𐭠	-16.9391
𐭡	-16.9391
𐭩	-16.9391
𐭫	-16.9391
𐭮	-16.9391
𐭲	-16.9391
𒂄	-16.9391
𒄀	-16.9391
𞤆	-16.9391
𞤢	-16.9391
𞤤	-16.9391
𞤪	-16.9391
Ē	-16.9391
ŵ	-16.9391
Ձ	-16.9391
།	-16.9391
ἦ	-16.9391
ἧ	-16.9391
沮	-16.9391
淞	-16.9391
療	-16.9391
祜	-16.9391
红	-16.9391
迅	-16.9391
섭	-16.9391
커	-16.9391
패	-16.9391
플	-16.9391
͘	-16.9392
Ί	-16.9392
Դ	-16.9392
Ք	-16.9392
घ	-16.9392
ક	-16.9392
બ	-16.9392
ἐ	-16.9392
Ἐ	-16.9392
Ἑ	-16.9392
Ὅ	-16.9392
ὐ	-16.9392
ょ	-16.9392
ノ	-16.9392
來	-16.9392
取	-16.9392
咲	-16.9392
墓	-16.9392
外	-16.9392
孙	-16.9392
浩	-16.9392
滿	-16.9392
澤	-16.9392
然	-16.9392
衛	-16.9392
進	-16.9392
魯	-16.9392
겨	-16.9392
격	-16.9392
근	-16.9392
낭	-16.9392
뮤	-16.9392
버	-16.9392
변	-16.9392
옴	-16.9392
풀	-16.9392
할	-16.9392
ѓ	-16.9392
ӧ	-16.9392
Ճ	-16.9392
ܺ	-16.9392
ञ	-16.9392
ુ	-16.9392
ಂ	-16.9392
ಯ	-16.9392
ಿ	-16.9392
ജ	-16.9392
പ	-16.9392
ര	-16.9392
ർ	-16.9392
ඩ	-16.9392
ර	-16.9392
အ	-16.9392
ိ	-16.9392
ჟ	-16.9392
ჰ	-16.9392
ᜒ	-16.9392
ម	-16.9392
ὑ	-16.9392
び	-16.9392
を	-16.9392
ギ	-16.9392
ピ	-16.9392
借	-16.9392
園	-16.9392
学	-16.9392
延	-16.9392
用	-16.9392
稣	-16.9392
魔	-16.9392
జ	-16.9392
య	-16.9392
ూ	-16.9392
บ	-16.9392
─	-16.9392
あ	-16.9392
そ	-16.9392
写	-16.9392
