<unk>	0
<s>	0
</s>	0
.	-3.37351
,	-3.43025
▁û	-3.72501
a	-4.23892
▁ku	-4.26063
▁li	-4.28001
▁de	-4.31824
▁bi	-4.339
▁ji	-4.46642
ê	-4.52228
▁di	-4.53489
n	-4.79999
▁jî	-4.8329
ên	-5.0707
▁==	-5.07129
▁(	-5.0715
)	-5.07637
î	-5.11712
▁xwe	-5.1542
▁ya	-5.22877
▁ye	-5.3471
an	-5.35572
▁ser	-5.3801
:	-5.4606
e	-5.46367
▁	-5.48049
▁Iraqê	-5.62706
▁re	-5.6358
▁ve	-5.66191
▁e	-5.72765
▁bo	-5.72911
▁da	-5.75707
▁Di	-5.78137
▁Kurdistanê	-5.8688
▁herêma	-5.89383
▁ew	-5.92238
▁evê	-5.94359
▁wê	-5.9461
▁kir	-5.94676
-	-5.98834
▁a	-6.0232
▁kirin	-6.06344
▁–	-6.07121
▁wan	-6.07886
▁Li	-6.13358
▁ne	-6.13809
▁ber	-6.14514
▁tê	-6.19753
▁bû	-6.22808
▁wî	-6.23494
▁dê	-6.26445
ya	-6.26679
▁yên	-6.26951
▁yê	-6.28034
▁ev	-6.30359
▁-	-6.3214
▁PNA	-6.34201
▁serokê	-6.36249
▁got	-6.36974
▁kurdistanê	-6.40652
yê	-6.4239
A	-6.43197
▁vê	-6.4692
▁sala	-6.49384
s	-6.53207
▁ragihand	-6.59706
▁dike	-6.59758
▁|	-6.61739
▁bike	-6.63979
▁hat	-6.65961
▁Ji	-6.67455
▁navê	-6.69178
▁din	-6.70647
▁weha	-6.72315
▁Amerîka	-6.72992
▁navbera	-6.74033
▁her	-6.7591
▁hukûmeta	-6.75986
t	-6.77679
▁dest	-6.78326
▁hatiye	-6.80996
▁bikin	-6.81595
▁*	-6.83359
iya	-6.83377
▁kurd	-6.84254
▁gelek	-6.84298
▁nav	-6.84467
"	-6.8492
▁Gundên	-6.87274
▁Îranê	-6.87472
▁Bi	-6.87988
▁gundekî	-6.89245
▁===	-6.90066
▁han	-6.91609
▁hêzên	-6.92113
▁in	-6.93753
▁niha	-6.94147
▁Serokê	-6.95273
ek	-6.96373
▁yek	-6.96661
▁be	-6.96989
▁me	-6.99974
eke	-7.00076
i	-7.01819
▁"	-7.0183
'	-7.02429
▁lê	-7.03411
▁an	-7.04485
▁hemû	-7.05441
▁bûn	-7.05896
▁Çavkanî	-7.06717
▁dikin	-7.08243
k	-7.08835
;	-7.09254
▁́	-7.09358
▁kar	-7.09504
▁bajêrê	-7.10519
in	-7.10719
▁BER	-7.1141
▁mezin	-7.12296
▁kes	-7.13936
▁Kurd	-7.14145
▁dibe	-7.15088
▁du	-7.15293
▁xuyakirin	-7.16514
▁wek	-7.16599
▁çend	-7.1695
▁Ev	-7.17073
z	-7.18171
▁navçeya	-7.18221
`	-7.20027
o	-7.2023
▁heta	-7.20488
▁aliyê	-7.20634
ALÎKIRIN	-7.20741
▁nû	-7.20982
▁ê	-7.23592
▁em	-7.23795
▁bihê	-7.24462
▁pêk	-7.26115
yên	-7.26865
▁piştî	-7.2822
y	-7.28715
ekî	-7.29041
▁dijî	-7.30449
▁bê	-7.3048
▁kurdî	-7.31514
▁roja	-7.32997
▁dema	-7.33281
▁bin	-7.33294
▁Barzanî	-7.33534
bi	-7.33561
d	-7.34148
’	-7.34736
yan	-7.35843
/	-7.36556
▁hatin	-7.37549
▁Turkiye	-7.37693
▁bûye	-7.37742
ne	-7.37779
▁hene	-7.37966
▁pê	-7.38113
▁hatine	-7.39875
▁angora	-7.40316
▁bajarê	-7.40589
iyê	-7.40637
▁S	-7.41099
▁parêzgeha	-7.41862
▁Ew	-7.4324
▁hate	-7.43629
N	-7.44195
m	-7.44729
▁ên	-7.46315
▁kiriye	-7.46453
...	-7.47397
▁zanîn	-7.48042
▁/	-7.49547
kirin	-7.51045
▁nava	-7.51396
▁rewşa	-7.52183
▁hev	-7.52334
▁wekî	-7.52412
▁|-	-7.53547
▁heye	-7.53581
▁A	-7.53761
▁REDIRECT	-7.53896
▁serdana	-7.54784
▁yekê	-7.54829
▁lîsta	-7.55687
▁behsa	-7.56339
ye	-7.5913
▁Û	-7.59484
de	-7.59643
▁mirov	-7.59798
▁derve	-7.60608
▁girêdayî	-7.61724
▁gor	-7.61824
▁bibe	-7.61979
kirina	-7.62283
▁herdu	-7.62336
yî	-7.62566
▁ewê	-7.63477
r	-7.63842
h	-7.63875
▁dan	-7.64139
▁Her	-7.64342
▁bareya	-7.64426
▁ti	-7.64964
▁gel	-7.6529
▁divê	-7.65944
▁zimanê	-7.67475
▁dibêje	-7.67523
▁El	-7.67889
==	-7.68036
▁Hewlêrê	-7.68753
▁Kurdî	-7.68929
="	-7.6903
l	-7.70336
Ê	-7.70634
▁LI	-7.71121
er	-7.71128
),	-7.71828
▁2009/	-7.71975
▁||	-7.72494
▁Lê	-7.72717
▁Hewlêr	-7.73653
f	-7.74183
▁encûmena	-7.74562
▁belê	-7.74618
▁encam	-7.75181
▁berê	-7.75814
▁siyasî	-7.76193
▁evroj	-7.76348
▁2008/	-7.76976
▁weke	-7.77354
K	-7.77594
▁parliyamenta	-7.77726
▁herêmê	-7.78139
▁herî	-7.78289
▁2	-7.7846
îya	-7.78469
2	-7.7888
▁kurdan	-7.78903
▁Piştî	-7.78958
▁Malikî	-7.78984
ÊN	-7.79558
▁çê	-7.79694
▁girtin	-7.80061
▁bareyê	-7.8025
▁2010/	-7.80926
▁evan	-7.8114
▁van	-7.81784
▁“	-7.81856
▁saz	-7.82127
ekê	-7.82643
▁alîyê	-7.83242
▁pir	-7.8393
▁birîndar	-7.84605
▁tenê	-7.848
▁le	-7.8499
▁taybetî	-7.85222
▁vî	-7.85238
▁dibêjin	-7.85937
▁demê	-7.86374
▁tên	-7.86761
▁wezîrê	-7.87282
di	-7.87801
1	-7.89121
▁peywendîyên	-7.89232
▁3	-7.89476
g	-7.89497
▁daxwaz	-7.90188
da	-7.90236
▁nîşandan	-7.90995
▁dide	-7.92242
iyan	-7.92397
▁berdewam	-7.9258
u	-7.93018
▁sê	-7.93375
PNA	-7.93835
▁kirine	-7.94036
▁kuştin	-7.94392
E	-7.94842
▁serokatîya	-7.94852
▁E	-7.94894
b	-7.95208
▁M	-7.95309
▁C	-7.95731
kî	-7.96072
▁pêş	-7.96421
▁kesên	-7.96624
▁K	-7.96876
en	-7.97038
▁ewan	-7.97079
▁rê	-7.97158
▁dawî	-7.9718
▁bihên	-7.97508
▁amade	-7.97666
re	-7.97878
bûna	-7.97918
▁Mesûd	-7.98033
▁gelê	-7.98322
▁fermî	-7.9923
▁Herêma	-7.99523
▁4	-7.99882
▁gundê	-7.99888
▁min	-8.00296
▁Sûrîyê	-8.00389
▁gotin	-8.00681
▁yan	-8.00875
▁îro	-8.00966
li	-8.01128
▁wezareta	-8.01752
eka	-8.0195
▁cih	-8.02173
▁Amedê	-8.02528
▁Elî	-8.02937
ta	-8.03234
ka	-8.03543
F	-8.03619
▁1	-8.03693
▁Kerkûkê	-8.03847
x	-8.04646
▁giştî	-8.04696
▁belav	-8.05735
▁endamên	-8.05943
▁alîyan	-8.06235
▁BI	-8.0643
▁hin	-8.06542
▁5	-8.06624
▁kombûnê	-8.06648
▁Dr	-8.07056
▁kû	-8.07954
S	-8.07969
▁welatên	-8.08056
▁dewleta	-8.08085
Î	-8.08137
▁wezîrên	-8.08155
▁pirsa	-8.08599
▁wiha	-8.08751
▁jibo	-8.08976
▁deverên	-8.09082
▁jê	-8.09405
▁Nûrî	-8.09781
▁gund	-8.09811
▁Baxdadê	-8.10178
iye	-8.10203
▁bibin	-8.10423
▁bûne	-8.10634
▁KURDISTANÊ	-8.10774
▁Kurdistan	-8.10926
ra	-8.11164
p	-8.11321
▁cîhanê	-8.11878
▁hinek	-8.12414
▁ko	-8.12532
û	-8.12572
▁ra	-8.128
te	-8.12997
us	-8.13067
▁supayê	-8.13152
▁of	-8.13294
▁der	-8.13451
▁ajansa	-8.13683
▁baş	-8.13909
▁JI	-8.14404
▁ziman	-8.14565
▁nêzîkî	-8.14659
▁Ehmed	-8.14727
▁bilind	-8.14869
▁kujtin	-8.14958
▁berî	-8.15174
▁ava	-8.15452
(	-8.1706
▁Şêx	-8.17182
▁Sûrî	-8.17746
|	-8.17802
▁Girêdanên	-8.17919
▁IRAQÊ	-8.18422
▁dibin	-8.18675
c	-8.18696
▁komara	-8.18753
em	-8.18899
C	-8.19174
▁Iraqî	-8.19487
▁gorî	-8.20867
▁10	-8.21326
▁devera	-8.21698
▁HERÊMA	-8.23293
man	-8.23472
▁alîyên	-8.23985
ma	-8.24292
▁kombûna	-8.24742
iyên	-8.2549
▁we	-8.26038
tî	-8.26114
▁Îraqê	-8.2635
▁tirk	-8.26465
▁Mûsilê	-8.26516
▁gerek	-8.26544
▁Wêne	-8.26573
▁salên	-8.26758
ş	-8.26795
▁12	-8.26882
▁P	-8.26996
▁2011/	-8.27235
▁zêde	-8.28
▁daye	-8.28203
▁6	-8.28629
▁şer	-8.28818
▁daxwaza	-8.28967
▁leşkerî	-8.28985
le	-8.28989
0	-8.29388
▁êdî	-8.29658
ke	-8.30533
▁Mehmûd	-8.3054
în	-8.30548
▁m	-8.30696
rî	-8.31292
▁I	-8.31627
▁hejmara	-8.31753
dî	-8.31767
▁G	-8.31812
▁kêm	-8.32243
▁SEROKÊ	-8.32343
▁redirect	-8.32394
▁The	-8.32527
▁B	-8.32646
▁Osman	-8.32742
v	-8.32885
tir	-8.33003
▁bide	-8.33061
▁ke	-8.33467
▁KIR	-8.33912
▁evî	-8.33913
▁nûçeya	-8.34019
▁yekem	-8.34218
▁Se	-8.34966
▁Kurdan	-8.35081
ik	-8.35335
▁kesan	-8.35617
▁çi	-8.36232
▁7	-8.3631
▁DI	-8.3668
▁heman	-8.3682
▁şandeya	-8.37286
▁2012/	-8.37463
▁Talebanî	-8.37563
▁15	-8.37972
▁u	-8.38039
▁**	-8.3811
▁çar	-8.38223
dar	-8.38389
al	-8.38578
▁hilbijartinên	-8.38605
▁biryar	-8.38801
”	-8.39075
▁20	-8.39229
▁Obama	-8.39264
▁heger	-8.39317
▁kom	-8.40276
▁Endamê	-8.41324
▁rêya	-8.4133
▁doh	-8.4136
▁te	-8.41763
▁cihê	-8.42044
st	-8.42163
▁mirovan	-8.42741
ber	-8.42772
is	-8.42882
me	-8.42952
▁destê	-8.43184
▁PKK	-8.43624
3	-8.43642
▁km	-8.43817
▁ez	-8.43842
▁hilbijartinan	-8.44087
▁jiyana	-8.4411
▁:	-8.44272
▁Wezîrê	-8.44521
▁welatê	-8.44679
B	-8.44794
w	-8.44879
▁karê	-8.45055
▁DE	-8.45333
▁dihê	-8.45679
▁wir	-8.45778
kê	-8.46186
▁Muhemmed	-8.46242
▁berpirsên	-8.46521
▁Be	-8.46779
▁encamdan	-8.4681
▁(),	-8.46945
▁[	-8.47145
▁T	-8.47165
▁nûnerên	-8.47193
▁hevpeymanîya	-8.47386
▁kerkûkê	-8.47659
ve	-8.47768
lî	-8.48295
▁dixwazin	-8.48443
▁Amerîkî	-8.4848
▁başûrê	-8.48562
▁na	-8.48609
▁bikaranîn	-8.49513
▁Tirkiyeyê	-8.49523
▁bidin	-8.49583
▁layê	-8.49866
▁dîtin	-8.49925
▁Serok	-8.49975
px	-8.5019
j	-8.50386
▁11	-8.50548
▁Em	-8.50768
H	-8.50918
▁Eliraqîyye	-8.50966
M	-8.51281
▁16	-8.51763
▁awayekî	-8.52149
▁encama	-8.52517
▁Celal	-8.52536
▁18	-8.52716
▁prosesa	-8.5282
la	-8.52823
▁Ne	-8.5316
▁pêkanîna	-8.53311
▁welat	-8.53394
T	-8.53867
1]	-8.54024
▁tirkî	-8.54099
▁8	-8.5412
▁taybet	-8.54437
▁17	-8.54496
q	-8.54601
▁salan	-8.55064
4]	-8.55093
▁DÊ	-8.55138
es	-8.55354
▁diyar	-8.55394
align	-8.55412
▁federal	-8.55562
▁roj	-8.55688
6]	-8.56016
2]	-8.5614
im	-8.56161
ar	-8.56313
3]	-8.56382
▁sal	-8.56598
8]	-8.56726
▁serok	-8.57327
▁Yekbûyî	-8.57397
jpg	-8.57626
▁Ser	-8.57749
▁nîşan	-8.57809
▁alî	-8.57828
van	-8.57906
=	-8.57906
il	-8.57976
5]	-8.5801
▁didin	-8.58014
▁caran	-8.58205
▁girîng	-8.58292
P	-8.58371
0]	-8.58641
▁xelkê	-8.58654
za	-8.58682
îyê	-8.5869
▁navdar	-8.58762
7]	-8.58919
▁the	-8.5894
dan	-8.58964
▁mafên	-8.58983
at	-8.59324
9]	-8.59365
▁çendê	-8.59411
center	-8.59814
▁Salih	-8.59903
▁grêdayî	-8.60016
▁polîsên	-8.60067
▁qanûna	-8.605
Mar	-8.60508
rê	-8.60634
ce	-8.60663
▁meha	-8.60692
▁cuda	-8.6072
der	-8.60731
▁F	-8.60826
be	-8.6093
▁Kurdistanî	-8.6094
▁Bo	-8.61016
▁welatî	-8.61225
5	-8.61533
lo	-8.61658
▁cihgirê	-8.61967
▁dikeve	-8.62198
▁Ber	-8.62615
▁hezar	-8.62744
we	-8.62848
D	-8.63146
ter	-8.63146
▁derbas	-8.63446
▁hikûmeta	-8.63852
▁parliyamentê	-8.63859
it	-8.63935
▁Tirkîyê	-8.64071
▁Herweha	-8.6424
▁14	-8.64281
▁pêşkêş	-8.64315
▁tu	-8.64699
▁dixwaze	-8.64762
▁mafê	-8.64816
▁hatibû	-8.64904
▁kurdistanî	-8.64925
▁13	-8.64935
▁biryara	-8.6506
▁Dewleta	-8.65495
▁tekezî	-8.65544
▁Me	-8.65555
ad	-8.65561
Jul	-8.65813
bûn	-8.65863
▁guft	-8.6598
▁Esed	-8.66049
▁were	-8.66201
▁Navê	-8.66324
G	-8.66468
▁()	-8.66533
▁dûr	-8.66975
▁dirêj	-8.67122
▁bakurê	-8.67149
▁dikare	-8.67576
?	-8.67617
▁Neteweyên	-8.6798
▁derbarê	-8.68223
▁9	-8.68227
▁giring	-8.68612
Sep	-8.68685
ir	-8.6869
▁Îran	-8.68697
um	-8.68852
▁pêşwazîya	-8.68881
▁D	-8.68915
el	-8.68928
▁serê	-8.68999
▁sedsala	-8.69003
▁Tirk	-8.69185
▁Mirin	-8.69317
4	-8.69348
▁şerê	-8.695
May	-8.69606
▁heya	-8.69856
▁Evroj	-8.6999
Dec	-8.70071
▁KU	-8.7044
▁hember	-8.70495
kar	-8.70869
Jun	-8.7087
▁L	-8.70907
▁leşkerên	-8.7116
▁navenda	-8.71184
▁dîdarê	-8.71228
▁O	-8.71518
on	-8.71815
▁endamê	-8.71985
Oct	-8.72218
▁Le	-8.72226
▁jêderî	-8.72438
▁xwedî	-8.72467
▁Partîya	-8.72543
▁aborî	-8.72657
▁petrolê	-8.72692
ro	-8.72759
îne	-8.72886
▁vir	-8.72961
▁Jêderekî	-8.73833
▁H	-8.73941
▁RE	-8.74094
Apr	-8.74266
Aug	-8.74313
kan	-8.74553
ing	-8.74682
▁çêkirin	-8.74822
▁pêşkêşî	-8.74823
▁ragihandin	-8.74842
▁zêdetir	-8.75039
▁hem	-8.75112
▁Amerîkayê	-8.7528
▁çareser	-8.75391
▁Kurdên	-8.7546
▁&	-8.75484
kirî	-8.75628
▁salê	-8.76038
▁Wî	-8.76111
9	-8.76329
▁Hesen	-8.76399
R	-8.76525
▁Weha	-8.76637
▁Al	-8.76835
▁ka	-8.77165
▁rejîma	-8.77245
▁deng	-8.77575
bû	-8.77693
▁nivîskar	-8.77873
X	-8.77919
eya	-8.77936
▁kombûnek	-8.78392
L	-8.7871
Z	-8.78714
▁avê	-8.78753
▁dikir	-8.78844
ç	-8.78916
▁Dengê	-8.78927
▁pirsên	-8.79102
ge	-8.79603
Jan	-8.79906
▁ewledarîyê	-8.7998
▁style	-8.80141
▁komîteya	-8.80388
▁b	-8.80593
▁Başûr	-8.80607
▁dewletê	-8.80613
▁30	-8.81032
▁R	-8.81123
AN	-8.81123
▁W	-8.81198
ker	-8.81229
se	-8.81339
▁Berhem	-8.81363
▁zarok	-8.81445
▁Du	-8.81536
▁bêtir	-8.81606
▁Iraqa	-8.81669
▁erebî	-8.8184
ran	-8.81906
▁nîne	-8.82027
îye	-8.8217
▁Jidayîkbûn	-8.82427
yek	-8.8248
▁karên	-8.82537
▁Fransa	-8.82617
▁Amerîkayî	-8.82676
sa	-8.82704
▁dem	-8.82755
.”	-8.82776
▁kirina	-8.8278
ha	-8.82921
▁gundên	-8.83001
▁barên	-8.83025
▁Ewropa	-8.83151
et	-8.83231
▁rast	-8.83642
▁rojnameya	-8.8368
▁dane	-8.83855
ger	-8.83872
ser	-8.839
ba	-8.8458
▁ligel	-8.84585
▁hêla	-8.8464
▁Başûrê	-8.84804
!	-8.85169
▁hukûmetê	-8.8534
▁maddeya	-8.85394
▁N	-8.8554
▁wisa	-8.85583
▁deverê	-8.85736
▁herwisa	-8.85834
▁artêşa	-8.86003
▁ma	-8.8619
▁çû	-8.86219
▁çareserkirina	-8.86355
▁derveyê	-8.86359
lê	-8.86564
os	-8.86632
6	-8.86663
▁dû	-8.86861
ji	-8.87056
ku	-8.87276
▁destûra	-8.87565
wan	-8.87593
▁Nêçîrvan	-8.8765
▁çareserkirin	-8.87692
▁La	-8.87772
é	-8.8788
▁ba	-8.88011
Nov	-8.88327
▁yekemîn	-8.8838
▁140	-8.88404
▁posta	-8.88405
▁dinê	-8.8866
ok	-8.88803
▁Evî	-8.88958
▁De	-8.89046
▁Dema	-8.89079
▁Si	-8.89106
▁bajêr	-8.89161
▁çandî	-8.89205
▁avakirin	-8.89265
▁2011	-8.89277
▁dawîyê	-8.89559
▁25	-8.89628
▁herwiha	-8.89648
to	-8.8966
▁Mêrdînê	-8.89813
▁rola	-8.89867
▁align	-8.8995
▁ta	-8.90097
▁destpêka	-8.90407
▁PDK	-8.90425
://	-8.90542
▁and	-8.90685
▁Erebî	-8.90736
Feb	-8.90974
ul	-8.91066
sî	-8.91075
O	-8.911
kir	-8.91102
▁‘	-8.91121
||	-8.91178
Gelhenasî	-8.91262
▁paş	-8.91616
▁bilinda	-8.91682
▁rojnamevanî	-8.91803
▁rastî	-8.91947
▁Komara	-8.92063
nî	-8.92171
▁Erdogan	-8.92304
Başûrê	-8.92384
ur	-8.92428
▁kurdên	-8.92762
ze	-8.92951
▁pêşmerge	-8.92965
▁dî	-8.9302
Çavkanî	-8.93246
▁gotinê	-8.93605
▁Navîn	-8.93917
îna	-8.94004
7	-8.94021
▁Ereb	-8.94339
or	-8.94588
▁dîrokî	-8.94738
▁Sala	-8.94918
▁asayişa	-8.95094
dê	-8.9512
▁XWE	-8.9526
▁navçe	-8.95305
ga	-8.9556
▁Huseyn	-8.95692
ia	-8.9574
▁====	-8.95816
▁Zimanê	-8.95867
▁aşkira	-8.96268
▁sedema	-8.96418
va	-8.96626
do	-8.96774
▁rêxistina	-8.96888
▁têne	-8.96921
ko	-8.96934
▁salî	-8.9706
wa	-8.97221
▁pîroz	-8.97361
▁diçe	-8.97477
▁Ewropayê	-8.97679
▁dijîn	-8.98004
com	-8.98218
▁hwd	-8.98244
▁Ar	-8.98387
▁Beşar	-8.98418
▁rojhilata	-8.98472
▁duyem	-8.98481
▁Tê	-8.98515
▁Roj	-8.98583
▁Partiya	-8.98588
▁çekdarên	-8.98625
▁Birêz	-8.98631
▁hebe	-8.98709
▁dikarin	-8.98816
▁başûr	-8.98891
▁destnîşan	-8.99025
▁digire	-8.99108
tê	-8.99345
▁Ma	-8.99543
▁wezîran	-8.99715
▁19	-8.99846
ca	-8.99977
tan	-9.00266
ed	-9.00326
ch	-9.00334
▁bêjedana	-9.00409
▁Nivîskar	-9.00709
03	-9.00869
▁NY	-9.01031
▁Xelata	-9.01134
▁alîkarîya	-9.0126
W	-9.01264
▁Re	-9.01268
▁pirr	-9.01591
▁ango	-9.016
▁balyozê	-9.01719
▁bavê	-9.01824
▁Mezin	-9.01937
▁rojê	-9.02128
▁Der	-9.02207
]	-9.02367
▁bîr	-9.02375
▁dîroka	-9.02579
▁Silêmanîyê	-9.02722
▁parastina	-9.02881
▁Z	-9.02978
▁cara	-9.02997
bsp	-9.03034
bo	-9.03153
▁hê	-9.03324
ti	-9.03549
▁polîsan	-9.03719
▁Îtilafa	-9.03867
ri	-9.03924
▁Kesên	-9.0411
▁hêvî	-9.04296
–	-9.04655
8	-9.04662
▁biwarê	-9.04671
▁Herwiha	-9.04786
▁rojan	-9.05019
▁awayî	-9.05055
▁Misirê	-9.05192
▁Yekîtîya	-9.05604
▁rojên	-9.05804
▁hikûmetê	-9.05869
▁Famîleya	-9.06028
▁New	-9.0606
▁Qanûnê	-9.06186
▁21	-9.06213
▁HATIN	-9.06261
I	-9.06398
▁J	-9.06494
▁al	-9.06705
▁beşdarî	-9.06839
▁mala	-9.06894
▁welatan	-9.0695
▁Te	-9.06977
han	-9.07053
▁xurt	-9.07149
===	-9.07283
▁tevî	-9.07321
▁civakî	-9.07524
▁go	-9.07558
▁Dihokê	-9.0773
▁ISBN	-9.07742
ine	-9.0776
▁nas	-9.07796
▁Çînê	-9.07871
▁zû	-9.07898
▁24	-9.07912
▁sazdan	-9.08044
▁beşdarîyê	-9.08169
▁Hin	-9.08249
▁biçûk	-9.08364
▁X	-9.08389
eyî	-9.08678
ler	-9.08824
▁ewên	-9.08825
îk	-9.08895
▁hatina	-9.08944
▁hêz	-9.09052
▁Kemal	-9.09174
▁s	-9.09324
▁Fu	-9.09443
▁Mihemed	-9.09501
▁Na	-9.0964
▁Malpera	-9.097
▁Er	-9.0971
▁qasî	-9.0975
▁rû	-9.09797
▁Amed	-9.09798
▁anî	-9.09871
▁derket	-9.10016
▁berfireh	-9.10046
▁http	-9.10078
▁hevwelatîyên	-9.10143
den	-9.10163
▁qebûl	-9.1022
mar	-9.10368
▁gundî	-9.10457
▁weşandin	-9.10631
▁Yek	-9.10811
▁gelekî	-9.1082
▁Zanîngeha	-9.11011
▁nabe	-9.11231
▁pêşîn	-9.11368
▁xwediyê	-9.1137
▁Ş	-9.11394
▁mîna	-9.1162
▁el	-9.11819
&	-9.11898
▁armanca	-9.11986
▁Kurdistana	-9.12325
▁BDP	-9.12375
▁Zêbarî	-9.12497
▁!	-9.12517
▁Ez	-9.12734
▁Îro	-9.12737
▁Herwisa	-9.1294
id	-9.1305
▁azad	-9.13409
▁BO	-9.13626
▁Hêzên	-9.13774
▁Wanê	-9.13801
▁Derve	-9.13907
▁2007/	-9.13917
▁naskirin	-9.14005
sê	-9.14009
▁pênc	-9.14016
▁valakirin	-9.14017
▁Haşimî	-9.14034
▁Ebdullah	-9.14445
▁Ku	-9.14464
Y	-9.1464
▁tevlî	-9.14666
▁kurê	-9.1468
▁Eyad	-9.14778
▁sor	-9.14871
}	-9.15025
Ş	-9.15219
▁Çiyayê	-9.15311
▁Turkiyeyê	-9.15376
▁22	-9.15401
▁nêzîk	-9.1543
▁dîsa	-9.15446
▁bûyerê	-9.15533
▁Iraq	-9.15557
▁siyasîya	-9.15587
▁SER	-9.1578
▁AMERÎKA	-9.15932
▁pirtûka	-9.16032
andin	-9.16048
▁tekez	-9.16101
▁Ra	-9.16108
▁wateya	-9.16192
▁xweş	-9.1641
tin	-9.16437
▁2006	-9.1666
▁hemî	-9.16809
▁Eswatuliraq	-9.16837
▁d	-9.16903
▁Karbidest	-9.17019
▁hevdu	-9.17061
▁U	-9.17145
bî	-9.17241
▁Navenda	-9.17559
_	-9.17788
anî	-9.17939
▁sazkirin	-9.18064
▁eger	-9.18064
▁derveya	-9.18067
▁hêza	-9.182
no	-9.18222
▁Dike	-9.18239
îyên	-9.1832
▁damezrandin	-9.18346
▁Şî	-9.18513
▁SEREKÎ	-9.18584
▁digel	-9.18606
bûnê	-9.18833
▁dihat	-9.19005
▁Gelek	-9.19068
▁Gel	-9.19181
îyan	-9.19251
▁navîn	-9.19309
▁girt	-9.19569
▁dinên	-9.19592
▁Duhokê	-9.19659
▁nake	-9.19735
▁Tirkiyê	-9.19894
▁bajarên	-9.19979
▁rojavayê	-9.20072
▁piştevanîya	-9.20099
▁V	-9.20123
per	-9.20128
▁)	-9.20131
05	-9.20137
U	-9.20152
V	-9.20165
▁reş	-9.20259
▁malbata	-9.20276
mê	-9.20603
bê	-9.20651
yeke	-9.20711
▁dezgehên	-9.20753
▁RÛPEL	-9.20918
04	-9.20926
▁Kar	-9.20994
▁pirs	-9.21033
▁sînorê	-9.21127
am	-9.21468
▁Şerê	-9.21479
▁ragihandiye	-9.21522
▁dihên	-9.21584
▁Bakur	-9.21731
▁derbasbûyî	-9.22017
▁Heta	-9.22026
▁bajar	-9.22469
▁hîna	-9.22472
▁'	-9.22511
▁vekirin	-9.22574
▁derveyî	-9.22621
▁Da	-9.22775
▁hatîye	-9.22854
her	-9.22862
eyên	-9.22902
▁bakur	-9.22924
▁dar	-9.23086
J	-9.23237
▁Sedr	-9.23252
▁hîn	-9.2376
si	-9.23958
▁An	-9.23964
▁KIRIN	-9.23971
▁BIKE	-9.24094
▁hebûn	-9.24159
bar	-9.24289
▁destpê	-9.24498
▁Mar	-9.24507
kirinê	-9.24562
çe	-9.24737
▁jiber	-9.24774
▁YE	-9.24908
▁çawa	-9.24923
www	-9.2495
▁xelkên	-9.25263
ı	-9.25423
▁sivîl	-9.25426
▁la	-9.25472
▁alîyekî	-9.25673
ot	-9.25698
▁hebûna	-9.25743
zan	-9.2581
▁kevn	-9.25821
▁berhemên	-9.26112
▁Wezareta	-9.26334
▁dewletên	-9.26377
▁fraksiyonên	-9.26435
▁%	-9.26455
▁rojava	-9.26494
▁bawer	-9.2655
"|	-9.26669
▁Xwe	-9.26756
▁23	-9.26791
▁0	-9.26798
▁YA	-9.26876
fa	-9.26917
jî	-9.27091
▁malbatên	-9.27298
▁encamdana	-9.27353
▁encamên	-9.27458
▁2010	-9.27558
▁border	-9.27579
▁Kir	-9.27619
▁Sa	-9.27675
▁2007	-9.27707
▁Îranî	-9.27924
▁dora	-9.27969
09	-9.28089
▁gotina	-9.28144
▁dijwar	-9.28177
zî	-9.28356
▁latînî	-9.28362
▁50	-9.28409
▁polîs	-9.28434
▁xebatên	-9.28475
▁Brîtaniya	-9.28533
▁êrîşên	-9.28597
▁Roja	-9.28608
▁dil	-9.28612
▁piştre	-9.28756
emîn	-9.28782
▁Tariq	-9.28793
Di	-9.28798
▁Wê	-9.28815
▁anîn	-9.28843
▁bihîne	-9.28941
▁bilî	-9.28942
▁berpirsê	-9.28998
▁giştîyê	-9.29035
▁DYA	-9.29059
lan	-9.29068
▁Bê	-9.29145
▁NE	-9.29146
▁p	-9.29259
▁nûnerê	-9.29431
▁Gul	-9.29461
▁Xwedê	-9.2954
▁kiribû	-9.29679
▁Sûriye	-9.29783
▁Wekî	-9.29788
wer	-9.2986
▁Islamîya	-9.29994
="#	-9.30039
▁Ha	-9.30143
▁axa	-9.30164
▁serbixwe	-9.30281
▁=	-9.30342
je	-9.30352
tirîn	-9.30375
▁Î	-9.30435
▁îngilîzî	-9.30662
▁navdewletî	-9.30889
▁YNK	-9.31045
▁dîyar	-9.31061
▁xwest	-9.31176
▁HAT	-9.31219
▁hilbijartin	-9.31343
▁beşekî	-9.3136
un	-9.31374
▁Mu	-9.3142
▁100	-9.31432
▁warê	-9.31458
▁Rûsiya	-9.31573
▁dengê	-9.31638
son	-9.31838
▁2009	-9.31897
ew	-9.32004
▁ket	-9.32046
▁bikar	-9.32071
▁2003	-9.32204
▁herêmên	-9.32205
▁bingeha	-9.3239
▁tev	-9.32436
▁zarokan	-9.32657
▁gotiye	-9.32708
▁27	-9.32769
▁dirist	-9.3283
▁und	-9.32831
▁dîrokê	-9.32852
▁(19	-9.32916
▁demekê	-9.33078
men	-9.33086
▁nivîsandin	-9.33093
cî	-9.33113
▁Ajansa	-9.33119
▁dev	-9.33282
▁Mela	-9.3333
▁rêkevtina	-9.33351
07	-9.33362
▁2008	-9.33434
ton	-9.33542
▁cure	-9.33543
▁neteweyî	-9.33551
▁beşdar	-9.33708
fer	-9.33719
▁Azad	-9.33726
▁Koma	-9.33801
tiya	-9.33851
▁Dê	-9.33869
and	-9.33976
tiyê	-9.34081
▁to	-9.34204
▁cureyên	-9.34331
▁nehatiye	-9.34412
▁hebû	-9.34469
▁Stenbolê	-9.3452
▁Encûmena	-9.34595
▁zimanên	-9.34617
▁dawîya	-9.34665
▁jinan	-9.34856
▁Şah	-9.34949
▁mînak	-9.35
▁cîhanî	-9.35044
as	-9.35132
▁xwarin	-9.35227
▁Kom	-9.3527
▁Ce	-9.35375
yo	-9.35493
▁Jêder	-9.35658
ci	-9.35706
mer	-9.35744
ng	-9.35831
yekî	-9.35872
ll	-9.35948
▁jêr	-9.35968
▁hemberî	-9.35977
ey	-9.36054
geha	-9.36089
▁mal	-9.36193
▁navxweyî	-9.36262
▁beşa	-9.36286
go	-9.36346
dana	-9.366
he	-9.36604
înin	-9.36668
▁im	-9.36735
▁herweha	-9.36907
▁Barak	-9.37016
▁siyasîyên	-9.37027
▁car	-9.37076
nas	-9.37125
▁Mîr	-9.37157
▁koma	-9.37353
▁milyon	-9.37641
din	-9.3784
▁cihên	-9.37853
▁o	-9.37914
▁pêşî	-9.37975
▁Hevpeymanîy	-9.37989
▁Kor	-9.38006
ika	-9.38054
▁28	-9.38111
▁Nû	-9.38131
şa	-9.38141
▁Sal	-9.38154
▁şeş	-9.38251
ver	-9.38412
▁hewl	-9.38522
▁heft	-9.38672
▁dibîne	-9.38742
▁av	-9.38915
▁bernameya	-9.3901
▁cî	-9.39068
▁şerr	-9.39205
▁Cîhan	-9.39208
▁26	-9.39263
gen	-9.39288
▁petrola	-9.39333
▁avakirina	-9.39537
▁Deryaya	-9.39556
▁hezaran	-9.39616
zê	-9.39662
▁Rojhilata	-9.39804
▁demên	-9.39869
▁zanistî	-9.39879
▁partîya	-9.39892
▁Hukûmeta	-9.4003
▁çiyayê	-9.40125
▁holê	-9.40194
▁sereke	-9.40287
▁Mirov	-9.40513
▁Kes	-9.40593
▁Afganistanê	-9.40726
▁bu	-9.40814
ic	-9.40941
mo	-9.41017
mî	-9.41034
▁sîyasî	-9.41063
▁birêz	-9.41205
▁En	-9.41212
gel	-9.41212
▁Bûyer	-9.41384
▁kongireya	-9.41472
▁Ellawî	-9.41558
▁Ya	-9.41561
▁teqîna	-9.4179
▁rojavaya	-9.41894
▁encamê	-9.42031
▁qezaya	-9.42069
▁derxistin	-9.42283
▁xaka	-9.4233
▁ragihandina	-9.4234
▁xo	-9.42377
▁cîran	-9.42443
▁riya	-9.42611
▁Hikûmeta	-9.42643
▁siyaseta	-9.42912
▁Fransayê	-9.43024
▁Çend	-9.4306
right	-9.4312
eyê	-9.43127
ü	-9.4314
▁sibehê	-9.43198
▁HUKÛMET	-9.4321
▁Tirkiye	-9.43391
▁destûrê	-9.43536
▁bandora	-9.43607
▁Belê	-9.4361
;"|	-9.43788
ki	-9.43874
▁paytexta	-9.4391
▁lêkolîn	-9.43975
▁c	-9.44043
navend	-9.44097
▁KUJTIN	-9.44148
▁Sûriyê	-9.44159
▁dinyayê	-9.44166
▁40	-9.44178
lu	-9.44229
▁gelên	-9.44238
▁asta	-9.44361
▁he	-9.44447
▁Mêr	-9.44487
▁bingehîn	-9.44666
▁TURKIYE	-9.44866
▁Bin	-9.44942
▁JÎ	-9.44947
▁Can	-9.44987
ja	-9.45233
▁dikim	-9.45269
▁Bêjedarê	-9.45298
▁Silêmaniyê	-9.45384
▁Mala	-9.45428
02	-9.45512
▁dayîn	-9.45521
gan	-9.45577
pa	-9.45601
iz	-9.45692
▁Mustefa	-9.45713
▁Y	-9.45779
▁gotinên	-9.45832
▁destên	-9.45836
▁çek	-9.45857
▁î	-9.45927
▁çekên	-9.45941
▁bombeka	-9.46125
▁nivîskarê	-9.46155
/12	-9.46164
▁cem	-9.46215
▁qanûnê	-9.46346
mi	-9.46459
▁pirtûkê	-9.46472
▁•	-9.46568
ov	-9.46623
▁xuya	-9.467
▁nerîn	-9.46741
ner	-9.46821
08	-9.46896
▁ÎRANÊ	-9.46937
▁nakin	-9.46948
▁Per	-9.46952
▁deveran	-9.47038
du	-9.47072
▁Reş	-9.47073
ina	-9.471
▁siteya	-9.47139
▁2004	-9.47177
th	-9.47205
▁cîh	-9.47225
▁Mistefa	-9.47259
▁malpera	-9.47282
tr	-9.4732
▁Rojava	-9.47336
▁Niha	-9.47346
▁egerê	-9.47445
▁dîwana	-9.47474
▁bazirganî	-9.47496
▁niştimanî	-9.47624
lar	-9.47639
▁paşê	-9.47881
▁Israyel	-9.47924
ak	-9.48049
▁(*	-9.48303
▁2005	-9.48414
pê	-9.48442
▁giran	-9.48674
▁Welat	-9.48728
▁Pirtûk	-9.48837
▁Turk	-9.4888
gi	-9.48989
▁bar	-9.49016
ut	-9.49107
▁razî	-9.4913
▁Lo	-9.49143
▁serekî	-9.49161
▁dayik	-9.49197
co	-9.49318
▁In	-9.49385
▁beramber	-9.49392
şî	-9.49463
▁Pakistanê	-9.49532
▁2000	-9.49533
▁Civata	-9.49547
▁Hejmara	-9.49557
▁dîdar	-9.49573
if	-9.49599
▁wa	-9.49729
▁Ni	-9.49761
ten	-9.49833
▁Beg	-9.4984
▁xwendina	-9.49921
▁{|	-9.49927
▁John	-9.49928
▁man	-9.49949
▁do	-9.49951
▁hatibûn	-9.49966
▁qanûnî	-9.50109
ez	-9.50243
▁Piştre	-9.50354
/19	-9.50448
▁bikeve	-9.50449
▁kirdarên	-9.50484
ol	-9.50531
▁bêtirî	-9.50603
▁Do	-9.50618
▁eşkere	-9.507
▁bêjedanek	-9.50776
▁TV	-9.50799
▁Bar	-9.5102
▁taxa	-9.51043
▁dibînin	-9.51095
▁çav	-9.51113
▁navên	-9.51132
10	-9.51134
xwe	-9.51172
înê	-9.5118
▁Nav	-9.5137
▁malan	-9.51451
ev	-9.51614
▁kompanyayên	-9.51627
▁dawiya	-9.51772
▁êrîşa	-9.51815
▁29	-9.51921
▁teqîya	-9.51932
▁bal	-9.51936
/10	-9.52099
geh	-9.52216
▁),	-9.52227
left	-9.52264
▁dayîk	-9.52432
▁Weşanên	-9.52443
▁hilwestê	-9.52518
▁rûyê	-9.52603
▁Dîrok	-9.52642
▁Nobel	-9.52725
▁bigirin	-9.5275
19	-9.52784
▁Adil	-9.52789
/20	-9.52858
▁cejna	-9.52889
sen	-9.5303
fe	-9.53104
nd	-9.53151
▁Îslamî	-9.53243
▁Alî	-9.53441
▁danîn	-9.53527
▁Serokwezîrê	-9.53548
▁par	-9.53555
▁kesekî	-9.53634
▁Mûşê	-9.53643
iyeke	-9.53654
▁Cihgirê	-9.53792
▁tune	-9.53853
▁şaristana	-9.53889
wê	-9.53903
%	-9.53909
▁radiyoya	-9.5394
▁dikirin	-9.5395
êt	-9.53982
▁tişt	-9.53986
xan	-9.54077
şe	-9.54301
▁si	-9.54313
▁herdem	-9.54469
▁pişt	-9.54566
qa	-9.54701
▁gotara	-9.54729
▁Îbrahîm	-9.54918
06	-9.54947
▁Xelîl	-9.54975
/11	-9.55004
▁navneteweyî	-9.55119
▁nêzî	-9.5515
▁Tirkîye	-9.55192
▁Bexdadê	-9.55251
▁pêdivê	-9.55299
îst	-9.55311
▁hejmarek	-9.55359
tar	-9.5538
▁He	-9.55433
▁civaka	-9.55471
▁mêr	-9.55485
▁xist	-9.55779
▁Q	-9.55783
▁rojhilatê	-9.5584
▁duh	-9.55966
▁hevbeş	-9.55972
▁kirîye	-9.56013
▁Man	-9.56187
vî	-9.56278
style	-9.56316
▁DA	-9.56333
▁agir	-9.56452
▁êrîş	-9.56486
▁Ko	-9.56502
▁temenê	-9.56529
▁destpêkê	-9.56558
▁Sê	-9.56586
▁se	-9.56625
iş	-9.5663
▁Yekîtiy	-9.56647
YÊN	-9.56692
▁daxwazên	-9.56815
▁Berî	-9.56822
gar	-9.56876
▁kêmî	-9.56886
ud	-9.56886
▁Navçeya	-9.57043
▁nîv	-9.57319
▁stran	-9.57326
padding	-9.57407
▁rûniştvanên	-9.57436
IN	-9.57478
▁nikare	-9.57545
▁Xalid	-9.57552
Bi	-9.57634
om	-9.57649
▁Wan	-9.5778
ûn	-9.5781
ö	-9.57833
colspan	-9.57856
▁dadgeha	-9.57887
▁erdê	-9.58091
▁Min	-9.58125
hî	-9.58139
▁bgcolor	-9.58159
gir	-9.58298
▁Almanya	-9.5841
▁SERDAN	-9.58425
▁sîstema	-9.58492
▁Sor	-9.585
war	-9.58566
▁NATO	-9.58615
ni	-9.58791
▁Rûsya	-9.58827
▁Ta	-9.58862
▁Kerkûk	-9.58868
▁kurmancî	-9.5887
▁KURD	-9.58973
▁Tu	-9.58982
▁leşker	-9.59002
▁2012	-9.59029
▁nayê	-9.59042
▁gengeşe	-9.59159
▁nebe	-9.59316
▁jêderên	-9.59397
aceae	-9.59409
wî	-9.59528
▁sekreterê	-9.59595
▁parêzgehên	-9.59619
▁Hevgirtin	-9.59729
andina	-9.59733
▁rêkevtin	-9.59775
îl	-9.59809
land	-9.59829
▁Zayîn	-9.59892
▁width	-9.5994
▁peyda	-9.60033
▁Jin	-9.60048
mîn	-9.60135
▁SAZ	-9.60212
▁mehê	-9.60306
▁navendî	-9.60396
fî	-9.60456
▁nasîn	-9.60505
▁çûn	-9.60571
▁hil	-9.60607
▁jîyana	-9.60649
▁belavkirin	-9.60704
▁Bakurê	-9.60743
▁boneya	-9.60828
▁Almaniya	-9.60887
▁BÛN	-9.60895
▁şandeyeka	-9.60944
▁malê	-9.60963
▁Mer	-9.61009
ent	-9.61043
tu	-9.61106
gu	-9.61138
au	-9.61162
▁bihînin	-9.613
▁terorîstan	-9.61328
▁g	-9.61335
▁daxwazê	-9.61352
org	-9.6139
▁Şirnexê	-9.61424
25	-9.6158
ayî	-9.61693
can	-9.61695
▁maweya	-9.61741
▁rêxistinên	-9.61944
▁derdikeve	-9.62038
;"	-9.62051
▁rexne	-9.62074
▁mir	-9.62079
▁dîsan	-9.62117
▁Çîn	-9.62121
▁Mele	-9.62148
ikê	-9.62166
background	-9.62307
▁xebata	-9.62323
▁DTP	-9.62331
lû	-9.62368
▁kî	-9.62425
▁Wek	-9.62438
▁MALIKÎ	-9.62439
▁(18	-9.6247
KIRIN	-9.62478
tal	-9.62526
▁Mo	-9.62563
▁piranî	-9.62607
▁Şer	-9.62619
▁derbasî	-9.62625
Li	-9.62695
▁Almanyayê	-9.62756
/16	-9.62789
bir	-9.62809
▁bûyerên	-9.62841
▁BIHÊ	-9.6285
▁hebin	-9.62928
▁mebesta	-9.63028
▁Ba	-9.63043
▁1991	-9.63114
▁çand	-9.63138
▁atomî	-9.63139
▁va	-9.63146
min	-9.63155
▁peyva	-9.63171
▁awayê	-9.63318
▁him	-9.63365
▁31	-9.6348
/02	-9.63524
▁PÊŞWAZÎY	-9.63566
lik	-9.63616
/24	-9.63647
ris	-9.63743
▁Gundistan	-9.6375
▁Şamê	-9.63818
▁nûçeyên	-9.64014
/01	-9.64044
▁bang	-9.64053
▁Dîroka	-9.6409
▁tiştekî	-9.64246
▁demeke	-9.64255
▁binavkirin	-9.64304
çî	-9.6439
▁budceya	-9.64507
▁Ve	-9.64548
▁xirab	-9.64565
har	-9.64706
/04	-9.64711
▁ereb	-9.64951
hr	-9.65003
/14	-9.65095
▁derê	-9.65164
▁BIRÎNDAR	-9.65201
kû	-9.65231
▁baştir	-9.65232
/26	-9.65255
▁navçeyê	-9.65284
▁desteya	-9.65291
▁werin	-9.65295
▁v	-9.65321
ist	-9.65322
▁GIRTIN	-9.65352
▁soz	-9.65431
/07	-9.65436
▁damezrandina	-9.6545
▁bersiva	-9.65507
▁Reuters	-9.6551
▁Niştimanîya	-9.65524
▁tîne	-9.65542
met	-9.65608
idae	-9.6569
car	-9.65805
/22	-9.65832
▁hevwelatîyan	-9.65848
▁Ka	-9.65861
▁komarê	-9.65896
▁bên	-9.66033
ley	-9.66115
▁nexweş	-9.66191
ane	-9.66303
▁pirtûk	-9.66347
▁têkildar	-9.66386
▁Robert	-9.66389
YA	-9.66415
▁KERKÛKÊ	-9.66549
▁kesî	-9.66567
berg	-9.6657
▁nûçeyan	-9.66615
yar	-9.66684
/17	-9.66732
/18	-9.66905
▁êvarê	-9.66949
▁alîkariya	-9.66981
/15	-9.67
gî	-9.6702
▁Navend	-9.67086
▁pêşinyar	-9.67123
/09	-9.67211
▁per	-9.67282
/13	-9.67315
▁girtina	-9.67353
xe	-9.6736
/05	-9.67388
yayê	-9.67598
▁dehan	-9.67809
▁Şaristana	-9.6789
▁Giştî	-9.67892
▁am	-9.67906
▁olî	-9.68086
▁f	-9.68144
▁Dîyala	-9.6818
▁demek	-9.68184
top	-9.68187
-19	-9.6828
/08	-9.68293
istan	-9.68365
/23	-9.68394
▁Sûrîya	-9.68446
rin	-9.68481
▁fransî	-9.6858
▁Silêmanî	-9.68711
/06	-9.68722
▁dibistana	-9.68855
▁bîne	-9.6896
▁êrîşî	-9.69182
▁II	-9.69194
/03	-9.69263
ah	-9.69277
▁çekdar	-9.69298
▁red	-9.69374
▁sînor	-9.69469
av	-9.69488
▁dor	-9.69519
bin	-9.69542
▁Dêrsimê	-9.6956
ikan	-9.6958
▁pey	-9.69661
▁nêvbera	-9.69725
▁dewlemend	-9.69727
▁Faunay	-9.69878
ava	-9.69928
/25	-9.69945
pe	-9.69969
▁Berwarî	-9.70037
▁rêjeya	-9.70064
▁demokratîk	-9.70075
text	-9.70109
▁terorîst	-9.70134
▁Felah	-9.70191
▁1992	-9.70281
▁dilê	-9.70361
▁gir	-9.70432
▁serî	-9.70512
tor	-9.70528
▁Ad	-9.70644
▁rêvebirê	-9.7066
▁YÊ	-9.70696
▁Pêjgeh	-9.70809
/27	-9.70863
/28	-9.70905
▁KES	-9.70917
▁rêz	-9.71001
▁amadebûna	-9.71048
▁bûyera	-9.71139
▁Selaheddîn	-9.71139
▁mazin	-9.71157
▁hevpişk	-9.71165
▁ragihandinê	-9.71186
▁digirin	-9.71201
▁Ga	-9.71401
▁Abdullah	-9.71436
▁cell	-9.71459
▁biyanî	-9.71489
▁Seîd	-9.71551
▁girtî	-9.71584
▁Ro	-9.7171
▁germ	-9.71756
so	-9.71791
▁mirovên	-9.71838
ff	-9.71838
▁destpêkirin	-9.72003
▁So	-9.72004
▁demjimar	-9.72057
▁dengên	-9.72119
▁Ge	-9.72153
▁bikevin	-9.72444
▁To	-9.72511
▁dimîne	-9.72548
▁hevpeyvînek	-9.72591
/29	-9.72599
▁neke	-9.72683
▁qada	-9.72735
▁hindek	-9.72773
▁rûniştina	-9.72812
▁Ho	-9.72816
pi	-9.73067
▁kurt	-9.73103
ît	-9.73104
▁Kerkûkî	-9.73117
îd	-9.73154
12	-9.73155
▁Kuştin	-9.73158
yekê	-9.73238
▁zor	-9.73246
sor	-9.7329
▁Hêjayî	-9.73358
▁No	-9.73488
▁Ti	-9.73491
▁Pir	-9.73505
▁dewlet	-9.73518
▁Suriya	-9.73548
▁şerrê	-9.736
san	-9.73615
▁hez	-9.73636
op	-9.73657
▁arêşeyê	-9.7374
▁kombûn	-9.73751
dîn	-9.73817
▁mijarên	-9.73905
▁paytextê	-9.73909
ûl	-9.73919
▁pirsgirêka	-9.73962
sch	-9.74031
▁asayişê	-9.74068
▁rêkevtinê	-9.7407
▁serdema	-9.74087
ius	-9.74094
▁ciwan	-9.74101
kin	-9.74105
▁Agiriyê	-9.74147
ata	-9.74153
▁Sûriya	-9.74183
vê	-9.74227
▁Endamên	-9.74339
▁bir	-9.7439
eta	-9.74442
:#	-9.74447
ica	-9.74531
▁bila	-9.74582
▁***	-9.74734
▁Go	-9.74769
▁Or	-9.74797
▁rêvebirîya	-9.74802
▁Gund	-9.74929
ft	-9.75037
ru	-9.75039
▁DEST	-9.75049
▁xaneyê	-9.75129
▁Nobelê	-9.75165
▁Bad	-9.7535
▁Swêdê	-9.75386
ry	-9.75427
▁Niştimanî	-9.75469
▁xistin	-9.75599
▁Qadir	-9.75605
▁fraksiyona	-9.75789
▁pirtûkên	-9.75803
▁ferman	-9.76001
▁Av	-9.76009
▁DIKE	-9.76094
▁goyên	-9.76231
▁San	-9.76293
▁Xaneqînê	-9.76302
▁Xan	-9.76333
▁Ban	-9.76461
▁Artêşa	-9.76521
▁mirî	-9.76639
▁dengan	-9.76652
▁Ker	-9.76691
▁bixwe	-9.76696
▁Rêvebirê	-9.76707
80	-9.76732
▁#	-9.76733
▁anku	-9.76808
▁zanîngeha	-9.76927
▁sedan	-9.76997
▁şûna	-9.77055
▁gundistana	-9.77088
▁Sch	-9.77184
▁1999	-9.7723
net	-9.77337
Ç	-9.77497
▁şandin	-9.77697
▁Gu	-9.77719
▁ger	-9.77789
▁As	-9.77799
▁Rihayê	-9.77801
▁xwînê	-9.77809
▁Seqizê	-9.77815
▁WEZÎRÊ	-9.77839
▁şermezar	-9.77907
▁adarê	-9.77924
▁rojnamevan	-9.77935
▁kuştina	-9.77942
/21	-9.77957
▁r	-9.77972
Badînan	-9.77996
▁Bexdayê	-9.78022
▁hêdî	-9.78139
26	-9.78223
▁derdora	-9.78295
▁Fa	-9.7831
ban	-9.78354
▁pejirandin	-9.78365
▁berhem	-9.78384
▁bajarokê	-9.78387
les	-9.78394
îr	-9.78559
▁Mirovan	-9.78623
▁tiştên	-9.7868
ck	-9.78713
Ji	-9.78756
▁jiyanê	-9.78796
▁York	-9.78851
rîn	-9.79144
▁Peyamnêr	-9.79171
▁eslê	-9.79201
▁gr	-9.79214
▁Bu	-9.79261
▁têde	-9.79356
zo	-9.79359
▁mirina	-9.79381
alî	-9.79445
ster	-9.79514
▁Dar	-9.79525
▁wergirtina	-9.79573
▁sa	-9.79575
▁ziyan	-9.79614
▁Dêrika	-9.79687
qî	-9.7981
24	-9.79835
▁herêmî	-9.79851
▁von	-9.79882
▁pirranî	-9.7992
ib	-9.80011
mal	-9.80057
▁dîdara	-9.80226
▁Jiyan	-9.80261
rû	-9.80306
▁Efrînê	-9.80353
ung	-9.80381
▁Co	-9.80425
▁Es	-9.80429
▁Gundê	-9.80436
/30	-9.80536
▁pirranîya	-9.80539
▁rojane	-9.80635
▁ewledarîya	-9.8069
▁girtiye	-9.80716
".	-9.80746
▁beşek	-9.8083
▁Med	-9.80932
▁Roman	-9.81005
▁mu	-9.81021
▁kon	-9.8104
▁dawiyê	-9.81147
▁Koreya	-9.8134
▁hersê	-9.81417
▁2002	-9.81443
▁heyî	-9.81506
▁pirsê	-9.81562
vi	-9.81574
▁Mi	-9.81642
sh	-9.81666
▁bêje	-9.81674
▁Kî	-9.81759
▁Bû	-9.81859
▁polîsê	-9.81935
▁St	-9.81964
▁projeyê	-9.81984
▁çap	-9.81996
▁Osmaniyan	-9.82004
yeka	-9.82027
nav	-9.82039
▁2001	-9.82056
▁hest	-9.82074
▁k	-9.82087
▁Divê	-9.8209
▁Gelê	-9.82171
▁dadgehê	-9.82206
▁Erzîromê	-9.82235
▁serjimariy	-9.82375
▁Press	-9.82462
▁jêderekî	-9.82512
▁lêkolînên	-9.82517
▁pêwîste	-9.82565
▁qedexe	-9.82584
▁bibînin	-9.82621
▁deh	-9.82634
▁kombûnekê	-9.82678
▁Pişka	-9.82718
▁Ahmet	-9.82722
▁KOMBÛNEK	-9.82782
20	-9.82795
ho	-9.82801
▁Kerîm	-9.82898
18	-9.82996
▁Zer	-9.83094
▁xwendin	-9.83168
▁serdanê	-9.83229
▁Su	-9.83294
▁gihijt	-9.83297
▁Asyayê	-9.83307
▁Goran	-9.83339
▁alîkarî	-9.83347
▁dengdanê	-9.83514
▁Gi	-9.83515
hem	-9.83545
▁Osmanî	-9.83559
▁dihatin	-9.83615
▁mane	-9.83633
▁şoreşa	-9.83687
ken	-9.83702
▁Mafên	-9.83736
▁BÛ	-9.83776
▁bêne	-9.83836
▁komisiyona	-9.83857
width	-9.83889
▁dabû	-9.83984
▁60	-9.84024
▁1998	-9.84029
qe	-9.84071
15	-9.84085
▁şewitandin	-9.84153
▁ca	-9.84189
▁xurtkirina	-9.84371
▁Rêxistina	-9.84424
▁Axa	-9.84537
heim	-9.84655
▁pêşkêşkirin	-9.84683
▁AKP	-9.84724
.000	-9.84742
po	-9.84864
▁Demokratîk	-9.84867
▁muzîkê	-9.84926
▁fermandarê	-9.84926
▁2006'	-9.8502
▁berjewendîya	-9.85042
▁ha	-9.85058
▁z	-9.85093
▁Cîhanê	-9.85122
sta	-9.85194
▁Husên	-9.85302
tes	-9.85354
▁tundî	-9.85364
▁serbaz	-9.85365
▁Berpirsê	-9.85376
▁misilman	-9.85441
▁cihanîna	-9.85452
▁tîma	-9.85464
▁rêberê	-9.85517
11	-9.85525
▁çendîn	-9.85637
EK	-9.85653
▁welêt	-9.85749
ay	-9.85879
rên	-9.85926
▁Serdeştê	-9.85984
▁perwerde	-9.86007
▁Ri	-9.86012
hat	-9.86019
▁Bajarê	-9.8604
▁Çar	-9.86128
30	-9.86186
▁têk	-9.86237
▁serkevtî	-9.86241
▁çemê	-9.86243
zi	-9.86333
▁vekirina	-9.86391
▁xwendevan	-9.86406
▁nirxê	-9.86419
▁nûçeyek	-9.86421
▁bigire	-9.86425
▁piraniya	-9.86491
▁xelata	-9.86495
▁bingehên	-9.86515
sel	-9.86526
▁deme	-9.86647
▁2014	-9.86658
▁Herêmê	-9.86663
▁hûn	-9.86744
27	-9.86864
▁hel	-9.86874
▁bergirîya	-9.86896
▁Ger	-9.86935
▁hilbijartina	-9.87054
▁bî	-9.87084
▁Ebû	-9.87152
▁tund	-9.87155
▁daxuyanîyekê	-9.87173
ın	-9.87175
ks	-9.87323
▁civakê	-9.87329
▁Fer	-9.87353
▁diçin	-9.87387
▁Dest	-9.87463
▁hevwelatî	-9.87502
▁bakûrê	-9.87576
▁projeyên	-9.87579
▁çalakîyên	-9.87606
▁Am	-9.87712
▁pesnê	-9.87757
▁h	-9.87811
▁rewş	-9.87814
tik	-9.87865
▁xebat	-9.87921
▁bingeh	-9.88008
▁qonaxa	-9.88021
▁guhertin	-9.88112
16	-9.88154
▁07	-9.88161
▁cûda	-9.8817
▁desthilata	-9.88175
▁duyemîn	-9.88196
▁Ziman	-9.88234
▁Ala	-9.88264
▁yaneya	-9.88305
▁Pêdivêy	-9.88311
▁heşt	-9.88341
▁Balyozê	-9.88343
▁mi	-9.88453
▁maf	-9.88527
hê	-9.88539
▁xwarinê	-9.8857
▁pesend	-9.88583
00	-9.88601
▁goyan	-9.88629
xwaz	-9.88667
reş	-9.887
▁agahdar	-9.88724
▁Qu	-9.88735
▁navçeyên	-9.88807
▁xizmeta	-9.88881
▁helbest	-9.88885
▁pel	-9.88966
▁We	-9.88981
▁kongireyeka	-9.89094
▁anko	-9.89097
í	-9.8911
▁1994	-9.89166
▁Har	-9.89195
▁bibîne	-9.89207
lı	-9.89209
ûr	-9.893
▁partiya	-9.894
bûyî	-9.89431
▁Rûsyayê	-9.89468
▁hevalên	-9.89476
“	-9.89578
▁Ak	-9.89649
▁bikaranîna	-9.89666
▁ro	-9.89721
▁temam	-9.89804
ard	-9.89829
▁navokî	-9.89842
▁biryarê	-9.89854
▁endam	-9.89857
▁derbaz	-9.8986
rik	-9.89903
▁Sûrîye	-9.89909
hi	-9.89978
39	-9.90104
▁Rojhilat	-9.90113
▁hîngê	-9.90196
lam	-9.90224
şê	-9.90296
▁êrîşê	-9.90301
▁beşên	-9.90348
lin	-9.90387
▁basa	-9.90494
50	-9.90554
ä	-9.90615
▁200	-9.90634
▁destnîşankirin	-9.90684
name	-9.90758
▁Mehmet	-9.9078
▁1990	-9.90915
▁xwepêşanderan	-9.90922
▁bînin	-9.90959
▁Cejn	-9.91016
▁mezinên	-9.91039
▁mijara	-9.91048
zar	-9.9105
▁Îsraîlê	-9.91074
▁şev	-9.91179
▁nikarin	-9.91199
▁BAJÊRÊ	-9.91213
Q	-9.91218
karî	-9.91277
▁sar	-9.91325
▁şehîd	-9.91395
▁Ê	-9.91399
▁kovara	-9.9143
▁Biden	-9.91456
28	-9.91518
▁Receb	-9.9152
▁w	-9.91528
▁wergirt	-9.91529
▁teqiya	-9.91556
▁VE	-9.91587
▁Rojnameya	-9.916
▁1980	-9.91635
dem	-9.91677
▁tomar	-9.91746
▁†	-9.91749
ی	-9.91855
▁Bajarên	-9.91868
▁06	-9.91912
▁1997	-9.92018
▁Ango	-9.9206
34	-9.92061
EKA	-9.9213
▁Tirkî	-9.92165
iyek	-9.92262
▁Şa	-9.92294
▁Paytext	-9.92308
îş	-9.92314
▁Pêncşemê	-9.92371
▁bandor	-9.92405
▁Dîsa	-9.92549
ation	-9.92623
▁romî	-9.92641
▁parêzgarê	-9.927
ly	-9.92725
▁Samî	-9.92748
35	-9.92768
▁gelemperî	-9.92792
▁Demokrat	-9.92833
▁Zaxoyê	-9.93021
▁Zagros	-9.93141
▁çarçêweyê	-9.93204
▁Gorî	-9.93211
▁Gir	-9.93274
▁çanda	-9.93318
▁nivîsgeha	-9.93461
▁xwestin	-9.93461
zer	-9.93599
▁aştîyê	-9.9377
▁paraztina	-9.93807
uk	-9.93902
▁Hat	-9.93933
nc	-9.93936
▁bizava	-9.93963
▁Hatin	-9.94006
▁2013	-9.9403
ab	-9.94096
▁birayê	-9.94187
▁Ereban	-9.94228
▁EM	-9.9435
▁Wa	-9.94352
▁general	-9.94412
yi	-9.94433
▁pêkanîn	-9.94445
▁Ki	-9.94483
▁pêşketina	-9.94534
▁evaya	-9.94547
▁spî	-9.94584
23	-9.94592
93	-9.94775
="2"	-9.94805
▁mezintirîn	-9.94809
gê	-9.94871
▁arîşeyên	-9.9501
▁tevgera	-9.95011
13	-9.95013
▁parêzgehê	-9.95087
▁NAVBER	-9.95192
▁hûr	-9.95248
و	-9.95289
▁Lîsteya	-9.95315
darî	-9.95385
▁serokatiya	-9.95439
▁ola	-9.95458
▁sî	-9.95473
▁rengê	-9.95539
▁05	-9.95562
▁1995	-9.9558
▁Sî	-9.9558
▁dîrok	-9.95614
▁Hoşyar	-9.95629
▁Komeleya	-9.95681
ğ	-9.95705
bet	-9.9577
jo	-9.95794
ه	-9.95809
▁asayî	-9.9595
▁David	-9.9603
▁Ke	-9.9611
▁nûneran	-9.9617
qu	-9.96181
ÎYA	-9.96183
▁1996	-9.96213
▁qe	-9.96252
▁xwarê	-9.96279
▁mehan	-9.96323
▁nekin	-9.96327
lat	-9.96381
▁nekir	-9.96403
eh	-9.96405
▁Yekgirtî	-9.96435
▁muzîka	-9.96551
▁Bal	-9.96614
▁şandeyê	-9.96632
hu	-9.96719
▁Sêrtê	-9.96723
sk	-9.96789
▁Nûnerê	-9.96814
stan	-9.9684
▁temamî	-9.96935
▁çêkirina	-9.96938
▁Sûriyeyê	-9.96953
01	-9.96984
▁Rojhilatê	-9.96986
32	-9.97027
▁bidest	-9.97188
▁maye	-9.97192
▁nêv	-9.97212
▁rêzdar	-9.97245
fi	-9.97315
Ma	-9.97365
▁amadekirin	-9.9744
▁biçe	-9.97462
▁partîyên	-9.97524
40	-9.97586
zin	-9.97662
od	-9.97699
ensis	-9.97726
▁rizgar	-9.97758
bel	-9.97763
ي	-9.97777
▁karî	-9.97796
▁Sekreterê	-9.97807
▁şeva	-9.97828
▁Omer	-9.97839
▁avêtin	-9.97877
▁70	-9.97935
▁beşê	-9.97937
▁çalak	-9.97942
▁zer	-9.97982
17	-9.98032
▁çarçoveya	-9.98057
▁armanc	-9.98102
▁doza	-9.9814
▁Ca	-9.98148
▁Hacî	-9.98173
▁hevkarîya	-9.98215
▁pêwîst	-9.98319
▁Îraqî	-9.98324
▁Silêman	-9.98385
▁Bajar	-9.98484
▁Bûş	-9.98528
▁Emîn	-9.98691
▁Lu	-9.98742
▁Ebdulmehdî	-9.98878
▁Besra	-9.98924
▁02	-9.99003
line	-9.99046
▁gulanê	-9.99058
▁Yekşemê	-9.99158
▁derman	-9.99162
▁kevin	-9.99257
▁Paşa	-9.99258
▁hevpeyvîna	-9.99282
▁naveroka	-9.99288
▁girê	-9.99305
▁jor	-9.99333
He	-9.9934
EKÎ	-9.99362
▁01	-9.99383
▁dûrî	-9.99386
▁roman	-9.99391
ل	-9.9947
▁pispor	-9.99491
▁Libnanê	-9.99548
sar	-9.9958
▁nu	-9.99608
▁Dewletê	-9.99664
îm	-9.99794
38	-9.99815
▁Hinek	-9.9986
▁Bedirxan	-9.99882
wi	-9.99914
▁nûjen	-9.9992
▁Helbest	-9.9998
îzm	-10.0011
oz	-10.0012
▁vekirî	-10.0018
tîya	-10.0023
▁borî	-10.0032
▁sed	-10.0033
▁Hindistanê	-10.0033
▁dikevin	-10.0038
29	-10.004
ham	-10.0042
▁xwezt	-10.0047
▁nebû	-10.005
▁Kur	-10.0052
▁qeza	-10.0059
▁Pe	-10.0068
▁pêkhatên	-10.0071
▁Qasim	-10.0074
▁Zaxo	-10.0075
▁kûr	-10.0077
▁serhildana	-10.0089
▁qet	-10.0095
▁Ay	-10.0096
est	-10.0097
▁Tehranê	-10.0098
▁bimîne	-10.0103
▁Mor	-10.0105
▁destûr	-10.0112
▁ni	-10.0113
▁berdin	-10.0115
▁jina	-10.0115
ih	-10.0115
▁şîn	-10.0124
▁Hel	-10.0131
med	-10.0133
▁Ali	-10.0135
▁Helebçe	-10.0136
▁Clinton	-10.0139
dûn	-10.0139
▁kin	-10.0143
▁nehê	-10.0145
▁09	-10.0147
▁dihate	-10.0152
▁1993	-10.0152
ahî	-10.0153
▁Îtaliya	-10.0154
▁35	-10.0162
▁çapkirin	-10.0166
▁Botan	-10.0171
eyan	-10.0172
▁KAR	-10.0174
▁Kara	-10.0177
yn	-10.0177
tina	-10.0181
▁nehatine	-10.0183
▁80	-10.0189
tra	-10.0189
▁pîkol	-10.0191
46	-10.0193
▁rojhilat	-10.0193
▁înternetê	-10.0197
▁kesek	-10.0199
▁Fransî	-10.0203
▁mirin	-10.0206
▁postên	-10.0206
▁winda	-10.0211
ر	-10.0211
▁Ç	-10.0218
▁04	-10.0219
▁welatekî	-10.0222
▁kişand	-10.0226
bu	-10.0226
▁alîkarîyê	-10.0229
▁daxwazkirî	-10.0233
▁paşîn	-10.0234
▁pêdivî	-10.0238
▁Dibe	-10.024
▁----	-10.0245
▁ENCÛMEN	-10.0245
60	-10.0245
ie	-10.0248
▁alman	-10.0251
▁Leyla	-10.0259
vanên	-10.0262
▁Wezîra	-10.0262
▁vedîtin	-10.0267
▁BE	-10.0267
▁ker	-10.0268
▁Fe	-10.0275
▁dîdarekê	-10.0279
▁dît	-10.028
hev	-10.0282
▁Frans	-10.0287
▁Kovara	-10.0288
▁pa	-10.0291
▁hatî	-10.0295
▁kontrola	-10.03
qê	-10.0304
▁yewnanî	-10.0313
44	-10.0314
▁giştîya	-10.0322
▁jinên	-10.0329
▁Car	-10.0335
▁bixe	-10.0337
▁BARZANÎ	-10.0352
▁Washington	-10.0352
▁egera	-10.0354
▁BAXDADÊ	-10.0355
▁guh	-10.0358
▁Siyasetmedar	-10.0374
▁Muhsin	-10.0374
▁ar	-10.038
vanê	-10.0387
45	-10.0394
▁laşê	-10.0406
pî	-10.0414
▁navnetewî	-10.0418
▁Ednan	-10.0418
▁Bibîne	-10.0421
km	-10.0426
▁kompanyaya	-10.0436
▁08	-10.0441
74	-10.0441
tû	-10.0456
ron	-10.046
▁Pêş	-10.0464
▁Înîyê	-10.0467
▁perwerdeya	-10.047
85	-10.047
▁parêzgehan	-10.0472
darên	-10.0473
sal	-10.0481
▁fîlm	-10.0482
▁dagir	-10.0489
gal	-10.0491
94	-10.0493
▁laş	-10.0493
▁kontrol	-10.0504
nivîs	-10.0505
ibû	-10.0507
▁rûniştvanan	-10.0508
dir	-10.0509
▁lez	-10.0523
▁Pa	-10.0525
▁stranbêj	-10.0543
ax	-10.0546
▁kal	-10.0562
▁berdan	-10.0576
▁Zana	-10.0579
▁terorîstî	-10.0583
şt	-10.0589
▁no	-10.0591
▁Diyarbekirê	-10.0593
br	-10.0593
▁terorane	-10.0595
▁sibê	-10.0595
▁Mazî	-10.0595
▁standin	-10.06
▁pitir	-10.0601
▁berde	-10.0602
▁Sar	-10.0602
▁aram	-10.0604
▁teqe	-10.0606
▁l	-10.0607
vo	-10.061
▁Ava	-10.0612
▁tîrmehê	-10.0613
▁fermana	-10.0613
ara	-10.0624
tîk	-10.0625
tur	-10.0628
▁dewletan	-10.0629
▁hêj	-10.063
▁erkê	-10.0637
▁pêjgeha	-10.0638
▁biwarên	-10.0638
▁damezirandin	-10.0643
▁Bir	-10.0648
▁karekî	-10.0652
▁alfabeya	-10.0665
▁2017	-10.0667
▁biçin	-10.0668
▁kesê	-10.0674
tên	-10.0677
▁Ebdul	-10.0687
▁Îsa	-10.0689
▁bav	-10.0703
▁çawanîya	-10.0706
▁axaftina	-10.0713
▁ewî	-10.0716
kom	-10.0725
▁destûrî	-10.0726
▁pêşxistina	-10.0736
ts	-10.0747
ling	-10.0756
▁or	-10.0768
▁kanûna	-10.0772
▁kabîneya	-10.0772
▁Doh	-10.0777
ret	-10.0786
ram	-10.0792
▁aliyên	-10.0797
erê	-10.0806
▁Kuweytê	-10.0814
▁1988	-10.0815
sin	-10.0815
▁Dîyarbekirê	-10.0816
▁girêdan	-10.0826
cer	-10.0837
▁Xebat	-10.0842
▁Helbestvan	-10.0844
▁Îslamê	-10.0844
res	-10.0851
▁lo	-10.0852
Ba	-10.0858
▁encûmenên	-10.0861
fir	-10.0862
▁HEV	-10.0863
hil	-10.0864
▁bihêt	-10.0868
▁Çemê	-10.0874
ix	-10.0876
▁DYAyê	-10.0876
▁bawerî	-10.0879
▁NÛ	-10.0888
ûs	-10.0889
oyê	-10.0896
▁x	-10.0898
ii	-10.0898
çik	-10.09
▁Aştî	-10.0901
iq	-10.0902
14	-10.0903
▁Şingalê	-10.0908
▁hunerî	-10.0911
▁rengî	-10.0914
▁ex	-10.0917
▁hejmar	-10.0922
dû	-10.0925
▁Hu	-10.0928
76	-10.0929
▁tevahiya	-10.0932
şîn	-10.094
ن	-10.0942
▁Bavê	-10.0943
nin	-10.0944
97	-10.0946
▁Sêşemê	-10.0947
▁serokwezîrê	-10.0959
▁boy	-10.0969
▁Kon	-10.0972
olojî	-10.0979
48	-10.0984
xê	-10.099
ich	-10.0993
▁bixin	-10.0998
▁Vi	-10.0999
bîn	-10.0999
▁firrokeyên	-10.1002
▁Reşîd	-10.1005
▁kovar	-10.1007
▁dihêt	-10.1009
▁DU	-10.101
su	-10.1011
▁anîna	-10.1019
ion	-10.1021
▁Împeratoriy	-10.1026
▁şevê	-10.103
▁Ye	-10.103
▁xwepêşandanên	-10.1037
ach	-10.1038
▁daxwazkirin	-10.1038
▁birin	-10.1042
▁çekdaran	-10.1043
▁tirkan	-10.1045
53	-10.1045
▁BIKIN	-10.1046
yon	-10.1047
▁balyozxaneya	-10.1047
ss	-10.1047
▁famîleya	-10.105
▁bûna	-10.1053
▁Dara	-10.1054
▁helbestvan	-10.1055
75	-10.1064
▁xwendekar	-10.1068
▁mixabin	-10.1069
▁dîyarkirin	-10.1073
▁Hem	-10.1073
ub	-10.1078
86	-10.1079
65	-10.1085
▁cihekî	-10.1089
▁nahê	-10.109
▁Rojavayê	-10.1093
▁hukûmet	-10.1095
▁pîkolan	-10.1098
▁for	-10.1098
ket	-10.1102
▁fireh	-10.1102
▁ME	-10.1105
▁xerab	-10.1112
▁sûd	-10.1113
▁civata	-10.1115
63	-10.1119
▁Parîsê	-10.1125
▁Civak	-10.1132
▁civînê	-10.1137
▁plana	-10.115
▁parçe	-10.1157
▁Hev	-10.1158
22	-10.1161
▁Ciwan	-10.1164
▁çîrok	-10.1168
▁nînin	-10.117
▁Mijarê	-10.1174
▁hunermend	-10.1174
▁şand	-10.1174
▁Baş	-10.1174
▁Barac	-10.1182
▁bingehê	-10.1184
▁Fîlm	-10.1184
▁neh	-10.1189
gh	-10.1194
▁zî	-10.1197
▁03	-10.1198
▁jiyan	-10.1208
dike	-10.121
darê	-10.1211
▁Par	-10.1224
▁ÇÊ	-10.1226
▁Çi	-10.1229
▁eşîra	-10.123
mil	-10.1234
▁rewa	-10.1238
▁Mûsa	-10.1238
▁aborîya	-10.124
▁Va	-10.1245
▁Nî	-10.1249
▁Rêberê	-10.1251
▁çûye	-10.1251
▁karûbarê	-10.1255
م	-10.1259
▁şi	-10.127
▁piştgirîya	-10.1271
▁Çarşemê	-10.1272
rus	-10.1277
▁wezîra	-10.1284
55	-10.1291
▁pe	-10.1292
pan	-10.1293
▁parastinê	-10.1295
êr	-10.1297
▁Kal	-10.13
▁DAN	-10.1302
▁xalên	-10.1302
guh	-10.1305
▁Xanim	-10.1311
istanê	-10.1322
▁desthilatdarîya	-10.1323
▁hikûmet	-10.1323
▁Po	-10.1327
▁Qo	-10.133
▁Îraq	-10.133
▁dolar	-10.1331
▁jêderê	-10.1332
▁bala	-10.1337
▁heb	-10.1338
▁rakirin	-10.1344
▁herêm	-10.1346
▁1979	-10.1347
del	-10.1351
▁demjimêr	-10.1357
▁pirtir	-10.1358
color	-10.136
çê	-10.1364
▁gava	-10.1372
▁[18:0	-10.1376
▁Welatê	-10.1378
▁Dan	-10.1379
▁Şam	-10.138
▁Şi	-10.139
▁tim	-10.139
▁projeya	-10.1393
▁Mon	-10.1402
37	-10.1407
▁xebatê	-10.1409
▁fêr	-10.141
▁doz	-10.141
hl	-10.1414
▁şadbûna	-10.1427
54	-10.1427
▁karmendên	-10.1429
▁weşana	-10.1431
burg	-10.1431
▁Mal	-10.144
▁pêşîya	-10.1443
▁nekiriye	-10.1444
▁PARLIYAMENTA	-10.1448
▁Bas	-10.1453
▁çimk	-10.1453
▁bona	-10.1454
▁wêjeya	-10.1457
yl	-10.1461
▁dixe	-10.1461
atî	-10.1461
▁lêkolînan	-10.1462
▁mê	-10.1469
▁gef	-10.1472
▁rêyên	-10.1476
ena	-10.1482
▁t	-10.1486
▁komîteyek	-10.149
xane	-10.149
▁Girêdan	-10.149
▁bira	-10.1491
▁Pirtûkên	-10.1498
▁pîrozkirin	-10.1502
▁Hi	-10.1506
====	-10.1511
▁beş	-10.1512
şan	-10.1515
▁2016	-10.1518
95	-10.1519
▁Demokrata	-10.152
21	-10.1533
▁xwê	-10.1536
▁wi	-10.1537
▁Cîhanî	-10.1539
▁i	-10.1542
▁Tan	-10.1545
▁Komîteya	-10.1545
▁ragihandibû	-10.1549
",	-10.1549
▁Cebar	-10.1552
▁sêyem	-10.156
▁rojnamevanan	-10.1567
▁birêve	-10.1567
▁sînorên	-10.1567
▁aloz	-10.157
▁rûpel	-10.1571
▁amerîkî	-10.1572
▁Ax	-10.1573
▁vi	-10.1582
karê	-10.1606
▁Eger	-10.1607
▁HÊZÊ	-10.1608
way	-10.1612
▁Hêjayê	-10.1621
67	-10.1622
▁gotarek	-10.1625
▁erkên	-10.1625
▁kongireyê	-10.163
dest	-10.1633
▁têkiliyên	-10.1633
▁ol	-10.1634
▁Qere	-10.1634
▁Gava	-10.1635
▁Bilind	-10.1639
▁Muhemed	-10.1643
▁desthilatê	-10.1649
mel	-10.1654
lek	-10.1654
▁helbestên	-10.1659
▁milliyon	-10.1668
▁saliya	-10.1678
▁Pê	-10.1686
ow	-10.169
▁Ocalan	-10.1692
▁teqînê	-10.17
▁Brîtanya	-10.17
▁aliyan	-10.1701
▁Bîr	-10.171
▁geş	-10.1715
dr	-10.1716
▁nebin	-10.1716
▁[18:2	-10.1717
▁HEWLÊRÊ	-10.1718
▁Îslam	-10.172
pirtûk	-10.1725
xa	-10.173
▁meh	-10.1732
ا	-10.1733
▁Hemû	-10.1742
▁vekişîna	-10.1742
▁Biryar	-10.1743
▁jîyanê	-10.1747
▁hefteya	-10.1751
▁rêberên	-10.1752
▁demokrasîyê	-10.1752
▁baweriya	-10.1753
▁dosyaya	-10.1754
ven	-10.176
▁Nu	-10.176
▁Dadgeha	-10.1761
▁zarokê	-10.1766
▁serbixweya	-10.1767
ste	-10.1767
az	-10.1768
▁careke	-10.1773
▁rojname	-10.1777
riya	-10.1779
▁xwîn	-10.1781
mon	-10.1782
▁peywendî	-10.1788
▁solid	-10.1792
▁Josef	-10.1792
tel	-10.1795
▁îslamê	-10.18
90	-10.18
▁girtine	-10.1802
47	-10.1803
▁karbidestê	-10.1803
▁kete	-10.1804
mend	-10.1814
▁xwend	-10.1822
rd	-10.1829
îzmê	-10.1835
▁Stenbol	-10.1836
▁wergirtin	-10.184
▁Cîgirê	-10.1842
ens	-10.1845
▁eşîrên	-10.1846
▁ci	-10.1846
▁Bismilê	-10.1848
▁Newrozê	-10.185
tt	-10.1851
▁şa	-10.1852
▁pîr	-10.1853
▁muhr	-10.1854
▁pêşwazî	-10.1863
▁Baybûrdê	-10.1864
▁Rewşa	-10.1866
▁[17:2	-10.1867
▁[18:1	-10.1867
▁ga	-10.187
▁cezayê	-10.1877
▁Til	-10.1882
▁wer	-10.1883
▁mirinê	-10.1884
▁mîr	-10.1888
xistin	-10.1889
ikên	-10.189
▁derveyên	-10.1898
▁Bexda	-10.1908
dor	-10.191
▁spasîy	-10.191
jin	-10.1916
36	-10.1928
▁dij	-10.1933
▁serxwebûna	-10.1934
dy	-10.1941
▁xwepêşandan	-10.1941
ewe	-10.1942
▁çekdarî	-10.1942
▁dixebite	-10.1945
▁anîne	-10.1956
▁lêgerînê	-10.1957
▁Asya	-10.1958
▁pesendkirin	-10.1962
▁Vê	-10.197
77	-10.197
▁tînin	-10.1972
▁Berê	-10.1975
▁bûbû	-10.1979
▁bazirganîya	-10.1984
set	-10.1988
▁lîstên	-10.199
ekanî	-10.199
▁berdest	-10.1997
▁hizir	-10.1998
▁hema	-10.1999
par	-10.2002
▁nik	-10.2003
31	-10.2016
▁\	-10.2016
▁BBC	-10.202
▁fermangeha	-10.2021
▁piranîya	-10.2031
▁kirî	-10.2032
▁nê	-10.2035
▁so	-10.2041
gîr	-10.2055
sîn	-10.2059
á	-10.2062
RA	-10.2066
▁August	-10.2069
▁dizanin	-10.2071
▁bergirîyê	-10.2076
▁nivîsîn	-10.2079
lt	-10.208
▁dewam	-10.208
▁bêjedarê	-10.2084
▁ermenî	-10.2087
▁bajarekî	-10.2089
▁nebûye	-10.2094
▁3-	-10.2104
▁Kanî	-10.2104
▁armancên	-10.2107
aw	-10.2111
▁Rê	-10.2115
▁netewî	-10.2117
▁Bel	-10.2121
▁balkêş	-10.2123
vîn	-10.2123
▁hevdîtinê	-10.213
▁darayî	-10.2134
bat	-10.2138
84	-10.2139
▁gul	-10.2142
▁civîna	-10.2142
59	-10.2144
▁biparêzin	-10.2148
tek	-10.2151
66	-10.2154
▁kurdistan	-10.2162
▁Cihê	-10.2169
▁Jêr	-10.217
▁[17:3	-10.2174
▁2018	-10.2181
▁reng	-10.2182
▁Pîr	-10.2184
▁serbest	-10.2193
70	-10.2194
▁2.	-10.2194
înî	-10.2197
▁rêkevtinek	-10.2199
▁Han	-10.2199
▁Ur	-10.2203
kurd	-10.2204
▁bazirganîyê	-10.2206
▁komên	-10.2206
▁komek	-10.2217
▁Is	-10.2221
inî	-10.2224
▁pêzanînên	-10.2226
▁balafir	-10.2233
▁çalakiyên	-10.2243
▁topbaran	-10.2243
▁riwekan	-10.2245
▁Gulan	-10.2246
▁Îbn	-10.2247
▁desthilatdar	-10.2248
▁[17:4	-10.2252
▁fî	-10.2263
▁hişk	-10.2265
▁şah	-10.2266
▁kombûnan	-10.2266
▁biryarên	-10.2267
57	-10.2269
▁kor	-10.227
33	-10.2275
▁nema	-10.2277
▁mayinkirî	-10.2278
▁Yawer	-10.228
▁500	-10.2282
bêj	-10.2285
▁ewlekarîyê	-10.2286
▁Îtalya	-10.2291
▁reporta	-10.2291
▁perwerdeyê	-10.2292
▁diyarkirin	-10.2293
▁hilbijartinê	-10.2298
▁rêxistinê	-10.23
▁Azerbaycanê	-10.23
▁keç	-10.2303
▁Enstîtuy	-10.2304
▁giranî	-10.2304
▁Colemêrgê	-10.2306
▁mijarê	-10.2308
▁Berhemên	-10.2309
▁herdû	-10.2318
Girêdanên	-10.2319
▁komê	-10.2319
zir	-10.2324
▁Hecî	-10.2351
ys	-10.2352
şar	-10.2356
▁ders	-10.2356
▁Heger	-10.236
▁aramî	-10.2361
▁May	-10.2364
▁bajarî	-10.2373
▁dibê	-10.2376
baz	-10.2378
▁[19:0	-10.2383
▁Îsmaîl	-10.2384
▁Cemal	-10.2386
▁bîra	-10.2387
▁Mir	-10.2388
▁Afrîkayê	-10.2397
▁Erdnîgarî	-10.2399
awî	-10.24
▁300	-10.2403
▁Mem	-10.2405
▁çavan	-10.2408
▁2015	-10.2408
▁mar	-10.2409
·	-10.241
▁TALEBANÎ	-10.241
▁[17:0	-10.241
▁binivîse	-10.241
▁Aborî	-10.2412
▁artêşê	-10.2415
eş	-10.2418
87	-10.2419
ren	-10.2422
▁amûr	-10.2424
▁Dil	-10.2428
▁farisî	-10.2429
▁ru	-10.243
▁kirdara	-10.2431
bil	-10.2435
og	-10.2436
▁naverasta	-10.2437
▁meriv	-10.2439
▁hêvîdar	-10.244
▁qanûn	-10.244
yen	-10.244
andî	-10.2441
▁Misir	-10.2443
ST	-10.2446
▁Ze	-10.2446
▁proje	-10.245
▁gotibû	-10.2458
▁çêbû	-10.246
height	-10.2467
▁zayînê	-10.2469
▁nivîsên	-10.2474
▁Abd	-10.2478
▁Cizîrê	-10.2486
▁pêşiya	-10.2487
▁[18:5	-10.249
Be	-10.2492
▁Serê	-10.2493
▁Parêzgeha	-10.2495
▁”	-10.2496
ella	-10.2497
Izz	-10.2498
▁fa	-10.2499
▁derxist	-10.2501
▁terorê	-10.251
▁rêxistin	-10.2514
let	-10.2514
▁Neynewa	-10.2517
▁azadî	-10.2521
▁Lîbya	-10.2521
▁Duşemê	-10.2526
▁bomb	-10.2531
▁Ru	-10.2533
98	-10.2535
▁navxweyîya	-10.2536
▁Mam	-10.254
kên	-10.2541
▁1989	-10.2541
▁KURDISTANÎ	-10.2549
▁Kan	-10.2556
▁pêxember	-10.2556
▁Herdu	-10.2557
tîn	-10.2561
▁bawerîyê	-10.2561
▁ketin	-10.2562
▁Za	-10.2564
69	-10.2566
▁Evê	-10.2569
▁daxuyannameyê	-10.257
▁Demîrtaş	-10.257
▁Tenê	-10.2573
▁bîranîna	-10.2581
▁Farqînê	-10.2584
▁Licê	-10.2593
▁derketin	-10.2593
▁afirandin	-10.2597
▁Şingal	-10.2597
▁+	-10.2599
▁Serhildana	-10.26
▁Cemîl	-10.26
▁Xi	-10.2601
▁fir	-10.2609
▁rewşê	-10.261
▁Sil	-10.2614
ranî	-10.2618
▁bicih	-10.2618
▁[16:5	-10.2625
â	-10.2627
▁alîkar	-10.2628
▁90	-10.2634
▁gazê	-10.2642
▁Bala	-10.2646
▁aştî	-10.2648
▁1970	-10.2648
▁sizayê	-10.2648
▁malbatê	-10.2649
▁hevpar	-10.265
▁astê	-10.2651
88	-10.2652
YÎ	-10.2652
▁mil	-10.2659
▁partî	-10.2659
ب	-10.2662
▁almanî	-10.2666
▁Sel	-10.2668
▁neçar	-10.2676
▁General	-10.2681
jen	-10.2682
che	-10.2684
▁şêweyekî	-10.2687
▁zankoya	-10.269
▁guherandin	-10.269
▁Niştîmanî	-10.2691
▁bêhtir	-10.2692
▁salveger	-10.2698
▁Qa	-10.2704
YÊ	-10.2704
tic	-10.2705
▁[18:3	-10.2706
▁sistema	-10.2709
▁Federal	-10.271
▁Men	-10.271
ras	-10.2714
ekan	-10.2719
hel	-10.2719
▁berpirs	-10.2722
Genus	-10.2723
▁birayên	-10.2723
▁Dêr	-10.2726
io	-10.2726
Me	-10.2726
▁Malbata	-10.2729
▁çiqas	-10.2729
▁Tr	-10.2731
▁Xweda	-10.2731
iv	-10.2739
rk	-10.2739
don	-10.2744
fet	-10.2746
▁key	-10.2748
▁malên	-10.2753
49	-10.2754
99	-10.2759
▁şerî	-10.2762
xaneya	-10.2765
ig	-10.2772
▁xelk	-10.2774
ang	-10.2778
▁berdewamî	-10.2779
▁Ey	-10.2781
ers	-10.2784
▁Sebah	-10.2787
▁derdikevin	-10.2792
▁kanala	-10.2798
▁weşanê	-10.2803
▁asteng	-10.2804
▁pirsgirêkên	-10.2806
83	-10.281
keft	-10.2814
▁Bilinda	-10.2815
▁Aram	-10.2816
tus	-10.282
bor	-10.2823
▁pêvajoya	-10.2824
wend	-10.2825
edîn	-10.2825
danê	-10.2826
▁kevir	-10.2833
▁on	-10.2835
▁1987	-10.284
▁otombîlek	-10.284
▁bîn	-10.2842
îz	-10.2843
▁arêşe	-10.2845
▁Ahmed	-10.2845
▁lewra	-10.2856
▁Hate	-10.2858
▁ho	-10.2862
▁babet	-10.2865
▁mezintir	-10.2868
▁xelat	-10.2871
▁naxwazin	-10.2872
rek	-10.2873
pêş	-10.2877
aş	-10.2881
▁Hil	-10.2881
▁Enqereyê	-10.2881
bgcolor	-10.2886
▁İ	-10.2888
▁yî	-10.289
▁Sewa	-10.2891
▁Pîroz	-10.2897
▁hevkarî	-10.2903
▁Dad	-10.2907
▁binav	-10.2911
▁nêzîka	-10.2913
ā	-10.2914
▁nehat	-10.2922
▁parlamenter	-10.2923
▁kiribûn	-10.2928
▁kujtina	-10.2933
▁În	-10.2943
▁rûnê	-10.2944
▁nîşandanê	-10.2951
navê	-10.2951
▁ter	-10.2955
▁klasîk	-10.2956
DU	-10.2956
kel	-10.2956
▁dijwarî	-10.2965
îs	-10.2968
▁adara	-10.2973
82	-10.2983
jîn	-10.2984
▁[19:2	-10.2984
▁Con	-10.2999
eb	-10.3
▁Spî	-10.3001
▁Şe	-10.3004
cu	-10.3005
parêzgeh	-10.3005
▁1982	-10.3008
iaceae	-10.3008
▁carê	-10.301
▁Dû	-10.301
ph	-10.301
▁Hewramî	-10.3012
▁[17:1	-10.3012
▁[17:5	-10.3012
▁[18:4	-10.3012
lav	-10.3012
▁xwar	-10.3013
▁berçav	-10.3014
pir	-10.3015
▁gundan	-10.3017
▁bihêz	-10.3018
56	-10.3021
▁lîsteya	-10.3022
▁Nivîskarê	-10.3023
42	-10.3023
▁dezgeha	-10.3029
hir	-10.3034
JPG	-10.304
▁anîye	-10.3041
▁Romê	-10.3042
ac	-10.3042
▁Pirtûka	-10.3042
/31	-10.3047
▁rewşenbîrî	-10.305
▁radestî	-10.3051
kanî	-10.3052
64	-10.3055
▁fîzîkê	-10.3059
▁ketiye	-10.306
▁co	-10.3069
▁tevahî	-10.307
▁Bizavkar	-10.3073
▁veguhastin	-10.3075
▁Serokatîy	-10.3075
▁paşî	-10.3077
▁Stembolê	-10.3083
mir	-10.3085
▁kursî	-10.3087
gehên	-10.3088
rs	-10.309
68	-10.309
▁parastin	-10.3094
▁xweztin	-10.3095
▁Rojnamevan	-10.3098
▁Tahir	-10.3099
▁Deşta	-10.3099
▁gomanbar	-10.31
62	-10.31
▁„	-10.3102
▁Tevger	-10.3102
▁و	-10.311
▁naw	-10.3112
73	-10.3116
▁Jibo	-10.3118
▁yekser	-10.312
Her	-10.3123
▁çaverêkirin	-10.3131
▁des	-10.3131
▁êş	-10.3133
bach	-10.3136
▁Komarî	-10.314
Ber	-10.3144
▁Dî	-10.3148
▁ey	-10.3148
ium	-10.3153
manî	-10.316
▁qala	-10.3179
▁Dewlet	-10.318
▁1960	-10.3181
):	-10.3181
▁Dikin	-10.3182
▁Qezafî	-10.3183
▁bimînin	-10.3183
▁Zêwye	-10.3184
▁kel	-10.3189
▁Turkiyeyî	-10.319
ÎN	-10.3196
cê	-10.3197
▁Gelhe	-10.3202
▁qa	-10.3207
▁Van	-10.3211
▁Celewla	-10.3211
▁Nuceyfî	-10.3211
nameya	-10.3215
▁Êdî	-10.322
ex	-10.3229
lem	-10.3236
ox	-10.324
▁radigihîne	-10.324
ben	-10.3243
▁Herêm	-10.3246
▁plan	-10.326
▁niştimanîya	-10.3261
▁1978	-10.3264
▁wergerandin	-10.3268
،	-10.3269
▁kirdarek	-10.3269
▁Jo	-10.327
▁Xelatgirê	-10.3281
▁malbat	-10.3283
jê	-10.3285
tro	-10.3291
▁xal	-10.3304
▁tawanbar	-10.3305
▁liser	-10.3307
▁kê	-10.331
waz	-10.3314
çi	-10.3317
ire	-10.3317
▁Gol	-10.3324
▁kan	-10.3328
▁Gentiana	-10.3331
▁Afganî	-10.3332
▁1975	-10.3349
ە	-10.3353
ef	-10.3355
▁vala	-10.3358
▁Nêzîk	-10.3361
▁rûn	-10.3368
▁Heya	-10.3368
▁Kirin	-10.3371
xist	-10.3375
▁Heyder	-10.3381
rêjîya	-10.3383
▁Navneteweyî	-10.3386
+	-10.3386
hin	-10.339
Re	-10.3392
▁bidawî	-10.3393
▁careka	-10.3394
▁rêveberiya	-10.3397
43	-10.3399
▁Ol	-10.34
▁Swêd	-10.3401
Kesên	-10.3403
▁çîrokên	-10.3405
girtin	-10.3406
▁dîn	-10.341
▁bajêrî	-10.3416
▁teqîn	-10.3417
ty	-10.3419
deya	-10.3421
▁nasandin	-10.3421
▁girift	-10.3421
▁fe	-10.3423
▁seretayî	-10.3425
▁dibû	-10.3426
▁kevt	-10.3427
▁malbatek	-10.3432
72	-10.3432
▁DAXWAZ	-10.3435
▁Gur	-10.3437
▁wezîr	-10.3438
▁awayekê	-10.3438
▁êriş	-10.344
gor	-10.3444
▁Dekak	-10.3444
▁HEVPEYMANÎYA	-10.3444
▁Şeqlaweyê	-10.3447
bîr	-10.3448
▁hêja	-10.3454
=2	-10.3459
▁çiriy	-10.3464
▁Îsraîl	-10.3464
▁Îtîlafa	-10.3474
96	-10.3478
▁xwekuj	-10.3482
var	-10.3484
е	-10.3485
▁My	-10.3485
▁cor	-10.3486
kol	-10.3491
▁Brîtanyayê	-10.3493
▁Weke	-10.3496
sp	-10.3497
▁Rûsî	-10.3501
▁[16:4	-10.3503
▁[19:1	-10.3503
▁Recep	-10.3503
▁ki	-10.3505
▁axaftin	-10.3508
kes	-10.3511
ps	-10.3512
▁hewil	-10.3512
▁Çek	-10.3514
▁Mes	-10.3515
vanî	-10.3519
dil	-10.3519
▁piçûk	-10.3522
etê	-10.3525
▁Fo	-10.3525
▁Dem	-10.3528
▁Helebê	-10.3532
▁Baydemîr	-10.3533
▁çekan	-10.3535
0%;	-10.3539
▁kerta	-10.3539
▁bûyer	-10.3543
▁çûne	-10.3544
îtî	-10.3549
ment	-10.355
▁1946	-10.3555
▁rawestandin	-10.3559
58	-10.356
eng	-10.3562
▁[16:2	-10.3563
▁bikaribin	-10.3563
▁nîvrojê	-10.3563
▁îsal	-10.3566
BW	-10.3566
▁Çand	-10.3569
▁Corc	-10.357
▁aştîyane	-10.3571
bey	-10.3574
▁şîrove	-10.3575
îf	-10.3577
olog	-10.3578
▁1984	-10.3585
▁Sen	-10.3587
▁tîp	-10.359
▁mana	-10.359
fê	-10.3591
▁operasyonê	-10.3593
▁hêrîş	-10.3593
и	-10.3595
▁êvarî	-10.36
und	-10.3601
▁Urdunê	-10.3601
▁fîlmê	-10.3603
▁George	-10.3609
ou	-10.3611
▁Azadî	-10.3611
▁pere	-10.3614
▁xort	-10.3619
▁barê	-10.3621
▁bas	-10.3621
▁Tor	-10.3629
▁Tebax	-10.3635
▁kêmtir	-10.3636
▁Meh	-10.3641
awa	-10.3642
41	-10.3647
▁War	-10.3648
▁Heyderî	-10.366
▁DIN	-10.366
▁Jiyana	-10.3666
▁leşkeran	-10.3667
roj	-10.3668
kil	-10.3674
êl	-10.3681
▁Debbax	-10.3683
▁keça	-10.3686
▁navî	-10.3688
rat	-10.3689
ien	-10.369
▁çavên	-10.3692
▁Karkerên	-10.3692
▁rewşenbîr	-10.3697
▁mirovî	-10.3703
cht	-10.3705
▁NÛRÎ	-10.3713
▁Gor	-10.3714
▁lidarxistin	-10.3715
")	-10.3715
El	-10.3717
▁...	-10.3718
▁Yekem	-10.3719
▁Ab	-10.3721
of	-10.3728
▁nade	-10.3728
▁berjewendîyê	-10.3729
▁Duhok	-10.3735
IYA	-10.3737
▁tiştê	-10.3742
pen	-10.3745
nû	-10.3746
▁gotûbêj	-10.3753
qil	-10.3756
yûm	-10.3758
The	-10.3765
▁muhrkirin	-10.3769
HE	-10.3769
▁nasnameya	-10.3771
▁hukûmeteka	-10.378
▁yekîtîya	-10.378
89	-10.3781
▁kişandin	-10.3782
pel	-10.3785
▁cil	-10.3786
▁felsefe	-10.3786
xî	-10.3787
▁London	-10.3789
Û	-10.3794
▁şêx	-10.3794
▁Xelat	-10.38
▁huner	-10.3802
dal	-10.3805
▁Tele	-10.3806
▁Sîrwan	-10.3807
up	-10.3814
▁rêk	-10.3817
а	-10.382
▁1986	-10.3827
▁benda	-10.3832
▁peyvên	-10.3832
▁Elhekîm	-10.3835
▁[16:3	-10.3835
▁agahiyên	-10.3835
92	-10.3838
▁150	-10.384
▁wêne	-10.3842
▁sipî	-10.3843
rt	-10.3852
▁Şoreşa	-10.3854
▁şîr	-10.3856
▁Bî	-10.3858
karên	-10.3862
61	-10.3866
▁wergirtiye	-10.387
▁pêl	-10.3878
amp	-10.3878
▁bûbûn	-10.388
▁nameyek	-10.388
size	-10.3886
yanî	-10.3888
▁text	-10.3888
▁nerazîbûna	-10.389
▁rêvebirin	-10.3893
▁45	-10.3893
71	-10.3896
▁pêşniyar	-10.3897
▁petrol	-10.3897
▁et	-10.3901
▁carek	-10.3901
▁News	-10.391
▁kandîdê	-10.3912
▁bernameyên	-10.3914
▁eve	-10.3919
▁hindê	-10.393
▁1.	-10.3938
rew	-10.3939
▁diristkirina	-10.3939
îng	-10.3939
▁nirx	-10.3939
▁Xel	-10.394
▁bermîl	-10.3946
▁destwerdanê	-10.3947
▁nexweşiyê	-10.3949
▁Dibistana	-10.3949
▁Kel	-10.3954
sim	-10.3958
د	-10.3958
zen	-10.3958
▁Xwarin	-10.3964
▁Ver	-10.3965
▁Fi	-10.3968
Bûyerê	-10.3977
▁Paşê	-10.3977
▁pevçûn	-10.3979
▁birîn	-10.3984
tîyê	-10.3987
ere	-10.3988
َ	-10.3989
▁werger	-10.3991
▁Ezîz	-10.3991
▁piştgiriya	-10.3993
▁serkeftî	-10.3993
▁sedemên	-10.3993
ێ	-10.3995
▁hefteyê	-10.4004
▁Dihê	-10.4009
ır	-10.4014
▁Serokwezîr	-10.4016
manê	-10.4021
▁Jan	-10.4023
▁Dîlokê	-10.4025
▁Dîn	-10.4032
▁bawerîya	-10.4032
▁beriya	-10.4034
▁koçber	-10.4035
▁daxuyannameyek	-10.4036
▁nûçeyê	-10.4045
ap	-10.4049
▁[19:4	-10.4051
▁serkevtinê	-10.4053
▁DAXWAZA	-10.4057
BY	-10.4059
▁diyalogê	-10.406
▁paşxistin	-10.4068
nes	-10.4072
era	-10.4076
▁1981	-10.4079
kiriye	-10.4081
▁SEROKATÎYA	-10.4083
▁kêmanî	-10.4085
▁telefonê	-10.4085
şik	-10.4086
▁hevdû	-10.409
▁heyvê	-10.4093
▁ge	-10.4094
ux	-10.4097
Galerî	-10.41
▁romanê	-10.41
▁Lîbyayê	-10.4102
sil	-10.4103
▁hew	-10.4103
▁Pişt	-10.4106
▁arîşe	-10.4109
▁LEŞKER	-10.4111
▁rewşek	-10.4115
▁Mehdî	-10.4117
til	-10.4128
▁Xal	-10.4129
▁wateyê	-10.413
ingen	-10.4133
▁Aş	-10.4143
▁1983	-10.4143
▁gu	-10.4145
▁LÎSTA	-10.4146
▁Selîm	-10.4148
mên	-10.4149
▁Ja	-10.4153
▁peymana	-10.4156
dayî	-10.4157
sûm	-10.4158
▁Emerîka	-10.4161
▁Londonê	-10.4164
▁mêvan	-10.417
Em	-10.4171
▁Key	-10.4173
▁top	-10.4174
▁Samerrayî	-10.4177
▁James	-10.4178
ian	-10.418
▁Gerek	-10.4184
▁Nisêbînê	-10.4184
gehê	-10.4186
▁Hî	-10.4186
bra	-10.4187
▁çûna	-10.4189
▁dubare	-10.419
▁siyasetmedar	-10.419
eyek	-10.4191
▁1-	-10.4199
▁Ter	-10.4201
ros	-10.4205
yr	-10.4208
▁cîhana	-10.4209
▁Mubarek	-10.4209
len	-10.4211
▁nakokî	-10.4215
51	-10.422
▁nîn	-10.4227
52	-10.423
▁agahî	-10.423
mas	-10.4237
▁33	-10.424
▁nemîne	-10.4248
mana	-10.4248
ip	-10.4252
VAN	-10.426
sîr	-10.426
▁tiştek	-10.4262
Ev	-10.4262
▁tû	-10.4269
▁encûmenê	-10.427
▁Maşallah	-10.4273
▁[19:5	-10.4273
las	-10.4279
▁hêşta	-10.4285
78	-10.4287
▁Un	-10.4287
▁heyva	-10.4289
▁gulana	-10.4289
ier	-10.4292
▁biryare	-10.4296
▁zelal	-10.4301
▁sale	-10.4304
spacing	-10.4305
▁şaş	-10.431
enberg	-10.4312
▁çavdêrîya	-10.4312
af	-10.4328
▁çiya	-10.4331
ûd	-10.4332
▁Firat	-10.4333
▁Albûm	-10.4341
lîn	-10.4343
▁zanîngehê	-10.4344
ale	-10.4345
ney	-10.4353
▁piştrast	-10.4356
sed	-10.4357
▁goştê	-10.4363
▁Rû	-10.4363
▁Sp	-10.4364
▁hevalbend	-10.4364
▁mor	-10.4367
nasî	-10.4368
gon	-10.4368
▁tarî	-10.4369
▁Mustafa	-10.4369
▁34	-10.4373
▁riswa	-10.4374
▁nî	-10.4375
▁şert	-10.4381
▁dana	-10.4387
▁esmanî	-10.4392
▁Lî	-10.4394
▁rêzê	-10.4398
▁peyv	-10.4399
▁Sir	-10.4399
▁[19:3	-10.4402
▁şad	-10.4402
▁Pro	-10.4403
▁yo	-10.4403
▁Pol	-10.4405
79	-10.4405
▁nivîskarekî	-10.4406
tre	-10.4409
▁Alman	-10.4409
▁kandîd	-10.441
▁soranî	-10.4412
▁paytext	-10.4418
▁j	-10.4418
▁şehîdan	-10.442
▁azadiya	-10.4422
gul	-10.4423
▁Tîrmeh	-10.4425
▁cur	-10.4425
▁gihijtin	-10.4433
▁Afrîka	-10.4433
▁paytaxt	-10.4434
▁çarçoveyê	-10.4434
şk	-10.4437
zel	-10.4439
▁Ben	-10.4439
▁nabin	-10.4439
▁Çem	-10.4446
▁lêkolînê	-10.445
▁32	-10.4459
▁kem	-10.446
▁Hes	-10.446
ت	-10.4464
▁ŞANDEYEK	-10.4467
▁Heft	-10.4468
▁lî	-10.447
▁konsulxaneya	-10.4471
▁dûv	-10.4472
▁gote	-10.448
▁cm	-10.4485
▁mit	-10.4485
▁q	-10.4486
▁bend	-10.4488
Kese	-10.4489
▁hatîne	-10.4495
▁Lewra	-10.45
▁deryayê	-10.4501
▁koşka	-10.4501
▁Gola	-10.4504
riyê	-10.4516
▁Navçeyê	-10.4518
▁Ele	-10.4519
Cejn	-10.4523
▁Hal	-10.4526
▁Bay	-10.4528
▁serkirdeyên	-10.453
▁SUPAYÊ	-10.4532
bas	-10.454
wir	-10.4542
lim	-10.4544
1"|	-10.4549
mat	-10.4561
▁şûn	-10.4564
▁revandin	-10.4566
▁nivîs	-10.4567
▁tirs	-10.4567
▁mo	-10.4568
iyo	-10.4568
▁Rewandizî	-10.4569
▁International	-10.4569
îka	-10.4578
▁pro	-10.4579
▁aliyekî	-10.4586
▁su	-10.4597
▁Îmam	-10.4599
▁navend	-10.4601
kov	-10.4602
berî	-10.4607
▁Roma	-10.4612
▁çîn	-10.4619
▁Ebdulkerîm	-10.4631
▁Pêşangeh	-10.4631
▁nerm	-10.4632
dikin	-10.4632
▁Êrîş	-10.4635
▁vegeriya	-10.4635
▁ken	-10.4637
▁20'	-10.4641
▁Qe	-10.4644
▁Die	-10.4645
▁bîst	-10.4648
▁Mak	-10.4649
▁William	-10.4651
▁nexweşxaneya	-10.4652
▁Os	-10.4652
▁partiyê	-10.4654
▁gur	-10.4657
▁Mark	-10.466
▁Komela	-10.4664
▁September	-10.4664
▁[20:0	-10.4664
▁daxuyannameya	-10.4665
▁hîç	-10.4666
▁çêdibe	-10.4667
▁Ci	-10.467
▁rezberê	-10.4678
▁jinê	-10.4682
ij	-10.4684
▁zanist	-10.4686
▁babê	-10.4688
▁1985	-10.4695
▁rojhelat	-10.4699
yayî	-10.4699
▁dîdarek	-10.4702
▁Derya	-10.4702
▁Umer	-10.4705
nde	-10.4705
▁Paul	-10.4707
▁xwarinên	-10.4708
bend	-10.4714
▁ret	-10.4722
▁în	-10.473
▁Kendav	-10.473
▁Riwek	-10.4732
AD	-10.4735
▁arîşeya	-10.4742
▁derketiye	-10.4744
▁fi	-10.4745
▁Gimgimê	-10.4748
ör	-10.4749
▁romana	-10.4753
▁kesk	-10.4753
girtina	-10.4757
▁çem	-10.476
yin	-10.4761
DE	-10.4766
▁Bab	-10.4767
▁neda	-10.4768
▁Mînak	-10.477
▁CHP	-10.4774
▁wêjeyê	-10.4781
wanî	-10.4786
▁Niştîmanîya	-10.4789
▁wêneyên	-10.479
ût	-10.4795
ong	-10.4798
▁teksta	-10.4799
▁HILBIJARTINAN	-10.48
▁fermîyê	-10.4803
▁Peymana	-10.4803
▁gunehbar	-10.4808
baş	-10.4809
▁Qamişlo	-10.4814
▁Girê	-10.4816
mp	-10.4816
▁mela	-10.4818
▁banga	-10.4823
:20	-10.4824
rsîyên	-10.4825
▁seranserî	-10.4834
işt	-10.484
▁Mel	-10.4841
▁Sur	-10.4843
▁heval	-10.4853
êkî	-10.4857
▁geşt	-10.4858
▁Selahedîn	-10.4859
▁dı	-10.4871
▁lîst	-10.4872
▁Karl	-10.4875
▁berhemanîn	-10.4878
▁Hunermend	-10.4879
▁Nivîs	-10.4883
▁qu	-10.4888
▁Çînî	-10.4889
rr	-10.4889
▁Tel	-10.4894
▁Mehabad	-10.4894
▁bikim	-10.4895
▁têkoşîna	-10.4897
▁helwesta	-10.4898
mu	-10.49
▁[20:1	-10.49
▁mîlyon	-10.49
▁Gar	-10.49
▁karbidest	-10.4901
▁genim	-10.4902
▁dêrendazê	-10.4903
ibe	-10.4903
mb	-10.4904
▁Lîsta	-10.4906
▁Şaredariya	-10.4909
0.000	-10.4914
▁Peter	-10.4915
▁nameya	-10.4925
▁1977	-10.4927
▁Serhed	-10.4929
Ha	-10.4932
▁Hedba	-10.4935
▁pile	-10.4939
▁Dijî	-10.4948
▁teqînek	-10.4957
▁demokrat	-10.4959
▁erd	-10.4966
▁Seyîd	-10.4967
▁Fîlozof	-10.4969
okê	-10.497
▁Kongreya	-10.4971
▁serkevtina	-10.4972
▁peywendîya	-10.4974
▁piştgirî	-10.4979
▁Et	-10.4979
jan	-10.4985
lon	-10.4986
▁bûya	-10.4988
▁karker	-10.499
▁dibistanê	-10.4991
ī	-10.5003
▁Combretum	-10.5003
▁[20:2	-10.5003
▁Şemîyê	-10.5004
rok	-10.5005
▁wezaretên	-10.5005
▁yekî	-10.5006
▁fikr	-10.5007
▁şe	-10.5008
▁Batmanê	-10.5011
pt	-10.5011
▁salvegera	-10.5014
▁kongireyek	-10.5014
Se	-10.5014
▁opozisyon	-10.5015
▁Malper	-10.5019
pp	-10.5023
▁Zanist	-10.5027
▁pêkhat	-10.5028
şi	-10.5029
▁tevger	-10.5031
▁SE	-10.5034
▁warên	-10.5036
IR	-10.5036
س	-10.5036
▁Ibrahîm	-10.5037
▁zindî	-10.5038
▁Şêrwan	-10.5044
▁cureyek	-10.5051
▁mercên	-10.5051
▁rojnameyên	-10.5052
▁parêzer	-10.5053
▁at	-10.5056
▁Mas	-10.5059
stî	-10.5065
Al	-10.5072
▁kîjan	-10.5073
▁saziyên	-10.5076
raw	-10.5079
▁dever	-10.5084
▁Avesta	-10.5094
▁dixin	-10.5096
▁36	-10.5104
omys	-10.5105
▁SA	-10.5106
▁ÇEND	-10.5107
bal	-10.5107
▁serhildayan	-10.5109
xistina	-10.511
▁hevkar	-10.5112
kuj	-10.5123
▁endama	-10.5124
▁çî	-10.513
▁can	-10.513
ûm	-10.513
nik	-10.5131
▁navdewletîya	-10.5136
tim	-10.5141
▁[11:1	-10.5142
▁Şehristanî	-10.5142
▁Gates	-10.5143
▁sedî	-10.5147
▁Kurmancî	-10.5148
▁xêzan	-10.515
ther	-10.5156
▁Yemenê	-10.5156
▁Ermenistanê	-10.5157
▁rojekê	-10.5158
▁Deng	-10.516
▁pirsgirêk	-10.5161
end	-10.5164
girt	-10.5166
▁çandinî	-10.5167
yal	-10.5168
▁tête	-10.5169
▁Xanî	-10.5175
▁baran	-10.5175
000	-10.5178
nder	-10.5185
▁raman	-10.5191
▁berfanbarê	-10.5191
▁hebûye	-10.5194
▁Hol	-10.5194
▁xwezayî	-10.5199
▁38	-10.5199
▁hêvîya	-10.5199
▁dom	-10.5201
▁nêr	-10.5207
▁Îl	-10.5214
bûye	-10.522
▁para	-10.5221
▁tûj	-10.5221
▁hunera	-10.5222
▁BALYOZÊ	-10.5224
▁koç	-10.5227
▁dijmin	-10.5227
▁nûçe	-10.523
ikî	-10.523
▁ceza	-10.5232
▁çaverê	-10.5234
▁sedemê	-10.5235
81	-10.5237
▁PIRSA	-10.5237
▁zaravayê	-10.5239
leri	-10.5239
▁1973	-10.524
gur	-10.5241
▁berhema	-10.5244
▁Bor	-10.5248
▁Qur	-10.5251
La	-10.5253
▁ala	-10.5254
▁şirove	-10.5261
▁font	-10.5263
▁avî	-10.527
Mi	-10.527
xur	-10.5275
bara	-10.5276
fan	-10.5279
▁[11:3	-10.5282
="0"	-10.5284
▁Enwer	-10.5285
▁Peyvdarê	-10.5294
▁destkevt	-10.5299
▁peyama	-10.53
ür	-10.5305
des	-10.5313
▁Bidlîsê	-10.5314
▁seranser	-10.5315
▁Emîr	-10.5316
almanî	-10.5317
▁naxwaze	-10.5318
▁1,	-10.5318
▁zirav	-10.5319
▁pişkinînê	-10.5322
▁hevgirtina	-10.5323
▁daxuyaniyek	-10.5328
▁Sîstema	-10.533
▁alav	-10.5334
▁bername	-10.534
▁niştîmanî	-10.5343
ça	-10.5349
▁37	-10.5351
▁digot	-10.5353
▁Rezber	-10.5355
▁Kaya	-10.536
▁zimanan	-10.5361
▁Arif	-10.5362
▁cureyan	-10.5363
wey	-10.5366
▁Amerîkaya	-10.5367
▁Hor	-10.537
▁teqand	-10.5371
▁1'	-10.5372
hal	-10.5372
▁leşkerîyên	-10.5372
▁belge	-10.5374
kaya	-10.5374
▁dijber	-10.5377
▁Islamî	-10.5378
▁awayeke	-10.5379
NW	-10.5381
▁nebûn	-10.5382
▁kevnar	-10.5383
▁sedem	-10.5385
▁grûpa	-10.5386
▁DeMistura	-10.5389
▁[11:2	-10.5389
▁[20:4	-10.5389
▁molekul	-10.5389
▁Firyad	-10.5389
▁Baxdad	-10.5391
▁pêşve	-10.5399
oglu	-10.5399
▁navçeyek	-10.5402
▁qedexekirin	-10.5402
lên	-10.5402
▁م	-10.5403
Kurd	-10.5406
-2	-10.5408
oc	-10.5409
vin	-10.5412
sala	-10.5413
▁nimûne	-10.5423
nak	-10.5424
š	-10.5425
▁hesibandin	-10.5425
▁University	-10.5427
▁Calceolaria	-10.5427
▁hokarê	-10.5427
raz	-10.5428
▁rêber	-10.5429
▁«	-10.5429
▁Fî	-10.543
▁2019	-10.5431
▁baweriyê	-10.5435
▁Supayê	-10.5435
▁arîşeyan	-10.5443
▁gav	-10.5444
▁desthilat	-10.5445
▁mî	-10.5448
▁xêr	-10.5448
▁Kat	-10.5452
▁gişt	-10.5453
▁Muftî	-10.5461
▁Teyib	-10.5461
▁Tû	-10.5462
ile	-10.5462
▁Beşa	-10.5463
▁xwîna	-10.5464
▁konsulê	-10.547
▁Allium	-10.5472
girê	-10.5472
▁rind	-10.5476
▁derheqê	-10.5481
▁Bra	-10.5482
Ez	-10.5483
▁serokwezîr	-10.5487
▁xwendinê	-10.5487
▁1974	-10.549
▁dikê	-10.5492
▁peywendîyan	-10.5493
▁bajaran	-10.55
▁Qoser	-10.55
▁erênî	-10.5501
▁albûma	-10.5502
▁demekî	-10.5507
▁Kanada	-10.5508
danî	-10.5508
▁pêngavê	-10.5509
girî	-10.5511
▁pirosesa	-10.5514
▁civak	-10.5515
▁ce	-10.5515
▁hijmara	-10.5517
▁Pi	-10.5524
▁RÊ	-10.5527
▁ELIRAQÎYYE	-10.5533
▁hu	-10.5537
▁hingê	-10.554
▁hêzeka	-10.5542
▁xe	-10.5544
ش	-10.5544
▁navxwe	-10.5549
atê	-10.5552
▁alîgir	-10.5553
▁zarê	-10.5554
▁2-	-10.5554
▁darê	-10.5555
▁pileya	-10.5555
▁Dîcle	-10.5556
▁Dollar	-10.5558
▁ziyanê	-10.5559
▁bajêrên	-10.556
sey	-10.5562
▁Dor	-10.5563
arê	-10.5566
▁Soran	-10.5569
▁dimînin	-10.557
▁Simko	-10.557
▁1963	-10.5571
▁|-----	-10.5572
▁by	-10.5572
oka	-10.5573
▁Neteweyî	-10.5576
parêz	-10.5586
▁serdest	-10.5586
▁wate	-10.5592
îstan	-10.5592
▁gora	-10.5593
ahiya	-10.5599
▁pêşhat	-10.5602
▁diaxivin	-10.5606
bit	-10.5608
▁Kû	-10.5611
▁pişka	-10.5613
bol	-10.5618
▁nadin	-10.5619
▁as	-10.562
▁leşkerê	-10.5629
İ	-10.5638
▁Sûre	-10.5638
ayetî	-10.5639
▁MEZIN	-10.5643
siya	-10.5644
▁Ek	-10.5646
uz	-10.5647
▁lîstikvan	-10.5649
▁xelas	-10.565
▁nivîsandina	-10.5651
evê	-10.5653
▁vedigere	-10.5657
”.	-10.5657
lingen	-10.5658
▁Abdul	-10.5659
▁Hê	-10.566
▁pevçûnên	-10.5666
rm	-10.567
▁****	-10.5673
▁şano	-10.568
ûk	-10.568
▁pêşkeş	-10.5681
▁Oz	-10.5687
log	-10.5702
2010	-10.5707
LA	-10.5713
▁[11:4	-10.5716
▁tomarkirin	-10.5717
▁tîrmeha	-10.5722
nis	-10.5727
▁Dollaran	-10.5728
▁cins	-10.5729
pol	-10.5733
kat	-10.5733
zdeh	-10.574
▁berpirsyar	-10.5741
▁navendên	-10.5748
▁dorpêç	-10.5752
▁Şêxan	-10.5754
▁Okyanûsa	-10.5755
▁dabeşkirina	-10.5758
▁Şoreş	-10.5763
▁çandin	-10.577
▁kovarê	-10.5772
▁zimanî	-10.5773
▁mehên	-10.5779
▁hundirê	-10.5782
the	-10.5786
ray	-10.5788
▁DIXWAZ	-10.579
▁Klinton	-10.579
▁aşkere	-10.579
▁milliyard	-10.5791
▁cengê	-10.5793
▁Frank	-10.5795
▁razîbûna	-10.5801
▁po	-10.5803
▁gi	-10.5803
▁hes	-10.5805
▁vegerin	-10.5807
▁weşanên	-10.581
▁mejî	-10.5811
▁Mil	-10.5815
lay	-10.5817
▁qas	-10.5818
▁1972	-10.582
aq	-10.5826
▁îlan	-10.5829
▁sînorîyên	-10.5836
▁Şar	-10.5836
▁navxweyîyê	-10.5837
▁Ed	-10.5837
▁tîr	-10.5837
▁gellek	-10.5839
gin	-10.584
kêş	-10.584
▁Dicle	-10.5844
▁WEZARETA	-10.5845
▁guherîn	-10.5848
ûz	-10.5849
▁Qazî	-10.5854
tiye	-10.5857
îlî	-10.5862
▁BILIND	-10.5865
▁sivik	-10.5869
▁Mûsil	-10.587
▁Bingeh	-10.5872
°	-10.5873
▁cê	-10.5875
-3	-10.5877
îb	-10.5877
niya	-10.5881
▁rêbendanê	-10.5888
▁EW	-10.5889
▁daxuyanîyeka	-10.5894
▁1967	-10.5896
▁zîndanê	-10.59
nar	-10.5901
▁polîtburoya	-10.5903
▁duhî	-10.5905
▁dayikê	-10.592
IL	-10.5922
▁axivî	-10.5924
91	-10.5926
è	-10.5927
lis	-10.593
pirs	-10.5931
▁ron	-10.5932
▁kolan	-10.5934
▁bersiv	-10.5936
▁Cor	-10.5938
▁şî	-10.594
▁serokatîyê	-10.594
▁EVROJ	-10.5941
▁World	-10.5941
▁îtalî	-10.5941
▁peywendiyên	-10.5941
wal	-10.5941
▁seranserê	-10.5943
▁dayika	-10.5944
▁serhildayên	-10.5944
▁Kela	-10.5944
▁HERÊMÊ	-10.5944
▁Serdana	-10.5947
▁hêsan	-10.5948
▁Jor	-10.595
▁Yekemîn	-10.5951
▁Parastina	-10.5953
▁kêşeya	-10.5955
▁bihêlin	-10.5956
▁xurttir	-10.5959
▁vegotin	-10.596
▁êla	-10.5961
▁berdem	-10.5963
xi	-10.5963
▁250	-10.5964
chi	-10.5968
▁zana	-10.5969
êk	-10.5971
▁Endama	-10.5976
▁guman	-10.5977
▁pozetîv	-10.5977
▁[16:1	-10.5978
tz	-10.5983
▁teybetî	-10.5984
rak	-10.5984
,000	-10.5991
▁zehmet	-10.5992
eg	-10.6
▁bête	-10.6006
▁1971	-10.6009
▁WELAT	-10.6016
gîn	-10.602
diya	-10.6021
AR	-10.6025
▁helbestvanê	-10.6028
▁penaberên	-10.6037
▁Cizîr	-10.6042
▁Xa	-10.6042
▁cûr	-10.6042
▁PKKê	-10.6043
▁çavdêrên	-10.605
▁BAREY	-10.605
▁biwaran	-10.6051
▁Qoserê	-10.6055
▁pêşkevtî	-10.6055
dim	-10.6056
▁Riza	-10.6059
▁xwendiye	-10.606
▁Xu	-10.6063
▁sax	-10.6064
▁êrîşan	-10.6068
uc	-10.6069
▁serwerîya	-10.6069
şer	-10.607
▁Martin	-10.6072
ide	-10.6074
▁Şaredarê	-10.6078
▁nave	-10.6086
▁Êzdî	-10.6086
▁1976	-10.609
span	-10.6091
▁hundir	-10.6091
▁fer	-10.6091
▁TERORÎST	-10.6093
▁futbolê	-10.6093
▁Mecîd	-10.6094
▁dûçûna	-10.6094
▁daxuyanîyek	-10.6095
▁dizane	-10.6095
▁wêjeyî	-10.6097
evan	-10.6099
mez	-10.6099
berê	-10.61
bul	-10.6101
▁baz	-10.6103
▁konferansê	-10.6106
▁Hill	-10.6112
▁Iraqîyan	-10.6113
▁derketina	-10.6113
▁Sine	-10.6113
▁jêrîn	-10.6116
zik	-10.6119
▁Bike	-10.6124
▁nenas	-10.6126
▁Barzan	-10.6126
▁pesendkirina	-10.613
▁MEHMÛD	-10.6131
ant	-10.6132
eyeke	-10.6135
-18	-10.6137
▁kewçêrê	-10.6138
▁veşartin	-10.614
▁film	-10.614
▁Wer	-10.6147
▁Sta	-10.6151
▁partiyên	-10.6154
▁=====	-10.616
▁polîtîk	-10.6163
▁Armanca	-10.6168
border	-10.6169
▁Anatoliya	-10.617
▁OSMAN	-10.617
▁Keyaniya	-10.617
oya	-10.6172
mus	-10.6176
▁400	-10.6179
▁goman	-10.6179
ela	-10.618
▁tîmên	-10.6184
▁Mezopotamyayê	-10.6184
▁termê	-10.6195
▁Cureyê	-10.6196
▁temen	-10.6196
hen	-10.6197
ral	-10.6201
▁şandina	-10.6203
▁felsefeya	-10.6205
▁Pu	-10.6215
▁Mehabadê	-10.6216
▁(2	-10.6218
çek	-10.622
▁parçeyên	-10.6221
Ne	-10.6221
▁Agirî	-10.6227
▁qir	-10.6233
▁teng	-10.6234
hur	-10.6237
day	-10.6238
▁paqij	-10.624
bur	-10.6242
▁haw	-10.6246
▁Elqayide	-10.6248
▁proseseka	-10.6249
▁koçî	-10.6252
▁Il	-10.6259
nal	-10.6269
3%	-10.6272
▁Azadiya	-10.6273
▁guftûgo	-10.6277
▁nirxandin	-10.628
▁hi	-10.628
rast	-10.6282
▁maddeyên	-10.6282
▁qurbanî	-10.6282
▁42	-10.6282
▁kurtî	-10.6285
▁Law	-10.6286
▁75	-10.6288
▁cihû	-10.629
▁çîroka	-10.629
lîs	-10.6295
▁bakûr	-10.6298
▁ketine	-10.6301
▁geşkirin	-10.6303
ate	-10.6304
▁pişta	-10.6304
▁Mîrê	-10.6307
▁III	-10.6308
▁rojnameyê	-10.6308
▁opozisyonê	-10.6312
nu	-10.6319
▁1969	-10.6319
EL	-10.632
▁1925	-10.632
▁pêşeng	-10.6322
▁danûstandinên	-10.6322
lah	-10.6323
▁Fermandarê	-10.6324
▁jenosîd	-10.6326
▁destan	-10.6326
▁îsota	-10.6332
▁TI	-10.6332
▁HER	-10.6333
▁Parlamenter	-10.6337
▁girava	-10.634
▁HÊZ	-10.6343
▁12'	-10.6344
▁rûsî	-10.6346
gil	-10.6346
-1	-10.6348
▁Hen	-10.6353
▁tor	-10.6354
▁postê	-10.6354
▁Adarê	-10.6355
ira	-10.6356
▁destnîşankirina	-10.6357
Te	-10.636
▁aştiyê	-10.6366
▁BIBE	-10.6366
▁Sosyalîst	-10.6367
▁dida	-10.6371
hêner	-10.6371
uf	-10.6371
▁peyamek	-10.6374
▁seredana	-10.6379
▁Tal	-10.6385
▁diçû	-10.6386
▁hevkariya	-10.6389
ug	-10.639
heng	-10.6392
140	-10.6392
▁standinê	-10.6392
uch	-10.6393
▁BIHÊN	-10.6394
Mu	-10.6398
▁pak	-10.6398
▁Hekarî	-10.6405
▁xeynî	-10.6405
▁Germiyan	-10.6407
▁derkeve	-10.6407
▁Sibat	-10.6412
gerî	-10.6415
▁Turkman	-10.6418
yet	-10.6427
▁KOMBÛNA	-10.6428
▁Kurê	-10.6432
feld	-10.6433
all	-10.6435
▁berda	-10.6436
);	-10.6437
▁nekirine	-10.6439
collapse	-10.6442
▁malper	-10.6443
ice	-10.6444
▁Lîbiya	-10.6445
▁Aştiyê	-10.6446
ell	-10.6449
▁pî	-10.645
▁firok	-10.6456
▁devê	-10.6459
▁gotar	-10.6464
▁sazî	-10.6465
▁Îs	-10.6465
▁bingehek	-10.6467
▁xem	-10.6469
▁demokrasî	-10.647
▁hevpişka	-10.6475
▁cîhan	-10.6475
▁zimanekî	-10.6478
▁[11:0	-10.6484
▁CNN	-10.6484
▁Cara	-10.6485
▁neftê	-10.6486
▁Murad	-10.6488
▁giyanê	-10.6492
gun	-10.6494
▁neteweyê	-10.6495
▁Neu	-10.6496
dom	-10.6497
▁axê	-10.6497
▁arêşeya	-10.65
▁tiştan	-10.65
▁mêran	-10.6505
▁merc	-10.6505
▁teror	-10.6506
▁akincî	-10.6508
stadt	-10.6511
▁tank	-10.6514
▁telefonî	-10.6517
ştî	-10.6518
▁devok	-10.652
▁1966	-10.6522
▁Pan	-10.6524
▁bes	-10.6525
▁1945	-10.6525
▁xûyakirin	-10.6527
kal	-10.6529
ish	-10.6532
▁nîqaş	-10.6534
ibûn	-10.6535
▁nîvê	-10.6536
▁germî	-10.6537
▁Vî	-10.654
▁bûyeran	-10.654
▁qurbanîyê	-10.6542
▁Tur	-10.6552
ola	-10.6553
▁cot	-10.6554
▁xwedan	-10.6555
http	-10.6563
▁eyaleta	-10.6565
▁dibêjit	-10.6565
▁Ewropî	-10.6565
▁Hillary	-10.6565
▁biparêze	-10.6565
▁Piraniya	-10.6565
▁hindik	-10.6568
▁Kêm	-10.6569
dad	-10.6571
▁ayinde	-10.6572
▁beşdarbûna	-10.6572
▁milê	-10.6575
▁Ham	-10.6575
▁mamoste	-10.6579
▁hunermendên	-10.6581
▁gihişt	-10.6581
▁salane	-10.6586
▁ال	-10.6598
▁Çewlîgê	-10.66
ec	-10.66
▁Met	-10.66
Le	-10.6606
▁tir	-10.6608
▁guhartin	-10.6613
▁ewe	-10.6614
▁xwepêşandanê	-10.6614
▁xweser	-10.6624
▁Çomanê	-10.6624
▁sû	-10.6628
ini	-10.6636
▁zorê	-10.6636
▁pergala	-10.6639
▁39	-10.664
▁carna	-10.6643
▁[16:0	-10.6645
▁gerîyeka	-10.6646
▁Mehmed	-10.6646
NI	-10.6648
▁ALÎYÊ	-10.6653
▁er	-10.666
▁gera	-10.666
▁kur	-10.6662
▁Sin	-10.6663
▁Hey	-10.6664
▁Azerbaycana	-10.6665
▁teqînên	-10.6667
erî	-10.6667
▁nemir	-10.6669
▁parve	-10.6673
▁Rejîma	-10.6673
▁çarçêweya	-10.6675
▁Sam	-10.6677
pr	-10.6678
▁Eşîrên	-10.6682
▁[11:5	-10.6686
▁Mixabin	-10.6686
▁Weznê	-10.6686
▁war	-10.6688
▁kombûneka	-10.6688
▁Navdar	-10.6696
▁Rojnamevanên	-10.6696
▁Rojavay	-10.6696
ym	-10.6697
ün	-10.6697
▁Xwedayê	-10.6706
▁xwekujî	-10.6707
▁divêt	-10.6709
▁peywendîdar	-10.671
sîm	-10.671
▁Kol	-10.671
rîk	-10.6712
▁Sêwasê	-10.6714
▁rejîmê	-10.6721
▁Baz	-10.6726
ẍ	-10.6727
▁Stranbêj	-10.6727
▁derbikevin	-10.6727
▁dîtina	-10.6729
▁Ferec	-10.6729
▁Şehîd	-10.6729
▁Têkiliyê	-10.6729
De	-10.6733
▁Îlonê	-10.6736
ûş	-10.6737
▁gotine	-10.6738
▁penaber	-10.6738
ula	-10.674
▁pirsan	-10.6746
▁baştirîn	-10.6747
▁Misrê	-10.6748
▁Mêrgesorê	-10.6748
▁hevre	-10.6749
▁SÊ	-10.6751
▁sibe	-10.6752
▁Ö	-10.6752
–19	-10.6753
mes	-10.6754
▁pêdivêyî	-10.6754
▁Gal	-10.6757
beş	-10.6758
▁Parlamenterê	-10.6758
sit	-10.6759
rab	-10.6759
▁qewimî	-10.676
que	-10.6762
▁Efrîna	-10.6762
ûb	-10.6767
kon	-10.6774
▁1918	-10.6777
▁rijd	-10.6778
▁rol	-10.678
val	-10.6781
▁Tek	-10.6783
▁Far	-10.6788
-5	-10.6789
▁PÊK	-10.679
▁berfirehtir	-10.679
▁Bur	-10.679
ische	-10.6791
tîv	-10.6792
▁Hay	-10.6795
▁Xorasanê	-10.6797
▁Dêra	-10.6801
▁1965	-10.6802
ó	-10.6807
xt	-10.6808
▁hêzê	-10.6809
▁Resûl	-10.6809
west	-10.6813
Ser	-10.6814
▁Cî	-10.6815
▁bêdeng	-10.6815
▁axavtin	-10.6823
sti	-10.6825
şem	-10.6826
kor	-10.6827
andinê	-10.6828
▁çapa	-10.683
▁sazkirina	-10.6831
îyye	-10.6832
▁xeter	-10.6834
▁metre	-10.6836
ms	-10.6836
▁48	-10.6836
ûf	-10.6837
▁xizmet	-10.6837
▁serdemê	-10.6838
▁nexweşxaneyê	-10.6838
ep	-10.6839
tion	-10.6843
▁ax	-10.6845
▁pêkhatî	-10.6845
▁1962	-10.6852
WE	-10.6855
yne	-10.686
▁Qer	-10.6863
▁dihêle	-10.6874
▁1957	-10.6885
▁çêbûna	-10.6886
lk	-10.689
▁HHK	-10.6892
▁nemînin	-10.6892
▁Sêşembî	-10.6892
bike	-10.69
▁hingî	-10.6901
TA	-10.6902
▁loma	-10.6903
▁Ebas	-10.6904
▁Times	-10.6905
▁deryayî	-10.6908
▁Nîsan	-10.691
▁başûra	-10.6914
▁pîrozbayî	-10.6914
tis	-10.6915
▁bijîşk	-10.6916
▁Pasûrê	-10.6916
inc	-10.6919
▁xwandin	-10.6919
reng	-10.6919
▁All	-10.6922
bus	-10.6925
▁girtîgehê	-10.6925
xo	-10.6928
▁Çinarê	-10.693
▁Êlihê	-10.6931
▁mer	-10.6933
▁nexwezt	-10.6934
▁kehrebayê	-10.6934
▁hatîya	-10.6937
▁Berlin	-10.6939
▁cîhê	-10.6941
▁dewletek	-10.6942
nda	-10.6947
▁zanistê	-10.6949
key	-10.6953
.):	-10.6955
▁Brîtaniyayî	-10.6955
cor	-10.6956
▁bizavên	-10.6957
▁Çavdêrîy	-10.6958
▁Yên	-10.6961
dêr	-10.6962
:1	-10.6964
▁pan	-10.6965
▁1968	-10.6968
▁Mus	-10.6974
▁Bexşa	-10.6975
▁[20:3	-10.6975
▁Tengav	-10.6981
▁malperê	-10.6981
к	-10.6983
▁1930	-10.6984
Ra	-10.6987
▁ver	-10.6987
▁Mac	-10.699
▁siyasetê	-10.6991
▁îngilîz	-10.6993
▁Kaniya	-10.6996
▁komeleya	-10.6999
▁Sû	-10.7001
▁Deh	-10.7008
▁rastiyê	-10.7014
▁Paş	-10.7015
▁1958	-10.7016
▁[10:5	-10.7017
▁[12:1	-10.7017
▁Sovyet	-10.7018
▁bixwaze	-10.7019
▁MÛSILÊ	-10.7021
▁reform	-10.7022
▁For	-10.7022
▁dîtiye	-10.7025
lus	-10.7027
▁Rûber	-10.7028
▁You	-10.7031
stin	-10.7033
▁digre	-10.7034
▁berhev	-10.7037
ite	-10.7039
axa	-10.704
YAN	-10.7041
▁Alan	-10.7041
ova	-10.7041
▁bab	-10.7041
▁hemûyan	-10.7042
▁Mû	-10.7043
Der	-10.7043
▁erk	-10.7045
▁teknîkî	-10.7047
▁weşan	-10.7048
▁nexweşiya	-10.7048
kiş	-10.7054
îyek	-10.7054
▁mecbûr	-10.7056
▁Geverê	-10.7064
▁çûyî	-10.7068
dorf	-10.707
rem	-10.7078
qi	-10.7079
▁Gen	-10.708
▁hejmartin	-10.7084
dam	-10.7091
▁mebestê	-10.7094
mîr	-10.7094
▁Misilman	-10.7096
▁derdor	-10.7096
▁Çîrok	-10.7098
▁birîndaran	-10.71
▁Mesrûr	-10.7102
▁[10:4	-10.7102
▁Dengbêj	-10.7102
DAR	-10.7105
▁kilam	-10.7106
▁têkiliya	-10.7106
kur	-10.7111
▁qat	-10.7112
▁zêdekirin	-10.7112
▁perçe	-10.7112
DA	-10.7115
▁sîr	-10.7119
▁Zerdeşt	-10.7119
▁Pen	-10.712
▁Çiya	-10.7124
qet	-10.7128
▁goşt	-10.7129
lla	-10.7136
▁forma	-10.7137
▁Mafê	-10.7138
▁Ehmedînijad	-10.7144
▁Kawa	-10.7146
wat	-10.7148
▁lawaz	-10.7148
▁Hew	-10.7148
▁Art	-10.7149
▁Alîyê	-10.7152
▁tawanên	-10.7162
▁çima	-10.7169
▁bêjedanekê	-10.717
▁Huner	-10.7173
AL	-10.7176
elî	-10.7176
▁nîşana	-10.718
▁Berey	-10.7183
▁kongreya	-10.7187
▁Xwepêşandan	-10.7187
▁Huseyîn	-10.7187
▁Hillarî	-10.7187
▁bikaribe	-10.7188
▁July	-10.7188
▁nerîna	-10.7193
▁dilovaniya	-10.7195
▁madeya	-10.7195
▁19'	-10.7195
▁vegere	-10.7196
ary	-10.7196
bek	-10.7202
▁Şêr	-10.7207
▁veşartî	-10.7208
▁Bakûr	-10.7208
tepe	-10.7213
ER	-10.7215
▁beşdarîya	-10.7218
▁Val	-10.7222
▁darayîya	-10.7229
ence	-10.7229
▁Romney	-10.723
▁derkevin	-10.7232
▁ri	-10.7232
▁atomê	-10.7234
:00	-10.7237
▁Sey	-10.7239
taş	-10.7242
▁sermawezê	-10.7244
LE	-10.7244
▁Nor	-10.7248
▁birçîbûnê	-10.7249
▁Mêrdîn	-10.7258
▁Bat	-10.7263
▁ereban	-10.7264
▁farsî	-10.7264
▁rastê	-10.7265
▁1961	-10.7266
▁helbestan	-10.7271
▁[12:0	-10.7273
▁Yûsif	-10.7273
▁nuha	-10.7274
▁yekgirtî	-10.728
▁modern	-10.7281
▁nêzîkê	-10.7283
/2011	-10.7286
▁operasyona	-10.7289
▁şîretkarê	-10.7289
▁Seyda	-10.7291
▁Dîcleyê	-10.7293
▁pîrozbayîyê	-10.7293
mik	-10.7294
▁xwepêşandanan	-10.7299
▁pîvaz	-10.7302
▁serbazî	-10.7302
▁Pel	-10.7304
dariya	-10.7305
▁Pey	-10.7305
▁ten	-10.7305
▁Das	-10.7312
ala	-10.7313
▁DEVERÊ	-10.7317
html	-10.7318
▁43	-10.7319
▁îslamî	-10.7321
▁swêdî	-10.7328
▁komîteyê	-10.733
▁cu	-10.7332
▁ton	-10.7332
▁Partî	-10.7332
▁Gimgim	-10.7338
▁Ch	-10.7341
▁hewayê	-10.7345
▁Celîl	-10.7346
▁cîgirê	-10.7349
▁zanyar	-10.735
lle	-10.735
▁firotin	-10.7351
▁65	-10.7353
▁Navendî	-10.7355
▁sûdê	-10.7358
▁xebitî	-10.736
▁xwenîşandan	-10.736
▁Afganîstanê	-10.736
▁Love	-10.7363
▁krîza	-10.7367
▁ragehand	-10.7368
▁www	-10.737
▁Jean	-10.7371
▁Ken	-10.7372
▁Bey	-10.7374
▁genc	-10.7374
▁Şivan	-10.7374
▁Day	-10.7376
▁navendê	-10.7377
▁sêyemîn	-10.7382
▁Bre	-10.7382
▁berdewamiya	-10.7383
▁Fir	-10.7383
kev	-10.7385
▁Mezopotamya	-10.7389
▁Adar	-10.7392
▁parêz	-10.7398
abad	-10.74
▁hevdîtin	-10.7401
▁operasyon	-10.7402
▁72	-10.7402
▁[21:0	-10.7404
cik	-10.7404
firoş	-10.7405
usamet	-10.7408
▁15'	-10.7412
▁Kas	-10.7414
ranê	-10.7414
▁beramberî	-10.7414
▁Çav	-10.7418
sam	-10.7424
▁On	-10.7425
▁Papa	-10.7425
▁salekê	-10.7426
▁çandinîyê	-10.7426
▁Qahîre	-10.7431
▁vekir	-10.7435
▁kevneşopî	-10.7438
▁Tî	-10.744
▁danûstandinan	-10.7441
▁bêy	-10.7445
▁yekema	-10.7446
▁City	-10.7451
▁aktîv	-10.7451
▁kiryarên	-10.7452
▁Nêrwe	-10.7453
▁têr	-10.7458
ان	-10.7462
▁hêriş	-10.7476
▁qeyd	-10.7477
▁Us	-10.7479
▁dilgiran	-10.7483
zîn	-10.7483
▁Hadî	-10.7483
▁cureyekî	-10.7483
ura	-10.7484
zay	-10.7485
▁Qir	-10.749
ag	-10.7491
▁Debax	-10.7492
▁bişîne	-10.7494
▁Sunnî	-10.7495
▁hilwest	-10.7497
ewî	-10.7497
ele	-10.7497
got	-10.7502
▁ref	-10.7508
▁rêvebir	-10.7508
▁tije	-10.7512
▁dazanîn	-10.7512
▁nivîskî	-10.7513
▁nedaye	-10.7517
▁xwedê	-10.7517
▁îranî	-10.752
▁ب	-10.7522
▁yanî	-10.7523
mann	-10.7526
arî	-10.7531
▁Sedem	-10.7532
▁con	-10.7532
▁Şahîn	-10.7535
▁hinekî	-10.7536
▁sîyaset	-10.7538
▁PJAK	-10.7538
▁serperiştîya	-10.7539
▁nêrînên	-10.7539
▁Eş	-10.7543
▁avrêlê	-10.7544
▁52	-10.7544
çîn	-10.7544
rêz	-10.7548
▁Hozan	-10.7549
▁tam	-10.755
▁Spanyayê	-10.7555
▁ze	-10.7558
▁konser	-10.7559
▁desthilatdariya	-10.756
▁pûşperê	-10.756
êrê	-10.7562
▁rolê	-10.7563
▁Berg	-10.7569
▁kifş	-10.7571
erebî	-10.7574
▁yekalî	-10.7577
ted	-10.7577
▁[20:5	-10.758
▁wergêr	-10.7582
nam	-10.7587
▁Je	-10.7588
▁Desteya	-10.7589
▁Los	-10.7589
▁Kovar	-10.759
▁Îmaratê	-10.7591
rawe	-10.7594
▁Fraksiyonên	-10.7595
▁gol	-10.7597
sir	-10.7598
▁Duh	-10.76
OL	-10.7601
:18	-10.7603
▁nehên	-10.7604
riyan	-10.7609
▁Spanya	-10.761
avî	-10.762
ز	-10.7622
▁dad	-10.7623
.08.2011	-10.7625
▁hey	-10.7627
liya	-10.7632
mor	-10.7634
YE	-10.7637
etî	-10.7641
▁ewil	-10.7641
▁hiş	-10.7642
▁ENCAM	-10.7643
▁koka	-10.765
▁Cizîrî	-10.765
▁fîlozof	-10.7658
ure	-10.7659
rad	-10.7663
▁kulîlk	-10.7665
▁BAXDAD	-10.7665
▁DIKIN	-10.767
▁Meşhedanî	-10.767
Cinsa	-10.7673
▁(17	-10.7675
▁fars	-10.7675
▁Ten	-10.7681
▁qanûnên	-10.7681
▁Baba	-10.7683
▁Ferhenga	-10.7688
▁Amêdiyê	-10.7689
▁Seqiz	-10.7697
▁jîyan	-10.7698
▁mayîn	-10.7699
▁nivîsar	-10.77
▁Erebistan	-10.7701
zade	-10.7704
cin	-10.7704
▁serokên	-10.7707
bl	-10.771
▁1964	-10.7712
▁Xelîfan	-10.7715
▁[15:5	-10.7715
▁pal	-10.7715
▁pêngavek	-10.7716
▁beşeke	-10.772
▁rojî	-10.7722
▁Xur	-10.7723
▁zivistanê	-10.7738
tirkî	-10.7738
▁vekişandin	-10.7747
lor	-10.7749
pîr	-10.7751
ombesta	-10.7751
▁tek	-10.7754
▁berpirsiyar	-10.7756
▁bêjedan	-10.7758
▁Taha	-10.7758
▁[13:3	-10.776
▁[14:0	-10.776
▁Ebbas	-10.776
▁Zi	-10.7762
▁Xwarinên	-10.7762
▁werbigire	-10.7763
▁pirraniya	-10.7763
▁milyar	-10.7765
▁êrîşeke	-10.7765
▁rûniştinê	-10.7767
▁y	-10.7768
▁Cha	-10.7768
▁part	-10.7773
deng	-10.7774
eri	-10.7777
▁bombbaran	-10.7779
▁Yo	-10.7783
▁Sol	-10.7785
cel	-10.779
▁raya	-10.7791
▁Hevserokê	-10.7794
▁firrgeha	-10.7796
▁Rêkan	-10.7796
▁Fel	-10.7799
▁MÛSIL	-10.7801
▁Aswataliraq	-10.7805
▁Necîb	-10.7805
▁Ram	-10.7806
▁wusa	-10.7806
▁Ferhad	-10.7806
▁Derbarê	-10.7806
▁didome	-10.7806
▁komîteyên	-10.7807
▁nivîsîngeha	-10.7807
▁Aydin	-10.7808
cus	-10.7809
▁Weşanxaneya	-10.781
▁Tri	-10.781
о	-10.7815
▁Windows	-10.7816
▁Misirî	-10.7818
▁nexweşî	-10.7821
dur	-10.7824
gre	-10.7832
▁Emer	-10.7832
ska	-10.7833
▁Japon	-10.7837
▁derva	-10.784
▁xalan	-10.784
qui	-10.7841
▁ûêd	-10.7842
hausen	-10.7844
▁xu	-10.7845
▁prosesê	-10.7846
▁niştecih	-10.7848
nûs	-10.7849
▁Pêxember	-10.7851
▁Yigit	-10.7851
▁dabeş	-10.7852
▁carî	-10.7853
xin	-10.7853
▁Saint	-10.7857
▁Dolar	-10.7857
▁Verlag	-10.7862
tiyên	-10.7863
vir	-10.7864
▁giştiya	-10.7865
▁gîyanê	-10.7866
▁guneh	-10.7868
for	-10.7869
tem	-10.7881
aj	-10.7881
▁Parîs	-10.7881
barî	-10.7882
▁hildan	-10.7883
▁navberê	-10.7885
rim	-10.7886
▁AMADE	-10.7887
îkê	-10.7893
▁sîvîl	-10.7894
▁kêmkirina	-10.7895
▁Şayes	-10.7897
▁amaje	-10.7897
DIVÊ	-10.7898
▁teqandin	-10.7899
▁xwepêşanderên	-10.7899
bana	-10.7901
▁çêdike	-10.7905
▁îmza	-10.7907
rît	-10.7907
▁avahiya	-10.7908
kim	-10.791
▁Son	-10.7914
▁qebûlkirin	-10.7914
#	-10.7922
▁Gurcistanê	-10.7925
▁Dev	-10.7926
▁aş	-10.7927
▁rî	-10.7932
▁ewlehîyê	-10.7936
▁nameyê	-10.7938
▁bihêle	-10.7939
▁kuşt	-10.7941
▁Red	-10.7942
▁zankoyê	-10.7942
▁pirtûkek	-10.7942
ora	-10.7943
▁misoger	-10.7943
▁xilas	-10.7943
perwer	-10.7943
▁berdestkirin	-10.7944
▁qeyrana	-10.7944
-4	-10.7944
▁Pr	-10.7945
▁Reza	-10.7945
stein	-10.7946
▁Thomas	-10.7946
▁sp	-10.7947
row	-10.7947
Mo	-10.795
ona	-10.7951
▁EL	-10.7951
▁Cu	-10.7952
▁çare	-10.7954
dek	-10.7955
leya	-10.7956
▁silav	-10.7956
▁devkî	-10.7959
▁Gotar	-10.7964
iyekî	-10.7964
illa	-10.7965
dîye	-10.7966
▁Şiwanî	-10.7967
▁pu	-10.7969
▁dadwer	-10.797
▁Necef	-10.7973
▁mijar	-10.7977
▁Evan	-10.7977
▁zi	-10.7982
▁hewa	-10.7985
xaneyên	-10.7987
sur	-10.7989
oğlu	-10.7989
▁nebaş	-10.7992
▁biryarek	-10.7994
▁Seyid	-10.7994
▁pêşangeha	-10.7998
tol	-10.8
▁Rêxistin	-10.8004
▁çe	-10.801
▁pi	-10.8013
▁Kr	-10.8021
▁asayîşa	-10.8022
▁Lêkolîn	-10.8023
▁Sipî	-10.8026
▁TA	-10.8027
▁Kim	-10.8028
▁rêza	-10.803
▁cihan	-10.8031
▁aştîya	-10.8033
▁Hisên	-10.8035
▁[13:4	-10.8036
▁Ankara	-10.8037
▁Koç	-10.8037
LÎ	-10.8041
▁wezaretê	-10.8042
▁hebûne	-10.8044
▁Demokrasîyê	-10.8045
rom	-10.8047
▁−	-10.8047
▁zazakî	-10.8049
vel	-10.805
▁raporta	-10.8052
▁çarem	-10.8056
▁Les	-10.8067
▁Serdar	-10.8067
▁Girtin	-10.8068
▁Serdeşt	-10.8069
chen	-10.8071
▁gelawêjê	-10.8072
▁nirxand	-10.8076
▁şoreşê	-10.8076
▁pîkolê	-10.8078
▁televîzyonê	-10.8082
▁hêsanî	-10.8082
▁[12:2	-10.8083
▁darizandin	-10.8083
▁ronahî	-10.8083
▁navkirin	-10.8086
▁herçend	-10.8087
▁derfet	-10.8093
▁desteser	-10.8094
xanê	-10.8095
sia	-10.8098
dd	-10.8103
art	-10.8103
nîs	-10.811
▁fil	-10.8111
▁Brîtanî	-10.8113
icus	-10.8115
\	-10.8115
▁mey	-10.8121
gr	-10.8122
▁dergehê	-10.8122
▁1956	-10.8123
▁masî	-10.8123
▁Ju	-10.8127
ûrî	-10.8128
ali	-10.8128
▁Enqerê	-10.813
▁DIJÎ	-10.813
▁Eskerî	-10.813
▁Chi	-10.8132
▁Nasir	-10.8134
bûr	-10.8141
osa	-10.8142
tinê	-10.8143
▁tiştî	-10.8145
reya	-10.8146
raq	-10.8149
▁Gl	-10.815
tral	-10.8153
▁bombebaran	-10.8154
RE	-10.8155
▁roket	-10.8158
ım	-10.8158
▁hişt	-10.816
▁Baran	-10.816
▁pêşketin	-10.8163
dra	-10.8167
▁beyannameyekê	-10.8172
rîş	-10.8174
▁[13:1	-10.8177
▁Mah	-10.8178
▁PETROLÊ	-10.8179
ene	-10.818
mam	-10.8182
okên	-10.8184
ano	-10.8184
▁beşdariya	-10.8185
▁aqil	-10.8198
▁pevçûnan	-10.8203
▁tîpa	-10.8209
▁xwendevanan	-10.821
vedan	-10.821
▁Xaneqîn	-10.821
▁zemîn	-10.8213
▁eşîr	-10.8213
▁komeleyê	-10.8216
▁Film	-10.8219
▁komar	-10.822
▁41	-10.8221
▁Atalay	-10.8224
▁Rûerd	-10.8224
ls	-10.8229
▁Beriya	-10.8229
siyon	-10.8232
▁mirovekî	-10.8232
▁str	-10.8236
▁Eb	-10.8241
▁Komkara	-10.8245
one	-10.8248
▁teqînan	-10.8249
▁1924	-10.8249
▁un	-10.8252
▁Îtalyayê	-10.8254
▁Zo	-10.8257
▁Enqere	-10.8259
eddîn	-10.826
▁Husn	-10.8264
▁wezaretan	-10.8264
Sa	-10.8264
▁aniye	-10.8268
▁por	-10.8269
▁gaza	-10.8271
▁Etrûşî	-10.8272
▁Richard	-10.8272
▁Şandeya	-10.8272
▁kîmyayî	-10.8275
▁derketine	-10.8284
bikin	-10.8284
randin	-10.8286
▁SIYASÎ	-10.8289
▁gaz	-10.829
▁hî	-10.8292
▁NAV	-10.8299
hm	-10.8299
iy	-10.83
▁zar	-10.8301
▁pêvajoyê	-10.8306
▁Urdun	-10.8307
pik	-10.8307
▁pêşkevtinên	-10.8313
▁1950	-10.8315
gg	-10.8316
▁ramanên	-10.8316
▁pat	-10.8317
▁Uzun	-10.8319
▁[14:1	-10.832
▁[14:3	-10.832
▁Del	-10.8321
▁nan	-10.8321
▁1938	-10.8322
▁Mat	-10.8323
▁Pirranî	-10.8324
▁bela	-10.8324
▁nivîsand	-10.8331
▁nakokîyên	-10.8331
▁Şem	-10.8335
daran	-10.8338
▁gavê	-10.8339
▁roleke	-10.834
eda	-10.8343
▁xurek	-10.8345
tab	-10.8345
▁dengî	-10.8347
▁sînorî	-10.8348
▁hind	-10.8348
▁rojavayî	-10.8349
ك	-10.835
îq	-10.8351
▁amadeyî	-10.8359
mis	-10.8359
▁Th	-10.836
▁1000	-10.836
▁Ermenî	-10.8361
▁bigihêjin	-10.8364
▁yew	-10.8364
yd	-10.8365
tûr	-10.8367
▁Madrid	-10.8368
▁Charles	-10.8368
▁perwerdehiya	-10.8368
▁ço	-10.8369
▁Harry	-10.8369
▁spanî	-10.8369
▁wefat	-10.8369
zim	-10.8372
▁çêdikin	-10.8374
▁pêşkevtina	-10.838
▁Caf	-10.8387
▁giravên	-10.8388
nema	-10.8389
▁120	-10.8392
sy	-10.8395
înan	-10.8403
▁Ajans	-10.8404
şo	-10.8404
▁Ewropayî	-10.8407
▁Ex	-10.841
▁Vol	-10.8411
.08.2012	-10.8416
▁[12:4	-10.8416
▁zimên	-10.8417
▁Şikak	-10.8418
▁deşta	-10.8424
tun	-10.8425
ANÎ	-10.8426
rac	-10.8427
▁netew	-10.8428
▁sey	-10.8429
ique	-10.8434
▁amerîkan	-10.8434
▁digotin	-10.8437
enburg	-10.8439
▁BIN	-10.8444
rûn	-10.8444
▁1947	-10.8448
▁;	-10.8448
jimar	-10.8453
gire	-10.8453
▁mêrê	-10.8456
saz	-10.8456
▁Tirkan	-10.8458
▁carekê	-10.846
▁zêdebûna	-10.8461
▁Zygophyllum	-10.8464
▁[10:3	-10.8464
▁[14:4	-10.8464
▁Muqted	-10.8465
▁tebaxê	-10.8465
:10	-10.8466
hes	-10.8466
▁endamekî	-10.8466
▁Xesr	-10.8469
port	-10.8472
▁zêr	-10.8472
▁daku	-10.8474
▁hezkirin	-10.8477
▁Aw	-10.8479
▁serhildanê	-10.8486
▁Musa	-10.8486
ej	-10.8489
▁kod	-10.8494
▁strana	-10.8499
▁Br	-10.8504
▁ROJ	-10.8505
▁xi	-10.8507
odon	-10.851
EYA	-10.8512
▁[13:0	-10.8513
▁Çelebî	-10.8513
▁KRG	-10.8513
▁Celadet	-10.8513
▁Meclîsa	-10.8513
▁DAXWAZKIRÎ	-10.8513
▁Çarşembî	-10.8514
▁hilawîstîyên	-10.8517
▁PARLIYAMENTÊ	-10.8517
▁terorîstên	-10.8518
▁zewicî	-10.852
▁xaneya	-10.8521
▁1923	-10.8523
▁Rizgar	-10.8523
trop	-10.8524
▁xala	-10.8526
▁pêngava	-10.8527
▁çêkir	-10.8527
▁Diyar	-10.8528
ende	-10.8531
Kar	-10.8531
wis	-10.8534
▁berfirehî	-10.8534
▁Ste	-10.8536
▁dost	-10.8536
▁Beş	-10.8537
▁maddeyê	-10.8537
▁Talîban	-10.8539
are	-10.854
▁Sitey	-10.8541
▁Kombûn	-10.8544
▁tendiristîyê	-10.8545
▁Herîrî	-10.8548
▁June	-10.8549
çû	-10.855
ei	-10.8551
▁nayên	-10.8554
mû	-10.8554
▁1955	-10.8556
▁pez	-10.8556
Ta	-10.8558
▁reşemiyê	-10.8562
▁qer	-10.8564
▁Şêrko	-10.8564
uş	-10.8564
.09.2012	-10.8565
▁îmze	-10.8568
▁şekir	-10.8569
▁Rast	-10.8576
inus	-10.8579
▁kirîbû	-10.8581
▁Ok	-10.8582
▁Mis	-10.8582
▁Konferansa	-10.8583
▁nêz	-10.8586
▁operasyonek	-10.8592
▁Heme	-10.8594
▁Bizava	-10.8597
▁Nisêbîn	-10.8602
-7	-10.8602
ketin	-10.8603
▁ezmona	-10.8604
▁xwedîkirina	-10.8605
karan	-10.8608
wîn	-10.861
stra	-10.861
ço	-10.8611
▁[14:5	-10.8612
▁Tom	-10.8612
ies	-10.8613
▁AMERÎKAYÎ	-10.8614
▁wekhev	-10.8615
▁Leşker	-10.8615
▁1940	-10.8616
▁Michael	-10.8619
▁kêşeyên	-10.8619
▁xeta	-10.8621
adî	-10.8625
▁muzîk	-10.8626
▁mû	-10.8627
RÎ	-10.8629
dik	-10.8629
dere	-10.8631
▁zext	-10.8632
perest	-10.8633
ator	-10.8634
Bo	-10.8635
▁nêvdewletî	-10.8638
▁taxên	-10.8639
▁pêşnîyar	-10.864
▁Yar	-10.8641
▁diristkirin	-10.8643
▁Îsraîlî	-10.8644
yu	-10.8645
▁pêngav	-10.8645
bun	-10.8645
▁wêran	-10.8649
▁rêve	-10.8653
036	-10.8654
▁Wi	-10.8655
EY	-10.8659
▁PÊŞKÊŞ	-10.866
▁hunerê	-10.8661
▁Şahmaran	-10.8661
▁Şerîf	-10.8663
▁bûdcey	-10.8663
rit	-10.8663
▁guncayî	-10.8664
▁awarte	-10.8665
▁ceribandin	-10.8666
▁Family	-10.8667
îkî	-10.8668
▁asmanî	-10.8668
▁mih	-10.867
▁(3	-10.8671
▁3.	-10.8672
▁bernama	-10.8672
erên	-10.8673
▁Tar	-10.8675
▁Anatoliyay	-10.868
▁çandiniyê	-10.8681
▁kevtin	-10.8681
inê	-10.8688
cia	-10.8688
▁Serdem	-10.8691
▁PÊ	-10.8692
▁azadîya	-10.8693
▁Mexmûrê	-10.87
▁Hasan	-10.87
▁Hêza	-10.8701
▁Wêranşarê	-10.8704
▁çaxê	-10.8705
sun	-10.8711
.07.2012	-10.8711
▁Ebdurrehman	-10.8711
▁Erzînganê	-10.8711
▁quantum	-10.8711
▁[13:2	-10.8711
▁hoşdarî	-10.8711
▁wîlayeta	-10.8712
▁55	-10.8713
▁term	-10.8715
▁bizavê	-10.8716
ÎYÊ	-10.8722
▁Pla	-10.8724
lok	-10.8728
EVÊ	-10.8734
▁Çêkirin	-10.874
▁dişîne	-10.8745
▁PEYWENDÎYÊ	-10.8748
▁budceyê	-10.8748
▁bomba	-10.8748
iyet	-10.875
teq	-10.8751
▁binê	-10.8752
▁Neh	-10.8756
▁ajalan	-10.8757
▁nerazî	-10.8757
Kurdistanê	-10.8757
▁pêşmergeyên	-10.8761
▁[12:3	-10.8761
▁[12:5	-10.8761
▁Ebdulqadir	-10.8761
▁operasiyonê	-10.8761
▁Duşembî	-10.8762
▁1941	-10.8763
▁Komkujiy	-10.8764
gah	-10.8766
▁xanî	-10.8768
çûn	-10.8771
ilî	-10.8772
▁hizre	-10.8776
▁ronî	-10.8776
▁pişkinînan	-10.8777
win	-10.8778
▁Elewî	-10.8778
▁At	-10.8782
rekî	-10.8787
ction	-10.879
▁fo	-10.8792
▁berhemê	-10.8792
▁Quranê	-10.8792
▁diçê	-10.8795
skî	-10.8799
▁Boy	-10.88
▁çalakî	-10.8802
▁Turkîya	-10.8802
▁Çanda	-10.8803
▁tawana	-10.8804
▁nexweşîya	-10.8804
▁xwa	-10.8805
▁Swedê	-10.8805
▁Wêje	-10.8806
▁daristan	-10.8807
▁digere	-10.8808
▁mêj	-10.881
▁GEREK	-10.8811
▁Stefan	-10.8811
▁qedand	-10.8819
▁zûtirîn	-10.8819
▁çavkaniyên	-10.8819
▁Kurt	-10.8821
▁Fuad	-10.8822
▁Xer	-10.8823
▁bigihêje	-10.8824
▁danî	-10.8825
▁amadekirina	-10.8828
▁azadiyê	-10.8835
▁Öz	-10.8838
MA	-10.8839
▁serdan	-10.8839
▁bombe	-10.8847
▁şarî	-10.8847
by	-10.8849
▁Kil	-10.8849
▁îlona	-10.8849
▁Israyelê	-10.885
▁Almanî	-10.885
tay	-10.8854
▁pergal	-10.8856
▁11'	-10.8858
ity	-10.886
آ	-10.8862
▁QANÛNA	-10.8862
▁LE	-10.8862
▁xêz	-10.8862
▁DIBE	-10.8862
Îraqê	-10.8871
▁şanoyê	-10.8872
▁Zarok	-10.8874
▁Riha	-10.8877
zanî	-10.8878
▁za	-10.8878
▁Midyadê	-10.888
▁wextê	-10.8889
▁şax	-10.889
▁KURDÎ	-10.8892
hatî	-10.8894
▁BÊ	-10.8896
▁1959	-10.8906
▁Yu	-10.8908
▁GIHIJT	-10.891
▁zanyarîyê	-10.891
▁ŞANDEYA	-10.8912
▁nîvro	-10.8918
▁îroj	-10.8918
rg	-10.8919
avên	-10.892
yle	-10.892
wet	-10.8922
▁dixwest	-10.8924
▁KERKÛK	-10.8924
idî	-10.8925
amî	-10.8925
xw	-10.8927
▁Dînar	-10.893
▁Kl	-10.893
▁Koreyaya	-10.8936
MAN	-10.8942
▁IRAQÎ	-10.8946
wek	-10.8947
▁Parliyamenta	-10.8951
▁şaşî	-10.8952
▁Ef	-10.8956
▁9'	-10.8957
▁girêdana	-10.8958
▁16'	-10.8958
▁mîrê	-10.8962
▁destpêkir	-10.8962
▁Af	-10.8963
▁[10:2	-10.8963
▁[15:0	-10.8963
▁[15:2	-10.8963
▁Fadil	-10.8964
▁reftar	-10.8965
▁zozan	-10.8967
▁alîgirê	-10.8969
▁bax	-10.8969
▁bazara	-10.8971
▁1933	-10.8973
▁zîyan	-10.8975
▁Cer	-10.8983
=1	-10.8983
ise	-10.8986
▁Begê	-10.8986
▁standinan	-10.8987
▁radi	-10.8989
▁nifûsa	-10.899
▁Pakîstanê	-10.8992
▁şahê	-10.8993
ting	-10.8994
▁deverek	-10.8996
▁Sc	-10.8997
▁WEZÎRA	-10.9001
rum	-10.9005
ûdîye	-10.9005
▁Prof	-10.9005
▁Bes	-10.9006
▁warî	-10.9007
▁rojnamevanên	-10.9007
▁resen	-10.9007
▁rêveberê	-10.9011
▁element	-10.9012
▁Berdewam	-10.9015
▁[15:4	-10.9015
▁rageyand	-10.9015
▁beyannameya	-10.9015
▁dinivîse	-10.9016
los	-10.9016
▁from	-10.9016
▁xwepêşandana	-10.9017
▁1922	-10.9018
▁1944	-10.9018
▁Şu	-10.9018
▁beşdarîkirin	-10.9019
▁Pira	-10.902
▁bibû	-10.902
▁4-	-10.902
sû	-10.9024
eno	-10.9025
▁parvekirin	-10.9029
▁kêşe	-10.9033
OR	-10.9034
îde	-10.9039
bre	-10.9041
▁Bakûrê	-10.9042
▁Leşkerî	-10.9044
:30	-10.9045
▁sel	-10.9045
fo	-10.9045
RO	-10.9045
pro	-10.9046
aba	-10.9048
▁serhildan	-10.9048
▁Hemîd	-10.905
▁gewr	-10.9054
▁rêbaza	-10.9054
▁dibistan	-10.9055
oyî	-10.9056
▁dengbêj	-10.9057
▁saet	-10.9057
▁famîleyê	-10.9058
▁opozisiyon	-10.9059
Ko	-10.906
▁Semsûr	-10.9061
▁xwedîyê	-10.9061
▁Sûrîyeyê	-10.9061
avê	-10.9063
ric	-10.9063
▁46	-10.9064
▁Gever	-10.9065
▁[13:5	-10.9066
▁teknîk	-10.9066
▁hêzan	-10.9068
ill	-10.9069
▁REWŞA	-10.907
▁gihand	-10.9072
▁parlamenterê	-10.9076
▁Sun	-10.9079
▁quşxaneyê	-10.9085
▁binçavkirin	-10.9089
ila	-10.9089
▁Tir	-10.9091
fon	-10.9091
ziya	-10.9094
▁hola	-10.9096
▁Band	-10.9097
▁(10	-10.91
▁helbesta	-10.9103
▁here	-10.9103
leh	-10.9103
kerê	-10.9104
▁otomobîla	-10.9105
rand	-10.9109
▁digerin	-10.9111
▁1953	-10.9112
pl	-10.9113
▁Best	-10.9115
▁înê	-10.9116
▁qezenc	-10.9118
▁rûviya	-10.9119
▁dadwerîyê	-10.912
▁1943	-10.912
▁Daxwaza	-10.9121
tri	-10.9125
▁Sovyetan	-10.9126
▁zanyarî	-10.9127
xana	-10.913
▁rêka	-10.9131
▁yêk	-10.9132
dane	-10.9135
UR	-10.9136
▁gelêrî	-10.914
andiye	-10.9142
▁danîna	-10.9144
▁Ferheng	-10.9145
▁Ac	-10.9147
▁bicîh	-10.9152
deh	-10.9152
▁misilmanan	-10.9153
▁Xanedana	-10.9154
▁Dawî	-10.9159
▁Cal	-10.9163
▁ewqas	-10.9164
▁HUKÛMETÊ	-10.9164
▁Az	-10.9166
▁aboriya	-10.917
.02.2013	-10.9172
tter	-10.9175
▁Hezar	-10.9178
▁hunermendê	-10.9179
▁bondê	-10.918
▁giha	-10.9181
▁Main	-10.9183
▁hevwelatîyek	-10.9183
▁karmend	-10.9186
yt	-10.9187
▁Leon	-10.9188
▁Şîretkarê	-10.9189
vis	-10.919
▁komkujiya	-10.9195
▁Post	-10.92
▁endaman	-10.9201
▁heke	-10.9202
▁baregehê	-10.9205
EM	-10.9207
▁erdhejê	-10.9208
gez	-10.9209
▁derhêner	-10.9209
▁girêbest	-10.9217
▁Medya	-10.9219
▁Erd	-10.9221
▁1920	-10.9222
.07.2011	-10.9222
▁şunda	-10.9223
▁Seddam	-10.9223
▁Rî	-10.9223
▁Sultan	-10.9224
▁Newroz	-10.9224
over	-10.9225
▁siyasetmedarê	-10.9225
én	-10.9225
Do	-10.9225
sto	-10.9225
▁cotmeh	-10.9226
yona	-10.9226
▁Siltan	-10.9228
▁UTC	-10.9229
ú	-10.9233
▁nemaye	-10.9233
tîf	-10.9234
▁Dihok	-10.9237
▁Kerem	-10.9237
▁Max	-10.9241
▁rawestandina	-10.9242
sik	-10.9245
sten	-10.9247
▁gule	-10.9251
▁alîkarê	-10.9254
▁sta	-10.9257
▁qo	-10.9258
▁hevdîtina	-10.9259
ار	-10.926
▁tîpê	-10.9263
lak	-10.9264
kerên	-10.9264
▁pêşwazîkirin	-10.9264
▁şerekî	-10.9266
Da	-10.9268
▁Ana	-10.9271
Crocidura	-10.9275
▁Navnetewî	-10.9275
▁[15:3	-10.9275
▁berbiçav	-10.9275
▁Xelef	-10.9276
▁Melediyê	-10.9276
▁Fil	-10.9276
▁vekêşan	-10.9276
▁tew	-10.9277
ischen	-10.9277
▁bîyanî	-10.9277
▁Tehran	-10.9277
▁ajal	-10.9278
▁lihev	-10.9283
DÎ	-10.9283
▁hertim	-10.9286
yer	-10.9286
SN	-10.9287
▁kelem	-10.9288
▁Rays	-10.9288
▁abûrî	-10.929
ds	-10.929
ware	-10.9292
▁texmîn	-10.9292
▁POLÎS	-10.9294
Ew	-10.9298
▁Turkiyê	-10.9301
▁Îdirê	-10.9302
kariya	-10.9306
nêr	-10.9308
▁bı	-10.9309
▁axaftinên	-10.9309
▁rêzên	-10.9314
▁Netewî	-10.9317
▁stranê	-10.9319
rie	-10.932
▁Pêşmerge	-10.9322
ore	-10.9322
▁topbarankirina	-10.9323
mit	-10.9323
▁Kawe	-10.9323
hol	-10.9324
age	-10.9326
▁NÊÇÎR	-10.9328
▁CELAL	-10.9328
▁giringîya	-10.9328
▁osmaniyan	-10.9329
▁pêşkêşkirina	-10.9329
▁berf	-10.9332
mur	-10.9332
▁Qeter	-10.9332
weş	-10.9338
ny	-10.934
qan	-10.9343
▁Annan	-10.9348
▁karanîna	-10.9348
lîk	-10.9349
▁Kra	-10.9351
▁dabeşkirin	-10.9352
mak	-10.9356
▁je	-10.9356
▁guherînên	-10.9364
▁Çir	-10.9366
rar	-10.9375
▁1948	-10.9375
▁bîranînê	-10.9377
▁44	-10.938
.11.2012	-10.9381
▁Oderno	-10.9381
▁nenaskirî	-10.9383
▁1932	-10.9384
▁Binêre	-10.9385
▁hişyar	-10.9385
▁Engl	-10.9386
д	-10.9388
▁sûr	-10.9388
▁TEQÎNEK	-10.9389
diyan	-10.9393
▁Çî	-10.9394
▁Hatine	-10.9394
onî	-10.9395
▁Çalakvan	-10.9396
▁têkilî	-10.9406
rif	-10.9408
çûna	-10.9409
▁RA	-10.941
▁didan	-10.9423
▁çarenivîsa	-10.9427
▁Şemzînanê	-10.9427
▁YEK	-10.9429
png	-10.9432
▁şik	-10.9433
.06.2011	-10.9435
▁[14:2	-10.9435
▁bakura	-10.9435
▁Sîstanî	-10.9435
▁derûnî	-10.9436
▁tevgerê	-10.9437
▁Festîvala	-10.9438
▁rêkxistina	-10.9444
▁wezaret	-10.9447
▁raport	-10.9451
▁desthilatdarîyê	-10.9453
ج	-10.9455
▁naskirî	-10.9456
▁Mun	-10.9459
▁Çîrokên	-10.9461
rayê	-10.9463
form	-10.9468
▁ELÎ	-10.947
▁xak	-10.9471
ode	-10.9471
jar	-10.9471
▁agirê	-10.9473
▁Camp	-10.9474
AS	-10.9477
▁diket	-10.948
▁kil	-10.9482
▁Kurmanc	-10.9482
kt	-10.9482
▁1954	-10.9482
ف	-10.9483
▁filmê	-10.9484
▁efser	-10.9484
▁xwepêşandanek	-10.9486
ū	-10.9488
▁PARÊZGEHA	-10.9488
▁werbigirin	-10.9489
▁kêl	-10.9489
▁rêkevtinnameya	-10.949
ld	-10.949
▁Gre	-10.9491
▁1939	-10.9492
▁ewledarî	-10.9495
▁Hema	-10.9495
meta	-10.9498
▁wenda	-10.9498
zên	-10.9498
▁çîrokan	-10.9503
my	-10.9508
▁weşand	-10.951
▁komela	-10.9511
pal	-10.9512
yane	-10.9519
▁Tîr	-10.952
▁zayend	-10.953
▁dûrxistin	-10.9534
▁mijûl	-10.9537
▁Bil	-10.9542
▁çapameniyê	-10.9542
▁Hindistan	-10.9543
▁Zîn	-10.9545
wêj	-10.9548
▁Adiyemanê	-10.955
▁Diyarbekir	-10.9553
▁parlemanê	-10.9555
▁corê	-10.9557
pat	-10.9557
2011	-10.9561
▁bêt	-10.9562
▁xola	-10.9564
▁agahdarî	-10.9564
▁Qesra	-10.9565
▁Destpêk	-10.9566
▁Kul	-10.9575
▁Rom	-10.9579
▁Des	-10.958
ة	-10.9581
▁Don	-10.9585
▁Web	-10.9585
▁Kelar	-10.9591
ceae	-10.9593
▁standard	-10.9597
▁lawê	-10.9599
▁1931	-10.9599
▁Hekariyê	-10.96
-10	-10.9601
▁Herwekî	-10.9601
YAD	-10.9603
▁Sîna	-10.9604
▁IN	-10.9606
▁56	-10.9608
spî	-10.9608
iyayê	-10.9609
▁sur	-10.9609
▁xwezayê	-10.9609
▁mezinê	-10.961
▁is	-10.9614
gêr	-10.9623
▁kird	-10.963
▁pîvan	-10.9632
▁koda	-10.9633
inae	-10.9637
▁çil	-10.9638
wanê	-10.9643
▁didomîne	-10.9651
rêj	-10.9652
derê	-10.9654
iyekê	-10.9655
hez	-10.9657
▁Zir	-10.9657
▁sekinandin	-10.966
▁Col	-10.9661
▁gundiyan	-10.9662
[	-10.9662
ق	-10.9664
▁şar	-10.9666
cem	-10.9671
▁kujtî	-10.9672
▁600	-10.968
bb	-10.9681
▁nehiştina	-10.9683
bay	-10.9684
herêma	-10.9686
▁rêveber	-10.969
▁bexşa	-10.9691
▁riwekê	-10.9691
xweş	-10.9692
▁nexwest	-10.9693
▁Sim	-10.9697
▁zilam	-10.9699
▁1926	-10.9701
▁Heleb	-10.9706
▁ZÊBARÎ	-10.9706
▁civatê	-10.9707
▁xweşî	-10.9709
▁nivîsiye	-10.9711
100	-10.9712
▁darayîyê	-10.9712
▁saya	-10.9712
▁pêve	-10.9712
▁lîstin	-10.9713
▁şoreşger	-10.9715
Si	-10.9718
▁paraztin	-10.9718
▁koça	-10.972
▁with	-10.9722
▁bibêje	-10.9725
▁Wel	-10.9726
▁ÇAR	-10.9727
▁Bedlîsê	-10.973
.02.2012	-10.9736
▁Dîmeşqê	-10.9736
▁NIŞTIMANÎ	-10.9738
▁lêkolîna	-10.9745
▁xweşik	-10.9745
ju	-10.9746
part	-10.9748
▁Lor	-10.9749
▁Bexdad	-10.9754
ewar	-10.9757
So	-10.9758
▁gihandin	-10.9759
▁Dost	-10.9761
▁aşkera	-10.9762
▁Biyolojî	-10.9762
▁Edîb	-10.9762
▁çalakiya	-10.9762
▁1919	-10.9763
▁bigrin	-10.9763
oy	-10.9769
▁alîkariyê	-10.9771
▁qur	-10.9771
▁penaberan	-10.9773
▁Teyran	-10.9773
ring	-10.9775
nia	-10.9775
wen	-10.9776
meş	-10.978
▁Heval	-10.9783
▁hatibe	-10.9784
çar	-10.9784
▁xistiye	-10.9787
▁beşan	-10.9788
▁avahî	-10.9789
▁10'	-10.9792
▁hevkarîyê	-10.9793
▁47	-10.9794
atiya	-10.9799
▁şîret	-10.9807
ici	-10.981
▁avahîya	-10.9811
▁dibûn	-10.9812
▁Şebek	-10.9816
ski	-10.9816
▁Kişanak	-10.9817
▁Îtalî	-10.9818
▁1936	-10.982
▁gengeşekirin	-10.9821
▁Mehma	-10.9824
eli	-10.9826
)===	-10.9829
Ho	-10.983
Par	-10.983
▁Malbat	-10.9834
orê	-10.9836
▁nebûna	-10.9838
▁netewe	-10.9841
ses	-10.9842
▁tax	-10.9842
▁Karê	-10.9842
▁Dêrsim	-10.9845
axiv	-10.9848
.10.2012	-10.9849
''	-10.985
▁aheng	-10.9853
▁kew	-10.9853
▁Sem	-10.9853
-8	-10.9855
▁belavbûn	-10.9857
▁bisekinê	-10.9857
▁helwêsta	-10.9858
▁vegerandin	-10.9862
▁nexweşiyên	-10.9866
▁ragiahnd	-10.9871
▁heyv	-10.9873
ι	-10.9873
▁têkeliyên	-10.9875
▁liqa	-10.9876
▁Lady	-10.9876
.01.2012	-10.9879
▁Stockholm	-10.9879
BB	-10.988
▁proteîn	-10.988
▁xwenîşander	-10.9881
bûne	-10.9882
▁Peyva	-10.9882
▁Cû	-10.9884
▁parlemana	-10.9886
▁hevpeyman	-10.9889
BDP	-10.9889
▁West	-10.9891
т	-10.9892
▁qurban	-10.9894
St	-10.9895
▁dînî	-10.9895
▁otomobîl	-10.9896
▁4'	-10.9897
hed	-10.9899
▁7'	-10.99
We	-10.9902
▁hilweşandin	-10.9902
▁zilm	-10.9902
▁Erk	-10.9904
▁name	-10.9907
▁avakirinê	-10.9909
ZA	-10.9909
▁PÊŞ	-10.9912
▁dereng	-10.9915
hatina	-10.9916
▁kêr	-10.9917
▁peyman	-10.9922
▁kompaniya	-10.9922
▁rojnamevanîya	-10.9927
▁Qoretû	-10.9929
▁Siyaset	-10.993
▁1951	-10.9931
▁Cotmeh	-10.9934
gol	-10.9935
sat	-10.9936
NA	-10.9937
▁Jêrîn	-10.9937
▁Top	-10.994
▁dur	-10.994
▁hevpeymanîyê	-10.9941
▁Xwê	-10.9942
▁Tev	-10.9945
▁atomîy	-10.9947
▁bandorê	-10.9948
▁dîktator	-10.9948
nîşan	-10.995
UN	-10.995
luk	-10.995
▁Zu	-10.995
▁tuneye	-10.9951
▁cihanê	-10.9958
▁Xelkê	-10.9959
▁Endamekî	-10.9959
▁Selah	-10.9963
▁keyê	-10.9966
BÛNA	-10.9968
▁Çê	-10.9969
▁Tevî	-10.997
llah	-10.9972
▁Ober	-10.9972
▁Flora	-10.9973
▁King	-10.9979
▁nebûne	-10.9979
▁bûrî	-10.9979
▁xemgîn	-10.998
şîr	-10.998
ales	-10.9983
▁(11	-10.9985
▁felsefeyê	-10.9985
▁ElşerqElewset	-10.9986
▁[15:1	-10.9986
▁werdigire	-10.9986
▁Feqiy	-10.9986
▁bizanin	-10.9987
ans	-10.9988
▁1949	-10.9989
▁Aslan	-10.999
▁ramana	-10.999
▁Sedam	-10.9991
▁dadgeh	-10.9991
▁Nas	-10.9992
▁Derhêner	-10.9993
▁Sedir	-10.9995
▁xeyal	-10.9998
▁qanûnek	-10.9999
leg	-11.0001
▁qel	-11.0003
▁meşandin	-11.0003
▁reportê	-11.0003
▁aware	-11.001
▁Polîsên	-11.0015
▁Mih	-11.0016
▁meş	-11.0016
▁gotarekê	-11.0023
say	-11.0026
▁xwarina	-11.0027
▁Rûs	-11.0031
gotin	-11.0032
welat	-11.0033
çin	-11.0035
▁baregeha	-11.0037
▁daran	-11.0038
▁efserê	-11.0038
▁dirust	-11.0041
▁Jixwe	-11.0042
ρ	-11.0042
▁Parêzgarê	-11.0043
▁dişibe	-11.0043
▁Mensûr	-11.0043
▁Rewşen	-11.0043
▁derdixe	-11.0044
{	-11.0045
▁Paris	-11.0045
▁îs	-11.0048
▁Biçûk	-11.0049
▁Rh	-11.0049
▁Krîstyan	-11.0051
▁64	-11.0052
▁guherîna	-11.0054
stor	-11.0058
▁şêr	-11.0061
▁gerdûnê	-11.0062
▁Haw	-11.0063
▁Japanê	-11.0064
ato	-11.0067
▁rastîn	-11.0068
▁Pakistan	-11.007
esor	-11.0072
▁îlonê	-11.0075
▁Cin	-11.0077
.01.2013	-11.0079
▁pejirand	-11.008
▁Yan	-11.0081
▁And	-11.0083
▁mayî	-11.0084
mayî	-11.009
fel	-11.009
▁daxuyanîya	-11.009
▁Elmanya	-11.009
aniya	-11.0093
▁Wal	-11.0094
▁xiristiyan	-11.01
▁ÇARESERKIRIN	-11.01
▁beyannameyê	-11.0101
▁grûpê	-11.0101
▁investkarîyê	-11.0104
▁nerazîbûn	-11.0105
ima	-11.0106
▁8'	-11.0108
▁şûnde	-11.011
▁rex	-11.0112
▁Beha	-11.0112
▁Str	-11.0115
▁gola	-11.0116
syon	-11.0117
▁şehîdên	-11.0118
▁49	-11.0122
▁hej	-11.0122
*	-11.0123
▁deryaya	-11.0124
qat	-11.0125
▁Para	-11.0126
▁Hîn	-11.0126
▁viya	-11.013
▁pr	-11.0133
▁beyannameyek	-11.0133
▁Afrîkaya	-11.0133
low	-11.0134
▁bêjin	-11.0136
▁demî	-11.0137
▁Şemo	-11.0137
neyên	-11.0137
▁14'	-11.0139
▁bendên	-11.014
▁``	-11.0144
cher	-11.0144
▁Heke	-11.0146
▁pêşangehê	-11.0147
▁Hec	-11.0147
eva	-11.0148
îv	-11.0151
▁Bekir	-11.0151
▁hiştin	-11.0151
.04.2012	-11.0157
.05.2012	-11.0157
▁alikariya	-11.0157
▁berjewendiyê	-11.0157
▁Baybûrd	-11.0164
▁Sindî	-11.0164
▁Qayde	-11.0166
▁bêjedanê	-11.0167
sûr	-11.0168
ning	-11.0169
qel	-11.017
▁bandorek	-11.017
▁Evdal	-11.0174
rev	-11.0176
▁ketina	-11.0176
▁şervan	-11.0176
▁rêkevtinekê	-11.0185
▁festîvala	-11.0192
şên	-11.0195
▁piştê	-11.0197
▁kiç	-11.02
▁radyoya	-11.0202
rz	-11.0203
=0	-11.0203
▁danûstandin	-11.0204
mos	-11.0208
▁rastiya	-11.0208
▁berxwedana	-11.0212
▁dam	-11.0215
.05.2011	-11.0215
ș	-11.0215
▁[21:2	-11.0215
λ	-11.0215
▁Ebdurehman	-11.0215
▁Hewîce	-11.0215
▁CIHGIRÊ	-11.0215
▁sebaret	-11.0215
ick	-11.0216
▁xa	-11.0217
▁tora	-11.0217
şkê	-11.0217
▁1929	-11.0218
▁1921	-11.022
Ro	-11.022
▁bişînin	-11.0223
yna	-11.0223
bon	-11.0224
▁keçik	-11.0225
▁leşkerekî	-11.0227
▁qurbanîyan	-11.0228
aka	-11.0228
▁bilindên	-11.0232
▁Nur	-11.0235
bît	-11.0235
▁Yorkê	-11.024
▁awa	-11.0241
▁jorîn	-11.0242
ism	-11.0242
▁Nifûs	-11.0244
▁giyanî	-11.0244
▁63	-11.0246
▁Netewên	-11.0247
▁alozî	-11.0248
AT	-11.0249
▁Pênc	-11.025
▁Fars	-11.0251
pis	-11.0252
▁Turkî	-11.0255
cha	-11.0257
▁zarav	-11.0259
urus	-11.0261
.12.2012	-11.0261
▁Hun	-11.0261
▁Şeh	-11.0263
▁Mûş	-11.0264
▁17'	-11.0264
▁stûyê	-11.0265
▁gelo	-11.0265
▁Mamoste	-11.0266
▁ard	-11.0266
▁çep	-11.0267
hûr	-11.0268
ista	-11.027
▁gengeşekirina	-11.0271
▁Cem	-11.0272
ν	-11.0273
▁dinirxîne	-11.0273
▁terorizmê	-11.0273
▁POSTA	-11.0274
▁DYE	-11.0275
▁hun	-11.028
xu	-11.028
dewlet	-11.0281
▁Encam	-11.0287
м	-11.0287
xwarin	-11.0287
▁Mêzgirê	-11.0288
▁lêpirsînê	-11.0288
▁Şemzînan	-11.0289
▁Cam	-11.029
▁zu	-11.029
▁?	-11.029
▁olê	-11.0296
▁Arî	-11.0299
▁Nê	-11.03
▁dîl	-11.0301
▁Çapa	-11.0302
▁dîtine	-11.0303
▁Îslamîya	-11.0304
▁giyan	-11.0304
çav	-11.0304
▁siza	-11.0305
eşîr	-11.0306
▁dahatî	-11.0307
▁dewleteke	-11.0308
▁Ros	-11.0309
▁Azerbaycan	-11.0314
▁êl	-11.0322
▁18'	-11.0324
det	-11.0326
▁tevayî	-11.0327
▁Jiber	-11.0327
vat	-11.033
▁YKSS	-11.0332
▁nehêlin	-11.0333
▁bihorî	-11.0334
▁1937	-11.0335
tirk	-11.0337
▁kêfxweş	-11.0338
iyar	-11.034
▁dilgiranîy	-11.0344
▁Dezgeh	-11.0344
yaya	-11.0352
▁Almaniyayî	-11.0352
▁heywanan	-11.0352
▁gulan	-11.0353
▁ÇEKDAR	-11.0354
▁cudayên	-11.0354
▁deriyê	-11.0355
eyn	-11.0356
▁tengav	-11.0357
▁zaravayên	-11.0357
▁çareserîya	-11.0359
▁xistine	-11.036
▁esas	-11.0361
pin	-11.0361
▁peymanê	-11.0362
▁bereya	-11.0364
▁Şaredar	-11.0365
▁siwar	-11.0365
girtî	-11.0365
▁Belavbûn	-11.0365
▁taxê	-11.0366
▁Şotê	-11.0367
RAN	-11.0369
▁derbasbûna	-11.037
▁dibistanên	-11.037
▁pêşbînî	-11.0375
▁hesin	-11.0375
▁Nûr	-11.0385
ûya	-11.0386
▁nîsana	-11.039
▁OBAMA	-11.039
▁(2012)	-11.0391
▁Navbera	-11.0392
tom	-11.0392
▁wesif	-11.0392
▁Cegerxwîn	-11.0393
oj	-11.0393
▁Türk	-11.0394
tho	-11.0396
far	-11.0399
▁wêje	-11.0399
▁buye	-11.0399
▁Remezan	-11.04
▁cinsê	-11.04
dûr	-11.0401
▁mîlîtan	-11.0401
dibe	-11.0408
▁dizî	-11.0408
▁nêrîn	-11.0412
▁Aktor	-11.0414
▁tirsa	-11.0415
xel	-11.0415
fil	-11.0416
▁Dal	-11.0419
▁Romayê	-11.042
daye	-11.042
▁deyn	-11.0421
▁post	-11.0424
▁pêwîstî	-11.0424
▁pîvana	-11.0428
▁zindanê	-11.0429
▁rolek	-11.0434
oma	-11.0436
▁Bax	-11.0436
▁konferansa	-11.0437
α	-11.044
▁herêmeke	-11.044
▁awaz	-11.0442
▁rih	-11.0444
ical	-11.0445
baran	-11.0446
▁lîstikê	-11.0448
▁guhertina	-11.0449
▁Lîceyê	-11.045
▁parzemîna	-11.0451
▁Deniz	-11.0451
.09.2011	-11.0452
▁navperê	-11.0453
▁Hêvî	-11.0453
▁Beşîr	-11.0455
▁Au	-11.0455
▁Var	-11.0456
▁Pas	-11.0456
▁dixwin	-11.0456
▁Dûr	-11.0457
wel	-11.046
▁xane	-11.0461
▁د	-11.0462
▁Time	-11.0469
ria	-11.047
ketina	-11.0472
ole	-11.0473
▁dosyayên	-11.0473
▁siya	-11.0475
▁ajans	-11.0479
▁azadîyê	-11.048
▁Medyay	-11.0482
▁rêbaz	-11.0482
▁serekîyê	-11.0487
may	-11.0487
▁pare	-11.0488
▁dîwarê	-11.0491
fte	-11.0492
▁hozan	-11.0502
▁kevtine	-11.0503
▁Atlantîk	-11.0509
▁navbêra	-11.0509
▁ewropî	-11.0509
▁rasterast	-11.051
▁Xidir	-11.051
▁Girav	-11.0511
▁qey	-11.0512
▁peyam	-11.0512
▁1914	-11.0512
▁1917	-11.0513
▁Berfanbar	-11.0513
▁Cehzeran	-11.0513
▁Elkê	-11.0514
ık	-11.0516
AY	-11.0517
menî	-11.0518
kr	-11.0519
▁57	-11.0521
▁dervey	-11.0525
▁komî	-11.0526
fin	-11.053
▁Stewrê	-11.053
▁festîvalê	-11.0531
▁otomobîleka	-11.0533
▁Kaniyê	-11.054
frac	-11.0541
▁wesa	-11.0543
▁pêşveçûnên	-11.0545
riyên	-11.0551
▁Stran	-11.0553
▁gotinan	-11.0554
RP	-11.0555
▁neyê	-11.0565
rûş	-11.0566
▁Înê	-11.0566
▁ciwanên	-11.0566
▁ROJA	-11.0566
▁Fransayî	-11.0567
▁Atatürk	-11.0569
▁firehnijad	-11.0569
▁Sadiq	-11.057
▁Îmad	-11.057
▁dilovan	-11.0573
diyê	-11.0573
▁bizavkar	-11.058
▁planek	-11.0581
▁stûr	-11.0585
▁binemala	-11.0587
hîn	-11.0593
▁Konsey	-11.0595
tos	-11.0596
warê	-11.0598
Tirkiyeyê	-11.0599
▁Çekdar	-11.06
▁Jorîn	-11.06
kot	-11.0604
elle	-11.0614
▁jimara	-11.0615
▁binpê	-11.062
▁NA	-11.0621
mîl	-11.0621
▁derfetên	-11.0624
▁haya	-11.0625
▁Melkert	-11.0629
▁[10:1	-11.0629
▁HEMÛ	-11.0629
▁tebaxa	-11.0629
▁diparêze	-11.063
▁diplomatîk	-11.063
▁xan	-11.063
▁Cewad	-11.0631
▁Lêbelê	-11.0631
▁girîngî	-11.0634
IM	-11.0634
▁siyaset	-11.0637
▁guhdarî	-11.0638
▁xwepêşander	-11.064
▁bajarek	-11.064
▁Zêde	-11.0643
sı	-11.0645
▁kolanan	-11.0647
▁raportek	-11.0647
PKK	-11.0648
▁samanên	-11.065
▁hûrik	-11.0652
ک	-11.0654
ları	-11.0654
ewan	-11.0655
ndo	-11.0658
▁Park	-11.0662
tine	-11.0664
▁behs	-11.0665
cho	-11.0665
▁awayek	-11.0666
▁bûyerek	-11.0669
▁Mîl	-11.067
iana	-11.0672
▁Qanûna	-11.0676
viya	-11.068
ense	-11.0684
▁kole	-11.0688
anîna	-11.0688
▁Kuridstanê	-11.069
▁operasiyona	-11.069
▁National	-11.069
▁(2011)	-11.069
▁dîplomatîk	-11.0694
zu	-11.0695
▁lînk	-11.0695
▁Fizîkê	-11.0696
▁Carl	-11.0699
banî	-11.0699
▁dixwe	-11.0699
▁Şakir	-11.0704
▁mamosta	-11.0704
▁hoy	-11.0705
▁Muh	-11.0705
▁çînî	-11.0706
▁xizan	-11.0708
▁rastîyê	-11.0712
▁Qû	-11.0712
▁Şeref	-11.0713
▁kr	-11.072
▁kef	-11.072
ncî	-11.0721
▁Mîranî	-11.0721
▁Por	-11.0725
bera	-11.0728
▁gefên	-11.0728
▁tine	-11.0733
Ch	-11.0737
▁piş	-11.0745
▁[21:1	-11.0751
▁Google	-11.0751
▁[10:0	-11.0751
▁biharbêhn	-11.0751
▁Ebdulezîz	-11.0751
▁Biratîya	-11.0752
▁taybetmendiyên	-11.0752
▁Gorran	-11.0755
▁Mit	-11.0755
pha	-11.0759
▁balê	-11.0761
wekî	-11.0761
vik	-11.0761
▁Bern	-11.0762
▁pêşinyara	-11.0763
cal	-11.0766
▁Dîwana	-11.0769
▁gen	-11.0773
▁supa	-11.0776
▁îslamîya	-11.0777
▁|1	-11.0778
ÎR	-11.0778
roka	-11.0778
▁kontrolkirin	-11.0782
▁lêker	-11.0786
zad	-11.0789
▁Kerbela	-11.0791
▁binpêkirina	-11.0791
▁hişyarî	-11.0792
esi	-11.0793
miş	-11.0793
▁gihîşt	-11.0796
Elî	-11.0796
▁American	-11.08
TH	-11.0801
▁Zar	-11.0802
iyeta	-11.0808
▁belavkirina	-11.0809
▁tay	-11.081
▁têgihiştin	-11.0811
ə	-11.0812
▁Ant	-11.0812
▁bikartînin	-11.0812
▁enzîm	-11.0812
▁dixwazim	-11.0813
▁azerî	-11.0813
▁armancê	-11.0814
▁Mc	-11.0817
▁Xe	-11.0817
▁Che	-11.0818
▁binêre	-11.0819
▁nedin	-11.0821
▁şeşem	-11.0824
▁jiyaye	-11.0824
▁Kam	-11.0827
▁Çal	-11.0828
▁çêbûye	-11.0831
bixwîne	-11.0832
▁Leşkerê	-11.0834
▁Meys	-11.0835
▁kevirê	-11.0839
▁Jînenîgarî	-11.084
tanî	-11.0841
▁oldarî	-11.0844
qo	-11.0844
▁mîn	-11.0844
▁Eu	-11.0847
TV	-11.0849
▁BA	-11.0849
▁stêr	-11.0851
▁6'	-11.0853
▁Riya	-11.0853
▁vexwendin	-11.0853
▁raportê	-11.0857
ert	-11.0858
warî	-11.0859
▁tele	-11.086
▁Mez	-11.0865
▁hevalê	-11.0865
▁şêweyek	-11.0869
tûn	-11.0871
Er	-11.0871
yaz	-11.0871
izm	-11.0875
vaniya	-11.0876
▁Sev	-11.0876
phi	-11.0877
▁Linux	-11.088
asyona	-11.0881
cı	-11.0882
our	-11.0882
▁dengdan	-11.0886
dat	-11.0886
ûrê	-11.0888
▁Qendîl	-11.0889
Kurdistan	-11.089
rîya	-11.0893
ET	-11.0893
▁Cinsê	-11.0893
ع	-11.0894
▁Bila	-11.0895
şaristan	-11.0895
▁Memê	-11.0895
margin	-11.0896
▁keşf	-11.0896
▁Cih	-11.0896
▁hal	-11.0897
rîna	-11.0898
▁dibistanan	-11.0899
▁Kap	-11.0899
▁sen	-11.0905
▁gilî	-11.0906
▁tevay	-11.0908
▁bidestxistin	-11.0908
▁zûtir	-11.0908
▁Ço	-11.0909
▁Temo	-11.0909
▁demkî	-11.091
▁rojnameyek	-11.0911
▁Radyoy	-11.0914
▁»	-11.0915
maz	-11.0919
▁Jêderek	-11.0921
▁hewildan	-11.0923
▁pol	-11.0924
stro	-11.0925
YAR	-11.0926
▁çavê	-11.0926
îtiya	-11.0928
у	-11.0932
▁lêpirsîn	-11.0933
▁ELLAWÎ	-11.0936
▁Hizbullah	-11.0936
▁Ebdulrehman	-11.0936
ón	-11.0937
▁TRT	-11.0938
▁şor	-11.0939
▁Fizîknas	-11.0939
▁PÊKANÎNA	-11.094
▁radyo	-11.094
▁qurbanê	-11.0942
▁rewşenbîrên	-11.0942
sm	-11.0944
▁Polat	-11.0944
▁21'	-11.0945
▁gelan	-11.0945
▁demar	-11.0947
▁Mesîh	-11.0949
▁Yezdan	-11.095
▁Lau	-11.0951
▁serhejmarîyê	-11.0951
▁canê	-11.0951
▁Tew	-11.0952
▁zêdeyî	-11.0956
▁Um	-11.0958
▁normal	-11.096
enbach	-11.0961
.12.2011	-11.0961
GIR	-11.0963
şin	-11.0964
▁tijî	-11.0966
▁Zanyar	-11.0971
▁Shi	-11.0976
▁Bak	-11.0976
▁rakirina	-11.0976
vil	-11.0977
▁hinekê	-11.0978
▁banka	-11.0979
▁2004'	-11.0981
▁RÊKEVTINA	-11.0983
▁Kê	-11.0983
mun	-11.0984
▁pêzanînan	-11.0984
▁bijîn	-11.0985
▁hêk	-11.0985
rop	-11.0988
ble	-11.099
▁famîleyek	-11.0993
▁çerm	-11.0994
▁Ag	-11.0997
In	-11.0997
pur	-11.0998
col	-11.0998
ccTLD	-11.0998
ddffdd	-11.0998
▁bêhempa	-11.0998
▁Friedrich	-11.0999
▁Serxwebûn	-11.0999
▁Kujtin	-11.0999
▁Beyatî	-11.0999
▁çêbûn	-11.1
▁Raport	-11.1003
wên	-11.1005
▁California	-11.1005
▁sîn	-11.1006
ame	-11.1007
ive	-11.1008
▁Sed	-11.1008
îrê	-11.1009
▁DEWLETA	-11.1009
▁53	-11.1012
▁pêşketinên	-11.1014
▁Parleman	-11.1015
itz	-11.1015
▁çiyayî	-11.1017
▁ciyê	-11.1018
▁pêzanîn	-11.1018
»	-11.1019
ON	-11.1022
▁Yê	-11.1026
şandin	-11.1029
ete	-11.1029
wendî	-11.103
▁Rus	-11.103
▁—	-11.1035
▁Usam	-11.1037
hey	-11.1037
▁Çavdêr	-11.1038
Pa	-11.1038
îte	-11.1039
”,	-11.104
▁Usame	-11.1041
▁zir	-11.1041
▁milletê	-11.1042
▁tem	-11.1044
shi	-11.1044
▁tal	-11.1045
ûnê	-11.1046
▁Him	-11.105
▁lêkolîner	-11.105
sko	-11.1051
▁Berpirsek	-11.1053
▁organ	-11.1054
▁şêniyê	-11.1055
cih	-11.1057
▁Siya	-11.1057
▁zêdetirî	-11.1058
tiv	-11.1059
▁alaya	-11.1061
▁referandumê	-11.1061
▁Dîwan	-11.1061
ffffff	-11.1061
▁PÊŞMERGE	-11.1061
▁nûneratîya	-11.1062
eran	-11.1065
▁Taybet	-11.1066
▁karkir	-11.1066
▁Mezra	-11.1066
▁mirovahiyê	-11.1066
▁Esîl	-11.1068
▁Kesk	-11.1069
▁rêkê	-11.1069
▁Mekeyê	-11.107
▁xew	-11.107
▁qul	-11.1071
raf	-11.1071
▁buhayê	-11.1072
▁Dur	-11.1073
▁Xorasan	-11.1079
▁Japonê	-11.1085
▁Gül	-11.1087
ges	-11.109
▁serkevtin	-11.1093
▁Herî	-11.1095
graf	-11.1099
▁têkçûna	-11.11
▁polîsek	-11.1103
▁gihîjt	-11.1106
ahiyê	-11.1107
▁bilindtir	-11.1111
▁rêkxistin	-11.1114
NE	-11.1115
▁hukûmî	-11.1118
lum	-11.112
▁Baban	-11.1123
▁Cel	-11.1124
▁Daryûs	-11.1125
▁HEGER	-11.1125
okan	-11.1125
▁dixwîne	-11.1126
▁dixebitin	-11.1126
▁ermeniyan	-11.1127
▁şikeft	-11.1128
▁navendek	-11.1129
yarî	-11.113
▁Koda	-11.114
sax	-11.1142
tum	-11.1143
-12	-11.1143
▁ewlekarî	-11.1143
rid	-11.1146
▁lêborînê	-11.1147
▁xwedayê	-11.1149
una	-11.1151
▁BAR	-11.1152
keve	-11.1156
▁arêşedar	-11.1158
▁Mag	-11.1161
▁êk	-11.1162
▁lîstik	-11.1164
ife	-11.1166
▁derya	-11.1166
Co	-11.1167
tirs	-11.1167
▁bixwîne	-11.1168
cot	-11.1172
▁cer	-11.1173
▁Bawer	-11.1175
▁Tre	-11.1176
▁58	-11.1178
enê	-11.1181
▁pasevanê	-11.1182
▁Cihû	-11.1182
.99%	-11.1189
kevçiyê	-11.119
án	-11.119
▁Tewrat	-11.1192
▁König	-11.1192
▁Ronahî	-11.1193
▁Tirkîyeyê	-11.1203
▁zirar	-11.1204
▁digihîje	-11.1205
▁Rexne	-11.1205
▁serhejmarîya	-11.1205
best	-11.121
▁hewal	-11.1211
▁2'	-11.1214
▁Çinara	-11.1216
▁mît	-11.1218
hatin	-11.1222
nayê	-11.1226
qed	-11.1226
▁xera	-11.1226
▁biser	-11.1226
▁Hz	-11.1228
–20	-11.1229
▁Berlînê	-11.1232
▁seh	-11.1235
▁protesto	-11.1235
▁Kew	-11.1237
bert	-11.1239
▁profesor	-11.1239
serê	-11.1241
▁îranê	-11.1244
▁navxweyîyên	-11.1245
▁mez	-11.1245
pêk	-11.1251
▁hefteyek	-11.1252
▁Astronom	-11.1252
▁(2009)	-11.1253
▁(1928	-11.1253
▁Henry	-11.1253
▁digrin	-11.1254
▁pirtûkan	-11.1254
▁Albert	-11.1255
▁nizm	-11.1256
oto	-11.1257
▁Frankfurt	-11.1257
mber	-11.1259
▁pêşandan	-11.1262
▁cihekê	-11.1262
▁çak	-11.1262
▁gulebaran	-11.1263
▁DER	-11.1264
▁herçar	-11.1266
atus	-11.1266
▁Zarokên	-11.1269
ß	-11.1271
▁hatiya	-11.1272
▁destnîşankirî	-11.1274
▁mebest	-11.1277
▁Tax	-11.129
▁serekîya	-11.1292
▁duv	-11.1294
END	-11.1298
▁ewle	-11.1301
ida	-11.1301
▁ragehandin	-11.1305
für	-11.1306
▁zaf	-11.1308
▁Star	-11.1309
▁background	-11.1312
ango	-11.1313
▁Wîkîpediya	-11.1317
▁BEHS	-11.1317
▁bikelînin	-11.1317
▁veşandî	-11.1317
▁radigihînin	-11.1317
ndî	-11.132
▁1912	-11.1322
oides	-11.1323
▁jehr	-11.1324
▁Ermeniyan	-11.1324
kut	-11.1325
▁kese	-11.1325
iba	-11.1327
▁Evîn	-11.1329
▁KCD	-11.133
▁Kitab	-11.1331
hên	-11.1333
▁yasayê	-11.1334
▁hevjîna	-11.1339
▁bindest	-11.1339
▁kompanya	-11.1341
▁bihîstin	-11.1342
dirêj	-11.1343
▁Den	-11.1349
▁otomobîlê	-11.1352
▁kurte	-11.1352
▁komkujiyê	-11.1354
▁gelhe	-11.1359
▁13'	-11.1361
▁It	-11.1362
▁Ewrûpa	-11.1365
▁oldar	-11.1366
▁ajansên	-11.1367
▁Mol	-11.1369
▁Lîste	-11.137
▁Berlîn	-11.137
▁Mad	-11.1372
▁Mitt	-11.1375
▁madeyên	-11.1376
ÎK	-11.138
▁hevrik	-11.1381
▁Lavrov	-11.1382
▁êzîdî	-11.1382
▁Freud	-11.1382
▁agehdar	-11.1382
▁Kristof	-11.1383
▁Qersê	-11.1387
с	-11.1387
irê	-11.139
▁Taliban	-11.1392
lîst	-11.1394
▁xeber	-11.1395
▁rexneyê	-11.1396
ani	-11.1396
▁Gulanê	-11.1397
``	-11.1397
▁sibatê	-11.1398
▁zindan	-11.1399
▁Berdevkê	-11.1403
▁Yaney	-11.1405
Amerîka	-11.1406
▁Selam	-11.1406
hejmar	-11.1408
▁Cir	-11.141
▁opozîsyonê	-11.1412
▁polîsî	-11.1413
▁Nifûsa	-11.1414
▁Wes	-11.1415
▁rûdan	-11.1416
▁Çil	-11.1416
con	-11.1417
ziman	-11.1418
xaneyê	-11.1419
▁Goma	-11.1419
▁corane	-11.1421
neya	-11.1421
▁giraniya	-11.1422
mûr	-11.1426
▁havînê	-11.1427
▁romanên	-11.143
▁March	-11.143
▁Îmarat	-11.1431
▁danê	-11.1432
şîne	-11.1433
▁Derman	-11.1439
▁1952	-11.1441
▁sîyasetvan	-11.1442
▁lew	-11.1442
hîd	-11.1444
▁serhildanên	-11.1445
▁Land	-11.1446
▁riwek	-11.1447
▁angaşt	-11.1447
▁Bextyar	-11.1447
▁Dilovan	-11.1448
▁Perwer	-11.1448
▁helbestê	-11.1448
fre	-11.1449
▁Hevdem	-11.1449
▁1942	-11.145
rey	-11.1452
dey	-11.1453
▁Bri	-11.1454
▁Semsûrê	-11.1454
▁peyvdar	-11.1456
▁berevanîya	-11.1459
EYÎ	-11.1461
▁demokrasiyê	-11.1461
▁Real	-11.1461
▁kuştî	-11.1464
▁nizanin	-11.1466
▁Haşim	-11.1467
▁Lubnanê	-11.1468
▁pas	-11.1469
▁kampa	-11.1471
▁Vo	-11.1471
▁kev	-11.1472
▁şêweyê	-11.1474
999	-11.1476
▁kol	-11.1477
▁tewaw	-11.1478
▁EWLEDARÎYÊ	-11.1481
▁Lee	-11.1482
▁Bro	-11.1485
▁Paşî	-11.1487
▁çîna	-11.1489
▁komarî	-11.1491
▁hevpeyvînê	-11.1491
▁derî	-11.1492
ketî	-11.1494
▁nêzikî	-11.1495
▁qû	-11.1496
▁Swîsre	-11.1502
▁serkeftina	-11.1502
▁ch	-11.1503
▁Pil	-11.1506
▁kat	-11.1508
qar	-11.1511
salî	-11.1512
▁Berpirsên	-11.1512
ο	-11.1513
.11.2011	-11.1513
▁Rojhelat	-11.1513
▁Culemêrgê	-11.1513
▁Jinan	-11.1513
▁kurtenavê	-11.1514
▁(2010)	-11.1514
▁diherike	-11.1514
▁bombek	-11.1514
▁encumena	-11.1517
▁1935	-11.1517
hew	-11.152
▁weşanxaneya	-11.152
▁pêşberî	-11.152
▁cin	-11.1524
▁Akademiya	-11.1524
▁projeyî	-11.1525
▁Lam	-11.1528
▁5'	-11.1535
▁edebiyat	-11.1536
▁qedexekirina	-11.1537
▁BZ	-11.1539
cû	-11.1539
▁xebitandin	-11.154
▁sekinî	-11.1542
▁model	-11.1543
▁rûs	-11.1546
▁Tam	-11.1547
▁daxuyanîyan	-11.155
▁peqîn	-11.1557
erd	-11.1558
2)	-11.1558
▁Ford	-11.156
▁ruh	-11.1563
▁Bend	-11.1565
sanî	-11.1565
▁reportek	-11.1567
▁Zor	-11.1568
ino	-11.1568
▁başûrî	-11.1569
ferî	-11.1571
▁dijberî	-11.1573
▁س	-11.1573
eq	-11.1576
▁paşve	-11.1577
.04.2011	-11.1579
.08.2010	-11.1579
▁Derwêş	-11.1579
▁teoriya	-11.1579
▁Reftar	-11.158
▁April	-11.158
▁1908	-11.1581
Per	-11.1584
ero	-11.1585
▁Kulîlk	-11.1585
▁jimareke	-11.1585
▁pêşketî	-11.1587
▁zanîngeh	-11.1587
▁Hawar	-11.1589
oidea	-11.1592
▁Elawî	-11.1593
▁ban	-11.1593
▁Tour	-11.1595
▁Bijîşk	-11.1599
▁[]	-11.16
riş	-11.16
bad	-11.1603
KAR	-11.1604
meya	-11.1605
jêr	-11.1605
ford	-11.1606
▁taybetîya	-11.1606
▁Rojnameyê	-11.161
gov	-11.161
▁doktor	-11.1611
▁otonom	-11.1612
▁ja	-11.1614
▁arêşeyan	-11.1614
▁binpêkirin	-11.1616
pey	-11.1618
▁Melayê	-11.1619
▁Xerab	-11.162
grê	-11.1621
▁Erziromê	-11.1623
mey	-11.1624
▁Mizgefta	-11.1625
▁hole	-11.1631
IŞ	-11.1633
▁beh	-11.1635
▁Mihemedê	-11.1637
tions	-11.1638
sazî	-11.164
▁His	-11.1641
DP	-11.1641
content	-11.1646
▁ciwanan	-11.1647
▁Hêriş	-11.1647
▁helbijartin	-11.1649
▁bazarên	-11.165
▁1900	-11.1652
teya	-11.1654
▁Sefîn	-11.166
▁Faris	-11.166
NO	-11.1661
▁Haco	-11.1661
▁êrişa	-11.1661
▁karwanê	-11.1666
▁cam	-11.1668
▁giringên	-11.1668
▁zîndana	-11.1669
▁Eta	-11.1669
ws	-11.1671
vend	-11.1674
▁sir	-11.1674
gey	-11.1675
▁1980'	-11.1677
▁Eyn	-11.1677
▁sêdaredan	-11.1678
▁peyker	-11.1678
çu	-11.1685
▁hilweşandina	-11.1685
▁kujer	-11.1687
▁Hans	-11.1688
▁salek	-11.1694
▁2005'	-11.1694
▁cotkar	-11.1696
▁Bav	-11.1696
mara	-11.1699
ual	-11.1708
▁raste	-11.1711
▁hewce	-11.1711
▁alîyek	-11.1713
▁700	-11.1714
▁Şembî	-11.1715
▁dostane	-11.1716
▁lewma	-11.1717
▁qew	-11.1718
▁Joseph	-11.1718
▁KCK	-11.1719
wêr	-11.1723
▁Amade	-11.1723
mad	-11.1724
▁Hind	-11.1727
▁helîkopter	-11.1729
▁bicihkirin	-11.173
tanê	-11.1734
▁havîna	-11.1734
▁matematîk	-11.1735
▁azadkirina	-11.1738
▁çalakvanên	-11.174
▁Gra	-11.1744
▁vegeriyan	-11.1745
▁pêr	-11.1745
sse	-11.1748
▁hijmarek	-11.1748
asyon	-11.175
zor	-11.1751
▁kevnare	-11.1753
▁papa	-11.1754
Kurdî	-11.1754
▁xoy	-11.1754
▁peş	-11.1754
▁Lîstik	-11.1756
▁3-4	-11.1756
bajar	-11.1757
▁Name	-11.1761
▁çareseriya	-11.1765
sul	-11.1766
ngê	-11.1767
oni	-11.1767
▁ferheng	-11.1767
stik	-11.1768
seya	-11.1769
▁28'	-11.1769
▁Sovyetê	-11.177
azî	-11.177
▁pêşxistin	-11.177
▁Muzîk	-11.177
▁xwenîşanderan	-11.1771
ال	-11.1773
▁ezmûn	-11.1774
▁berhevkirin	-11.1774
▁1927	-11.1776
hing	-11.1777
▁gal	-11.1778
înên	-11.178
▁MADDEYA	-11.1781
▁paraztî	-11.1781
▁Aboriy	-11.1782
▁tevlihev	-11.1782
▁Şew	-11.1782
▁Bûn	-11.1784
▁Ebdulla	-11.1784
▁Pî	-11.1788
▁kirmanckî	-11.1789
▁dawîn	-11.1789
▁nedi	-11.1793
▁ab	-11.1794
pus	-11.1795
▁nahên	-11.1796
poş	-11.1796
▁hejar	-11.1796
▁sernavê	-11.1796
▁Huseynî	-11.1796
enî	-11.1796
▁riz	-11.1797
▁Latînî	-11.1799
▁gehişt	-11.1799
danên	-11.18
▁nerazîbûnê	-11.1801
▁(12	-11.1802
▁serkirde	-11.1803
gehek	-11.1805
▁wêneyek	-11.1807
▁hejmarên	-11.181
şah	-11.181
▁Wêjeyê	-11.1813
034	-11.1814
▁bergiriy	-11.1818
▁rojek	-11.1818
▁Biryare	-11.182
▁nêrîna	-11.182
▁Hot	-11.1821
▁piştevaniy	-11.1822
▁bixwazin	-11.1823
yîn	-11.1824
▁dorê	-11.1827
▁mast	-11.183
▁gotinêye	-11.1831
▁rêbazê	-11.1835
▁pestan	-11.1835
şêr	-11.1835
rma	-11.1838
▁vegera	-11.1838
ico	-11.1839
▁dîplomat	-11.184
▁peqîna	-11.1841
▁GENGEŞE	-11.1842
▁mizgefta	-11.1842
▁Tîm	-11.1842
xwîn	-11.1844
mek	-11.1846
ville	-11.1846
ÎYÊN	-11.1846
▁aborîyê	-11.1847
▁Radio	-11.1848
tayî	-11.1848
ë	-11.1849
▁Eliraqîye	-11.1849
▁GOMANBAR	-11.1849
▁Mikayel	-11.1849
▁NIHA	-11.1849
▁Muttekî	-11.1849
▁pêşwaziya	-11.1849
▁KOMAR	-11.1849
▁derbikeve	-11.185
▁xebitiye	-11.185
bah	-11.185
▁Şot	-11.185
▁çavkanî	-11.1851
alis	-11.1852
▁Hamid	-11.1852
▁22'	-11.1852
▁êrişî	-11.1852
▁Hemko	-11.1852
▁Quran	-11.1853
▁bibêjin	-11.1854
▁awareyan	-11.1857
ifer	-11.186
▁Kanala	-11.1861
▁5-	-11.1862
sco	-11.1862
▁jimareka	-11.1865
qas	-11.1866
endorf	-11.1866
kh	-11.1867
qedeh	-11.1868
▁hevpeymanan	-11.1872
▁bazarê	-11.1872
▁Keç	-11.1874
▁Lîs	-11.1874
▁br	-11.1878
▁çûk	-11.1878
ule	-11.188
▁Pre	-11.1881
▁serwerî	-11.1881
▁(16	-11.1883
dis	-11.1884
▁KX	-11.1887
▁sin	-11.1888
nax	-11.1892
okî	-11.1893
▁derew	-11.1893
rich	-11.1893
dina	-11.1895
▁Dol	-11.1897
▁Bazîdê	-11.1899
▁baregehên	-11.19
▁Ran	-11.1901
▁aliya	-11.1903
▁îlankirin	-11.1904
ops	-11.1904
▁têt	-11.1905
▁xwarineke	-11.1908
▁Pala	-11.1908
▁sinorê	-11.1909
▁Sîn	-11.1913
▁jêder	-11.1914
▁Kanal	-11.1916
τ	-11.1917
▁bixwînin	-11.1917
▁Xelîfe	-11.1918
▁ibn	-11.1919
▁komîte	-11.1919
▁înglîzî	-11.1922
▁ر	-11.1922
îla	-11.1922
▁nizîk	-11.1923
▁gotarên	-11.1923
ath	-11.1925
kara	-11.1927
▁biwarî	-11.193
cy	-11.193
▁Tv	-11.1933
▁kg	-11.1933
▁Dibêjin	-11.1935
▁deşt	-11.1936
▁hikumeta	-11.1937
▁rejim	-11.1938
▁af	-11.1942
-6	-11.1944
▁gelheya	-11.1945
▁nûnerîya	-11.1949
îyeka	-11.1954
▁qut	-11.1958
roz	-11.196
▁Gun	-11.1968
ins	-11.1969
EW	-11.1984
och	-11.1984
bawer	-11.1984
zanê	-11.1985
eder	-11.1986
▁Dexîl	-11.1986
▁Agahî	-11.1987
▁stand	-11.1988
▁seke	-11.199
▁1934	-11.1991
▁Kay	-11.1992
▁rûmet	-11.1993
▁televizyona	-11.1996
▁Rez	-11.2001
▁medyaya	-11.2001
bendî	-11.2002
ANA	-11.2005
▁esker	-11.2007
▁sembol	-11.2007
▁Cum	-11.2007
▁rewşenbîrîyê	-11.2008
zanîn	-11.2012
▁xur	-11.2015
▁800	-11.2015
▁Cent	-11.2015
▁parliyament	-11.2016
▁vedike	-11.202
wl	-11.2022
▁FC	-11.2022
news	-11.2023
▁fişar	-11.2023
gay	-11.2023
▁hemdem	-11.2023
▁vexwarin	-11.2026
▁girtîyên	-11.2026
kevin	-11.2029
▁gewre	-11.2032
▁hevdîtinan	-11.2034
▁Petrol	-11.2034
▁gî	-11.2037
recî	-11.2041
▁çareseriyê	-11.2042
Lê	-11.2044
▁Kok	-11.2049
▁1928	-11.2051
▁herin	-11.2052
▁program	-11.2054
▁wênesaz	-11.2055
▁[9:4	-11.2056
▁şirket	-11.2056
▁meydana	-11.2057
▁Putin	-11.2058
▁UNESCO	-11.2058
▁AK	-11.206
dol	-11.2064
▁dijwarîyê	-11.2068
▁polîtîkayê	-11.2069
▁bandoreke	-11.207
▁Fl	-11.2071
▁milîtan	-11.2077
▁nivîsa	-11.2079
vanan	-11.208
▁dikişîne	-11.2081
rag	-11.2082
Br	-11.2083
▁ceh	-11.2083
ح	-11.2083
▁pûşper	-11.2087
▁tena	-11.2088
ight	-11.2089
▁(1	-11.209
▁Cil	-11.2091
▁gavên	-11.2093
▁dirav	-11.2097
was	-11.21
▁saziya	-11.2111
▁qal	-11.2112
▁kurmanc	-11.2112
▁Qar	-11.2113
▁heftem	-11.2113
▁poz	-11.2115
▁Pin	-11.2116
ndin	-11.2116
▁parêzgehek	-11.212
▁Hesenê	-11.212
Hu	-11.212
▁aktor	-11.212
▁95	-11.2121
anda	-11.2121
dead	-11.2123
▁BRÎTANIYA	-11.2125
▁hêjmara	-11.2126
▁Internet	-11.2127
▁sibehî	-11.2127
▁Herçend	-11.2128
▁Kele	-11.213
ess	-11.2131
▁zimannas	-11.2133
▁Bell	-11.2135
newe	-11.2137
▁neteweya	-11.2138
▁Parêzgeh	-11.2139
▁Ferman	-11.2139
▁zêrîn	-11.2143
▁Pirsa	-11.2147
▁hormon	-11.2147
▁Berdereşê	-11.2149
cle	-11.215
▁il	-11.2155
▁mamostayê	-11.2157
▁sek	-11.2161
▁ت	-11.2162
▁şaxê	-11.2163
▁Mey	-11.2163
▁miha	-11.2164
bes	-11.2165
▁Îzmîrê	-11.2167
▁Pri	-11.2169
▁(?)	-11.2173
▁jidest	-11.2174
endam	-11.2175
▁Qi	-11.218
▁fahm	-11.2181
pêç	-11.2182
▁76	-11.2184
▁daxuyaniyê	-11.2185
▁taxek	-11.2187
;&	-11.2189
lm	-11.2189
ding	-11.219
fîlm	-11.2191
▁Zeng	-11.2192
▁51	-11.2192
▁Kellaterzan	-11.2196
▁QANÛNÊ	-11.2196
▁RÛSIYA	-11.2196
▁nihênî	-11.2196
▁hizar	-11.2197
▁lezgîn	-11.2197
▁Angeles	-11.2198
▁HAŞIMÎ	-11.2199
▁Armanc	-11.22
▁nanê	-11.22
Nav	-11.2201
▁Şêxanê	-11.2203
▁Fr	-11.2203
tidae	-11.2203
ğı	-11.2204
▁firokeyên	-11.2204
kul	-11.2206
darîya	-11.2207
eyeka	-11.2208
▁tawanan	-11.2208
▁bizav	-11.2209
▁agahîyan	-11.2211
▁pêncem	-11.2212
▁bûm	-11.2219
▁Xwendin	-11.2219
▁DERVEYÊ	-11.2222
lli	-11.2223
mêr	-11.2223
TE	-11.2226
bên	-11.2226
ayi	-11.2227
▁Biryara	-11.2228
▁(15	-11.2228
nîk	-11.2228
▁Eşîr	-11.2228
▁niv	-11.2229
▁dendik	-11.2231
▁bernameyê	-11.2233
▁bajarokek	-11.2234
barê	-11.2236
▁cenga	-11.2237
ute	-11.2239
To	-11.2241
spor	-11.2244
dayê	-11.2246
▁afirand	-11.2246
▁maz	-11.2247
▁nede	-11.2248
▁HEVWELATÎ	-11.2249
niha	-11.2249
PAR	-11.2253
▁Bet	-11.2253
beya	-11.2255
▁deran	-11.2259
▁Got	-11.2259
▁germahiy	-11.226
▁herême	-11.2262
▁piştgîrîy	-11.2265
rêt	-11.2265
▁Erxeniyê	-11.2267
▁GUFT	-11.2267
▁dabirrayî	-11.2267
▁ziyaret	-11.2267
▁aboriyê	-11.2267
▁Pêncşembî	-11.2267
▁MAFÊ	-11.2268
▁ragihandine	-11.2268
▁Xirbê	-11.2268
▁bigihîne	-11.2268
kariyê	-11.2268
▁Nebî	-11.2271
▁kêleka	-11.2273
▁Will	-11.2274
▁Naz	-11.2276
▁Sunneyî	-11.2277
keş	-11.2277
▁wexta	-11.2279
tta	-11.2279
▁dihîne	-11.2281
▁standina	-11.2282
▁binemayê	-11.2284
▁berpirsekî	-11.2285
▁hildi	-11.2285
▁KURDAN	-11.2287
fr	-11.2287
▁Kurdish	-11.2291
▁91	-11.2292
opo	-11.2294
▁cîbicîkirin	-11.2294
naz	-11.2295
▁Bang	-11.2298
▁Rengê	-11.2301
▁Tûnis	-11.2301
▁78	-11.2301
uer	-11.2305
▁Stembol	-11.2305
▁peywendîyeka	-11.2309
▁Ça	-11.2309
▁Sad	-11.231
▁pîşesazîyê	-11.2311
▁Meydana	-11.2311
▁IV	-11.2312
act	-11.2314
▁rengên	-11.2315
▁kandîdkirina	-11.2316
etên	-11.2317
▁BEŞDARÎY	-11.2318
îra	-11.2319
pas	-11.2319
▁54	-11.232
▁projeyek	-11.2321
▁Kürt	-11.2321
▁gil	-11.2323
▁serxwebûnê	-11.233
▁Eşîra	-11.233
▁Gaz	-11.2331
▁bihête	-11.2331
▁Gr	-11.2334
kurdî	-11.2336
▁berz	-11.2338
wikipedia	-11.2338
▁CEJN	-11.2338
▁Weqfa	-11.2338
▁pêşvebirina	-11.2338
▁(2005)	-11.2338
▁celeb	-11.2339
▁Sumer	-11.2339
▁Rûpel	-11.2339
▁Newzad	-11.234
▁daxuyanî	-11.234
▁München	-11.2342
tia	-11.2344
▁Rêzdar	-11.2346
▁opozisiyonê	-11.2348
▁hertimî	-11.2348
dank	-11.2351
▁stranan	-11.2355
biya	-11.2357
DER	-11.2359
▁alim	-11.236
pre	-11.2364
▁Medan	-11.2364
uri	-11.2365
▁zanistiyê	-11.2365
law	-11.2366
▁Zîlan	-11.2366
▁1905	-11.2369
▁xwedanê	-11.237
ografî	-11.2371
▁North	-11.2381
▁êşkence	-11.2383
▁Loma	-11.2383
▁Bandor	-11.2391
stên	-11.2394
▁rengîn	-11.2395
▁rêvebirên	-11.2396
ül	-11.2397
▁serokatî	-11.2399
ł	-11.2399
▁dengdana	-11.2401
rge	-11.2403
▁damezrênerê	-11.2404
▁Pars	-11.2405
▁sosret	-11.2405
▁eşîreke	-11.2407
▁dinya	-11.2409
▁DÎYALA	-11.241
▁neqanûnî	-11.241
▁Dilşad	-11.241
▁Nar	-11.2412
▁aşitiyê	-11.2413
▁nasname	-11.2413
▁serkirdatîy	-11.2414
▁Xaney	-11.2417
=2|	-11.2417
ştin	-11.2417
▁taybetîyê	-11.2419
▁axiftin	-11.2419
▁karîn	-11.242
dax	-11.242
▁dewr	-11.2421
yeyê	-11.2423
▁rabi	-11.243
▁tesîr	-11.2431
girin	-11.2431
▁Kin	-11.2431
▁sitem	-11.2432
▁bawermend	-11.2435
▁miletê	-11.2436
xwar	-11.2436
▁qonaxên	-11.2437
▁derdorê	-11.2438
▁mod	-11.2439
▁koçberî	-11.2442
▁jîyane	-11.2445
▁class	-11.2445
&#	-11.2446
▁Eh	-11.2447
▁partîyan	-11.2447
orî	-11.2447
▁rabû	-11.2448
▁dihête	-11.2448
gera	-11.2449
▁form	-11.2453
▁hêzeke	-11.2453
▁yekîtiy	-11.2454
▁Rev	-11.2455
▁parçeyek	-11.2456
▁şahî	-11.2456
▁piştevanên	-11.246
▁Farqîn	-11.2464
▁Ray	-11.247
▁Sab	-11.2472
▁Şan	-11.2472
hej	-11.2475
dok	-11.2475
▁tixûbê	-11.2478
▁Farisî	-11.2479
▁komel	-11.2479
▁Ron	-11.2479
▁dahat	-11.2482
▁dokument	-11.2483
.07.2010	-11.2483
▁FRANSA	-11.2483
▁[21:3	-11.2483
▁ewlehiyê	-11.2483
▁navber	-11.2484
▁belku	-11.2484
▁rûniştinek	-11.2485
▁End	-11.2486
▁SEDR	-11.2486
▁nivîsandiye	-11.2488
▁pêkhateyên	-11.2488
▁wilo	-11.2488
▁wizeya	-11.2489
▁Ph	-11.2489
▁Com	-11.2489
ue	-11.2489
▁160	-11.249
ves	-11.2491
▁çavdêr	-11.2493
▁Dîndar	-11.2495
▁kifşkirin	-11.2497
▁aus	-11.2497
▁enerjî	-11.2498
▁Şoreşger	-11.25
ulus	-11.2502
▁rojnamevanîyê	-11.2503
▁bazirganiyê	-11.2504
▁bazirgan	-11.2505
▁var	-11.2508
▁Firatê	-11.2511
▁oto	-11.2514
▁şûr	-11.2516
▁62	-11.2516
▁ç	-11.2519
▁teslîm	-11.2521
▁federalî	-11.2523
vana	-11.2523
▁German	-11.2524
▁Îz	-11.2524
▁Balafirgeh	-11.2527
▁Maria	-11.2527
bijar	-11.2528
xal	-11.2529
▁axaftinek	-11.253
▁sem	-11.2531
girtinê	-11.2533
TIR	-11.2534
▁Pakistanî	-11.2535
wana	-11.2538
alîzm	-11.254
▁Sûr	-11.2541
▁rewşên	-11.2541
▁`	-11.2544
xem	-11.2544
▁betal	-11.2544
xer	-11.2547
▁har	-11.2548
▁şan	-11.2548
▁zê	-11.2551
IYÊ	-11.2551
▁Hûr	-11.2552
▁Tem	-11.2552
▁Boz	-11.2552
▁şanda	-11.2554
▁Selahattî	-11.2556
▁Yilmaz	-11.2556
▁Cewher	-11.2556
▁naskirina	-11.2557
▁Cîhad	-11.2557
▁dagîr	-11.2557
▁Moskow	-11.2558
zêde	-11.2563
▁Rojname	-11.2565
yla	-11.2565
▁Dêrikê	-11.2565
▁Împaratoriy	-11.2567
▁Serhedê	-11.2569
▁Pat	-11.2575
▁evsal	-11.2575
▁leheng	-11.2576
anthus	-11.2577
Tu	-11.2579
▁tr	-11.258
ime	-11.2584
▁vedîtina	-11.2587
▁şiyan	-11.2588
yp	-11.2594
▁çu	-11.2597
▁Çoman	-11.2597
▁Navçe	-11.2598
mark	-11.26
▁sînemayê	-11.2602
▁sedê	-11.2602
▁NAVA	-11.2603
▁corên	-11.2606
▁2000'	-11.2608
▁nivis	-11.261
▁hêl	-11.2612
derî	-11.2612
▁guhdar	-11.2615
▁Gercan	-11.2616
stanê	-11.2617
▁Seyf	-11.2619
▁law	-11.2619
▁Emr	-11.2623
▁180	-11.2625
diz	-11.2626
ō	-11.2629
▁Muhammed	-11.2629
▁brîndar	-11.2629
▁Kongirey	-11.2629
▁kevçî	-11.263
▁HETA	-11.263
▁dayin	-11.2631
▁operasyonan	-11.2631
▁mêş	-11.2632
▁nehatîye	-11.2633
▁Welîd	-11.2633
▁zimanzan	-11.2634
▁Masî	-11.2634
▁sepandin	-11.2635
aran	-11.2635
▁agirbestê	-11.2636
Pe	-11.2638
nay	-11.2638
▁bihata	-11.2645
▁pîs	-11.2648
▁Dokan	-11.2649
▁têda	-11.265
▁Çe	-11.2651
▁Bîl	-11.2653
isch	-11.2653
▁sil	-11.2655
▁Wall	-11.2656
▁Wu	-11.2656
▁navdarê	-11.266
DYA	-11.2662
▁Sha	-11.2662
▁pil	-11.2663
pet	-11.2664
▁berbijarê	-11.2664
vak	-11.2664
ér	-11.2664
▁pla	-11.2666
▁Girava	-11.2667
▁avedankirina	-11.2668
▁Koçer	-11.2669
▁berev	-11.267
ston	-11.2672
▁mijdar	-11.2672
▁Şeva	-11.2674
▁hemberê	-11.2675
bîne	-11.2675
▁dax	-11.2677
▁mayin	-11.2678
▁Gundî	-11.2678
▁îdîa	-11.2679
çan	-11.2682
▁digihîne	-11.2683
▁Hama	-11.2688
rîs	-11.2689
▁77	-11.2691
▁Nan	-11.2692
xir	-11.2692
▁amadeye	-11.2692
▁hefte	-11.2694
sha	-11.2695
▁Ebdulba	-11.2699
▁Opera	-11.27
▁Nûh	-11.27
▁bel	-11.2701
▁rawestîne	-11.2702
▁çerçovey	-11.2704
▁Birîndar	-11.2705
thi	-11.2708
▁daynin	-11.2708
sna	-11.2708
▁Sebrî	-11.2714
▁dînê	-11.2714
▁derbaskirin	-11.2719
▁piştevanî	-11.2721
▁Saz	-11.2722
▁68	-11.2723
▁başî	-11.2724
şim	-11.2726
▁core	-11.2726
Kom	-11.2727
▁weku	-11.2728
▁25'	-11.2728
▁êrişê	-11.2729
ous	-11.2729
▁Bla	-11.273
▁his	-11.2731
▁giringî	-11.2732
siyan	-11.2734
Îran	-11.2737
▁siyasiya	-11.2738
tiyan	-11.2738
▁2020	-11.2738
▁sûc	-11.2739
tera	-11.2741
atîya	-11.2744
▁KESAN	-11.2745
▁ziyanek	-11.2749
bax	-11.2751
▁fîzîknasê	-11.2751
▁daxuyanîyên	-11.2753
liyê	-11.2753
qal	-11.2753
Min	-11.2754
karîya	-11.2755
▁sembola	-11.2755
▁Xwar	-11.2756
istana	-11.2757
meh	-11.2757
▁Tro	-11.2758
▁projeyan	-11.2758
▁nîsanê	-11.2759
▁Rêz	-11.2759
▁heremê	-11.276
▁Wil	-11.2764
▁Giravê	-11.2764
▁2007'	-11.2769
▁wergir	-11.2771
▁sh	-11.2772
sol	-11.2774
▁Duyem	-11.2775
▁2008:	-11.2776
efefef	-11.2778
▁[9:5	-11.2778
▁psîkolojîk	-11.2778
▁tayîbet	-11.2778
▁senator	-11.2778
▁(2004)	-11.2778
▁Jackson	-11.2778
▁turk	-11.2779
▁Germîyan	-11.2779
▁bikarhêner	-11.278
zîk	-11.278
▁Murat	-11.2784
▁1758	-11.2784
▁Sînor	-11.2787
▁helwest	-11.2788
▁hevdem	-11.2788
▁Mur	-11.2788
▁elektronîk	-11.2788
▁rabe	-11.279
bih	-11.279
▁derdan	-11.2791
▁125	-11.2795
sdorf	-11.2795
▁gelawêj	-11.2796
▁serdaneka	-11.2796
vên	-11.28
Iraqê	-11.2801
Ke	-11.2804
ati	-11.2805
▁azar	-11.2808
—	-11.281
beg	-11.2812
▁mus	-11.2813
▁însan	-11.2816
▁MU	-11.2817
▁DEMA	-11.2819
▁partîyê	-11.282
▁ş	-11.2822
iyye	-11.2823
ori	-11.2824
TÎ	-11.2824
▁seroka	-11.2829
▁parêzgeh	-11.2831
▁Ekber	-11.2831
eus	-11.2832
▁derfeta	-11.2833
rol	-11.2833
▁jêderan	-11.2834
WA	-11.2834
▁88	-11.2836
300	-11.2836
▁mijaran	-11.2837
▁stû	-11.2839
▁ferhenga	-11.2842
▁Êrîşa	-11.2846
▁dadê	-11.2851
ص	-11.2853
▁AFGANISTAN	-11.2853
▁Sîlvana	-11.2853
▁Berxwedan	-11.2853
▁Zehawî	-11.2853
▁(2000)	-11.2853
abî	-11.2854
▁hovane	-11.2854
▁Casim	-11.2854
▁DIXWAZIN	-11.2855
iyeyê	-11.2855
Iraq	-11.2856
▁Kakeyî	-11.2856
▁serokdewletê	-11.2857
TO	-11.2859
▁kanalên	-11.2861
▁Rehîm	-11.2861
▁şahid	-11.2862
▁Yêkgirtî	-11.2862
▁Qez	-11.2863
▁Mek	-11.2868
▁Deme	-11.2868
▁ajalên	-11.2868
▁stêrk	-11.2869
▁Aşûrî	-11.2871
▁tî	-11.2871
Qa	-11.2872
▁Hunerê	-11.2873
▁têkoşîn	-11.2873
▁Tewafuqa	-11.2874
▁Beh	-11.2874
gû	-11.2877
ob	-11.2878
▁hemahengîya	-11.2878
5%	-11.2883
bînî	-11.2884
▁Sêrt	-11.2887
▁daxuyannameyekê	-11.289
sky	-11.2894
por	-11.2894
bîl	-11.2894
hiya	-11.2894
▁karkeran	-11.2895
▁Xinûs	-11.2897
▁Civîn	-11.2898
▁otomobîlek	-11.2902
▁iro	-11.2902
▁Xoş	-11.2902
▁reşnivîs	-11.2903
berên	-11.2905
▁xel	-11.2907
▁PIŞTEVANÎY	-11.2909
▁del	-11.2909
▁bazar	-11.2911
cir	-11.2911
▁maneya	-11.2912
▁3'	-11.2913
▁aliye	-11.2915
▁sist	-11.2916
▁Has	-11.2917
▁Şîr	-11.2917
▁Rêber	-11.2919
▁kêmbûna	-11.292
îyo	-11.2921
▁Şemrexê	-11.2922
tarê	-11.2923
▁Hezexê	-11.2924
▁hizrên	-11.2927
▁BERHEM	-11.2929
▁pêşniyaz	-11.2929
▁karesat	-11.2929
▁ofîsa	-11.293
▁Qerekoseyê	-11.2931
▁1915	-11.2934
▁dirêjî	-11.2936
▁Nurî	-11.294
ple	-11.2941
▁Dide	-11.2941
▁Hewa	-11.2942
▁Êzîdî	-11.2945
lîm	-11.2946
▁wergera	-11.2947
▁rave	-11.2947
▁kursîyan	-11.2948
▁Kendavê	-11.2948
▁Anter	-11.295
Bu	-11.2953
▁plandanînê	-11.2954
diye	-11.2955
▁ن	-11.2957
cum	-11.2957
▁hilda	-11.2958
ihê	-11.296
▁renge	-11.296
▁Maf	-11.2961
▁rêziman	-11.2966
▁Ragihandin	-11.2968
teyê	-11.2969
sît	-11.297
▁Watey	-11.297
▁CD	-11.297
▁Not	-11.2973
▁Yemen	-11.2973
AM	-11.2975
▁derkevt	-11.2977
RT	-11.2981
Po	-11.2982
kovar	-11.2982
▁cild	-11.2982
nos	-11.2982
sîl	-11.2984
▁terxan	-11.2984
200	-11.2984
hor	-11.2992
▁pêde	-11.2993
ett	-11.2993
osret	-11.2994
▁zîndan	-11.2997
▁Turkmanî	-11.2998
rec	-11.3002
▁PÎROZ	-11.3005
▁Wilhelm	-11.3005
▁Kobaniyê	-11.3005
▁enerjiya	-11.3005
▁Mewlana	-11.3005
▁Eşref	-11.3005
▁Dizeyî	-11.3006
▁Pirraniya	-11.3006
▁medyayê	-11.3006
▁Gordon	-11.3006
▁leş	-11.3007
▁Helbet	-11.3007
▁cîkirina	-11.3008
▁masiyan	-11.301
▁Polîs	-11.301
▁dawet	-11.3011
▁ramanê	-11.3012
îta	-11.3013
dema	-11.3013
wo	-11.3014
▁(2006)	-11.3014
nga	-11.3015
▁kulturî	-11.3016
▁ك	-11.3017
benda	-11.3019
▁darxistin	-11.302
itî	-11.3024
▁şo	-11.3024
deyên	-11.3028
Panthera	-11.3028
▁HILBIJARTIN	-11.3029
▁zîrek	-11.303
▁Peyam	-11.3032
Or	-11.3032
▁kujt	-11.3034
▁kovarek	-11.3036
▁Jen	-11.3037
▁serexweşîyê	-11.3039
yarê	-11.3041
▁kiryar	-11.3045
▁Bah	-11.3048
▁xûya	-11.3049
▁xewn	-11.3049
▁Mirgewer	-11.305
▁req	-11.3051
▁PEN	-11.3056
▁Ermenistan	-11.3056
▁zik	-11.3058
▁şareza	-11.3061
▁Zal	-11.3062
▁Cla	-11.3065
▁DIHÊ	-11.3067
stana	-11.3068
▁yarî	-11.3071
▁Aşûr	-11.3076
▁mat	-11.3076
▁Cotmehê	-11.3077
▁Maz	-11.3078
▁hec	-11.308
▁(2013)	-11.3082
▁MESÛD	-11.3082
▁NewYork	-11.3082
▁Society	-11.3082
▁Kondole	-11.3082
▁BARAK	-11.3082
▁Edward	-11.3082
▁duqolî	-11.3082
▁Silopî	-11.3082
▁xelatên	-11.3083
▁dabîn	-11.3083
▁AMEDÊ	-11.3083
▁naverast	-11.3084
stedt	-11.3085
▁dîwar	-11.3085
▁rûxandin	-11.3085
▁sosyalîst	-11.3088
▁Devera	-11.3089
▁stiratecîk	-11.3092
DD	-11.3092
▁Mîtra	-11.3093
▁bihurî	-11.3096
▁es	-11.3096
▁1910	-11.3098
▁SAZDAN	-11.3099
▁çol	-11.31
▁Dew	-11.3101
▁pilan	-11.3102
▁Xwedî	-11.3102
▁şu	-11.3105
▁pûç	-11.3106
rav	-11.3107
dev	-11.3108
▁nivîsandinê	-11.311
evî	-11.3111
▁derbaza	-11.3112
▁Yekgirtûy	-11.3114
▁veke	-11.3115
roman	-11.3116
▁tînê	-11.3116
int	-11.3118
▁rêzgirtina	-11.312
▁pîşesazî	-11.3121
deşt	-11.3123
▁roleka	-11.3123
▁bikê	-11.3126
▁hewldanên	-11.3128
är	-11.313
rina	-11.3134
▁Pop	-11.3136
▁keş	-11.3138
▁SI	-11.3139
л	-11.314
kiyan	-11.3142
Yek	-11.3143
mol	-11.3145
▁Kelh	-11.3145
▁diyarkirî	-11.3147
▁85	-11.3151
▁hestî	-11.3151
oph	-11.3154
▁Jê	-11.3155
в	-11.3157
ûna	-11.3158
ْ	-11.316
þ	-11.316
▁EWROPA	-11.316
▁Erdê	-11.316
▁brîtanî	-11.316
י	-11.316
▁SILÊMANÎYÊ	-11.316
▁dihînin	-11.316
▁Ul	-11.3161
▁Efrîn	-11.3161
nameyek	-11.3162
▁IPA	-11.3162
▁têkel	-11.3162
▁:*	-11.3163
.09.201	-11.3163
▁xar	-11.3164
▁1913	-11.3165
▁dêr	-11.3165
▁yasayî	-11.3165
▁cezakirin	-11.3166
▁Işik	-11.3166
▁stratejîk	-11.3166
▁hemwelatîyê	-11.3167
îteya	-11.3168
▁kevtiye	-11.3168
▁Bajêr	-11.317
gav	-11.3174
▁serokkomarê	-11.3178
ÊR	-11.3179
▁Hur	-11.3181
▁havêjtin	-11.3181
▁59	-11.3182
gra	-11.3183
▁namzedê	-11.3183
▁dîrokzan	-11.3184
▁Port	-11.3186
▁çalakvan	-11.319
bro	-11.319
▁Humsê	-11.3194
▁Omeran	-11.3195
▁temaşe	-11.3198
▁kompanyayê	-11.3198
olo	-11.3199
▁Xen	-11.3199
▁66	-11.3204
▁gazî	-11.3205
▁koçer	-11.3206
▁ziwa	-11.3208
terê	-11.321
bab	-11.3211
▁sekin	-11.3214
ille	-11.3214
▁nedan	-11.3218
▁("	-11.3218
▁serokkomar	-11.3219
▁namzed	-11.3223
▁xweda	-11.3223
▁Kirmaşan	-11.3225
▁27'	-11.3228
▁74	-11.3231
▁civake	-11.3231
▁SALA	-11.3237
▁Yildiz	-11.3238
ε	-11.3238
▁Abbas	-11.3239
▁hazir	-11.3239
▁hêviya	-11.3239
▁fêm	-11.3241
▁Xeber	-11.3242
rij	-11.3242
▁Demîr	-11.3244
SÎ	-11.3245
▁mejiyê	-11.3245
▁dikit	-11.3245
▁kîlometre	-11.3246
▁mijûlî	-11.3246
▁xatir	-11.3247
▁Çîroka	-11.3249
▁berdewame	-11.325
▁şil	-11.3251
▁bikarhanîn	-11.3251
▁7-	-11.3253
▁Selahedînê	-11.3254
▁1906	-11.3255
▁veger	-11.3255
▁zayendî	-11.3256
▁Balindeyê	-11.3258
tas	-11.326
▁helbestvanekî	-11.3262
gas	-11.3262
▁bombeyek	-11.3262
▁kelandin	-11.3263
▁Japan	-11.3264
▁çir	-11.3265
▁tepeserkirin	-11.3265
▁atom	-11.3268
▁xaleka	-11.3269
▁Çelê	-11.327
▁Balafir	-11.327
▁firroke	-11.3272
leman	-11.3272
▁Form	-11.3273
▁meclîsa	-11.3274
ect	-11.3274
▁Çap	-11.3277
▁Aus	-11.3278
▁Nîşan	-11.3278
ssa	-11.3279
▁kanî	-11.3279
Gundistan	-11.3281
laq	-11.3283
▁Çile	-11.3285
ullah	-11.3285
▁Çel	-11.3289
îlê	-11.3289
ış	-11.3289
▁parlamentoy	-11.329
▁Alfabey	-11.329
▁ع	-11.3291
▁ش	-11.3291
▁Kazim	-11.3297
▁biket	-11.3299
sci	-11.3299
▁gundek	-11.33
fat	-11.3304
▁Heman	-11.3307
▁Tayyi	-11.3307
▁ENDAMÊ	-11.3307
▁Radyo	-11.3308
▁pêştir	-11.3308
▁Zî	-11.3311
ِ	-11.3316
▁Oktober	-11.3316
▁tîpguhêziy	-11.3316
▁SALIH	-11.3317
▁Dinirxîn	-11.3317
▁dikuje	-11.3318
▁programa	-11.3318
▁Yaşar	-11.3319
îma	-11.332
şte	-11.332
▁Kofî	-11.3321
▁Qeterê	-11.3321
▁Nadir	-11.3321
▁nexoş	-11.3322
IYAN	-11.3324
▁Xey	-11.3325
lal	-11.3326
îstanê	-11.3329
▁alîkarîyan	-11.333
▁belgeyê	-11.333
▁(2001)	-11.3331
▁hereket	-11.3331
▁xizmetê	-11.3332
▁çay	-11.3335
▁diçûn	-11.3337
oş	-11.3338
-16	-11.3339
▁Hir	-11.334
▁ceng	-11.3341
▁Lû	-11.3341
▁zanî	-11.3342
▁xwezaya	-11.3343
cam	-11.3344
▁Bira	-11.3348
▁millet	-11.3348
▁japonî	-11.335
▁mele	-11.335
sis	-11.335
▁ayîn	-11.3354
▁malik	-11.3356
▁Hêj	-11.3358
▁rij	-11.3358
ianus	-11.336
sing	-11.3364
▁mak	-11.3367
oideae	-11.3367
▁aşkirakirin	-11.3368
fra	-11.3368
.10.2011	-11.337
▁Wei	-11.3371
ese	-11.3374
▁Ox	-11.3375
▁çareserîyê	-11.3377
▁peyamê	-11.3379
▁Zend	-11.338
Roman	-11.338
▁nemana	-11.3381
▁Hejmar	-11.3382
▁teybet	-11.3385
▁dîmen	-11.3386
▁hemwelatî	-11.3389
▁ça	-11.3391
mezin	-11.3394
▁zanebûn	-11.3395
▁enerjiyê	-11.3396
▁radigîhîne	-11.3396
wikitable	-11.3396
▁Amûdê	-11.3396
▁Brawn	-11.3396
▁Pîrosa	-11.3397
▁Kobanî	-11.3397
▁Washingtonê	-11.3399
▁tirş	-11.3399
▁çêdibin	-11.34
▁thumb	-11.3402
ebe	-11.3403
▁Edeneyê	-11.3403
▁bajêrvanîya	-11.3406
kanê	-11.3406
▁Caesar	-11.3407
▁Alt	-11.3407
▁cen	-11.3409
▁devoka	-11.3412
bak	-11.3413
▁ÊRÎŞ	-11.3413
▁xanedana	-11.3413
▁hemwelatiyên	-11.3417
ûnî	-11.3417
KA	-11.3418
▁Super	-11.342
▁bûyî	-11.342
▁Sera	-11.3422
şiya	-11.3424
▁Behr	-11.3425
▁Bag	-11.3426
▁jêderek	-11.3426
▁parêzgar	-11.3427
▁Hall	-11.3427
ref	-11.3428
▁elektrîkê	-11.343
▁1990'	-11.3433
îngilîzî	-11.3434
▁Ven	-11.3434
işk	-11.3435
▁Enfal	-11.3438
ezî	-11.3444
ient	-11.3445
▁rêxistineke	-11.3447
▁Midyad	-11.3448
EKÊ	-11.3453
▁zayînî	-11.3453
▁Zû	-11.3454
▁alîyekê	-11.3455
▁Eve	-11.3458
afir	-11.3458
rot	-11.3459
▁2008'	-11.3463
▁Şaxa	-11.3463
▁bilêvkirin	-11.3468
cas	-11.3468
▁nêza	-11.347
▁jêre	-11.3471
▁Wald	-11.3471
▁azadkirin	-11.3472
▁berfê	-11.3473
▁bijî	-11.3473
▁Şaxê	-11.3474
▁Journal	-11.3476
▁ronakbîr	-11.3476
▁negatîv	-11.3476
KO	-11.3476
▁bêhnvedan	-11.3476
▁Nikola	-11.3476
▁demdirêj	-11.3478
▁Serokatiya	-11.348
▁kendavê	-11.3481
ios	-11.3482
▁Wext	-11.3482
▁bizane	-11.3482
▁Kerboranê	-11.3484
▁Veto	-11.3484
Gel	-11.3484
▁24'	-11.3484
▁Kevin	-11.3485
▁albuma	-11.3485
▁îdarî	-11.3485
▁şûnda	-11.3485
▁bedew	-11.3486
▁awayan	-11.3486
▁nivîsî	-11.3491
▁2011:	-11.3491
▁hindî	-11.3493
kare	-11.3493
▁fermanber	-11.3494
tten	-11.3494
▁nediyar	-11.3495
▁dayikbûn	-11.3498
Ce	-11.3501
▁Muzîka	-11.3503
▁hilberîna	-11.3506
▁Şîn	-11.351
▁sînema	-11.3512
▁guhê	-11.3513
KE	-11.3513
▁Rûsiyayî	-11.3514
▁Stêr	-11.3515
▁tevli	-11.3516
▁teze	-11.3518
▁welatiyên	-11.352
▁{	-11.3526
▁lêborîn	-11.3529
▁Stewr	-11.3529
▁otomobîlan	-11.353
▁Fra	-11.353
▁edebî	-11.353
▁rojnamevanê	-11.3532
▁xebatek	-11.3535
dibin	-11.3536
▁Xo	-11.3536
▁hevdîtinek	-11.3536
iyayî	-11.3536
▁amadekarîyê	-11.3536
kewt	-11.3537
▁rêbendana	-11.354
▁kam	-11.3542
:0	-11.3543
▁bibûn	-11.3546
▁bigre	-11.3549
ifolia	-11.3552
▁firoke	-11.3556
й	-11.3557
▁tûr	-11.3557
▁Davutoglu	-11.3557
▁ewlehiya	-11.3557
▁Op	-11.3557
▁Dixwaze	-11.3557
▁fonksiyon	-11.3557
▁Xanê	-11.3559
▁demjimêran	-11.3559
▁belkî	-11.3561
▁şêweyî	-11.3562
▁Serhildan	-11.3562
▁Daxwaz	-11.3562
▁Tay	-11.3562
▁Sef	-11.3562
▁amarên	-11.3564
▁Bêr	-11.3564
Ti	-11.3566
▁hîs	-11.3566
▁tra	-11.3566
▁serweriy	-11.3566
aria	-11.357
stê	-11.3572
▁fîlozofê	-11.3574
▁pîşesazîya	-11.3577
▁xerc	-11.3579
olojîk	-11.3579
çeya	-11.3582
▁şivan	-11.3584
▁elektron	-11.3586
▁Soranî	-11.3586
köy	-11.3587
▁çandiniya	-11.3587
▁dabûn	-11.3588
▁çepê	-11.3591
▁fu	-11.3591
▁derkevtin	-11.3591
▁konferansek	-11.3592
▁koman	-11.3594
▁Gotinên	-11.3594
▁ast	-11.3597
▁Mijar	-11.3599
ith	-11.3601
eba	-11.3603
fen	-11.3604
ht	-11.3604
▁perwerdekirin	-11.3616
▁dînar	-11.3616
▁tevlîhev	-11.3617
ûyê	-11.3618
syona	-11.3621
Pro	-11.3622
gri	-11.3625
▁Asos	-11.3625
▁69	-11.3631
▁dirêjiya	-11.3634
ۆ	-11.3637
.06.2012	-11.3638
▁Awustraliya	-11.3638
▁qehreman	-11.3638
▁Serbixwe	-11.3638
▁Sirşîw	-11.3638
▁merasîma	-11.3638
▁Canewer	-11.3638
▁xwişk	-11.3639
dak	-11.3639
▁navbeynkariya	-11.3641
▁Mobil	-11.3641
▁lîstika	-11.3641
▁Swêdî	-11.3642
▁collapse	-11.3642
▁Stranên	-11.3643
▁îcar	-11.3643
▁Say	-11.3644
▁Alîkar	-11.3646
▁kirbû	-11.365
▁piya	-11.365
▁Şandeyek	-11.365
▁Botanê	-11.3651
▁erdhej	-11.3652
lov	-11.3656
▁elewî	-11.3658
avêj	-11.3662
▁budce	-11.3662
IYE	-11.3663
▁Xir	-11.3664
▁hilweşîn	-11.3664
▁Qada	-11.3666
▁Xez	-11.3667
▁mamosteyê	-11.3669
sum	-11.3671
▁kele	-11.3673
▁Yeni	-11.3674
▁Aq	-11.3674
▁fîzîkî	-11.3677
▁Gercanê	-11.3677
ike	-11.3677
▁bei	-11.3682
▁wêneyê	-11.3685
▁erka	-11.3685
şew	-11.3687
rojava	-11.3687
▁Dana	-11.369
kêşan	-11.369
▁qanûnîya	-11.3693
mond	-11.3694
Syn	-11.3695
▁giya	-11.3698
▁pop	-11.3702
îstîk	-11.3702
▁Beyan	-11.3704
▁Dûv	-11.3707
▁stiratecîka	-11.371
şand	-11.3715
▁Pîran	-11.3715
▁Hûn	-11.3716
lûk	-11.3716
▁ISRAYEL	-11.372
▁Sarkozî	-11.372
▁Özgür	-11.372
▁kongreyê	-11.372
▁Associate	-11.372
▁jinûve	-11.372
▁paşerojê	-11.372
▁(2007)	-11.372
▁Feysel	-11.372
▁zinar	-11.3721
▁Qay	-11.3721
▁BIBIN	-11.3722
▁Feylî	-11.3722
vanekî	-11.3722
▁nişka	-11.3723
▁mirovê	-11.3726
▁têbînî	-11.3727
▁Siyasî	-11.3727
▁Yasîn	-11.3728
roya	-11.3729
▁Îlam	-11.3729
▁Keş	-11.3729
ojen	-11.3734
▁serbilind	-11.3734
kirna	-11.3737
▁nîşandin	-11.3742
▁Nîv	-11.3743
▁tûnd	-11.3746
▁Havîn	-11.3746
Serokê	-11.3746
▁dijiyan	-11.375
▁hîmê	-11.375
▁Salihî	-11.3753
▁firotina	-11.3756
▁Xelatê	-11.3756
▁derheq	-11.3757
▁nev	-11.3758
php	-11.3759
▁Hez	-11.3762
▁Kö	-11.3763
rov	-11.3764
▁pirtûkeke	-11.3764
▁Rad	-11.3764
ÎYAN	-11.3765
▁Germ	-11.3766
-9	-11.3767
▁parliyamenter	-11.3768
▁Gaza	-11.3775
rde	-11.3776
Ku	-11.3776
sîyan	-11.3781
▁Mont	-11.3781
▁Deşt	-11.3783
▁Evdil	-11.3784
▁werê	-11.3784
▁Spe	-11.3784
▁Hindî	-11.3785
▁sosyal	-11.3786
mîna	-11.3787
▁EREB	-11.3787
▁gerdûn	-11.3789
stem	-11.3789
▁Beşdar	-11.3792
ÎM	-11.3792
▁Xin	-11.3795
▁Zîndan	-11.3795
▁Nîşana	-11.3797
▁Ner	-11.3797
▁Tayî	-11.3798
▁sond	-11.3801
Ar	-11.3801
dide	-11.3802
.11.2010	-11.3802
▁NAVDEWLETÎ	-11.3802
▁Silopiyê	-11.3802
▁konferensê	-11.3802
κ	-11.3802
tif	-11.3802
▁diparêzin	-11.3803
▁Sincarî	-11.3803
▁dimire	-11.3804
iyon	-11.3804
▁rojnama	-11.3804
▁tirb	-11.3804
▁nahêlin	-11.3804
▁nerast	-11.3806
▁Fermî	-11.3807
▁Meletiyê	-11.3808
▁piştevanîkirina	-11.3808
▁Element	-11.3808
▁GEL	-11.3808
▁nîsk	-11.3809
▁xwendekaran	-11.381
dyo	-11.3812
▁71	-11.3815
▁Doz	-11.3816
▁pasevan	-11.3817
ûsî	-11.3819
▁Lîbyayî	-11.382
▁albûmê	-11.382
▁pît	-11.3823
▁73	-11.3824
▁destexaneyê	-11.3826
▁heftiya	-11.3827
▁Yanî	-11.3829
tika	-11.383
▁bikêr	-11.383
▁milet	-11.383
▁fîlma	-11.3832
▁Peyv	-11.3833
▁çîyayê	-11.3835
▁teq	-11.3837
▁Xinûsê	-11.3839
ME	-11.384
▁97	-11.384
▁Zanîngeh	-11.384
▁Hos	-11.3841
gira	-11.3841
▁İs	-11.3842
▁gendelîyê	-11.3842
kirdinî	-11.3843
▁Marks	-11.3847
▁Asiya	-11.3848
▁çavkaniyan	-11.385
tayê	-11.385
het	-11.385
IS	-11.3851
gund	-11.3852
▁mayinek	-11.3853
▁balyozxaneyê	-11.3853
▁têra	-11.3856
▁ketibû	-11.3857
▁pêşveçûna	-11.3858
ûq	-11.3858
ces	-11.3862
▁komkirina	-11.3863
▁Pak	-11.3863
▁keviran	-11.3865
▁civînek	-11.3866
▁Erebên	-11.3866
▁ج	-11.3867
kend	-11.387
▁Sak	-11.3872
▁serrastkirin	-11.3873
ort	-11.3873
▁Dom	-11.3874
▁hilde	-11.3874
▁alozîyê	-11.3878
▁anîbû	-11.388
▁zimanek	-11.388
riz	-11.3884
▁County	-11.3886
▁Sîyasî	-11.3886
▁Image	-11.3886
sif	-11.3887
▁Peyamner	-11.3887
▁rijêm	-11.3888
▁cîranê	-11.389
▁feqîr	-11.389
▁Meş	-11.389
baba	-11.3891
▁kok	-11.3891
▁salnameya	-11.3891
▁Yekîney	-11.3894
wîs	-11.3894
▁Hênê	-11.3894
▁diyalog	-11.3894
▁MI	-11.3896
▁danan	-11.39
▁Ah	-11.3902
▁daxuyaniya	-11.3904
=4	-11.3905
şen	-11.3905
kiribû	-11.3908
▁Euro	-11.3908
▁cejnê	-11.391
▁dibistanek	-11.3911
▁(4	-11.3912
ctor	-11.3913
▁giringîyek	-11.3915
▁cinsî	-11.3916
▁nêzik	-11.3919
▁Şehr	-11.392
mûn	-11.392
tha	-11.3926
Erdnîgarî	-11.3928
▁Xala	-11.3931
▁zane	-11.3931
▁LEŞKERÎ	-11.3931
▁350	-11.3932
▁Xeze	-11.3933
ita	-11.3934
▁Kop	-11.3935
▁Yekê	-11.3936
▁kîlo	-11.3936
ungen	-11.3937
▁Nam	-11.3938
nîya	-11.3942
▁artêş	-11.3944
=====	-11.3944
▁cêgir	-11.3945
▁Mijdar	-11.3946
▁vebikin	-11.3947
tûk	-11.3948
ama	-11.3948
▁zanista	-11.3949
asyonê	-11.3949
▁tesîra	-11.3952
▁Mos	-11.3952
▁Demokrasî	-11.3954
▁dadwerî	-11.3955
▁cihgir	-11.3958
hênan	-11.3959
▁February	-11.397
▁Xwendekar	-11.397
▁Kroker	-11.397
▁bahoz	-11.397
▁leşkerek	-11.3971
oli	-11.3971
▁Sîstematîk	-11.3972
▁Burhan	-11.3972
▁pev	-11.3973
▁bernameyek	-11.3974
▁Ap	-11.3975
▁House	-11.3975
▁Virginia	-11.3976
▁Orhan	-11.3976
▁proseya	-11.3979
▁veguhestin	-11.398
▁Şerefxan	-11.3982
pûr	-11.3983
reg	-11.3986
▁Peqîn	-11.3988
▁ENCAMDAN	-11.3989
▁tendiristîya	-11.399
▁hewayî	-11.3994
▁dêra	-11.4
▁bînê	-11.4001
▁hevok	-11.4003
▁Pay	-11.4003
torî	-11.4003
ADIL	-11.4003
▁îna	-11.4005
▁rûnişt	-11.401
▁dozê	-11.4011
▁birina	-11.4014
inde	-11.4015
▁berdana	-11.4015
SS	-11.4017
serî	-11.4019
▁çîrokê	-11.402
▁civîneke	-11.4022
VA	-11.4026
BI	-11.4027
▁avahiyên	-11.4028
▁tri	-11.403
wîst	-11.4032
▁Angel	-11.4033
▁Felsefe	-11.4033
hab	-11.4033
öl	-11.4033
cro	-11.4036
▁Awistralya	-11.4038
▁şîrê	-11.4038
▁Şo	-11.404
▁şiyanên	-11.4044
▁Mîrza	-11.4044
▁BIR	-11.4044
rayî	-11.4045
lad	-11.4051
▁şane	-11.4053
▁Hevpeyvîn	-11.4055
▁Berkelî	-11.4055
▁Tehsîn	-11.4055
▁nizane	-11.4055
▁Sûryayê	-11.4055
▁guhandar	-11.4056
▁Korêya	-11.4057
▁dolaran	-11.4057
▁Şêxo	-11.4058
▁wel	-11.406
▁xênc	-11.406
▁1911	-11.4061
▁karwanek	-11.4061
ÛN	-11.4062
▁Ein	-11.4062
hud	-11.4063
▁Eyûbî	-11.4063
▁Black	-11.4063
▁êşa	-11.4064
▁MHP	-11.4064
▁dihêlin	-11.4065
▁bêî	-11.4065
▁ezmûna	-11.4065
▁Betula	-11.4067
▁dadgehkirin	-11.4068
▁Inter	-11.4068
▁dimilî	-11.4068
▁mişext	-11.4069
▁Cezayê	-11.4069
veger	-11.4072
▁Cefer	-11.4078
▁wêrê	-11.4079
ego	-11.4079
▁dagirker	-11.4081
▁çaremîn	-11.4083
▁Hilbijartin	-11.4085
▁serxistina	-11.4085
▁hozên	-11.4089
fik	-11.409
▁Adara	-11.4091
▁dermanan	-11.4093
Pê	-11.4093
▁|+	-11.4094
had	-11.4094
▁Talîbanê	-11.4095
▁kincên	-11.4097
▁Dirêjiy	-11.4097
▁Bac	-11.4098
newey	-11.4099
▁birr	-11.41
tew	-11.41
▁peymanek	-11.4101
▁lingê	-11.4102
▁geşta	-11.4102
▁Heskîfê	-11.4103
▁Aj	-11.4104
▁kerd	-11.4104
solin	-11.4105
tam	-11.4107
▁Endam	-11.4107
şûr	-11.4107
▁Ir	-11.4108
▁bajêrokê	-11.411
▁kêmkirin	-11.4111
qam	-11.4111
oq	-11.4112
▁Pra	-11.4114
▁soza	-11.4114
▁xeterê	-11.4115
▁Akad	-11.4115
▁desthilatdarî	-11.4115
▁Gün	-11.4117
▁Erzîrom	-11.4117
DAN	-11.4118
▁6-	-11.4119
▁nekirin	-11.4121
▁beg	-11.4121
▁BERPIRSÊ	-11.4122
▁26'	-11.4125
▁nûnera	-11.4127
▁kîmya	-11.4128
▁asê	-11.4128
ries	-11.4128
tv	-11.4132
ign	-11.4132
▁fêrbûn	-11.4136
asî	-11.4136
mirov	-11.4137
ving	-11.414
▁Netanyahu	-11.414
▁parlîyamenta	-11.414
▁Ihsan	-11.414
▁Bayram	-11.4142
▁zanyarê	-11.4142
ûsê	-11.4143
xîne	-11.4143
▁Hugo	-11.4143
cat	-11.4144
wiki	-11.4145
▁şîyan	-11.4146
IT	-11.4147
▁serkeftin	-11.4147
press	-11.4148
▁kurdiya	-11.4148
▁بن	-11.415
SA	-11.415
banê	-11.4152
▁Nexweşxaney	-11.4153
▁partiyek	-11.4154
▁çareserîyek	-11.4159
▁1903	-11.4159
▁kerem	-11.4162
▁dîroknas	-11.4166
▁tekoşîna	-11.4168
Tirkiye	-11.417
▁Kopê	-11.4171
gerên	-11.4173
▁Şahê	-11.4178
▁hestê	-11.4178
▁perê	-11.4179
▁Gil	-11.418
▁tîm	-11.4183
▁Rojê	-11.4183
▁birrîn	-11.4184
civîn	-11.4187
▁Reng	-11.4191
▁NÊZÎK	-11.4198
irî	-11.4198
class	-11.4199
▁bakûra	-11.4201
bik	-11.4201
nameyê	-11.4201
▁29'	-11.4202
▁Bedr	-11.4202
dora	-11.4204
▁referanduma	-11.4205
▁Cap	-11.4211
▁hilberîn	-11.4215
▁Dam	-11.4216
▁Award	-11.4216
yk	-11.4218
▁lêgerîn	-11.4219
▁dikevê	-11.422
şka	-11.4222
DI	-11.4223
▁kongires	-11.4223
▁CE	-11.4225
▁ALMANIYA	-11.4226
▁Berzencî	-11.4226
▁Teyyib	-11.4226
▁dijepeydaker	-11.4226
▁pêşerojê	-11.4226
▁Opozisyon	-11.4226
▁temsîl	-11.4226
tev	-11.4227
▁saloxandin	-11.4227
▁Yekşembî	-11.4227
▁pakij	-11.4227
▁Qizil	-11.4227
▁binêrin	-11.4228
tinên	-11.4228
▁asayiş	-11.4229
xar	-11.4229
RIQ	-11.423
kra	-11.4231
▁şaristanî	-11.4232
▁Kurtenav	-11.4232
fu	-11.4232
▁Walter	-11.4233
▁televîzyona	-11.4233
▁Doktor	-11.4233
stat	-11.4235
▁Groß	-11.4235
▁bîrên	-11.4238
▁zanyarîyan	-11.4239
mirî	-11.4242
▁vekiriye	-11.4242
▁Gotina	-11.4245
rup	-11.4245
▁planên	-11.4246
▁reh	-11.4248
▁Penaber	-11.4249
▁şikestin	-11.425
▁Pîranê	-11.4256
▁Tîrmehê	-11.4257
▁Kûba	-11.4258
▁Hemo	-11.4258
▁hav	-11.4259
▁birc	-11.4265
▁anjî	-11.4266
▁Jîn	-11.4266
▁Kev	-11.4267
zm	-11.4268
▁Ebd	-11.4269
▁peyvê	-11.4269
une	-11.427
anlû	-11.4271
▁xanim	-11.4272
çûnê	-11.4273
▁çareyek	-11.4274
▁pîlan	-11.4274
▁rêvebiriya	-11.4274
▁siyasetmedarek	-11.4274
▁ASAYIŞ	-11.4278
chin	-11.4279
▁Adem	-11.4281
ID	-11.4281
▁bijarteya	-11.4282
▁şandiye	-11.4283
▁dewama	-11.4283
şey	-11.4283
▁aşkirayî	-11.4285
kirine	-11.4289
ql	-11.4291
▁Rusiya	-11.4292
▁parliyamentar	-11.4292
▁zanîngehên	-11.4292
▁sazûman	-11.4295
▁erê	-11.4297
▁dara	-11.4298
▁Anna	-11.4298
▁pêkhatiye	-11.4299
mij	-11.43
navên	-11.4301
▁hîm	-11.4305
2'	-11.4305
▁afir	-11.4306
▁zagon	-11.4307
▁Birîtaniya	-11.4308
▁sos	-11.4309
▁Malî	-11.4312
▁xet	-11.4313
ḧ	-11.4313
dewrîyeyy	-11.4313
č	-11.4313
▁fedral	-11.4313
▁stiratejîk	-11.4313
▁hezîranê	-11.4313
▁Köln	-11.4313
▁Korêyê	-11.4315
]]	-11.4316
▁Ata	-11.4317
US	-11.4318
▁YPG	-11.4319
▁jı	-11.4319
tı	-11.4321
▁sibat	-11.4321
▁Filistînê	-11.4323
çem	-11.4323
uv	-11.4324
▁Rêzefîlm	-11.4324
▁KBS	-11.4325
▁jîngehê	-11.4326
rap	-11.4326
▁Musliman	-11.4327
rban	-11.4328
▁nehêle	-11.4328
▁xaneyan	-11.4328
ور	-11.4329
▁fermandeyê	-11.4329
▁Soz	-11.433
▁Ziya	-11.4333
▁Zozan	-11.4333
▁Saxifraga	-11.4333
▁mûzîkê	-11.4339
▁Holand	-11.4339
▁Firok	-11.434
▁gihaye	-11.434
▁milyonan	-11.4342
▁bigihînin	-11.4343
▁als	-11.4344
▁sizadan	-11.4344
▁ENCAMA	-11.4345
îtiyê	-11.4345
Sûr	-11.4345
▁bizavek	-11.4346
▁alîkarîkirin	-11.4348
▁sînora	-11.4349
▁30'	-11.4349
▁amadeyîya	-11.4352
▁Seb	-11.4355
UL	-11.4356
▁96	-11.4358
▁stekan	-11.4359
Helbest	-11.4359
▁dagirkirina	-11.4361
▁hemu	-11.4367
▁Gundikê	-11.4368
▁kela	-11.4368
▁devrê	-11.4371
pos	-11.4375
▁Waşington	-11.4376
▁Raman	-11.4377
▁civîn	-11.4377
▁Bismil	-11.438
▁tewr	-11.4383
▁serhilda	-11.4384
▁vebike	-11.4388
▁Mosko	-11.4388
▁Libnan	-11.4388
▁ragihana	-11.4389
▁Seroka	-11.4391
/2012	-11.4393
▁23'	-11.4394
ÎNE	-11.4395
pişt	-11.4399
▁sitran	-11.4401
sberg	-11.4401
FFDEAD	-11.4401
muddet	-11.4401
▁(2002)	-11.4401
▁Fehmî	-11.4401
▁(1997)	-11.4401
▁Efendî	-11.4401
▁Cemiyeta	-11.4401
▁Mahabad	-11.4401
▁(2008)	-11.4401
yîya	-11.4401
▁Bahoz	-11.4401
▁Cho	-11.4402
▁Navokî	-11.4402
teng	-11.4402
▁bihûrî	-11.4402
▁Hêmin	-11.4403
▁aştiyane	-11.4404
▁Dawid	-11.4404
▁Nazim	-11.4407
▁dayne	-11.4409
▁pestoya	-11.4409
▁Sofî	-11.441
laş	-11.441
▁veqetandin	-11.4411
▁Operasyon	-11.4413
▁damezrand	-11.4415
▁Komelgeh	-11.4415
▁dikarî	-11.4416
wayî	-11.4417
▁Heq	-11.4417
▁Rêya	-11.4417
400	-11.4418
▁çêkiriye	-11.4418
▁zevî	-11.4419
▁paşeroja	-11.4419
▁xw	-11.4421
▁gengeşeyê	-11.4421
uca	-11.4421
▁Înî	-11.4425
▁peyvek	-11.4426
▁komkujî	-11.4427
ín	-11.4428
▁rayedarên	-11.4429
▁PIRS	-11.4429
▁sirûştî	-11.4434
▁Hemî	-11.444
▁albûm	-11.4445
Almanya	-11.4448
р	-11.4449
▁Nûçeyan	-11.4452
▁Nîsanê	-11.4455
▁82	-11.4455
▁xaç	-11.4458
▁Teha	-11.446
▁bedena	-11.4461
elê	-11.4469
▁pêre	-11.4469
▁şaredariyê	-11.447
itt	-11.4475
darîyê	-11.4477
▁dikan	-11.4478
1'	-11.4479
▁madde	-11.4479
▁fraksiyon	-11.4479
lık	-11.4484
UK	-11.4486
▁Berzincî	-11.4489
▁Napoleon	-11.4489
▁Doğan	-11.4489
▁YEKÎTÎY	-11.4489
FFFFFF	-11.4489
▁Mengurr	-11.4489
▁Teyfûr	-11.4489
▁Îdrîs	-11.449
▁Hamburg	-11.449
▁zeytê	-11.449
Vi	-11.4491
▁Wo	-11.4492
▁riyên	-11.4493
▁demjimaran	-11.4496
▁pêşniyara	-11.4496
▁Trans	-11.4496
ters	-11.4497
▁Îlon	-11.4497
▁zêrevan	-11.4498
bare	-11.4498
xil	-11.4498
ago	-11.4498
▁nahêle	-11.4499
▁derb	-11.4499
olojiyê	-11.4499
ograf	-11.4499
▁Cot	-11.45
▁wergirtine	-11.45
▁Batman	-11.4501
PA	-11.4501
▁motor	-11.4503
▁ÇARESER	-11.4504
▁hefteyan	-11.4505
dew	-11.4505
▁mam	-11.4507
▁olên	-11.4512
▁fîzîka	-11.4513
▁teyr	-11.4515
▁wêneyan	-11.4515
▁2011'	-11.4516
▁qaz	-11.4519
▁Serbaz	-11.4521
▁rûbarê	-11.4522
▁Giran	-11.4522
▁Balkan	-11.4523
▁ticar	-11.4523
▁lîstê	-11.4523
▁lêdan	-11.4523
Roj	-11.4526
iyetê	-11.4526
▁kêfa	-11.4529
cc	-11.453
▁pp	-11.4531
Bar	-11.4532
▁asmanîya	-11.4534
ology	-11.4534
bînin	-11.4535
him	-11.4535
à	-11.4536
خ	-11.4537
gt	-11.4538
▁Muam	-11.4541
canî	-11.4543
▁ÇEK	-11.4545
▁İl	-11.4545
▁She	-11.4551
maya	-11.4552
▁Çawa	-11.4553
▁Mizgîn	-11.4553
▁Wezîr	-11.4555
▁nûner	-11.4556
▁rojevê	-11.4557
hîne	-11.4561
▁împarator	-11.4562
▁mizgeft	-11.4565
hatiye	-11.4567
▁lixwe	-11.4567
▁Hy	-11.4568
▁talan	-11.4571
buna	-11.4572
▁pirseka	-11.4573
rez	-11.4576
ـ	-11.4578
▁ÎTILAFA	-11.4579
▁Dûzxormato	-11.4579
▁guncav	-11.4579
▁BAŞÛR	-11.4579
▁Jefrî	-11.4579
▁Pispor	-11.4579
▁Wirmê	-11.4579
▁Qeretepe	-11.4579
▁Fey	-11.458
osê	-11.458
▁2009:	-11.4583
engî	-11.4583
▁dêrendaza	-11.4585
▁lev	-11.4586
▁Cure	-11.4586
îngl	-11.4586
▁nawçey	-11.4588
▁grûp	-11.4589
▁herisê	-11.459
▁nek	-11.4592
▁akincîyê	-11.4594
iss	-11.4595
zêr	-11.4598
▁supay	-11.46
py	-11.4602
▁Syn	-11.4602
▁Ket	-11.4603
eve	-11.4604
Ya	-11.4604
▁astronom	-11.4604
▁welatparêz	-11.4605
▁pêdivîye	-11.4605
▁asîdê	-11.4612
gûn	-11.4613
krî	-11.4615
▁Qew	-11.4616
▁Xirab	-11.4616
▁Pap	-11.4617
▁pêşnîyara	-11.4617
▁Meydan	-11.4618
gerê	-11.4618
lü	-11.4622
▁Keça	-11.4626
daw	-11.4626
▁Xem	-11.4632
▁didine	-11.4633
karîyê	-11.4634
▁cureyê	-11.4634
kas	-11.4635
▁aloztir	-11.4638
çer	-11.4638
phyll	-11.4638
EN	-11.4638
▁hemahengî	-11.4639
▁rûber	-11.464
▁bêhn	-11.464
▁Kemp	-11.464
▁Amir	-11.4644
miz	-11.4644
BÛ	-11.4645
ragihand	-11.4645
▁zanayê	-11.4645
▁Geliy	-11.4646
▁PARTÎYA	-11.4646
opsis	-11.4649
sheim	-11.4651
wed	-11.4651
▁Lîtvanya	-11.4652
▁Remezanê	-11.4655
▁*****	-11.4658
KIR	-11.4659
▁înkar	-11.4662
▁hilawîstî	-11.4662
▁mûzîk	-11.4662
▁propagandayê	-11.4663
▁Rem	-11.4663
▁KO	-11.4667
▁Larîcanî	-11.4669
▁Yusif	-11.4669
▁dinivîsîne	-11.4669
▁Êl	-11.4669
ock	-11.467
▁Bernard	-11.467
▁sêşembîyê	-11.467
▁Astara	-11.4671
▁rêvebirîyê	-11.4671
▁herkes	-11.4671
lax	-11.4672
▁xav	-11.4673
▁Yemenî	-11.4673
▁Rock	-11.4674
▁televiziyona	-11.4674
▁parzûna	-11.4675
▁December	-11.4677
н	-11.4677
▁firoştin	-11.4677
▁pers	-11.4677
dariyê	-11.468
▁lu	-11.4681
▁şagirt	-11.4682
▁dûbare	-11.4683
▁Gundek	-11.4683
▁dirûvê	-11.4684
▁1909	-11.4685
▁1902	-11.4686
▁qewimîn	-11.469
▁parliyamenterên	-11.469
▁biharê	-11.4691
ān	-11.4692
▁Ang	-11.4692
▁berdide	-11.4692
▁tûşî	-11.4693
▁şê	-11.4695
▁şewitî	-11.4695
▁Bird	-11.4696
cm	-11.47
▁CIH	-11.4709
îzma	-11.4715
▁Pasîn	-11.4716
well	-11.4717
Piştî	-11.4718
çûk	-11.4722
▁Bon	-11.4723
-20	-11.4723
aaa	-11.4727
▁qed	-11.4728
▁Duhî	-11.473
▁Deverê	-11.4731
▁hinceta	-11.4735
▁mas	-11.4737
▁rehet	-11.4739
▁Dadgehê	-11.4744
▁Song	-11.4745
▁lawan	-11.4745
kerî	-11.4747
▁danîye	-11.4751
▁germiya	-11.4752
▁Sh	-11.4752
▁planê	-11.4753
▁qaçax	-11.4754
▁Eliyê	-11.4755
▁dihêne	-11.4757
▁fizîk	-11.4758
▁vekolîn	-11.4759
▁bexdenûs	-11.476
▁erdnîgarî	-11.476
▁miliyon	-11.476
▁xelek	-11.4761
="4"	-11.4761
ono	-11.4761
▁Minaq	-11.4762
▁PROSESA	-11.4762
▁ayetan	-11.4762
▁agahiyan	-11.4763
▁jêhatî	-11.4763
▁greva	-11.4764
▁xalkê	-11.4764
▁mezine	-11.4764
▁Petrolê	-11.4766
▁fraksiyonan	-11.4767
▁Louis	-11.4767
▁Kum	-11.4767
▁têgihiştina	-11.4769
▁dibit	-11.4769
▁CIA	-11.477
▁boneyê	-11.4771
▁Ladin	-11.4772
▁çepgir	-11.4773
rşî	-11.4774
▁bêjeya	-11.4776
▁GOT	-11.4777
sma	-11.4778
Kur	-11.4779
▁95%;	-11.4779
▁Gî	-11.4779
sad	-11.4781
▁Demir	-11.4781
▁Bernameya	-11.4782
icum	-11.4784
onê	-11.4784
▁dirêjahiya	-11.4785
▁nok	-11.4789
0,000	-11.4789
▁Çol	-11.4791
▁komelên	-11.4792
hû	-11.4795
▁Fire	-11.4795
masî	-11.4796
rikê	-11.4796
▁şêwe	-11.4801
▁bendava	-11.4801
▁herdemîya	-11.4802
ûmê	-11.4802
EKE	-11.4804
▁digihê	-11.4805
▁pîvanê	-11.4806
emen	-11.4807
▁tore	-11.4807
beh	-11.4809
geriya	-11.481
▁feq	-11.481
kay	-11.4811
▁dive	-11.4813
▁Lîbîya	-11.4813
▁lek	-11.4813
hon	-11.4814
▁birîna	-11.4817
▁serkeftinê	-11.4817
rika	-11.4818
▁bernameyeke	-11.4819
▁Rusya	-11.482
sînor	-11.4823
▁Of	-11.4828
▁TO	-11.4829
▁girêdayê	-11.4834
▁Bomb	-11.4835
tîye	-11.4838
▁kirîn	-11.4839
Bê	-11.484
▁Xerzan	-11.4841
▁Erdhej	-11.4847
▁Lev	-11.4848
MEN	-11.4849
ُ	-11.4851
▁Fewzî	-11.4851
▁Portûgal	-11.4851
▁Hitler	-11.4851
▁Talabanî	-11.4851
▁amadebûyan	-11.4851
▁perestgeh	-11.4852
▁herwesa	-11.4852
▁sifir	-11.4854
▁Hişyar	-11.4854
▁hêrs	-11.4856
▁Demokrasiyê	-11.4859
▁eynî	-11.4859
▁Çer	-11.4859
▁medenî	-11.486
▁Romanya	-11.486
Qe	-11.4862
▁paye	-11.4862
▁saloxegerîya	-11.4863
▁diravî	-11.4864
▁bangî	-11.4864
▁dupat	-11.4865
▁bazirganiya	-11.4865
diger	-11.4867
▁karîger	-11.4868
▁Taş	-11.4871
▁Zaza	-11.4871
],	-11.4874
▁Kü	-11.4874
▁pay	-11.4874
▁dermankirin	-11.4878
▁Babil	-11.4878
fîl	-11.488
giran	-11.489
isi	-11.4891
cz	-11.4891
▁şeh	-11.4892
▁tefsîr	-11.4892
▁cemawerî	-11.4894
▁pêywîst	-11.4895
derên	-11.4896
lig	-11.4897
▁Stein	-11.4899
▁pêy	-11.4902
▁Perwerdey	-11.4903
▁endamek	-11.4904
▁çandinê	-11.4907
▁Joe	-11.4907
▁matematîkê	-11.4908
▁Alp	-11.4909
▁rawestand	-11.491
sbach	-11.491
liyan	-11.4912
▁tak	-11.4916
▁binçav	-11.4916
▁gerîla	-11.4917
sep	-11.492
▁98	-11.492
-17	-11.4922
qên	-11.4923
metre	-11.4924
▁rez	-11.4925
▁kit	-11.4927
IST	-11.4929
▁serwer	-11.4931
▁mis	-11.4932
▁berbijar	-11.4934
hra	-11.4934
▁Anton	-11.4935
▁başe	-11.4935
reh	-11.4936
oca	-11.4937
▁Hemedan	-11.494
▁Kab	-11.494
▁sîstemek	-11.4941
▁fam	-11.4942
▁psîkolog	-11.4943
▁Mec	-11.4943
▁osmanî	-11.4944
▁Tayyîp	-11.4944
▁Îhsan	-11.4944
▁Urmiyê	-11.4944
γ	-11.4944
▁Saudî	-11.4944
▁prensîp	-11.4944
▁katjimêr	-11.4944
▁Mahmud	-11.4944
▁Merîwan	-11.4944
▁Nûredîn	-11.4945
▁Ekrem	-11.4945
▁CÎHANÊ	-11.4945
▁Meryem	-11.4945
▁Night	-11.4946
▁fîl	-11.4946
▁KIRIYE	-11.4947
▁BIDE	-11.4947
▁art	-11.4949
emê	-11.4949
▁karin	-11.4949
▁Zinar	-11.495
▁Sinc	-11.495
▁mirovahî	-11.4951
▁nehatin	-11.4952
▁hêrişê	-11.4953
▁saxlemîyê	-11.4953
îstî	-11.4954
▁Zazakî	-11.4956
▁kirdewe	-11.4956
▁rêkarên	-11.4956
▁Akrê	-11.4956
▁dikevit	-11.4956
▁şopandin	-11.4957
▁împeratoriya	-11.4957
▁Tîma	-11.4959
▁sazûmaniya	-11.4964
▁Jîyan	-11.4964
uth	-11.4967
TER	-11.497
sas	-11.4971
▁Xar	-11.4975
heta	-11.4975
▁muh	-11.4976
eser	-11.4978
▁Qum	-11.4979
▁şare	-11.498
▁Dogan	-11.4981
▁Ot	-11.4982
▁Binekom	-11.4982
birin	-11.4983
▁konferans	-11.4983
▁mag	-11.4986
▁Kos	-11.4989
▁ragihanek	-11.499
▁FU	-11.499
pho	-11.4993
Su	-11.4993
▁ju	-11.4993
▁Ren	-11.4994
▁berfanbara	-11.4995
▁cidî	-11.4996
▁rêyek	-11.4998
kirchen	-11.5001
▁Arma	-11.5002
pejir	-11.5006
▁piştevan	-11.5006
imê	-11.5007
▁nivîsandine	-11.5011
▁parlemanî	-11.5015
▁Hilbijartinê	-11.5018
ness	-11.5018
▁Ruh	-11.5023
▁gelî	-11.5023
▁parlamentoyê	-11.5027
▁kare	-11.5027
▁Kun	-11.5028
▁Hêz	-11.5028
tewe	-11.503
▁komkirin	-11.5031
▁duyê	-11.5032
▁Xor	-11.5035
VE	-11.5036
▁heq	-11.5036
▁Şeş	-11.5037
з	-11.5037
▁Encumena	-11.5037
▁Medvedev	-11.5037
▁Pasîfîk	-11.5037
▁Refsencanî	-11.5037
▁[9:3	-11.5037
▁zikmakî	-11.5037
▁birawestin	-11.5037
▁PAKISTAN	-11.5037
▁System	-11.5037
▁dihewîne	-11.5037
▁Gewirk	-11.5038
▁YEKEM	-11.5038
▁United	-11.5039
▁fêkî	-11.504
▁Vil	-11.504
▁parlementer	-11.504
▁bibê	-11.504
▁pêktê	-11.504
AH	-11.5041
▁bahs	-11.5042
▁masûlkeyê	-11.5043
▁Om	-11.5045
▁IRAQ	-11.5048
▁pola	-11.5049
baya	-11.5049
▁hukum	-11.505
onia	-11.505
▁61	-11.5052
▁PYD	-11.5055
▁nedane	-11.5055
▁Seh	-11.5058
▁Parêzer	-11.5058
▁pira	-11.5059
zû	-11.5061
▁mizgeftê	-11.5061
▁Teh	-11.5067
▁rexnegir	-11.5067
emmer	-11.5068
▁jinek	-11.5069
▁Şir	-11.5069
▁Pale	-11.507
▁Sîr	-11.5071
nişîn	-11.5073
▁enfal	-11.5073
▁tol	-11.5074
qer	-11.5074
▁Mart	-11.5075
Don	-11.5078
kem	-11.5078
▁fermandarîy	-11.5079
dawî	-11.508
yekan	-11.508
Ger	-11.5084
Turk	-11.5086
▁pêşiyê	-11.5087
rînê	-11.5087
eyekî	-11.5094
▁çandê	-11.5095
▁radyoyê	-11.5095
▁carekî	-11.5096
▁DERVEY	-11.5097
▁Nûçey	-11.5097
▁Inn	-11.5097
▁67	-11.5098
lyon	-11.5101
▁neyar	-11.5102
▁Human	-11.5102
▁Wêjey	-11.5104
▁Alîkarê	-11.5105
▁Raf	-11.5111
▁Sunne	-11.5111
isa	-11.5113
▁ragirtin	-11.5115
▁Life	-11.5116
▁hay	-11.5119
▁faris	-11.5123
2006	-11.5123
eki	-11.5124
▁God	-11.5125
▁Çû	-11.5125
FER	-11.5126
▁bahse	-11.5128
▁Bos	-11.5129
tîne	-11.5129
▁nivîsîne	-11.513
deran	-11.5131
▁padîşah	-11.5132
.06.2010	-11.5132
▁EHMED	-11.5132
▁OPEC	-11.5132
▁Pevçûn	-11.5132
▁Bedfort	-11.5132
▁ewlekariyê	-11.5132
aaaaaa	-11.5132
▁dikujin	-11.5132
▁Komîsyon	-11.5132
▁suryanî	-11.5133
girên	-11.5133
cid	-11.5134
▁Tak	-11.5135
▁fermandar	-11.5136
▁VEKIRIN	-11.5137
leb	-11.5138
500	-11.514
▁Dîlok	-11.514
AYÎ	-11.5142
parastin	-11.5143
CE	-11.5143
▁dinav	-11.5145
▁DR	-11.5147
▁cûreyê	-11.5148
reyê	-11.5148
▁Israyelî	-11.515
▁Dîyar	-11.5152
rûsk	-11.5153
▁pis	-11.5155
.500	-11.5155
▁Ewrûpayê	-11.5156
▁çûnkî	-11.5156
▁hîvî	-11.5157
▁demsala	-11.5158
▁Îtaliyayî	-11.5158
stri	-11.5159
▁KOMÎTEYA	-11.5162
olojiya	-11.5165
▁tîrêj	-11.5165
▁daxaz	-11.5165
mm	-11.5166
▁zaro	-11.5166
▁komputer	-11.5168
irin	-11.5171
▁herwekî	-11.5174
sûd	-11.5175
▁pêywîste	-11.5176
▁çûbû	-11.5177
▁Rafi	-11.5178
▁cir	-11.5178
▁Demek	-11.5179
sek	-11.518
cke	-11.518
▁hukmê	-11.5181
▁Tûnisê	-11.5182
▁State	-11.5183
▁110	-11.5185
nivîsa	-11.5185
beran	-11.5187
▁Terr	-11.5188
▁neviyê	-11.5188
▁mezre	-11.519
ûma	-11.519
600	-11.5192
▁panel	-11.5196
▁sûreyek	-11.5197
▁çêbûne	-11.5198
▁rengekî	-11.5198
▁reviya	-11.5198
cîh	-11.52
▁Kav	-11.5201
▁navça	-11.5205
▁st	-11.5205
eye	-11.5205
▁zeman	-11.5205
Lo	-11.5206
▁avêt	-11.5209
▁giringîyê	-11.5209
▁sew	-11.521
ncax	-11.5212
ÎL	-11.5212
siyê	-11.5217
▁Şûr	-11.5218
▁PAŞ	-11.5219
jên	-11.522
▁Cre	-11.522
hak	-11.5224
serokê	-11.5225
▁heqê	-11.5225
▁guhdarîkirin	-11.5225
▁balefir	-11.5226
▁November	-11.5227
▁Tugluk	-11.5227
▁pêwendiyên	-11.5227
▁Microsoft	-11.5227
▁Nivîsbariy	-11.5227
▁Taylor	-11.5227
▁teknolojî	-11.5227
▁xerîb	-11.5228
demî	-11.5228
▁ciyawaz	-11.5229
lêdan	-11.5229
etîk	-11.5229
reşk	-11.523
▁dikarê	-11.5231
▁qise	-11.5233
▁Sing	-11.5233
▁Zankoya	-11.5235
▁Rêveberiya	-11.5236
▁gedeyê	-11.5237
▁bermîleka	-11.5238
▁Daniel	-11.5239
▁şeref	-11.5239
▁Japonyayê	-11.524
▁çarşembîyê	-11.5241
▁nijad	-11.5242
▁teroristî	-11.5245
Şer	-11.5246
▁zikê	-11.5246
▁nekarî	-11.5246
▁Hemze	-11.5247
▁rêkeftinek	-11.5248
▁Saf	-11.5248
uwe	-11.5249
▁1901	-11.5253
sem	-11.5254
TIN	-11.5255
▁Im	-11.5256
▁Lord	-11.5258
mayê	-11.5259
اب	-11.526
enc	-11.526
▁Bide	-11.5261
▁Brahîmî	-11.5261
▁vêga	-11.5262
▁îslam	-11.5263
▁xwerû	-11.5263
▁Zêr	-11.5265
▁goya	-11.5266
MV	-11.5268
▁ل	-11.5272
bêr	-11.5274
▁hesp	-11.5275
▁Lîbî	-11.5276
▁opozîsyon	-11.5278
▁girs	-11.5279
▁Heb	-11.5279
▁Zengî	-11.528
rîz	-11.528
rêxistin	-11.5281
▁79	-11.5282
navçe	-11.5283
▁ح	-11.5284
ûra	-11.5286
neka	-11.5288
▁diyaloga	-11.5289
mok	-11.5291
wiyan	-11.5292
▁carinan	-11.5293
▁sub	-11.5293
▁balyoz	-11.5295
▁medya	-11.5295
▁Îngilîzî	-11.5296
▁Wis	-11.5296
▁lêdana	-11.5297
▁xam	-11.5297
▁dikane	-11.5298
▁Qel	-11.5298
pîk	-11.53
▁hevbeşa	-11.5301
▁rojnameyan	-11.5301
▁êlên	-11.5303
wald	-11.5304
lît	-11.5305
▁tawan	-11.5306
▁behra	-11.5306
tok	-11.5307
▁nexweşxaneyek	-11.531
leq	-11.5311
▁Destpê	-11.5312
▁peqînê	-11.5313
têr	-11.5314
▁Sûdanê	-11.5315
▁DENG	-11.5315
▁Sudan	-11.5315
▁mêvanê	-11.5316
▁êrîşek	-11.5321
▁TURK	-11.5323
▁ERDOGAN	-11.5323
▁Yusuf	-11.5323
▁werbigre	-11.5323
▁DEVERA	-11.5323
▁qîmet	-11.5323
▁navandin	-11.5324
▁girseyî	-11.5324
▁taybetmend	-11.5325
▁Aysel	-11.5326
▁Amerîkayîyan	-11.5326
▁namîne	-11.5326
▁amînî	-11.5327
▁pisporê	-11.5327
▁Yekitiy	-11.5328
çiya	-11.5328
▁tawankar	-11.5331
▁Federasyon	-11.5331
▁toz	-11.5334
hîşt	-11.5336
▁Qereyaziyê	-11.5339
▁het	-11.534
yarên	-11.534
▁perliyamentê	-11.5342
▁hevwelatîyekî	-11.5343
▁Mirad	-11.5343
▁Tîl	-11.5344
zeyê	-11.5345
▁peyivîn	-11.5346
gos	-11.5351
dara	-11.5352
-11	-11.5356
▁Pêwîst	-11.5356
▁Music	-11.5356
▁destpêbûna	-11.5357
kurdistanê	-11.536
▁merge	-11.5361
▁tirî	-11.5362
▁folklor	-11.5363
▁şaredarî	-11.5364
▁Konsulê	-11.5366
▁aw	-11.5366
▁îşkence	-11.5367
▁dezgeh	-11.5369
leyê	-11.537
▁hinartin	-11.5371
2007	-11.5372
▁mûşek	-11.5372
nîş	-11.5374
▁girtîyan	-11.5375
▁pêlav	-11.5376
ars	-11.5376
▁şaredar	-11.5376
▁Felestînê	-11.5384
▁bejî	-11.5387
▁ragirtina	-11.5387
hok	-11.5388
▁WAN	-11.5388
▁avabûn	-11.5389
▁Bot	-11.539
▁dizanî	-11.5392
▁hikûmetek	-11.5392
▁abûrîyê	-11.5395
▁êrîşeka	-11.5397
▁TEN	-11.5397
▁Kit	-11.5398
▁Gö	-11.5398
moon	-11.5399
▁Ewrupa	-11.5404
▁deqe	-11.5406
▁gulleyê	-11.541
see	-11.5411
▁wext	-11.5411
roja	-11.5412
viyê	-11.5413
vor	-11.5414
▁gefa	-11.5415
▁Stockholmê	-11.5415
▁diyarî	-11.5415
▁rêkeftin	-11.5417
▁delal	-11.5419
Deng	-11.5419
bs	-11.5419
▁Enbar	-11.542
▁bajer	-11.542
.05.2010	-11.542
▁mehkûm	-11.542
▁Herwesa	-11.542
▁berevajî	-11.542
▁Nîvgirav	-11.542
▁Çareser	-11.542
▁(1995)	-11.542
▁pêşde	-11.5421
▁Dîplomat	-11.5421
▁Kobanê	-11.5421
▁Kaplan	-11.5422
▁Hop	-11.5424
▁bergên	-11.5428
ûç	-11.5429
▁rojnameger	-11.5432
dîr	-11.5432
YEK	-11.5433
sûn	-11.5434
▁behskirin	-11.5438
borî	-11.5438
êv	-11.5441
▁pirse	-11.5441
▁پ	-11.5441
▁fr	-11.5442
▁kovî	-11.5443
ias	-11.5444
▁Herîr	-11.5445
▁çavdêriya	-11.5445
▁peyvan	-11.5447
▁şandeyek	-11.5449
▁Şano	-11.5451
▁Elçî	-11.5452
▁Felestînî	-11.5455
kek	-11.5461
▁bihêztir	-11.5462
jiyan	-11.5465
kiri	-11.5466
▁خ	-11.5466
▁Wind	-11.5467
▁heyvan	-11.5467
▁Îd	-11.5467
▁Jina	-11.5472
▁veguhaztin	-11.5472
ize	-11.5473
îdî	-11.5474
▁rêze	-11.5475
▁çêkirî	-11.5477
▁Pres	-11.5478
▁ferq	-11.5479
rme	-11.5481
▁pişikdarî	-11.5484
▁Osmanîyan	-11.5484
Sal	-11.5485
▁cû	-11.5485
▁(9	-11.5491
▁ک	-11.5491
▁keman	-11.5491
▁herfê	-11.5493
▁Bill	-11.5495
▁rêkeftina	-11.5496
▁Sü	-11.5497
▁pareyê	-11.5498
▁qenc	-11.5498
▁Sefer	-11.55
dos	-11.5504
▁derd	-11.5504
▁Brazîl	-11.5508
▁Filistîn	-11.5508
▁KE	-11.551
▁sih	-11.551
▁domand	-11.5511
▁Xet	-11.5512
▁BUDCEY	-11.5513
▁xûrt	-11.5517
▁îhtîmal	-11.5517
ř	-11.5518
▁Istanbolê	-11.5518
▁disekinê	-11.5518
▁norwêcî	-11.5518
▁PÊŞINYAR	-11.5518
π	-11.5518
▁Navdewletî	-11.5519
▁Arthur	-11.5519
▁Air	-11.5519
iran	-11.5519
ada	-11.5519
▁distîne	-11.5519
▁mertal	-11.552
▁Norşîn	-11.552
▁Stuttgart	-11.5521
▁Mesud	-11.5521
▁tar	-11.5521
▁Surya	-11.5522
▁amede	-11.5522
▁BÛYE	-11.5524
▁bilindbûna	-11.5524
▁komelgehê	-11.5524
nitz	-11.5525
ûdî	-11.5529
▁Cun	-11.553
▁opera	-11.553
bilind	-11.553
elli	-11.5531
ız	-11.5532
endî	-11.5536
kum	-11.5541
▁agahîyên	-11.5541
▁Swîsreyê	-11.5543
▁bigihîje	-11.5544
nameyên	-11.5545
▁birine	-11.5546
▁Rêveberê	-11.5546
▁navdêr	-11.5546
▁karnameya	-11.5547
▁yekgirtina	-11.5547
▁81	-11.5548
▁yekbûyî	-11.5549
▁rapora	-11.555
▁Misircê	-11.555
GER	-11.5551
▁datîne	-11.5554
▁bac	-11.5554
▁Iraqeka	-11.5556
▁rêzgirtin	-11.5557
▁Belge	-11.5557
▁deman	-11.5558
=300	-11.5559
▁KOM	-11.5559
▁şandek	-11.5562
▁HILBIJARTINÊ	-11.5564
▁enc	-11.5567
seit	-11.5568
birî	-11.557
▁dawe	-11.5571
▁Lîstikvan	-11.5572
▁Seydayê	-11.5572
xaz	-11.5573
sîp	-11.5576
▁Ton	-11.5578
osî	-11.5578
▁bipêş	-11.5579
DC	-11.558
▁paşkevtin	-11.5581
▁heftîya	-11.5585
▁yekalîkirin	-11.559
▁Gulî	-11.559
▁cudayî	-11.5592
▁bît	-11.5592
▁ewna	-11.5594
▁bank	-11.5595
▁Wergera	-11.5597
its	-11.5601
▁Fizîk	-11.5603
dag	-11.5603
▁bazirganên	-11.5605
▁Kong	-11.5606
▁Dêrik	-11.5606
▁girav	-11.5607
▁Kerboran	-11.5608
▁sunî	-11.5612
▁Polonya	-11.5615
▁Behdînan	-11.5617
▁[9:2	-11.5617
▁Îrlenda	-11.5617
▁PÊNC	-11.5617
▁Parlamentoy	-11.5617
▁fel	-11.5618
▁dilîze	-11.5619
▁îdia	-11.5619
▁Sat	-11.5621
▁Ûsiv	-11.5622
▁Îsawî	-11.5622
▁nakim	-11.5622
▁piroje	-11.5623
▁Nord	-11.5626
▁rêzefîlm	-11.5627
▁sol	-11.5628
xwa	-11.5628
▁pêkhateya	-11.5629
▁Mijara	-11.5632
▁Islam	-11.5634
▁karsaz	-11.5634
▁rêje	-11.5635
cîl	-11.5636
▁Nah	-11.5639
▁werziş	-11.5639
▁ewlehîya	-11.564
▁Gula	-11.5642
▁Esad	-11.5642
▁Karên	-11.5645
▁sim	-11.5646
▁|--	-11.5647
▁weberhênanê	-11.5651
▁TEQÎN	-11.5652
▁Reşo	-11.5654
▁xer	-11.5659
Go	-11.566
▁keçek	-11.5661
▁têgîna	-11.5661
▁nexşeya	-11.5663
▁krî	-11.5664
▁Çekî	-11.5665
▁derfetek	-11.5667
▁diran	-11.5668
▁Werger	-11.5669
▁Emar	-11.5669
▁Hikûmetê	-11.5671
▁kesekê	-11.5675
▁Tebaxê	-11.5678
▁sc	-11.5678
sburg	-11.5678
▁peywirdar	-11.5679
▁bun	-11.5679
dig	-11.5681
▁Zerdeştî	-11.5682
▁dirûst	-11.5682
▁Atomî	-11.5683
▁Çep	-11.5684
▁Seray	-11.5685
▁waran	-11.5686
▁Rap	-11.5687
gorî	-11.5689
▁pirojeya	-11.569
▁bajarok	-11.569
▁laz	-11.5693
▁Zanîngehên	-11.5694
▁serketî	-11.5695
▁Nûneran	-11.5697
îyeke	-11.5697
▁Kaz	-11.5698
▁tav	-11.5698
▁rewşenbîrîya	-11.5699
Mon	-11.5703
▁stêra	-11.5706
lew	-11.5707
hop	-11.5712
rûs	-11.5713
kit	-11.5713
▁pêkanî	-11.5714
▁suriştî	-11.5714
▁mol	-11.5715
▁Colemêrg	-11.5715
▁aktrîs	-11.5717
▁Öcalan	-11.5717
▁Dumlûcî	-11.5718
▁Avhewa	-11.5718
▁Hafiz	-11.5718
▁Lezgîn	-11.5718
▁Online	-11.5718
▁Bapîr	-11.5719
▁çareserî	-11.5719
▁bendera	-11.572
▁gemîyên	-11.572
▁êvara	-11.5721
ARÊ	-11.5721
▁Ktv	-11.5722
▁Billboard	-11.5722
▁NÛNERÊN	-11.5722
▁hêşîn	-11.5723
▁NAKE	-11.5724
num	-11.5725
▁Sedsala	-11.5725
▁bihîst	-11.5725
▁bilez	-11.5726
heb	-11.5726
izmê	-11.5726
îko	-11.5729
▁Destûr	-11.573
dîtin	-11.5731
▁Xelq	-11.5731
▁qeyran	-11.5732
▁danana	-11.5733
▁ermen	-11.5734
▁geştevanîyê	-11.5735
▁gihiştiye	-11.5735
▁navçê	-11.5735
▁gerr	-11.5736
▁Axayê	-11.5739
▁giş	-11.5739
▁Dibin	-11.574
▁zan	-11.574
▁sinor	-11.574
▁Bonn	-11.5742
ktorê	-11.5742
▁BAŞ	-11.5742
▁pirsgirêkê	-11.5744
eni	-11.5745
tero	-11.5748
bêje	-11.5749
▁esman	-11.575
ance	-11.5751
▁Selman	-11.5751
▁BIRYAR	-11.5756
ست	-11.5757
▁UN	-11.5758
mera	-11.5759
▁guhertinên	-11.5761
▁Wolf	-11.5761
pil	-11.5763
▁eşîrê	-11.5764
▁kişandî	-11.5766
▁Reh	-11.5766
▁Salim	-11.5768
▁Mü	-11.5771
▁gemîya	-11.5771
85/	-11.5774
Pirtûk	-11.5777
å	-11.5779
▁pêkhatina	-11.5783
▁Cur	-11.5783
ibin	-11.5784
▁xwast	-11.5784
ndir	-11.5784
ciyan	-11.5791
▁komisiyonê	-11.5793
▁DO	-11.5797
▁biryaran	-11.5798
uka	-11.5802
îkan	-11.5802
▁dêrê	-11.5803
▁Win	-11.5803
▁2010'	-11.5807
yiya	-11.5808
▁lêkolînek	-11.5808
▁Luc	-11.5809
▁rahênan	-11.581
▁pirsek	-11.5811
▁şerrekî	-11.5813
senter	-11.5814
pak	-11.5814
▁TÊ	-11.5818
▁parzûn	-11.5818
▁Benjamin	-11.5818
▁Dawûdoglû	-11.5818
▁Festival	-11.5818
▁enfalkirîyan	-11.5818
▁profesyonel	-11.5818
▁Çêrmûgê	-11.5818
ž	-11.5818
▁Dîdevan	-11.5818
▁EBDULMEHDÎ	-11.5818
▁disekine	-11.5818
▁arşîv	-11.5819
▁Babekir	-11.5819
▁Berkeliy	-11.5819
▁govend	-11.582
▁Surî	-11.582
▁rêjîm	-11.5822
▁bergirî	-11.5822
▁lewre	-11.5824
ory	-11.5824
▁Olî	-11.5825
▁tarîx	-11.5825
terî	-11.5826
▁derbeya	-11.5826
▁gasê	-11.5827
▁Îş	-11.5831
▁dol	-11.5832
lke	-11.5832
mut	-11.5832
▁1907	-11.5834
▁Hewl	-11.5834
▁bigih	-11.5838
▁maddî	-11.5839
▁fahmkirin	-11.5841
mît	-11.5842
▁Parêz	-11.5843
nic	-11.5843
▁zanînê	-11.5844
▁Xaça	-11.5844
iro	-11.5845
▁Qerexan	-11.5846
▁havîn	-11.5848
▁1998,	-11.5851
▁başur	-11.5853
▁etnîkî	-11.5854
▁Tetwanê	-11.5855
koy	-11.5856
raniya	-11.5857
ost	-11.5861
▁derhênerê	-11.5863
dus	-11.5864
enstein	-11.5864
(19	-11.5865
▁hetanî	-11.5866
▁gengeşeyan	-11.5867
▁89	-11.5868
▁parast	-11.587
▁tene	-11.5872
pes	-11.5872
▁hêrişa	-11.5872
▁Rhein	-11.5872
▁girînge	-11.5872
zey	-11.5876
▁Bîzans	-11.5876
▁tenduristiyê	-11.5878
▁Birayê	-11.5878
▁miz	-11.5881
dînê	-11.5883
▁Kanadayê	-11.5884
warên	-11.5887
▁qalik	-11.5887
▁hundurê	-11.5894
ons	-11.59
ografiya	-11.5903
Benda	-11.5905
▁gerdûnî	-11.5906
▁hena	-11.5906
ÎNIN	-11.591
▁hir	-11.5911
▁SEROK	-11.5912
▁sedsal	-11.5913
nama	-11.5915
▁PETROL	-11.5916
▁emrê	-11.5917
fus	-11.5917
Du	-11.5919
beta	-11.5919
dine	-11.5919
غ	-11.592
▁Exxon	-11.592
▁Korkmaz	-11.592
▁October	-11.592
▁Suleyman	-11.592
▁Zûlfeqar	-11.592
▁problem	-11.592
▁cewherê	-11.592
▁DERVE	-11.5921
▁Mutleg	-11.5921
▁130	-11.5921
▁(2003)	-11.5921
▁Civakî	-11.5921
▁perleman	-11.5921
▁Lewma	-11.5921
▁Mehemed	-11.5921
▁kenala	-11.5921
▁Bextiyar	-11.5922
▁qebul	-11.5922
▁sazişê	-11.5922
▁pêşket	-11.5923
▁Kultur	-11.5923
▁Hebîb	-11.5924
yun	-11.5925
▁festival	-11.5925
teyên	-11.5926
▁Fatma	-11.5926
ranşarê	-11.5926
etiya	-11.5927
▁sêv	-11.5928
▁hokara	-11.5928
▁Hemed	-11.5929
▁Tîpa	-11.5929
mûs	-11.5929
▁Brazîlê	-11.5931
▁şir	-11.5933
çk	-11.5936
uck	-11.5941
▁Sus	-11.5943
▁digihêje	-11.5944
▁kesayetî	-11.5944
▁xwekujekî	-11.5945
▁Hevserok	-11.5948
▁kêf	-11.5949
▁hen	-11.5949
▁Waşingtonê	-11.595
▁coga	-11.595
niyê	-11.5953
▁Bihê	-11.5955
▁tez	-11.5955
yonê	-11.5955
▁bertek	-11.5956
omb	-11.5957
rane	-11.5958
▁bej	-11.5958
IK	-11.5958
▁pêşketinê	-11.5961
▁Zara	-11.5964
▁werzişê	-11.5964
▁çolê	-11.5965
▁serkirdeyê	-11.5965
hid	-11.5966
▁danûstandinê	-11.5968
▁serfiraz	-11.5972
▁mekanîka	-11.5973
▁Rol	-11.5974
▁nêzîkan	-11.5975
▁navxweya	-11.5975
▁kevne	-11.5978
kêşe	-11.5981
census	-11.5981
▁Şê	-11.5983
▁Amerîk	-11.5983
cil	-11.5984
▁made	-11.5985
▁birêxistin	-11.5986
▁Hunermendê	-11.5987
▁erda	-11.5988
▁birêvebirin	-11.5988
tîl	-11.5989
▁cûre	-11.599
jiyê	-11.5991
▁guhert	-11.5992
reke	-11.5995
hna	-11.5996
diyar	-11.5997
encam	-11.5997
▁riwekek	-11.6003
▁Çay	-11.6003
▁rahînanê	-11.6006
▁fîlman	-11.6007
▁2009'	-11.6008
▁kongire	-11.6009
▁Kuştina	-11.6011
ili	-11.6011
▁zivistan	-11.6011
▁împerator	-11.6012
▁Bajêrê	-11.6013
▁rêberiy	-11.6013
▁mercê	-11.6014
▁Comp	-11.6016
old	-11.6017
▁parlamen	-11.6017
▁Spaniya	-11.6019
▁Şor	-11.602
▁dilhêsayî	-11.6023
▁çapemeniyê	-11.6023
▁xwîşk	-11.6024
svg	-11.6024
▁Bikaranîn	-11.6024
▁şadîmana	-11.6024
▁serdanên	-11.6024
▁Ofîs	-11.6025
▁bistîne	-11.6025
▁despêka	-11.6025
▁Tûrkiye	-11.6025
▁xetabar	-11.6026
▁Wargeha	-11.6027
▁pen	-11.6027
▁Musilman	-11.6028
▁Apple	-11.6028
▁aştîxwaz	-11.6029
▁bizavkarên	-11.603
▁xelatkirin	-11.603
▁yekeyên	-11.6031
▁îroyîn	-11.6032
▁sedsalê	-11.6034
çir	-11.6039
▁1904	-11.6041
▁Mizûrî	-11.6042
▁xistina	-11.6042
▁Rewandizê	-11.6046
▁Turkmanan	-11.6047
▁Yewnanî	-11.6047
▁xelkî	-11.6047
▁apê	-11.6047
▁hundur	-11.6048
keke	-11.6049
herêm	-11.605
}{	-11.605
▁Jî	-11.6052
mmer	-11.6053
çika	-11.6057
Sch	-11.6059
▁serdarê	-11.606
▁zayîn	-11.606
ewr	-11.6064
▁Kerkukê	-11.6065
▁Tru	-11.6066
té	-11.6067
▁rojnamevanekî	-11.6067
▁arastey	-11.6068
pek	-11.6068
▁Nûçe	-11.6069
▁Kanîreşê	-11.6071
▁diplomatkar	-11.6071
▁Sul	-11.6072
▁piştevanîyê	-11.6073
red	-11.6073
▁Qers	-11.6076
▁qonaxê	-11.6076
▁heftiyê	-11.6078
çîr	-11.6078
▁Mex	-11.6081
dihê	-11.6084
▁Japonî	-11.6084
▁folklorî	-11.6085
kop	-11.6086
▁goreyê	-11.6088
▁ŞÎ	-11.6088
tikê	-11.6088
tevlî	-11.6088
sc	-11.609
▁Mîna	-11.6091
▁cemawerê	-11.6091
▁Karwan	-11.6093
2009	-11.6093
▁hilbijart	-11.6094
▁mm	-11.6095
▁pergalê	-11.6095
ği	-11.6098
nerê	-11.6098
▁Milazgirê	-11.6099
▁meclîsê	-11.6099
jiya	-11.6099
yiyan	-11.6099
▁gêr	-11.6103
ANÎYA	-11.6103
▁Lang	-11.6103
▁rabûn	-11.6103
▁inter	-11.6104
▁şên	-11.6104
▁Şev	-11.6109
▁daxuyand	-11.6109
ûp	-11.611
▁akad	-11.611
▁kombest	-11.611
yû	-11.6111
▁Qayîde	-11.6112
▁xiste	-11.6112
mah	-11.6115
▁pêşveçûn	-11.6115
▁destana	-11.6116
▁endazyar	-11.612
ARÎ	-11.6121
Kel	-11.6123
▁Facebook	-11.6123
▁jineke	-11.6123
rîne	-11.6126
^	-11.6127
reta	-11.6127
▁Danûstandin	-11.6128
▁Xwenîşander	-11.6128
▁Şaweys	-11.6128
ά	-11.6128
▁zehf	-11.6128
▁merasîmê	-11.6128
Hrsg	-11.6128
▁Crocus	-11.6128
▁Ernst	-11.6128
▁zewaca	-11.6128
▁Street	-11.6129
▁nişkê	-11.613
▁topbarankirin	-11.613
▁felsefîkî	-11.6131
▁Ziyaret	-11.6131
2008	-11.6132
▁Gelî	-11.6133
▁mifa	-11.6134
şek	-11.6135
iwe	-11.6136
▁Veger	-11.6137
▁Semîr	-11.6138
▁firrokevan	-11.6138
▁Hû	-11.6144
▁navdarên	-11.6145
▁Hînd	-11.6146
▁sîstemê	-11.6148
▁qerebû	-11.6148
axê	-11.615
itan	-11.6152
▁nûjdarî	-11.6152
xim	-11.6153
▁Bask	-11.6154
cad	-11.6155
▁pêşengiya	-11.6156
▁Stêrk	-11.6159
çînî	-11.6159
vaniyê	-11.6161
▁row	-11.6162
▁Nexweş	-11.6163
▁spas	-11.6166
▁Ec	-11.6166
▁fikir	-11.6168
▁Beled	-11.6171
▁1993'	-11.6172
melzemeyê	-11.6173
▁peyamnêr	-11.6173
▁2005:	-11.6173
▁Hon	-11.6174
▁Andre	-11.6174
îro	-11.6174
yiyê	-11.6175
▁şem	-11.6176
▁Amar	-11.6177
îme	-11.6177
▁Girtî	-11.6177
▁87	-11.6183
▁Zanistvanê	-11.6184
▁Sînan	-11.6184
▁mezinahiy	-11.6185
2013;	-11.6185
▁Rastî	-11.6185
▁nûnerênIraq	-11.6187
▁mirine	-11.6188
helbest	-11.6192
▁girtîgeha	-11.6194
▁Tey	-11.6196
▁bikarin	-11.6198
▁berû	-11.6198
edu	-11.6199
▁desthilatdariyê	-11.6199
▁Jimar	-11.62
▁Guh	-11.6201
▁Bulgar	-11.6202
▁bîranîn	-11.6203
iner	-11.6203
iyeka	-11.6204
▁Fre	-11.6205
▁Ebu	-11.6206
Ey	-11.6206
▁Silo	-11.6208
نا	-11.6208
îze	-11.6211
▁heftê	-11.6212
▁Poz	-11.6215
ender	-11.6216
▁pût	-11.6217
afî	-11.6217
gus	-11.6218
weyî	-11.622
dîrok	-11.6221
▁Kı	-11.6222
▁Wit	-11.6222
▁Fîl	-11.6223
▁neft	-11.6228
▁Gerd	-11.623
▁tel	-11.623
weha	-11.6231
▁xandin	-11.6232
eck	-11.6232
▁nîgar	-11.6232
▁PÎROZBAYÎ	-11.6233
▁Ahûramazda	-11.6233
▁Evdirehman	-11.6233
▁makezagon	-11.6233
▁pêywsît	-11.6233
▁bigoşt	-11.6233
▁HINEK	-11.6233
▁Alfred	-11.6233
▁Florida	-11.6233
▁diweşîne	-11.6233
▁rîpel	-11.6234
▁PIŞTÎ	-11.6234
FF	-11.6235
▁zewacê	-11.6235
▁nijadperest	-11.6236
WAR	-11.6238
▁Hekar	-11.6239
▁çêkirine	-11.624
▁1916	-11.624
▁Salnamey	-11.6241
▁sepandina	-11.6241
▁Aso	-11.6241
▁ob	-11.6242
▁kitab	-11.6242
▁dûre	-11.6245
fl	-11.6246
▁Şems	-11.6248
malî	-11.6248
▁maweyek	-11.6249
▁kirrîn	-11.625
▁WÊ	-11.6254
▁evîndar	-11.6257
▁Wen	-11.6261
▁kedî	-11.6261
▁xirok	-11.6262
▁zemînlerza	-11.6262
▁serbajarê	-11.6262
saziyê	-11.6266
▁Wargehê	-11.6267
▁lîmfê	-11.6271
▁Ebdil	-11.6272
▁lawên	-11.6278
rı	-11.6278
▁textê	-11.628
▁herêmek	-11.628
llo	-11.6281
▁Urdonê	-11.6285
▁2002'	-11.6288
▁otombêl	-11.6289
ÛR	-11.6289
▁Bazirganî	-11.6289
▁teş	-11.629
▁bizin	-11.6292
▁marî	-11.6293
▁kûçik	-11.6294
▁Mix	-11.6295
▁Êzidî	-11.6295
г	-11.6295
▁med	-11.6295
biharat	-11.6297
Fransa	-11.6298
Bajar	-11.6299
Partiya	-11.6299
▁Sînemay	-11.63
yaye	-11.6301
Mal	-11.6302
tac	-11.6304
▁berevanî	-11.631
wu	-11.631
▁Aştîyê	-11.631
pîv	-11.6311
▁GO	-11.6312
dı	-11.6313
dîl	-11.632
ام	-11.6321
▁dilxweş	-11.6321
▁kargeha	-11.6322
▁Schl	-11.6323
▁1/2	-11.6325
▁park	-11.6325
▁emro	-11.6326
▁One	-11.6328
▁pêyî	-11.6329
şkî	-11.633
▁guneha	-11.633
▁dişînin	-11.6332
iyûm	-11.6332
tîr	-11.6333
▁Serokkomar	-11.6335
NAMEYA	-11.6335
▁fîzîknasek	-11.6336
▁Agir	-11.6337
▁Hum	-11.6337
▁pîl	-11.6338
▁DIRIST	-11.6339
▁savar	-11.6339
б	-11.6339
▁Awistraliya	-11.6339
▁Zamenhof	-11.6339
▁şkestin	-11.6339
▁grîfon	-11.6339
▁Gelawêj	-11.6339
▁dimeşîne	-11.6339
fûr	-11.6339
▁Fakulteya	-11.634
▁Stalîn	-11.634
▁Elesed	-11.6341
▁derbixe	-11.6341
▁Çelîk	-11.6342
▁bajêrvanîyê	-11.6345
kûr	-11.6347
▁Heşt	-11.6347
▁layen	-11.6349
çı	-11.6351
lip	-11.6352
girtiye	-11.6356
▁op	-11.6356
▁digê	-11.6357
▁gû	-11.6357
ZAN	-11.6361
▁Bîranîn	-11.6361
▁Xesxêrê	-11.6362
▁Big	-11.6363
▁zaniyar	-11.6365
grî	-11.6365
▁terk	-11.6365
▁Xwîn	-11.6366
WAN	-11.6367
Zimanê	-11.6369
▁gerîlla	-11.6369
arvan	-11.6369
▁doktoray	-11.6373
▁Dibêje	-11.6373
▁rojekî	-11.6374
▁Nemir	-11.6375
▁kesayetiya	-11.6375
▁bijarte	-11.6377
▁roje	-11.6378
were	-11.638
▁Nexweşî	-11.6381
▁nivîsîna	-11.6383
▁Schwa	-11.6383
▁Torê	-11.6384
▁lîstek	-11.6384
aca	-11.6385
▁dijiya	-11.6386
▁Sabir	-11.6386
▁hesabê	-11.6387
mîd	-11.6389
▁xebatan	-11.639
▁ramyar	-11.6391
IH	-11.6393
git	-11.6393
▁Are	-11.6394
▁serhejmarî	-11.6394
▁piştîvanîy	-11.6395
▁regez	-11.6398
▁herfa	-11.6398
▁Gef	-11.6399
▁ferz	-11.6401
vre	-11.6402
chu	-11.6403
hay	-11.6404
ÎNA	-11.6408
lag	-11.6411
▁birrgeh	-11.6412
dl	-11.6412
▁Lubnan	-11.6413
▁emê	-11.6413
▁çiyê	-11.6417
▁ardê	-11.6417
▁Kûr	-11.642
TIRÎN	-11.6423
▁Gok	-11.6424
▁Miş	-11.6426
▁hizra	-11.6427
▁Kelê	-11.6427
▁gih	-11.6428
▁peya	-11.6432
▁Berevanî	-11.6433
▁Biro	-11.6434
▁Mehr	-11.6434
enau	-11.6435
menta	-11.6435
îrî	-11.6435
▁pek	-11.6436
▁hestiyê	-11.6437
itin	-11.6438
▁83	-11.6442
▁Pirs	-11.6443
▁Marx	-11.6444
▁Zarokan	-11.6444
ular	-11.6445
▁Rizgarî	-11.6446
▁APWebsite	-11.6447
▁Ahmedînejad	-11.6447
▁FEDERAL	-11.6447
▁Ismayîl	-11.6447
▁Yildirim	-11.6447
▁pezmijok	-11.6447
▁têkoşer	-11.6447
▁Pergala	-11.6447
▁Cibûrî	-11.6447
▁zargotin	-11.6447
▁xanîyê	-11.6447
▁Çîçek	-11.6447
▁Hollanda	-11.6447
▁dijeten	-11.6448
▁Quds	-11.6448
▁HEYE	-11.6448
▁Ked	-11.6449
▁polîtîkaya	-11.645
▁bişon	-11.645
▁Pierre	-11.6451
▁(5	-11.6452
▁Rod	-11.6453
▁DAWÎ	-11.6453
▁kulîlkdar	-11.6454
="3"	-11.6454
▁Rot	-11.6455
▁kompanyayan	-11.6455
kter	-11.6456
?)	-11.6457
urs	-11.6458
▁rûniştin	-11.6461
mîne	-11.6462
▁Hindir	-11.6462
▁girîngîya	-11.6464
▁bez	-11.6464
▁pîşe	-11.6465
▁Ü	-11.6466
▁çawan	-11.6468
▁bitenê	-11.647
dîyye	-11.647
▁Naw	-11.6471
▁86	-11.6472
iri	-11.6474
▁dijminê	-11.6475
▁Pis	-11.6475
▁Tîpê	-11.6475
▁komîta	-11.6475
▁Siûdî	-11.6475
▁sûrî	-11.6477
▁ه	-11.6477
▁Şîe	-11.6477
▁Hîl	-11.6481
RÊ	-11.6482
konsûlxaneya	-11.6482
▁giravê	-11.6483
▁jûra	-11.6484
emer	-11.6485
▁Bîn	-11.6485
▁Nazî	-11.6486
▁komîteyan	-11.6488
▁Romana	-11.6488
▁xanedan	-11.6489
▁akincîbûnê	-11.649
▁dabînkirin	-11.649
yum	-11.6492
▁zanîna	-11.6494
xor	-11.6495
hewa	-11.6496
gne	-11.6496
dt	-11.6497
▁hevkariyê	-11.6497
▁Sex	-11.6498
▁Fred	-11.6499
Sp	-11.6499
buch	-11.65
nie	-11.65
îdê	-11.6502
▁Tim	-11.6503
pû	-11.6503
▁ferhengê	-11.6506
▁Xanedan	-11.6507
▁Rewanê	-11.651
▁Mist	-11.651
dum	-11.6511
▁lawik	-11.6512
▁oldarê	-11.6514
▁nexşe	-11.6515
qir	-11.6517
▁84	-11.6517
▁rabin	-11.6518
ED	-11.6519
▁berpirsîya	-11.652
fal	-11.6521
kam	-11.6521
▁astek	-11.6522
dikir	-11.6523
▁Behram	-11.6523
▁hur	-11.6525
▁lidar	-11.6525
▁Uni	-11.6526
xl	-11.6529
▁Fin	-11.653
şme	-11.6533
sebebê	-11.6535
▁domandin	-11.6539
▁10.000	-11.6539
▁Hilbijartina	-11.654
▁binemal	-11.6541
▁gihîştin	-11.6541
▁hevjîn	-11.6541
▁Gera	-11.6542
ote	-11.6547
▁İn	-11.6547
▁dostên	-11.6548
▁kurdi	-11.655
▁mon	-11.6551
▁Selaheddînê	-11.6552
zy	-11.6554
AK	-11.6554
▁HUSEYN	-11.6556
▁[21:4	-11.6556
▁[9:1	-11.6556
▁İstanbul	-11.6556
▁Asayiş	-11.6556
▁Standard	-11.6556
▁SÛRÎY	-11.6556
▁Yûnis	-11.6556
▁bistînin	-11.6556
▁Francisco	-11.6556
▁South	-11.6556
▁sirgûn	-11.6556
▁serokayetiya	-11.6557
▁pesna	-11.6557
‘	-11.6557
şir	-11.6558
▁efû	-11.6559
▁Kore	-11.656
▁koro	-11.656
▁Royal	-11.6561
▁BÛŞ	-11.6562
Ve	-11.6562
kirîye	-11.6562
▁Xîzanê	-11.6564
marên	-11.6564
▁xebatkar	-11.6564
ial	-11.6565
▁Tab	-11.6567
kiya	-11.657
▁Yenîşehîrê	-11.6571
▁Macaristan	-11.6571
▁îsotê	-11.6572
▁berguman	-11.6572
▁çaw	-11.6573
▁beyanameyekî	-11.6573
▁serrastkirina	-11.6573
▁test	-11.6573
▁Memo	-11.6579
▁Nayê	-11.6579
▁gerîlayê	-11.6581
▁bikuje	-11.6582
iç	-11.6583
▁Dozger	-11.6584
amerika	-11.6584
▁agah	-11.6587
▁EV	-11.6588
▁Elsa	-11.6592
▁Gewr	-11.6595
▁destwerdana	-11.6598
Med	-11.6599
▁Bîzansê	-11.6599
2.5	-11.6599
▁Taybetiy	-11.6601
iti	-11.6602
▁xêrhatina	-11.6604
şid	-11.6607
▁parêzvan	-11.6608
▁Şengalê	-11.6608
şke	-11.6609
▁[1	-11.6609
▁é	-11.661
▁feat	-11.6613
CA	-11.6613
▁(;	-11.6614
▁Kopa	-11.6615
gehan	-11.6615
2004	-11.6616
▁qonaxeka	-11.6617
▁Mid	-11.6619
▁hewldan	-11.662
omet	-11.6621
▁gl	-11.6622
▁Zil	-11.6623
▁Farsî	-11.6624
hrî	-11.6625
▁zîv	-11.6626
▁evînê	-11.6626
jer	-11.6627
▁bay	-11.6627
das	-11.6628
▁ÇÛ	-11.6629
▁çavdêran	-11.6631
stina	-11.6635
ror	-11.6636
▁yewnan	-11.6636
BAR	-11.6639
▁dagirkirin	-11.6642
▁Dirêj	-11.6643
KÊ	-11.6645
▁WEK	-11.6647
▁Miss	-11.6648
▁Science	-11.6649
jimêr	-11.6651
▁Hei	-11.6651
ûtê	-11.6652
▁Laz	-11.6652
▁lı	-11.6653
ette	-11.6653
tey	-11.6656
▁mabû	-11.6656
xul	-11.6658
▁Kongo	-11.6661
▁bersivek	-11.6661
▁Şik	-11.6663
▁Tol	-11.6664
Official	-11.6665
ط	-11.6665
▁Bozarslan	-11.6665
▁Ebdulhadî	-11.6665
▁UNAMI	-11.6665
▁katolîk	-11.6665
▁Krîstiyan	-11.6665
▁Zivistan	-11.6665
▁supasîya	-11.6666
rator	-11.6666
▁pêwist	-11.6666
Gir	-11.6666
▁Doskî	-11.6667
▁Fetah	-11.6667
▁Riz	-11.6668
▁şadîmanê	-11.667
▁Facebookê	-11.667
▁Edebiyat	-11.6671
Koma	-11.6672
▁Hejar	-11.6673
▁dostanîy	-11.6673
▁hiştiye	-11.6673
▁1898	-11.6673
▁Qasimlo	-11.6675
▁Nacî	-11.6678
riye	-11.6678
his	-11.6679
▁É	-11.668
ین	-11.6681
▁sindoqa	-11.6682
▁kirdarê	-11.6684
▁mehekê	-11.6684
▁keştiyê	-11.6684
▁pişikan	-11.6686
▁lîseyê	-11.6686
krin	-11.6686
▁rastîya	-11.6691
▁texmînkirin	-11.6691
▁hêjayî	-11.6694
▁Komarê	-11.6696
▁pêla	-11.6696
şehir	-11.67
▁destxistina	-11.6702
▁hûrî	-11.6704
▁îfade	-11.6704
▁kurên	-11.6704
▁stu	-11.6705
axêv	-11.6706
▁kurrê	-11.6707
▁Çima	-11.6708
وو	-11.6708
▁girtîye	-11.6708
ppe	-11.671
▁şehreza	-11.6712
▁Gû	-11.6713
▁texmînî	-11.6715
▁maweyê	-11.6717
bûnek	-11.6719
▁zemînlerzê	-11.6721
▁pars	-11.6721
htm	-11.6723
ders	-11.6724
▁aliyek	-11.6725
▁tawanê	-11.6725
zîr	-11.6727
▁EZ	-11.6729
gram	-11.6731
kurdi	-11.6731
▁qere	-11.6732
▁Netewey	-11.6732
▁Pav	-11.6733
▁afirandina	-11.6734
▁muhir	-11.6734
werî	-11.6735
Arma	-11.6736
▁xul	-11.6736
▁Elb	-11.6736
reb	-11.6737
▁100.000	-11.6739
▁31'	-11.6739
▁bra	-11.6739
▁Taxa	-11.674
▁firrokeyan	-11.674
▁Wet	-11.6743
▁cihanîn	-11.6744
▁rejîm	-11.6748
▁lîstan	-11.6749
idi	-11.6749
▁ق	-11.675
▁gihijtiy	-11.6752
▁çax	-11.6753
qeza	-11.6754
▁birayane	-11.6754
xwer	-11.6755
▁tac	-11.6755
▁têkoşînê	-11.6756
▁Ege	-11.6757
▁Çîna	-11.6757
DIN	-11.676
▁fêrkirin	-11.676
▁Holenda	-11.676
▁rap	-11.6762
SH	-11.6764
▁Part	-11.6764
▁Gult	-11.6764
▁veto	-11.6765
▁xwarinan	-11.6767
▁Çu	-11.6767
▁Doza	-11.6767
▁Sersinkê	-11.6768
▁Teqîna	-11.677
5'	-11.6771
sip	-11.6775
ettin	-11.6776
▁Beşîkçî	-11.6777
▁Yûsiv	-11.6777
▁mekanîzma	-11.6777
▁karakter	-11.6777
▁Moqt	-11.6777
▁destxweşî	-11.6777
▁Arjentîn	-11.6778
▁aciz	-11.6778
▁hêminî	-11.6779
▁Letîf	-11.6781
▁Paşayê	-11.6781
▁Sto	-11.6782
hêz	-11.6783
▁bavêjin	-11.6783
▁pêşgotin	-11.6783
▁seredan	-11.6784
ské	-11.6785
▁efsane	-11.6787
nig	-11.6788
▁Qan	-11.6789
▁zew	-11.6789
▁°	-11.679
sos	-11.679
▁xweztiye	-11.6793
▁Media	-11.6794
îyetê	-11.6794
▁inglîzî	-11.6795
▁guftûgoyan	-11.6795
▁kîlometran	-11.6795
▁th	-11.6796
show	-11.68
Pi	-11.68
rojhilat	-11.6801
▁hinekan	-11.6806
▁kaset	-11.6806
▁Ama	-11.6808
sson	-11.681
▁gilîname	-11.681
frî	-11.681
▁Nêr	-11.6812
▁Yer	-11.6815
▁Êrîvanê	-11.6815
▁Beşê	-11.6816
▁îş	-11.6816
▁kundir	-11.6818
zil	-11.682
▁hindir	-11.682
▁peywir	-11.6822
▁xas	-11.6825
▁Hindek	-11.6825
▁Koşka	-11.6827
▁daxistin	-11.6828
▁Ola	-11.683
hilat	-11.683
▁çimkî	-11.6832
▁rew	-11.6832
▁eşir	-11.6834
EB	-11.6834
▁Album	-11.6837
▁FIRROKEY	-11.6838
▁hanîn	-11.6838
▁şikandin	-11.684
▁Çimk	-11.6841
8%	-11.6842
▁Îslamiya	-11.6844
مه	-11.6844
▁qonax	-11.6845
▁900	-11.6846
▁Pîre	-11.6847
▁Kot	-11.6847
▁sêdaredanê	-11.6847
ÎNÊ	-11.6847
▁qad	-11.6848
▁Baha	-11.6852
Divê	-11.6854
IV	-11.6855
▁Fêr	-11.6859
▁Komel	-11.6864
▁henase	-11.6864
▁kiribe	-11.6864
Pir	-11.6865
lanî	-11.6869
▁112	-11.6869
vanîya	-11.6869
▁Mend	-11.687
wil	-11.6872
rod	-11.6873
▁keda	-11.6877
xet	-11.6878
▁gûnd	-11.6878
▁DC	-11.688
▁Merc	-11.688
▁avayî	-11.688
▁piyan	-11.688
rib	-11.6882
▁Tiştê	-11.6882
▁hikûm	-11.6883
▁Debar	-11.6884
▁bombeyê	-11.6884
▁qadê	-11.6884
äu	-11.6884
▁protokol	-11.6885
▁Amêdî	-11.6886
▁mix	-11.6886
▁fikar	-11.6887
η	-11.6889
jansaAswataliraq	-11.6889
▁Petrayus	-11.6889
▁Salvador	-11.6889
▁Vladîmîr	-11.6889
▁materyal	-11.6889
▁diguhere	-11.6889
▁perwerdehiyê	-11.6889
▁mongol	-11.6889
▁(1999)	-11.6889
▁unsur	-11.6889
▁hukumeta	-11.689
▁dûgela	-11.689
▁xwînhêner	-11.689
yad	-11.6891
▁Xatûn	-11.6891
▁bibîranîn	-11.6892
▁nasandina	-11.6892
▁fûtbol	-11.6892
▁çer	-11.6892
▁pêkve	-11.6892
▁Dîyarbekir	-11.6893
▁×	-11.6895
▁trans	-11.6896
▁kolon	-11.6896
▁Şax	-11.6898
▁Cûdî	-11.6898
▁Taw	-11.6901
▁Komele	-11.6901
▁Plan	-11.6902
▁maç	-11.6902
▁pêşangeh	-11.6903
▁tenik	-11.6904
▁Res	-11.6905
îzasyon	-11.6905
geran	-11.6906
leben	-11.6906
▁sûcdar	-11.6906
▁ham	-11.6906
sîs	-11.6907
namê	-11.6909
▁Meksîk	-11.6911
▁HAK	-11.6912
▁Saziya	-11.6915
▁KONGIREY	-11.6916
▁çaksazî	-11.6919
waq	-11.6921
▁postan	-11.6922
lands	-11.6924
▁1970'	-11.6926
▁raperîn	-11.6928
▁Institute	-11.6932
▁wez	-11.6936
▁Hed	-11.6936
pter	-11.6939
▁keştî	-11.6941
▁xweza	-11.6942
▁1994'	-11.6943
▁biçûktir	-11.6944
▁Gulistan	-11.6945
▁mirîşk	-11.6948
île	-11.6948
▁Oto	-11.6949
▁miriye	-11.695
▁taybetiyên	-11.6951
▁topan	-11.6955
▁ravekirin	-11.6956
▁parliyamenteran	-11.6956
▁baweriyên	-11.6956
▁bask	-11.6957
▁giştîyên	-11.6958
▁amadekarî	-11.6961
▁tîrêjên	-11.6965
▁buha	-11.6965
Gund	-11.6966
hiz	-11.6972
▁tişta	-11.6972
şû	-11.6974
ziyê	-11.6976
▁RÛ	-11.6976
▁Tewafuq	-11.6976
▁Hên	-11.6977
▁Hene	-11.6977
▁TE	-11.6978
▁xirabtir	-11.6981
▁kiryara	-11.6982
siyona	-11.6984
▁Benth	-11.6994
▁Hesin	-11.6995
▁şermezarkirina	-11.6996
doz	-11.6996
gihandina	-11.6998
▁piştgir	-11.6998
▁îd	-11.6999
▁veqetiya	-11.6999
rîka	-11.6999
▁kurmanciy	-11.7
▁ÎRAN	-11.7002
hukûmeta	-11.7002
▁DOLLAR	-11.7002
▁Geylanî	-11.7002
▁Hollywood	-11.7002
▁Hradiště	-11.7002
▁federedewleta	-11.7002
▁pilandanînê	-11.7002
▁Alexander	-11.7003
▁serhildêr	-11.7003
▁vavartin	-11.7003
▁biqelînin	-11.7003
▁davêje	-11.7003
▁qetilkirin	-11.7003
▁Silopiya	-11.7003
ος	-11.7003
zem	-11.7003
iformes	-11.7003
▁Profesor	-11.7003
▁bikujin	-11.7003
▁Demîrbaş	-11.7003
▁sînûrê	-11.7003
▁Îlaf	-11.7004
▁şidet	-11.7004
▁civ	-11.7004
▁kampanya	-11.7005
▁High	-11.7005
tînî	-11.7006
▁pêşin	-11.7006
▁Hemas	-11.7007
▁çewt	-11.7007
▁Îsota	-11.7007
▁Nûdem	-11.7008
▁weh	-11.7008
▁cihêreng	-11.7009
▁matematîkzan	-11.7009
▁BIDEN	-11.701
dul	-11.701
▁care	-11.7014
▁hevpeymanê	-11.7016
▁Şerefnameyê	-11.7016
▁çêtir	-11.7017
▁pişkek	-11.7018
▁golên	-11.7018
▁Feqî	-11.7019
▁amadebûn	-11.7019
▁piştgiriyê	-11.7019
▁çaverêyî	-11.7019
▁Dere	-11.7024
media	-11.7026
hofen	-11.7031
▁America	-11.7035
birr	-11.7036
▁Dibistan	-11.7037
çim	-11.7039
▁buwe	-11.704
▁teqî	-11.7043
▁mûçeyê	-11.7043
▁Spi	-11.7044
▁Kevir	-11.7044
hik	-11.7046
bata	-11.705
▁Kef	-11.7051
▁1995'	-11.7054
▁kehrebay	-11.7054
biz	-11.7055
▁Zel	-11.7057
▁Netew	-11.7059
▁Moskowê	-11.7059
▁TEQÎNA	-11.706
▁spor	-11.7061
▁Suriye	-11.7062
ETA	-11.7068
▁pêşan	-11.7068
▁berfirehkirina	-11.707
kujî	-11.7071
bot	-11.7074
▁modela	-11.7077
▁bilin	-11.7078
▁vediger	-11.7079
giştî	-11.708
▁têgih	-11.708
çal	-11.708
▁tekezkirin	-11.7083
▁peyivî	-11.7085
hişt	-11.7085
▁berxwedanê	-11.7086
▁Char	-11.709
▁(13	-11.7095
▁Farqînî	-11.7098
▁Xudan	-11.71
mid	-11.7103
▁Rûsan	-11.7103
▁xema	-11.7103
▁serokî	-11.7104
şînin	-11.7107
▁Beraz	-11.7108
▁karek	-11.7108
▁ewlehî	-11.711
▁KEVT	-11.7112
▁nîvgirava	-11.7113
▁Iran	-11.7117
▁KONSUL	-11.7117
▁Fettah	-11.7117
▁mekanizma	-11.7117
▁konsol	-11.7117
▁Akreyî	-11.7117
▁Katolîk	-11.7117
▁Sîdekan	-11.7117
▁hevûdu	-11.7117
▁Kilîsê	-11.7117
▁Adolf	-11.7118
▁Serokomar	-11.7118
▁Necmedîn	-11.7118
▁Încîl	-11.7118
▁Îsraêl	-11.7118
▁Partisi	-11.7119
▁metod	-11.7119
▁fermiy	-11.712
▁seksî	-11.712
▁nabînin	-11.712
anus	-11.7121
▁Boston	-11.7121
EQ	-11.7122
▁Req	-11.7123
▁şal	-11.7123
▁destbi	-11.7124
▁RAGIHANDIN	-11.7125
▁Êlih	-11.7125
▁Karkir	-11.7126
▁Meha	-11.7127
▁Benî	-11.7128
yeta	-11.7129
▁tendiristî	-11.7129
dên	-11.7132
ات	-11.7134
▁rizgarkirina	-11.7134
▁karkirina	-11.7135
▁katî	-11.7135
▁HE	-11.7138
koş	-11.7139
▁Êzdîyan	-11.7139
gü	-11.7139
▁kartol	-11.714
▁xalê	-11.714
▁cihûyan	-11.714
civin	-11.7141
ital	-11.7142
▁lîstikvanê	-11.7144
▁xuyanî	-11.7145
▁vekin	-11.7145
▁konsûlê	-11.7145
bed	-11.7146
▁ENDAM	-11.7147
riq	-11.7148
▁xelatê	-11.715
▁danîne	-11.715
▁Yû	-11.7151
▁Pal	-11.7151
▁Sînema	-11.7155
yekanî	-11.7156
▁Arab	-11.7158
▁berxwedan	-11.7159
▁Penc	-11.716
dun	-11.7162
▁hati	-11.7163
▁ayeta	-11.7164
▁hişê	-11.7164
▁adar	-11.7164
dalet	-11.7166
denge	-11.7166
▁Şûn	-11.7166
▁civaknasî	-11.7168
▁1997'	-11.7171
▁zincîr	-11.7173
’’	-11.7174
giha	-11.7175
▁RÊKEVTIN	-11.7179
▁efserekî	-11.7179
▁See	-11.7181
▁peymanên	-11.7183
▁gavek	-11.7184
▁zordarî	-11.7187
thy	-11.7187
▁zivistana	-11.7188
▁1991'	-11.7189
▁wêneyekê	-11.719
frîn	-11.7191
grad	-11.7191
▁sîstem	-11.7194
birîn	-11.7195
▁Bihar	-11.7196
off	-11.7197
yara	-11.7201
110	-11.7201
kurmancî	-11.7205
▁ALÎ	-11.7205
▁Burma	-11.7206
▁Sand	-11.7206
▁Yon	-11.7207
▁giriftan	-11.7207
hilbijar	-11.7212
Weşanên	-11.7212
▁Qaz	-11.7212
zeya	-11.7212
▁ewey	-11.7213
▁pasdarê	-11.7213
▁dertê	-11.7215
▁mîkro	-11.7217
/4	-11.7217
▁rake	-11.7221
star	-11.7221
çikê	-11.7222
▁Norwêcê	-11.7223
▁not	-11.7223
▁DEP	-11.7223
▁nexweşîyên	-11.7224
▁propagandaya	-11.7225
▁civiya	-11.7225
▁karanîn	-11.7226
▁ز	-11.7227
▁Hus	-11.7227
▁Tewafuqê	-11.7229
vala	-11.7231
▁Destan	-11.7231
▁hoza	-11.7231
NAN	-11.7232
Abdulla	-11.7232
▁RISWA	-11.7234
▁poşman	-11.7234
▁lyga	-11.7234
▁Parlementoy	-11.7234
weiler	-11.7234
▁Millkarî	-11.7234
▁ferhengî	-11.7235
▁Grub	-11.7235
▁despêkê	-11.7235
▁ŞEŞ	-11.7235
▁komelgeha	-11.7235
▁metran	-11.7235
▁Erdnîgariya	-11.7236
▁Milyon	-11.7236
▁Yas	-11.7237
dîk	-11.7237
▁kengî	-11.7237
▁GUL	-11.7237
▁Ludwig	-11.7237
▁Serhad	-11.7238
▁Navxweyî	-11.7239
▁Qed	-11.7239
▁fra	-11.724
▁Tat	-11.7241
ŞA	-11.7242
▁Hezex	-11.7242
▁xwepêşandin	-11.7244
rra	-11.7244
▁Nehrî	-11.7245
▁Racî	-11.7246
vol	-11.7247
▁derxistiye	-11.7249
▁Zêrîn	-11.725
▁Bed	-11.725
UM	-11.725
ement	-11.7251
▁Qela	-11.7251
▁pisîk	-11.7251
▁Kamil	-11.7253
▁xelîfe	-11.7253
▁Poloniya	-11.7254
▁Yewnanistan	-11.7254
▁girtiyê	-11.7255
▁RÊXISTINA	-11.7256
gno	-11.7257
▁Emir	-11.7257
▁Mehsertê	-11.7258
ky	-11.7259
▁Amer	-11.726
▁99	-11.7261
▁neket	-11.7262
▁dilsoz	-11.7263
eşe	-11.7264
slav	-11.7266
▁berpirsyarîy	-11.7266
▁sûnd	-11.7268
▁Asim	-11.7269
▁Mars	-11.727
▁Was	-11.7275
▁Kut	-11.7278
xanî	-11.7279
▁çen	-11.7279
▁Vel	-11.7283
▁naz	-11.7284
bela	-11.7285
▁terorîstekî	-11.7286
ayîş	-11.7288
▁berpirsîyar	-11.729
▁civate	-11.7291
▁Tav	-11.7292
daxwaz	-11.7293
▁Mûs	-11.7294
▁rawestan	-11.7295
▁berpirsiyariya	-11.7297
▁Hesp	-11.7297
▁beyannameyeka	-11.7298
▁zarokekî	-11.73
▁kurteçîrok	-11.7303
▁Balyoz	-11.7306
▁dîdareka	-11.7307
▁cejn	-11.7307
/2010	-11.7307
▁SIYASÎY	-11.7308
▁Zanîn	-11.7309
▁romanî	-11.731
▁1800	-11.7311
▁bêhna	-11.7313
▁paşgir	-11.7316
Turkiye	-11.7316
Şah	-11.7316
ы	-11.7317
▁Hember	-11.7319
▁komele	-11.732
UH	-11.7322
yem	-11.7323
eman	-11.7323
▁nêvxweyî	-11.7325
▁Xuda	-11.7327
▁1500	-11.7327
▁Rûsîya	-11.7328
dinê	-11.7329
▁Fet	-11.7331
▁tayê	-11.7332
▁şaredariya	-11.7335
▁Pon	-11.7336
▁xizmetkirin	-11.7338
▁Helebce	-11.734
▁Rizgariy	-11.734
gaz	-11.734
▁Xwepêşander	-11.7343
▁Yewnanistanê	-11.7344
▁Mill	-11.7345
mala	-11.7345
kola	-11.7346
▁eşîret	-11.7347
polis	-11.7348
▁pêywîstî	-11.7348
▁hû	-11.7349
▁MUHR	-11.7351
ר	-11.7351
▁Dostoyevskî	-11.7351
▁FERMÎ	-11.7351
▁Pezmijok	-11.7351
▁Çemçemal	-11.7351
▁DÎSA	-11.7351
▁Lokman	-11.7351
▁Nebez	-11.7351
▁Radiyoy	-11.7351
▁vîtamîn	-11.7351
▁Zeytûn	-11.7351
▁Şankuş	-11.7351
▁Denmark	-11.7352
▁Mehmud	-11.7352
▁Blue	-11.7352
▁yekîneyên	-11.7352
▁kurtasî	-11.7352
▁derdixin	-11.7354
▁Tunis	-11.7354
▁rûerd	-11.7355
axî	-11.7355
qul	-11.7356
lit	-11.7356
▁(1946	-11.7356
▁Hevpeymaniya	-11.7357
rojhilatê	-11.7358
▁elementek	-11.7359
koç	-11.736
▁1890	-11.7361
▁Sersink	-11.7361
▁أ	-11.7361
▁Qurana	-11.7365
▁Şû	-11.7366
▁Tirs	-11.7366
▁Cîran	-11.7367
▁Lem	-11.7367
▁Hook	-11.7367
▁(8	-11.7369
▁zarava	-11.7369
▁Zîrek	-11.737
▁mirovek	-11.7373
xîn	-11.7373
jîk	-11.7376
▁Ebdula	-11.7377
away	-11.7377
▁kiş	-11.7377
▁mah	-11.7381
orum	-11.7381
▁Melek	-11.7381
▁medî	-11.7382
▁Serhilday	-11.7383
yetî	-11.7384
lly	-11.7384
▁nemane	-11.7385
▁terorîstîya	-11.7386
MER	-11.7386
rach	-11.7386
▁Komarên	-11.7388
▁1960'	-11.7388
▁çileya	-11.7389
Is	-11.739
manên	-11.7391
▁nîşanî	-11.7391
▁ajansê	-11.7392
▁milk	-11.7393
▁zanin	-11.7394
▁qedandin	-11.74
▁gaveke	-11.74
▁Babîl	-11.7402
▁Dîlan	-11.7403
▁Kesê	-11.7407
▁parastî	-11.7408
bijêr	-11.7409
liq	-11.741
EVAN	-11.741
0"	-11.7416
▁GIRING	-11.7418
▁Şiwan	-11.7418
rûk	-11.742
▁Feder	-11.742
parêzî	-11.7421
▁Bûk	-11.7421
▁Hanî	-11.7421
▁xebatkarên	-11.7423
▁Eşkê	-11.7423
▁vekişand	-11.7423
wêran	-11.7425
▁pirsgirêkan	-11.7425
▁goristana	-11.7426
enter	-11.7428
xis	-11.7429
▁Tah	-11.7429
▁pejirandina	-11.743
led	-11.7431
bêjin	-11.7433
▁HEFT	-11.7434
▁jiyane	-11.7435
▁aramîyê	-11.7436
▁Wezîrên	-11.7436
dînî	-11.7437
▁berheman	-11.7438
▁hûner	-11.7439
▁750	-11.744
ZE	-11.7441
▁Mîro	-11.7443
▁Civ	-11.7447
▁pirsyar	-11.7448
▁Somal	-11.7448
▁bandûra	-11.7448
▁111	-11.7451
+1	-11.7451
jtin	-11.7454
▁Eyûb	-11.7456
out	-11.7458
▁çiyan	-11.7459
▁Island	-11.7461
ERA	-11.7462
▁Nexweşiyê	-11.7465
ô	-11.7467
▁geştir	-11.7469
xas	-11.747
▁rêzefîlmê	-11.747
futbol	-11.747
▁metirsî	-11.747
.04.2010	-11.747
▁Hüseyin	-11.747
▁Komputer	-11.747
▁Muweffeq	-11.747
▁Psîkolojî	-11.747
▁kadroyê	-11.747
▁êzidî	-11.747
▁Build	-11.747
▁wesayît	-11.7471
▁KÊM	-11.7471
▁Erdelan	-11.7471
▁Pehlewî	-11.7471
▁pêwendiya	-11.7471
▁Aydogan	-11.7471
▁hedef	-11.7471
▁PESENDKIRIN	-11.7471
▁Denîz	-11.7471
▁nepenî	-11.7471
▁nizim	-11.7473
▁BÊTIRÎ	-11.7473
gli	-11.7474
xêr	-11.7474
▁sîyasetê	-11.7475
▁ŞERR	-11.7475
DO	-11.7476
▁Hav	-11.7477
▁January	-11.7477
▁parzemînê	-11.7477
▁Maxim	-11.7478
ccc	-11.7479
▁başurê	-11.748
▁hûrkirî	-11.748
▁rojhilatî	-11.7481
▁Şemrex	-11.7481
▁Young	-11.7483
▁Pêşî	-11.7485
atum	-11.7487
nor	-11.7488
▁Qil	-11.7489
SI	-11.749
▁Alim	-11.749
▁gîyan	-11.7491
qîq	-11.7492
▁hilbijartî	-11.7494
nasiyê	-11.7494
ito	-11.7494
weşîn	-11.7495
▁çiyayan	-11.7495
▁nêzîkbûna	-11.7501
▁Gelo	-11.7501
▁banê	-11.7502
çêker	-11.7502
▁Emru	-11.7502
▁Sirûd	-11.7502
▁arab	-11.7503
▁şîretkar	-11.7504
▁Norwêc	-11.7505
▁Krist	-11.7509
▁delîl	-11.751
▁Pasdaran	-11.7511
RI	-11.7514
DF	-11.7517
▁gazin	-11.7521
▁demokrasîya	-11.7523
▁Mîn	-11.7524
rehman	-11.7524
▁Xarpêtê	-11.7525
otherium	-11.7526
▁Nîkola	-11.7526
hêzên	-11.7527
▁nekeve	-11.7528
50)	-11.7528
▁qewm	-11.753
▁rûpelan	-11.753
▁zur	-11.7531
▁Santa	-11.7531
▁arm	-11.7533
▁2001'	-11.7533
ketiye	-11.7534
xam	-11.7537
▁birçî	-11.7541
▁gerok	-11.7543
▁derûdora	-11.7543
▁Zaman	-11.7544
▁Hong	-11.7544
▁BIRYARA	-11.7545
▁win	-11.7545
▁hinar	-11.7546
▁sebr	-11.7547
▁dr	-11.7548
▁Sûrê	-11.7549
▁Çinar	-11.7549
▁Gelên	-11.755
▁peywendîyek	-11.755
▁Bikin	-11.755
▁bayê	-11.7551
▁erdheja	-11.7552
▁Tirb	-11.7553
eyekê	-11.7554
▁Up	-11.7555
▁gefan	-11.7558
tenê	-11.756
stêrk	-11.7561
▁qay	-11.7561
▁Mut	-11.7562
▁geh	-11.7564
▁Sûdan	-11.7565
▁nexweşîyê	-11.7566
▁band	-11.7566
▁pêwendî	-11.7567
▁Polîsê	-11.7568
▁Kîmya	-11.757
steya	-11.757
▁50.000	-11.7571
▁îdam	-11.7572
▁Bajarok	-11.7573
kişandin	-11.7574
▁stûn	-11.7574
▁Sho	-11.7576
letîf	-11.7576
chel	-11.7577
▁Buch	-11.7579
olî	-11.7579
▁mijarek	-11.7582
▁Ard	-11.7584
▁ewropa	-11.7587
ulu	-11.7589
▁lat	-11.759
▁BESRA	-11.7591
▁Chicago	-11.7591
▁HELEBÇE	-11.7591
▁Heinrich	-11.7591
▁Menûçêhr	-11.7591
▁Wikileaks	-11.7591
▁Makkeyn	-11.7591
▁Sermawez	-11.7591
▁merasîmek	-11.7591
▁rabigihîne	-11.7591
▁mîtolojiya	-11.7591
▁Brown	-11.7591
▁otobus	-11.7591
▁pêşangehek	-11.7591
▁afrînê	-11.7591
▁Nemsa	-11.7591
field	-11.7592
[...]
